<?xml version="1.0"?>
<MethodSetup Method="BDT::BDTG">
  <GeneralInfo>
    <Info name="TMVA Release" value="4.2.0 [262656]"/>
    <Info name="ROOT Release" value="5.34/09 [336393]"/>
    <Info name="Creator" value="morda"/>
    <Info name="Date" value="Mon Sep  8 12:06:00 2014"/>
    <Info name="Host" value="Linux lxbuild175.cern.ch 2.6.18-308.4.1.el5 #1 SMP Wed Apr 18 16:26:27 CEST 2012 x86_64 x86_64 x86_64 GNU/Linux"/>
    <Info name="Dir" value="/lhcb/users/morda/Bstautau/TMVA-v4.2.0/test"/>
    <Info name="Training events" value="13575"/>
    <Info name="TrainingTime" value="2.27181880e+01"/>
    <Info name="AnalysisType" value="Classification"/>
  </GeneralInfo>
  <Options>
    <Option name="V" modified="Yes">False</Option>
    <Option name="VerbosityLevel" modified="No">Default</Option>
    <Option name="VarTransform" modified="No">None</Option>
    <Option name="H" modified="Yes">False</Option>
    <Option name="CreateMVAPdfs" modified="No">False</Option>
    <Option name="IgnoreNegWeightsInTraining" modified="No">False</Option>
    <Option name="NTrees" modified="Yes">1000</Option>
    <Option name="MaxDepth" modified="Yes">2</Option>
    <Option name="MinNodeSize" modified="Yes">1.5</Option>
    <Option name="nCuts" modified="Yes">20</Option>
    <Option name="BoostType" modified="Yes">Grad</Option>
    <Option name="AdaBoostR2Loss" modified="No">quadratic</Option>
    <Option name="UseBaggedBoost" modified="Yes">True</Option>
    <Option name="Shrinkage" modified="Yes">1.000000e-01</Option>
    <Option name="AdaBoostBeta" modified="No">5.000000e-01</Option>
    <Option name="UseRandomisedTrees" modified="No">False</Option>
    <Option name="UseNvars" modified="No">5</Option>
    <Option name="UsePoissonNvars" modified="No">True</Option>
    <Option name="BaggedSampleFraction" modified="Yes">5.000000e-01</Option>
    <Option name="UseYesNoLeaf" modified="No">True</Option>
    <Option name="NegWeightTreatment" modified="No">ignorenegweightsintraining</Option>
    <Option name="Css" modified="No">1.000000e+00</Option>
    <Option name="Cts_sb" modified="No">1.000000e+00</Option>
    <Option name="Ctb_ss" modified="No">1.000000e+00</Option>
    <Option name="Cbb" modified="No">1.000000e+00</Option>
    <Option name="NodePurityLimit" modified="No">5.000000e-01</Option>
    <Option name="SeparationType" modified="No">giniindex</Option>
    <Option name="DoBoostMonitor" modified="No">False</Option>
    <Option name="UseFisherCuts" modified="No">False</Option>
    <Option name="MinLinCorrForFisher" modified="No">8.000000e-01</Option>
    <Option name="UseExclusiveVars" modified="No">False</Option>
    <Option name="DoPreselection" modified="No">False</Option>
    <Option name="SigToBkgFraction" modified="No">1.000000e+00</Option>
    <Option name="PruneMethod" modified="No">nopruning</Option>
    <Option name="PruneStrength" modified="No">0.000000e+00</Option>
    <Option name="PruningValFraction" modified="No">5.000000e-01</Option>
    <Option name="nEventsMin" modified="No">0</Option>
    <Option name="UseBaggedGrad" modified="No">False</Option>
    <Option name="GradBaggingFraction" modified="No">5.000000e-01</Option>
    <Option name="UseNTrainEvents" modified="No">0</Option>
    <Option name="NNodesMax" modified="No">0</Option>
  </Options>
  <Variables NVar="22">
    <Variable VarIndex="0" Expression="Tau_Vf" Label="Tau_Vf" Title="Tau_Vf" Unit="" Internal="Tau_Vf" Type="F" Min="0.00000000e+00" Max="4.67673206e+00"/>
    <Variable VarIndex="1" Expression="Tau_MPT_iso" Label="Tau_MPT_iso" Title="Tau_MPT_iso" Unit="" Internal="Tau_MPT_iso" Type="F" Min="0.00000000e+00" Max="2.46000000e+02"/>
    <Variable VarIndex="2" Expression="Tau_MPT_iso_UpS" Label="Tau_MPT_iso_UpS" Title="Tau_MPT_iso_UpS" Unit="" Internal="Tau_MPT_iso_UpS" Type="F" Min="0.00000000e+00" Max="2.41000000e+02"/>
    <Variable VarIndex="3" Expression="Tau_MPT_iso_DwS" Label="Tau_MPT_iso_DwS" Title="Tau_MPT_iso_DwS" Unit="" Internal="Tau_MPT_iso_DwS" Type="F" Min="0.00000000e+00" Max="1.23000000e+02"/>
    <Variable VarIndex="4" Expression="Tau_Vf_Max" Label="Tau_Vf_Max" Title="Tau_Vf_Max" Unit="" Internal="Tau_Vf_Max" Type="F" Min="5.55625111e-02" Max="4.62644958e+00"/>
    <Variable VarIndex="5" Expression="Tau_Vf_Max_UpS" Label="Tau_Vf_Max_UpS" Title="Tau_Vf_Max_UpS" Unit="" Internal="Tau_Vf_Max_UpS" Type="F" Min="1.11022302e-16" Max="4.61789799e+00"/>
    <Variable VarIndex="6" Expression="Tau_Vf_Max_DwS" Label="Tau_Vf_Max_DwS" Title="Tau_Vf_Max_DwS" Unit="" Internal="Tau_Vf_Max_DwS" Type="F" Min="3.67153529e-03" Max="4.62644958e+00"/>
    <Variable VarIndex="7" Expression="Tau_Pos_Max" Label="Tau_Pos_Max" Title="Tau_Pos_Max" Unit="" Internal="Tau_Pos_Max" Type="F" Min="-3.00000000e+01" Max="4.91500015e+01"/>
    <Variable VarIndex="8" Expression="Tau_Pos_Max_UpS" Label="Tau_Pos_Max_UpS" Title="Tau_Pos_Max_UpS" Unit="" Internal="Tau_Pos_Max_UpS" Type="F" Min="5.00000007e-02" Max="4.99500008e+01"/>
    <Variable VarIndex="9" Expression="Tau_Pos_Max_DwS" Label="Tau_Pos_Max_DwS" Title="Tau_Pos_Max_DwS" Unit="" Internal="Tau_Pos_Max_DwS" Type="F" Min="-3.00000000e+01" Max="0.00000000e+00"/>
    <Variable VarIndex="10" Expression="Tau_sum_Vf_Maxs" Label="Tau_sum_Vf_Maxs" Title="Tau_sum_Vf_Maxs" Unit="" Internal="Tau_sum_Vf_Maxs" Type="F" Min="0.00000000e+00" Max="1.55228592e+02"/>
    <Variable VarIndex="11" Expression="Tau_sum_Vf_Maxs_UpS" Label="Tau_sum_Vf_Maxs_UpS" Title="Tau_sum_Vf_Maxs_UpS" Unit="" Internal="Tau_sum_Vf_Maxs_UpS" Type="F" Min="0.00000000e+00" Max="1.39504196e+02"/>
    <Variable VarIndex="12" Expression="Tau_zv_same" Label="Tau_zv_same" Title="Tau_zv_same" Unit="" Internal="Tau_zv_same" Type="F" Min="0.00000000e+00" Max="3.00000000e+00"/>
    <Variable VarIndex="13" Expression="Tau_zv_ipall" Label="Tau_zv_ipall" Title="Tau_zv_ipall" Unit="" Internal="Tau_zv_ipall" Type="F" Min="1.68935722e-03" Max="3.00000000e+05"/>
    <Variable VarIndex="14" Expression="Tau_zv_dist" Label="Tau_zv_dist" Title="Tau_zv_dist" Unit="" Internal="Tau_zv_dist" Type="F" Min="-3.00000000e+01" Max="9.96409180e+03"/>
    <Variable VarIndex="15" Expression="Tau_zv_ntrkvtz" Label="Tau_zv_ntrkvtz" Title="Tau_zv_ntrkvtz" Unit="" Internal="Tau_zv_ntrkvtz" Type="F" Min="-3.00000000e+00" Max="3.00000000e+01"/>
    <Variable VarIndex="16" Expression="Tau_zv_max_ipall" Label="Tau_zv_max_ipall" Title="Tau_zv_max_ipall" Unit="" Internal="Tau_zv_max_ipall" Type="F" Min="9.78762866e-04" Max="1.00000000e+05"/>
    <Variable VarIndex="17" Expression="Tau_zv_max_dist" Label="Tau_zv_max_dist" Title="Tau_zv_max_dist" Unit="" Internal="Tau_zv_max_dist" Type="F" Min="0.00000000e+00" Max="9.93516797e+03"/>
    <Variable VarIndex="18" Expression="Tau_zv_max_ntrkvtz" Label="Tau_zv_max_ntrkvtz" Title="Tau_zv_max_ntrkvtz" Unit="" Internal="Tau_zv_max_ntrkvtz" Type="F" Min="0.00000000e+00" Max="1.00000000e+01"/>
    <Variable VarIndex="19" Expression="Tau_zv_min_ipall" Label="Tau_zv_min_ipall" Title="Tau_zv_min_ipall" Unit="" Internal="Tau_zv_min_ipall" Type="F" Min="4.01980697e-06" Max="1.00000000e+03"/>
    <Variable VarIndex="20" Expression="Tau_zv_min_dist" Label="Tau_zv_min_dist" Title="Tau_zv_min_dist" Unit="" Internal="Tau_zv_min_dist" Type="F" Min="-1.00000000e+01" Max="1.32612137e+02"/>
    <Variable VarIndex="21" Expression="Tau_zv_min_ntrkvtz" Label="Tau_zv_min_ntrkvtz" Title="Tau_zv_min_ntrkvtz" Unit="" Internal="Tau_zv_min_ntrkvtz" Type="F" Min="-1.00000000e+00" Max="1.00000000e+01"/>
  </Variables>
  <Spectators NSpec="0"/>
  <Classes NClass="2">
    <Class Name="Signal" Index="0"/>
    <Class Name="Background" Index="1"/>
  </Classes>
  <Transformations NTransformations="0"/>
  <MVAPdfs/>
  <Weights NTrees="1000" AnalysisType="1">
    <BinaryTree type="DecisionTree" boostWeight="1.0000000000000000e+00" itree="0">
      <Node pos="s" depth="0" NCoef="0" IVar="18" Cut="6.4285712242126465e+00" cType="1" res="9.3892281875014305e-03" rms="4.9991184473037720e-01" purity="5.0938922166824341e-01" nType="0">
        <Node pos="l" depth="1" NCoef="0" IVar="4" Cut="1.8055636882781982e+00" cType="1" res="9.4200775027275085e-02" rms="4.9104604125022888e-01" purity="5.9420073032379150e-01" nType="0">
          <Node pos="l" depth="2" NCoef="0" IVar="-1" Cut="0.0000000000000000e+00" cType="1" res="2.3671148344874382e-02" rms="4.4707089662551880e-01" purity="7.2389191389083862e-01" nType="-99"/>
          <Node pos="r" depth="2" NCoef="0" IVar="-1" Cut="0.0000000000000000e+00" cType="1" res="-3.0708999838680029e-03" rms="4.9895986914634705e-01" purity="4.6776568889617920e-01" nType="-99"/>
        </Node>
        <Node pos="r" depth="1" NCoef="0" IVar="20" Cut="1.0879556655883789e+01" cType="1" res="-4.0662997961044312e-01" rms="2.9095026850700378e-01" purity="9.3370020389556885e-02" nType="0">
          <Node pos="l" depth="2" NCoef="0" IVar="-1" Cut="0.0000000000000000e+00" cType="1" res="-1.2875990942120552e-02" rms="4.0857166051864624e-01" purity="2.1178270876407623e-01" nType="-99"/>
          <Node pos="r" depth="2" NCoef="0" IVar="-1" Cut="0.0000000000000000e+00" cType="1" res="-1.5994384884834290e-02" rms="2.4871863424777985e-01" purity="6.6250033676624298e-02" nType="-99"/>
        </Node>
      </Node>
    </BinaryTree>
    <BinaryTree type="DecisionTree" boostWeight="1.0000000000000000e+00" itree="1">
      <Node pos="s" depth="0" NCoef="0" IVar="18" Cut="6.4285712242126465e+00" cType="1" res="-6.2977657653391361e-03" rms="4.9656677246093750e-01" purity="4.9655959010124207e-01" nType="0">
        <Node pos="l" depth="1" NCoef="0" IVar="4" Cut="1.8055636882781982e+00" cType="1" res="8.7001204490661621e-02" rms="4.8963937163352966e-01" purity="5.9233105182647705e-01" nType="0">
          <Node pos="l" depth="2" NCoef="0" IVar="-1" Cut="0.0000000000000000e+00" cType="1" res="2.2470537573099136e-02" rms="4.4828414916992188e-01" purity="7.2145277261734009e-01" nType="-99"/>
          <Node pos="r" depth="2" NCoef="0" IVar="-1" Cut="0.0000000000000000e+00" cType="1" res="-2.9813791625201702e-03" rms="4.9806270003318787e-01" purity="4.5602807402610779e-01" nType="-99"/>
        </Node>
        <Node pos="r" depth="1" NCoef="0" IVar="20" Cut="1.0879556655883789e+01" cType="1" res="-4.0513187646865845e-01" rms="2.8196424245834351e-01" purity="8.7156176567077637e-02" nType="0">
          <Node pos="l" depth="2" NCoef="0" IVar="-1" Cut="0.0000000000000000e+00" cType="1" res="-1.2606959789991379e-02" rms="3.8946530222892761e-01" purity="1.8644492328166962e-01" nType="-99"/>
          <Node pos="r" depth="2" NCoef="0" IVar="-1" Cut="0.0000000000000000e+00" cType="1" res="-1.5702845528721809e-02" rms="2.4650089442729950e-01" purity="6.4985848963260651e-02" nType="-99"/>
        </Node>
      </Node>
    </BinaryTree>
    <BinaryTree type="DecisionTree" boostWeight="1.0000000000000000e+00" itree="2">
      <Node pos="s" depth="0" NCoef="0" IVar="4" Cut="1.8014823198318481e+00" cType="1" res="-1.8084144219756126e-02" rms="4.9321272969245911e-01" purity="4.8719996213912964e-01" nType="0">
        <Node pos="l" depth="1" NCoef="0" IVar="18" Cut="5.1428570747375488e+00" cType="1" res="1.8931438028812408e-01" rms="4.5170485973358154e-01" purity="7.1062552928924561e-01" nType="0">
          <Node pos="l" depth="2" NCoef="0" IVar="-1" Cut="0.0000000000000000e+00" cType="1" res="2.7367830276489258e-02" rms="4.1076004505157471e-01" purity="7.8508973121643066e-01" nType="-99"/>
          <Node pos="r" depth="2" NCoef="0" IVar="-1" Cut="0.0000000000000000e+00" cType="1" res="9.8497443832457066e-04" rms="4.9663677811622620e-01" purity="4.9653196334838867e-01" nType="-99"/>
        </Node>
        <Node pos="r" depth="1" NCoef="0" IVar="18" Cut="6.4285712242126465e+00" cType="1" res="-1.6630576550960541e-01" rms="4.6752399206161499e-01" purity="3.2752427458763123e-01" nType="0">
          <Node pos="l" depth="2" NCoef="0" IVar="-1" Cut="0.0000000000000000e+00" cType="1" res="-2.8549998532980680e-03" rms="4.9315559864044189e-01" purity="4.1791135072708130e-01" nType="-99"/>
          <Node pos="r" depth="2" NCoef="0" IVar="-1" Cut="0.0000000000000000e+00" cType="1" res="-1.5246910043060780e-02" rms="2.5641882419586182e-01" purity="7.0838682353496552e-02" nType="-99"/>
        </Node>
      </Node>
    </BinaryTree>
    <BinaryTree type="DecisionTree" boostWeight="1.0000000000000000e+00" itree="3">
      <Node pos="s" depth="0" NCoef="0" IVar="18" Cut="6.1904764175415039e+00" cType="1" res="2.5175677146762609e-03" rms="4.8950231075286865e-01" purity="5.1033031940460205e-01" nType="0">
        <Node pos="l" depth="1" NCoef="0" IVar="5" Cut="1.9239534139633179e+00" cType="1" res="8.7531268596649170e-02" rms="4.8327904939651489e-01" purity="6.0194152593612671e-01" nType="0">
          <Node pos="l" depth="2" NCoef="0" IVar="-1" Cut="0.0000000000000000e+00" cType="1" res="1.3634602539241314e-02" rms="4.5556801557540894e-01" purity="6.9664514064788818e-01" nType="-99"/>
          <Node pos="r" depth="2" NCoef="0" IVar="-1" Cut="0.0000000000000000e+00" cType="1" res="-5.8458456769585609e-03" rms="4.8688867688179016e-01" purity="3.8624840974807739e-01" nType="-99"/>
        </Node>
        <Node pos="r" depth="1" NCoef="0" IVar="15" Cut="2.2000000000000000e+01" cType="1" res="-3.8119858503341675e-01" rms="2.9508969187736511e-01" purity="9.6835866570472717e-02" nType="0">
          <Node pos="l" depth="2" NCoef="0" IVar="-1" Cut="0.0000000000000000e+00" cType="1" res="-1.3873415999114513e-02" rms="3.3608794212341309e-01" purity="1.3046222925186157e-01" nType="-99"/>
          <Node pos="r" depth="2" NCoef="0" IVar="-1" Cut="0.0000000000000000e+00" cType="1" res="-1.5930661931633949e-02" rms="1.9296248257160187e-01" purity="3.8787081837654114e-02" nType="-99"/>
        </Node>
      </Node>
    </BinaryTree>
    <BinaryTree type="DecisionTree" boostWeight="1.0000000000000000e+00" itree="4">
      <Node pos="s" depth="0" NCoef="0" IVar="4" Cut="1.7909219264984131e+00" cType="1" res="-1.5093223191797733e-02" rms="4.8723587393760681e-01" purity="4.9474337697029114e-01" nType="0">
        <Node pos="l" depth="1" NCoef="0" IVar="18" Cut="3.0476191043853760e+00" cType="1" res="1.9325624406337738e-01" rms="4.3917548656463623e-01" purity="7.3089426755905151e-01" nType="0">
          <Node pos="l" depth="2" NCoef="0" IVar="-1" Cut="0.0000000000000000e+00" cType="1" res="4.5529950410127640e-02" rms="3.2767301797866821e-01" purity="8.7766444683074951e-01" nType="-99"/>
          <Node pos="r" depth="2" NCoef="0" IVar="-1" Cut="0.0000000000000000e+00" cType="1" res="5.4067545570433140e-03" rms="4.8303094506263733e-01" purity="6.1064493656158447e-01" nType="-99"/>
        </Node>
        <Node pos="r" depth="1" NCoef="0" IVar="18" Cut="6.4285712242126465e+00" cType="1" res="-1.5886415541172028e-01" rms="4.6636632084846497e-01" purity="3.3178818225860596e-01" nType="0">
          <Node pos="l" depth="2" NCoef="0" IVar="-1" Cut="0.0000000000000000e+00" cType="1" res="-2.7803154662251472e-03" rms="4.9227395653724670e-01" purity="4.1811469197273254e-01" nType="-99"/>
          <Node pos="r" depth="2" NCoef="0" IVar="-1" Cut="0.0000000000000000e+00" cType="1" res="-1.4725164510309696e-02" rms="2.5652050971984863e-01" purity="7.0959411561489105e-02" nType="-99"/>
        </Node>
      </Node>
    </BinaryTree>
    <BinaryTree type="DecisionTree" boostWeight="1.0000000000000000e+00" itree="5">
      <Node pos="s" depth="0" NCoef="0" IVar="18" Cut="6.4285712242126465e+00" cType="1" res="4.8773558810353279e-03" rms="4.8331785202026367e-01" purity="5.1790457963943481e-01" nType="0">
        <Node pos="l" depth="1" NCoef="0" IVar="4" Cut="1.7906887531280518e+00" cType="1" res="8.9603148400783539e-02" rms="4.7787600755691528e-01" purity="6.1326181888580322e-01" nType="0">
          <Node pos="l" depth="2" NCoef="0" IVar="-1" Cut="0.0000000000000000e+00" cType="1" res="1.9071949645876884e-02" rms="4.2117902636528015e-01" purity="7.6448535919189453e-01" nType="-99"/>
          <Node pos="r" depth="2" NCoef="0" IVar="-1" Cut="0.0000000000000000e+00" cType="1" res="-2.6938330847769976e-03" rms="4.9898818135261536e-01" purity="4.7320291399955750e-01" nType="-99"/>
        </Node>
        <Node pos="r" depth="1" NCoef="0" IVar="5" Cut="1.9045792818069458e+00" cType="1" res="-3.8232395052909851e-01" rms="2.7344045042991638e-01" purity="8.2116723060607910e-02" nType="0">
          <Node pos="l" depth="2" NCoef="0" IVar="-1" Cut="0.0000000000000000e+00" cType="1" res="-1.2731029652059078e-02" rms="3.5907143354415894e-01" purity="1.5355204045772552e-01" nType="-99"/>
          <Node pos="r" depth="2" NCoef="0" IVar="-1" Cut="0.0000000000000000e+00" cType="1" res="-1.4704418368637562e-02" rms="2.3323796689510345e-01" purity="5.7820618152618408e-02" nType="-99"/>
        </Node>
      </Node>
    </BinaryTree>
    <BinaryTree type="DecisionTree" boostWeight="1.0000000000000000e+00" itree="6">
      <Node pos="s" depth="0" NCoef="0" IVar="18" Cut="6.4285712242126465e+00" cType="1" res="-3.0602229759097099e-02" rms="4.8129534721374512e-01" purity="4.8302799463272095e-01" nType="0">
        <Node pos="l" depth="1" NCoef="0" IVar="4" Cut="2.5556874275207520e+00" cType="1" res="4.3787389993667603e-02" rms="4.8412916064262390e-01" purity="5.6973880529403687e-01" nType="0">
          <Node pos="l" depth="2" NCoef="0" IVar="-1" Cut="0.0000000000000000e+00" cType="1" res="8.8401148095726967e-03" rms="4.7222694754600525e-01" purity="6.3973867893218994e-01" nType="-99"/>
          <Node pos="r" depth="2" NCoef="0" IVar="-1" Cut="0.0000000000000000e+00" cType="1" res="-8.8011082261800766e-03" rms="4.3776521086692810e-01" purity="2.5878569483757019e-01" nType="-99"/>
        </Node>
        <Node pos="r" depth="1" NCoef="0" IVar="5" Cut="1.9938853979110718e+00" cType="1" res="-3.7266737222671509e-01" rms="2.7678588032722473e-01" purity="8.4306865930557251e-02" nType="0">
          <Node pos="l" depth="2" NCoef="0" IVar="-1" Cut="0.0000000000000000e+00" cType="1" res="-1.2740304693579674e-02" rms="3.7517586350440979e-01" purity="1.7047889530658722e-01" nType="-99"/>
          <Node pos="r" depth="2" NCoef="0" IVar="-1" Cut="0.0000000000000000e+00" cType="1" res="-1.4463314786553383e-02" rms="2.3007047176361084e-01" purity="5.6201092898845673e-02" nType="-99"/>
        </Node>
      </Node>
    </BinaryTree>
    <BinaryTree type="DecisionTree" boostWeight="1.0000000000000000e+00" itree="7">
      <Node pos="s" depth="0" NCoef="0" IVar="18" Cut="6.4285712242126465e+00" cType="1" res="-2.7178356423974037e-02" rms="4.7980260848999023e-01" purity="4.8887833952903748e-01" nType="0">
        <Node pos="l" depth="1" NCoef="0" IVar="5" Cut="1.9496289491653442e+00" cType="1" res="4.2388502508401871e-02" rms="4.8306474089622498e-01" purity="5.7203257083892822e-01" nType="0">
          <Node pos="l" depth="2" NCoef="0" IVar="-1" Cut="0.0000000000000000e+00" cType="1" res="1.1226500384509563e-02" rms="4.6627309918403625e-01" purity="6.6013926267623901e-01" nType="-99"/>
          <Node pos="r" depth="2" NCoef="0" IVar="-1" Cut="0.0000000000000000e+00" cType="1" res="-5.8966092765331268e-03" rms="4.7813424468040466e-01" purity="3.5612472891807556e-01" nType="-99"/>
        </Node>
        <Node pos="r" depth="1" NCoef="0" IVar="20" Cut="1.0880680084228516e+01" cType="1" res="-3.6428973078727722e-01" rms="2.7909460663795471e-01" purity="8.5924252867698669e-02" nType="0">
          <Node pos="l" depth="2" NCoef="0" IVar="-1" Cut="0.0000000000000000e+00" cType="1" res="-1.1092643253505230e-02" rms="3.7832769751548767e-01" purity="1.7417116463184357e-01" nType="-99"/>
          <Node pos="r" depth="2" NCoef="0" IVar="-1" Cut="0.0000000000000000e+00" cType="1" res="-1.4269917272031307e-02" rms="2.3195758461952209e-01" purity="5.7444762438535690e-02" nType="-99"/>
        </Node>
      </Node>
    </BinaryTree>
    <BinaryTree type="DecisionTree" boostWeight="1.0000000000000000e+00" itree="8">
      <Node pos="s" depth="0" NCoef="0" IVar="18" Cut="6.4285712242126465e+00" cType="1" res="-2.6597289368510246e-02" rms="4.7785374522209167e-01" purity="4.9069780111312866e-01" nType="0">
        <Node pos="l" depth="1" NCoef="0" IVar="5" Cut="2.1156017780303955e+00" cType="1" res="4.8251308500766754e-02" rms="4.8165503144264221e-01" purity="5.8242160081863403e-01" nType="0">
          <Node pos="l" depth="2" NCoef="0" IVar="-1" Cut="0.0000000000000000e+00" cType="1" res="9.3536926433444023e-03" rms="4.6745446324348450e-01" purity="6.6106432676315308e-01" nType="-99"/>
          <Node pos="r" depth="2" NCoef="0" IVar="-1" Cut="0.0000000000000000e+00" cType="1" res="-6.8089137785136700e-03" rms="4.6784275770187378e-01" purity="3.2519170641899109e-01" nType="-99"/>
        </Node>
        <Node pos="r" depth="1" NCoef="0" IVar="6" Cut="1.8739160299301147e+00" cType="1" res="-3.5366535186767578e-01" rms="2.8452065587043762e-01" purity="8.9889548718929291e-02" nType="0">
          <Node pos="l" depth="2" NCoef="0" IVar="-1" Cut="0.0000000000000000e+00" cType="1" res="-1.1812739074230194e-02" rms="3.9034035801887512e-01" purity="1.9022959470748901e-01" nType="-99"/>
          <Node pos="r" depth="2" NCoef="0" IVar="-1" Cut="0.0000000000000000e+00" cType="1" res="-1.3878175057470798e-02" rms="2.4599139392375946e-01" purity="6.4911931753158569e-02" nType="-99"/>
        </Node>
      </Node>
    </BinaryTree>
    <BinaryTree type="DecisionTree" boostWeight="1.0000000000000000e+00" itree="9">
      <Node pos="s" depth="0" NCoef="0" IVar="18" Cut="6.1904764175415039e+00" cType="1" res="-1.7212770879268646e-02" rms="4.7510990500450134e-01" purity="5.0130951404571533e-01" nType="0">
        <Node pos="l" depth="1" NCoef="0" IVar="4" Cut="1.8057407140731812e+00" cType="1" res="5.1684003323316574e-02" rms="4.7787806391716003e-01" purity="5.8703875541687012e-01" nType="0">
          <Node pos="l" depth="2" NCoef="0" IVar="-1" Cut="0.0000000000000000e+00" cType="1" res="1.6230996698141098e-02" rms="4.2601162195205688e-01" purity="7.5648868083953857e-01" nType="-99"/>
          <Node pos="r" depth="2" NCoef="0" IVar="-1" Cut="0.0000000000000000e+00" cType="1" res="-2.9135253280401230e-03" rms="4.9205690622329712e-01" purity="4.2775860428810120e-01" nType="-99"/>
        </Node>
        <Node pos="r" depth="1" NCoef="0" IVar="20" Cut="1.3816663742065430e+01" cType="1" res="-3.4861820936203003e-01" rms="2.8350967168807983e-01" purity="8.8937252759933472e-02" nType="0">
          <Node pos="l" depth="2" NCoef="0" IVar="-1" Cut="0.0000000000000000e+00" cType="1" res="-1.1109326966106892e-02" rms="3.8544428348541260e-01" purity="1.8299502134323120e-01" nType="-99"/>
          <Node pos="r" depth="2" NCoef="0" IVar="-1" Cut="0.0000000000000000e+00" cType="1" res="-1.3944451697170734e-02" rms="2.3078854382038116e-01" purity="5.6585129350423813e-02" nType="-99"/>
        </Node>
      </Node>
    </BinaryTree>
    <BinaryTree type="DecisionTree" boostWeight="1.0000000000000000e+00" itree="10">
      <Node pos="s" depth="0" NCoef="0" IVar="18" Cut="6.4285712242126465e+00" cType="1" res="-3.6312639713287354e-02" rms="4.7467213869094849e-01" purity="4.8419851064682007e-01" nType="0">
        <Node pos="l" depth="1" NCoef="0" IVar="5" Cut="1.9496282339096069e+00" cType="1" res="3.1719524413347244e-02" rms="4.8198559880256653e-01" purity="5.7210063934326172e-01" nType="0">
          <Node pos="l" depth="2" NCoef="0" IVar="-1" Cut="0.0000000000000000e+00" cType="1" res="9.9321175366640091e-03" rms="4.6841213107109070e-01" purity="6.5879857540130615e-01" nType="-99"/>
          <Node pos="r" depth="2" NCoef="0" IVar="-1" Cut="0.0000000000000000e+00" cType="1" res="-5.5824900045990944e-03" rms="4.7972306609153748e-01" purity="3.6207547783851624e-01" nType="-99"/>
        </Node>
        <Node pos="r" depth="1" NCoef="0" IVar="3" Cut="2.2857143878936768e+00" cType="0" res="-3.4542736411094666e-01" rms="2.7738490700721741e-01" purity="8.4801584482192993e-02" nType="0">
          <Node pos="l" depth="2" NCoef="0" IVar="-1" Cut="0.0000000000000000e+00" cType="1" res="-1.1760383844375610e-02" rms="3.6403384804725647e-01" purity="1.5864662826061249e-01" nType="-99"/>
          <Node pos="r" depth="2" NCoef="0" IVar="-1" Cut="0.0000000000000000e+00" cType="1" res="-1.3797162100672722e-02" rms="2.0780952274799347e-01" purity="4.5672487467527390e-02" nType="-99"/>
        </Node>
      </Node>
    </BinaryTree>
    <BinaryTree type="DecisionTree" boostWeight="1.0000000000000000e+00" itree="11">
      <Node pos="s" depth="0" NCoef="0" IVar="4" Cut="2.0151226520538330e+00" cType="1" res="-3.3404383808374405e-02" rms="4.7167077660560608e-01" purity="4.8622062802314758e-01" nType="0">
        <Node pos="l" depth="1" NCoef="0" IVar="18" Cut="3.4285714626312256e+00" cType="1" res="9.6245966851711273e-02" rms="4.6127584576606750e-01" purity="6.6065996885299683e-01" nType="0">
          <Node pos="l" depth="2" NCoef="0" IVar="-1" Cut="0.0000000000000000e+00" cType="1" res="3.1281769275665283e-02" rms="3.9492872357368469e-01" purity="8.0256986618041992e-01" nType="-99"/>
          <Node pos="r" depth="2" NCoef="0" IVar="-1" Cut="0.0000000000000000e+00" cType="1" res="1.0612907353788614e-03" rms="4.8502162098884583e-01" purity="5.7036244869232178e-01" nType="-99"/>
        </Node>
        <Node pos="r" depth="1" NCoef="0" IVar="18" Cut="6.4285712242126465e+00" cType="1" res="-1.8867541849613190e-01" rms="4.3571504950523376e-01" purity="2.7730980515480042e-01" nType="0">
          <Node pos="l" depth="2" NCoef="0" IVar="-1" Cut="0.0000000000000000e+00" cType="1" res="-4.2582415044307709e-03" rms="4.8333245515823364e-01" purity="3.8451838493347168e-01" nType="-99"/>
          <Node pos="r" depth="2" NCoef="0" IVar="-1" Cut="0.0000000000000000e+00" cType="1" res="-1.3326901011168957e-02" rms="2.5285917520523071e-01" purity="6.8926915526390076e-02" nType="-99"/>
        </Node>
      </Node>
    </BinaryTree>
    <BinaryTree type="DecisionTree" boostWeight="1.0000000000000000e+00" itree="12">
      <Node pos="s" depth="0" NCoef="0" IVar="18" Cut="6.1904764175415039e+00" cType="1" res="-1.9716082140803337e-02" rms="4.7126799821853638e-01" purity="5.0388479232788086e-01" nType="0">
        <Node pos="l" depth="1" NCoef="0" IVar="4" Cut="2.5684530735015869e+00" cType="1" res="4.8189040273427963e-02" rms="4.7684669494628906e-01" purity="5.9500461816787720e-01" nType="0">
          <Node pos="l" depth="2" NCoef="0" IVar="-1" Cut="0.0000000000000000e+00" cType="1" res="6.9699757732450962e-03" rms="4.6923497319221497e-01" purity="6.4489030838012695e-01" nType="-99"/>
          <Node pos="r" depth="2" NCoef="0" IVar="-1" Cut="0.0000000000000000e+00" cType="1" res="-8.4271654486656189e-03" rms="4.6476414799690247e-01" purity="3.1675180792808533e-01" nType="-99"/>
        </Node>
        <Node pos="r" depth="1" NCoef="0" IVar="3" Cut="2.2857143878936768e+00" cType="0" res="-3.2506501674652100e-01" rms="2.9040777683258057e-01" purity="9.4146609306335449e-02" nType="0">
          <Node pos="l" depth="2" NCoef="0" IVar="-1" Cut="0.0000000000000000e+00" cType="1" res="-1.1402138508856297e-02" rms="3.6694309115409851e-01" purity="1.6189049184322357e-01" nType="-99"/>
          <Node pos="r" depth="2" NCoef="0" IVar="-1" Cut="0.0000000000000000e+00" cType="1" res="-1.3441571965813637e-02" rms="2.3374634981155396e-01" purity="5.8718550950288773e-02" nType="-99"/>
        </Node>
      </Node>
    </BinaryTree>
    <BinaryTree type="DecisionTree" boostWeight="1.0000000000000000e+00" itree="13">
      <Node pos="s" depth="0" NCoef="0" IVar="18" Cut="6.4285712242126465e+00" cType="1" res="-2.1447238977998495e-03" rms="4.6797090768814087e-01" purity="5.2319407463073730e-01" nType="0">
        <Node pos="l" depth="1" NCoef="0" IVar="4" Cut="1.7799868583679199e+00" cType="1" res="6.1147473752498627e-02" rms="4.7122952342033386e-01" purity="6.0879307985305786e-01" nType="0">
          <Node pos="l" depth="2" NCoef="0" IVar="-1" Cut="0.0000000000000000e+00" cType="1" res="1.4420568011701107e-02" rms="4.1609111428260803e-01" purity="7.7119433879852295e-01" nType="-99"/>
          <Node pos="r" depth="2" NCoef="0" IVar="-1" Cut="0.0000000000000000e+00" cType="1" res="-2.7180099859833717e-03" rms="4.9525585770606995e-01" purity="4.6689942479133606e-01" nType="-99"/>
        </Node>
        <Node pos="r" depth="1" NCoef="0" IVar="4" Cut="2.1197974681854248e+00" cType="1" res="-3.2211837172508240e-01" rms="2.8441080451011658e-01" purity="9.0448252856731415e-02" nType="0">
          <Node pos="l" depth="2" NCoef="0" IVar="-1" Cut="0.0000000000000000e+00" cType="1" res="-1.1049806140363216e-02" rms="3.9093416929244995e-01" purity="1.9289568066596985e-01" nType="-99"/>
          <Node pos="r" depth="2" NCoef="0" IVar="-1" Cut="0.0000000000000000e+00" cType="1" res="-1.2964178808033466e-02" rms="2.4106615781784058e-01" purity="6.2187302857637405e-02" nType="-99"/>
        </Node>
      </Node>
    </BinaryTree>
    <BinaryTree type="DecisionTree" boostWeight="1.0000000000000000e+00" itree="14">
      <Node pos="s" depth="0" NCoef="0" IVar="18" Cut="6.4285712242126465e+00" cType="1" res="-3.5173807293176651e-02" rms="4.6840411424636841e-01" purity="4.8956769704818726e-01" nType="0">
        <Node pos="l" depth="1" NCoef="0" IVar="4" Cut="3.3249511718750000e+00" cType="1" res="2.8920460492372513e-02" rms="4.7841736674308777e-01" purity="5.7967388629913330e-01" nType="0">
          <Node pos="l" depth="2" NCoef="0" IVar="-1" Cut="0.0000000000000000e+00" cType="1" res="4.5769596472382545e-03" rms="4.7625568509101868e-01" purity="6.1057358980178833e-01" nType="-99"/>
          <Node pos="r" depth="2" NCoef="0" IVar="-1" Cut="0.0000000000000000e+00" cType="1" res="-1.3738360255956650e-02" rms="2.9252114892005920e-01" purity="9.4192579388618469e-02" nType="-99"/>
        </Node>
        <Node pos="r" depth="1" NCoef="0" IVar="17" Cut="2.8844593048095703e+01" cType="0" res="-3.2627388834953308e-01" rms="2.7008548378944397e-01" purity="8.0328151583671570e-02" nType="0">
          <Node pos="l" depth="2" NCoef="0" IVar="-1" Cut="0.0000000000000000e+00" cType="1" res="-1.0473723523318768e-02" rms="3.8596287369728088e-01" purity="1.8473382294178009e-01" nType="-99"/>
          <Node pos="r" depth="2" NCoef="0" IVar="-1" Cut="0.0000000000000000e+00" cType="1" res="-1.2899016961455345e-02" rms="2.1761761605739594e-01" purity="5.0502777099609375e-02" nType="-99"/>
        </Node>
      </Node>
    </BinaryTree>
    <BinaryTree type="DecisionTree" boostWeight="1.0000000000000000e+00" itree="15">
      <Node pos="s" depth="0" NCoef="0" IVar="18" Cut="6.1904764175415039e+00" cType="1" res="-1.9841486588120461e-02" rms="4.6738663315773010e-01" purity="5.0699448585510254e-01" nType="0">
        <Node pos="l" depth="1" NCoef="0" IVar="5" Cut="2.3395538330078125e+00" cType="1" res="3.3819518983364105e-02" rms="4.7460940480232239e-01" purity="5.8539038896560669e-01" nType="0">
          <Node pos="l" depth="2" NCoef="0" IVar="-1" Cut="0.0000000000000000e+00" cType="1" res="6.1216722242534161e-03" rms="4.6684700250625610e-01" purity="6.4757108688354492e-01" nType="-99"/>
          <Node pos="r" depth="2" NCoef="0" IVar="-1" Cut="0.0000000000000000e+00" cType="1" res="-7.5969905592501163e-03" rms="4.4934087991714478e-01" purity="2.8425589203834534e-01" nType="-99"/>
        </Node>
        <Node pos="r" depth="1" NCoef="0" IVar="20" Cut="1.3816663742065430e+01" cType="1" res="-2.9412436485290527e-01" rms="3.0614355206489563e-01" purity="1.0628183931112289e-01" nType="0">
          <Node pos="l" depth="2" NCoef="0" IVar="-1" Cut="0.0000000000000000e+00" cType="1" res="-9.8909270018339157e-03" rms="4.2985191941261292e-01" purity="2.4679821729660034e-01" nType="-99"/>
          <Node pos="r" depth="2" NCoef="0" IVar="-1" Cut="0.0000000000000000e+00" cType="1" res="-1.2883059680461884e-02" rms="2.5369369983673096e-01" purity="6.9814503192901611e-02" nType="-99"/>
        </Node>
      </Node>
    </BinaryTree>
    <BinaryTree type="DecisionTree" boostWeight="1.0000000000000000e+00" itree="16">
      <Node pos="s" depth="0" NCoef="0" IVar="4" Cut="1.7982245683670044e+00" cType="1" res="-3.5546369850635529e-02" rms="4.6291440725326538e-01" purity="4.8804461956024170e-01" nType="0">
        <Node pos="l" depth="1" NCoef="0" IVar="18" Cut="4.2857141494750977e+00" cType="1" res="1.3327848911285400e-01" rms="4.2902061343193054e-01" purity="7.3813503980636597e-01" nType="0">
          <Node pos="l" depth="2" NCoef="0" IVar="-1" Cut="0.0000000000000000e+00" cType="1" res="2.5110306218266487e-02" rms="3.7612029910087585e-01" purity="8.2866942882537842e-01" nType="-99"/>
          <Node pos="r" depth="2" NCoef="0" IVar="-1" Cut="0.0000000000000000e+00" cType="1" res="-2.7444155421108007e-04" rms="4.8017755150794983e-01" purity="5.9571290016174316e-01" nType="-99"/>
        </Node>
        <Node pos="r" depth="1" NCoef="0" IVar="18" Cut="6.1904764175415039e+00" cType="1" res="-1.4538416266441345e-01" rms="4.5094394683837891e-01" purity="3.2533529400825500e-01" nType="0">
          <Node pos="l" depth="2" NCoef="0" IVar="-1" Cut="0.0000000000000000e+00" cType="1" res="-2.9292802792042494e-03" rms="4.8794776201248169e-01" purity="4.1724270582199097e-01" nType="-99"/>
          <Node pos="r" depth="2" NCoef="0" IVar="-1" Cut="0.0000000000000000e+00" cType="1" res="-1.2351673096418381e-02" rms="2.4573236703872681e-01" purity="6.5020322799682617e-02" nType="-99"/>
        </Node>
      </Node>
    </BinaryTree>
    <BinaryTree type="DecisionTree" boostWeight="1.0000000000000000e+00" itree="17">
      <Node pos="s" depth="0" NCoef="0" IVar="18" Cut="6.1904764175415039e+00" cType="1" res="-4.1439067572355270e-02" rms="4.6151113510131836e-01" purity="4.8372620344161987e-01" nType="0">
        <Node pos="l" depth="1" NCoef="0" IVar="4" Cut="2.7480046749114990e+00" cType="1" res="1.9056215882301331e-02" rms="4.7430896759033203e-01" purity="5.7589811086654663e-01" nType="0">
          <Node pos="l" depth="2" NCoef="0" IVar="-1" Cut="0.0000000000000000e+00" cType="1" res="4.9784160219132900e-03" rms="4.7031810879707336e-01" purity="6.2967318296432495e-01" nType="-99"/>
          <Node pos="r" depth="2" NCoef="0" IVar="-1" Cut="0.0000000000000000e+00" cType="1" res="-9.2800045385956764e-03" rms="4.0374812483787537e-01" purity="2.0777235925197601e-01" nType="-99"/>
        </Node>
        <Node pos="r" depth="1" NCoef="0" IVar="20" Cut="1.0880680084228516e+01" cType="1" res="-3.0196925997734070e-01" rms="2.7888631820678711e-01" purity="8.6777165532112122e-02" nType="0">
          <Node pos="l" depth="2" NCoef="0" IVar="-1" Cut="0.0000000000000000e+00" cType="1" res="-9.0451454743742943e-03" rms="4.2764320969581604e-01" purity="2.4185319244861603e-01" nType="-99"/>
          <Node pos="r" depth="2" NCoef="0" IVar="-1" Cut="0.0000000000000000e+00" cType="1" res="-1.2468508444726467e-02" rms="2.3016227781772614e-01" purity="5.7105556130409241e-02" nType="-99"/>
        </Node>
      </Node>
    </BinaryTree>
    <BinaryTree type="DecisionTree" boostWeight="1.0000000000000000e+00" itree="18">
      <Node pos="s" depth="0" NCoef="0" IVar="18" Cut="6.4285712242126465e+00" cType="1" res="-2.9191629961133003e-02" rms="4.6280735731124878e-01" purity="4.9804565310478210e-01" nType="0">
        <Node pos="l" depth="1" NCoef="0" IVar="4" Cut="3.1344199180603027e+00" cType="1" res="2.4265509098768234e-02" rms="4.7312808036804199e-01" purity="5.8126968145370483e-01" nType="0">
          <Node pos="l" depth="2" NCoef="0" IVar="-1" Cut="0.0000000000000000e+00" cType="1" res="4.1523715481162071e-03" rms="4.7139090299606323e-01" purity="6.1925184726715088e-01" nType="-99"/>
          <Node pos="r" depth="2" NCoef="0" IVar="-1" Cut="0.0000000000000000e+00" cType="1" res="-1.2357633560895920e-02" rms="2.9068282246589661e-01" purity="9.4146609306335449e-02" nType="-99"/>
        </Node>
        <Node pos="r" depth="1" NCoef="0" IVar="20" Cut="9.6300420761108398e+00" cType="1" res="-2.8437158465385437e-01" rms="2.9886868596076965e-01" purity="1.0077211260795593e-01" nType="0">
          <Node pos="l" depth="2" NCoef="0" IVar="-1" Cut="0.0000000000000000e+00" cType="1" res="-9.0932045131921768e-03" rms="4.1841790080070496e-01" purity="2.2754348814487457e-01" nType="-99"/>
          <Node pos="r" depth="2" NCoef="0" IVar="-1" Cut="0.0000000000000000e+00" cType="1" res="-1.2222288176417351e-02" rms="2.5604441761970520e-01" purity="7.1074001491069794e-02" nType="-99"/>
        </Node>
      </Node>
    </BinaryTree>
    <BinaryTree type="DecisionTree" boostWeight="1.0000000000000000e+00" itree="19">
      <Node pos="s" depth="0" NCoef="0" IVar="18" Cut="6.4285712242126465e+00" cType="1" res="-2.5922169908881187e-02" rms="4.5794370770454407e-01" purity="4.9901416897773743e-01" nType="0">
        <Node pos="l" depth="1" NCoef="0" IVar="4" Cut="2.7480046749114990e+00" cType="1" res="3.7042882293462753e-02" rms="4.6927973628044128e-01" purity="5.9572887420654297e-01" nType="0">
          <Node pos="l" depth="2" NCoef="0" IVar="-1" Cut="0.0000000000000000e+00" cType="1" res="4.6236431226134300e-03" rms="4.6344405412673950e-01" purity="6.5260672569274902e-01" nType="-99"/>
          <Node pos="r" depth="2" NCoef="0" IVar="-1" Cut="0.0000000000000000e+00" cType="1" res="-8.9781861752271652e-03" rms="4.1212096810340881e-01" purity="2.2066746652126312e-01" nType="-99"/>
        </Node>
        <Node pos="r" depth="1" NCoef="0" IVar="20" Cut="1.0879556655883789e+01" cType="1" res="-2.9835894703865051e-01" rms="2.6992148160934448e-01" purity="8.0549865961074829e-02" nType="0">
          <Node pos="l" depth="2" NCoef="0" IVar="-1" Cut="0.0000000000000000e+00" cType="1" res="-8.7269954383373260e-03" rms="3.7492570281028748e-01" purity="1.6989363729953766e-01" nType="-99"/>
          <Node pos="r" depth="2" NCoef="0" IVar="-1" Cut="0.0000000000000000e+00" cType="1" res="-1.2156618759036064e-02" rms="2.3001727461814880e-01" purity="5.6697130203247070e-02" nType="-99"/>
        </Node>
      </Node>
    </BinaryTree>
    <BinaryTree type="DecisionTree" boostWeight="1.0000000000000000e+00" itree="20">
      <Node pos="s" depth="0" NCoef="0" IVar="18" Cut="6.1904764175415039e+00" cType="1" res="-2.1747406572103500e-02" rms="4.6109306812286377e-01" purity="5.0786423683166504e-01" nType="0">
        <Node pos="l" depth="1" NCoef="0" IVar="5" Cut="2.5347268581390381e+00" cType="1" res="3.1451720744371414e-02" rms="4.7192722558975220e-01" purity="5.9393042325973511e-01" nType="0">
          <Node pos="l" depth="2" NCoef="0" IVar="-1" Cut="0.0000000000000000e+00" cType="1" res="4.5816712081432343e-03" rms="4.6841728687286377e-01" purity="6.3724833726882935e-01" nType="-99"/>
          <Node pos="r" depth="2" NCoef="0" IVar="-1" Cut="0.0000000000000000e+00" cType="1" res="-8.5535198450088501e-03" rms="4.3816474080085754e-01" purity="2.6318612694740295e-01" nType="-99"/>
        </Node>
        <Node pos="r" depth="1" NCoef="0" IVar="14" Cut="6.3241989135742188e+01" cType="0" res="-2.7571135759353638e-01" rms="2.9384046792984009e-01" purity="9.6998021006584167e-02" nType="0">
          <Node pos="l" depth="2" NCoef="0" IVar="-1" Cut="0.0000000000000000e+00" cType="1" res="-1.0296382009983063e-02" rms="3.8961088657379150e-01" purity="1.8849509954452515e-01" nType="-99"/>
          <Node pos="r" depth="2" NCoef="0" IVar="-1" Cut="0.0000000000000000e+00" cType="1" res="-1.1922448873519897e-02" rms="2.3981383442878723e-01" purity="6.2788158655166626e-02" nType="-99"/>
        </Node>
      </Node>
    </BinaryTree>
    <BinaryTree type="DecisionTree" boostWeight="1.0000000000000000e+00" itree="21">
      <Node pos="s" depth="0" NCoef="0" IVar="18" Cut="6.4285712242126465e+00" cType="1" res="-2.8993265703320503e-02" rms="4.5707911252975464e-01" purity="4.9701043963432312e-01" nType="0">
        <Node pos="l" depth="1" NCoef="0" IVar="5" Cut="1.7310230731964111e+00" cType="1" res="2.9614690691232681e-02" rms="4.7034668922424316e-01" purity="5.9162712097167969e-01" nType="0">
          <Node pos="l" depth="2" NCoef="0" IVar="-1" Cut="0.0000000000000000e+00" cType="1" res="8.8175581768155098e-03" rms="4.4361409544944763e-01" purity="7.1074771881103516e-01" nType="-99"/>
          <Node pos="r" depth="2" NCoef="0" IVar="-1" Cut="0.0000000000000000e+00" cType="1" res="-3.9082965813577175e-03" rms="4.8732385039329529e-01" purity="4.2833182215690613e-01" nType="-99"/>
        </Node>
        <Node pos="r" depth="1" NCoef="0" IVar="5" Cut="1.7771936655044556e+00" cType="1" res="-2.8600439429283142e-01" rms="2.7174323797225952e-01" purity="8.2091666758060455e-02" nType="0">
          <Node pos="l" depth="2" NCoef="0" IVar="-1" Cut="0.0000000000000000e+00" cType="1" res="-9.1109788045287132e-03" rms="3.8125285506248474e-01" purity="1.8044558167457581e-01" nType="-99"/>
          <Node pos="r" depth="2" NCoef="0" IVar="-1" Cut="0.0000000000000000e+00" cType="1" res="-1.1829612776637077e-02" rms="2.2428271174430847e-01" purity="5.3520951420068741e-02" nType="-99"/>
        </Node>
      </Node>
    </BinaryTree>
    <BinaryTree type="DecisionTree" boostWeight="1.0000000000000000e+00" itree="22">
      <Node pos="s" depth="0" NCoef="0" IVar="5" Cut="1.8694375753402710e+00" cType="1" res="-1.9453478977084160e-02" rms="4.5592004060745239e-01" purity="5.0732088088989258e-01" nType="0">
        <Node pos="l" depth="1" NCoef="0" IVar="18" Cut="4.2857141494750977e+00" cType="1" res="8.4732241928577423e-02" rms="4.4497400522232056e-01" purity="6.7218691110610962e-01" nType="0">
          <Node pos="l" depth="2" NCoef="0" IVar="-1" Cut="0.0000000000000000e+00" cType="1" res="1.8046040087938309e-02" rms="3.9008072018623352e-01" purity="8.0233412981033325e-01" nType="-99"/>
          <Node pos="r" depth="2" NCoef="0" IVar="-1" Cut="0.0000000000000000e+00" cType="1" res="-1.8980005988851190e-03" rms="4.7856774926185608e-01" purity="5.4058492183685303e-01" nType="-99"/>
        </Node>
        <Node pos="r" depth="1" NCoef="0" IVar="18" Cut="6.4285712242126465e+00" cType="1" res="-1.6194681823253632e-01" rms="4.3150898814201355e-01" purity="2.8183597326278687e-01" nType="0">
          <Node pos="l" depth="2" NCoef="0" IVar="-1" Cut="0.0000000000000000e+00" cType="1" res="-4.8459894023835659e-03" rms="4.8216715455055237e-01" purity="3.8190677762031555e-01" nType="-99"/>
          <Node pos="r" depth="2" NCoef="0" IVar="-1" Cut="0.0000000000000000e+00" cType="1" res="-1.1748265475034714e-02" rms="2.5389167666435242e-01" purity="6.9753706455230713e-02" nType="-99"/>
        </Node>
      </Node>
    </BinaryTree>
    <BinaryTree type="DecisionTree" boostWeight="1.0000000000000000e+00" itree="23">
      <Node pos="s" depth="0" NCoef="0" IVar="18" Cut="6.4285712242126465e+00" cType="1" res="-4.1013401001691818e-02" rms="4.6098229289054871e-01" purity="4.9172049760818481e-01" nType="0">
        <Node pos="l" depth="1" NCoef="0" IVar="4" Cut="2.7504975795745850e+00" cType="1" res="5.6163212284445763e-03" rms="4.7631034255027771e-01" purity="5.7337164878845215e-01" nType="0">
          <Node pos="l" depth="2" NCoef="0" IVar="-1" Cut="0.0000000000000000e+00" cType="1" res="3.9402856491506100e-03" rms="4.7584617137908936e-01" purity="6.1461830139160156e-01" nType="-99"/>
          <Node pos="r" depth="2" NCoef="0" IVar="-1" Cut="0.0000000000000000e+00" cType="1" res="-8.5400557145476341e-03" rms="4.2197257280349731e-01" purity="2.3679022490978241e-01" nType="-99"/>
        </Node>
        <Node pos="r" depth="1" NCoef="0" IVar="20" Cut="1.0879556655883789e+01" cType="1" res="-2.7326154708862305e-01" rms="2.7600511908531189e-01" purity="8.5041694343090057e-02" nType="0">
          <Node pos="l" depth="2" NCoef="0" IVar="-1" Cut="0.0000000000000000e+00" cType="1" res="-8.0807358026504517e-03" rms="4.0129476785659790e-01" purity="2.0475976169109344e-01" nType="-99"/>
          <Node pos="r" depth="2" NCoef="0" IVar="-1" Cut="0.0000000000000000e+00" cType="1" res="-1.1624663136899471e-02" rms="2.2876250743865967e-01" purity="5.6059997528791428e-02" nType="-99"/>
        </Node>
      </Node>
    </BinaryTree>
    <BinaryTree type="DecisionTree" boostWeight="1.0000000000000000e+00" itree="24">
      <Node pos="s" depth="0" NCoef="0" IVar="18" Cut="6.4285712242126465e+00" cType="1" res="-3.3727847039699554e-02" rms="4.5375150442123413e-01" purity="4.9306842684745789e-01" nType="0">
        <Node pos="l" depth="1" NCoef="0" IVar="4" Cut="1.7864153385162354e+00" cType="1" res="2.1988466382026672e-02" rms="4.6975469589233398e-01" purity="5.8905941247940063e-01" nType="0">
          <Node pos="l" depth="2" NCoef="0" IVar="-1" Cut="0.0000000000000000e+00" cType="1" res="1.0637599974870682e-02" rms="4.3136882781982422e-01" purity="7.4281287193298340e-01" nType="-99"/>
          <Node pos="r" depth="2" NCoef="0" IVar="-1" Cut="0.0000000000000000e+00" cType="1" res="-2.9331492260098457e-03" rms="4.9008005857467651e-01" purity="4.4908481836318970e-01" nType="-99"/>
        </Node>
        <Node pos="r" depth="1" NCoef="0" IVar="3" Cut="2.2857143878936768e+00" cType="0" res="-2.7471309900283813e-01" rms="2.6545631885528564e-01" purity="7.7886238694190979e-02" nType="0">
          <Node pos="l" depth="2" NCoef="0" IVar="-1" Cut="0.0000000000000000e+00" cType="1" res="-9.3635357916355133e-03" rms="3.3717718720436096e-01" purity="1.3259430229663849e-01" nType="-99"/>
          <Node pos="r" depth="2" NCoef="0" IVar="-1" Cut="0.0000000000000000e+00" cType="1" res="-1.1675349436700344e-02" rms="2.1120497584342957e-01" purity="4.7860059887170792e-02" nType="-99"/>
        </Node>
      </Node>
    </BinaryTree>
    <BinaryTree type="DecisionTree" boostWeight="1.0000000000000000e+00" itree="25">
      <Node pos="s" depth="0" NCoef="0" IVar="18" Cut="6.1904764175415039e+00" cType="1" res="-2.5724099949002266e-02" rms="4.5353549718856812e-01" purity="5.0319778919219971e-01" nType="0">
        <Node pos="l" depth="1" NCoef="0" IVar="4" Cut="3.1326341629028320e+00" cType="1" res="2.3822413757443428e-02" rms="4.6701702475547791e-01" purity="5.9174716472625732e-01" nType="0">
          <Node pos="l" depth="2" NCoef="0" IVar="-1" Cut="0.0000000000000000e+00" cType="1" res="3.1334778759628534e-03" rms="4.6653720736503601e-01" purity="6.2835288047790527e-01" nType="-99"/>
          <Node pos="r" depth="2" NCoef="0" IVar="-1" Cut="0.0000000000000000e+00" cType="1" res="-1.1502558365464211e-02" rms="3.1891122460365295e-01" purity="1.1692690849304199e-01" nType="-99"/>
        </Node>
        <Node pos="r" depth="1" NCoef="0" IVar="3" Cut="2.2380952835083008e+00" cType="0" res="-2.5295770168304443e-01" rms="2.9305797815322876e-01" purity="9.7086675465106964e-02" nType="0">
          <Node pos="l" depth="2" NCoef="0" IVar="-1" Cut="0.0000000000000000e+00" cType="1" res="-9.2272190377116203e-03" rms="3.6722970008850098e-01" purity="1.6474884748458862e-01" nType="-99"/>
          <Node pos="r" depth="2" NCoef="0" IVar="-1" Cut="0.0000000000000000e+00" cType="1" res="-1.1542850174009800e-02" rms="2.2903768718242645e-01" purity="5.6401282548904419e-02" nType="-99"/>
        </Node>
      </Node>
    </BinaryTree>
    <BinaryTree type="DecisionTree" boostWeight="1.0000000000000000e+00" itree="26">
      <Node pos="s" depth="0" NCoef="0" IVar="18" Cut="6.4285712242126465e+00" cType="1" res="-1.6817856580018997e-02" rms="4.5438665151596069e-01" purity="5.1554030179977417e-01" nType="0">
        <Node pos="l" depth="1" NCoef="0" IVar="12" Cut="2.1428570747375488e+00" cType="1" res="3.6577917635440826e-02" rms="4.6884751319885254e-01" purity="6.1053442955017090e-01" nType="0">
          <Node pos="l" depth="2" NCoef="0" IVar="-1" Cut="0.0000000000000000e+00" cType="1" res="3.1543786171823740e-03" rms="4.5699736475944519e-01" purity="6.5465700626373291e-01" nType="-99"/>
          <Node pos="r" depth="2" NCoef="0" IVar="-1" Cut="0.0000000000000000e+00" cType="1" res="-4.8384154215455055e-03" rms="4.8269993066787720e-01" purity="4.4388619065284729e-01" nType="-99"/>
        </Node>
        <Node pos="r" depth="1" NCoef="0" IVar="20" Cut="1.3816663742065430e+01" cType="1" res="-2.6065260171890259e-01" rms="2.7023169398307800e-01" purity="8.1744514405727386e-02" nType="0">
          <Node pos="l" depth="2" NCoef="0" IVar="-1" Cut="0.0000000000000000e+00" cType="1" res="-8.1163914874196053e-03" rms="3.8498783111572266e-01" purity="1.8604478240013123e-01" nType="-99"/>
          <Node pos="r" depth="2" NCoef="0" IVar="-1" Cut="0.0000000000000000e+00" cType="1" res="-1.1357514187693596e-02" rms="2.2088930010795593e-01" purity="5.2379541099071503e-02" nType="-99"/>
        </Node>
      </Node>
    </BinaryTree>
    <BinaryTree type="DecisionTree" boostWeight="1.0000000000000000e+00" itree="27">
      <Node pos="s" depth="0" NCoef="0" IVar="4" Cut="2.0301716327667236e+00" cType="1" res="-3.6491364240646362e-02" rms="4.5312824845314026e-01" purity="4.9102637171745300e-01" nType="0">
        <Node pos="l" depth="1" NCoef="0" IVar="18" Cut="3.4285714626312256e+00" cType="1" res="5.4031856358051300e-02" rms="4.5297348499298096e-01" purity="6.5694832801818848e-01" nType="0">
          <Node pos="l" depth="2" NCoef="0" IVar="-1" Cut="0.0000000000000000e+00" cType="1" res="2.3711550980806351e-02" rms="3.6701852083206177e-01" purity="8.3420288562774658e-01" nType="-99"/>
          <Node pos="r" depth="2" NCoef="0" IVar="-1" Cut="0.0000000000000000e+00" cType="1" res="-8.2767044659703970e-04" rms="4.8290386795997620e-01" purity="5.5158519744873047e-01" nType="-99"/>
        </Node>
        <Node pos="r" depth="1" NCoef="0" IVar="18" Cut="6.4285712242126465e+00" cType="1" res="-1.4831805229187012e-01" rms="4.2763340473175049e-01" purity="2.8605687618255615e-01" nType="0">
          <Node pos="l" depth="2" NCoef="0" IVar="-1" Cut="0.0000000000000000e+00" cType="1" res="-4.1107768192887306e-03" rms="4.7865352034568787e-01" purity="3.8797739148139954e-01" nType="-99"/>
          <Node pos="r" depth="2" NCoef="0" IVar="-1" Cut="0.0000000000000000e+00" cType="1" res="-1.0970875620841980e-02" rms="2.6328840851783752e-01" purity="7.5607828795909882e-02" nType="-99"/>
        </Node>
      </Node>
    </BinaryTree>
    <BinaryTree type="DecisionTree" boostWeight="1.0000000000000000e+00" itree="28">
      <Node pos="s" depth="0" NCoef="0" IVar="5" Cut="2.1967258453369141e+00" cType="1" res="-4.2825121432542801e-02" rms="4.5105031132698059e-01" purity="4.8462247848510742e-01" nType="0">
        <Node pos="l" depth="1" NCoef="0" IVar="18" Cut="6.4285712242126465e+00" cType="1" res="2.4734802544116974e-02" rms="4.5813146233558655e-01" purity="6.0063338279724121e-01" nType="0">
          <Node pos="l" depth="2" NCoef="0" IVar="-1" Cut="0.0000000000000000e+00" cType="1" res="4.2620734311640263e-03" rms="4.6276608109474182e-01" purity="6.5715008974075317e-01" nType="-99"/>
          <Node pos="r" depth="2" NCoef="0" IVar="-1" Cut="0.0000000000000000e+00" cType="1" res="-9.6290856599807739e-03" rms="3.4024074673652649e-01" purity="1.3880576193332672e-01" nType="-99"/>
        </Node>
        <Node pos="r" depth="1" NCoef="0" IVar="4" Cut="3.2386467456817627e+00" cType="1" res="-2.0521338284015656e-01" rms="3.8811191916465759e-01" purity="2.0577651262283325e-01" nType="0">
          <Node pos="l" depth="2" NCoef="0" IVar="-1" Cut="0.0000000000000000e+00" cType="1" res="-6.3172006048262119e-03" rms="4.1589730978012085e-01" purity="2.4998766183853149e-01" nType="-99"/>
          <Node pos="r" depth="2" NCoef="0" IVar="-1" Cut="0.0000000000000000e+00" cType="1" res="-1.1748866178095341e-02" rms="2.6796463131904602e-01" purity="7.8102506697177887e-02" nType="-99"/>
        </Node>
      </Node>
    </BinaryTree>
    <BinaryTree type="DecisionTree" boostWeight="1.0000000000000000e+00" itree="29">
      <Node pos="s" depth="0" NCoef="0" IVar="18" Cut="6.4285712242126465e+00" cType="1" res="-1.9714796915650368e-02" rms="4.4862961769104004e-01" purity="5.1129978895187378e-01" nType="0">
        <Node pos="l" depth="1" NCoef="0" IVar="4" Cut="3.1406128406524658e+00" cType="1" res="2.8346180915832520e-02" rms="4.6349379420280457e-01" purity="6.0253190994262695e-01" nType="0">
          <Node pos="l" depth="2" NCoef="0" IVar="-1" Cut="0.0000000000000000e+00" cType="1" res="2.6998613029718399e-03" rms="4.6305954456329346e-01" purity="6.3637727499008179e-01" nType="-99"/>
          <Node pos="r" depth="2" NCoef="0" IVar="-1" Cut="0.0000000000000000e+00" cType="1" res="-1.1164470575749874e-02" rms="3.4794324636459351e-01" purity="1.4410972595214844e-01" nType="-99"/>
        </Node>
        <Node pos="r" depth="1" NCoef="0" IVar="3" Cut="2.2857143878936768e+00" cType="0" res="-2.4357280135154724e-01" rms="2.7793356776237488e-01" purity="8.6359880864620209e-02" nType="0">
          <Node pos="l" depth="2" NCoef="0" IVar="-1" Cut="0.0000000000000000e+00" cType="1" res="-8.7026581168174744e-03" rms="3.6608704924583435e-01" purity="1.6079483926296234e-01" nType="-99"/>
          <Node pos="r" depth="2" NCoef="0" IVar="-1" Cut="0.0000000000000000e+00" cType="1" res="-1.1103413999080658e-02" rms="2.0721009373664856e-01" purity="4.6362437307834625e-02" nType="-99"/>
        </Node>
      </Node>
    </BinaryTree>
    <BinaryTree type="DecisionTree" boostWeight="1.0000000000000000e+00" itree="30">
      <Node pos="s" depth="0" NCoef="0" IVar="18" Cut="6.1904764175415039e+00" cType="1" res="-5.1135748624801636e-02" rms="4.5056435465812683e-01" purity="4.7754427790641785e-01" nType="0">
        <Node pos="l" depth="1" NCoef="0" IVar="4" Cut="1.6200748682022095e+00" cType="1" res="-5.8728214353322983e-03" rms="4.7173646092414856e-01" purity="5.6846028566360474e-01" nType="0">
          <Node pos="l" depth="2" NCoef="0" IVar="-1" Cut="0.0000000000000000e+00" cType="1" res="9.9162533879280090e-03" rms="4.2017930746078491e-01" purity="7.5644594430923462e-01" nType="-99"/>
          <Node pos="r" depth="2" NCoef="0" IVar="-1" Cut="0.0000000000000000e+00" cType="1" res="-2.0603316370397806e-03" rms="4.8863410949707031e-01" purity="4.5959669351577759e-01" nType="-99"/>
        </Node>
        <Node pos="r" depth="1" NCoef="0" IVar="20" Cut="1.5734189987182617e+01" cType="1" res="-2.5183272361755371e-01" rms="2.5896206498146057e-01" purity="7.4420362710952759e-02" nType="0">
          <Node pos="l" depth="2" NCoef="0" IVar="-1" Cut="0.0000000000000000e+00" cType="1" res="-8.5422787815332413e-03" rms="3.4621533751487732e-01" purity="1.4258049428462982e-01" nType="-99"/>
          <Node pos="r" depth="2" NCoef="0" IVar="-1" Cut="0.0000000000000000e+00" cType="1" res="-1.0929129086434841e-02" rms="2.0247139036655426e-01" purity="4.3597929179668427e-02" nType="-99"/>
        </Node>
      </Node>
    </BinaryTree>
    <BinaryTree type="DecisionTree" boostWeight="1.0000000000000000e+00" itree="31">
      <Node pos="s" depth="0" NCoef="0" IVar="18" Cut="6.4285712242126465e+00" cType="1" res="-1.4555474743247032e-02" rms="4.4928193092346191e-01" purity="5.2012658119201660e-01" nType="0">
        <Node pos="l" depth="1" NCoef="0" IVar="4" Cut="3.1326341629028320e+00" cType="1" res="3.0187377706170082e-02" rms="4.6392533183097839e-01" purity="6.0809189081192017e-01" nType="0">
          <Node pos="l" depth="2" NCoef="0" IVar="-1" Cut="0.0000000000000000e+00" cType="1" res="2.4929069913923740e-03" rms="4.6357256174087524e-01" purity="6.4088851213455200e-01" nType="-99"/>
          <Node pos="r" depth="2" NCoef="0" IVar="-1" Cut="0.0000000000000000e+00" cType="1" res="-1.0891140438616276e-02" rms="3.5156822204589844e-01" purity="1.4580249786376953e-01" nType="-99"/>
        </Node>
        <Node pos="r" depth="1" NCoef="0" IVar="4" Cut="2.2001686096191406e+00" cType="1" res="-2.3474754393100739e-01" rms="2.7876153588294983e-01" purity="8.7224662303924561e-02" nType="0">
          <Node pos="l" depth="2" NCoef="0" IVar="-1" Cut="0.0000000000000000e+00" cType="1" res="-8.4251174703240395e-03" rms="3.9670577645301819e-01" purity="2.0086377859115601e-01" nType="-99"/>
          <Node pos="r" depth="2" NCoef="0" IVar="-1" Cut="0.0000000000000000e+00" cType="1" res="-1.0525907389819622e-02" rms="2.3442396521568298e-01" purity="5.8806583285331726e-02" nType="-99"/>
        </Node>
      </Node>
    </BinaryTree>
    <BinaryTree type="DecisionTree" boostWeight="1.0000000000000000e+00" itree="32">
      <Node pos="s" depth="0" NCoef="0" IVar="4" Cut="1.8456556797027588e+00" cType="1" res="-2.9449196532368660e-02" rms="4.4906324148178101e-01" purity="4.9991360306739807e-01" nType="0">
        <Node pos="l" depth="1" NCoef="0" IVar="15" Cut="9.8571424484252930e+00" cType="1" res="7.5894162058830261e-02" rms="4.3684554100036621e-01" purity="7.1527254581451416e-01" nType="0">
          <Node pos="l" depth="2" NCoef="0" IVar="-1" Cut="0.0000000000000000e+00" cType="1" res="1.7025122418999672e-02" rms="3.8027489185333252e-01" purity="8.2052034139633179e-01" nType="-99"/>
          <Node pos="r" depth="2" NCoef="0" IVar="-1" Cut="0.0000000000000000e+00" cType="1" res="-1.9300847779959440e-03" rms="4.8599788546562195e-01" purity="5.7727217674255371e-01" nType="-99"/>
        </Node>
        <Node pos="r" depth="1" NCoef="0" IVar="18" Cut="6.1904764175415039e+00" cType="1" res="-1.1390891671180725e-01" rms="4.4080051779747009e-01" purity="3.2724821567535400e-01" nType="0">
          <Node pos="l" depth="2" NCoef="0" IVar="-1" Cut="0.0000000000000000e+00" cType="1" res="-2.8688563033938408e-03" rms="4.8773762583732605e-01" purity="4.3362143635749817e-01" nType="-99"/>
          <Node pos="r" depth="2" NCoef="0" IVar="-1" Cut="0.0000000000000000e+00" cType="1" res="-1.0433374904096127e-02" rms="2.6447364687919617e-01" purity="7.6651409268379211e-02" nType="-99"/>
        </Node>
      </Node>
    </BinaryTree>
    <BinaryTree type="DecisionTree" boostWeight="1.0000000000000000e+00" itree="33">
      <Node pos="s" depth="0" NCoef="0" IVar="5" Cut="2.1812767982482910e+00" cType="1" res="-4.6368286013603210e-02" rms="4.4904461503028870e-01" purity="4.8434409499168396e-01" nType="0">
        <Node pos="l" depth="1" NCoef="0" IVar="18" Cut="3.4285714626312256e+00" cType="1" res="1.5017679892480373e-02" rms="4.5892497897148132e-01" purity="6.0037118196487427e-01" nType="0">
          <Node pos="l" depth="2" NCoef="0" IVar="-1" Cut="0.0000000000000000e+00" cType="1" res="1.8607789650559425e-02" rms="3.8631615042686462e-01" purity="7.9906052350997925e-01" nType="-99"/>
          <Node pos="r" depth="2" NCoef="0" IVar="-1" Cut="0.0000000000000000e+00" cType="1" res="-2.2480583284050226e-03" rms="4.7996005415916443e-01" purity="5.0994050502777100e-01" nType="-99"/>
        </Node>
        <Node pos="r" depth="1" NCoef="0" IVar="15" Cut="1.1000000000000000e+01" cType="0" res="-1.9371776282787323e-01" rms="3.8645830750465393e-01" purity="2.0583525300025940e-01" nType="0">
          <Node pos="l" depth="2" NCoef="0" IVar="-1" Cut="0.0000000000000000e+00" cType="1" res="-6.7379572428762913e-03" rms="3.9160171151161194e-01" purity="2.1930956840515137e-01" nType="-99"/>
          <Node pos="r" depth="2" NCoef="0" IVar="-1" Cut="0.0000000000000000e+00" cType="1" res="-1.0096064768731594e-02" rms="3.6104768514633179e-01" purity="1.6517516970634460e-01" nType="-99"/>
        </Node>
      </Node>
    </BinaryTree>
    <BinaryTree type="DecisionTree" boostWeight="1.0000000000000000e+00" itree="34">
      <Node pos="s" depth="0" NCoef="0" IVar="5" Cut="1.7591992616653442e+00" cType="1" res="-4.6709917485713959e-02" rms="4.4643700122833252e-01" purity="4.8086628317832947e-01" nType="0">
        <Node pos="l" depth="1" NCoef="0" IVar="18" Cut="6.4285712242126465e+00" cType="1" res="4.2456950992345810e-02" rms="4.4622278213500977e-01" purity="6.5828502178192139e-01" nType="0">
          <Node pos="l" depth="2" NCoef="0" IVar="-1" Cut="0.0000000000000000e+00" cType="1" res="5.8472868986427784e-03" rms="4.4785147905349731e-01" purity="7.0482319593429565e-01" nType="-99"/>
          <Node pos="r" depth="2" NCoef="0" IVar="-1" Cut="0.0000000000000000e+00" cType="1" res="-7.6247761026024818e-03" rms="3.5274776816368103e-01" purity="1.4759628474712372e-01" nType="-99"/>
        </Node>
        <Node pos="r" depth="1" NCoef="0" IVar="4" Cut="3.2614343166351318e+00" cType="1" res="-1.4332415163516998e-01" rms="4.2610338330268860e-01" purity="2.8862923383712769e-01" nType="0">
          <Node pos="l" depth="2" NCoef="0" IVar="-1" Cut="0.0000000000000000e+00" cType="1" res="-4.7195469960570335e-03" rms="4.4984263181686401e-01" purity="3.3988386392593384e-01" nType="-99"/>
          <Node pos="r" depth="2" NCoef="0" IVar="-1" Cut="0.0000000000000000e+00" cType="1" res="-1.1176218278706074e-02" rms="2.5066778063774109e-01" purity="6.6120043396949768e-02" nType="-99"/>
        </Node>
      </Node>
    </BinaryTree>
    <BinaryTree type="DecisionTree" boostWeight="1.0000000000000000e+00" itree="35">
      <Node pos="s" depth="0" NCoef="0" IVar="18" Cut="6.4285712242126465e+00" cType="1" res="-3.4539971500635147e-02" rms="4.4945362210273743e-01" purity="4.9845570325851440e-01" nType="0">
        <Node pos="l" depth="1" NCoef="0" IVar="7" Cut="2.1666662693023682e+00" cType="1" res="4.1671926155686378e-03" rms="4.6769154071807861e-01" purity="5.8480989933013916e-01" nType="0">
          <Node pos="l" depth="2" NCoef="0" IVar="-1" Cut="0.0000000000000000e+00" cType="1" res="1.5171704581007361e-03" rms="4.6202161908149719e-01" purity="6.0223829746246338e-01" nType="-99"/>
          <Node pos="r" depth="2" NCoef="0" IVar="-1" Cut="0.0000000000000000e+00" cType="1" res="-8.8034346699714661e-03" rms="4.7226488590240479e-01" purity="3.5880166292190552e-01" nType="-99"/>
        </Node>
        <Node pos="r" depth="1" NCoef="0" IVar="16" Cut="5.0895240157842636e-02" cType="0" res="-2.1518096327781677e-01" rms="2.9038518667221069e-01" purity="9.5452822744846344e-02" nType="0">
          <Node pos="l" depth="2" NCoef="0" IVar="-1" Cut="0.0000000000000000e+00" cType="1" res="-8.0778608098626137e-03" rms="3.8841792941093445e-01" purity="1.9195671379566193e-01" nType="-99"/>
          <Node pos="r" depth="2" NCoef="0" IVar="-1" Cut="0.0000000000000000e+00" cType="1" res="-1.0353954508900642e-02" rms="2.2597685456275940e-01" purity="5.5151972919702530e-02" nType="-99"/>
        </Node>
      </Node>
    </BinaryTree>
    <BinaryTree type="DecisionTree" boostWeight="1.0000000000000000e+00" itree="36">
      <Node pos="s" depth="0" NCoef="0" IVar="4" Cut="1.9991725683212280e+00" cType="1" res="-3.8652818650007248e-02" rms="4.4659081101417542e-01" purity="4.9322712421417236e-01" nType="0">
        <Node pos="l" depth="1" NCoef="0" IVar="18" Cut="4.2857141494750977e+00" cType="1" res="3.8436345756053925e-02" rms="4.4562205672264099e-01" purity="6.5918576717376709e-01" nType="0">
          <Node pos="l" depth="2" NCoef="0" IVar="-1" Cut="0.0000000000000000e+00" cType="1" res="1.3210690580308437e-02" rms="3.6950081586837769e-01" purity="8.2754641771316528e-01" nType="-99"/>
          <Node pos="r" depth="2" NCoef="0" IVar="-1" Cut="0.0000000000000000e+00" cType="1" res="-2.5178531650453806e-03" rms="4.8545569181442261e-01" purity="4.8875883221626282e-01" nType="-99"/>
        </Node>
        <Node pos="r" depth="1" NCoef="0" IVar="5" Cut="2.6559479236602783e+00" cType="1" res="-1.3175252079963684e-01" rms="4.2970067262649536e-01" purity="2.9280078411102295e-01" nType="0">
          <Node pos="l" depth="2" NCoef="0" IVar="-1" Cut="0.0000000000000000e+00" cType="1" res="-4.1340081952512264e-03" rms="4.5423242449760437e-01" purity="3.5510751605033875e-01" nType="-99"/>
          <Node pos="r" depth="2" NCoef="0" IVar="-1" Cut="0.0000000000000000e+00" cType="1" res="-9.0310228988528252e-03" rms="3.5814017057418823e-01" purity="1.6109186410903931e-01" nType="-99"/>
        </Node>
      </Node>
    </BinaryTree>
    <BinaryTree type="DecisionTree" boostWeight="1.0000000000000000e+00" itree="37">
      <Node pos="s" depth="0" NCoef="0" IVar="4" Cut="2.0187876224517822e+00" cType="1" res="-2.6862423866987228e-02" rms="4.4838029146194458e-01" purity="5.0588560104370117e-01" nType="0">
        <Node pos="l" depth="1" NCoef="0" IVar="15" Cut="9.8571424484252930e+00" cType="1" res="4.5928921550512314e-02" rms="4.4728848338127136e-01" purity="6.7071843147277832e-01" nType="0">
          <Node pos="l" depth="2" NCoef="0" IVar="-1" Cut="0.0000000000000000e+00" cType="1" res="1.1686491779983044e-02" rms="4.0438646078109741e-01" purity="7.8479254245758057e-01" nType="-99"/>
          <Node pos="r" depth="2" NCoef="0" IVar="-1" Cut="0.0000000000000000e+00" cType="1" res="-1.8199366750195622e-03" rms="4.7979554533958435e-01" purity="5.5648297071456909e-01" nType="-99"/>
        </Node>
        <Node pos="r" depth="1" NCoef="0" IVar="18" Cut="6.1904764175415039e+00" cType="1" res="-1.1711104959249496e-01" rms="4.3306255340576172e-01" purity="3.0152156949043274e-01" nType="0">
          <Node pos="l" depth="2" NCoef="0" IVar="-1" Cut="0.0000000000000000e+00" cType="1" res="-3.3097856212407351e-03" rms="4.8318377137184143e-01" purity="4.0316992998123169e-01" nType="-99"/>
          <Node pos="r" depth="2" NCoef="0" IVar="-1" Cut="0.0000000000000000e+00" cType="1" res="-1.0002140887081623e-02" rms="2.7204737067222595e-01" purity="8.1463299691677094e-02" nType="-99"/>
        </Node>
      </Node>
    </BinaryTree>
    <BinaryTree type="DecisionTree" boostWeight="1.0000000000000000e+00" itree="38">
      <Node pos="s" depth="0" NCoef="0" IVar="18" Cut="6.1904764175415039e+00" cType="1" res="-3.3290829509496689e-02" rms="4.4396087527275085e-01" purity="4.9542120099067688e-01" nType="0">
        <Node pos="l" depth="1" NCoef="0" IVar="5" Cut="1.9442924261093140e+00" cType="1" res="5.6791868992149830e-03" rms="4.6353867650032043e-01" purity="5.8509308099746704e-01" nType="0">
          <Node pos="l" depth="2" NCoef="0" IVar="-1" Cut="0.0000000000000000e+00" cType="1" res="3.8725878112018108e-03" rms="4.5180797576904297e-01" purity="6.8218189477920532e-01" nType="-99"/>
          <Node pos="r" depth="2" NCoef="0" IVar="-1" Cut="0.0000000000000000e+00" cType="1" res="-4.0995744056999683e-03" rms="4.7362068295478821e-01" purity="3.6208102107048035e-01" nType="-99"/>
        </Node>
        <Node pos="r" depth="1" NCoef="0" IVar="20" Cut="1.2367895126342773e+01" cType="1" res="-2.1034939587116241e-01" rms="2.7951505780220032e-01" purity="8.8000997900962830e-02" nType="0">
          <Node pos="l" depth="2" NCoef="0" IVar="-1" Cut="0.0000000000000000e+00" cType="1" res="-5.7856477797031403e-03" rms="4.4048330187797546e-01" purity="2.6854294538497925e-01" nType="-99"/>
          <Node pos="r" depth="2" NCoef="0" IVar="-1" Cut="0.0000000000000000e+00" cType="1" res="-1.0229699313640594e-02" rms="2.3253159224987030e-01" purity="5.8269955217838287e-02" nType="-99"/>
        </Node>
      </Node>
    </BinaryTree>
    <BinaryTree type="DecisionTree" boostWeight="1.0000000000000000e+00" itree="39">
      <Node pos="s" depth="0" NCoef="0" IVar="18" Cut="5.2380952835083008e+00" cType="1" res="-1.5753692016005516e-02" rms="4.3997541069984436e-01" purity="5.1146179437637329e-01" nType="0">
        <Node pos="l" depth="1" NCoef="0" IVar="0" Cut="2.6116621494293213e+00" cType="1" res="7.9966895282268524e-02" rms="4.3093186616897583e-01" purity="7.0135921239852905e-01" nType="0">
          <Node pos="l" depth="2" NCoef="0" IVar="-1" Cut="0.0000000000000000e+00" cType="1" res="5.5190571583807468e-03" rms="4.2651519179344177e-01" purity="7.3764312267303467e-01" nType="-99"/>
          <Node pos="r" depth="2" NCoef="0" IVar="-1" Cut="0.0000000000000000e+00" cType="1" res="-1.0078328661620617e-02" rms="3.8514161109924316e-01" purity="1.9494771957397461e-01" nType="-99"/>
        </Node>
        <Node pos="r" depth="1" NCoef="0" IVar="18" Cut="6.1904764175415039e+00" cType="1" res="-1.0939101874828339e-01" rms="4.2842975258827209e-01" purity="3.2569733262062073e-01" nType="0">
          <Node pos="l" depth="2" NCoef="0" IVar="-1" Cut="0.0000000000000000e+00" cType="1" res="-2.6687793433666229e-03" rms="4.8799329996109009e-01" purity="4.7039347887039185e-01" nType="-99"/>
          <Node pos="r" depth="2" NCoef="0" IVar="-1" Cut="0.0000000000000000e+00" cType="1" res="-9.2727299779653549e-03" rms="2.8319656848907471e-01" purity="9.0645357966423035e-02" nType="-99"/>
        </Node>
      </Node>
    </BinaryTree>
    <BinaryTree type="DecisionTree" boostWeight="1.0000000000000000e+00" itree="40">
      <Node pos="s" depth="0" NCoef="0" IVar="18" Cut="6.4285712242126465e+00" cType="1" res="-3.0347203835844994e-02" rms="4.4659879803657532e-01" purity="5.0013875961303711e-01" nType="0">
        <Node pos="l" depth="1" NCoef="0" IVar="4" Cut="3.1344199180603027e+00" cType="1" res="6.4226216636598110e-03" rms="4.6616852283477783e-01" purity="5.8881795406341553e-01" nType="0">
          <Node pos="l" depth="2" NCoef="0" IVar="-1" Cut="0.0000000000000000e+00" cType="1" res="1.7843032255768776e-03" rms="4.6770113706588745e-01" purity="6.1677020788192749e-01" nType="-99"/>
          <Node pos="r" depth="2" NCoef="0" IVar="-1" Cut="0.0000000000000000e+00" cType="1" res="-1.0139085352420807e-02" rms="3.6825138330459595e-01" purity="1.6237165033817291e-01" nType="-99"/>
        </Node>
        <Node pos="r" depth="1" NCoef="0" IVar="20" Cut="1.0880680084228516e+01" cType="1" res="-1.9868710637092590e-01" rms="2.8834646940231323e-01" purity="9.4146609306335449e-02" nType="0">
          <Node pos="l" depth="2" NCoef="0" IVar="-1" Cut="0.0000000000000000e+00" cType="1" res="-5.8245616964995861e-03" rms="3.8395696878433228e-01" purity="1.8299502134323120e-01" nType="-99"/>
          <Node pos="r" depth="2" NCoef="0" IVar="-1" Cut="0.0000000000000000e+00" cType="1" res="-9.9350847303867340e-03" rms="2.4593785405158997e-01" purity="6.5697371959686279e-02" nType="-99"/>
        </Node>
      </Node>
    </BinaryTree>
    <BinaryTree type="DecisionTree" boostWeight="1.0000000000000000e+00" itree="41">
      <Node pos="s" depth="0" NCoef="0" IVar="5" Cut="1.7595406770706177e+00" cType="1" res="-3.1438529491424561e-02" rms="4.4572275876998901e-01" purity="4.9755433201789856e-01" nType="0">
        <Node pos="l" depth="1" NCoef="0" IVar="18" Cut="3.4285714626312256e+00" cType="1" res="3.6422803997993469e-02" rms="4.4607836008071899e-01" purity="6.6311800479888916e-01" nType="0">
          <Node pos="l" depth="2" NCoef="0" IVar="-1" Cut="0.0000000000000000e+00" cType="1" res="1.9999369978904724e-02" rms="3.5374799370765686e-01" purity="8.4805214405059814e-01" nType="-99"/>
          <Node pos="r" depth="2" NCoef="0" IVar="-1" Cut="0.0000000000000000e+00" cType="1" res="-1.3294884702190757e-03" rms="4.8223847150802612e-01" purity="5.5720239877700806e-01" nType="-99"/>
        </Node>
        <Node pos="r" depth="1" NCoef="0" IVar="4" Cut="3.2574267387390137e+00" cType="1" res="-1.0566221922636032e-01" rms="4.3333113193511963e-01" purity="3.1646814942359924e-01" nType="0">
          <Node pos="l" depth="2" NCoef="0" IVar="-1" Cut="0.0000000000000000e+00" cType="1" res="-4.2857248336076736e-03" rms="4.5125341415405273e-01" purity="3.6350369453430176e-01" nType="-99"/>
          <Node pos="r" depth="2" NCoef="0" IVar="-1" Cut="0.0000000000000000e+00" cType="1" res="-1.0563354007899761e-02" rms="2.8913107514381409e-01" purity="9.0365149080753326e-02" nType="-99"/>
        </Node>
      </Node>
    </BinaryTree>
    <BinaryTree type="DecisionTree" boostWeight="1.0000000000000000e+00" itree="42">
      <Node pos="s" depth="0" NCoef="0" IVar="18" Cut="6.4285712242126465e+00" cType="1" res="-1.9648747518658638e-02" rms="4.4580650329589844e-01" purity="5.1616257429122925e-01" nType="0">
        <Node pos="l" depth="1" NCoef="0" IVar="4" Cut="3.3263812065124512e+00" cType="1" res="1.1676372960209846e-02" rms="4.6210432052612305e-01" purity="5.9518730640411377e-01" nType="0">
          <Node pos="l" depth="2" NCoef="0" IVar="-1" Cut="0.0000000000000000e+00" cType="1" res="1.4454426709562540e-03" rms="4.6356192231178284e-01" purity="6.1924719810485840e-01" nType="-99"/>
          <Node pos="r" depth="2" NCoef="0" IVar="-1" Cut="0.0000000000000000e+00" cType="1" res="-1.0718747973442078e-02" rms="3.4027615189552307e-01" purity="1.3267008960247040e-01" nType="-99"/>
        </Node>
        <Node pos="r" depth="1" NCoef="0" IVar="5" Cut="1.7771936655044556e+00" cType="1" res="-1.8345813453197479e-01" rms="2.9899907112121582e-01" purity="1.0291604697704315e-01" nType="0">
          <Node pos="l" depth="2" NCoef="0" IVar="-1" Cut="0.0000000000000000e+00" cType="1" res="-6.6444631665945053e-03" rms="4.3557053804397583e-01" purity="2.5901165604591370e-01" nType="-99"/>
          <Node pos="r" depth="2" NCoef="0" IVar="-1" Cut="0.0000000000000000e+00" cType="1" res="-9.7099402919411659e-03" rms="2.4045699834823608e-01" purity="6.2244772911071777e-02" nType="-99"/>
        </Node>
      </Node>
    </BinaryTree>
    <BinaryTree type="DecisionTree" boostWeight="1.0000000000000000e+00" itree="43">
      <Node pos="s" depth="0" NCoef="0" IVar="18" Cut="6.1904764175415039e+00" cType="1" res="-3.0780900269746780e-02" rms="4.3615263700485229e-01" purity="4.9242484569549561e-01" nType="0">
        <Node pos="l" depth="1" NCoef="0" IVar="5" Cut="1.3610047101974487e+00" cType="1" res="9.4323204830288887e-03" rms="4.5814210176467896e-01" purity="5.9117841720581055e-01" nType="0">
          <Node pos="l" depth="2" NCoef="0" IVar="-1" Cut="0.0000000000000000e+00" cType="1" res="6.7615224979817867e-03" rms="4.1090258955955505e-01" purity="7.5638109445571899e-01" nType="-99"/>
          <Node pos="r" depth="2" NCoef="0" IVar="-1" Cut="0.0000000000000000e+00" cType="1" res="-2.2542129736393690e-03" rms="4.7840827703475952e-01" purity="4.8292824625968933e-01" nType="-99"/>
        </Node>
        <Node pos="r" depth="1" NCoef="0" IVar="3" Cut="2.8571429252624512e+00" cType="0" res="-1.9749939441680908e-01" rms="2.7239897847175598e-01" purity="8.3005875349044800e-02" nType="0">
          <Node pos="l" depth="2" NCoef="0" IVar="-1" Cut="0.0000000000000000e+00" cType="1" res="-7.1866242215037346e-03" rms="3.4027844667434692e-01" purity="1.3671919703483582e-01" nType="-99"/>
          <Node pos="r" depth="2" NCoef="0" IVar="-1" Cut="0.0000000000000000e+00" cType="1" res="-9.9127357825636864e-03" rms="2.2778844833374023e-01" purity="5.6278917938470840e-02" nType="-99"/>
        </Node>
      </Node>
    </BinaryTree>
    <BinaryTree type="DecisionTree" boostWeight="1.0000000000000000e+00" itree="44">
      <Node pos="s" depth="0" NCoef="0" IVar="18" Cut="6.4285712242126465e+00" cType="1" res="-3.4247830510139465e-02" rms="4.4276538491249084e-01" purity="4.9468827247619629e-01" nType="0">
        <Node pos="l" depth="1" NCoef="0" IVar="4" Cut="3.1326341629028320e+00" cType="1" res="-9.9529359431471676e-05" rms="4.6408450603485107e-01" purity="5.8375245332717896e-01" nType="0">
          <Node pos="l" depth="2" NCoef="0" IVar="-1" Cut="0.0000000000000000e+00" cType="1" res="1.5217099571600556e-03" rms="4.6671563386917114e-01" purity="6.1854475736618042e-01" nType="-99"/>
          <Node pos="r" depth="2" NCoef="0" IVar="-1" Cut="0.0000000000000000e+00" cType="1" res="-9.6543533727526665e-03" rms="3.7211725115776062e-01" purity="1.6720408201217651e-01" nType="-99"/>
        </Node>
        <Node pos="r" depth="1" NCoef="0" IVar="16" Cut="5.3304836153984070e-02" cType="0" res="-1.9001735746860504e-01" rms="2.7976417541503906e-01" purity="8.8416643440723419e-02" nType="0">
          <Node pos="l" depth="2" NCoef="0" IVar="-1" Cut="0.0000000000000000e+00" cType="1" res="-6.7822840064764023e-03" rms="3.7874680757522583e-01" purity="1.7801284790039062e-01" nType="-99"/>
          <Node pos="r" depth="2" NCoef="0" IVar="-1" Cut="0.0000000000000000e+00" cType="1" res="-9.6428375691175461e-03" rms="2.3217292129993439e-01" purity="5.9014096856117249e-02" nType="-99"/>
        </Node>
      </Node>
    </BinaryTree>
    <BinaryTree type="DecisionTree" boostWeight="1.0000000000000000e+00" itree="45">
      <Node pos="s" depth="0" NCoef="0" IVar="15" Cut="1.8428571701049805e+01" cType="1" res="-3.5768236964941025e-02" rms="4.4149804115295410e-01" purity="4.9310117959976196e-01" nType="0">
        <Node pos="l" depth="1" NCoef="0" IVar="5" Cut="3.1148061752319336e+00" cType="1" res="-4.0405211038887501e-03" rms="4.6247494220733643e-01" purity="5.7135361433029175e-01" nType="0">
          <Node pos="l" depth="2" NCoef="0" IVar="-1" Cut="0.0000000000000000e+00" cType="1" res="6.6480628447607160e-04" rms="4.6610140800476074e-01" purity="5.9881597757339478e-01" nType="-99"/>
          <Node pos="r" depth="2" NCoef="0" IVar="-1" Cut="0.0000000000000000e+00" cType="1" res="-1.0002810508012772e-02" rms="3.0765330791473389e-01" purity="1.0802505165338516e-01" nType="-99"/>
        </Node>
        <Node pos="r" depth="1" NCoef="0" IVar="14" Cut="5.6236610412597656e+01" cType="1" res="-2.1239851415157318e-01" rms="2.2924347221851349e-01" purity="5.7464953511953354e-02" nType="0">
          <Node pos="l" depth="2" NCoef="0" IVar="-1" Cut="0.0000000000000000e+00" cType="1" res="-8.0617638304829597e-03" rms="3.0887627601623535e-01" purity="1.1150762438774109e-01" nType="-99"/>
          <Node pos="r" depth="2" NCoef="0" IVar="-1" Cut="0.0000000000000000e+00" cType="1" res="-1.0059825144708157e-02" rms="1.7402787506580353e-01" purity="3.1445279717445374e-02" nType="-99"/>
        </Node>
      </Node>
    </BinaryTree>
    <BinaryTree type="DecisionTree" boostWeight="1.0000000000000000e+00" itree="46">
      <Node pos="s" depth="0" NCoef="0" IVar="18" Cut="5.1428570747375488e+00" cType="1" res="-2.0011326298117638e-02" rms="4.4403895735740662e-01" purity="5.1229953765869141e-01" nType="0">
        <Node pos="l" depth="1" NCoef="0" IVar="5" Cut="2.1387217044830322e+00" cType="1" res="4.4157449156045914e-02" rms="4.3535476922988892e-01" purity="6.6271936893463135e-01" nType="0">
          <Node pos="l" depth="2" NCoef="0" IVar="-1" Cut="0.0000000000000000e+00" cType="1" res="6.2041864730417728e-03" rms="4.2382094264030457e-01" purity="7.3498666286468506e-01" nType="-99"/>
          <Node pos="r" depth="2" NCoef="0" IVar="-1" Cut="0.0000000000000000e+00" cType="1" res="-6.3161430880427361e-03" rms="4.5082646608352661e-01" purity="3.0506300926208496e-01" nType="-99"/>
        </Node>
        <Node pos="r" depth="1" NCoef="0" IVar="4" Cut="2.9339880943298340e+00" cType="1" res="-9.0052016079425812e-02" rms="4.4283869862556458e-01" purity="3.4811523556709290e-01" nType="0">
          <Node pos="l" depth="2" NCoef="0" IVar="-1" Cut="0.0000000000000000e+00" cType="1" res="-4.2591127566993237e-03" rms="4.6464389562606812e-01" purity="4.0185943245887756e-01" nType="-99"/>
          <Node pos="r" depth="2" NCoef="0" IVar="-1" Cut="0.0000000000000000e+00" cType="1" res="-8.4745502099394798e-03" rms="3.1086874008178711e-01" purity="1.1804880201816559e-01" nType="-99"/>
        </Node>
      </Node>
    </BinaryTree>
    <BinaryTree type="DecisionTree" boostWeight="1.0000000000000000e+00" itree="47">
      <Node pos="s" depth="0" NCoef="0" IVar="4" Cut="1.7968528270721436e+00" cType="1" res="-2.3107254877686501e-02" rms="4.4063028693199158e-01" purity="5.0769346952438354e-01" nType="0">
        <Node pos="l" depth="1" NCoef="0" IVar="18" Cut="3.4285714626312256e+00" cType="1" res="6.1630476266145706e-02" rms="4.2383989691734314e-01" purity="7.3311239480972290e-01" nType="0">
          <Node pos="l" depth="2" NCoef="0" IVar="-1" Cut="0.0000000000000000e+00" cType="1" res="2.1278243511915207e-02" rms="3.3247178792953491e-01" purity="8.7313473224639893e-01" nType="-99"/>
          <Node pos="r" depth="2" NCoef="0" IVar="-1" Cut="0.0000000000000000e+00" cType="1" res="-6.5541488584131002e-04" rms="4.7791925072669983e-01" purity="6.1710244417190552e-01" nType="-99"/>
        </Node>
        <Node pos="r" depth="1" NCoef="0" IVar="18" Cut="6.1904764175415039e+00" cType="1" res="-8.3368867635726929e-02" rms="4.4242444634437561e-01" purity="3.4738576412200928e-01" nType="0">
          <Node pos="l" depth="2" NCoef="0" IVar="-1" Cut="0.0000000000000000e+00" cType="1" res="-2.6034938637167215e-03" rms="4.8662817478179932e-01" purity="4.4833847880363464e-01" nType="-99"/>
          <Node pos="r" depth="2" NCoef="0" IVar="-1" Cut="0.0000000000000000e+00" cType="1" res="-9.0449154376983643e-03" rms="2.6607713103294373e-01" purity="7.7468484640121460e-02" nType="-99"/>
        </Node>
      </Node>
    </BinaryTree>
    <BinaryTree type="DecisionTree" boostWeight="1.0000000000000000e+00" itree="48">
      <Node pos="s" depth="0" NCoef="0" IVar="18" Cut="6.4285712242126465e+00" cType="1" res="-4.4610634446144104e-02" rms="4.5006769895553589e-01" purity="4.8967286944389343e-01" nType="0">
        <Node pos="l" depth="1" NCoef="0" IVar="8" Cut="2.4261906147003174e+00" cType="1" res="-1.8180383369326591e-02" rms="4.7255578637123108e-01" purity="5.7174998521804810e-01" nType="0">
          <Node pos="l" depth="2" NCoef="0" IVar="-1" Cut="0.0000000000000000e+00" cType="1" res="1.2337614316493273e-03" rms="4.6949771046638489e-01" purity="5.8242571353912354e-01" nType="-99"/>
          <Node pos="r" depth="2" NCoef="0" IVar="-1" Cut="0.0000000000000000e+00" cType="1" res="-9.0641546994447708e-03" rms="4.8143428564071655e-01" purity="4.6929770708084106e-01" nType="-99"/>
        </Node>
        <Node pos="r" depth="1" NCoef="0" IVar="20" Cut="1.0850731849670410e+01" cType="1" res="-1.7187465727329254e-01" rms="2.8826647996902466e-01" purity="9.4464316964149475e-02" nType="0">
          <Node pos="l" depth="2" NCoef="0" IVar="-1" Cut="0.0000000000000000e+00" cType="1" res="-5.0115687772631645e-03" rms="3.9779576659202576e-01" purity="2.0147085189819336e-01" nType="-99"/>
          <Node pos="r" depth="2" NCoef="0" IVar="-1" Cut="0.0000000000000000e+00" cType="1" res="-9.3141067773103714e-03" rms="2.5477486848831177e-01" purity="7.1177043020725250e-02" nType="-99"/>
        </Node>
      </Node>
    </BinaryTree>
    <BinaryTree type="DecisionTree" boostWeight="1.0000000000000000e+00" itree="49">
      <Node pos="s" depth="0" NCoef="0" IVar="18" Cut="6.4285712242126465e+00" cType="1" res="-2.7655992656946182e-02" rms="4.3664404749870300e-01" purity="4.9808603525161743e-01" nType="0">
        <Node pos="l" depth="1" NCoef="0" IVar="5" Cut="1.3610047101974487e+00" cType="1" res="8.1959459930658340e-03" rms="4.5960110425949097e-01" purity="5.9504789113998413e-01" nType="0">
          <Node pos="l" depth="2" NCoef="0" IVar="-1" Cut="0.0000000000000000e+00" cType="1" res="5.8795590884983540e-03" rms="4.0995630621910095e-01" purity="7.6267880201339722e-01" nType="-99"/>
          <Node pos="r" depth="2" NCoef="0" IVar="-1" Cut="0.0000000000000000e+00" cType="1" res="-2.1660379134118557e-03" rms="4.8153463006019592e-01" purity="4.8723992705345154e-01" nType="-99"/>
        </Node>
        <Node pos="r" depth="1" NCoef="0" IVar="19" Cut="1.5700068324804306e-02" cType="0" res="-1.8146270513534546e-01" rms="2.7058961987495422e-01" purity="8.2114644348621368e-02" nType="0">
          <Node pos="l" depth="2" NCoef="0" IVar="-1" Cut="0.0000000000000000e+00" cType="1" res="-7.1953991428017616e-03" rms="3.6752644181251526e-01" purity="1.6435156762599945e-01" nType="-99"/>
          <Node pos="r" depth="2" NCoef="0" IVar="-1" Cut="0.0000000000000000e+00" cType="1" res="-8.8521996513009071e-03" rms="2.2878499329090118e-01" purity="5.7495072484016418e-02" nType="-99"/>
        </Node>
      </Node>
    </BinaryTree>
    <BinaryTree type="DecisionTree" boostWeight="1.0000000000000000e+00" itree="50">
      <Node pos="s" depth="0" NCoef="0" IVar="18" Cut="6.4285712242126465e+00" cType="1" res="-2.7439190074801445e-02" rms="4.3803235888481140e-01" purity="4.9688935279846191e-01" nType="0">
        <Node pos="l" depth="1" NCoef="0" IVar="12" Cut="2.1428570747375488e+00" cType="1" res="8.3444332703948021e-03" rms="4.6170100569725037e-01" purity="5.9702074527740479e-01" nType="0">
          <Node pos="l" depth="2" NCoef="0" IVar="-1" Cut="0.0000000000000000e+00" cType="1" res="1.6807593638077378e-03" rms="4.5147585868835449e-01" purity="6.3351106643676758e-01" nType="-99"/>
          <Node pos="r" depth="2" NCoef="0" IVar="-1" Cut="0.0000000000000000e+00" cType="1" res="-5.4268450476229191e-03" rms="4.8141008615493774e-01" purity="4.5707821846008301e-01" nType="-99"/>
        </Node>
        <Node pos="r" depth="1" NCoef="0" IVar="5" Cut="1.7886981964111328e+00" cType="1" res="-1.7333614826202393e-01" rms="2.8024968504905701e-01" purity="8.8633634150028229e-02" nType="0">
          <Node pos="l" depth="2" NCoef="0" IVar="-1" Cut="0.0000000000000000e+00" cType="1" res="-6.0286186635494232e-03" rms="3.8007879257202148e-01" purity="1.7906345427036285e-01" nType="-99"/>
          <Node pos="r" depth="2" NCoef="0" IVar="-1" Cut="0.0000000000000000e+00" cType="1" res="-9.0269418433308601e-03" rms="2.3952834308147430e-01" purity="6.1724584549665451e-02" nType="-99"/>
        </Node>
      </Node>
    </BinaryTree>
    <BinaryTree type="DecisionTree" boostWeight="1.0000000000000000e+00" itree="51">
      <Node pos="s" depth="0" NCoef="0" IVar="5" Cut="1.3193994760513306e+00" cType="1" res="-3.2058250159025192e-02" rms="4.4463816285133362e-01" purity="5.0363779067993164e-01" nType="0">
        <Node pos="l" depth="1" NCoef="0" IVar="0" Cut="9.5518636703491211e-01" cType="0" res="5.8637499809265137e-02" rms="4.2639237642288208e-01" purity="7.1906745433807373e-01" nType="0">
          <Node pos="l" depth="2" NCoef="0" IVar="-1" Cut="0.0000000000000000e+00" cType="1" res="7.9196337610483170e-03" rms="3.6802521347999573e-01" purity="8.0163735151290894e-01" nType="-99"/>
          <Node pos="r" depth="2" NCoef="0" IVar="-1" Cut="0.0000000000000000e+00" cType="1" res="1.8598234746605158e-03" rms="4.5616349577903748e-01" purity="6.5478062629699707e-01" nType="-99"/>
        </Node>
        <Node pos="r" depth="1" NCoef="0" IVar="12" Cut="1.4285714924335480e-01" cType="0" res="-7.6950684189796448e-02" rms="4.4663491845130920e-01" purity="3.9700475335121155e-01" nType="0">
          <Node pos="l" depth="2" NCoef="0" IVar="-1" Cut="0.0000000000000000e+00" cType="1" res="-2.8853027615696192e-03" rms="4.4499671459197998e-01" purity="4.0737065672874451e-01" nType="-99"/>
          <Node pos="r" depth="2" NCoef="0" IVar="-1" Cut="0.0000000000000000e+00" cType="1" res="-1.0053996928036213e-02" rms="4.3372336030006409e-01" purity="3.2998931407928467e-01" nType="-99"/>
        </Node>
      </Node>
    </BinaryTree>
    <BinaryTree type="DecisionTree" boostWeight="1.0000000000000000e+00" itree="52">
      <Node pos="s" depth="0" NCoef="0" IVar="18" Cut="6.1904764175415039e+00" cType="1" res="-3.0256461352109909e-02" rms="4.4050171971321106e-01" purity="4.9632468819618225e-01" nType="0">
        <Node pos="l" depth="1" NCoef="0" IVar="8" Cut="2.3476190567016602e+00" cType="1" res="7.4179173680022359e-04" rms="4.6433788537979126e-01" purity="5.9090936183929443e-01" nType="0">
          <Node pos="l" depth="2" NCoef="0" IVar="-1" Cut="0.0000000000000000e+00" cType="1" res="1.2317765504121780e-03" rms="4.5802092552185059e-01" purity="6.1440181732177734e-01" nType="-99"/>
          <Node pos="r" depth="2" NCoef="0" IVar="-1" Cut="0.0000000000000000e+00" cType="1" res="-8.5556153208017349e-03" rms="4.6607863903045654e-01" purity="4.0931048989295959e-01" nType="-99"/>
        </Node>
        <Node pos="r" depth="1" NCoef="0" IVar="3" Cut="2.2380952835083008e+00" cType="0" res="-1.6283152997493744e-01" rms="2.8304281830787659e-01" purity="9.1799445450305939e-02" nType="0">
          <Node pos="l" depth="2" NCoef="0" IVar="-1" Cut="0.0000000000000000e+00" cType="1" res="-6.3615934923291206e-03" rms="3.7327906489372253e-01" purity="1.7498888075351715e-01" nType="-99"/>
          <Node pos="r" depth="2" NCoef="0" IVar="-1" Cut="0.0000000000000000e+00" cType="1" res="-9.2760277912020683e-03" rms="2.2605799138545990e-01" purity="5.5773876607418060e-02" nType="-99"/>
        </Node>
      </Node>
    </BinaryTree>
    <BinaryTree type="DecisionTree" boostWeight="1.0000000000000000e+00" itree="53">
      <Node pos="s" depth="0" NCoef="0" IVar="18" Cut="6.1904764175415039e+00" cType="1" res="-3.0152596533298492e-02" rms="4.3904998898506165e-01" purity="4.9506795406341553e-01" nType="0">
        <Node pos="l" depth="1" NCoef="0" IVar="4" Cut="3.1326341629028320e+00" cType="1" res="-1.1395080946385860e-03" rms="4.6089303493499756e-01" purity="5.8298462629318237e-01" nType="0">
          <Node pos="l" depth="2" NCoef="0" IVar="-1" Cut="0.0000000000000000e+00" cType="1" res="1.2500734301283956e-03" rms="4.6374177932739258e-01" purity="6.1290639638900757e-01" nType="-99"/>
          <Node pos="r" depth="2" NCoef="0" IVar="-1" Cut="0.0000000000000000e+00" cType="1" res="-9.1821756213903427e-03" rms="3.5312774777412415e-01" purity="1.4814594388008118e-01" nType="-99"/>
        </Node>
        <Node pos="r" depth="1" NCoef="0" IVar="15" Cut="2.2000000000000000e+01" cType="1" res="-1.6366393864154816e-01" rms="2.8391364216804504e-01" purity="9.0496100485324860e-02" nType="0">
          <Node pos="l" depth="2" NCoef="0" IVar="-1" Cut="0.0000000000000000e+00" cType="1" res="-6.9374502636492252e-03" rms="3.3537095785140991e-01" purity="1.3077723979949951e-01" nType="-99"/>
          <Node pos="r" depth="2" NCoef="0" IVar="-1" Cut="0.0000000000000000e+00" cType="1" res="-1.0229565203189850e-02" rms="1.7539060115814209e-01" purity="3.2133929431438446e-02" nType="-99"/>
        </Node>
      </Node>
    </BinaryTree>
    <BinaryTree type="DecisionTree" boostWeight="1.0000000000000000e+00" itree="54">
      <Node pos="s" depth="0" NCoef="0" IVar="18" Cut="6.4285712242126465e+00" cType="1" res="-1.3226610608398914e-02" rms="4.4008806347846985e-01" purity="5.1999938488006592e-01" nType="0">
        <Node pos="l" depth="1" NCoef="0" IVar="10" Cut="2.0974164009094238e+00" cType="1" res="1.7128553241491318e-02" rms="4.6086788177490234e-01" purity="6.1193931102752686e-01" nType="0">
          <Node pos="l" depth="2" NCoef="0" IVar="-1" Cut="0.0000000000000000e+00" cType="1" res="5.2767428569495678e-03" rms="4.3288365006446838e-01" purity="7.1761304140090942e-01" nType="-99"/>
          <Node pos="r" depth="2" NCoef="0" IVar="-1" Cut="0.0000000000000000e+00" cType="1" res="-4.1272994130849838e-03" rms="4.8383730649948120e-01" purity="4.7321820259094238e-01" nType="-99"/>
        </Node>
        <Node pos="r" depth="1" NCoef="0" IVar="17" Cut="1.4522883415222168e+01" cType="1" res="-1.5305946767330170e-01" rms="2.8920063376426697e-01" purity="9.6472464501857758e-02" nType="0">
          <Node pos="l" depth="2" NCoef="0" IVar="-1" Cut="0.0000000000000000e+00" cType="1" res="-4.2442586272954941e-03" rms="4.2411661148071289e-01" purity="2.5534793734550476e-01" nType="-99"/>
          <Node pos="r" depth="2" NCoef="0" IVar="-1" Cut="0.0000000000000000e+00" cType="1" res="-8.7256729602813721e-03" rms="2.4926578998565674e-01" purity="6.8427152931690216e-02" nType="-99"/>
        </Node>
      </Node>
    </BinaryTree>
    <BinaryTree type="DecisionTree" boostWeight="1.0000000000000000e+00" itree="55">
      <Node pos="s" depth="0" NCoef="0" IVar="4" Cut="2.0145142078399658e+00" cType="1" res="-2.9049295932054520e-02" rms="4.3886774778366089e-01" purity="5.0118702650070190e-01" nType="0">
        <Node pos="l" depth="1" NCoef="0" IVar="8" Cut="2.4261906147003174e+00" cType="1" res="2.8703918680548668e-02" rms="4.4408389925956726e-01" purity="6.7097008228302002e-01" nType="0">
          <Node pos="l" depth="2" NCoef="0" IVar="-1" Cut="0.0000000000000000e+00" cType="1" res="3.9892653003334999e-03" rms="4.2826047539710999e-01" purity="7.0395255088806152e-01" nType="-99"/>
          <Node pos="r" depth="2" NCoef="0" IVar="-1" Cut="0.0000000000000000e+00" cType="1" res="-8.4991566836833954e-03" rms="4.8520493507385254e-01" purity="4.5323041081428528e-01" nType="-99"/>
        </Node>
        <Node pos="r" depth="1" NCoef="0" IVar="4" Cut="3.2586462497711182e+00" cType="1" res="-1.0060862451791763e-01" rms="4.2147925496101379e-01" purity="2.9081657528877258e-01" nType="0">
          <Node pos="l" depth="2" NCoef="0" IVar="-1" Cut="0.0000000000000000e+00" cType="1" res="-3.5063286777585745e-03" rms="4.4159564375877380e-01" purity="3.3672717213630676e-01" nType="-99"/>
          <Node pos="r" depth="2" NCoef="0" IVar="-1" Cut="0.0000000000000000e+00" cType="1" res="-9.6434429287910461e-03" rms="2.8109520673751831e-01" purity="8.4972538053989410e-02" nType="-99"/>
        </Node>
      </Node>
    </BinaryTree>
    <BinaryTree type="DecisionTree" boostWeight="1.0000000000000000e+00" itree="56">
      <Node pos="s" depth="0" NCoef="0" IVar="5" Cut="2.2000672817230225e+00" cType="1" res="-3.4221958369016647e-02" rms="4.3968269228935242e-01" purity="4.9743926525115967e-01" nType="0">
        <Node pos="l" depth="1" NCoef="0" IVar="8" Cut="2.4261906147003174e+00" cType="1" res="5.2257808856666088e-03" rms="4.5344257354736328e-01" purity="6.0665822029113770e-01" nType="0">
          <Node pos="l" depth="2" NCoef="0" IVar="-1" Cut="0.0000000000000000e+00" cType="1" res="1.5292946482077241e-03" rms="4.4628864526748657e-01" purity="6.3281023502349854e-01" nType="-99"/>
          <Node pos="r" depth="2" NCoef="0" IVar="-1" Cut="0.0000000000000000e+00" cType="1" res="-8.2334401085972786e-03" rms="4.6485552191734314e-01" purity="4.1047784686088562e-01" nType="-99"/>
        </Node>
        <Node pos="r" depth="1" NCoef="0" IVar="5" Cut="2.5475888252258301e+00" cType="1" res="-1.3744214177131653e-01" rms="3.8267222046852112e-01" purity="2.1165344119071960e-01" nType="0">
          <Node pos="l" depth="2" NCoef="0" IVar="-1" Cut="0.0000000000000000e+00" cType="1" res="-2.7750511653721333e-03" rms="4.4052010774612427e-01" purity="3.1579029560089111e-01" nType="-99"/>
          <Node pos="r" depth="2" NCoef="0" IVar="-1" Cut="0.0000000000000000e+00" cType="1" res="-7.3331189341843128e-03" rms="3.3577519655227661e-01" purity="1.4671863615512848e-01" nType="-99"/>
        </Node>
      </Node>
    </BinaryTree>
    <BinaryTree type="DecisionTree" boostWeight="1.0000000000000000e+00" itree="57">
      <Node pos="s" depth="0" NCoef="0" IVar="5" Cut="2.6067852973937988e+00" cType="1" res="-5.2121724933385849e-02" rms="4.4253101944923401e-01" purity="4.7610616683959961e-01" nType="0">
        <Node pos="l" depth="1" NCoef="0" IVar="8" Cut="2.4261906147003174e+00" cType="1" res="-2.9732581228017807e-02" rms="4.5504420995712280e-01" purity="5.3633421659469604e-01" nType="0">
          <Node pos="l" depth="2" NCoef="0" IVar="-1" Cut="0.0000000000000000e+00" cType="1" res="5.3817447042092681e-04" rms="4.4953599572181702e-01" purity="5.5281227827072144e-01" nType="-99"/>
          <Node pos="r" depth="2" NCoef="0" IVar="-1" Cut="0.0000000000000000e+00" cType="1" res="-7.6319477520883083e-03" rms="4.6896457672119141e-01" purity="3.9844778180122375e-01" nType="-99"/>
        </Node>
        <Node pos="r" depth="1" NCoef="0" IVar="4" Cut="3.2839152812957764e+00" cType="1" res="-1.7245550453662872e-01" rms="3.4393855929374695e-01" purity="1.5240155160427094e-01" nType="0">
          <Node pos="l" depth="2" NCoef="0" IVar="-1" Cut="0.0000000000000000e+00" cType="1" res="-5.3555122576653957e-03" rms="3.9726704359054565e-01" purity="2.2251605987548828e-01" nType="-99"/>
          <Node pos="r" depth="2" NCoef="0" IVar="-1" Cut="0.0000000000000000e+00" cType="1" res="-9.6219861879944801e-03" rms="2.5273209810256958e-01" purity="6.7273713648319244e-02" nType="-99"/>
        </Node>
      </Node>
    </BinaryTree>
    <BinaryTree type="DecisionTree" boostWeight="1.0000000000000000e+00" itree="58">
      <Node pos="s" depth="0" NCoef="0" IVar="4" Cut="1.3668719530105591e+00" cType="1" res="-3.9193917065858841e-02" rms="4.4341337680816650e-01" purity="4.9511358141899109e-01" nType="0">
        <Node pos="l" depth="1" NCoef="0" IVar="10" Cut="8.9484113454818726e-01" cType="1" res="7.1280188858509064e-02" rms="3.9796423912048340e-01" purity="7.7421635389328003e-01" nType="0">
          <Node pos="l" depth="2" NCoef="0" IVar="-1" Cut="0.0000000000000000e+00" cType="1" res="1.9786821678280830e-02" rms="2.7929714322090149e-01" purity="9.0711718797683716e-01" nType="-99"/>
          <Node pos="r" depth="2" NCoef="0" IVar="-1" Cut="0.0000000000000000e+00" cType="1" res="1.1792602017521858e-03" rms="4.4152563810348511e-01" purity="6.9372481107711792e-01" nType="-99"/>
        </Node>
        <Node pos="r" depth="1" NCoef="0" IVar="4" Cut="3.2295460700988770e+00" cType="1" res="-6.9466553628444672e-02" rms="4.5037019252777100e-01" purity="4.1863253712654114e-01" nType="0">
          <Node pos="l" depth="2" NCoef="0" IVar="-1" Cut="0.0000000000000000e+00" cType="1" res="-2.0631786901503801e-03" rms="4.6286439895629883e-01" purity="4.5473664999008179e-01" nType="-99"/>
          <Node pos="r" depth="2" NCoef="0" IVar="-1" Cut="0.0000000000000000e+00" cType="1" res="-9.1392407193779945e-03" rms="2.7741011977195740e-01" purity="8.6777165532112122e-02" nType="-99"/>
        </Node>
      </Node>
    </BinaryTree>
    <BinaryTree type="DecisionTree" boostWeight="1.0000000000000000e+00" itree="59">
      <Node pos="s" depth="0" NCoef="0" IVar="18" Cut="5.2380952835083008e+00" cType="1" res="-2.7050003409385681e-02" rms="4.3762421607971191e-01" purity="4.9636247754096985e-01" nType="0">
        <Node pos="l" depth="1" NCoef="0" IVar="10" Cut="2.0974164009094238e+00" cType="1" res="4.3393626809120178e-02" rms="4.3578845262527466e-01" purity="6.7668068408966064e-01" nType="0">
          <Node pos="l" depth="2" NCoef="0" IVar="-1" Cut="0.0000000000000000e+00" cType="1" res="9.1942185536026955e-03" rms="4.0925315022468567e-01" purity="7.7603709697723389e-01" nType="-99"/>
          <Node pos="r" depth="2" NCoef="0" IVar="-1" Cut="0.0000000000000000e+00" cType="1" res="-4.3024662882089615e-03" rms="4.6496859192848206e-01" purity="5.0735121965408325e-01" nType="-99"/>
        </Node>
        <Node pos="r" depth="1" NCoef="0" IVar="12" Cut="2.1428570747375488e+00" cType="1" res="-9.6978053450584412e-02" rms="4.2812460660934448e-01" purity="3.1736400723457336e-01" nType="0">
          <Node pos="l" depth="2" NCoef="0" IVar="-1" Cut="0.0000000000000000e+00" cType="1" res="-3.6206515505909920e-03" rms="4.3009141087532043e-01" purity="3.3280298113822937e-01" nType="-99"/>
          <Node pos="r" depth="2" NCoef="0" IVar="-1" Cut="0.0000000000000000e+00" cType="1" res="-1.1979164555668831e-02" rms="3.5188364982604980e-01" purity="1.3840202987194061e-01" nType="-99"/>
        </Node>
      </Node>
    </BinaryTree>
    <BinaryTree type="DecisionTree" boostWeight="1.0000000000000000e+00" itree="60">
      <Node pos="s" depth="0" NCoef="0" IVar="18" Cut="6.1904764175415039e+00" cType="1" res="-1.0649207048118114e-02" rms="4.3572127819061279e-01" purity="5.1513308286666870e-01" nType="0">
        <Node pos="l" depth="1" NCoef="0" IVar="4" Cut="3.1406128406524658e+00" cType="1" res="1.7304277047514915e-02" rms="4.5521289110183716e-01" purity="6.0430663824081421e-01" nType="0">
          <Node pos="l" depth="2" NCoef="0" IVar="-1" Cut="0.0000000000000000e+00" cType="1" res="1.1366797843948007e-03" rms="4.5832312107086182e-01" purity="6.3947886228561401e-01" nType="-99"/>
          <Node pos="r" depth="2" NCoef="0" IVar="-1" Cut="0.0000000000000000e+00" cType="1" res="-8.5423281416296959e-03" rms="3.3662229776382446e-01" purity="1.3172087073326111e-01" nType="-99"/>
        </Node>
        <Node pos="r" depth="1" NCoef="0" IVar="20" Cut="1.0879556655883789e+01" cType="1" res="-1.3975685834884644e-01" rms="2.9894614219665527e-01" purity="1.0327068716287613e-01" nType="0">
          <Node pos="l" depth="2" NCoef="0" IVar="-1" Cut="0.0000000000000000e+00" cType="1" res="-4.0929322130978107e-03" rms="4.2530104517936707e-01" purity="2.4523591995239258e-01" nType="-99"/>
          <Node pos="r" depth="2" NCoef="0" IVar="-1" Cut="0.0000000000000000e+00" cType="1" res="-8.6580887436866760e-03" rms="2.4971853196620941e-01" purity="6.7742176353931427e-02" nType="-99"/>
        </Node>
      </Node>
    </BinaryTree>
    <BinaryTree type="DecisionTree" boostWeight="1.0000000000000000e+00" itree="61">
      <Node pos="s" depth="0" NCoef="0" IVar="15" Cut="1.9000000000000000e+01" cType="1" res="-3.1788837164640427e-02" rms="4.4319853186607361e-01" purity="4.9584966897964478e-01" nType="0">
        <Node pos="l" depth="1" NCoef="0" IVar="4" Cut="3.1423153877258301e+00" cType="1" res="-1.1489902622997761e-02" rms="4.6309956908226013e-01" purity="5.6331688165664673e-01" nType="0">
          <Node pos="l" depth="2" NCoef="0" IVar="-1" Cut="0.0000000000000000e+00" cType="1" res="6.4009125344455242e-04" rms="4.6763816475868225e-01" purity="5.9253376722335815e-01" nType="-99"/>
          <Node pos="r" depth="2" NCoef="0" IVar="-1" Cut="0.0000000000000000e+00" cType="1" res="-8.3149019628763199e-03" rms="3.5696586966514587e-01" purity="1.5269748866558075e-01" nType="-99"/>
        </Node>
        <Node pos="r" depth="1" NCoef="0" IVar="13" Cut="7.3513820767402649e-02" cType="0" res="-1.5965484082698822e-01" rms="2.5271815061569214e-01" purity="7.0863783359527588e-02" nType="0">
          <Node pos="l" depth="2" NCoef="0" IVar="-1" Cut="0.0000000000000000e+00" cType="1" res="-6.7896111868321896e-03" rms="3.0615243315696716e-01" purity="1.0834087431430817e-01" nType="-99"/>
          <Node pos="r" depth="2" NCoef="0" IVar="-1" Cut="0.0000000000000000e+00" cType="1" res="-9.6742808818817139e-03" rms="2.0286074280738831e-01" purity="4.3926950544118881e-02" nType="-99"/>
        </Node>
      </Node>
    </BinaryTree>
    <BinaryTree type="DecisionTree" boostWeight="1.0000000000000000e+00" itree="62">
      <Node pos="s" depth="0" NCoef="0" IVar="4" Cut="3.0971195697784424e+00" cType="1" res="-1.2835719622671604e-02" rms="4.3228948116302490e-01" purity="5.0922280550003052e-01" nType="0">
        <Node pos="l" depth="1" NCoef="0" IVar="18" Cut="6.4285712242126465e+00" cType="1" res="8.1834159791469574e-03" rms="4.4159460067749023e-01" purity="5.5803561210632324e-01" nType="0">
          <Node pos="l" depth="2" NCoef="0" IVar="-1" Cut="0.0000000000000000e+00" cType="1" res="1.0657736565917730e-03" rms="4.5626047253608704e-01" purity="6.3641345500946045e-01" nType="-99"/>
          <Node pos="r" depth="2" NCoef="0" IVar="-1" Cut="0.0000000000000000e+00" cType="1" res="-7.1824248880147934e-03" rms="3.1178420782089233e-01" purity="1.1353369057178497e-01" nType="-99"/>
        </Node>
        <Node pos="r" depth="1" NCoef="0" IVar="15" Cut="1.5571428298950195e+01" cType="1" res="-1.9048628211021423e-01" rms="2.8784254193305969e-01" purity="9.6664041280746460e-02" nType="0">
          <Node pos="l" depth="2" NCoef="0" IVar="-1" Cut="0.0000000000000000e+00" cType="1" res="-8.8592339307069778e-03" rms="2.9670989513397217e-01" purity="1.0299375653266907e-01" nType="-99"/>
          <Node pos="r" depth="2" NCoef="0" IVar="-1" Cut="0.0000000000000000e+00" cType="1" res="-7.9219415783882141e-03" rms="2.7887058258056641e-01" purity="9.1781146824359894e-02" nType="-99"/>
        </Node>
      </Node>
    </BinaryTree>
    <BinaryTree type="DecisionTree" boostWeight="1.0000000000000000e+00" itree="63">
      <Node pos="s" depth="0" NCoef="0" IVar="18" Cut="6.1904764175415039e+00" cType="1" res="-1.7438132315874100e-02" rms="4.3446627259254456e-01" purity="5.0807142257690430e-01" nType="0">
        <Node pos="l" depth="1" NCoef="0" IVar="10" Cut="3.3380222320556641e+00" cType="1" res="1.2341417372226715e-02" rms="4.5738682150840759e-01" purity="6.0177063941955566e-01" nType="0">
          <Node pos="l" depth="2" NCoef="0" IVar="-1" Cut="0.0000000000000000e+00" cType="1" res="1.3086217222735286e-03" rms="4.5351177453994751e-01" purity="6.4036089181900024e-01" nType="-99"/>
          <Node pos="r" depth="2" NCoef="0" IVar="-1" Cut="0.0000000000000000e+00" cType="1" res="-5.8037689886987209e-03" rms="4.5317280292510986e-01" purity="3.4721454977989197e-01" nType="-99"/>
        </Node>
        <Node pos="r" depth="1" NCoef="0" IVar="20" Cut="1.0850731849670410e+01" cType="1" res="-1.5238189697265625e-01" rms="2.7184981107711792e-01" purity="8.3480462431907654e-02" nType="0">
          <Node pos="l" depth="2" NCoef="0" IVar="-1" Cut="0.0000000000000000e+00" cType="1" res="-3.8649754133075476e-03" rms="3.8625803589820862e-01" purity="1.8604478240013123e-01" nType="-99"/>
          <Node pos="r" depth="2" NCoef="0" IVar="-1" Cut="0.0000000000000000e+00" cType="1" res="-8.4397858008742332e-03" rms="2.2681857645511627e-01" purity="5.5245187133550644e-02" nType="-99"/>
        </Node>
      </Node>
    </BinaryTree>
    <BinaryTree type="DecisionTree" boostWeight="1.0000000000000000e+00" itree="64">
      <Node pos="s" depth="0" NCoef="0" IVar="4" Cut="1.8175967931747437e+00" cType="1" res="-2.4110302329063416e-02" rms="4.3564146757125854e-01" purity="5.0071352720260620e-01" nType="0">
        <Node pos="l" depth="1" NCoef="0" IVar="8" Cut="2.3880953788757324e+00" cType="1" res="4.6776860952377319e-02" rms="4.2669978737831116e-01" purity="7.2967308759689331e-01" nType="0">
          <Node pos="l" depth="2" NCoef="0" IVar="-1" Cut="0.0000000000000000e+00" cType="1" res="5.8852131478488445e-03" rms="4.1274666786193848e-01" purity="7.5399386882781982e-01" nType="-99"/>
          <Node pos="r" depth="2" NCoef="0" IVar="-1" Cut="0.0000000000000000e+00" cType="1" res="-7.1901716291904449e-03" rms="4.8759254813194275e-01" purity="5.5819731950759888e-01" nType="-99"/>
        </Node>
        <Node pos="r" depth="1" NCoef="0" IVar="12" Cut="1.4285714924335480e-01" cType="0" res="-7.5423441827297211e-02" rms="4.3485012650489807e-01" purity="3.3497634530067444e-01" nType="0">
          <Node pos="l" depth="2" NCoef="0" IVar="-1" Cut="0.0000000000000000e+00" cType="1" res="-3.1115335877984762e-03" rms="4.3695804476737976e-01" purity="3.4986108541488647e-01" nType="-99"/>
          <Node pos="r" depth="2" NCoef="0" IVar="-1" Cut="0.0000000000000000e+00" cType="1" res="-8.5326237604022026e-03" rms="3.9054754376411438e-01" purity="2.3816016316413879e-01" nType="-99"/>
        </Node>
      </Node>
    </BinaryTree>
    <BinaryTree type="DecisionTree" boostWeight="1.0000000000000000e+00" itree="65">
      <Node pos="s" depth="0" NCoef="0" IVar="4" Cut="1.7794172763824463e+00" cType="1" res="-2.1684786304831505e-02" rms="4.3435528874397278e-01" purity="5.0221669673919678e-01" nType="0">
        <Node pos="l" depth="1" NCoef="0" IVar="11" Cut="1.3198664188385010e+00" cType="1" res="5.5415112525224686e-02" rms="4.1897898912429810e-01" purity="7.4205672740936279e-01" nType="0">
          <Node pos="l" depth="2" NCoef="0" IVar="-1" Cut="0.0000000000000000e+00" cType="1" res="5.7518538087606430e-03" rms="3.9891394972801208e-01" purity="7.7434295415878296e-01" nType="-99"/>
          <Node pos="r" depth="2" NCoef="0" IVar="-1" Cut="0.0000000000000000e+00" cType="1" res="-5.0948681309819221e-03" rms="4.9691316485404968e-01" purity="5.6223732233047485e-01" nType="-99"/>
        </Node>
        <Node pos="r" depth="1" NCoef="0" IVar="18" Cut="6.1904764175415039e+00" cType="1" res="-7.2491630911827087e-02" rms="4.3682086467742920e-01" purity="3.4416830539703369e-01" nType="0">
          <Node pos="l" depth="2" NCoef="0" IVar="-1" Cut="0.0000000000000000e+00" cType="1" res="-1.8085871124640107e-03" rms="4.8215627670288086e-01" purity="4.4076910614967346e-01" nType="-99"/>
          <Node pos="r" depth="2" NCoef="0" IVar="-1" Cut="0.0000000000000000e+00" cType="1" res="-7.9713985323905945e-03" rms="2.5228920578956604e-01" purity="6.9783151149749756e-02" nType="-99"/>
        </Node>
      </Node>
    </BinaryTree>
    <BinaryTree type="DecisionTree" boostWeight="1.0000000000000000e+00" itree="66">
      <Node pos="s" depth="0" NCoef="0" IVar="18" Cut="6.4285712242126465e+00" cType="1" res="-3.1959716230630875e-02" rms="4.3254739046096802e-01" purity="4.8479381203651428e-01" nType="0">
        <Node pos="l" depth="1" NCoef="0" IVar="11" Cut="2.2135379314422607e+00" cType="1" res="-3.9527965709567070e-03" rms="4.5976245403289795e-01" purity="5.8252871036529541e-01" nType="0">
          <Node pos="l" depth="2" NCoef="0" IVar="-1" Cut="0.0000000000000000e+00" cType="1" res="1.3063997030258179e-03" rms="4.5943695306777954e-01" purity="6.3055288791656494e-01" nType="-99"/>
          <Node pos="r" depth="2" NCoef="0" IVar="-1" Cut="0.0000000000000000e+00" cType="1" res="-5.8016921393573284e-03" rms="4.3262585997581482e-01" purity="2.8938987851142883e-01" nType="-99"/>
        </Node>
        <Node pos="r" depth="1" NCoef="0" IVar="13" Cut="1.0170957446098328e-01" cType="0" res="-1.4855134487152100e-01" rms="2.6295223832130432e-01" purity="7.7927596867084503e-02" nType="0">
          <Node pos="l" depth="2" NCoef="0" IVar="-1" Cut="0.0000000000000000e+00" cType="1" res="-4.7312690876424313e-03" rms="3.8589197397232056e-01" purity="1.8867801129817963e-01" nType="-99"/>
          <Node pos="r" depth="2" NCoef="0" IVar="-1" Cut="0.0000000000000000e+00" cType="1" res="-8.2146963104605675e-03" rms="2.1548424661159515e-01" purity="5.0409462302923203e-02" nType="-99"/>
        </Node>
      </Node>
    </BinaryTree>
    <BinaryTree type="DecisionTree" boostWeight="1.0000000000000000e+00" itree="67">
      <Node pos="s" depth="0" NCoef="0" IVar="5" Cut="8.7826412916183472e-01" cType="1" res="-9.1031407937407494e-03" rms="4.3800854682922363e-01" purity="5.2163833379745483e-01" nType="0">
        <Node pos="l" depth="1" NCoef="0" IVar="15" Cut="1.1857142448425293e+01" cType="1" res="1.5417014062404633e-01" rms="3.2411381602287292e-01" purity="8.4140700101852417e-01" nType="0">
          <Node pos="l" depth="2" NCoef="0" IVar="-1" Cut="0.0000000000000000e+00" cType="1" res="3.1664676964282990e-02" rms="2.3250113427639008e-01" purity="9.3949204683303833e-01" nType="-99"/>
          <Node pos="r" depth="2" NCoef="0" IVar="-1" Cut="0.0000000000000000e+00" cType="1" res="-4.7299284487962723e-03" rms="4.6199351549148560e-01" purity="5.7880163192749023e-01" nType="-99"/>
        </Node>
        <Node pos="r" depth="1" NCoef="0" IVar="5" Cut="2.4782466888427734e+00" cType="1" res="-2.7429573237895966e-02" rms="4.4527110457420349e-01" purity="4.8574620485305786e-01" nType="0">
          <Node pos="l" depth="2" NCoef="0" IVar="-1" Cut="0.0000000000000000e+00" cType="1" res="-1.0950471041724086e-03" rms="4.5705899596214294e-01" purity="5.6181281805038452e-01" nType="-99"/>
          <Node pos="r" depth="2" NCoef="0" IVar="-1" Cut="0.0000000000000000e+00" cType="1" res="-6.2723308801651001e-03" rms="3.8556748628616333e-01" purity="2.0357903838157654e-01" nType="-99"/>
        </Node>
      </Node>
    </BinaryTree>
    <BinaryTree type="DecisionTree" boostWeight="1.0000000000000000e+00" itree="68">
      <Node pos="s" depth="0" NCoef="0" IVar="18" Cut="5.1428570747375488e+00" cType="1" res="-2.3121425881981850e-02" rms="4.3362048268318176e-01" purity="4.9669411778450012e-01" nType="0">
        <Node pos="l" depth="1" NCoef="0" IVar="3" Cut="3.9047617912292480e+00" cType="1" res="3.0429255217313766e-02" rms="4.3289864063262939e-01" purity="6.5713554620742798e-01" nType="0">
          <Node pos="l" depth="2" NCoef="0" IVar="-1" Cut="0.0000000000000000e+00" cType="1" res="3.9708348922431469e-03" rms="4.0617674589157104e-01" purity="7.2369426488876343e-01" nType="-99"/>
          <Node pos="r" depth="2" NCoef="0" IVar="-1" Cut="0.0000000000000000e+00" cType="1" res="-2.8465855866670609e-03" rms="4.5936653017997742e-01" purity="5.2641892433166504e-01" nType="-99"/>
        </Node>
        <Node pos="r" depth="1" NCoef="0" IVar="12" Cut="2.1428570747375488e+00" cType="1" res="-7.8654155135154724e-02" rms="4.2733788490295410e-01" purity="3.3031433820724487e-01" nType="0">
          <Node pos="l" depth="2" NCoef="0" IVar="-1" Cut="0.0000000000000000e+00" cType="1" res="-3.1740183476358652e-03" rms="4.2630401253700256e-01" purity="3.5106495022773743e-01" nType="-99"/>
          <Node pos="r" depth="2" NCoef="0" IVar="-1" Cut="0.0000000000000000e+00" cType="1" res="-1.1635504662990570e-02" rms="3.5864683985710144e-01" purity="1.4007829129695892e-01" nType="-99"/>
        </Node>
      </Node>
    </BinaryTree>
    <BinaryTree type="DecisionTree" boostWeight="1.0000000000000000e+00" itree="69">
      <Node pos="s" depth="0" NCoef="0" IVar="15" Cut="1.8428571701049805e+01" cType="1" res="-9.5999194309115410e-03" rms="4.3592134118080139e-01" purity="5.1732397079467773e-01" nType="0">
        <Node pos="l" depth="1" NCoef="0" IVar="0" Cut="3.1301505565643311e+00" cType="1" res="1.0252770036458969e-02" rms="4.5368847250938416e-01" purity="5.8474391698837280e-01" nType="0">
          <Node pos="l" depth="2" NCoef="0" IVar="-1" Cut="0.0000000000000000e+00" cType="1" res="2.5304374867118895e-04" rms="4.5732846856117249e-01" purity="6.0846155881881714e-01" nType="-99"/>
          <Node pos="r" depth="2" NCoef="0" IVar="-1" Cut="0.0000000000000000e+00" cType="1" res="-8.3782011643052101e-03" rms="3.1219881772994995e-01" purity="1.1776487529277802e-01" nType="-99"/>
        </Node>
        <Node pos="r" depth="1" NCoef="0" IVar="5" Cut="2.0492591857910156e+00" cType="1" res="-1.3960814476013184e-01" rms="2.5891631841659546e-01" purity="7.5814820826053619e-02" nType="0">
          <Node pos="l" depth="2" NCoef="0" IVar="-1" Cut="0.0000000000000000e+00" cType="1" res="-6.4527299255132675e-03" rms="3.5002037882804871e-01" purity="1.5053030848503113e-01" nType="-99"/>
          <Node pos="r" depth="2" NCoef="0" IVar="-1" Cut="0.0000000000000000e+00" cType="1" res="-8.6161000654101372e-03" rms="2.0744656026363373e-01" purity="4.5356538146734238e-02" nType="-99"/>
        </Node>
      </Node>
    </BinaryTree>
    <BinaryTree type="DecisionTree" boostWeight="1.0000000000000000e+00" itree="70">
      <Node pos="s" depth="0" NCoef="0" IVar="18" Cut="6.4285712242126465e+00" cType="1" res="-2.2810950875282288e-02" rms="4.3871316313743591e-01" purity="5.0488233566284180e-01" nType="0">
        <Node pos="l" depth="1" NCoef="0" IVar="8" Cut="2.4261906147003174e+00" cType="1" res="-1.4397451886907220e-03" rms="4.6135139465332031e-01" purity="5.9225773811340332e-01" nType="0">
          <Node pos="l" depth="2" NCoef="0" IVar="-1" Cut="0.0000000000000000e+00" cType="1" res="9.7996008116751909e-04" rms="4.5729625225067139e-01" purity="6.0614848136901855e-01" nType="-99"/>
          <Node pos="r" depth="2" NCoef="0" IVar="-1" Cut="0.0000000000000000e+00" cType="1" res="-7.8513957560062408e-03" rms="4.7773906588554382e-01" purity="4.6806046366691589e-01" nType="-99"/>
        </Node>
        <Node pos="r" depth="1" NCoef="0" IVar="20" Cut="1.3816663742065430e+01" cType="1" res="-1.2232545763254166e-01" rms="2.9250594973564148e-01" purity="9.8020546138286591e-02" nType="0">
          <Node pos="l" depth="2" NCoef="0" IVar="-1" Cut="0.0000000000000000e+00" cType="1" res="-3.9880424737930298e-03" rms="3.8512140512466431e-01" purity="1.8884256482124329e-01" nType="-99"/>
          <Node pos="r" depth="2" NCoef="0" IVar="-1" Cut="0.0000000000000000e+00" cType="1" res="-8.2519948482513428e-03" rms="2.5104841589927673e-01" purity="6.8430736660957336e-02" nType="-99"/>
        </Node>
      </Node>
    </BinaryTree>
    <BinaryTree type="DecisionTree" boostWeight="1.0000000000000000e+00" itree="71">
      <Node pos="s" depth="0" NCoef="0" IVar="18" Cut="5.1428570747375488e+00" cType="1" res="-2.8228359296917915e-02" rms="4.3622311949729919e-01" purity="4.9793967604637146e-01" nType="0">
        <Node pos="l" depth="1" NCoef="0" IVar="5" Cut="1.3654961585998535e+00" cType="1" res="2.1898163482546806e-02" rms="4.3656623363494873e-01" purity="6.5697640180587769e-01" nType="0">
          <Node pos="l" depth="2" NCoef="0" IVar="-1" Cut="0.0000000000000000e+00" cType="1" res="1.0938512161374092e-02" rms="3.8739630579948425e-01" purity="8.0250585079193115e-01" nType="-99"/>
          <Node pos="r" depth="2" NCoef="0" IVar="-1" Cut="0.0000000000000000e+00" cType="1" res="-2.4601824115961790e-03" rms="4.7068527340888977e-01" purity="5.2081215381622314e-01" nType="-99"/>
        </Node>
        <Node pos="r" depth="1" NCoef="0" IVar="12" Cut="2.1428570747375488e+00" cType="1" res="-8.2101635634899139e-02" rms="4.2937856912612915e-01" purity="3.2701563835144043e-01" nType="0">
          <Node pos="l" depth="2" NCoef="0" IVar="-1" Cut="0.0000000000000000e+00" cType="1" res="-3.0145307537168264e-03" rms="4.3028712272644043e-01" purity="3.4099465608596802e-01" nType="-99"/>
          <Node pos="r" depth="2" NCoef="0" IVar="-1" Cut="0.0000000000000000e+00" cType="1" res="-1.1420283466577530e-02" rms="3.8333684206008911e-01" purity="1.6989363729953766e-01" nType="-99"/>
        </Node>
      </Node>
    </BinaryTree>
    <BinaryTree type="DecisionTree" boostWeight="1.0000000000000000e+00" itree="72">
      <Node pos="s" depth="0" NCoef="0" IVar="4" Cut="1.7982245683670044e+00" cType="1" res="-2.0922549068927765e-02" rms="4.3202865123748779e-01" purity="5.0282174348831177e-01" nType="0">
        <Node pos="l" depth="1" NCoef="0" IVar="12" Cut="2.1428570747375488e+00" cType="1" res="5.5549923330545425e-02" rms="4.1616553068161011e-01" purity="7.4882864952087402e-01" nType="0">
          <Node pos="l" depth="2" NCoef="0" IVar="-1" Cut="0.0000000000000000e+00" cType="1" res="5.5439737625420094e-03" rms="3.9484250545501709e-01" purity="7.8141266107559204e-01" nType="-99"/>
          <Node pos="r" depth="2" NCoef="0" IVar="-1" Cut="0.0000000000000000e+00" cType="1" res="-6.3869408331811428e-03" rms="4.8675921559333801e-01" purity="5.8621370792388916e-01" nType="-99"/>
        </Node>
        <Node pos="r" depth="1" NCoef="0" IVar="0" Cut="1.7816122770309448e+00" cType="0" res="-7.3502652347087860e-02" rms="4.3487283587455750e-01" purity="3.3367499709129333e-01" nType="0">
          <Node pos="l" depth="2" NCoef="0" IVar="-1" Cut="0.0000000000000000e+00" cType="1" res="-3.1301886774599552e-03" rms="4.2129927873611450e-01" purity="3.3478346467018127e-01" nType="-99"/>
          <Node pos="r" depth="2" NCoef="0" IVar="-1" Cut="0.0000000000000000e+00" cType="1" res="-3.7083565257489681e-03" rms="4.4378873705863953e-01" purity="3.3244630694389343e-01" nType="-99"/>
        </Node>
      </Node>
    </BinaryTree>
    <BinaryTree type="DecisionTree" boostWeight="1.0000000000000000e+00" itree="73">
      <Node pos="s" depth="0" NCoef="0" IVar="4" Cut="2.4896440505981445e+00" cType="1" res="-1.5731751918792725e-02" rms="4.3736913800239563e-01" purity="5.1457208395004272e-01" nType="0">
        <Node pos="l" depth="1" NCoef="0" IVar="8" Cut="2.4261906147003174e+00" cType="1" res="1.0556696914136410e-02" rms="4.4846579432487488e-01" purity="6.0836648941040039e-01" nType="0">
          <Node pos="l" depth="2" NCoef="0" IVar="-1" Cut="0.0000000000000000e+00" cType="1" res="1.3175219064578414e-03" rms="4.4070106744766235e-01" purity="6.2473773956298828e-01" nType="-99"/>
          <Node pos="r" depth="2" NCoef="0" IVar="-1" Cut="0.0000000000000000e+00" cType="1" res="-7.4948356486856937e-03" rms="4.8735740780830383e-01" purity="4.6155112981796265e-01" nType="-99"/>
        </Node>
        <Node pos="r" depth="1" NCoef="0" IVar="3" Cut="4.5714287757873535e+00" cType="0" res="-9.6349745988845825e-02" rms="3.9054885506629944e-01" purity="2.2693553566932678e-01" nType="0">
          <Node pos="l" depth="2" NCoef="0" IVar="-1" Cut="0.0000000000000000e+00" cType="1" res="4.1189906187355518e-03" rms="4.7337141633033752e-01" purity="5.0415170192718506e-01" nType="-99"/>
          <Node pos="r" depth="2" NCoef="0" IVar="-1" Cut="0.0000000000000000e+00" cType="1" res="-5.8065336197614670e-03" rms="3.7887930870056152e-01" purity="2.0619744062423706e-01" nType="-99"/>
        </Node>
      </Node>
    </BinaryTree>
    <BinaryTree type="DecisionTree" boostWeight="1.0000000000000000e+00" itree="74">
      <Node pos="s" depth="0" NCoef="0" IVar="5" Cut="1.7591992616653442e+00" cType="1" res="-2.2119628265500069e-02" rms="4.3020382523536682e-01" purity="4.9189713597297668e-01" nType="0">
        <Node pos="l" depth="1" NCoef="0" IVar="20" Cut="1.4080162048339844e+01" cType="1" res="2.9644079506397247e-02" rms="4.2992848157882690e-01" purity="6.7251259088516235e-01" nType="0">
          <Node pos="l" depth="2" NCoef="0" IVar="-1" Cut="0.0000000000000000e+00" cType="1" res="7.0634479634463787e-03" rms="3.9212670922279358e-01" purity="7.5360065698623657e-01" nType="-99"/>
          <Node pos="r" depth="2" NCoef="0" IVar="-1" Cut="0.0000000000000000e+00" cType="1" res="-1.7351817805320024e-03" rms="4.4560667872428894e-01" purity="6.1933940649032593e-01" nType="-99"/>
        </Node>
        <Node pos="r" depth="1" NCoef="0" IVar="0" Cut="8.8515728712081909e-01" cType="0" res="-7.5338780879974365e-02" rms="4.2394778132438660e-01" purity="3.0620333552360535e-01" nType="0">
          <Node pos="l" depth="2" NCoef="0" IVar="-1" Cut="0.0000000000000000e+00" cType="1" res="-3.2423853408545256e-03" rms="4.2115616798400879e-01" purity="3.1092974543571472e-01" nType="-99"/>
          <Node pos="r" depth="2" NCoef="0" IVar="-1" Cut="0.0000000000000000e+00" cType="1" res="-7.9495478421449661e-03" rms="4.2615434527397156e-01" purity="2.5655171275138855e-01" nType="-99"/>
        </Node>
      </Node>
    </BinaryTree>
    <BinaryTree type="DecisionTree" boostWeight="1.0000000000000000e+00" itree="75">
      <Node pos="s" depth="0" NCoef="0" IVar="15" Cut="1.8428571701049805e+01" cType="1" res="-3.0579727143049240e-02" rms="4.3398773670196533e-01" purity="4.9058517813682556e-01" nType="0">
        <Node pos="l" depth="1" NCoef="0" IVar="12" Cut="2.1428570747375488e+00" cType="1" res="-1.0240156203508377e-02" rms="4.5618844032287598e-01" purity="5.6371825933456421e-01" nType="0">
          <Node pos="l" depth="2" NCoef="0" IVar="-1" Cut="0.0000000000000000e+00" cType="1" res="9.3946506967768073e-04" rms="4.4845631718635559e-01" purity="5.9178227186203003e-01" nType="-99"/>
          <Node pos="r" depth="2" NCoef="0" IVar="-1" Cut="0.0000000000000000e+00" cType="1" res="-4.8470715992152691e-03" rms="4.7495806217193604e-01" purity="4.4680947065353394e-01" nType="-99"/>
        </Node>
        <Node pos="r" depth="1" NCoef="0" IVar="3" Cut="2.2857143878936768e+00" cType="0" res="-1.5035444498062134e-01" rms="2.3491796851158142e-01" purity="5.9922542423009872e-02" nType="0">
          <Node pos="l" depth="2" NCoef="0" IVar="-1" Cut="0.0000000000000000e+00" cType="1" res="-6.0710683465003967e-03" rms="2.8503271937370300e-01" purity="9.1415069997310638e-02" nType="-99"/>
          <Node pos="r" depth="2" NCoef="0" IVar="-1" Cut="0.0000000000000000e+00" cType="1" res="-8.4584830328822136e-03" rms="2.0540916919708252e-01" purity="4.4568628072738647e-02" nType="-99"/>
        </Node>
      </Node>
    </BinaryTree>
    <BinaryTree type="DecisionTree" boostWeight="1.0000000000000000e+00" itree="76">
      <Node pos="s" depth="0" NCoef="0" IVar="4" Cut="2.6730933189392090e+00" cType="1" res="-2.2086489945650101e-02" rms="4.3596246838569641e-01" purity="5.0524705648422241e-01" nType="0">
        <Node pos="l" depth="1" NCoef="0" IVar="15" Cut="9.8571424484252930e+00" cType="1" res="1.4918799279257655e-03" rms="4.4678869843482971e-01" purity="5.7718652486801147e-01" nType="0">
          <Node pos="l" depth="2" NCoef="0" IVar="-1" Cut="0.0000000000000000e+00" cType="1" res="4.1481917724013329e-03" rms="3.8767787814140320e-01" purity="7.7134054899215698e-01" nType="-99"/>
          <Node pos="r" depth="2" NCoef="0" IVar="-1" Cut="0.0000000000000000e+00" cType="1" res="-2.0302380435168743e-03" rms="4.7347173094749451e-01" purity="4.5736253261566162e-01" nType="-99"/>
        </Node>
        <Node pos="r" depth="1" NCoef="0" IVar="21" Cut="4.2380952835083008e+00" cType="0" res="-1.2928506731987000e-01" rms="3.6413463950157166e-01" purity="1.7817585170269012e-01" nType="0">
          <Node pos="l" depth="2" NCoef="0" IVar="-1" Cut="0.0000000000000000e+00" cType="1" res="-4.5646131038665771e-03" rms="3.8213697075843811e-01" purity="2.0883117616176605e-01" nType="-99"/>
          <Node pos="r" depth="2" NCoef="0" IVar="-1" Cut="0.0000000000000000e+00" cType="1" res="-6.9872932508587837e-03" rms="3.2109633088111877e-01" purity="1.3387723267078400e-01" nType="-99"/>
        </Node>
      </Node>
    </BinaryTree>
    <BinaryTree type="DecisionTree" boostWeight="1.0000000000000000e+00" itree="77">
      <Node pos="s" depth="0" NCoef="0" IVar="10" Cut="2.0974164009094238e+00" cType="1" res="-2.3025698959827423e-02" rms="4.3625420331954956e-01" purity="5.0112962722778320e-01" nType="0">
        <Node pos="l" depth="1" NCoef="0" IVar="18" Cut="3.4285714626312256e+00" cType="1" res="1.9060421735048294e-02" rms="4.3204569816589355e-01" purity="6.1747568845748901e-01" nType="0">
          <Node pos="l" depth="2" NCoef="0" IVar="-1" Cut="0.0000000000000000e+00" cType="1" res="1.7391581088304520e-02" rms="3.0060294270515442e-01" purity="8.9716178178787231e-01" nType="-99"/>
          <Node pos="r" depth="2" NCoef="0" IVar="-1" Cut="0.0000000000000000e+00" cType="1" res="-1.0607797885313630e-03" rms="4.7051674127578735e-01" purity="4.8416933417320251e-01" nType="-99"/>
        </Node>
        <Node pos="r" depth="1" NCoef="0" IVar="12" Cut="1.4285714924335480e-01" cType="0" res="-7.0566274225711823e-02" rms="4.3610167503356934e-01" purity="3.6970490217208862e-01" nType="0">
          <Node pos="l" depth="2" NCoef="0" IVar="-1" Cut="0.0000000000000000e+00" cType="1" res="-2.9574800282716751e-03" rms="4.3922305107116699e-01" purity="3.7784123420715332e-01" nType="-99"/>
          <Node pos="r" depth="2" NCoef="0" IVar="-1" Cut="0.0000000000000000e+00" cType="1" res="-1.0091061703860760e-02" rms="4.0166795253753662e-01" purity="3.2576742768287659e-01" nType="-99"/>
        </Node>
      </Node>
    </BinaryTree>
    <BinaryTree type="DecisionTree" boostWeight="1.0000000000000000e+00" itree="78">
      <Node pos="s" depth="0" NCoef="0" IVar="18" Cut="6.4285712242126465e+00" cType="1" res="-3.7532277405261993e-02" rms="4.3516799807548523e-01" purity="4.8177176713943481e-01" nType="0">
        <Node pos="l" depth="1" NCoef="0" IVar="5" Cut="7.7985137701034546e-01" cType="1" res="-1.4842470176517963e-02" rms="4.6296426653862000e-01" purity="5.7396954298019409e-01" nType="0">
          <Node pos="l" depth="2" NCoef="0" IVar="-1" Cut="0.0000000000000000e+00" cType="1" res="1.6645237803459167e-02" rms="3.2095748186111450e-01" purity="8.5434436798095703e-01" nType="-99"/>
          <Node pos="r" depth="2" NCoef="0" IVar="-1" Cut="0.0000000000000000e+00" cType="1" res="-6.7934812977910042e-04" rms="4.7070741653442383e-01" purity="5.5076944828033447e-01" nType="-99"/>
        </Node>
        <Node pos="r" depth="1" NCoef="0" IVar="17" Cut="2.7225492477416992e+01" cType="0" res="-1.3779605925083160e-01" rms="2.5831553339958191e-01" purity="7.4359863996505737e-02" nType="0">
          <Node pos="l" depth="2" NCoef="0" IVar="-1" Cut="0.0000000000000000e+00" cType="1" res="-4.0357038378715515e-03" rms="3.0598366260528564e-01" purity="1.0546472668647766e-01" nType="-99"/>
          <Node pos="r" depth="2" NCoef="0" IVar="-1" Cut="0.0000000000000000e+00" cType="1" res="-7.8057218343019485e-03" rms="2.3736837506294250e-01" purity="6.2858790159225464e-02" nType="-99"/>
        </Node>
      </Node>
    </BinaryTree>
    <BinaryTree type="DecisionTree" boostWeight="1.0000000000000000e+00" itree="79">
      <Node pos="s" depth="0" NCoef="0" IVar="18" Cut="6.4285712242126465e+00" cType="1" res="-1.2136443518102169e-02" rms="4.3653982877731323e-01" purity="5.1268589496612549e-01" nType="0">
        <Node pos="l" depth="1" NCoef="0" IVar="21" Cut="4.3333334922790527e+00" cType="0" res="8.9170886203646660e-03" rms="4.5816594362258911e-01" purity="5.9944713115692139e-01" nType="0">
          <Node pos="l" depth="2" NCoef="0" IVar="-1" Cut="0.0000000000000000e+00" cType="1" res="2.9006376862525940e-03" rms="4.7670465707778931e-01" purity="6.0690486431121826e-01" nType="-99"/>
          <Node pos="r" depth="2" NCoef="0" IVar="-1" Cut="0.0000000000000000e+00" cType="1" res="-1.6914242878556252e-03" rms="4.4478502869606018e-01" purity="5.9619265794754028e-01" nType="-99"/>
        </Node>
        <Node pos="r" depth="1" NCoef="0" IVar="17" Cut="2.8309494018554688e+01" cType="0" res="-1.1231097579002380e-01" rms="2.9386851191520691e-01" purity="9.9868372082710266e-02" nType="0">
          <Node pos="l" depth="2" NCoef="0" IVar="-1" Cut="0.0000000000000000e+00" cType="1" res="-3.4062785562127829e-03" rms="4.0100750327110291e-01" purity="2.0769008994102478e-01" nType="-99"/>
          <Node pos="r" depth="2" NCoef="0" IVar="-1" Cut="0.0000000000000000e+00" cType="1" res="-7.8060226514935493e-03" rms="2.5832429528236389e-01" purity="7.5546160340309143e-02" nType="-99"/>
        </Node>
      </Node>
    </BinaryTree>
    <BinaryTree type="DecisionTree" boostWeight="1.0000000000000000e+00" itree="80">
      <Node pos="s" depth="0" NCoef="0" IVar="5" Cut="8.7251079082489014e-01" cType="1" res="-3.4992858767509460e-02" rms="4.3333575129508972e-01" purity="4.8255661129951477e-01" nType="0">
        <Node pos="l" depth="1" NCoef="0" IVar="15" Cut="1.2428571701049805e+01" cType="1" res="1.1176898330450058e-01" rms="3.5926461219787598e-01" purity="8.3404308557510376e-01" nType="0">
          <Node pos="l" depth="2" NCoef="0" IVar="-1" Cut="0.0000000000000000e+00" cType="1" res="2.4164021015167236e-02" rms="2.8322407603263855e-01" purity="9.1691756248474121e-01" nType="-99"/>
          <Node pos="r" depth="2" NCoef="0" IVar="-1" Cut="0.0000000000000000e+00" cType="1" res="-5.0795753486454487e-03" rms="5.1259863376617432e-01" purity="5.4560840129852295e-01" nType="-99"/>
        </Node>
        <Node pos="r" depth="1" NCoef="0" IVar="12" Cut="2.1428570747375488e+00" cType="1" res="-4.8956274986267090e-02" rms="4.3717429041862488e-01" purity="4.4911503791809082e-01" nType="0">
          <Node pos="l" depth="2" NCoef="0" IVar="-1" Cut="0.0000000000000000e+00" cType="1" res="-1.3155017513781786e-03" rms="4.2800894379615784e-01" purity="4.6294531226158142e-01" nType="-99"/>
          <Node pos="r" depth="2" NCoef="0" IVar="-1" Cut="0.0000000000000000e+00" cType="1" res="-5.7611390948295593e-03" rms="4.6655011177062988e-01" purity="3.8542914390563965e-01" nType="-99"/>
        </Node>
      </Node>
    </BinaryTree>
    <BinaryTree type="DecisionTree" boostWeight="1.0000000000000000e+00" itree="81">
      <Node pos="s" depth="0" NCoef="0" IVar="18" Cut="6.1904764175415039e+00" cType="1" res="-1.6511384397745132e-02" rms="4.2570784687995911e-01" purity="4.9685063958168030e-01" nType="0">
        <Node pos="l" depth="1" NCoef="0" IVar="12" Cut="2.1428570747375488e+00" cType="1" res="8.7745236232876778e-03" rms="4.5132464170455933e-01" purity="5.9592783451080322e-01" nType="0">
          <Node pos="l" depth="2" NCoef="0" IVar="-1" Cut="0.0000000000000000e+00" cType="1" res="1.4302321942523122e-03" rms="4.4337034225463867e-01" purity="6.3256543874740601e-01" nType="-99"/>
          <Node pos="r" depth="2" NCoef="0" IVar="-1" Cut="0.0000000000000000e+00" cType="1" res="-4.7555644996464252e-03" rms="4.6715655922889709e-01" purity="4.5612069964408875e-01" nType="-99"/>
        </Node>
        <Node pos="r" depth="1" NCoef="0" IVar="13" Cut="7.5956061482429504e-02" cType="0" res="-1.2202973663806915e-01" rms="2.7142363786697388e-01" purity="8.3400472998619080e-02" nType="0">
          <Node pos="l" depth="2" NCoef="0" IVar="-1" Cut="0.0000000000000000e+00" cType="1" res="-4.5519419945776463e-03" rms="3.3460178971290588e-01" purity="1.3263003528118134e-01" nType="-99"/>
          <Node pos="r" depth="2" NCoef="0" IVar="-1" Cut="0.0000000000000000e+00" cType="1" res="-8.2931444048881531e-03" rms="2.0568904280662537e-01" purity="4.5702807605266571e-02" nType="-99"/>
        </Node>
      </Node>
    </BinaryTree>
    <BinaryTree type="DecisionTree" boostWeight="1.0000000000000000e+00" itree="82">
      <Node pos="s" depth="0" NCoef="0" IVar="4" Cut="3.2877902984619141e+00" cType="1" res="-2.5228073820471764e-02" rms="4.3455553054809570e-01" purity="4.9781966209411621e-01" nType="0">
        <Node pos="l" depth="1" NCoef="0" IVar="18" Cut="6.4285712242126465e+00" cType="1" res="-1.1345933191478252e-02" rms="4.4328665733337402e-01" purity="5.3402310609817505e-01" nType="0">
          <Node pos="l" depth="2" NCoef="0" IVar="-1" Cut="0.0000000000000000e+00" cType="1" res="8.9421536540612578e-04" rms="4.6409669518470764e-01" purity="6.1741173267364502e-01" nType="-99"/>
          <Node pos="r" depth="2" NCoef="0" IVar="-1" Cut="0.0000000000000000e+00" cType="1" res="-6.4276321791112423e-03" rms="2.9152718186378479e-01" purity="9.7125135362148285e-02" nType="-99"/>
        </Node>
        <Node pos="r" depth="1" NCoef="0" IVar="-1" Cut="0.0000000000000000e+00" cType="1" res="-8.2216011360287666e-03" rms="2.6591840386390686e-01" purity="7.4780113995075226e-02" nType="-99"/>
      </Node>
    </BinaryTree>
    <BinaryTree type="DecisionTree" boostWeight="1.0000000000000000e+00" itree="83">
      <Node pos="s" depth="0" NCoef="0" IVar="18" Cut="6.3333334922790527e+00" cType="1" res="-1.2145207263529301e-02" rms="4.3232181668281555e-01" purity="5.0714194774627686e-01" nType="0">
        <Node pos="l" depth="1" NCoef="0" IVar="4" Cut="3.3249566555023193e+00" cType="1" res="8.4611652418971062e-03" rms="4.5451295375823975e-01" purity="5.9535348415374756e-01" nType="0">
          <Node pos="l" depth="2" NCoef="0" IVar="-1" Cut="0.0000000000000000e+00" cType="1" res="7.6618487946689129e-04" rms="4.5901536941528320e-01" purity="6.2252080440521240e-01" nType="-99"/>
          <Node pos="r" depth="2" NCoef="0" IVar="-1" Cut="0.0000000000000000e+00" cType="1" res="-8.3792190998792648e-03" rms="3.0546012520790100e-01" purity="1.0863693803548813e-01" nType="-99"/>
        </Node>
        <Node pos="r" depth="1" NCoef="0" IVar="20" Cut="1.5705817222595215e+01" cType="1" res="-1.0849828273057938e-01" rms="2.8915727138519287e-01" purity="9.4674877822399139e-02" nType="0">
          <Node pos="l" depth="2" NCoef="0" IVar="-1" Cut="0.0000000000000000e+00" cType="1" res="-4.4277068227529526e-03" rms="3.7412446737289429e-01" purity="1.7194059491157532e-01" nType="-99"/>
          <Node pos="r" depth="2" NCoef="0" IVar="-1" Cut="0.0000000000000000e+00" cType="1" res="-7.7221719548106194e-03" rms="2.3642432689666748e-01" purity="5.9574682265520096e-02" nType="-99"/>
        </Node>
      </Node>
    </BinaryTree>
    <BinaryTree type="DecisionTree" boostWeight="1.0000000000000000e+00" itree="84">
      <Node pos="s" depth="0" NCoef="0" IVar="18" Cut="6.1904764175415039e+00" cType="1" res="-1.9795188680291176e-02" rms="4.2949530482292175e-01" purity="4.9737924337387085e-01" nType="0">
        <Node pos="l" depth="1" NCoef="0" IVar="9" Cut="-1.0000000000000000e+01" cType="1" res="2.9961182735860348e-03" rms="4.5450991392135620e-01" purity="5.9115737676620483e-01" nType="0">
          <Node pos="l" depth="2" NCoef="0" IVar="-1" Cut="0.0000000000000000e+00" cType="1" res="9.0390117838978767e-03" rms="1.7397664487361908e-01" purity="9.6796649694442749e-01" nType="-99"/>
          <Node pos="r" depth="2" NCoef="0" IVar="-1" Cut="0.0000000000000000e+00" cType="1" res="-2.2839292068965733e-04" rms="4.5862078666687012e-01" purity="5.7864117622375488e-01" nType="-99"/>
        </Node>
        <Node pos="r" depth="1" NCoef="0" IVar="10" Cut="3.3524105548858643e+00" cType="0" res="-1.2006330490112305e-01" rms="2.7357476949691772e-01" purity="8.4811389446258545e-02" nType="0">
          <Node pos="l" depth="2" NCoef="0" IVar="-1" Cut="0.0000000000000000e+00" cType="1" res="-4.6910401433706284e-03" rms="3.1472122669219971e-01" purity="1.1741254478693008e-01" nType="-99"/>
          <Node pos="r" depth="2" NCoef="0" IVar="-1" Cut="0.0000000000000000e+00" cType="1" res="-6.9787525571882725e-03" rms="2.5818783044815063e-01" purity="7.5018264353275299e-02" nType="-99"/>
        </Node>
      </Node>
    </BinaryTree>
    <BinaryTree type="DecisionTree" boostWeight="1.0000000000000000e+00" itree="85">
      <Node pos="s" depth="0" NCoef="0" IVar="5" Cut="1.3102228641510010e+00" cType="1" res="-2.2351006045937538e-02" rms="4.3083322048187256e-01" purity="4.9461475014686584e-01" nType="0">
        <Node pos="l" depth="1" NCoef="0" IVar="20" Cut="1.3960207939147949e+01" cType="1" res="4.2600572109222412e-02" rms="4.1220888495445251e-01" purity="7.2117161750793457e-01" nType="0">
          <Node pos="l" depth="2" NCoef="0" IVar="-1" Cut="0.0000000000000000e+00" cType="1" res="1.1631515808403492e-02" rms="3.5806980729103088e-01" purity="8.2066982984542847e-01" nType="-99"/>
          <Node pos="r" depth="2" NCoef="0" IVar="-1" Cut="0.0000000000000000e+00" cType="1" res="-1.9363238243386149e-03" rms="4.3173509836196899e-01" purity="6.6268634796142578e-01" nType="-99"/>
        </Node>
        <Node pos="r" depth="1" NCoef="0" IVar="12" Cut="1.4285714924335480e-01" cType="0" res="-5.3201515227556229e-02" rms="4.3602681159973145e-01" purity="3.8700547814369202e-01" nType="0">
          <Node pos="l" depth="2" NCoef="0" IVar="-1" Cut="0.0000000000000000e+00" cType="1" res="-1.4269723324105144e-03" rms="4.3556830286979675e-01" purity="3.9401495456695557e-01" nType="-99"/>
          <Node pos="r" depth="2" NCoef="0" IVar="-1" Cut="0.0000000000000000e+00" cType="1" res="-9.0442728251218796e-03" rms="4.2040818929672241e-01" purity="3.4408119320869446e-01" nType="-99"/>
        </Node>
      </Node>
    </BinaryTree>
    <BinaryTree type="DecisionTree" boostWeight="1.0000000000000000e+00" itree="86">
      <Node pos="s" depth="0" NCoef="0" IVar="18" Cut="6.4285712242126465e+00" cType="1" res="-2.6637796312570572e-02" rms="4.3297129869461060e-01" purity="4.9494305253028870e-01" nType="0">
        <Node pos="l" depth="1" NCoef="0" IVar="4" Cut="3.1344199180603027e+00" cType="1" res="-9.2233624309301376e-03" rms="4.5719867944717407e-01" purity="5.8219027519226074e-01" nType="0">
          <Node pos="l" depth="2" NCoef="0" IVar="-1" Cut="0.0000000000000000e+00" cType="1" res="8.3272706251591444e-04" rms="4.6147814393043518e-01" purity="6.1014449596405029e-01" nType="-99"/>
          <Node pos="r" depth="2" NCoef="0" IVar="-1" Cut="0.0000000000000000e+00" cType="1" res="-7.2112418711185455e-03" rms="3.4321272373199463e-01" purity="1.3575464487075806e-01" nType="-99"/>
        </Node>
        <Node pos="r" depth="1" NCoef="0" IVar="17" Cut="2.8699859619140625e+01" cType="0" res="-1.0719120502471924e-01" rms="2.8251221776008606e-01" purity="9.1366231441497803e-02" nType="0">
          <Node pos="l" depth="2" NCoef="0" IVar="-1" Cut="0.0000000000000000e+00" cType="1" res="-2.8746346943080425e-03" rms="3.8050529360771179e-01" purity="1.8036362528800964e-01" nType="-99"/>
          <Node pos="r" depth="2" NCoef="0" IVar="-1" Cut="0.0000000000000000e+00" cType="1" res="-7.4645341373980045e-03" rms="2.4205446243286133e-01" purity="6.5840177237987518e-02" nType="-99"/>
        </Node>
      </Node>
    </BinaryTree>
    <BinaryTree type="DecisionTree" boostWeight="1.0000000000000000e+00" itree="87">
      <Node pos="s" depth="0" NCoef="0" IVar="18" Cut="6.4285712242126465e+00" cType="1" res="-9.1895237565040588e-03" rms="4.3292260169982910e-01" purity="5.1433771848678589e-01" nType="0">
        <Node pos="l" depth="1" NCoef="0" IVar="21" Cut="1.3333333730697632e+00" cType="0" res="1.2697861529886723e-02" rms="4.5583084225654602e-01" purity="6.0299807786941528e-01" nType="0">
          <Node pos="l" depth="2" NCoef="0" IVar="-1" Cut="0.0000000000000000e+00" cType="1" res="9.8011875525116920e-04" rms="4.3864569067955017e-01" purity="6.2252283096313477e-01" nType="-99"/>
          <Node pos="r" depth="2" NCoef="0" IVar="-1" Cut="0.0000000000000000e+00" cType="1" res="-1.6859127208590508e-03" rms="4.7055897116661072e-01" purity="5.7610052824020386e-01" nType="-99"/>
        </Node>
        <Node pos="r" depth="1" NCoef="0" IVar="1" Cut="5.1428570747375488e+00" cType="0" res="-1.1549540609121323e-01" rms="2.7369323372840881e-01" purity="8.3719000220298767e-02" nType="0">
          <Node pos="l" depth="2" NCoef="0" IVar="-1" Cut="0.0000000000000000e+00" cType="1" res="-2.4484703317284584e-03" rms="3.3377814292907715e-01" purity="1.3359019160270691e-01" nType="-99"/>
          <Node pos="r" depth="2" NCoef="0" IVar="-1" Cut="0.0000000000000000e+00" cType="1" res="-7.7454852871596813e-03" rms="2.3916335403919220e-01" purity="6.1525013297796249e-02" nType="-99"/>
        </Node>
      </Node>
    </BinaryTree>
    <BinaryTree type="DecisionTree" boostWeight="1.0000000000000000e+00" itree="88">
      <Node pos="s" depth="0" NCoef="0" IVar="4" Cut="3.1028206348419189e+00" cType="1" res="2.2379439324140549e-03" rms="4.2327427864074707e-01" purity="5.1501595973968506e-01" nType="0">
        <Node pos="l" depth="1" NCoef="0" IVar="18" Cut="6.1904764175415039e+00" cType="1" res="1.8085598945617676e-02" rms="4.3153268098831177e-01" purity="5.6023102998733521e-01" nType="0">
          <Node pos="l" depth="2" NCoef="0" IVar="-1" Cut="0.0000000000000000e+00" cType="1" res="8.0698955571278930e-04" rms="4.4789263606071472e-01" purity="6.4687383174896240e-01" nType="-99"/>
          <Node pos="r" depth="2" NCoef="0" IVar="-1" Cut="0.0000000000000000e+00" cType="1" res="-5.7839867658913136e-03" rms="3.0992197990417480e-01" purity="1.1113500595092773e-01" nType="-99"/>
        </Node>
        <Node pos="r" depth="1" NCoef="0" IVar="4" Cut="3.4676296710968018e+00" cType="1" res="-1.3986214995384216e-01" rms="3.0564391613006592e-01" purity="1.0958942025899887e-01" nType="0">
          <Node pos="l" depth="2" NCoef="0" IVar="-1" Cut="0.0000000000000000e+00" cType="1" res="-5.6646349839866161e-03" rms="3.2503113150596619e-01" purity="1.5182127058506012e-01" nType="-99"/>
          <Node pos="r" depth="2" NCoef="0" IVar="-1" Cut="0.0000000000000000e+00" cType="1" res="-8.4066595882177353e-03" rms="2.7911528944969177e-01" purity="7.7741406857967377e-02" nType="-99"/>
        </Node>
      </Node>
    </BinaryTree>
    <BinaryTree type="DecisionTree" boostWeight="1.0000000000000000e+00" itree="89">
      <Node pos="s" depth="0" NCoef="0" IVar="5" Cut="1.7565261125564575e+00" cType="1" res="-2.2832730785012245e-02" rms="4.3152081966400146e-01" purity="5.0062435865402222e-01" nType="0">
        <Node pos="l" depth="1" NCoef="0" IVar="20" Cut="1.3960207939147949e+01" cType="1" res="2.2216876968741417e-02" rms="4.3375349044799805e-01" purity="6.7314380407333374e-01" nType="0">
          <Node pos="l" depth="2" NCoef="0" IVar="-1" Cut="0.0000000000000000e+00" cType="1" res="6.1903777532279491e-03" rms="4.0612295269966125e-01" purity="7.4342334270477295e-01" nType="-99"/>
          <Node pos="r" depth="2" NCoef="0" IVar="-1" Cut="0.0000000000000000e+00" cType="1" res="-1.6807555221021175e-03" rms="4.4587719440460205e-01" purity="6.2551981210708618e-01" nType="-99"/>
        </Node>
        <Node pos="r" depth="1" NCoef="0" IVar="12" Cut="1.4285714924335480e-01" cType="0" res="-7.3992006480693817e-02" rms="4.2319548130035400e-01" purity="3.0470770597457886e-01" nType="0">
          <Node pos="l" depth="2" NCoef="0" IVar="-1" Cut="0.0000000000000000e+00" cType="1" res="-2.0251022651791573e-03" rms="4.2753025889396667e-01" purity="3.2195022702217102e-01" nType="-99"/>
          <Node pos="r" depth="2" NCoef="0" IVar="-1" Cut="0.0000000000000000e+00" cType="1" res="-8.8078519329428673e-03" rms="3.7251117825508118e-01" purity="2.0342481136322021e-01" nType="-99"/>
        </Node>
      </Node>
    </BinaryTree>
    <BinaryTree type="DecisionTree" boostWeight="1.0000000000000000e+00" itree="90">
      <Node pos="s" depth="0" NCoef="0" IVar="0" Cut="4.4540366530418396e-01" cType="0" res="-1.6969308257102966e-02" rms="4.3150928616523743e-01" purity="5.0146383047103882e-01" nType="0">
        <Node pos="l" depth="1" NCoef="0" IVar="5" Cut="2.6394381523132324e+00" cType="1" res="-3.6150519736111164e-03" rms="4.2428371310234070e-01" purity="5.0279182195663452e-01" nType="0">
          <Node pos="l" depth="2" NCoef="0" IVar="-1" Cut="0.0000000000000000e+00" cType="1" res="1.7416629998479038e-04" rms="4.3553066253662109e-01" purity="5.7157528400421143e-01" nType="-99"/>
          <Node pos="r" depth="2" NCoef="0" IVar="-1" Cut="0.0000000000000000e+00" cType="1" res="-5.7847294956445694e-03" rms="3.3668735623359680e-01" purity="1.4866095781326294e-01" nType="-99"/>
        </Node>
        <Node pos="r" depth="1" NCoef="0" IVar="4" Cut="1.4814134836196899e+00" cType="1" res="-1.9529548287391663e-01" rms="4.8434633016586304e-01" purity="4.8372998833656311e-01" nType="0">
          <Node pos="l" depth="2" NCoef="0" IVar="-1" Cut="0.0000000000000000e+00" cType="1" res="-3.4064783249050379e-03" rms="4.6873846650123596e-01" purity="6.1609822511672974e-01" nType="-99"/>
          <Node pos="r" depth="2" NCoef="0" IVar="-1" Cut="0.0000000000000000e+00" cType="1" res="-8.8993757963180542e-03" rms="4.8263278603553772e-01" purity="3.1323882937431335e-01" nType="-99"/>
        </Node>
      </Node>
    </BinaryTree>
    <BinaryTree type="DecisionTree" boostWeight="1.0000000000000000e+00" itree="91">
      <Node pos="s" depth="0" NCoef="0" IVar="4" Cut="2.6413447856903076e+00" cType="1" res="-1.6046177595853806e-02" rms="4.2964178323745728e-01" purity="5.0665348768234253e-01" nType="0">
        <Node pos="l" depth="1" NCoef="0" IVar="18" Cut="4.2857141494750977e+00" cType="1" res="6.6473977640271187e-03" rms="4.4126582145690918e-01" purity="5.8416372537612915e-01" nType="0">
          <Node pos="l" depth="2" NCoef="0" IVar="-1" Cut="0.0000000000000000e+00" cType="1" res="4.1868733242154121e-03" rms="3.9349469542503357e-01" purity="7.7905583381652832e-01" nType="-99"/>
          <Node pos="r" depth="2" NCoef="0" IVar="-1" Cut="0.0000000000000000e+00" cType="1" res="-1.5968250809237361e-03" rms="4.6565434336662292e-01" purity="4.5299753546714783e-01" nType="-99"/>
        </Node>
        <Node pos="r" depth="1" NCoef="0" IVar="18" Cut="4.0476188659667969e+00" cType="0" res="-1.1158852279186249e-01" rms="3.6148947477340698e-01" purity="1.8032711744308472e-01" nType="0">
          <Node pos="l" depth="2" NCoef="0" IVar="-1" Cut="0.0000000000000000e+00" cType="1" res="-3.7530711852014065e-03" rms="3.8439872860908508e-01" purity="2.1598944067955017e-01" nType="-99"/>
          <Node pos="r" depth="2" NCoef="0" IVar="-1" Cut="0.0000000000000000e+00" cType="1" res="-9.6893403679132462e-03" rms="2.5015002489089966e-01" purity="8.2434043288230896e-02" nType="-99"/>
        </Node>
      </Node>
    </BinaryTree>
    <BinaryTree type="DecisionTree" boostWeight="1.0000000000000000e+00" itree="92">
      <Node pos="s" depth="0" NCoef="0" IVar="18" Cut="1.4285714626312256e+00" cType="1" res="-1.7686467617750168e-02" rms="4.3846225738525391e-01" purity="5.1074045896530151e-01" nType="0">
        <Node pos="l" depth="1" NCoef="0" IVar="14" Cut="5.7833801269531250e+01" cType="0" res="-1.5564437210559845e-01" rms="4.7820129990577698e-01" purity="5.6460869312286377e-01" nType="0">
          <Node pos="l" depth="2" NCoef="0" IVar="-1" Cut="0.0000000000000000e+00" cType="1" res="2.8156014159321785e-03" rms="4.3180081248283386e-01" purity="7.1703022718429565e-01" nType="-99"/>
          <Node pos="r" depth="2" NCoef="0" IVar="-1" Cut="0.0000000000000000e+00" cType="1" res="-9.7551457583904266e-03" rms="4.8455330729484558e-01" purity="4.5986995100975037e-01" nType="-99"/>
        </Node>
        <Node pos="r" depth="1" NCoef="0" IVar="18" Cut="6.1904764175415039e+00" cType="1" res="-7.6618022285401821e-03" rms="4.3372651934623718e-01" purity="5.0682616233825684e-01" nType="0">
          <Node pos="l" depth="2" NCoef="0" IVar="-1" Cut="0.0000000000000000e+00" cType="1" res="2.6922850520350039e-04" rms="4.5610889792442322e-01" purity="5.9151268005371094e-01" nType="-99"/>
          <Node pos="r" depth="2" NCoef="0" IVar="-1" Cut="0.0000000000000000e+00" cType="1" res="-6.1253351159393787e-03" rms="2.8691941499710083e-01" purity="9.5758385956287384e-02" nType="-99"/>
        </Node>
      </Node>
    </BinaryTree>
    <BinaryTree type="DecisionTree" boostWeight="1.0000000000000000e+00" itree="93">
      <Node pos="s" depth="0" NCoef="0" IVar="10" Cut="3.3104176521301270e+00" cType="1" res="-2.5652082636952400e-02" rms="4.2501613497734070e-01" purity="4.8162722587585449e-01" nType="0">
        <Node pos="l" depth="1" NCoef="0" IVar="18" Cut="6.4285712242126465e+00" cType="1" res="-2.1173299755901098e-03" rms="4.2896300554275513e-01" purity="5.3696149587631226e-01" nType="0">
          <Node pos="l" depth="2" NCoef="0" IVar="-1" Cut="0.0000000000000000e+00" cType="1" res="1.1979279806837440e-03" rms="4.5378255844116211e-01" purity="6.3659745454788208e-01" nType="-99"/>
          <Node pos="r" depth="2" NCoef="0" IVar="-1" Cut="0.0000000000000000e+00" cType="1" res="-6.2625808641314507e-03" rms="2.5579676032066345e-01" purity="7.3622696101665497e-02" nType="-99"/>
        </Node>
        <Node pos="r" depth="1" NCoef="0" IVar="17" Cut="1.6906772613525391e+01" cType="1" res="-1.3031159341335297e-01" rms="3.9017057418823242e-01" purity="2.3555475473403931e-01" nType="0">
          <Node pos="l" depth="2" NCoef="0" IVar="-1" Cut="0.0000000000000000e+00" cType="1" res="-8.0783566227182746e-04" rms="4.0257543325424194e-01" purity="3.4324008226394653e-01" nType="-99"/>
          <Node pos="r" depth="2" NCoef="0" IVar="-1" Cut="0.0000000000000000e+00" cType="1" res="-6.6882688552141190e-03" rms="3.7842079997062683e-01" purity="1.9856615364551544e-01" nType="-99"/>
        </Node>
      </Node>
    </BinaryTree>
    <BinaryTree type="DecisionTree" boostWeight="1.0000000000000000e+00" itree="94">
      <Node pos="s" depth="0" NCoef="0" IVar="10" Cut="2.1584119796752930e+00" cType="1" res="-2.9138062149286270e-02" rms="4.2829665541648865e-01" purity="4.8394435644149780e-01" nType="0">
        <Node pos="l" depth="1" NCoef="0" IVar="18" Cut="6.4285712242126465e+00" cType="1" res="2.4774702265858650e-02" rms="4.1162851452827454e-01" purity="6.0388439893722534e-01" nType="0">
          <Node pos="l" depth="2" NCoef="0" IVar="-1" Cut="0.0000000000000000e+00" cType="1" res="3.3519293647259474e-03" rms="4.2725470662117004e-01" purity="6.9448018074035645e-01" nType="-99"/>
          <Node pos="r" depth="2" NCoef="0" IVar="-1" Cut="0.0000000000000000e+00" cType="1" res="-5.9541244991123676e-03" rms="2.5683245062828064e-01" purity="7.3691658675670624e-02" nType="-99"/>
        </Node>
        <Node pos="r" depth="1" NCoef="0" IVar="12" Cut="1.4285714924335480e-01" cType="0" res="-9.0235516428947449e-02" rms="4.3849384784698486e-01" purity="3.4802040457725525e-01" nType="0">
          <Node pos="l" depth="2" NCoef="0" IVar="-1" Cut="0.0000000000000000e+00" cType="1" res="-2.4508903734385967e-03" rms="4.3318808078765869e-01" purity="3.6011436581611633e-01" nType="-99"/>
          <Node pos="r" depth="2" NCoef="0" IVar="-1" Cut="0.0000000000000000e+00" cType="1" res="-9.4106802716851234e-03" rms="4.3026712536811829e-01" purity="2.9028281569480896e-01" nType="-99"/>
        </Node>
      </Node>
    </BinaryTree>
    <BinaryTree type="DecisionTree" boostWeight="1.0000000000000000e+00" itree="95">
      <Node pos="s" depth="0" NCoef="0" IVar="4" Cut="3.1028206348419189e+00" cType="1" res="-2.4466973263770342e-03" rms="4.3006607890129089e-01" purity="5.1788359880447388e-01" nType="0">
        <Node pos="l" depth="1" NCoef="0" IVar="20" Cut="7.1492652893066406e+01" cType="1" res="1.2706078588962555e-02" rms="4.4085857272148132e-01" purity="5.6667524576187134e-01" nType="0">
          <Node pos="l" depth="2" NCoef="0" IVar="-1" Cut="0.0000000000000000e+00" cType="1" res="-2.3979513207450509e-04" rms="4.3912246823310852e-01" purity="5.7439482212066650e-01" nType="-99"/>
          <Node pos="r" depth="2" NCoef="0" IVar="-1" Cut="0.0000000000000000e+00" cType="1" res="-6.1653936281800270e-03" rms="4.2831757664680481e-01" purity="3.3379092812538147e-01" nType="-99"/>
        </Node>
        <Node pos="r" depth="1" NCoef="0" IVar="4" Cut="3.4671318531036377e+00" cType="1" res="-1.3036344945430756e-01" rms="2.9547840356826782e-01" purity="1.0599406063556671e-01" nType="0">
          <Node pos="l" depth="2" NCoef="0" IVar="-1" Cut="0.0000000000000000e+00" cType="1" res="-5.3023574873805046e-03" rms="3.3211618661880493e-01" purity="1.5233936905860901e-01" nType="-99"/>
          <Node pos="r" depth="2" NCoef="0" IVar="-1" Cut="0.0000000000000000e+00" cType="1" res="-8.0565363168716431e-03" rms="2.5574672222137451e-01" purity="6.8820476531982422e-02" nType="-99"/>
        </Node>
      </Node>
    </BinaryTree>
    <BinaryTree type="DecisionTree" boostWeight="1.0000000000000000e+00" itree="96">
      <Node pos="s" depth="0" NCoef="0" IVar="0" Cut="2.6554694175720215e+00" cType="1" res="-2.2795349359512329e-02" rms="4.3312907218933105e-01" purity="4.9268704652786255e-01" nType="0">
        <Node pos="l" depth="1" NCoef="0" IVar="7" Cut="3.5571424961090088e+00" cType="1" res="-8.7916711345314980e-03" rms="4.4388183951377869e-01" purity="5.4454803466796875e-01" nType="0">
          <Node pos="l" depth="2" NCoef="0" IVar="-1" Cut="0.0000000000000000e+00" cType="1" res="-3.6281373468227684e-05" rms="4.4202679395675659e-01" purity="5.5284905433654785e-01" nType="-99"/>
          <Node pos="r" depth="2" NCoef="0" IVar="-1" Cut="0.0000000000000000e+00" cType="1" res="-9.0937307104468346e-03" rms="4.5112010836601257e-01" purity="3.5755902528762817e-01" nType="-99"/>
        </Node>
        <Node pos="r" depth="1" NCoef="0" IVar="15" Cut="1.3285714149475098e+01" cType="0" res="-1.1520842462778091e-01" rms="3.3990314602851868e-01" purity="1.5044605731964111e-01" nType="0">
          <Node pos="l" depth="2" NCoef="0" IVar="-1" Cut="0.0000000000000000e+00" cType="1" res="-4.1370741091668606e-03" rms="3.5830613970756531e-01" purity="1.7810387909412384e-01" nType="-99"/>
          <Node pos="r" depth="2" NCoef="0" IVar="-1" Cut="0.0000000000000000e+00" cType="1" res="-8.0017326399683952e-03" rms="2.8742209076881409e-01" purity="1.0082221776247025e-01" nType="-99"/>
        </Node>
      </Node>
    </BinaryTree>
    <BinaryTree type="DecisionTree" boostWeight="1.0000000000000000e+00" itree="97">
      <Node pos="s" depth="0" NCoef="0" IVar="4" Cut="2.6586015224456787e+00" cType="1" res="3.2324392814189196e-03" rms="4.2399874329566956e-01" purity="5.2019166946411133e-01" nType="0">
        <Node pos="l" depth="1" NCoef="0" IVar="8" Cut="2.4261906147003174e+00" cType="1" res="2.5836791843175888e-02" rms="4.3290781974792480e-01" purity="6.0120850801467896e-01" nType="0">
          <Node pos="l" depth="2" NCoef="0" IVar="-1" Cut="0.0000000000000000e+00" cType="1" res="8.6391717195510864e-04" rms="4.2607650160789490e-01" purity="6.2482219934463501e-01" nType="-99"/>
          <Node pos="r" depth="2" NCoef="0" IVar="-1" Cut="0.0000000000000000e+00" cType="1" res="-6.8470584228634834e-03" rms="4.5043250918388367e-01" purity="4.1449293494224548e-01" nType="-99"/>
        </Node>
        <Node pos="r" depth="1" NCoef="0" IVar="4" Cut="2.7528135776519775e+00" cType="1" res="-8.7546482682228088e-02" rms="3.7258970737457275e-01" purity="1.9482827186584473e-01" nType="0">
          <Node pos="l" depth="2" NCoef="0" IVar="-1" Cut="0.0000000000000000e+00" cType="1" res="-5.2135344594717026e-04" rms="5.0208413600921631e-01" purity="4.5452910661697388e-01" nType="-99"/>
          <Node pos="r" depth="2" NCoef="0" IVar="-1" Cut="0.0000000000000000e+00" cType="1" res="-5.2235480397939682e-03" rms="3.5114607214927673e-01" purity="1.6440603137016296e-01" nType="-99"/>
        </Node>
      </Node>
    </BinaryTree>
    <BinaryTree type="DecisionTree" boostWeight="1.0000000000000000e+00" itree="98">
      <Node pos="s" depth="0" NCoef="0" IVar="5" Cut="2.2022602558135986e+00" cType="1" res="-2.9120242223143578e-02" rms="4.3059778213500977e-01" purity="4.8429536819458008e-01" nType="0">
        <Node pos="l" depth="1" NCoef="0" IVar="0" Cut="4.5718961954116821e-01" cType="0" res="-7.0189852267503738e-03" rms="4.4549226760864258e-01" purity="5.9005713462829590e-01" nType="0">
          <Node pos="l" depth="2" NCoef="0" IVar="-1" Cut="0.0000000000000000e+00" cType="1" res="7.1397161809727550e-04" rms="4.3915811181068420e-01" purity="5.9648126363754272e-01" nType="-99"/>
          <Node pos="r" depth="2" NCoef="0" IVar="-1" Cut="0.0000000000000000e+00" cType="1" res="-7.0050461217761040e-03" rms="4.8233032226562500e-01" purity="5.2245610952377319e-01" nType="-99"/>
        </Node>
        <Node pos="r" depth="1" NCoef="0" IVar="15" Cut="9.5714282989501953e+00" cType="0" res="-8.5787191987037659e-02" rms="3.8404935598373413e-01" purity="2.1312519907951355e-01" nType="0">
          <Node pos="l" depth="2" NCoef="0" IVar="-1" Cut="0.0000000000000000e+00" cType="1" res="-2.4106388445943594e-03" rms="3.9370167255401611e-01" purity="2.3737876117229462e-01" nType="-99"/>
          <Node pos="r" depth="2" NCoef="0" IVar="-1" Cut="0.0000000000000000e+00" cType="1" res="-7.9111298546195030e-03" rms="3.0386012792587280e-01" purity="1.1245018243789673e-01" nType="-99"/>
        </Node>
      </Node>
    </BinaryTree>
    <BinaryTree type="DecisionTree" boostWeight="1.0000000000000000e+00" itree="99">
      <Node pos="s" depth="0" NCoef="0" IVar="4" Cut="1.7909219264984131e+00" cType="1" res="-2.2553246468305588e-02" rms="4.3028470873832703e-01" purity="4.8875832557678223e-01" nType="0">
        <Node pos="l" depth="1" NCoef="0" IVar="6" Cut="1.4501420259475708e+00" cType="0" res="2.9365941882133484e-02" rms="4.2205542325973511e-01" purity="7.2859913110733032e-01" nType="0">
          <Node pos="l" depth="2" NCoef="0" IVar="-1" Cut="0.0000000000000000e+00" cType="1" res="7.8883515670895576e-03" rms="3.9185753464698792e-01" purity="7.9691714048385620e-01" nType="-99"/>
          <Node pos="r" depth="2" NCoef="0" IVar="-1" Cut="0.0000000000000000e+00" cType="1" res="-5.3261930588632822e-05" rms="4.2771843075752258e-01" purity="7.0148527622222900e-01" nType="-99"/>
        </Node>
        <Node pos="r" depth="1" NCoef="0" IVar="12" Cut="1.4285714924335480e-01" cType="0" res="-5.6326456367969513e-02" rms="4.3221923708915710e-01" purity="3.3274292945861816e-01" nType="0">
          <Node pos="l" depth="2" NCoef="0" IVar="-1" Cut="0.0000000000000000e+00" cType="1" res="-1.5933648683130741e-03" rms="4.3287095427513123e-01" purity="3.4677180647850037e-01" nType="-99"/>
          <Node pos="r" depth="2" NCoef="0" IVar="-1" Cut="0.0000000000000000e+00" cType="1" res="-7.3944679461419582e-03" rms="4.0399977564811707e-01" purity="2.4674929678440094e-01" nType="-99"/>
        </Node>
      </Node>
    </BinaryTree>
    <BinaryTree type="DecisionTree" boostWeight="1.0000000000000000e+00" itree="100">
      <Node pos="s" depth="0" NCoef="0" IVar="10" Cut="3.3104176521301270e+00" cType="1" res="-8.4718456491827965e-03" rms="4.3041092157363892e-01" purity="5.0931566953659058e-01" nType="0">
        <Node pos="l" depth="1" NCoef="0" IVar="11" Cut="1.3993023633956909e+00" cType="1" res="1.3109940104186535e-02" rms="4.3311369419097900e-01" purity="5.6337118148803711e-01" nType="0">
          <Node pos="l" depth="2" NCoef="0" IVar="-1" Cut="0.0000000000000000e+00" cType="1" res="1.4601172879338264e-03" rms="4.2387214303016663e-01" purity="6.3565939664840698e-01" nType="-99"/>
          <Node pos="r" depth="2" NCoef="0" IVar="-1" Cut="0.0000000000000000e+00" cType="1" res="-3.3713190350681543e-03" rms="4.4758957624435425e-01" purity="3.6871019005775452e-01" nType="-99"/>
        </Node>
        <Node pos="r" depth="1" NCoef="0" IVar="20" Cut="1.1542355537414551e+01" cType="1" res="-1.0837090015411377e-01" rms="4.0288248658180237e-01" purity="2.5910034775733948e-01" nType="0">
          <Node pos="l" depth="2" NCoef="0" IVar="-1" Cut="0.0000000000000000e+00" cType="1" res="-1.3813647674396634e-03" rms="4.3783837556838989e-01" purity="4.0562441945075989e-01" nType="-99"/>
          <Node pos="r" depth="2" NCoef="0" IVar="-1" Cut="0.0000000000000000e+00" cType="1" res="-6.1701815575361252e-03" rms="3.7948340177536011e-01" purity="2.0216669142246246e-01" nType="-99"/>
        </Node>
      </Node>
    </BinaryTree>
    <BinaryTree type="DecisionTree" boostWeight="1.0000000000000000e+00" itree="101">
      <Node pos="s" depth="0" NCoef="0" IVar="5" Cut="2.1989989280700684e+00" cType="1" res="-1.5057622455060482e-02" rms="4.2466077208518982e-01" purity="4.9314901232719421e-01" nType="0">
        <Node pos="l" depth="1" NCoef="0" IVar="18" Cut="5.1428570747375488e+00" cType="1" res="2.0346300676465034e-02" rms="4.3538424372673035e-01" purity="6.1015951633453369e-01" nType="0">
          <Node pos="l" depth="2" NCoef="0" IVar="-1" Cut="0.0000000000000000e+00" cType="1" res="3.5193539224565029e-03" rms="4.2120271921157837e-01" purity="7.4059945344924927e-01" nType="-99"/>
          <Node pos="r" depth="2" NCoef="0" IVar="-1" Cut="0.0000000000000000e+00" cType="1" res="-2.9759327881038189e-03" rms="4.5001909136772156e-01" purity="4.1869732737541199e-01" nType="-99"/>
        </Node>
        <Node pos="r" depth="1" NCoef="0" IVar="0" Cut="1.6584846973419189e+00" cType="0" res="-1.0179847478866577e-01" rms="3.8359609246253967e-01" purity="2.0646899938583374e-01" nType="0">
          <Node pos="l" depth="2" NCoef="0" IVar="-1" Cut="0.0000000000000000e+00" cType="1" res="-3.2267516944557428e-03" rms="3.8777747750282288e-01" purity="2.2043251991271973e-01" nType="-99"/>
          <Node pos="r" depth="2" NCoef="0" IVar="-1" Cut="0.0000000000000000e+00" cType="1" res="-4.2862887494266033e-03" rms="3.5972017049789429e-01" purity="1.6163668036460876e-01" nType="-99"/>
        </Node>
      </Node>
    </BinaryTree>
    <BinaryTree type="DecisionTree" boostWeight="1.0000000000000000e+00" itree="102">
      <Node pos="s" depth="0" NCoef="0" IVar="11" Cut="2.2135379314422607e+00" cType="1" res="-1.2066878378391266e-02" rms="4.3442916870117188e-01" purity="5.0788742303848267e-01" nType="0">
        <Node pos="l" depth="1" NCoef="0" IVar="0" Cut="1.1135076284408569e+00" cType="1" res="3.2054793555289507e-03" rms="4.4109034538269043e-01" purity="5.5806177854537964e-01" nType="0">
          <Node pos="l" depth="2" NCoef="0" IVar="-1" Cut="0.0000000000000000e+00" cType="1" res="-1.5834210207685828e-03" rms="4.5639926195144653e-01" purity="5.9576779603958130e-01" nType="-99"/>
          <Node pos="r" depth="2" NCoef="0" IVar="-1" Cut="0.0000000000000000e+00" cType="1" res="2.8880283934995532e-04" rms="4.2896273732185364e-01" purity="5.3604912757873535e-01" nType="-99"/>
        </Node>
        <Node pos="r" depth="1" NCoef="0" IVar="0" Cut="2.8707897663116455e+00" cType="1" res="-9.3997791409492493e-02" rms="3.8662394881248474e-01" purity="2.3871926963329315e-01" nType="0">
          <Node pos="l" depth="2" NCoef="0" IVar="-1" Cut="0.0000000000000000e+00" cType="1" res="-3.8088453002274036e-03" rms="4.3998560309410095e-01" purity="3.2849511504173279e-01" nType="-99"/>
          <Node pos="r" depth="2" NCoef="0" IVar="-1" Cut="0.0000000000000000e+00" cType="1" res="-6.9502154365181923e-03" rms="2.4133312702178955e-01" purity="6.7577466368675232e-02" nType="-99"/>
        </Node>
      </Node>
    </BinaryTree>
    <BinaryTree type="DecisionTree" boostWeight="1.0000000000000000e+00" itree="103">
      <Node pos="s" depth="0" NCoef="0" IVar="4" Cut="3.1028206348419189e+00" cType="1" res="-1.8171465024352074e-02" rms="4.3114748597145081e-01" purity="4.9387305974960327e-01" nType="0">
        <Node pos="l" depth="1" NCoef="0" IVar="0" Cut="1.3489290475845337e+00" cType="1" res="-5.4381866939365864e-03" rms="4.4341298937797546e-01" purity="5.4064631462097168e-01" nType="0">
          <Node pos="l" depth="2" NCoef="0" IVar="-1" Cut="0.0000000000000000e+00" cType="1" res="-1.4499693643301725e-03" rms="4.4891282916069031e-01" purity="5.7522439956665039e-01" nType="-99"/>
          <Node pos="r" depth="2" NCoef="0" IVar="-1" Cut="0.0000000000000000e+00" cType="1" res="5.0059705972671509e-04" rms="4.3446359038352966e-01" purity="5.0740456581115723e-01" nType="-99"/>
        </Node>
        <Node pos="r" depth="1" NCoef="0" IVar="20" Cut="1.5734189987182617e+01" cType="1" res="-1.2619026005268097e-01" rms="2.8608754277229309e-01" purity="9.7086668014526367e-02" nType="0">
          <Node pos="l" depth="2" NCoef="0" IVar="-1" Cut="0.0000000000000000e+00" cType="1" res="-6.0122893191874027e-03" rms="3.3247646689414978e-01" purity="1.4671863615512848e-01" nType="-99"/>
          <Node pos="r" depth="2" NCoef="0" IVar="-1" Cut="0.0000000000000000e+00" cType="1" res="-6.7025078460574150e-03" rms="2.4711033701896667e-01" purity="6.5374687314033508e-02" nType="-99"/>
        </Node>
      </Node>
    </BinaryTree>
    <BinaryTree type="DecisionTree" boostWeight="1.0000000000000000e+00" itree="104">
      <Node pos="s" depth="0" NCoef="0" IVar="7" Cut="1.5238153934478760e-01" cType="1" res="-1.5951540321111679e-02" rms="4.3082141876220703e-01" purity="5.0049608945846558e-01" nType="0">
        <Node pos="l" depth="1" NCoef="0" IVar="15" Cut="1.1285714149475098e+01" cType="1" res="1.0591926053166389e-02" rms="4.2047658562660217e-01" purity="5.3704297542572021e-01" nType="0">
          <Node pos="l" depth="2" NCoef="0" IVar="-1" Cut="0.0000000000000000e+00" cType="1" res="4.2311260476708412e-03" rms="3.8654425740242004e-01" purity="7.4747258424758911e-01" nType="-99"/>
          <Node pos="r" depth="2" NCoef="0" IVar="-1" Cut="0.0000000000000000e+00" cType="1" res="-1.5233159065246582e-03" rms="4.3710407614707947e-01" purity="3.8961362838745117e-01" nType="-99"/>
        </Node>
        <Node pos="r" depth="1" NCoef="0" IVar="0" Cut="7.2632080316543579e-01" cType="0" res="-6.7470572888851166e-02" rms="4.4573342800140381e-01" purity="4.2956110835075378e-01" nType="0">
          <Node pos="l" depth="2" NCoef="0" IVar="-1" Cut="0.0000000000000000e+00" cType="1" res="-2.5855957064777613e-03" rms="4.3387940526008606e-01" purity="4.3328419327735901e-01" nType="-99"/>
          <Node pos="r" depth="2" NCoef="0" IVar="-1" Cut="0.0000000000000000e+00" cType="1" res="-6.8838763982057571e-03" rms="4.6797433495521545e-01" purity="4.1673949360847473e-01" nType="-99"/>
        </Node>
      </Node>
    </BinaryTree>
    <BinaryTree type="DecisionTree" boostWeight="1.0000000000000000e+00" itree="105">
      <Node pos="s" depth="0" NCoef="0" IVar="18" Cut="6.1904764175415039e+00" cType="1" res="-1.0294247185811400e-03" rms="4.2682233452796936e-01" purity="5.1038801670074463e-01" nType="0">
        <Node pos="l" depth="1" NCoef="0" IVar="7" Cut="1.5238153934478760e-01" cType="1" res="1.9870705902576447e-02" rms="4.5195740461349487e-01" purity="6.0682958364486694e-01" nType="0">
          <Node pos="l" depth="2" NCoef="0" IVar="-1" Cut="0.0000000000000000e+00" cType="1" res="2.1129378583282232e-03" rms="4.3962416052818298e-01" purity="6.6544967889785767e-01" nType="-99"/>
          <Node pos="r" depth="2" NCoef="0" IVar="-1" Cut="0.0000000000000000e+00" cType="1" res="-2.8905216604471207e-03" rms="4.6563616394996643e-01" purity="4.9707114696502686e-01" nType="-99"/>
        </Node>
        <Node pos="r" depth="1" NCoef="0" IVar="3" Cut="2.2380952835083008e+00" cType="0" res="-9.3091860413551331e-02" rms="2.7291375398635864e-01" purity="8.5574865341186523e-02" nType="0">
          <Node pos="l" depth="2" NCoef="0" IVar="-1" Cut="0.0000000000000000e+00" cType="1" res="-3.4835080150514841e-03" rms="3.4391191601753235e-01" purity="1.4429888129234314e-01" nType="-99"/>
          <Node pos="r" depth="2" NCoef="0" IVar="-1" Cut="0.0000000000000000e+00" cType="1" res="-7.1680834516882896e-03" rms="2.1284845471382141e-01" purity="4.9092195928096771e-02" nType="-99"/>
        </Node>
      </Node>
    </BinaryTree>
    <BinaryTree type="DecisionTree" boostWeight="1.0000000000000000e+00" itree="106">
      <Node pos="s" depth="0" NCoef="0" IVar="0" Cut="4.4176682829856873e-01" cType="0" res="-1.2964114546775818e-02" rms="4.3140870332717896e-01" purity="5.0260257720947266e-01" nType="0">
        <Node pos="l" depth="1" NCoef="0" IVar="8" Cut="2.2619047164916992e+00" cType="1" res="-1.5248951967805624e-03" rms="4.2540934681892395e-01" purity="5.0341439247131348e-01" nType="0">
          <Node pos="l" depth="2" NCoef="0" IVar="-1" Cut="0.0000000000000000e+00" cType="1" res="-1.1285434447927400e-04" rms="4.1882660984992981e-01" purity="5.1441711187362671e-01" nType="-99"/>
          <Node pos="r" depth="2" NCoef="0" IVar="-1" Cut="0.0000000000000000e+00" cType="1" res="-6.6871023736894131e-03" rms="4.6064943075180054e-01" purity="3.8555288314819336e-01" nType="-99"/>
        </Node>
        <Node pos="r" depth="1" NCoef="0" IVar="1" Cut="4.0000000000000000e+00" cType="1" res="-1.6982227563858032e-01" rms="4.7979274392127991e-01" purity="4.9147024750709534e-01" nType="0">
          <Node pos="l" depth="2" NCoef="0" IVar="-1" Cut="0.0000000000000000e+00" cType="1" res="-2.4393980856984854e-03" rms="4.7690227627754211e-01" purity="6.0652905702590942e-01" nType="-99"/>
          <Node pos="r" depth="2" NCoef="0" IVar="-1" Cut="0.0000000000000000e+00" cType="1" res="-9.9508063867688179e-03" rms="4.6699181199073792e-01" purity="3.4055611491203308e-01" nType="-99"/>
        </Node>
      </Node>
    </BinaryTree>
    <BinaryTree type="DecisionTree" boostWeight="1.0000000000000000e+00" itree="107">
      <Node pos="s" depth="0" NCoef="0" IVar="5" Cut="1.7565268278121948e+00" cType="1" res="-1.6810307279229164e-02" rms="4.2654943466186523e-01" purity="4.9481678009033203e-01" nType="0">
        <Node pos="l" depth="1" NCoef="0" IVar="15" Cut="1.1142857551574707e+01" cType="1" res="1.6746180132031441e-02" rms="4.2944106459617615e-01" purity="6.6068238019943237e-01" nType="0">
          <Node pos="l" depth="2" NCoef="0" IVar="-1" Cut="0.0000000000000000e+00" cType="1" res="5.2216406911611557e-03" rms="3.8475969433784485e-01" purity="7.8882968425750732e-01" nType="-99"/>
          <Node pos="r" depth="2" NCoef="0" IVar="-1" Cut="0.0000000000000000e+00" cType="1" res="-2.0453450269997120e-03" rms="4.7522422671318054e-01" purity="4.8885247111320496e-01" nType="-99"/>
        </Node>
        <Node pos="r" depth="1" NCoef="0" IVar="12" Cut="1.4285714924335480e-01" cType="0" res="-5.5431313812732697e-02" rms="4.1989055275917053e-01" purity="3.0391791462898254e-01" nType="0">
          <Node pos="l" depth="2" NCoef="0" IVar="-1" Cut="0.0000000000000000e+00" cType="1" res="-1.4192151138558984e-03" rms="4.2242804169654846e-01" purity="3.1993663311004639e-01" nType="-99"/>
          <Node pos="r" depth="2" NCoef="0" IVar="-1" Cut="0.0000000000000000e+00" cType="1" res="-8.0333063378930092e-03" rms="3.7356302142143250e-01" purity="1.9976738095283508e-01" nType="-99"/>
        </Node>
      </Node>
    </BinaryTree>
    <BinaryTree type="DecisionTree" boostWeight="1.0000000000000000e+00" itree="108">
      <Node pos="s" depth="0" NCoef="0" IVar="18" Cut="5.2380952835083008e+00" cType="1" res="-2.0262803882360458e-02" rms="4.2852029204368591e-01" purity="4.8868188261985779e-01" nType="0">
        <Node pos="l" depth="1" NCoef="0" IVar="15" Cut="1.4142857551574707e+01" cType="0" res="2.3684058338403702e-02" rms="4.3232586979866028e-01" purity="6.6521298885345459e-01" nType="0">
          <Node pos="l" depth="2" NCoef="0" IVar="-1" Cut="0.0000000000000000e+00" cType="1" res="8.9095449075102806e-03" rms="4.4935786724090576e-01" purity="6.8451184034347534e-01" nType="-99"/>
          <Node pos="r" depth="2" NCoef="0" IVar="-1" Cut="0.0000000000000000e+00" cType="1" res="1.7884706903714687e-04" rms="4.2634657025337219e-01" purity="6.6241282224655151e-01" nType="-99"/>
        </Node>
        <Node pos="r" depth="1" NCoef="0" IVar="4" Cut="1.3112556934356689e+00" cType="0" res="-6.3089698553085327e-02" rms="4.2038178443908691e-01" purity="3.1664964556694031e-01" nType="0">
          <Node pos="l" depth="2" NCoef="0" IVar="-1" Cut="0.0000000000000000e+00" cType="1" res="-2.1830392070114613e-03" rms="4.0914517641067505e-01" purity="3.1770309805870056e-01" nType="-99"/>
          <Node pos="r" depth="2" NCoef="0" IVar="-1" Cut="0.0000000000000000e+00" cType="1" res="-1.0010072961449623e-02" rms="4.5906940102577209e-01" purity="3.0644989013671875e-01" nType="-99"/>
        </Node>
      </Node>
    </BinaryTree>
    <BinaryTree type="DecisionTree" boostWeight="1.0000000000000000e+00" itree="109">
      <Node pos="s" depth="0" NCoef="0" IVar="5" Cut="1.3193994760513306e+00" cType="1" res="-2.0776266232132912e-02" rms="4.2919912934303284e-01" purity="4.8769080638885498e-01" nType="0">
        <Node pos="l" depth="1" NCoef="0" IVar="0" Cut="1.0168014764785767e+00" cType="0" res="2.8974303975701332e-02" rms="4.1478332877159119e-01" purity="7.0812141895294189e-01" nType="0">
          <Node pos="l" depth="2" NCoef="0" IVar="-1" Cut="0.0000000000000000e+00" cType="1" res="6.8210680037736893e-03" rms="3.3794721961021423e-01" purity="7.9223716259002686e-01" nType="-99"/>
          <Node pos="r" depth="2" NCoef="0" IVar="-1" Cut="0.0000000000000000e+00" cType="1" res="-7.9216359881684184e-04" rms="4.4596803188323975e-01" purity="6.5380936861038208e-01" nType="-99"/>
        </Node>
        <Node pos="r" depth="1" NCoef="0" IVar="12" Cut="1.4285714924335480e-01" cType="0" res="-4.4179238379001617e-02" rms="4.3384692072868347e-01" purity="3.8399890065193176e-01" nType="0">
          <Node pos="l" depth="2" NCoef="0" IVar="-1" Cut="0.0000000000000000e+00" cType="1" res="-8.2137982826679945e-04" rms="4.3577569723129272e-01" purity="3.9462757110595703e-01" nType="-99"/>
          <Node pos="r" depth="2" NCoef="0" IVar="-1" Cut="0.0000000000000000e+00" cType="1" res="-8.2530109211802483e-03" rms="4.0228754281997681e-01" purity="3.1745854020118713e-01" nType="-99"/>
        </Node>
      </Node>
    </BinaryTree>
    <BinaryTree type="DecisionTree" boostWeight="1.0000000000000000e+00" itree="110">
      <Node pos="s" depth="0" NCoef="0" IVar="5" Cut="2.6387989521026611e+00" cType="1" res="-1.0794747620820999e-02" rms="4.3172657489776611e-01" purity="5.0557494163513184e-01" nType="0">
        <Node pos="l" depth="1" NCoef="0" IVar="9" Cut="-7.1428570747375488e+00" cType="1" res="3.0704080127179623e-03" rms="4.4204258918762207e-01" purity="5.6245511770248413e-01" nType="0">
          <Node pos="l" depth="2" NCoef="0" IVar="-1" Cut="0.0000000000000000e+00" cType="1" res="-4.7945491969585419e-03" rms="4.7108298540115356e-01" purity="5.6922793388366699e-01" nType="-99"/>
          <Node pos="r" depth="2" NCoef="0" IVar="-1" Cut="0.0000000000000000e+00" cType="1" res="1.8765905406326056e-04" rms="4.3803352117538452e-01" purity="5.6192141771316528e-01" nType="-99"/>
        </Node>
        <Node pos="r" depth="1" NCoef="0" IVar="21" Cut="4.0476188659667969e+00" cType="0" res="-9.4643503427505493e-02" rms="3.5168749094009399e-01" purity="1.6159547865390778e-01" nType="0">
          <Node pos="l" depth="2" NCoef="0" IVar="-1" Cut="0.0000000000000000e+00" cType="1" res="-3.4196397755295038e-03" rms="3.6617958545684814e-01" purity="1.8403081595897675e-01" nType="-99"/>
          <Node pos="r" depth="2" NCoef="0" IVar="-1" Cut="0.0000000000000000e+00" cType="1" res="-6.6482806578278542e-03" rms="3.2139518857002258e-01" purity="1.2725582718849182e-01" nType="-99"/>
        </Node>
      </Node>
    </BinaryTree>
    <BinaryTree type="DecisionTree" boostWeight="1.0000000000000000e+00" itree="111">
      <Node pos="s" depth="0" NCoef="0" IVar="15" Cut="1.9000000000000000e+01" cType="1" res="-7.1666492149233818e-03" rms="4.2564931511878967e-01" purity="4.9972492456436157e-01" nType="0">
        <Node pos="l" depth="1" NCoef="0" IVar="12" Cut="1.4285714924335480e-01" cType="1" res="9.4403009861707687e-03" rms="4.4732761383056641e-01" purity="5.7141184806823730e-01" nType="0">
          <Node pos="l" depth="2" NCoef="0" IVar="-1" Cut="0.0000000000000000e+00" cType="1" res="-3.6265579983592033e-03" rms="4.1329762339591980e-01" purity="5.7644605636596680e-01" nType="-99"/>
          <Node pos="r" depth="2" NCoef="0" IVar="-1" Cut="0.0000000000000000e+00" cType="1" res="9.1371207963675261e-04" rms="4.5504406094551086e-01" purity="5.6997138261795044e-01" nType="-99"/>
        </Node>
        <Node pos="r" depth="1" NCoef="0" IVar="13" Cut="7.5334586203098297e-02" cType="0" res="-1.0934667289257050e-01" rms="2.2934480011463165e-01" purity="5.8646190911531448e-02" nType="0">
          <Node pos="l" depth="2" NCoef="0" IVar="-1" Cut="0.0000000000000000e+00" cType="1" res="-4.2373123578727245e-03" rms="2.8660205006599426e-01" purity="9.5781408250331879e-02" nType="-99"/>
          <Node pos="r" depth="2" NCoef="0" IVar="-1" Cut="0.0000000000000000e+00" cType="1" res="-8.0929230898618698e-03" rms="1.7411679029464722e-01" purity="3.1692832708358765e-02" nType="-99"/>
        </Node>
      </Node>
    </BinaryTree>
    <BinaryTree type="DecisionTree" boostWeight="1.0000000000000000e+00" itree="112">
      <Node pos="s" depth="0" NCoef="0" IVar="4" Cut="1.7968528270721436e+00" cType="1" res="-1.3651475310325623e-02" rms="4.2432487010955811e-01" purity="4.9554258584976196e-01" nType="0">
        <Node pos="l" depth="1" NCoef="0" IVar="15" Cut="9.8571424484252930e+00" cType="1" res="4.1387338191270828e-02" rms="4.0157529711723328e-01" purity="7.2580724954605103e-01" nType="0">
          <Node pos="l" depth="2" NCoef="0" IVar="-1" Cut="0.0000000000000000e+00" cType="1" res="8.4725003689527512e-03" rms="3.4164023399353027e-01" purity="8.4919869899749756e-01" nType="-99"/>
          <Node pos="r" depth="2" NCoef="0" IVar="-1" Cut="0.0000000000000000e+00" cType="1" res="-1.9611567258834839e-03" rms="4.6202570199966431e-01" purity="5.5942434072494507e-01" nType="-99"/>
        </Node>
        <Node pos="r" depth="1" NCoef="0" IVar="4" Cut="1.9316431283950806e+00" cType="1" res="-5.1769986748695374e-02" rms="4.3533122539520264e-01" purity="3.3606705069541931e-01" nType="0">
          <Node pos="l" depth="2" NCoef="0" IVar="-1" Cut="0.0000000000000000e+00" cType="1" res="-3.5068120341747999e-03" rms="4.6923580765724182e-01" purity="3.7226739525794983e-01" nType="-99"/>
          <Node pos="r" depth="2" NCoef="0" IVar="-1" Cut="0.0000000000000000e+00" cType="1" res="-1.9102095393463969e-03" rms="4.2367768287658691e-01" purity="3.2764241099357605e-01" nType="-99"/>
        </Node>
      </Node>
    </BinaryTree>
    <BinaryTree type="DecisionTree" boostWeight="1.0000000000000000e+00" itree="113">
      <Node pos="s" depth="0" NCoef="0" IVar="5" Cut="2.6175327301025391e+00" cType="1" res="-1.3064261525869370e-02" rms="4.2583113908767700e-01" purity="4.9641555547714233e-01" nType="0">
        <Node pos="l" depth="1" NCoef="0" IVar="0" Cut="4.8572179675102234e-01" cType="0" res="7.8526902943849564e-03" rms="4.3796846270561218e-01" purity="5.6855654716491699e-01" nType="0">
          <Node pos="l" depth="2" NCoef="0" IVar="-1" Cut="0.0000000000000000e+00" cType="1" res="4.6659214422106743e-04" rms="4.3069174885749817e-01" purity="5.7182949781417847e-01" nType="-99"/>
          <Node pos="r" depth="2" NCoef="0" IVar="-1" Cut="0.0000000000000000e+00" cType="1" res="-6.4400462433695793e-03" rms="4.8267993330955505e-01" purity="5.3528660535812378e-01" nType="-99"/>
        </Node>
        <Node pos="r" depth="1" NCoef="0" IVar="4" Cut="2.8082194328308105e+00" cType="1" res="-1.1386576294898987e-01" rms="3.4429335594177246e-01" purity="1.4875862002372742e-01" nType="0">
          <Node pos="l" depth="2" NCoef="0" IVar="-1" Cut="0.0000000000000000e+00" cType="1" res="-5.6503619998693466e-03" rms="3.4996297955513000e-01" purity="1.4958293735980988e-01" nType="-99"/>
          <Node pos="r" depth="2" NCoef="0" IVar="-1" Cut="0.0000000000000000e+00" cType="1" res="-4.1756308637559414e-03" rms="3.3748930692672729e-01" purity="1.4845314621925354e-01" nType="-99"/>
        </Node>
      </Node>
    </BinaryTree>
    <BinaryTree type="DecisionTree" boostWeight="1.0000000000000000e+00" itree="114">
      <Node pos="s" depth="0" NCoef="0" IVar="4" Cut="9.5195221900939941e-01" cType="1" res="-1.4950642362236977e-02" rms="4.3205645680427551e-01" purity="4.9733957648277283e-01" nType="0">
        <Node pos="l" depth="1" NCoef="0" IVar="4" Cut="8.2853651046752930e-01" cType="0" res="1.8669258058071136e-01" rms="1.6170871257781982e-01" purity="9.7594696283340454e-01" nType="0">
          <Node pos="l" depth="2" NCoef="0" IVar="-1" Cut="0.0000000000000000e+00" cType="1" res="1.4402941800653934e-02" rms="6.8085812032222748e-02" purity="1.0000000000000000e+00" nType="-99"/>
          <Node pos="r" depth="2" NCoef="0" IVar="-1" Cut="0.0000000000000000e+00" cType="1" res="1.1426524259150028e-02" rms="2.2645102441310883e-01" purity="9.4388031959533691e-01" nType="-99"/>
        </Node>
        <Node pos="r" depth="1" NCoef="0" IVar="7" Cut="1.8333344161510468e-01" cType="1" res="-2.2460762411355972e-02" rms="4.3712770938873291e-01" purity="4.7951406240463257e-01" nType="0">
          <Node pos="l" depth="2" NCoef="0" IVar="-1" Cut="0.0000000000000000e+00" cType="1" res="-5.9652134950738400e-05" rms="4.3707564473152161e-01" purity="5.2611708641052246e-01" nType="-99"/>
          <Node pos="r" depth="2" NCoef="0" IVar="-1" Cut="0.0000000000000000e+00" cType="1" res="-3.1495122238993645e-03" rms="4.3342319130897522e-01" purity="3.8760602474212646e-01" nType="-99"/>
        </Node>
      </Node>
    </BinaryTree>
    <BinaryTree type="DecisionTree" boostWeight="1.0000000000000000e+00" itree="115">
      <Node pos="s" depth="0" NCoef="0" IVar="18" Cut="5.1428570747375488e+00" cType="1" res="-1.4595931395888329e-02" rms="4.2736545205116272e-01" purity="4.9567902088165283e-01" nType="0">
        <Node pos="l" depth="1" NCoef="0" IVar="12" Cut="1.4285714924335480e-01" cType="0" res="2.3158147931098938e-02" rms="4.2955419421195984e-01" purity="6.6177719831466675e-01" nType="0">
          <Node pos="l" depth="2" NCoef="0" IVar="-1" Cut="0.0000000000000000e+00" cType="1" res="3.6984239704906940e-03" rms="4.2689412832260132e-01" purity="7.1514517068862915e-01" nType="-99"/>
          <Node pos="r" depth="2" NCoef="0" IVar="-1" Cut="0.0000000000000000e+00" cType="1" res="-2.7404436841607094e-03" rms="4.1885933279991150e-01" purity="5.7250893115997314e-01" nType="-99"/>
        </Node>
        <Node pos="r" depth="1" NCoef="0" IVar="12" Cut="2.1428570747375488e+00" cType="1" res="-5.3825266659259796e-02" rms="4.2151197791099548e-01" purity="3.2309043407440186e-01" nType="0">
          <Node pos="l" depth="2" NCoef="0" IVar="-1" Cut="0.0000000000000000e+00" cType="1" res="-1.5763894189149141e-03" rms="4.2309978604316711e-01" purity="3.4486827254295349e-01" nType="-99"/>
          <Node pos="r" depth="2" NCoef="0" IVar="-1" Cut="0.0000000000000000e+00" cType="1" res="-1.0306680575013161e-02" rms="3.5478013753890991e-01" purity="1.3581033051013947e-01" nType="-99"/>
        </Node>
      </Node>
    </BinaryTree>
    <BinaryTree type="DecisionTree" boostWeight="1.0000000000000000e+00" itree="116">
      <Node pos="s" depth="0" NCoef="0" IVar="8" Cut="2.4261906147003174e+00" cType="1" res="-1.9993370398879051e-02" rms="4.3617865443229675e-01" purity="5.0151246786117554e-01" nType="0">
        <Node pos="l" depth="1" NCoef="0" IVar="18" Cut="6.4285712242126465e+00" cType="1" res="-1.0554452426731586e-02" rms="4.3081212043762207e-01" purity="5.0809144973754883e-01" nType="0">
          <Node pos="l" depth="2" NCoef="0" IVar="-1" Cut="0.0000000000000000e+00" cType="1" res="1.1957890819758177e-03" rms="4.5479536056518555e-01" purity="5.9683471918106079e-01" nType="-99"/>
          <Node pos="r" depth="2" NCoef="0" IVar="-1" Cut="0.0000000000000000e+00" cType="1" res="-5.8051692321896553e-03" rms="2.7751067280769348e-01" purity="8.7245844304561615e-02" nType="-99"/>
        </Node>
        <Node pos="r" depth="1" NCoef="0" IVar="20" Cut="1.4400523185729980e+01" cType="1" res="-1.1618717759847641e-01" rms="4.7697725892066956e-01" purity="4.3446487188339233e-01" nType="0">
          <Node pos="l" depth="2" NCoef="0" IVar="-1" Cut="0.0000000000000000e+00" cType="1" res="-4.6340981498360634e-03" rms="4.7906923294067383e-01" purity="6.1764794588088989e-01" nType="-99"/>
          <Node pos="r" depth="2" NCoef="0" IVar="-1" Cut="0.0000000000000000e+00" cType="1" res="-6.4604370854794979e-03" rms="4.6254429221153259e-01" purity="3.6471521854400635e-01" nType="-99"/>
        </Node>
      </Node>
    </BinaryTree>
    <BinaryTree type="DecisionTree" boostWeight="1.0000000000000000e+00" itree="117">
      <Node pos="s" depth="0" NCoef="0" IVar="15" Cut="9.8571424484252930e+00" cType="1" res="-8.6788116022944450e-03" rms="4.2800739407539368e-01" purity="5.0264585018157959e-01" nType="0">
        <Node pos="l" depth="1" NCoef="0" IVar="8" Cut="2.3880953788757324e+00" cType="1" res="3.9588987827301025e-02" rms="3.8386219739913940e-01" purity="6.9418108463287354e-01" nType="0">
          <Node pos="l" depth="2" NCoef="0" IVar="-1" Cut="0.0000000000000000e+00" cType="1" res="2.5518843904137611e-03" rms="3.6234655976295471e-01" purity="7.3094105720520020e-01" nType="-99"/>
          <Node pos="r" depth="2" NCoef="0" IVar="-1" Cut="0.0000000000000000e+00" cType="1" res="-5.0875861197710037e-03" rms="4.5493125915527344e-01" purity="4.6097660064697266e-01" nType="-99"/>
        </Node>
        <Node pos="r" depth="1" NCoef="0" IVar="18" Cut="4.2380952835083008e+00" cType="1" res="-3.4588351845741272e-02" rms="4.4778001308441162e-01" purity="3.9983212947845459e-01" nType="0">
          <Node pos="l" depth="2" NCoef="0" IVar="-1" Cut="0.0000000000000000e+00" cType="1" res="-5.3878086619079113e-03" rms="4.7954848408699036e-01" purity="4.3187755346298218e-01" nType="-99"/>
          <Node pos="r" depth="2" NCoef="0" IVar="-1" Cut="0.0000000000000000e+00" cType="1" res="-1.2820796109735966e-03" rms="4.4197267293930054e-01" purity="3.9601919054985046e-01" nType="-99"/>
        </Node>
      </Node>
    </BinaryTree>
    <BinaryTree type="DecisionTree" boostWeight="1.0000000000000000e+00" itree="118">
      <Node pos="s" depth="0" NCoef="0" IVar="18" Cut="5.2380952835083008e+00" cType="1" res="-2.0672935061156750e-03" rms="4.2543739080429077e-01" purity="5.1106292009353638e-01" nType="0">
        <Node pos="l" depth="1" NCoef="0" IVar="5" Cut="2.3395543098449707e+00" cType="1" res="3.9749167859554291e-02" rms="4.1745889186859131e-01" purity="6.8240994215011597e-01" nType="0">
          <Node pos="l" depth="2" NCoef="0" IVar="-1" Cut="0.0000000000000000e+00" cType="1" res="2.7224782388657331e-03" rms="4.1493290662765503e-01" purity="7.3739010095596313e-01" nType="-99"/>
          <Node pos="r" depth="2" NCoef="0" IVar="-1" Cut="0.0000000000000000e+00" cType="1" res="-3.9232340641319752e-03" rms="4.1535645723342896e-01" purity="2.5323072075843811e-01" nType="-99"/>
        </Node>
        <Node pos="r" depth="1" NCoef="0" IVar="15" Cut="1.6380952835083008e+01" cType="0" res="-4.6146996319293976e-02" rms="4.2930141091346741e-01" purity="3.3044198155403137e-01" nType="0">
          <Node pos="l" depth="2" NCoef="0" IVar="-1" Cut="0.0000000000000000e+00" cType="1" res="-1.0541733354330063e-03" rms="4.1809463500976562e-01" purity="3.4927672147750854e-01" nType="-99"/>
          <Node pos="r" depth="2" NCoef="0" IVar="-1" Cut="0.0000000000000000e+00" cType="1" res="-5.5052014067769051e-03" rms="4.4314756989479065e-01" purity="2.8698536753654480e-01" nType="-99"/>
        </Node>
      </Node>
    </BinaryTree>
    <BinaryTree type="DecisionTree" boostWeight="1.0000000000000000e+00" itree="119">
      <Node pos="s" depth="0" NCoef="0" IVar="15" Cut="1.8428571701049805e+01" cType="1" res="-7.8972112387418747e-03" rms="4.2978197336196899e-01" purity="5.0550323724746704e-01" nType="0">
        <Node pos="l" depth="1" NCoef="0" IVar="0" Cut="1.1192837953567505e+00" cType="1" res="5.4745604284107685e-03" rms="4.5002490282058716e-01" purity="5.7361340522766113e-01" nType="0">
          <Node pos="l" depth="2" NCoef="0" IVar="-1" Cut="0.0000000000000000e+00" cType="1" res="-1.8859986448660493e-03" rms="4.5076090097427368e-01" purity="5.9461611509323120e-01" nType="-99"/>
          <Node pos="r" depth="2" NCoef="0" IVar="-1" Cut="0.0000000000000000e+00" cType="1" res="1.0162842227146029e-03" rms="4.4650644063949585e-01" purity="5.6106376647949219e-01" nType="-99"/>
        </Node>
        <Node pos="r" depth="1" NCoef="0" IVar="13" Cut="6.9012828171253204e-02" cType="0" res="-9.3315526843070984e-02" rms="2.5001060962677002e-01" purity="7.0418231189250946e-02" nType="0">
          <Node pos="l" depth="2" NCoef="0" IVar="-1" Cut="0.0000000000000000e+00" cType="1" res="-4.2968397028744221e-03" rms="3.0073818564414978e-01" purity="1.0616821795701981e-01" nType="-99"/>
          <Node pos="r" depth="2" NCoef="0" IVar="-1" Cut="0.0000000000000000e+00" cType="1" res="-8.1773800775408745e-03" rms="1.8407484889030457e-01" purity="3.5440076142549515e-02" nType="-99"/>
        </Node>
      </Node>
    </BinaryTree>
    <BinaryTree type="DecisionTree" boostWeight="1.0000000000000000e+00" itree="120">
      <Node pos="s" depth="0" NCoef="0" IVar="4" Cut="3.3239476680755615e+00" cType="1" res="-1.2318111024796963e-02" rms="4.2535099387168884e-01" purity="4.9325695633888245e-01" nType="0">
        <Node pos="l" depth="1" NCoef="0" IVar="5" Cut="7.9085671901702881e-01" cType="1" res="-9.9576229695230722e-04" rms="4.3590864539146423e-01" purity="5.3059190511703491e-01" nType="0">
          <Node pos="l" depth="2" NCoef="0" IVar="-1" Cut="0.0000000000000000e+00" cType="1" res="8.6469538509845734e-03" rms="3.0119240283966064e-01" purity="8.8066995143890381e-01" nType="-99"/>
          <Node pos="r" depth="2" NCoef="0" IVar="-1" Cut="0.0000000000000000e+00" cType="1" res="-7.3543889448046684e-04" rms="4.4230133295059204e-01" purity="5.0431114435195923e-01" nType="-99"/>
        </Node>
        <Node pos="r" depth="1" NCoef="0" IVar="-1" Cut="0.0000000000000000e+00" cType="1" res="-6.4982464537024498e-03" rms="2.4117816984653473e-01" purity="6.4640484750270844e-02" nType="-99"/>
      </Node>
    </BinaryTree>
    <BinaryTree type="DecisionTree" boostWeight="1.0000000000000000e+00" itree="121">
      <Node pos="s" depth="0" NCoef="0" IVar="12" Cut="2.1428570747375488e+00" cType="1" res="-4.4601894915103912e-03" rms="4.2896771430969238e-01" purity="5.1247102022171021e-01" nType="0">
        <Node pos="l" depth="1" NCoef="0" IVar="4" Cut="2.5327787399291992e+00" cType="1" res="1.4816172420978546e-02" rms="4.1530591249465942e-01" purity="5.2671366930007935e-01" nType="0">
          <Node pos="l" depth="2" NCoef="0" IVar="-1" Cut="0.0000000000000000e+00" cType="1" res="1.7030132003128529e-03" rms="4.2894530296325684e-01" purity="6.4066034555435181e-01" nType="-99"/>
          <Node pos="r" depth="2" NCoef="0" IVar="-1" Cut="0.0000000000000000e+00" cType="1" res="-3.6836138460785151e-03" rms="3.5611519217491150e-01" purity="1.8388149142265320e-01" nType="-99"/>
        </Node>
        <Node pos="r" depth="1" NCoef="0" IVar="14" Cut="3.5418601989746094e+01" cType="1" res="-9.5442935824394226e-02" rms="4.7793570160865784e-01" purity="4.4524729251861572e-01" nType="0">
          <Node pos="l" depth="2" NCoef="0" IVar="-1" Cut="0.0000000000000000e+00" cType="1" res="4.1211236384697258e-04" rms="4.5504537224769592e-01" purity="7.0559579133987427e-01" nType="-99"/>
          <Node pos="r" depth="2" NCoef="0" IVar="-1" Cut="0.0000000000000000e+00" cType="1" res="-5.2639953792095184e-03" rms="4.7204843163490295e-01" purity="3.9879125356674194e-01" nType="-99"/>
        </Node>
      </Node>
    </BinaryTree>
    <BinaryTree type="DecisionTree" boostWeight="1.0000000000000000e+00" itree="122">
      <Node pos="s" depth="0" NCoef="0" IVar="5" Cut="1.3193994760513306e+00" cType="1" res="-1.2418483383953571e-03" rms="4.2856860160827637e-01" purity="5.0816631317138672e-01" nType="0">
        <Node pos="l" depth="1" NCoef="0" IVar="20" Cut="1.4080162048339844e+01" cType="1" res="5.2959900349378586e-02" rms="4.0303200483322144e-01" purity="7.4505954980850220e-01" nType="0">
          <Node pos="l" depth="2" NCoef="0" IVar="-1" Cut="0.0000000000000000e+00" cType="1" res="1.1023364029824734e-02" rms="3.4875190258026123e-01" purity="8.2379263639450073e-01" nType="-99"/>
          <Node pos="r" depth="2" NCoef="0" IVar="-1" Cut="0.0000000000000000e+00" cType="1" res="-2.4006557650864124e-03" rms="4.2836937308311462e-01" purity="6.9215518236160278e-01" nType="-99"/>
        </Node>
        <Node pos="r" depth="1" NCoef="0" IVar="12" Cut="1.4285714924335480e-01" cType="0" res="-2.5105135515332222e-02" rms="4.3721598386764526e-01" purity="4.0386986732482910e-01" nType="0">
          <Node pos="l" depth="2" NCoef="0" IVar="-1" Cut="0.0000000000000000e+00" cType="1" res="-5.5510556558147073e-04" rms="4.3793034553527832e-01" purity="4.2442989349365234e-01" nType="-99"/>
          <Node pos="r" depth="2" NCoef="0" IVar="-1" Cut="0.0000000000000000e+00" cType="1" res="-7.8528570011258125e-03" rms="4.0203407406806946e-01" purity="2.9535633325576782e-01" nType="-99"/>
        </Node>
      </Node>
    </BinaryTree>
    <BinaryTree type="DecisionTree" boostWeight="1.0000000000000000e+00" itree="123">
      <Node pos="s" depth="0" NCoef="0" IVar="7" Cut="1.5238153934478760e-01" cType="1" res="-1.1386241763830185e-02" rms="4.2954945564270020e-01" purity="5.0032097101211548e-01" nType="0">
        <Node pos="l" depth="1" NCoef="0" IVar="18" Cut="6.1904764175415039e+00" cType="1" res="1.8761822953820229e-02" rms="4.2460465431213379e-01" purity="5.5307561159133911e-01" nType="0">
          <Node pos="l" depth="2" NCoef="0" IVar="-1" Cut="0.0000000000000000e+00" cType="1" res="2.0086176227778196e-03" rms="4.4762483239173889e-01" purity="6.5810579061508179e-01" nType="-99"/>
          <Node pos="r" depth="2" NCoef="0" IVar="-1" Cut="0.0000000000000000e+00" cType="1" res="-5.6105027906596661e-03" rms="2.7901205420494080e-01" purity="8.8616408407688141e-02" nType="-99"/>
        </Node>
        <Node pos="r" depth="1" NCoef="0" IVar="20" Cut="3.2140285491943359e+01" cType="0" res="-6.7370302975177765e-02" rms="4.3305179476737976e-01" purity="4.0235704183578491e-01" nType="0">
          <Node pos="l" depth="2" NCoef="0" IVar="-1" Cut="0.0000000000000000e+00" cType="1" res="1.5948055079206824e-03" rms="4.3374162912368774e-01" purity="5.3902405500411987e-01" nType="-99"/>
          <Node pos="r" depth="2" NCoef="0" IVar="-1" Cut="0.0000000000000000e+00" cType="1" res="-3.7173468153923750e-03" rms="4.2837426066398621e-01" purity="3.7051576375961304e-01" nType="-99"/>
        </Node>
      </Node>
    </BinaryTree>
    <BinaryTree type="DecisionTree" boostWeight="1.0000000000000000e+00" itree="124">
      <Node pos="s" depth="0" NCoef="0" IVar="0" Cut="4.4540303945541382e-01" cType="0" res="-7.0511330850422382e-03" rms="4.2389005422592163e-01" purity="4.9977460503578186e-01" nType="0">
        <Node pos="l" depth="1" NCoef="0" IVar="18" Cut="6.4285712242126465e+00" cType="1" res="5.0418623723089695e-03" rms="4.1867524385452271e-01" purity="5.0167572498321533e-01" nType="0">
          <Node pos="l" depth="2" NCoef="0" IVar="-1" Cut="0.0000000000000000e+00" cType="1" res="7.6800677925348282e-04" rms="4.4278541207313538e-01" purity="5.9888148307800293e-01" nType="-99"/>
          <Node pos="r" depth="2" NCoef="0" IVar="-1" Cut="0.0000000000000000e+00" cType="1" res="-5.3760879673063755e-03" rms="2.8124383091926575e-01" purity="9.0886034071445465e-02" nType="-99"/>
        </Node>
        <Node pos="r" depth="1" NCoef="0" IVar="5" Cut="7.9020017385482788e-01" cType="1" res="-1.6267462074756622e-01" rms="4.5839446783065796e-01" purity="4.7530961036682129e-01" nType="0">
          <Node pos="l" depth="2" NCoef="0" IVar="-1" Cut="0.0000000000000000e+00" cType="1" res="8.3316285163164139e-03" rms="3.8191226124763489e-01" purity="7.5709015130996704e-01" nType="-99"/>
          <Node pos="r" depth="2" NCoef="0" IVar="-1" Cut="0.0000000000000000e+00" cType="1" res="-8.5646593943238258e-03" rms="4.6371316909790039e-01" purity="3.8632512092590332e-01" nType="-99"/>
        </Node>
      </Node>
    </BinaryTree>
    <BinaryTree type="DecisionTree" boostWeight="1.0000000000000000e+00" itree="125">
      <Node pos="s" depth="0" NCoef="0" IVar="15" Cut="1.8428571701049805e+01" cType="1" res="-8.9689837768673897e-03" rms="4.2264178395271301e-01" purity="4.9449130892753601e-01" nType="0">
        <Node pos="l" depth="1" NCoef="0" IVar="21" Cut="4.3333334922790527e+00" cType="1" res="6.6297939047217369e-03" rms="4.4499349594116211e-01" purity="5.6735426187515259e-01" nType="0">
          <Node pos="l" depth="2" NCoef="0" IVar="-1" Cut="0.0000000000000000e+00" cType="1" res="-1.6874804859980941e-03" rms="4.2659404873847961e-01" purity="5.6809091567993164e-01" nType="-99"/>
          <Node pos="r" depth="2" NCoef="0" IVar="-1" Cut="0.0000000000000000e+00" cType="1" res="3.4741363488137722e-03" rms="4.7969830036163330e-01" purity="5.6566566228866577e-01" nType="-99"/>
        </Node>
        <Node pos="r" depth="1" NCoef="0" IVar="14" Cut="5.7554096221923828e+01" cType="1" res="-1.0252282023429871e-01" rms="2.2826296091079712e-01" purity="5.7495072484016418e-02" nType="0">
          <Node pos="l" depth="2" NCoef="0" IVar="-1" Cut="0.0000000000000000e+00" cType="1" res="-4.5972904190421104e-03" rms="2.8609466552734375e-01" purity="9.4765663146972656e-02" nType="-99"/>
          <Node pos="r" depth="2" NCoef="0" IVar="-1" Cut="0.0000000000000000e+00" cType="1" res="-7.1795242838561535e-03" rms="1.8221293389797211e-01" purity="3.4730006009340286e-02" nType="-99"/>
        </Node>
      </Node>
    </BinaryTree>
    <BinaryTree type="DecisionTree" boostWeight="1.0000000000000000e+00" itree="126">
      <Node pos="s" depth="0" NCoef="0" IVar="18" Cut="5.1428570747375488e+00" cType="1" res="-5.4677175357937813e-03" rms="4.2607566714286804e-01" purity="5.0797486305236816e-01" nType="0">
        <Node pos="l" depth="1" NCoef="0" IVar="0" Cut="2.3476128578186035e+00" cType="1" res="2.6461862027645111e-02" rms="4.2077142000198364e-01" purity="6.6348206996917725e-01" nType="0">
          <Node pos="l" depth="2" NCoef="0" IVar="-1" Cut="0.0000000000000000e+00" cType="1" res="2.7124725747853518e-03" rms="4.2247346043586731e-01" purity="7.1944493055343628e-01" nType="-99"/>
          <Node pos="r" depth="2" NCoef="0" IVar="-1" Cut="0.0000000000000000e+00" cType="1" res="-5.0591062754392624e-03" rms="3.7418869137763977e-01" purity="2.0022331178188324e-01" nType="-99"/>
        </Node>
        <Node pos="r" depth="1" NCoef="0" IVar="12" Cut="2.1428570747375488e+00" cType="1" res="-4.0157362818717957e-02" rms="4.2908000946044922e-01" purity="3.3902519941329956e-01" nType="0">
          <Node pos="l" depth="2" NCoef="0" IVar="-1" Cut="0.0000000000000000e+00" cType="1" res="-1.3453649589791894e-03" rms="4.3024823069572449e-01" purity="3.5326910018920898e-01" nType="-99"/>
          <Node pos="r" depth="2" NCoef="0" IVar="-1" Cut="0.0000000000000000e+00" cType="1" res="-9.9775465205311775e-03" rms="3.8651347160339355e-01" purity="1.7744749784469604e-01" nType="-99"/>
        </Node>
      </Node>
    </BinaryTree>
    <BinaryTree type="DecisionTree" boostWeight="1.0000000000000000e+00" itree="127">
      <Node pos="s" depth="0" NCoef="0" IVar="4" Cut="2.0140473842620850e+00" cType="1" res="-2.2678643465042114e-02" rms="4.2524507641792297e-01" purity="4.8230832815170288e-01" nType="0">
        <Node pos="l" depth="1" NCoef="0" IVar="18" Cut="4.2857141494750977e+00" cType="1" res="1.0062911547720432e-02" rms="4.3250828981399536e-01" purity="6.5729129314422607e-01" nType="0">
          <Node pos="l" depth="2" NCoef="0" IVar="-1" Cut="0.0000000000000000e+00" cType="1" res="5.1749539561569691e-03" rms="3.8106578588485718e-01" purity="8.0670613050460815e-01" nType="-99"/>
          <Node pos="r" depth="2" NCoef="0" IVar="-1" Cut="0.0000000000000000e+00" cType="1" res="-1.8394377548247576e-03" rms="4.7246116399765015e-01" purity="5.0734347105026245e-01" nType="-99"/>
        </Node>
        <Node pos="r" depth="1" NCoef="0" IVar="0" Cut="1.4805165529251099e+00" cType="0" res="-6.1089888215065002e-02" rms="4.1326919198036194e-01" purity="2.7702438831329346e-01" nType="0">
          <Node pos="l" depth="2" NCoef="0" IVar="-1" Cut="0.0000000000000000e+00" cType="1" res="-1.5293448232114315e-03" rms="4.0446060895919800e-01" purity="2.7738758921623230e-01" nType="-99"/>
          <Node pos="r" depth="2" NCoef="0" IVar="-1" Cut="0.0000000000000000e+00" cType="1" res="-3.4795934334397316e-03" rms="4.3077036738395691e-01" purity="2.7591419219970703e-01" nType="-99"/>
        </Node>
      </Node>
    </BinaryTree>
    <BinaryTree type="DecisionTree" boostWeight="1.0000000000000000e+00" itree="128">
      <Node pos="s" depth="0" NCoef="0" IVar="12" Cut="2.1428570747375488e+00" cType="1" res="-2.0950987935066223e-02" rms="4.3281900882720947e-01" purity="4.9302813410758972e-01" nType="0">
        <Node pos="l" depth="1" NCoef="0" IVar="9" Cut="-1.0000000000000000e+01" cType="1" res="4.6747311716899276e-04" rms="4.2182824015617371e-01" purity="5.1011657714843750e-01" nType="0">
          <Node pos="l" depth="2" NCoef="0" IVar="-1" Cut="0.0000000000000000e+00" cType="1" res="1.4658780768513680e-02" rms="9.3888677656650543e-02" purity="1.0000000000000000e+00" nType="-99"/>
          <Node pos="r" depth="2" NCoef="0" IVar="-1" Cut="0.0000000000000000e+00" cType="1" res="-1.8376902153249830e-04" rms="4.2478087544441223e-01" purity="4.9816927313804626e-01" nType="-99"/>
        </Node>
        <Node pos="r" depth="1" NCoef="0" IVar="21" Cut="4.2380952835083008e+00" cType="0" res="-1.1946795880794525e-01" rms="4.6767732501029968e-01" purity="4.1442778706550598e-01" nType="0">
          <Node pos="l" depth="2" NCoef="0" IVar="-1" Cut="0.0000000000000000e+00" cType="1" res="-9.9696661345660686e-04" rms="4.4987833499908447e-01" purity="4.4456350803375244e-01" nType="-99"/>
          <Node pos="r" depth="2" NCoef="0" IVar="-1" Cut="0.0000000000000000e+00" cType="1" res="-5.4843937978148460e-03" rms="4.6570456027984619e-01" purity="4.0596330165863037e-01" nType="-99"/>
        </Node>
      </Node>
    </BinaryTree>
    <BinaryTree type="DecisionTree" boostWeight="1.0000000000000000e+00" itree="129">
      <Node pos="s" depth="0" NCoef="0" IVar="20" Cut="1.4678148269653320e+01" cType="1" res="-1.9754249602556229e-02" rms="4.2903169989585876e-01" purity="4.8931348323822021e-01" nType="0">
        <Node pos="l" depth="1" NCoef="0" IVar="5" Cut="1.5597033500671387e+00" cType="1" res="2.4915762245655060e-02" rms="4.3204066157341003e-01" purity="5.6212037801742554e-01" nType="0">
          <Node pos="l" depth="2" NCoef="0" IVar="-1" Cut="0.0000000000000000e+00" cType="1" res="7.9207727685570717e-03" rms="3.9627563953399658e-01" purity="7.7526813745498657e-01" nType="-99"/>
          <Node pos="r" depth="2" NCoef="0" IVar="-1" Cut="0.0000000000000000e+00" cType="1" res="-7.6754164183512330e-04" rms="4.5021012425422668e-01" purity="3.9795437455177307e-01" nType="-99"/>
        </Node>
        <Node pos="r" depth="1" NCoef="0" IVar="3" Cut="3.9047617912292480e+00" cType="1" res="-4.7720663249492645e-02" rms="4.2475253343582153e-01" purity="4.4373151659965515e-01" nType="0">
          <Node pos="l" depth="2" NCoef="0" IVar="-1" Cut="0.0000000000000000e+00" cType="1" res="-6.7095918348059058e-04" rms="4.1107553243637085e-01" purity="4.5897114276885986e-01" nType="-99"/>
          <Node pos="r" depth="2" NCoef="0" IVar="-1" Cut="0.0000000000000000e+00" cType="1" res="-6.9903619587421417e-03" rms="4.5029982924461365e-01" purity="3.9855423569679260e-01" nType="-99"/>
        </Node>
      </Node>
    </BinaryTree>
    <BinaryTree type="DecisionTree" boostWeight="1.0000000000000000e+00" itree="130">
      <Node pos="s" depth="0" NCoef="0" IVar="0" Cut="2.2323799133300781e-01" cType="0" res="-4.4248420745134354e-03" rms="4.2814525961875916e-01" purity="5.1359170675277710e-01" nType="0">
        <Node pos="l" depth="1" NCoef="0" IVar="4" Cut="3.3189353942871094e+00" cType="1" res="1.2294939951971173e-03" rms="4.2436331510543823e-01" purity="5.1548320055007935e-01" nType="0">
          <Node pos="l" depth="2" NCoef="0" IVar="-1" Cut="0.0000000000000000e+00" cType="1" res="-1.7277312872465700e-04" rms="4.3401461839675903e-01" purity="5.5226808786392212e-01" nType="-99"/>
          <Node pos="r" depth="2" NCoef="0" IVar="-1" Cut="0.0000000000000000e+00" cType="1" res="-6.4748483709990978e-03" rms="2.4271471798419952e-01" purity="6.3410721719264984e-02" nType="-99"/>
        </Node>
        <Node pos="r" depth="1" NCoef="0" IVar="-1" Cut="0.0000000000000000e+00" cType="1" res="-5.5625205859541893e-03" rms="5.1279556751251221e-01" purity="4.1736045479774475e-01" nType="-99"/>
      </Node>
    </BinaryTree>
    <BinaryTree type="DecisionTree" boostWeight="1.0000000000000000e+00" itree="131">
      <Node pos="s" depth="0" NCoef="0" IVar="18" Cut="6.4285712242126465e+00" cType="1" res="-8.1403953954577446e-03" rms="4.2420548200607300e-01" purity="4.9787351489067078e-01" nType="0">
        <Node pos="l" depth="1" NCoef="0" IVar="12" Cut="1.4285714924335480e-01" cType="0" res="7.9269446432590485e-03" rms="4.4981414079666138e-01" purity="5.9316539764404297e-01" nType="0">
          <Node pos="l" depth="2" NCoef="0" IVar="-1" Cut="0.0000000000000000e+00" cType="1" res="1.3243438443168998e-03" rms="4.5959475636482239e-01" purity="6.0291624069213867e-01" nType="-99"/>
          <Node pos="r" depth="2" NCoef="0" IVar="-1" Cut="0.0000000000000000e+00" cType="1" res="-3.6961568985134363e-03" rms="4.1094040870666504e-01" purity="5.6361883878707886e-01" nType="-99"/>
        </Node>
        <Node pos="r" depth="1" NCoef="0" IVar="3" Cut="2.2380952835083008e+00" cType="0" res="-7.7060274779796600e-02" rms="2.7943640947341919e-01" purity="8.9124977588653564e-02" nType="0">
          <Node pos="l" depth="2" NCoef="0" IVar="-1" Cut="0.0000000000000000e+00" cType="1" res="-2.6762196794152260e-03" rms="3.6355045437812805e-01" purity="1.6077713668346405e-01" nType="-99"/>
          <Node pos="r" depth="2" NCoef="0" IVar="-1" Cut="0.0000000000000000e+00" cType="1" res="-6.5972609445452690e-03" rms="2.2148677706718445e-01" purity="5.3330671042203903e-02" nType="-99"/>
        </Node>
      </Node>
    </BinaryTree>
    <BinaryTree type="DecisionTree" boostWeight="1.0000000000000000e+00" itree="132">
      <Node pos="s" depth="0" NCoef="0" IVar="4" Cut="3.0949342250823975e+00" cType="1" res="-9.2492019757628441e-03" rms="4.2364487051963806e-01" purity="4.9359539151191711e-01" nType="0">
        <Node pos="l" depth="1" NCoef="0" IVar="3" Cut="3.5238094329833984e+00" cType="1" res="3.3559235744178295e-03" rms="4.3707504868507385e-01" purity="5.4490214586257935e-01" nType="0">
          <Node pos="l" depth="2" NCoef="0" IVar="-1" Cut="0.0000000000000000e+00" cType="1" res="1.0997005738317966e-03" rms="4.2401745915412903e-01" purity="5.6019067764282227e-01" nType="-99"/>
          <Node pos="r" depth="2" NCoef="0" IVar="-1" Cut="0.0000000000000000e+00" cType="1" res="-2.8761066496372223e-03" rms="4.6355080604553223e-01" purity="5.0563985109329224e-01" nType="-99"/>
        </Node>
        <Node pos="r" depth="1" NCoef="0" IVar="17" Cut="2.3283367156982422e+01" cType="0" res="-1.0728245973587036e-01" rms="2.8058254718780518e-01" purity="9.4569303095340729e-02" nType="0">
          <Node pos="l" depth="2" NCoef="0" IVar="-1" Cut="0.0000000000000000e+00" cType="1" res="-4.0583945810794830e-03" rms="3.1702920794487000e-01" purity="1.2717263400554657e-01" nType="-99"/>
          <Node pos="r" depth="2" NCoef="0" IVar="-1" Cut="0.0000000000000000e+00" cType="1" res="-6.5668467432260513e-03" rms="2.5215962529182434e-01" purity="7.4090674519538879e-02" nType="-99"/>
        </Node>
      </Node>
    </BinaryTree>
    <BinaryTree type="DecisionTree" boostWeight="1.0000000000000000e+00" itree="133">
      <Node pos="s" depth="0" NCoef="0" IVar="18" Cut="5.1428570747375488e+00" cType="1" res="-4.4278595596551895e-03" rms="4.1966331005096436e-01" purity="5.0043666362762451e-01" nType="0">
        <Node pos="l" depth="1" NCoef="0" IVar="0" Cut="2.2385675907135010e+00" cType="1" res="3.5315219312906265e-02" rms="4.1900816559791565e-01" purity="6.7216789722442627e-01" nType="0">
          <Node pos="l" depth="2" NCoef="0" IVar="-1" Cut="0.0000000000000000e+00" cType="1" res="2.6634195819497108e-03" rms="4.1837057471275330e-01" purity="7.3251849412918091e-01" nType="-99"/>
          <Node pos="r" depth="2" NCoef="0" IVar="-1" Cut="0.0000000000000000e+00" cType="1" res="-4.3464121408760548e-03" rms="4.0053486824035645e-01" purity="2.3721438646316528e-01" nType="-99"/>
        </Node>
        <Node pos="r" depth="1" NCoef="0" IVar="12" Cut="2.1428570747375488e+00" cType="1" res="-4.5598324388265610e-02" rms="4.1635948419570923e-01" purity="3.2253777980804443e-01" nType="0">
          <Node pos="l" depth="2" NCoef="0" IVar="-1" Cut="0.0000000000000000e+00" cType="1" res="-1.2070181546732783e-03" rms="4.2072394490242004e-01" purity="3.4396257996559143e-01" nType="-99"/>
          <Node pos="r" depth="2" NCoef="0" IVar="-1" Cut="0.0000000000000000e+00" cType="1" res="-9.7185606136918068e-03" rms="3.1242933869361877e-01" purity="1.1298075318336487e-01" nType="-99"/>
        </Node>
      </Node>
    </BinaryTree>
    <BinaryTree type="DecisionTree" boostWeight="1.0000000000000000e+00" itree="134">
      <Node pos="s" depth="0" NCoef="0" IVar="0" Cut="2.6542861461639404e+00" cType="1" res="-5.7388376444578171e-03" rms="4.2419019341468811e-01" purity="5.0134748220443726e-01" nType="0">
        <Node pos="l" depth="1" NCoef="0" IVar="20" Cut="7.3729797363281250e+01" cType="1" res="9.4527741894125938e-03" rms="4.3407037854194641e-01" purity="5.5474025011062622e-01" nType="0">
          <Node pos="l" depth="2" NCoef="0" IVar="-1" Cut="0.0000000000000000e+00" cType="1" res="9.4321934739127755e-05" rms="4.3196469545364380e-01" purity="5.6067293882369995e-01" nType="-99"/>
          <Node pos="r" depth="2" NCoef="0" IVar="-1" Cut="0.0000000000000000e+00" cType="1" res="-8.0842571333050728e-03" rms="4.4734534621238708e-01" purity="3.5280606150627136e-01" nType="-99"/>
        </Node>
        <Node pos="r" depth="1" NCoef="0" IVar="9" Cut="-9.2857144773006439e-02" cType="0" res="-1.0815916210412979e-01" rms="3.3274856209754944e-01" purity="1.4137895405292511e-01" nType="0">
          <Node pos="l" depth="2" NCoef="0" IVar="-1" Cut="0.0000000000000000e+00" cType="1" res="-2.9399357736110687e-03" rms="3.5647016763687134e-01" purity="1.7562174797058105e-01" nType="-99"/>
          <Node pos="r" depth="2" NCoef="0" IVar="-1" Cut="0.0000000000000000e+00" cType="1" res="-5.9345844201743603e-03" rms="3.0223864316940308e-01" purity="1.0808950662612915e-01" nType="-99"/>
        </Node>
      </Node>
    </BinaryTree>
    <BinaryTree type="DecisionTree" boostWeight="1.0000000000000000e+00" itree="135">
      <Node pos="s" depth="0" NCoef="0" IVar="9" Cut="-7.1428570747375488e+00" cType="0" res="-1.4697683975100517e-02" rms="4.3824133276939392e-01" purity="5.0478810071945190e-01" nType="0">
        <Node pos="l" depth="1" NCoef="0" IVar="15" Cut="1.8428571701049805e+01" cType="1" res="-2.2468413226306438e-04" rms="4.3134319782257080e-01" purity="5.0540322065353394e-01" nType="0">
          <Node pos="l" depth="2" NCoef="0" IVar="-1" Cut="0.0000000000000000e+00" cType="1" res="4.2892521014437079e-04" rms="4.5134291052818298e-01" purity="5.7347059249877930e-01" nType="-99"/>
          <Node pos="r" depth="2" NCoef="0" IVar="-1" Cut="0.0000000000000000e+00" cType="1" res="-5.9026763774454594e-03" rms="2.6041209697723389e-01" purity="7.5734429061412811e-02" nType="-99"/>
        </Node>
        <Node pos="r" depth="1" NCoef="0" IVar="7" Cut="-9.7142858505249023e+00" cType="1" res="-1.9956517219543457e-01" rms="4.8148173093795776e-01" purity="4.9693056941032410e-01" nType="0">
          <Node pos="l" depth="2" NCoef="0" IVar="-1" Cut="0.0000000000000000e+00" cType="1" res="1.0883459821343422e-02" rms="4.3489712476730347e-01" purity="7.9508638381958008e-01" nType="-99"/>
          <Node pos="r" depth="2" NCoef="0" IVar="-1" Cut="0.0000000000000000e+00" cType="1" res="-9.6286376938223839e-03" rms="4.6391400694847107e-01" purity="3.4157425165176392e-01" nType="-99"/>
        </Node>
      </Node>
    </BinaryTree>
    <BinaryTree type="DecisionTree" boostWeight="1.0000000000000000e+00" itree="136">
      <Node pos="s" depth="0" NCoef="0" IVar="20" Cut="3.5821082592010498e+00" cType="0" res="-3.5624930169433355e-03" rms="4.2799061536788940e-01" purity="5.1504367589950562e-01" nType="0">
        <Node pos="l" depth="1" NCoef="0" IVar="15" Cut="1.8428571701049805e+01" cType="1" res="1.1716878972947598e-02" rms="4.2729774117469788e-01" purity="5.3289961814880371e-01" nType="0">
          <Node pos="l" depth="2" NCoef="0" IVar="-1" Cut="0.0000000000000000e+00" cType="1" res="7.3073705425485969e-04" rms="4.4693890213966370e-01" purity="6.0787647962570190e-01" nType="-99"/>
          <Node pos="r" depth="2" NCoef="0" IVar="-1" Cut="0.0000000000000000e+00" cType="1" res="-5.7857683859765530e-03" rms="2.6757937669754028e-01" purity="8.1463299691677094e-02" nType="-99"/>
        </Node>
        <Node pos="r" depth="1" NCoef="0" IVar="6" Cut="1.5449903011322021e+00" cType="1" res="-1.2016549706459045e-01" rms="4.1511517763137817e-01" purity="3.7877815961837769e-01" nType="0">
          <Node pos="l" depth="2" NCoef="0" IVar="-1" Cut="0.0000000000000000e+00" cType="1" res="6.5331766381859779e-03" rms="3.4767583012580872e-01" purity="7.7971661090850830e-01" nType="-99"/>
          <Node pos="r" depth="2" NCoef="0" IVar="-1" Cut="0.0000000000000000e+00" cType="1" res="-5.9678782708942890e-03" rms="4.0742984414100647e-01" purity="2.3155121505260468e-01" nType="-99"/>
        </Node>
      </Node>
    </BinaryTree>
    <BinaryTree type="DecisionTree" boostWeight="1.0000000000000000e+00" itree="137">
      <Node pos="s" depth="0" NCoef="0" IVar="5" Cut="8.7959969043731689e-01" cType="1" res="-6.0208584181964397e-03" rms="4.2942416667938232e-01" purity="5.0909882783889771e-01" nType="0">
        <Node pos="l" depth="1" NCoef="0" IVar="21" Cut="1.2857142686843872e+00" cType="0" res="1.1468937247991562e-01" rms="3.3901047706604004e-01" purity="8.4798753261566162e-01" nType="0">
          <Node pos="l" depth="2" NCoef="0" IVar="-1" Cut="0.0000000000000000e+00" cType="1" res="1.1305008083581924e-02" rms="2.3759777843952179e-01" purity="9.3247807025909424e-01" nType="-99"/>
          <Node pos="r" depth="2" NCoef="0" IVar="-1" Cut="0.0000000000000000e+00" cType="1" res="4.3212682940065861e-03" rms="3.7660765647888184e-01" purity="7.9229384660720825e-01" nType="-99"/>
        </Node>
        <Node pos="r" depth="1" NCoef="0" IVar="9" Cut="-1.4285714626312256e+00" cType="0" res="-1.8911050632596016e-02" rms="4.3600708246231079e-01" purity="4.7291013598442078e-01" nType="0">
          <Node pos="l" depth="2" NCoef="0" IVar="-1" Cut="0.0000000000000000e+00" cType="1" res="-4.8913777573034167e-04" rms="4.2422953248023987e-01" purity="4.7520703077316284e-01" nType="-99"/>
          <Node pos="r" depth="2" NCoef="0" IVar="-1" Cut="0.0000000000000000e+00" cType="1" res="-4.3504606001079082e-03" rms="4.6767303347587585e-01" purity="4.6347475051879883e-01" nType="-99"/>
        </Node>
      </Node>
    </BinaryTree>
    <BinaryTree type="DecisionTree" boostWeight="1.0000000000000000e+00" itree="138">
      <Node pos="s" depth="0" NCoef="0" IVar="15" Cut="7.0000000000000000e+00" cType="1" res="-1.3195686973631382e-02" rms="4.2784383893013000e-01" purity="5.0048530101776123e-01" nType="0">
        <Node pos="l" depth="1" NCoef="0" IVar="0" Cut="9.0134179592132568e-01" cType="0" res="4.2348243296146393e-02" rms="3.9816689491271973e-01" purity="7.5936567783355713e-01" nType="0">
          <Node pos="l" depth="2" NCoef="0" IVar="-1" Cut="0.0000000000000000e+00" cType="1" res="5.7391999289393425e-03" rms="3.5085409879684448e-01" purity="7.9320734739303589e-01" nType="-99"/>
          <Node pos="r" depth="2" NCoef="0" IVar="-1" Cut="0.0000000000000000e+00" cType="1" res="-2.0301574841141701e-03" rms="4.4013822078704834e-01" purity="7.1575641632080078e-01" nType="-99"/>
        </Node>
        <Node pos="r" depth="1" NCoef="0" IVar="10" Cut="2.3571369647979736e+00" cType="1" res="-2.8759771957993507e-02" rms="4.3452569842338562e-01" purity="4.2794391512870789e-01" nType="0">
          <Node pos="l" depth="2" NCoef="0" IVar="-1" Cut="0.0000000000000000e+00" cType="1" res="6.1798590468242764e-04" rms="4.4563749432563782e-01" purity="5.2849656343460083e-01" nType="-99"/>
          <Node pos="r" depth="2" NCoef="0" IVar="-1" Cut="0.0000000000000000e+00" cType="1" res="-3.2085643615573645e-03" rms="4.1719767451286316e-01" purity="3.0325493216514587e-01" nType="-99"/>
        </Node>
      </Node>
    </BinaryTree>
    <BinaryTree type="DecisionTree" boostWeight="1.0000000000000000e+00" itree="139">
      <Node pos="s" depth="0" NCoef="0" IVar="0" Cut="2.2270151972770691e-01" cType="0" res="-1.5623975545167923e-02" rms="4.2360234260559082e-01" purity="4.8903819918632507e-01" nType="0">
        <Node pos="l" depth="1" NCoef="0" IVar="5" Cut="2.6411006450653076e+00" cType="1" res="-1.0006899945437908e-02" rms="4.2017954587936401e-01" purity="4.9107995629310608e-01" nType="0">
          <Node pos="l" depth="2" NCoef="0" IVar="-1" Cut="0.0000000000000000e+00" cType="1" res="1.1138631816720590e-04" rms="4.3328848481178284e-01" purity="5.5768346786499023e-01" nType="-99"/>
          <Node pos="r" depth="2" NCoef="0" IVar="-1" Cut="0.0000000000000000e+00" cType="1" res="-4.0019913576543331e-03" rms="3.3126676082611084e-01" purity="1.4215432107448578e-01" nType="-99"/>
        </Node>
        <Node pos="r" depth="1" NCoef="0" IVar="-1" Cut="0.0000000000000000e+00" cType="1" res="-5.4497322998940945e-03" rms="4.9405428767204285e-01" purity="3.9730790257453918e-01" nType="-99"/>
      </Node>
    </BinaryTree>
    <BinaryTree type="DecisionTree" boostWeight="1.0000000000000000e+00" itree="140">
      <Node pos="s" depth="0" NCoef="0" IVar="15" Cut="8.0000000000000000e+00" cType="1" res="4.5541361905634403e-03" rms="4.1831976175308228e-01" purity="5.0758415460586548e-01" nType="0">
        <Node pos="l" depth="1" NCoef="0" IVar="15" Cut="7.4761905670166016e+00" cType="1" res="4.6332694590091705e-02" rms="3.8942396640777588e-01" purity="7.3408520221710205e-01" nType="0">
          <Node pos="l" depth="2" NCoef="0" IVar="-1" Cut="0.0000000000000000e+00" cType="1" res="2.7493822854012251e-03" rms="3.6379781365394592e-01" purity="7.9771232604980469e-01" nType="-99"/>
          <Node pos="r" depth="2" NCoef="0" IVar="-1" Cut="0.0000000000000000e+00" cType="1" res="-5.2268845029175282e-03" rms="4.5313811302185059e-01" purity="4.4530126452445984e-01" nType="-99"/>
        </Node>
        <Node pos="r" depth="1" NCoef="0" IVar="12" Cut="2.1428570747375488e+00" cType="1" res="-9.7515759989619255e-03" rms="4.2682695388793945e-01" purity="4.3002626299858093e-01" nType="0">
          <Node pos="l" depth="2" NCoef="0" IVar="-1" Cut="0.0000000000000000e+00" cType="1" res="-2.4657099856995046e-04" rms="4.1774788498878479e-01" purity="4.4252654910087585e-01" nType="-99"/>
          <Node pos="r" depth="2" NCoef="0" IVar="-1" Cut="0.0000000000000000e+00" cType="1" res="-4.4027599506080151e-03" rms="4.5464637875556946e-01" purity="3.7015667557716370e-01" nType="-99"/>
        </Node>
      </Node>
    </BinaryTree>
    <BinaryTree type="DecisionTree" boostWeight="1.0000000000000000e+00" itree="141">
      <Node pos="s" depth="0" NCoef="0" IVar="12" Cut="2.1428570747375488e+00" cType="1" res="-9.6878670156002045e-03" rms="4.3101313710212708e-01" purity="5.0581377744674683e-01" nType="0">
        <Node pos="l" depth="1" NCoef="0" IVar="12" Cut="9.5238097012042999e-02" cType="1" res="8.5030235350131989e-03" rms="4.2002737522125244e-01" purity="5.2163916826248169e-01" nType="0">
          <Node pos="l" depth="2" NCoef="0" IVar="-1" Cut="0.0000000000000000e+00" cType="1" res="-3.6144456826150417e-03" rms="4.1275420784950256e-01" purity="5.5511593818664551e-01" nType="-99"/>
          <Node pos="r" depth="2" NCoef="0" IVar="-1" Cut="0.0000000000000000e+00" cType="1" res="1.0737372795119882e-03" rms="4.1888669133186340e-01" purity="5.1144438982009888e-01" nType="-99"/>
        </Node>
        <Node pos="r" depth="1" NCoef="0" IVar="18" Cut="1.2857142686843872e+00" cType="1" res="-9.3772865831851959e-02" rms="4.6945556998252869e-01" purity="4.3266287446022034e-01" nType="0">
          <Node pos="l" depth="2" NCoef="0" IVar="-1" Cut="0.0000000000000000e+00" cType="1" res="-1.0297813452780247e-02" rms="5.0695788860321045e-01" purity="4.5669537782669067e-01" nType="-99"/>
          <Node pos="r" depth="2" NCoef="0" IVar="-1" Cut="0.0000000000000000e+00" cType="1" res="-3.6083410959690809e-03" rms="4.5942571759223938e-01" purity="4.2950847744941711e-01" nType="-99"/>
        </Node>
      </Node>
    </BinaryTree>
    <BinaryTree type="DecisionTree" boostWeight="1.0000000000000000e+00" itree="142">
      <Node pos="s" depth="0" NCoef="0" IVar="18" Cut="5.1428570747375488e+00" cType="1" res="-6.9934423081576824e-03" rms="4.2180213332176208e-01" purity="4.9774572253227234e-01" nType="0">
        <Node pos="l" depth="1" NCoef="0" IVar="6" Cut="1.3723094463348389e+00" cType="1" res="3.3807594329118729e-02" rms="4.1767698526382446e-01" purity="6.7164331674575806e-01" nType="0">
          <Node pos="l" depth="2" NCoef="0" IVar="-1" Cut="0.0000000000000000e+00" cType="1" res="4.4212047941982746e-03" rms="3.5571831464767456e-01" purity="8.3852756023406982e-01" nType="-99"/>
          <Node pos="r" depth="2" NCoef="0" IVar="-1" Cut="0.0000000000000000e+00" cType="1" res="-1.4404409739654511e-04" rms="4.5251643657684326e-01" purity="5.4897451400756836e-01" nType="-99"/>
        </Node>
        <Node pos="r" depth="1" NCoef="0" IVar="12" Cut="2.1428570747375488e+00" cType="1" res="-4.7845426946878433e-02" rms="4.2195811867713928e-01" purity="3.2363095879554749e-01" nType="0">
          <Node pos="l" depth="2" NCoef="0" IVar="-1" Cut="0.0000000000000000e+00" cType="1" res="-1.0697861434891820e-03" rms="4.2469766736030579e-01" purity="3.4826439619064331e-01" nType="-99"/>
          <Node pos="r" depth="2" NCoef="0" IVar="-1" Cut="0.0000000000000000e+00" cType="1" res="-9.4001227989792824e-03" rms="3.4409388899803162e-01" purity="1.1741253733634949e-01" nType="-99"/>
        </Node>
      </Node>
    </BinaryTree>
    <BinaryTree type="DecisionTree" boostWeight="1.0000000000000000e+00" itree="143">
      <Node pos="s" depth="0" NCoef="0" IVar="20" Cut="5.4407535552978516e+01" cType="1" res="-2.9293543775565922e-04" rms="4.3004539608955383e-01" purity="5.2248668670654297e-01" nType="0">
        <Node pos="l" depth="1" NCoef="0" IVar="20" Cut="4.2131256103515625e+01" cType="0" res="9.3344831839203835e-03" rms="4.2902153730392456e-01" purity="5.3358340263366699e-01" nType="0">
          <Node pos="l" depth="2" NCoef="0" IVar="-1" Cut="0.0000000000000000e+00" cType="1" res="1.1917762458324432e-02" rms="3.9947760105133057e-01" purity="7.9415118694305420e-01" nType="-99"/>
          <Node pos="r" depth="2" NCoef="0" IVar="-1" Cut="0.0000000000000000e+00" cType="1" res="-9.2748069437220693e-04" rms="4.2853456735610962e-01" purity="5.2078592777252197e-01" nType="-99"/>
        </Node>
        <Node pos="r" depth="1" NCoef="0" IVar="14" Cut="2.0410006713867188e+02" cType="0" res="-1.1812753230333328e-01" rms="4.2507061362266541e-01" purity="3.8666900992393494e-01" nType="0">
          <Node pos="l" depth="2" NCoef="0" IVar="-1" Cut="0.0000000000000000e+00" cType="1" res="-2.5718691758811474e-03" rms="4.0241524577140808e-01" purity="4.8598772287368774e-01" nType="-99"/>
          <Node pos="r" depth="2" NCoef="0" IVar="-1" Cut="0.0000000000000000e+00" cType="1" res="-3.6994852125644684e-03" rms="4.2383685708045959e-01" purity="3.0242732167243958e-01" nType="-99"/>
        </Node>
      </Node>
    </BinaryTree>
    <BinaryTree type="DecisionTree" boostWeight="1.0000000000000000e+00" itree="144">
      <Node pos="s" depth="0" NCoef="0" IVar="7" Cut="-7.6285715103149414e+00" cType="1" res="-2.3340858519077301e-02" rms="4.3424597382545471e-01" purity="4.9419316649436951e-01" nType="0">
        <Node pos="l" depth="1" NCoef="0" IVar="7" Cut="-1.0842857360839844e+01" cType="1" res="-2.1595123410224915e-01" rms="4.6887803077697754e-01" purity="4.9722036719322205e-01" nType="0">
          <Node pos="l" depth="2" NCoef="0" IVar="-1" Cut="0.0000000000000000e+00" cType="1" res="1.6996681690216064e-02" rms="4.5280319452285767e-01" purity="7.6469403505325317e-01" nType="-99"/>
          <Node pos="r" depth="2" NCoef="0" IVar="-1" Cut="0.0000000000000000e+00" cType="1" res="-1.2882450595498085e-02" rms="4.2949736118316650e-01" purity="3.2208672165870667e-01" nType="-99"/>
        </Node>
        <Node pos="r" depth="1" NCoef="0" IVar="20" Cut="2.8644519805908203e+01" cType="0" res="-1.4191769994795322e-02" rms="4.3039283156394958e-01" purity="4.9404940009117126e-01" nType="0">
          <Node pos="l" depth="2" NCoef="0" IVar="-1" Cut="0.0000000000000000e+00" cType="1" res="1.3403288321569562e-03" rms="4.2045792937278748e-01" purity="5.5676454305648804e-01" nType="-99"/>
          <Node pos="r" depth="2" NCoef="0" IVar="-1" Cut="0.0000000000000000e+00" cType="1" res="-1.0933019220829010e-03" rms="4.3186032772064209e-01" purity="4.7557979822158813e-01" nType="-99"/>
        </Node>
      </Node>
    </BinaryTree>
    <BinaryTree type="DecisionTree" boostWeight="1.0000000000000000e+00" itree="145">
      <Node pos="s" depth="0" NCoef="0" IVar="3" Cut="3.9047617912292480e+00" cType="1" res="-7.1031739935278893e-03" rms="4.3363732099533081e-01" purity="5.1082068681716919e-01" nType="0">
        <Node pos="l" depth="1" NCoef="0" IVar="18" Cut="6.4285712242126465e+00" cType="1" res="1.9590865820646286e-02" rms="4.1854864358901978e-01" purity="5.2762126922607422e-01" nType="0">
          <Node pos="l" depth="2" NCoef="0" IVar="-1" Cut="0.0000000000000000e+00" cType="1" res="2.0219308789819479e-03" rms="4.4253814220428467e-01" purity="6.3110500574111938e-01" nType="-99"/>
          <Node pos="r" depth="2" NCoef="0" IVar="-1" Cut="0.0000000000000000e+00" cType="1" res="-5.8022816665470600e-03" rms="2.8064310550689697e-01" purity="8.9520528912544250e-02" nType="-99"/>
        </Node>
        <Node pos="r" depth="1" NCoef="0" IVar="15" Cut="4.1428570747375488e+00" cType="0" res="-7.5471371412277222e-02" rms="4.6311402320861816e-01" purity="4.6779143810272217e-01" nType="0">
          <Node pos="l" depth="2" NCoef="0" IVar="-1" Cut="0.0000000000000000e+00" cType="1" res="-1.9026511581614614e-03" rms="4.5297348499298096e-01" purity="4.7265669703483582e-01" nType="-99"/>
          <Node pos="r" depth="2" NCoef="0" IVar="-1" Cut="0.0000000000000000e+00" cType="1" res="-1.2155797332525253e-02" rms="4.7576650977134705e-01" purity="4.3568557500839233e-01" nType="-99"/>
        </Node>
      </Node>
    </BinaryTree>
    <BinaryTree type="DecisionTree" boostWeight="1.0000000000000000e+00" itree="146">
      <Node pos="s" depth="0" NCoef="0" IVar="20" Cut="7.3729797363281250e+01" cType="1" res="2.1257039625197649e-03" rms="4.2161220312118530e-01" purity="5.0584316253662109e-01" nType="0">
        <Node pos="l" depth="1" NCoef="0" IVar="18" Cut="6.1904764175415039e+00" cType="1" res="8.7783774361014366e-03" rms="4.1976976394653320e-01" purity="5.1131474971771240e-01" nType="0">
          <Node pos="l" depth="2" NCoef="0" IVar="-1" Cut="0.0000000000000000e+00" cType="1" res="6.3604029128327966e-04" rms="4.4522783160209656e-01" purity="6.1426651477813721e-01" nType="-99"/>
          <Node pos="r" depth="2" NCoef="0" IVar="-1" Cut="0.0000000000000000e+00" cType="1" res="-4.6837329864501953e-03" rms="2.7516496181488037e-01" purity="8.4761381149291992e-02" nType="-99"/>
        </Node>
        <Node pos="r" depth="1" NCoef="0" IVar="-1" Cut="0.0000000000000000e+00" cType="1" res="-7.8259948641061783e-03" rms="4.2109349370002747e-01" purity="3.1809338927268982e-01" nType="-99"/>
      </Node>
    </BinaryTree>
    <BinaryTree type="DecisionTree" boostWeight="1.0000000000000000e+00" itree="147">
      <Node pos="s" depth="0" NCoef="0" IVar="5" Cut="2.6390352249145508e+00" cType="1" res="-1.0070607066154480e-02" rms="4.2865002155303955e-01" purity="5.0281310081481934e-01" nType="0">
        <Node pos="l" depth="1" NCoef="0" IVar="20" Cut="1.4678148269653320e+01" cType="1" res="4.4859680347144604e-03" rms="4.4216820597648621e-01" purity="5.6985014677047729e-01" nType="0">
          <Node pos="l" depth="2" NCoef="0" IVar="-1" Cut="0.0000000000000000e+00" cType="1" res="3.1471301335841417e-03" rms="4.3149822950363159e-01" purity="6.6119730472564697e-01" nType="-99"/>
          <Node pos="r" depth="2" NCoef="0" IVar="-1" Cut="0.0000000000000000e+00" cType="1" res="-1.7609312199056149e-03" rms="4.4291377067565918e-01" purity="5.1106286048889160e-01" nType="-99"/>
        </Node>
        <Node pos="r" depth="1" NCoef="0" IVar="11" Cut="1.1172441244125366e+00" cType="0" res="-8.7255224585533142e-02" rms="3.3799529075622559e-01" purity="1.4735646545886993e-01" nType="0">
          <Node pos="l" depth="2" NCoef="0" IVar="-1" Cut="0.0000000000000000e+00" cType="1" res="-3.6635517608374357e-03" rms="3.5757771134376526e-01" purity="1.7843922972679138e-01" nType="-99"/>
          <Node pos="r" depth="2" NCoef="0" IVar="-1" Cut="0.0000000000000000e+00" cType="1" res="-4.0211151354014874e-03" rms="3.0293586850166321e-01" purity="1.1014606803655624e-01" nType="-99"/>
        </Node>
      </Node>
    </BinaryTree>
    <BinaryTree type="DecisionTree" boostWeight="1.0000000000000000e+00" itree="148">
      <Node pos="s" depth="0" NCoef="0" IVar="8" Cut="2.4261906147003174e+00" cType="1" res="-1.1110103689134121e-02" rms="4.2641448974609375e-01" purity="4.9718874692916870e-01" nType="0">
        <Node pos="l" depth="1" NCoef="0" IVar="8" Cut="1.6190476715564728e-01" cType="1" res="-1.1576986871659756e-03" rms="4.2352685332298279e-01" purity="5.0704175233840942e-01" nType="0">
          <Node pos="l" depth="2" NCoef="0" IVar="-1" Cut="0.0000000000000000e+00" cType="1" res="1.2162975035607815e-03" rms="4.1492497920989990e-01" purity="5.4134452342987061e-01" nType="-99"/>
          <Node pos="r" depth="2" NCoef="0" IVar="-1" Cut="0.0000000000000000e+00" cType="1" res="-1.5777922235429287e-03" rms="4.3043038249015808e-01" purity="4.6585449576377869e-01" nType="-99"/>
        </Node>
        <Node pos="r" depth="1" NCoef="0" IVar="18" Cut="4.1904764175415039e+00" cType="1" res="-1.0521274805068970e-01" rms="4.4186401367187500e-01" purity="4.0402588248252869e-01" nType="0">
          <Node pos="l" depth="2" NCoef="0" IVar="-1" Cut="0.0000000000000000e+00" cType="1" res="-5.1920306868851185e-03" rms="4.3972253799438477e-01" purity="6.3185930252075195e-01" nType="-99"/>
          <Node pos="r" depth="2" NCoef="0" IVar="-1" Cut="0.0000000000000000e+00" cType="1" res="-5.4096761159598827e-03" rms="4.3338701128959656e-01" purity="2.6043382287025452e-01" nType="-99"/>
        </Node>
      </Node>
    </BinaryTree>
    <BinaryTree type="DecisionTree" boostWeight="1.0000000000000000e+00" itree="149">
      <Node pos="s" depth="0" NCoef="0" IVar="6" Cut="1.0860255956649780e+00" cType="1" res="-3.7085539661347866e-03" rms="4.2834872007369995e-01" purity="5.0516384840011597e-01" nType="0">
        <Node pos="l" depth="1" NCoef="0" IVar="14" Cut="1.4577964782714844e+02" cType="1" res="7.4683830142021179e-02" rms="3.6274361610412598e-01" purity="7.5487321615219116e-01" nType="0">
          <Node pos="l" depth="2" NCoef="0" IVar="-1" Cut="0.0000000000000000e+00" cType="1" res="2.2189579613041133e-04" rms="3.4810248017311096e-01" purity="7.8444200754165649e-01" nType="-99"/>
          <Node pos="r" depth="2" NCoef="0" IVar="-1" Cut="0.0000000000000000e+00" cType="1" res="-5.8416747488081455e-03" rms="4.1555622220039368e-01" purity="5.7520514726638794e-01" nType="-99"/>
        </Node>
        <Node pos="r" depth="1" NCoef="0" IVar="12" Cut="1.4285714924335480e-01" cType="0" res="-2.0204037427902222e-02" rms="4.3913352489471436e-01" purity="4.5261949300765991e-01" nType="0">
          <Node pos="l" depth="2" NCoef="0" IVar="-1" Cut="0.0000000000000000e+00" cType="1" res="1.4122576976660639e-04" rms="4.3812060356140137e-01" purity="4.5974236726760864e-01" nType="-99"/>
          <Node pos="r" depth="2" NCoef="0" IVar="-1" Cut="0.0000000000000000e+00" cType="1" res="-4.8392545431852341e-03" rms="4.2698234319686890e-01" purity="4.1783526539802551e-01" nType="-99"/>
        </Node>
      </Node>
    </BinaryTree>
    <BinaryTree type="DecisionTree" boostWeight="1.0000000000000000e+00" itree="150">
      <Node pos="s" depth="0" NCoef="0" IVar="12" Cut="2.1428570747375488e+00" cType="1" res="-1.8227659165859222e-02" rms="4.2484438419342041e-01" purity="4.9020281434059143e-01" nType="0">
        <Node pos="l" depth="1" NCoef="0" IVar="18" Cut="6.4285712242126465e+00" cType="1" res="-3.1452800612896681e-03" rms="4.1435423493385315e-01" purity="5.0223970413208008e-01" nType="0">
          <Node pos="l" depth="2" NCoef="0" IVar="-1" Cut="0.0000000000000000e+00" cType="1" res="1.7292030388489366e-03" rms="4.4192409515380859e-01" purity="6.0713529586791992e-01" nType="-99"/>
          <Node pos="r" depth="2" NCoef="0" IVar="-1" Cut="0.0000000000000000e+00" cType="1" res="-4.8445230349898338e-03" rms="2.6314356923103333e-01" purity="7.8915283083915710e-02" nType="-99"/>
        </Node>
        <Node pos="r" depth="1" NCoef="0" IVar="8" Cut="2.4261906147003174e+00" cType="1" res="-9.3677453696727753e-02" rms="4.6658426523208618e-01" purity="4.2998802661895752e-01" nType="0">
          <Node pos="l" depth="2" NCoef="0" IVar="-1" Cut="0.0000000000000000e+00" cType="1" res="-2.5763115845620632e-03" rms="4.6668988466262817e-01" purity="4.6188521385192871e-01" nType="-99"/>
          <Node pos="r" depth="2" NCoef="0" IVar="-1" Cut="0.0000000000000000e+00" cType="1" res="-9.0054152533411980e-03" rms="4.2617839574813843e-01" purity="2.5534793734550476e-01" nType="-99"/>
        </Node>
      </Node>
    </BinaryTree>
    <BinaryTree type="DecisionTree" boostWeight="1.0000000000000000e+00" itree="151">
      <Node pos="s" depth="0" NCoef="0" IVar="12" Cut="2.1428570747375488e+00" cType="1" res="1.4859001385048032e-03" rms="4.2741107940673828e-01" purity="5.1392614841461182e-01" nType="0">
        <Node pos="l" depth="1" NCoef="0" IVar="4" Cut="3.3093612194061279e+00" cType="1" res="1.8702680245041847e-02" rms="4.1501268744468689e-01" purity="5.2818828821182251e-01" nType="0">
          <Node pos="l" depth="2" NCoef="0" IVar="-1" Cut="0.0000000000000000e+00" cType="1" res="8.6972775170579553e-04" rms="4.2519149184226990e-01" purity="5.7050013542175293e-01" nType="-99"/>
          <Node pos="r" depth="2" NCoef="0" IVar="-1" Cut="0.0000000000000000e+00" cType="1" res="-6.3426475971937180e-03" rms="2.4058093130588531e-01" purity="6.0331173241138458e-02" nType="-99"/>
        </Node>
        <Node pos="r" depth="1" NCoef="0" IVar="4" Cut="1.1592657566070557e+00" cType="0" res="-7.9221650958061218e-02" rms="4.7301039099693298e-01" purity="4.4706895947456360e-01" nType="0">
          <Node pos="l" depth="2" NCoef="0" IVar="-1" Cut="0.0000000000000000e+00" cType="1" res="-2.9132599011063576e-03" rms="4.6379423141479492e-01" purity="4.5618447661399841e-01" nType="-99"/>
          <Node pos="r" depth="2" NCoef="0" IVar="-1" Cut="0.0000000000000000e+00" cType="1" res="-1.1519460938870907e-02" rms="4.7246265411376953e-01" purity="3.9764833450317383e-01" nType="-99"/>
        </Node>
      </Node>
    </BinaryTree>
    <BinaryTree type="DecisionTree" boostWeight="1.0000000000000000e+00" itree="152">
      <Node pos="s" depth="0" NCoef="0" IVar="4" Cut="3.3143734931945801e+00" cType="1" res="-1.2488626874983311e-02" rms="4.2749273777008057e-01" purity="4.9516671895980835e-01" nType="0">
        <Node pos="l" depth="1" NCoef="0" IVar="8" Cut="2.4261906147003174e+00" cType="1" res="-3.4658273216336966e-03" rms="4.3860843777656555e-01" purity="5.3240633010864258e-01" nType="0">
          <Node pos="l" depth="2" NCoef="0" IVar="-1" Cut="0.0000000000000000e+00" cType="1" res="5.8153562713414431e-04" rms="4.3357312679290771e-01" purity="5.4095822572708130e-01" nType="-99"/>
          <Node pos="r" depth="2" NCoef="0" IVar="-1" Cut="0.0000000000000000e+00" cType="1" res="-5.2112480625510216e-03" rms="4.7279843688011169e-01" purity="4.4654494524002075e-01" nType="-99"/>
        </Node>
        <Node pos="r" depth="1" NCoef="0" IVar="-1" Cut="0.0000000000000000e+00" cType="1" res="-5.9804678894579411e-03" rms="2.4553082883358002e-01" purity="6.6758632659912109e-02" nType="-99"/>
      </Node>
    </BinaryTree>
    <BinaryTree type="DecisionTree" boostWeight="1.0000000000000000e+00" itree="153">
      <Node pos="s" depth="0" NCoef="0" IVar="11" Cut="2.2135379314422607e+00" cType="1" res="-7.5759366154670715e-03" rms="4.1975942254066467e-01" purity="4.9657645821571350e-01" nType="0">
        <Node pos="l" depth="1" NCoef="0" IVar="20" Cut="3.7537380218505859e+01" cType="0" res="6.5334397368133068e-03" rms="4.2509755492210388e-01" purity="5.4912430047988892e-01" nType="0">
          <Node pos="l" depth="2" NCoef="0" IVar="-1" Cut="0.0000000000000000e+00" cType="1" res="1.1479264358058572e-03" rms="3.9679792523384094e-01" purity="6.7807805538177490e-01" nType="-99"/>
          <Node pos="r" depth="2" NCoef="0" IVar="-1" Cut="0.0000000000000000e+00" cType="1" res="-5.8397985412739217e-05" rms="4.2735281586647034e-01" purity="5.2963286638259888e-01" nType="-99"/>
        </Node>
        <Node pos="r" depth="1" NCoef="0" IVar="6" Cut="1.3624093532562256e+00" cType="1" res="-7.9019241034984589e-02" rms="3.8373097777366638e-01" purity="2.3049853742122650e-01" nType="0">
          <Node pos="l" depth="2" NCoef="0" IVar="-1" Cut="0.0000000000000000e+00" cType="1" res="-2.0494989585131407e-03" rms="4.3491780757904053e-01" purity="5.4181158542633057e-01" nType="-99"/>
          <Node pos="r" depth="2" NCoef="0" IVar="-1" Cut="0.0000000000000000e+00" cType="1" res="-3.7807791959494352e-03" rms="3.7299713492393494e-01" purity="1.9587002694606781e-01" nType="-99"/>
        </Node>
      </Node>
    </BinaryTree>
    <BinaryTree type="DecisionTree" boostWeight="1.0000000000000000e+00" itree="154">
      <Node pos="s" depth="0" NCoef="0" IVar="12" Cut="2.1428570747375488e+00" cType="1" res="2.0545511506497860e-03" rms="4.2139503359794617e-01" purity="5.1094496250152588e-01" nType="0">
        <Node pos="l" depth="1" NCoef="0" IVar="5" Cut="2.6175327301025391e+00" cType="1" res="1.7412606626749039e-02" rms="4.0690895915031433e-01" purity="5.2218616008758545e-01" nType="0">
          <Node pos="l" depth="2" NCoef="0" IVar="-1" Cut="0.0000000000000000e+00" cType="1" res="1.2812661007046700e-03" rms="4.1639056801795959e-01" purity="5.9465616941452026e-01" nType="-99"/>
          <Node pos="r" depth="2" NCoef="0" IVar="-1" Cut="0.0000000000000000e+00" cType="1" res="-4.0308758616447449e-03" rms="3.3629542589187622e-01" purity="1.4616110920906067e-01" nType="-99"/>
        </Node>
        <Node pos="r" depth="1" NCoef="0" IVar="5" Cut="9.4416147470474243e-01" cType="0" res="-7.5133644044399261e-02" rms="4.8034936189651489e-01" purity="4.5444786548614502e-01" nType="0">
          <Node pos="l" depth="2" NCoef="0" IVar="-1" Cut="0.0000000000000000e+00" cType="1" res="-3.8166018202900887e-03" rms="4.6689203381538391e-01" purity="4.5666965842247009e-01" nType="-99"/>
          <Node pos="r" depth="2" NCoef="0" IVar="-1" Cut="0.0000000000000000e+00" cType="1" res="-1.6353748505935073e-03" rms="5.0343114137649536e-01" purity="4.4617658853530884e-01" nType="-99"/>
        </Node>
      </Node>
    </BinaryTree>
    <BinaryTree type="DecisionTree" boostWeight="1.0000000000000000e+00" itree="155">
      <Node pos="s" depth="0" NCoef="0" IVar="7" Cut="1.5238153934478760e-01" cType="1" res="-4.7629857435822487e-03" rms="4.2146459221839905e-01" purity="5.0107204914093018e-01" nType="0">
        <Node pos="l" depth="1" NCoef="0" IVar="18" Cut="6.4285712242126465e+00" cType="1" res="2.0273881033062935e-02" rms="4.0499022603034973e-01" purity="5.3293865919113159e-01" nType="0">
          <Node pos="l" depth="2" NCoef="0" IVar="-1" Cut="0.0000000000000000e+00" cType="1" res="1.9564800895750523e-03" rms="4.2824953794479370e-01" purity="6.3647592067718506e-01" nType="-99"/>
          <Node pos="r" depth="2" NCoef="0" IVar="-1" Cut="0.0000000000000000e+00" cType="1" res="-4.8829680308699608e-03" rms="2.5563633441925049e-01" purity="7.3677606880664825e-02" nType="-99"/>
        </Node>
        <Node pos="r" depth="1" NCoef="0" IVar="20" Cut="2.8644519805908203e+01" cType="0" res="-5.6368637830018997e-02" rms="4.4915580749511719e-01" purity="4.3538913130760193e-01" nType="0">
          <Node pos="l" depth="2" NCoef="0" IVar="-1" Cut="0.0000000000000000e+00" cType="1" res="2.3901122622191906e-03" rms="4.4069612026214600e-01" purity="5.0069797039031982e-01" nType="-99"/>
          <Node pos="r" depth="2" NCoef="0" IVar="-1" Cut="0.0000000000000000e+00" cType="1" res="-3.6500263959169388e-03" rms="4.4946447014808655e-01" purity="4.1420534253120422e-01" nType="-99"/>
        </Node>
      </Node>
    </BinaryTree>
    <BinaryTree type="DecisionTree" boostWeight="1.0000000000000000e+00" itree="156">
      <Node pos="s" depth="0" NCoef="0" IVar="12" Cut="2.1428570747375488e+00" cType="1" res="-1.3911972753703594e-02" rms="4.3042767047882080e-01" purity="4.9521780014038086e-01" nType="0">
        <Node pos="l" depth="1" NCoef="0" IVar="20" Cut="2.3955270767211914e+01" cType="0" res="5.4637598805129528e-03" rms="4.2131882905960083e-01" purity="5.1352065801620483e-01" nType="0">
          <Node pos="l" depth="2" NCoef="0" IVar="-1" Cut="0.0000000000000000e+00" cType="1" res="1.6839638119563460e-03" rms="4.1105258464813232e-01" purity="6.0041660070419312e-01" nType="-99"/>
          <Node pos="r" depth="2" NCoef="0" IVar="-1" Cut="0.0000000000000000e+00" cType="1" res="-4.9855659017339349e-04" rms="4.2318606376647949e-01" purity="4.8010230064392090e-01" nType="-99"/>
        </Node>
        <Node pos="r" depth="1" NCoef="0" IVar="16" Cut="9.8030492663383484e-02" cType="0" res="-1.0093268752098083e-01" rms="4.5918852090835571e-01" purity="4.1301554441452026e-01" nType="0">
          <Node pos="l" depth="2" NCoef="0" IVar="-1" Cut="0.0000000000000000e+00" cType="1" res="3.1993503216654062e-03" rms="4.7355508804321289e-01" purity="6.2334990501403809e-01" nType="-99"/>
          <Node pos="r" depth="2" NCoef="0" IVar="-1" Cut="0.0000000000000000e+00" cType="1" res="-5.0092982128262520e-03" rms="4.4822618365287781e-01" purity="3.7635615468025208e-01" nType="-99"/>
        </Node>
      </Node>
    </BinaryTree>
    <BinaryTree type="DecisionTree" boostWeight="1.0000000000000000e+00" itree="157">
      <Node pos="s" depth="0" NCoef="0" IVar="8" Cut="2.2619047164916992e+00" cType="1" res="-6.8706753663718700e-03" rms="4.2367094755172729e-01" purity="4.9927213788032532e-01" nType="0">
        <Node pos="l" depth="1" NCoef="0" IVar="18" Cut="6.1904764175415039e+00" cType="1" res="6.2039247713983059e-03" rms="4.1986986994743347e-01" purity="5.1261085271835327e-01" nType="0">
          <Node pos="l" depth="2" NCoef="0" IVar="-1" Cut="0.0000000000000000e+00" cType="1" res="1.2505261693149805e-03" rms="4.4531252980232239e-01" purity="6.1194020509719849e-01" nType="-99"/>
          <Node pos="r" depth="2" NCoef="0" IVar="-1" Cut="0.0000000000000000e+00" cType="1" res="-4.8655648715794086e-03" rms="2.7246555685997009e-01" purity="8.3702042698860168e-02" nType="-99"/>
        </Node>
        <Node pos="r" depth="1" NCoef="0" IVar="0" Cut="6.2682873010635376e-01" cType="1" res="-1.2151744216680527e-01" rms="4.3928322196006775e-01" purity="3.8230940699577332e-01" nType="0">
          <Node pos="l" depth="2" NCoef="0" IVar="-1" Cut="0.0000000000000000e+00" cType="1" res="-3.1161322258412838e-03" rms="4.6144866943359375e-01" purity="6.0571008920669556e-01" nType="-99"/>
          <Node pos="r" depth="2" NCoef="0" IVar="-1" Cut="0.0000000000000000e+00" cType="1" res="-5.4274993017315865e-03" rms="4.2319312691688538e-01" purity="3.0622863769531250e-01" nType="-99"/>
        </Node>
      </Node>
    </BinaryTree>
    <BinaryTree type="DecisionTree" boostWeight="1.0000000000000000e+00" itree="158">
      <Node pos="s" depth="0" NCoef="0" IVar="17" Cut="5.6882534027099609e+01" cType="1" res="-8.7145073339343071e-03" rms="4.2075836658477783e-01" purity="4.9326100945472717e-01" nType="0">
        <Node pos="l" depth="1" NCoef="0" IVar="20" Cut="4.0918395996093750e+01" cType="0" res="2.6735200081020594e-03" rms="4.1950327157974243e-01" purity="5.0589448213577271e-01" nType="0">
          <Node pos="l" depth="2" NCoef="0" IVar="-1" Cut="0.0000000000000000e+00" cType="1" res="1.4270162209868431e-02" rms="4.0192151069641113e-01" purity="7.9101717472076416e-01" nType="-99"/>
          <Node pos="r" depth="2" NCoef="0" IVar="-1" Cut="0.0000000000000000e+00" cType="1" res="-5.8796384837478399e-04" rms="4.1844215989112854e-01" purity="4.8986387252807617e-01" nType="-99"/>
        </Node>
        <Node pos="r" depth="1" NCoef="0" IVar="15" Cut="5.5714287757873535e+00" cType="1" res="-1.0541827231645584e-01" rms="4.1897508502006531e-01" purity="3.8598081469535828e-01" nType="0">
          <Node pos="l" depth="2" NCoef="0" IVar="-1" Cut="0.0000000000000000e+00" cType="1" res="-9.1367689892649651e-03" rms="4.8369520902633667e-01" purity="4.5074656605720520e-01" nType="-99"/>
          <Node pos="r" depth="2" NCoef="0" IVar="-1" Cut="0.0000000000000000e+00" cType="1" res="-5.0401324406266212e-03" rms="3.9549571275711060e-01" purity="3.7385916709899902e-01" nType="-99"/>
        </Node>
      </Node>
    </BinaryTree>
    <BinaryTree type="DecisionTree" boostWeight="1.0000000000000000e+00" itree="159">
      <Node pos="s" depth="0" NCoef="0" IVar="12" Cut="1.4285714924335480e-01" cType="1" res="-2.8640504460781813e-03" rms="4.2550319433212280e-01" purity="5.0823682546615601e-01" nType="0">
        <Node pos="l" depth="1" NCoef="0" IVar="5" Cut="1.3651074171066284e+00" cType="1" res="-8.5614465177059174e-02" rms="4.1411530971527100e-01" purity="5.3844237327575684e-01" nType="0">
          <Node pos="l" depth="2" NCoef="0" IVar="-1" Cut="0.0000000000000000e+00" cType="1" res="6.3717043958604336e-03" rms="4.0179979801177979e-01" purity="7.8557634353637695e-01" nType="-99"/>
          <Node pos="r" depth="2" NCoef="0" IVar="-1" Cut="0.0000000000000000e+00" cType="1" res="-7.3738191276788712e-03" rms="4.0424898266792297e-01" purity="2.7187174558639526e-01" nType="-99"/>
        </Node>
        <Node pos="r" depth="1" NCoef="0" IVar="18" Cut="5.1428570747375488e+00" cType="1" res="1.8854038789868355e-02" rms="4.2578580975532532e-01" purity="5.0030928850173950e-01" nType="0">
          <Node pos="l" depth="2" NCoef="0" IVar="-1" Cut="0.0000000000000000e+00" cType="1" res="3.3806653227657080e-03" rms="4.1956940293312073e-01" purity="7.1599823236465454e-01" nType="-99"/>
          <Node pos="r" depth="2" NCoef="0" IVar="-1" Cut="0.0000000000000000e+00" cType="1" res="-1.6194600611925125e-03" rms="4.2532604932785034e-01" purity="3.4236314892768860e-01" nType="-99"/>
        </Node>
      </Node>
    </BinaryTree>
    <BinaryTree type="DecisionTree" boostWeight="1.0000000000000000e+00" itree="160">
      <Node pos="s" depth="0" NCoef="0" IVar="18" Cut="6.4285712242126465e+00" cType="1" res="-1.4679094776511192e-02" rms="4.2264908552169800e-01" purity="4.8480278253555298e-01" nType="0">
        <Node pos="l" depth="1" NCoef="0" IVar="21" Cut="4.3333334922790527e+00" cType="1" res="-1.0469511471455917e-04" rms="4.5201203227043152e-01" purity="5.8568900823593140e-01" nType="0">
          <Node pos="l" depth="2" NCoef="0" IVar="-1" Cut="0.0000000000000000e+00" cType="1" res="-1.4724052743986249e-03" rms="4.3517830967903137e-01" purity="6.0073333978652954e-01" nType="-99"/>
          <Node pos="r" depth="2" NCoef="0" IVar="-1" Cut="0.0000000000000000e+00" cType="1" res="3.5297463182359934e-03" rms="4.8134368658065796e-01" purity="5.5440413951873779e-01" nType="-99"/>
        </Node>
        <Node pos="r" depth="1" NCoef="0" IVar="17" Cut="2.8699859619140625e+01" cType="0" res="-7.3281273245811462e-02" rms="2.6660212874412537e-01" purity="7.9149499535560608e-02" nType="0">
          <Node pos="l" depth="2" NCoef="0" IVar="-1" Cut="0.0000000000000000e+00" cType="1" res="6.2704930314794183e-05" rms="3.5027346014976501e-01" purity="1.4360658824443817e-01" nType="-99"/>
          <Node pos="r" depth="2" NCoef="0" IVar="-1" Cut="0.0000000000000000e+00" cType="1" res="-5.8269784785807133e-03" rms="2.2911003232002258e-01" purity="5.7747825980186462e-02" nType="-99"/>
        </Node>
      </Node>
    </BinaryTree>
    <BinaryTree type="DecisionTree" boostWeight="1.0000000000000000e+00" itree="161">
      <Node pos="s" depth="0" NCoef="0" IVar="18" Cut="5.1428570747375488e+00" cType="1" res="3.9427787996828556e-03" rms="4.1397973895072937e-01" purity="4.9756067991256714e-01" nType="0">
        <Node pos="l" depth="1" NCoef="0" IVar="0" Cut="2.0317983627319336e+00" cType="1" res="6.2416918575763702e-02" rms="4.0752735733985901e-01" purity="7.0603865385055542e-01" nType="0">
          <Node pos="l" depth="2" NCoef="0" IVar="-1" Cut="0.0000000000000000e+00" cType="1" res="2.6088708546012640e-03" rms="4.0013569593429565e-01" purity="7.6957213878631592e-01" nType="-99"/>
          <Node pos="r" depth="2" NCoef="0" IVar="-1" Cut="0.0000000000000000e+00" cType="1" res="-2.9025312978774309e-03" rms="4.3417522311210632e-01" purity="3.3711135387420654e-01" nType="-99"/>
        </Node>
        <Node pos="r" depth="1" NCoef="0" IVar="12" Cut="2.1428570747375488e+00" cType="1" res="-4.7873020172119141e-02" rms="4.1274881362915039e-01" purity="3.1282171607017517e-01" nType="0">
          <Node pos="l" depth="2" NCoef="0" IVar="-1" Cut="0.0000000000000000e+00" cType="1" res="-9.0772664407268167e-04" rms="4.1532751917839050e-01" purity="3.2904320955276489e-01" nType="-99"/>
          <Node pos="r" depth="2" NCoef="0" IVar="-1" Cut="0.0000000000000000e+00" cType="1" res="-8.9514311403036118e-03" rms="3.6010566353797913e-01" purity="1.6231936216354370e-01" nType="-99"/>
        </Node>
      </Node>
    </BinaryTree>
    <BinaryTree type="DecisionTree" boostWeight="1.0000000000000000e+00" itree="162">
      <Node pos="s" depth="0" NCoef="0" IVar="3" Cut="3.1428570747375488e+00" cType="1" res="-5.7042413391172886e-03" rms="4.2060363292694092e-01" purity="4.9857863783836365e-01" nType="0">
        <Node pos="l" depth="1" NCoef="0" IVar="18" Cut="6.4285712242126465e+00" cType="1" res="1.7326788976788521e-02" rms="4.0414309501647949e-01" purity="5.0703060626983643e-01" nType="0">
          <Node pos="l" depth="2" NCoef="0" IVar="-1" Cut="0.0000000000000000e+00" cType="1" res="1.9555124454200268e-03" rms="4.3595018982887268e-01" purity="6.3381850719451904e-01" nType="-99"/>
          <Node pos="r" depth="2" NCoef="0" IVar="-1" Cut="0.0000000000000000e+00" cType="1" res="-5.4119941778481007e-03" rms="2.4006560444831848e-01" purity="6.4220413565635681e-02" nType="-99"/>
        </Node>
        <Node pos="r" depth="1" NCoef="0" IVar="9" Cut="-2.7142856121063232e+00" cType="0" res="-6.5931513905525208e-02" rms="4.5540565252304077e-01" purity="4.7647637128829956e-01" nType="0">
          <Node pos="l" depth="2" NCoef="0" IVar="-1" Cut="0.0000000000000000e+00" cType="1" res="-1.3354327529668808e-03" rms="4.4780004024505615e-01" purity="4.8414644598960876e-01" nType="-99"/>
          <Node pos="r" depth="2" NCoef="0" IVar="-1" Cut="0.0000000000000000e+00" cType="1" res="-7.2543467395007610e-03" rms="4.5958530902862549e-01" purity="4.5183527469635010e-01" nType="-99"/>
        </Node>
      </Node>
    </BinaryTree>
    <BinaryTree type="DecisionTree" boostWeight="1.0000000000000000e+00" itree="163">
      <Node pos="s" depth="0" NCoef="0" IVar="18" Cut="6.1904764175415039e+00" cType="1" res="-9.9870488047599792e-03" rms="4.2598110437393188e-01" purity="4.9937406182289124e-01" nType="0">
        <Node pos="l" depth="1" NCoef="0" IVar="21" Cut="4.3333334922790527e+00" cType="1" res="2.1458147093653679e-03" rms="4.5160016417503357e-01" purity="5.8890157938003540e-01" nType="0">
          <Node pos="l" depth="2" NCoef="0" IVar="-1" Cut="0.0000000000000000e+00" cType="1" res="-1.4721110928803682e-03" rms="4.3475264310836792e-01" purity="5.9586912393569946e-01" nType="-99"/>
          <Node pos="r" depth="2" NCoef="0" IVar="-1" Cut="0.0000000000000000e+00" cType="1" res="3.4061663318425417e-03" rms="4.8112174868583679e-01" purity="5.7357060909271240e-01" nType="-99"/>
        </Node>
        <Node pos="r" depth="1" NCoef="0" IVar="20" Cut="1.0850731849670410e+01" cType="1" res="-6.6354103386402130e-02" rms="2.7045837044715881e-01" purity="8.3445817232131958e-02" nType="0">
          <Node pos="l" depth="2" NCoef="0" IVar="-1" Cut="0.0000000000000000e+00" cType="1" res="2.6618674746714532e-04" rms="4.0209203958511353e-01" purity="2.0417778193950653e-01" nType="-99"/>
          <Node pos="r" depth="2" NCoef="0" IVar="-1" Cut="0.0000000000000000e+00" cType="1" res="-5.5749495513737202e-03" rms="2.2847217321395874e-01" purity="5.6782539933919907e-02" nType="-99"/>
        </Node>
      </Node>
    </BinaryTree>
    <BinaryTree type="DecisionTree" boostWeight="1.0000000000000000e+00" itree="164">
      <Node pos="s" depth="0" NCoef="0" IVar="15" Cut="4.8571429252624512e+00" cType="1" res="-1.0130180045962334e-02" rms="4.2906051874160767e-01" purity="4.9977573752403259e-01" nType="0">
        <Node pos="l" depth="1" NCoef="0" IVar="20" Cut="9.7830810546875000e+00" cType="0" res="-1.1491364240646362e-01" rms="4.6154063940048218e-01" purity="6.2752330303192139e-01" nType="0">
          <Node pos="l" depth="2" NCoef="0" IVar="-1" Cut="0.0000000000000000e+00" cType="1" res="9.6644455334171653e-04" rms="3.8948541879653931e-01" purity="7.6925152540206909e-01" nType="-99"/>
          <Node pos="r" depth="2" NCoef="0" IVar="-1" Cut="0.0000000000000000e+00" cType="1" res="-1.1866711080074310e-02" rms="4.8571372032165527e-01" purity="4.7179824113845825e-01" nType="-99"/>
        </Node>
        <Node pos="r" depth="1" NCoef="0" IVar="20" Cut="1.3548611640930176e+01" cType="1" res="-5.4694188293069601e-04" rms="4.2467793822288513e-01" purity="4.8809224367141724e-01" nType="0">
          <Node pos="l" depth="2" NCoef="0" IVar="-1" Cut="0.0000000000000000e+00" cType="1" res="3.4537729807198048e-03" rms="4.2782881855964661e-01" purity="5.6692606210708618e-01" nType="-99"/>
          <Node pos="r" depth="2" NCoef="0" IVar="-1" Cut="0.0000000000000000e+00" cType="1" res="-2.0133585203438997e-03" rms="4.2092362046241760e-01" purity="4.4706702232360840e-01" nType="-99"/>
        </Node>
      </Node>
    </BinaryTree>
    <BinaryTree type="DecisionTree" boostWeight="1.0000000000000000e+00" itree="165">
      <Node pos="s" depth="0" NCoef="0" IVar="18" Cut="6.1904764175415039e+00" cType="1" res="-2.1998784504830837e-03" rms="4.1919654607772827e-01" purity="4.9872177839279175e-01" nType="0">
        <Node pos="l" depth="1" NCoef="0" IVar="21" Cut="4.3333334922790527e+00" cType="1" res="1.5825714915990829e-02" rms="4.5004248619079590e-01" purity="6.1026179790496826e-01" nType="0">
          <Node pos="l" depth="2" NCoef="0" IVar="-1" Cut="0.0000000000000000e+00" cType="1" res="-1.4142083236947656e-03" rms="4.3369159102439880e-01" purity="6.1372500658035278e-01" nType="-99"/>
          <Node pos="r" depth="2" NCoef="0" IVar="-1" Cut="0.0000000000000000e+00" cType="1" res="3.3143637701869011e-03" rms="4.7634437680244446e-01" purity="6.0245722532272339e-01" nType="-99"/>
        </Node>
        <Node pos="r" depth="1" NCoef="0" IVar="15" Cut="2.2000000000000000e+01" cType="1" res="-7.0222169160842896e-02" rms="2.6209077239036560e-01" purity="7.7808834612369537e-02" nType="0">
          <Node pos="l" depth="2" NCoef="0" IVar="-1" Cut="0.0000000000000000e+00" cType="1" res="-2.5719453115016222e-03" rms="3.0586266517639160e-01" purity="1.0774702578783035e-01" nType="-99"/>
          <Node pos="r" depth="2" NCoef="0" IVar="-1" Cut="0.0000000000000000e+00" cType="1" res="-7.6687741093337536e-03" rms="1.5043801069259644e-01" purity="2.4233696982264519e-02" nType="-99"/>
        </Node>
      </Node>
    </BinaryTree>
    <BinaryTree type="DecisionTree" boostWeight="1.0000000000000000e+00" itree="166">
      <Node pos="s" depth="0" NCoef="0" IVar="4" Cut="1.8177855014801025e+00" cType="1" res="-2.8420582413673401e-02" rms="4.2396607995033264e-01" purity="4.7575941681861877e-01" nType="0">
        <Node pos="l" depth="1" NCoef="0" IVar="20" Cut="2.3955270767211914e+01" cType="0" res="1.7013400793075562e-02" rms="4.2165189981460571e-01" purity="7.1256113052368164e-01" nType="0">
          <Node pos="l" depth="2" NCoef="0" IVar="-1" Cut="0.0000000000000000e+00" cType="1" res="9.1259200125932693e-03" rms="3.4504699707031250e-01" purity="7.9027968645095825e-01" nType="-99"/>
          <Node pos="r" depth="2" NCoef="0" IVar="-1" Cut="0.0000000000000000e+00" cType="1" res="-1.4609857462346554e-03" rms="4.4509845972061157e-01" purity="6.7951309680938721e-01" nType="-99"/>
        </Node>
        <Node pos="r" depth="1" NCoef="0" IVar="20" Cut="2.8815066814422607e+00" cType="0" res="-6.0912247747182846e-02" rms="4.2262840270996094e-01" purity="3.0641305446624756e-01" nType="0">
          <Node pos="l" depth="2" NCoef="0" IVar="-1" Cut="0.0000000000000000e+00" cType="1" res="-6.8086304236203432e-04" rms="4.2424425482749939e-01" purity="3.1965193152427673e-01" nType="-99"/>
          <Node pos="r" depth="2" NCoef="0" IVar="-1" Cut="0.0000000000000000e+00" cType="1" res="-5.6781978346407413e-03" rms="3.8890820741653442e-01" purity="2.0153611898422241e-01" nType="-99"/>
        </Node>
      </Node>
    </BinaryTree>
    <BinaryTree type="DecisionTree" boostWeight="1.0000000000000000e+00" itree="167">
      <Node pos="s" depth="0" NCoef="0" IVar="8" Cut="2.4261906147003174e+00" cType="1" res="-1.0591640137135983e-02" rms="4.3070366978645325e-01" purity="5.0371754169464111e-01" nType="0">
        <Node pos="l" depth="1" NCoef="0" IVar="15" Cut="4.1428570747375488e+00" cType="1" res="8.5918186232447624e-04" rms="4.2412889003753662e-01" purity="5.1309585571289062e-01" nType="0">
          <Node pos="l" depth="2" NCoef="0" IVar="-1" Cut="0.0000000000000000e+00" cType="1" res="-5.0825676880776882e-03" rms="4.5603913068771362e-01" purity="6.3848239183425903e-01" nType="-99"/>
          <Node pos="r" depth="2" NCoef="0" IVar="-1" Cut="0.0000000000000000e+00" cType="1" res="2.3074806085787714e-04" rms="4.2040383815765381e-01" purity="5.0297605991363525e-01" nType="-99"/>
        </Node>
        <Node pos="r" depth="1" NCoef="0" IVar="1" Cut="4.7142858505249023e+00" cType="0" res="-1.2378525733947754e-01" rms="4.7639760375022888e-01" purity="4.1101115942001343e-01" nType="0">
          <Node pos="l" depth="2" NCoef="0" IVar="-1" Cut="0.0000000000000000e+00" cType="1" res="-5.0712614320218563e-03" rms="4.6542558073997498e-01" purity="4.5929807424545288e-01" nType="-99"/>
          <Node pos="r" depth="2" NCoef="0" IVar="-1" Cut="0.0000000000000000e+00" cType="1" res="-3.8675717078149319e-03" rms="4.6576851606369019e-01" purity="3.4913638234138489e-01" nType="-99"/>
        </Node>
      </Node>
    </BinaryTree>
    <BinaryTree type="DecisionTree" boostWeight="1.0000000000000000e+00" itree="168">
      <Node pos="s" depth="0" NCoef="0" IVar="12" Cut="2.1428570747375488e+00" cType="1" res="-4.6355632366612554e-04" rms="4.2542424798011780e-01" purity="5.0701397657394409e-01" nType="0">
        <Node pos="l" depth="1" NCoef="0" IVar="4" Cut="3.1028206348419189e+00" cType="1" res="2.0027786493301392e-02" rms="4.1123348474502563e-01" purity="5.2296364307403564e-01" nType="0">
          <Node pos="l" depth="2" NCoef="0" IVar="-1" Cut="0.0000000000000000e+00" cType="1" res="9.6566206775605679e-04" rms="4.2354685068130493e-01" purity="5.8263832330703735e-01" nType="-99"/>
          <Node pos="r" depth="2" NCoef="0" IVar="-1" Cut="0.0000000000000000e+00" cType="1" res="-5.1272590644657612e-03" rms="2.8296193480491638e-01" purity="9.7029507160186768e-02" nType="-99"/>
        </Node>
        <Node pos="r" depth="1" NCoef="0" IVar="4" Cut="1.1248768568038940e+00" cType="0" res="-9.6322409808635712e-02" rms="4.7473546862602234e-01" purity="4.3240132927894592e-01" nType="0">
          <Node pos="l" depth="2" NCoef="0" IVar="-1" Cut="0.0000000000000000e+00" cType="1" res="-2.5316141545772552e-03" rms="4.5956417918205261e-01" purity="4.4769820570945740e-01" nType="-99"/>
          <Node pos="r" depth="2" NCoef="0" IVar="-1" Cut="0.0000000000000000e+00" cType="1" res="-1.1975101195275784e-02" rms="4.8139944672584534e-01" purity="3.3780246973037720e-01" nType="-99"/>
        </Node>
      </Node>
    </BinaryTree>
    <BinaryTree type="DecisionTree" boostWeight="1.0000000000000000e+00" itree="169">
      <Node pos="s" depth="0" NCoef="0" IVar="12" Cut="1.4285714924335480e-01" cType="1" res="-7.2862650267779827e-04" rms="4.2675969004631042e-01" purity="5.1230609416961670e-01" nType="0">
        <Node pos="l" depth="1" NCoef="0" IVar="5" Cut="1.3462179899215698e+00" cType="1" res="-8.3903305232524872e-02" rms="4.1298580169677734e-01" purity="5.4006344079971313e-01" nType="0">
          <Node pos="l" depth="2" NCoef="0" IVar="-1" Cut="0.0000000000000000e+00" cType="1" res="5.6513263843953609e-03" rms="4.0114134550094604e-01" purity="7.7721840143203735e-01" nType="-99"/>
          <Node pos="r" depth="2" NCoef="0" IVar="-1" Cut="0.0000000000000000e+00" cType="1" res="-6.8918322212994099e-03" rms="4.0725967288017273e-01" purity="2.8709757328033447e-01" nType="-99"/>
        </Node>
        <Node pos="r" depth="1" NCoef="0" IVar="10" Cut="2.3571369647979736e+00" cType="1" res="2.1406868472695351e-02" rms="4.2763414978981018e-01" purity="5.0491899251937866e-01" nType="0">
          <Node pos="l" depth="2" NCoef="0" IVar="-1" Cut="0.0000000000000000e+00" cType="1" res="1.6439860919490457e-03" rms="4.2531824111938477e-01" purity="6.0261398553848267e-01" nType="-99"/>
          <Node pos="r" depth="2" NCoef="0" IVar="-1" Cut="0.0000000000000000e+00" cType="1" res="-1.7178195994347334e-03" rms="4.2737534642219543e-01" purity="3.5865384340286255e-01" nType="-99"/>
        </Node>
      </Node>
    </BinaryTree>
    <BinaryTree type="DecisionTree" boostWeight="1.0000000000000000e+00" itree="170">
      <Node pos="s" depth="0" NCoef="0" IVar="8" Cut="2.4261906147003174e+00" cType="1" res="-6.7889997735619545e-03" rms="4.2892003059387207e-01" purity="5.0574553012847900e-01" nType="0">
        <Node pos="l" depth="1" NCoef="0" IVar="10" Cut="3.3104176521301270e+00" cType="1" res="1.8486719345673919e-03" rms="4.2557302117347717e-01" purity="5.1361703872680664e-01" nType="0">
          <Node pos="l" depth="2" NCoef="0" IVar="-1" Cut="0.0000000000000000e+00" cType="1" res="8.9194654719904065e-04" rms="4.2776256799697876e-01" purity="5.6210744380950928e-01" nType="-99"/>
          <Node pos="r" depth="2" NCoef="0" IVar="-1" Cut="0.0000000000000000e+00" cType="1" res="-3.5262317396700382e-03" rms="4.0910044312477112e-01" purity="2.8062438964843750e-01" nType="-99"/>
        </Node>
        <Node pos="r" depth="1" NCoef="0" IVar="18" Cut="3.0476191043853760e+00" cType="1" res="-9.3975551426410675e-02" rms="4.5220130681991577e-01" purity="4.2629256844520569e-01" nType="0">
          <Node pos="l" depth="2" NCoef="0" IVar="-1" Cut="0.0000000000000000e+00" cType="1" res="-1.2983089545741677e-03" rms="4.1158083081245422e-01" purity="7.6133978366851807e-01" nType="-99"/>
          <Node pos="r" depth="2" NCoef="0" IVar="-1" Cut="0.0000000000000000e+00" cType="1" res="-5.4430318996310234e-03" rms="4.5032680034637451e-01" purity="2.9866090416908264e-01" nType="-99"/>
        </Node>
      </Node>
    </BinaryTree>
    <BinaryTree type="DecisionTree" boostWeight="1.0000000000000000e+00" itree="171">
      <Node pos="s" depth="0" NCoef="0" IVar="18" Cut="4.2857141494750977e+00" cType="1" res="-2.0012054592370987e-02" rms="4.2409411072731018e-01" purity="4.8499584197998047e-01" nType="0">
        <Node pos="l" depth="1" NCoef="0" IVar="6" Cut="2.1369163990020752e+00" cType="1" res="1.8301093950867653e-02" rms="3.9759448170661926e-01" purity="6.9703888893127441e-01" nType="0">
          <Node pos="l" depth="2" NCoef="0" IVar="-1" Cut="0.0000000000000000e+00" cType="1" res="3.8603481370955706e-03" rms="3.9844074845314026e-01" purity="7.7814930677413940e-01" nType="-99"/>
          <Node pos="r" depth="2" NCoef="0" IVar="-1" Cut="0.0000000000000000e+00" cType="1" res="-6.3622775487601757e-03" rms="3.5168358683586121e-01" purity="1.9785372912883759e-01" nType="-99"/>
        </Node>
        <Node pos="r" depth="1" NCoef="0" IVar="9" Cut="-1.4285714626312256e+00" cType="1" res="-4.0736362338066101e-02" rms="4.3636053800582886e-01" purity="3.7029775977134705e-01" nType="0">
          <Node pos="l" depth="2" NCoef="0" IVar="-1" Cut="0.0000000000000000e+00" cType="1" res="-4.8629590310156345e-03" rms="4.7527348995208740e-01" purity="3.7833142280578613e-01" nType="-99"/>
          <Node pos="r" depth="2" NCoef="0" IVar="-1" Cut="0.0000000000000000e+00" cType="1" res="-8.7482039816677570e-05" rms="4.2444151639938354e-01" purity="3.6847737431526184e-01" nType="-99"/>
        </Node>
      </Node>
    </BinaryTree>
    <BinaryTree type="DecisionTree" boostWeight="1.0000000000000000e+00" itree="172">
      <Node pos="s" depth="0" NCoef="0" IVar="12" Cut="1.4285714924335480e-01" cType="1" res="-1.2909383513033390e-02" rms="4.2643687129020691e-01" purity="4.9591839313507080e-01" nType="0">
        <Node pos="l" depth="1" NCoef="0" IVar="5" Cut="7.8029781579971313e-01" cType="1" res="-7.5191974639892578e-02" rms="4.1928166151046753e-01" purity="5.5281710624694824e-01" nType="0">
          <Node pos="l" depth="2" NCoef="0" IVar="-1" Cut="0.0000000000000000e+00" cType="1" res="2.2480478510260582e-02" rms="2.8741362690925598e-01" purity="9.1616111993789673e-01" nType="-99"/>
          <Node pos="r" depth="2" NCoef="0" IVar="-1" Cut="0.0000000000000000e+00" cType="1" res="-5.0076777115464211e-03" rms="4.3173351883888245e-01" purity="4.8598769307136536e-01" nType="-99"/>
        </Node>
        <Node pos="r" depth="1" NCoef="0" IVar="7" Cut="3.6142857074737549e+00" cType="1" res="2.5788105558604002e-03" rms="4.2678883671760559e-01" purity="4.8176905512809753e-01" nType="0">
          <Node pos="l" depth="2" NCoef="0" IVar="-1" Cut="0.0000000000000000e+00" cType="1" res="1.4028711302671582e-04" rms="4.2485490441322327e-01" purity="4.8881697654724121e-01" nType="-99"/>
          <Node pos="r" depth="2" NCoef="0" IVar="-1" Cut="0.0000000000000000e+00" cType="1" res="-3.1259886454790831e-03" rms="4.3525877594947815e-01" purity="2.7313575148582458e-01" nType="-99"/>
        </Node>
      </Node>
    </BinaryTree>
    <BinaryTree type="DecisionTree" boostWeight="1.0000000000000000e+00" itree="173">
      <Node pos="s" depth="0" NCoef="0" IVar="12" Cut="2.1428570747375488e+00" cType="1" res="-1.6911687329411507e-02" rms="4.2803162336349487e-01" purity="4.9437254667282104e-01" nType="0">
        <Node pos="l" depth="1" NCoef="0" IVar="20" Cut="2.3955270767211914e+01" cType="0" res="1.6814959235489368e-03" rms="4.1709855198860168e-01" purity="5.1272404193878174e-01" nType="0">
          <Node pos="l" depth="2" NCoef="0" IVar="-1" Cut="0.0000000000000000e+00" cType="1" res="1.4456043718382716e-03" rms="4.0174388885498047e-01" purity="5.9710317850112915e-01" nType="-99"/>
          <Node pos="r" depth="2" NCoef="0" IVar="-1" Cut="0.0000000000000000e+00" cType="1" res="-3.6816668580286205e-04" rms="4.2088723182678223e-01" purity="4.7841870784759521e-01" nType="-99"/>
        </Node>
        <Node pos="r" depth="1" NCoef="0" IVar="15" Cut="6.4285712242126465e+00" cType="0" res="-1.0370304435491562e-01" rms="4.6604230999946594e-01" purity="4.0870931744575500e-01" nType="0">
          <Node pos="l" depth="2" NCoef="0" IVar="-1" Cut="0.0000000000000000e+00" cType="1" res="-2.7158739976584911e-03" rms="4.4282263517379761e-01" purity="4.2059126496315002e-01" nType="-99"/>
          <Node pos="r" depth="2" NCoef="0" IVar="-1" Cut="0.0000000000000000e+00" cType="1" res="-7.4682701379060745e-03" rms="4.9489840865135193e-01" purity="3.6168253421783447e-01" nType="-99"/>
        </Node>
      </Node>
    </BinaryTree>
    <BinaryTree type="DecisionTree" boostWeight="1.0000000000000000e+00" itree="174">
      <Node pos="s" depth="0" NCoef="0" IVar="8" Cut="2.4261906147003174e+00" cType="1" res="-1.9542048685252666e-03" rms="4.2113050818443298e-01" purity="5.0189852714538574e-01" nType="0">
        <Node pos="l" depth="1" NCoef="0" IVar="5" Cut="2.6347889900207520e+00" cType="1" res="7.4255703948438168e-03" rms="4.1582322120666504e-01" purity="5.0932884216308594e-01" nType="0">
          <Node pos="l" depth="2" NCoef="0" IVar="-1" Cut="0.0000000000000000e+00" cType="1" res="7.4617698555812240e-04" rms="4.2844042181968689e-01" purity="5.8055931329727173e-01" nType="-99"/>
          <Node pos="r" depth="2" NCoef="0" IVar="-1" Cut="0.0000000000000000e+00" cType="1" res="-3.3312635496258736e-03" rms="3.3406087756156921e-01" purity="1.4731721580028534e-01" nType="-99"/>
        </Node>
        <Node pos="r" depth="1" NCoef="0" IVar="0" Cut="1.0759773254394531e+00" cType="0" res="-9.7282230854034424e-02" rms="4.6099168062210083e-01" purity="4.2638346552848816e-01" nType="0">
          <Node pos="l" depth="2" NCoef="0" IVar="-1" Cut="0.0000000000000000e+00" cType="1" res="5.7564076269045472e-04" rms="4.6340557932853699e-01" purity="4.9105495214462280e-01" nType="-99"/>
          <Node pos="r" depth="2" NCoef="0" IVar="-1" Cut="0.0000000000000000e+00" cType="1" res="-5.8944234624505043e-03" rms="4.4972607493400574e-01" purity="4.0637087821960449e-01" nType="-99"/>
        </Node>
      </Node>
    </BinaryTree>
    <BinaryTree type="DecisionTree" boostWeight="1.0000000000000000e+00" itree="175">
      <Node pos="s" depth="0" NCoef="0" IVar="15" Cut="1.1285714149475098e+01" cType="1" res="-9.4302399083971977e-03" rms="4.2839255928993225e-01" purity="5.0173091888427734e-01" nType="0">
        <Node pos="l" depth="1" NCoef="0" IVar="12" Cut="1.4285714924335480e-01" cType="0" res="2.5538915768265724e-02" rms="4.1401541233062744e-01" purity="6.8444883823394775e-01" nType="0">
          <Node pos="l" depth="2" NCoef="0" IVar="-1" Cut="0.0000000000000000e+00" cType="1" res="3.7823836319148540e-03" rms="4.0544456243515015e-01" purity="7.3046225309371948e-01" nType="-99"/>
          <Node pos="r" depth="2" NCoef="0" IVar="-1" Cut="0.0000000000000000e+00" cType="1" res="-2.8866764623671770e-03" rms="4.1758120059967041e-01" purity="6.1949121952056885e-01" nType="-99"/>
        </Node>
        <Node pos="r" depth="1" NCoef="0" IVar="21" Cut="4.0476188659667969e+00" cType="0" res="-3.3709391951560974e-02" rms="4.3645235896110535e-01" purity="3.7486955523490906e-01" nType="0">
          <Node pos="l" depth="2" NCoef="0" IVar="-1" Cut="0.0000000000000000e+00" cType="1" res="6.6337303724139929e-04" rms="4.2181104421615601e-01" purity="3.8187980651855469e-01" nType="-99"/>
          <Node pos="r" depth="2" NCoef="0" IVar="-1" Cut="0.0000000000000000e+00" cType="1" res="-4.8602214083075523e-03" rms="4.6117463707923889e-01" purity="3.5799303650856018e-01" nType="-99"/>
        </Node>
      </Node>
    </BinaryTree>
    <BinaryTree type="DecisionTree" boostWeight="1.0000000000000000e+00" itree="176">
      <Node pos="s" depth="0" NCoef="0" IVar="6" Cut="1.6894217729568481e+00" cType="1" res="-2.1712437272071838e-02" rms="4.3032836914062500e-01" purity="4.8982673883438110e-01" nType="0">
        <Node pos="l" depth="1" NCoef="0" IVar="18" Cut="3.4285714626312256e+00" cType="1" res="-5.4080080240964890e-02" rms="4.3903586268424988e-01" purity="5.9512108564376831e-01" nType="0">
          <Node pos="l" depth="2" NCoef="0" IVar="-1" Cut="0.0000000000000000e+00" cType="1" res="8.5839852690696716e-03" rms="3.6272397637367249e-01" purity="8.1940817832946777e-01" nType="-99"/>
          <Node pos="r" depth="2" NCoef="0" IVar="-1" Cut="0.0000000000000000e+00" cType="1" res="-3.0505447648465633e-03" rms="4.7062855958938599e-01" purity="4.6042102575302124e-01" nType="-99"/>
        </Node>
        <Node pos="r" depth="1" NCoef="0" IVar="15" Cut="1.8428571701049805e+01" cType="1" res="9.3465084210038185e-03" rms="4.1946235299110413e-01" purity="3.8878968358039856e-01" nType="0">
          <Node pos="l" depth="2" NCoef="0" IVar="-1" Cut="0.0000000000000000e+00" cType="1" res="1.0185909923166037e-03" rms="4.5541054010391235e-01" purity="4.8125097155570984e-01" nType="-99"/>
          <Node pos="r" depth="2" NCoef="0" IVar="-1" Cut="0.0000000000000000e+00" cType="1" res="-5.9036095626652241e-03" rms="2.3664274811744690e-01" purity="6.0456145554780960e-02" nType="-99"/>
        </Node>
      </Node>
    </BinaryTree>
    <BinaryTree type="DecisionTree" boostWeight="1.0000000000000000e+00" itree="177">
      <Node pos="s" depth="0" NCoef="0" IVar="0" Cut="4.4540366530418396e-01" cType="1" res="-1.4492999762296677e-02" rms="4.1984793543815613e-01" purity="4.8377898335456848e-01" nType="0">
        <Node pos="l" depth="1" NCoef="0" IVar="9" Cut="-4.2857141494750977e+00" cType="0" res="-1.3833834230899811e-01" rms="4.9291545152664185e-01" purity="5.1851946115493774e-01" nType="0">
          <Node pos="l" depth="2" NCoef="0" IVar="-1" Cut="0.0000000000000000e+00" cType="1" res="-3.9510605856776237e-03" rms="4.7717666625976562e-01" purity="5.8360904455184937e-01" nType="-99"/>
          <Node pos="r" depth="2" NCoef="0" IVar="-1" Cut="0.0000000000000000e+00" cType="1" res="-9.2425933107733727e-03" rms="4.8262935876846313e-01" purity="4.0159168839454651e-01" nType="-99"/>
        </Node>
        <Node pos="r" depth="1" NCoef="0" IVar="5" Cut="1.9852980375289917e+00" cType="1" res="-6.3413907773792744e-03" rms="4.1328740119934082e-01" purity="4.8149231076240540e-01" nType="0">
          <Node pos="l" depth="2" NCoef="0" IVar="-1" Cut="0.0000000000000000e+00" cType="1" res="7.7133963350206614e-04" rms="4.2980256676673889e-01" purity="6.4497846364974976e-01" nType="-99"/>
          <Node pos="r" depth="2" NCoef="0" IVar="-1" Cut="0.0000000000000000e+00" cType="1" res="-1.4118283288553357e-03" rms="3.8213530182838440e-01" purity="2.3106081783771515e-01" nType="-99"/>
        </Node>
      </Node>
    </BinaryTree>
    <BinaryTree type="DecisionTree" boostWeight="1.0000000000000000e+00" itree="178">
      <Node pos="s" depth="0" NCoef="0" IVar="12" Cut="2.1428570747375488e+00" cType="1" res="-1.6297122463583946e-02" rms="4.3121460080146790e-01" purity="4.9127691984176636e-01" nType="0">
        <Node pos="l" depth="1" NCoef="0" IVar="4" Cut="3.1028206348419189e+00" cType="1" res="-4.2330138385295868e-03" rms="4.2057982087135315e-01" purity="5.0017315149307251e-01" nType="0">
          <Node pos="l" depth="2" NCoef="0" IVar="-1" Cut="0.0000000000000000e+00" cType="1" res="8.9930352987721562e-04" rms="4.3198817968368530e-01" purity="5.4692578315734863e-01" nType="-99"/>
          <Node pos="r" depth="2" NCoef="0" IVar="-1" Cut="0.0000000000000000e+00" cType="1" res="-4.8972624354064465e-03" rms="2.9420146346092224e-01" purity="1.0006966441869736e-01" nType="-99"/>
        </Node>
        <Node pos="r" depth="1" NCoef="0" IVar="20" Cut="4.0535335540771484e+01" cType="0" res="-7.4035800993442535e-02" rms="4.7462648153305054e-01" purity="4.4869944453239441e-01" nType="0">
          <Node pos="l" depth="2" NCoef="0" IVar="-1" Cut="0.0000000000000000e+00" cType="1" res="-3.0746753327548504e-03" rms="4.3166178464889526e-01" purity="5.9247738122940063e-01" nType="-99"/>
          <Node pos="r" depth="2" NCoef="0" IVar="-1" Cut="0.0000000000000000e+00" cType="1" res="-3.1555141322314739e-03" rms="4.7645071148872375e-01" purity="4.2953112721443176e-01" nType="-99"/>
        </Node>
      </Node>
    </BinaryTree>
    <BinaryTree type="DecisionTree" boostWeight="1.0000000000000000e+00" itree="179">
      <Node pos="s" depth="0" NCoef="0" IVar="9" Cut="-1.2857142448425293e+01" cType="1" res="2.4367193691432476e-03" rms="4.2356616258621216e-01" purity="5.1133882999420166e-01" nType="0">
        <Node pos="l" depth="1" NCoef="0" IVar="-1" Cut="0.0000000000000000e+00" cType="1" res="1.1145556345582008e-02" rms="3.3791863918304443e-01" purity="9.1875028610229492e-01" nType="-99"/>
        <Node pos="r" depth="1" NCoef="0" IVar="7" Cut="-7.0261907577514648e+00" cType="1" res="-1.6846507787704468e-03" rms="4.2424750328063965e-01" purity="5.0264936685562134e-01" nType="0">
          <Node pos="l" depth="2" NCoef="0" IVar="-1" Cut="0.0000000000000000e+00" cType="1" res="-1.1036550626158714e-02" rms="4.6302491426467896e-01" purity="5.2717256546020508e-01" nType="-99"/>
          <Node pos="r" depth="2" NCoef="0" IVar="-1" Cut="0.0000000000000000e+00" cType="1" res="-2.8606376145035028e-04" rms="4.2212283611297607e-01" purity="5.0195622444152832e-01" nType="-99"/>
        </Node>
      </Node>
    </BinaryTree>
    <BinaryTree type="DecisionTree" boostWeight="1.0000000000000000e+00" itree="180">
      <Node pos="s" depth="0" NCoef="0" IVar="8" Cut="2.4261906147003174e+00" cType="1" res="-1.5137718990445137e-02" rms="4.2902368307113647e-01" purity="4.9796986579895020e-01" nType="0">
        <Node pos="l" depth="1" NCoef="0" IVar="18" Cut="6.1904764175415039e+00" cType="1" res="-6.3430154696106911e-03" rms="4.2442575097084045e-01" purity="5.0572037696838379e-01" nType="0">
          <Node pos="l" depth="2" NCoef="0" IVar="-1" Cut="0.0000000000000000e+00" cType="1" res="1.0705908061936498e-03" rms="4.5054274797439575e-01" purity="5.9707975387573242e-01" nType="-99"/>
          <Node pos="r" depth="2" NCoef="0" IVar="-1" Cut="0.0000000000000000e+00" cType="1" res="-4.4441758655011654e-03" rms="2.6173448562622070e-01" purity="7.8091390430927277e-02" nType="-99"/>
        </Node>
        <Node pos="r" depth="1" NCoef="0" IVar="20" Cut="1.4497112274169922e+01" cType="1" res="-1.0389371216297150e-01" rms="4.6368625760078430e-01" purity="4.1975194215774536e-01" nType="0">
          <Node pos="l" depth="2" NCoef="0" IVar="-1" Cut="0.0000000000000000e+00" cType="1" res="-3.0164183117449284e-03" rms="4.5386326313018799e-01" purity="5.5008232593536377e-01" nType="-99"/>
          <Node pos="r" depth="2" NCoef="0" IVar="-1" Cut="0.0000000000000000e+00" cType="1" res="-4.8355665057897568e-03" rms="4.5685440301895142e-01" purity="3.6064350605010986e-01" nType="-99"/>
        </Node>
      </Node>
    </BinaryTree>
    <BinaryTree type="DecisionTree" boostWeight="1.0000000000000000e+00" itree="181">
      <Node pos="s" depth="0" NCoef="0" IVar="4" Cut="1.5789875984191895e+00" cType="1" res="-2.4432303383946419e-02" rms="4.2721161246299744e-01" purity="4.8143380880355835e-01" nType="0">
        <Node pos="l" depth="1" NCoef="0" IVar="0" Cut="1.3524293899536133e+00" cType="0" res="1.7312655225396156e-02" rms="4.0174132585525513e-01" purity="7.4118947982788086e-01" nType="0">
          <Node pos="l" depth="2" NCoef="0" IVar="-1" Cut="0.0000000000000000e+00" cType="1" res="1.3339025899767876e-02" rms="2.5398984551429749e-01" purity="9.2698103189468384e-01" nType="-99"/>
          <Node pos="r" depth="2" NCoef="0" IVar="-1" Cut="0.0000000000000000e+00" cType="1" res="-2.2258544340729713e-03" rms="4.1922888159751892e-01" purity="6.9802337884902954e-01" nType="-99"/>
        </Node>
        <Node pos="r" depth="1" NCoef="0" IVar="7" Cut="-4.2666668891906738e+00" cType="0" res="-4.2194113135337830e-02" rms="4.3639013171195984e-01" purity="3.7091195583343506e-01" nType="0">
          <Node pos="l" depth="2" NCoef="0" IVar="-1" Cut="0.0000000000000000e+00" cType="1" res="-5.7021551765501499e-04" rms="4.3444371223449707e-01" purity="3.7279030680656433e-01" nType="-99"/>
          <Node pos="r" depth="2" NCoef="0" IVar="-1" Cut="0.0000000000000000e+00" cType="1" res="-2.6059483643621206e-03" rms="4.2936626076698303e-01" purity="3.3857971429824829e-01" nType="-99"/>
        </Node>
      </Node>
    </BinaryTree>
    <BinaryTree type="DecisionTree" boostWeight="1.0000000000000000e+00" itree="182">
      <Node pos="s" depth="0" NCoef="0" IVar="3" Cut="3.9047617912292480e+00" cType="1" res="-6.6447290591895580e-03" rms="4.2436909675598145e-01" purity="5.0092601776123047e-01" nType="0">
        <Node pos="l" depth="1" NCoef="0" IVar="18" Cut="6.4285712242126465e+00" cType="1" res="1.6224924474954605e-02" rms="4.0973323583602905e-01" purity="5.1145046949386597e-01" nType="0">
          <Node pos="l" depth="2" NCoef="0" IVar="-1" Cut="0.0000000000000000e+00" cType="1" res="1.8733154283836484e-03" rms="4.3699681758880615e-01" purity="6.2508773803710938e-01" nType="-99"/>
          <Node pos="r" depth="2" NCoef="0" IVar="-1" Cut="0.0000000000000000e+00" cType="1" res="-5.0997952930629253e-03" rms="2.6885613799095154e-01" purity="8.0333195626735687e-02" nType="-99"/>
        </Node>
        <Node pos="r" depth="1" NCoef="0" IVar="17" Cut="1.7952383041381836e+01" cType="1" res="-6.5710425376892090e-02" rms="4.5472931861877441e-01" purity="4.7374451160430908e-01" nType="0">
          <Node pos="l" depth="2" NCoef="0" IVar="-1" Cut="0.0000000000000000e+00" cType="1" res="5.2140350453555584e-03" rms="4.4228953123092651e-01" purity="5.5445367097854614e-01" nType="-99"/>
          <Node pos="r" depth="2" NCoef="0" IVar="-1" Cut="0.0000000000000000e+00" cType="1" res="-5.6516272015869617e-03" rms="4.5536661148071289e-01" purity="4.2850714921951294e-01" nType="-99"/>
        </Node>
      </Node>
    </BinaryTree>
    <BinaryTree type="DecisionTree" boostWeight="1.0000000000000000e+00" itree="183">
      <Node pos="s" depth="0" NCoef="0" IVar="10" Cut="2.1584119796752930e+00" cType="1" res="-2.5316420942544937e-02" rms="4.2873680591583252e-01" purity="4.8040646314620972e-01" nType="0">
        <Node pos="l" depth="1" NCoef="0" IVar="18" Cut="3.4285714626312256e+00" cType="1" res="1.2779694981873035e-02" rms="4.2317861318588257e-01" purity="6.0977792739868164e-01" nType="0">
          <Node pos="l" depth="2" NCoef="0" IVar="-1" Cut="0.0000000000000000e+00" cType="1" res="1.1904192157089710e-02" rms="3.3095413446426392e-01" purity="8.5245078802108765e-01" nType="-99"/>
          <Node pos="r" depth="2" NCoef="0" IVar="-1" Cut="0.0000000000000000e+00" cType="1" res="-4.9612333532422781e-04" rms="4.5796439051628113e-01" purity="4.9355244636535645e-01" nType="-99"/>
        </Node>
        <Node pos="r" depth="1" NCoef="0" IVar="12" Cut="1.4285714924335480e-01" cType="0" res="-6.8353213369846344e-02" rms="4.3089762330055237e-01" purity="3.3425691723823547e-01" nType="0">
          <Node pos="l" depth="2" NCoef="0" IVar="-1" Cut="0.0000000000000000e+00" cType="1" res="-9.6396228764206171e-04" rms="4.3536096811294556e-01" purity="3.5490128397941589e-01" nType="-99"/>
          <Node pos="r" depth="2" NCoef="0" IVar="-1" Cut="0.0000000000000000e+00" cType="1" res="-7.6207802630960941e-03" rms="3.8773861527442932e-01" purity="2.4689114093780518e-01" nType="-99"/>
        </Node>
      </Node>
    </BinaryTree>
    <BinaryTree type="DecisionTree" boostWeight="1.0000000000000000e+00" itree="184">
      <Node pos="s" depth="0" NCoef="0" IVar="9" Cut="-5.7142858505249023e+00" cType="1" res="2.2583622485399246e-03" rms="4.2501425743103027e-01" purity="5.2164214849472046e-01" nType="0">
        <Node pos="l" depth="1" NCoef="0" IVar="0" Cut="1.1830163002014160e+00" cType="1" res="-8.4856145083904266e-02" rms="4.3520763516426086e-01" purity="5.6624233722686768e-01" nType="0">
          <Node pos="l" depth="2" NCoef="0" IVar="-1" Cut="0.0000000000000000e+00" cType="1" res="-1.9840914756059647e-03" rms="3.8158106803894043e-01" purity="7.0741474628448486e-01" nType="-99"/>
          <Node pos="r" depth="2" NCoef="0" IVar="-1" Cut="0.0000000000000000e+00" cType="1" res="-8.5311532020568848e-03" rms="4.3762674927711487e-01" purity="3.2026228308677673e-01" nType="-99"/>
        </Node>
        <Node pos="r" depth="1" NCoef="0" IVar="4" Cut="3.1028206348419189e+00" cType="1" res="1.0398708283901215e-02" rms="4.2313393950462341e-01" purity="5.1747453212738037e-01" nType="0">
          <Node pos="l" depth="2" NCoef="0" IVar="-1" Cut="0.0000000000000000e+00" cType="1" res="3.4329289337620139e-04" rms="4.3219339847564697e-01" purity="5.6063073873519897e-01" nType="-99"/>
          <Node pos="r" depth="2" NCoef="0" IVar="-1" Cut="0.0000000000000000e+00" cType="1" res="-4.5273802243173122e-03" rms="3.1430074572563171e-01" purity="1.1691325157880783e-01" nType="-99"/>
        </Node>
      </Node>
    </BinaryTree>
    <BinaryTree type="DecisionTree" boostWeight="1.0000000000000000e+00" itree="185">
      <Node pos="s" depth="0" NCoef="0" IVar="9" Cut="-2.8571429252624512e+00" cType="1" res="-1.1818393133580685e-02" rms="4.2228731513023376e-01" purity="4.8712113499641418e-01" nType="0">
        <Node pos="l" depth="1" NCoef="0" IVar="3" Cut="2.0952382087707520e+00" cType="1" res="-9.6939399838447571e-02" rms="4.4796809554100037e-01" purity="5.3352820873260498e-01" nType="0">
          <Node pos="l" depth="2" NCoef="0" IVar="-1" Cut="0.0000000000000000e+00" cType="1" res="7.4847741052508354e-03" rms="4.2481485009193420e-01" purity="6.9981062412261963e-01" nType="-99"/>
          <Node pos="r" depth="2" NCoef="0" IVar="-1" Cut="0.0000000000000000e+00" cType="1" res="-4.2160227894783020e-03" rms="4.4898036122322083e-01" purity="4.6748998761177063e-01" nType="-99"/>
        </Node>
        <Node pos="r" depth="1" NCoef="0" IVar="15" Cut="4.1428570747375488e+00" cType="1" res="2.3711826652288437e-03" rms="4.1616326570510864e-01" purity="4.7938510775566101e-01" nType="0">
          <Node pos="l" depth="2" NCoef="0" IVar="-1" Cut="0.0000000000000000e+00" cType="1" res="-8.6829122155904770e-03" rms="4.4769358634948730e-01" purity="5.6496155261993408e-01" nType="-99"/>
          <Node pos="r" depth="2" NCoef="0" IVar="-1" Cut="0.0000000000000000e+00" cType="1" res="7.5284035119693726e-05" rms="4.1187164187431335e-01" purity="4.7275221347808838e-01" nType="-99"/>
        </Node>
      </Node>
    </BinaryTree>
    <BinaryTree type="DecisionTree" boostWeight="1.0000000000000000e+00" itree="186">
      <Node pos="s" depth="0" NCoef="0" IVar="0" Cut="8.9080667495727539e-01" cType="1" res="-2.2565634921193123e-02" rms="4.3106377124786377e-01" purity="4.8879158496856689e-01" nType="0">
        <Node pos="l" depth="1" NCoef="0" IVar="5" Cut="7.9283481836318970e-01" cType="1" res="-8.8671281933784485e-02" rms="4.5319449901580811e-01" purity="5.3651189804077148e-01" nType="0">
          <Node pos="l" depth="2" NCoef="0" IVar="-1" Cut="0.0000000000000000e+00" cType="1" res="6.2091560102999210e-03" rms="3.5104039311408997e-01" purity="8.0960649251937866e-01" nType="-99"/>
          <Node pos="r" depth="2" NCoef="0" IVar="-1" Cut="0.0000000000000000e+00" cType="1" res="-4.3412987142801285e-03" rms="4.6873810887336731e-01" purity="4.5889791846275330e-01" nType="-99"/>
        </Node>
        <Node pos="r" depth="1" NCoef="0" IVar="15" Cut="9.8571424484252930e+00" cType="1" res="-1.8417603569105268e-03" rms="4.2176017165184021e-01" purity="4.7383141517639160e-01" nType="0">
          <Node pos="l" depth="2" NCoef="0" IVar="-1" Cut="0.0000000000000000e+00" cType="1" res="2.6875743642449379e-03" rms="3.5187995433807373e-01" purity="6.8110287189483643e-01" nType="-99"/>
          <Node pos="r" depth="2" NCoef="0" IVar="-1" Cut="0.0000000000000000e+00" cType="1" res="-6.5774086397141218e-04" rms="4.4567674398422241e-01" purity="3.8632512092590332e-01" nType="-99"/>
        </Node>
      </Node>
    </BinaryTree>
    <BinaryTree type="DecisionTree" boostWeight="1.0000000000000000e+00" itree="187">
      <Node pos="s" depth="0" NCoef="0" IVar="9" Cut="-5.7142858505249023e+00" cType="1" res="-7.3664854280650616e-03" rms="4.2106714844703674e-01" purity="5.0123804807662964e-01" nType="0">
        <Node pos="l" depth="1" NCoef="0" IVar="12" Cut="2.1428570747375488e+00" cType="1" res="-1.2920503318309784e-01" rms="4.5803236961364746e-01" purity="5.3754538297653198e-01" nType="0">
          <Node pos="l" depth="2" NCoef="0" IVar="-1" Cut="0.0000000000000000e+00" cType="1" res="-3.1423715408891439e-03" rms="4.5249688625335693e-01" purity="6.4563667774200439e-01" nType="-99"/>
          <Node pos="r" depth="2" NCoef="0" IVar="-1" Cut="0.0000000000000000e+00" cType="1" res="-5.9975315816700459e-03" rms="4.3542143702507019e-01" purity="2.8767204284667969e-01" nType="-99"/>
        </Node>
        <Node pos="r" depth="1" NCoef="0" IVar="18" Cut="5.2380952835083008e+00" cType="1" res="2.9893196187913418e-03" rms="4.1613280773162842e-01" purity="4.9815207719802856e-01" nType="0">
          <Node pos="l" depth="2" NCoef="0" IVar="-1" Cut="0.0000000000000000e+00" cType="1" res="1.6446299850940704e-03" rms="4.0861886739730835e-01" purity="6.8346387147903442e-01" nType="-99"/>
          <Node pos="r" depth="2" NCoef="0" IVar="-1" Cut="0.0000000000000000e+00" cType="1" res="-1.5070238150656223e-03" rms="4.1884425282478333e-01" purity="3.2751581072807312e-01" nType="-99"/>
        </Node>
      </Node>
    </BinaryTree>
    <BinaryTree type="DecisionTree" boostWeight="1.0000000000000000e+00" itree="188">
      <Node pos="s" depth="0" NCoef="0" IVar="20" Cut="7.1492652893066406e+01" cType="1" res="-6.9148852489888668e-03" rms="4.2840135097503662e-01" purity="5.0803124904632568e-01" nType="0">
        <Node pos="l" depth="1" NCoef="0" IVar="20" Cut="1.5689762830734253e+00" cType="0" res="-2.1351838950067759e-03" rms="4.2893227934837341e-01" purity="5.1523673534393311e-01" nType="0">
          <Node pos="l" depth="2" NCoef="0" IVar="-1" Cut="0.0000000000000000e+00" cType="1" res="1.0291679063811898e-04" rms="4.2859771847724915e-01" purity="5.2431452274322510e-01" nType="-99"/>
          <Node pos="r" depth="2" NCoef="0" IVar="-1" Cut="0.0000000000000000e+00" cType="1" res="-6.9990418851375580e-03" rms="4.1072377562522888e-01" purity="3.1133225560188293e-01" nType="-99"/>
        </Node>
        <Node pos="r" depth="1" NCoef="0" IVar="-1" Cut="0.0000000000000000e+00" cType="1" res="-5.6916866451501846e-03" rms="3.9062893390655518e-01" purity="3.0775338411331177e-01" nType="-99"/>
      </Node>
    </BinaryTree>
    <BinaryTree type="DecisionTree" boostWeight="1.0000000000000000e+00" itree="189">
      <Node pos="s" depth="0" NCoef="0" IVar="20" Cut="1.0373162269592285e+01" cType="1" res="-8.5069955093786120e-04" rms="4.2101430892944336e-01" purity="5.0920224189758301e-01" nType="0">
        <Node pos="l" depth="1" NCoef="0" IVar="5" Cut="1.9499170780181885e+00" cType="1" res="5.9127282351255417e-02" rms="4.0711528062820435e-01" purity="5.9178185462951660e-01" nType="0">
          <Node pos="l" depth="2" NCoef="0" IVar="-1" Cut="0.0000000000000000e+00" cType="1" res="2.5914777070283890e-03" rms="3.8902679085731506e-01" purity="7.3435801267623901e-01" nType="-99"/>
          <Node pos="r" depth="2" NCoef="0" IVar="-1" Cut="0.0000000000000000e+00" cType="1" res="-1.2433462543413043e-03" rms="4.3122822046279907e-01" purity="3.1019556522369385e-01" nType="-99"/>
        </Node>
        <Node pos="r" depth="1" NCoef="0" IVar="3" Cut="3.9047617912292480e+00" cType="1" res="-2.2024303674697876e-02" rms="4.2379021644592285e-01" purity="4.8004978895187378e-01" nType="0">
          <Node pos="l" depth="2" NCoef="0" IVar="-1" Cut="0.0000000000000000e+00" cType="1" res="1.2514428817667067e-04" rms="4.0471550822257996e-01" purity="4.8805412650108337e-01" nType="-99"/>
          <Node pos="r" depth="2" NCoef="0" IVar="-1" Cut="0.0000000000000000e+00" cType="1" res="-3.7638789508491755e-03" rms="4.7147211432456970e-01" purity="4.5485329627990723e-01" nType="-99"/>
        </Node>
      </Node>
    </BinaryTree>
    <BinaryTree type="DecisionTree" boostWeight="1.0000000000000000e+00" itree="190">
      <Node pos="s" depth="0" NCoef="0" IVar="5" Cut="2.6347889900207520e+00" cType="1" res="-7.6162104960530996e-04" rms="4.1833138465881348e-01" purity="5.0661998987197876e-01" nType="0">
        <Node pos="l" depth="1" NCoef="0" IVar="0" Cut="4.8572179675102234e-01" cType="0" res="1.1925234459340572e-02" rms="4.3172293901443481e-01" purity="5.7439482212066650e-01" nType="0">
          <Node pos="l" depth="2" NCoef="0" IVar="-1" Cut="0.0000000000000000e+00" cType="1" res="6.3746300293132663e-04" rms="4.2438340187072754e-01" purity="5.7936012744903564e-01" nType="-99"/>
          <Node pos="r" depth="2" NCoef="0" IVar="-1" Cut="0.0000000000000000e+00" cType="1" res="-5.8773253113031387e-03" rms="4.7162982821464539e-01" purity="5.2867633104324341e-01" nType="-99"/>
        </Node>
        <Node pos="r" depth="1" NCoef="0" IVar="4" Cut="2.8271923065185547e+00" cType="1" res="-6.8927146494388580e-02" rms="3.2913035154342651e-01" purity="1.4247062802314758e-01" nType="0">
          <Node pos="l" depth="2" NCoef="0" IVar="-1" Cut="0.0000000000000000e+00" cType="1" res="-4.5135840773582458e-03" rms="3.7891378998756409e-01" purity="1.7156916856765747e-01" nType="-99"/>
          <Node pos="r" depth="2" NCoef="0" IVar="-1" Cut="0.0000000000000000e+00" cType="1" res="-2.3288300726562738e-03" rms="3.0519777536392212e-01" purity="1.3256838917732239e-01" nType="-99"/>
        </Node>
      </Node>
    </BinaryTree>
    <BinaryTree type="DecisionTree" boostWeight="1.0000000000000000e+00" itree="191">
      <Node pos="s" depth="0" NCoef="0" IVar="12" Cut="2.1428570747375488e+00" cType="1" res="-2.4578664451837540e-02" rms="4.2360627651214600e-01" purity="4.7498324513435364e-01" nType="0">
        <Node pos="l" depth="1" NCoef="0" IVar="10" Cut="1.9058202505111694e+00" cType="1" res="-1.3962837867438793e-02" rms="4.1376405954360962e-01" purity="4.8229858279228210e-01" nType="0">
          <Node pos="l" depth="2" NCoef="0" IVar="-1" Cut="0.0000000000000000e+00" cType="1" res="3.3933655358850956e-03" rms="4.0265798568725586e-01" purity="6.3700634241104126e-01" nType="-99"/>
          <Node pos="r" depth="2" NCoef="0" IVar="-1" Cut="0.0000000000000000e+00" cType="1" res="-1.5689721331000328e-03" rms="4.2057815194129944e-01" purity="3.5313874483108521e-01" nType="-99"/>
        </Node>
        <Node pos="r" depth="1" NCoef="0" IVar="0" Cut="1.4303772449493408e+00" cType="1" res="-8.0371998250484467e-02" rms="4.6802994608879089e-01" purity="4.3653619289398193e-01" nType="0">
          <Node pos="l" depth="2" NCoef="0" IVar="-1" Cut="0.0000000000000000e+00" cType="1" res="-4.5659719035029411e-03" rms="4.6795317530632019e-01" purity="4.4572231173515320e-01" nType="-99"/>
          <Node pos="r" depth="2" NCoef="0" IVar="-1" Cut="0.0000000000000000e+00" cType="1" res="-3.1241352553479373e-04" rms="4.5845851302146912e-01" purity="4.2194840312004089e-01" nType="-99"/>
        </Node>
      </Node>
    </BinaryTree>
    <BinaryTree type="DecisionTree" boostWeight="1.0000000000000000e+00" itree="192">
      <Node pos="s" depth="0" NCoef="0" IVar="5" Cut="8.7959969043731689e-01" cType="1" res="2.4986097123473883e-03" rms="4.1806706786155701e-01" purity="5.0144499540328979e-01" nType="0">
        <Node pos="l" depth="1" NCoef="0" IVar="1" Cut="3.4285714626312256e+00" cType="1" res="8.5466019809246063e-02" rms="3.3977389335632324e-01" purity="8.2707411050796509e-01" nType="0">
          <Node pos="l" depth="2" NCoef="0" IVar="-1" Cut="0.0000000000000000e+00" cType="1" res="1.8393745645880699e-02" rms="1.8362751603126526e-01" purity="9.6066230535507202e-01" nType="-99"/>
          <Node pos="r" depth="2" NCoef="0" IVar="-1" Cut="0.0000000000000000e+00" cType="1" res="-6.2774830439593643e-05" rms="4.2237854003906250e-01" purity="6.9952493906021118e-01" nType="-99"/>
        </Node>
        <Node pos="r" depth="1" NCoef="0" IVar="7" Cut="-7.3857140541076660e+00" cType="1" res="-5.6852954439818859e-03" rms="4.2413061857223511e-01" purity="4.6932500600814819e-01" nType="0">
          <Node pos="l" depth="2" NCoef="0" IVar="-1" Cut="0.0000000000000000e+00" cType="1" res="-8.9088389649987221e-03" rms="4.9309793114662170e-01" purity="4.8048990964889526e-01" nType="-99"/>
          <Node pos="r" depth="2" NCoef="0" IVar="-1" Cut="0.0000000000000000e+00" cType="1" res="-5.9743440942838788e-04" rms="4.2087629437446594e-01" purity="4.6901094913482666e-01" nType="-99"/>
        </Node>
      </Node>
    </BinaryTree>
    <BinaryTree type="DecisionTree" boostWeight="1.0000000000000000e+00" itree="193">
      <Node pos="s" depth="0" NCoef="0" IVar="20" Cut="1.4678148269653320e+01" cType="1" res="6.1616287566721439e-03" rms="4.2217043042182922e-01" purity="5.1521193981170654e-01" nType="0">
        <Node pos="l" depth="1" NCoef="0" IVar="6" Cut="1.6727058887481689e+00" cType="1" res="6.2709510326385498e-02" rms="4.2251411080360413e-01" purity="6.0513484477996826e-01" nType="0">
          <Node pos="l" depth="2" NCoef="0" IVar="-1" Cut="0.0000000000000000e+00" cType="1" res="1.8649920821189880e-03" rms="4.1326603293418884e-01" purity="6.7503714561462402e-01" nType="-99"/>
          <Node pos="r" depth="2" NCoef="0" IVar="-1" Cut="0.0000000000000000e+00" cType="1" res="2.4748360738158226e-03" rms="4.2762035131454468e-01" purity="5.2525782585144043e-01" nType="-99"/>
        </Node>
        <Node pos="r" depth="1" NCoef="0" IVar="21" Cut="1.3809523582458496e+00" cType="1" res="-2.9644371941685677e-02" rms="4.1801583766937256e-01" purity="4.5827302336692810e-01" nType="0">
          <Node pos="l" depth="2" NCoef="0" IVar="-1" Cut="0.0000000000000000e+00" cType="1" res="-4.7063175588846207e-03" rms="4.5346426963806152e-01" purity="5.0361573696136475e-01" nType="-99"/>
          <Node pos="r" depth="2" NCoef="0" IVar="-1" Cut="0.0000000000000000e+00" cType="1" res="-1.1344703380018473e-03" rms="4.0167960524559021e-01" purity="4.4161799550056458e-01" nType="-99"/>
        </Node>
      </Node>
    </BinaryTree>
    <BinaryTree type="DecisionTree" boostWeight="1.0000000000000000e+00" itree="194">
      <Node pos="s" depth="0" NCoef="0" IVar="6" Cut="6.8697994947433472e-01" cType="1" res="-1.3425061479210854e-02" rms="4.2202514410018921e-01" purity="4.9121457338333130e-01" nType="0">
        <Node pos="l" depth="1" NCoef="0" IVar="6" Cut="4.9831295013427734e-01" cType="0" res="-1.9498309493064880e-01" rms="5.0501859188079834e-01" purity="5.1696860790252686e-01" nType="0">
          <Node pos="l" depth="2" NCoef="0" IVar="-1" Cut="0.0000000000000000e+00" cType="1" res="4.8343897797167301e-03" rms="4.6999257802963257e-01" purity="6.1363726854324341e-01" nType="-99"/>
          <Node pos="r" depth="2" NCoef="0" IVar="-1" Cut="0.0000000000000000e+00" cType="1" res="-5.1174866966903210e-03" rms="5.2425163984298706e-01" purity="4.3442192673683167e-01" nType="-99"/>
        </Node>
        <Node pos="r" depth="1" NCoef="0" IVar="20" Cut="7.1492652893066406e+01" cType="1" res="-7.2137657552957535e-03" rms="4.1750064492225647e-01" purity="4.9033346772193909e-01" nType="0">
          <Node pos="l" depth="2" NCoef="0" IVar="-1" Cut="0.0000000000000000e+00" cType="1" res="-1.9421172328293324e-04" rms="4.1686326265335083e-01" purity="4.9747508764266968e-01" nType="-99"/>
          <Node pos="r" depth="2" NCoef="0" IVar="-1" Cut="0.0000000000000000e+00" cType="1" res="-5.8723413385450840e-03" rms="4.0535363554954529e-01" purity="3.1640473008155823e-01" nType="-99"/>
        </Node>
      </Node>
    </BinaryTree>
    <BinaryTree type="DecisionTree" boostWeight="1.0000000000000000e+00" itree="195">
      <Node pos="s" depth="0" NCoef="0" IVar="18" Cut="5.1428570747375488e+00" cType="1" res="-8.6240768432617188e-03" rms="4.2019310593605042e-01" purity="4.9103090167045593e-01" nType="0">
        <Node pos="l" depth="1" NCoef="0" IVar="15" Cut="1.4142857551574707e+01" cType="0" res="1.7750920727849007e-02" rms="4.2096158862113953e-01" purity="6.5016770362854004e-01" nType="0">
          <Node pos="l" depth="2" NCoef="0" IVar="-1" Cut="0.0000000000000000e+00" cType="1" res="7.8791100531816483e-03" rms="4.5194655656814575e-01" purity="7.0712691545486450e-01" nType="-99"/>
          <Node pos="r" depth="2" NCoef="0" IVar="-1" Cut="0.0000000000000000e+00" cType="1" res="9.5371251518372446e-07" rms="4.1295602917671204e-01" purity="6.4252007007598877e-01" nType="-99"/>
        </Node>
        <Node pos="r" depth="1" NCoef="0" IVar="15" Cut="1.6142856597900391e+01" cType="0" res="-3.6553248763084412e-02" rms="4.1756567358970642e-01" purity="3.2251670956611633e-01" nType="0">
          <Node pos="l" depth="2" NCoef="0" IVar="-1" Cut="0.0000000000000000e+00" cType="1" res="-1.5724584227427840e-04" rms="4.0792217850685120e-01" purity="3.3785015344619751e-01" nType="-99"/>
          <Node pos="r" depth="2" NCoef="0" IVar="-1" Cut="0.0000000000000000e+00" cType="1" res="-4.3851933442056179e-03" rms="4.3035489320755005e-01" purity="2.8748652338981628e-01" nType="-99"/>
        </Node>
      </Node>
    </BinaryTree>
    <BinaryTree type="DecisionTree" boostWeight="1.0000000000000000e+00" itree="196">
      <Node pos="s" depth="0" NCoef="0" IVar="20" Cut="7.3729797363281250e+01" cType="1" res="-6.5888068638741970e-03" rms="4.2092716693878174e-01" purity="4.9953541159629822e-01" nType="0">
        <Node pos="l" depth="1" NCoef="0" IVar="15" Cut="2.2142856597900391e+01" cType="1" res="-2.9355878941714764e-03" rms="4.1994246840476990e-01" purity="5.0282770395278931e-01" nType="0">
          <Node pos="l" depth="2" NCoef="0" IVar="-1" Cut="0.0000000000000000e+00" cType="1" res="2.6768029783852398e-04" rms="4.3352553248405457e-01" purity="5.4173922538757324e-01" nType="-99"/>
          <Node pos="r" depth="2" NCoef="0" IVar="-1" Cut="0.0000000000000000e+00" cType="1" res="-7.4342107400298119e-03" rms="1.5837244689464569e-01" purity="2.6128979399800301e-02" nType="-99"/>
        </Node>
        <Node pos="r" depth="1" NCoef="0" IVar="-1" Cut="0.0000000000000000e+00" cType="1" res="-7.2824619710445404e-03" rms="4.3101841211318970e-01" purity="3.4324008226394653e-01" nType="-99"/>
      </Node>
    </BinaryTree>
    <BinaryTree type="DecisionTree" boostWeight="1.0000000000000000e+00" itree="197">
      <Node pos="s" depth="0" NCoef="0" IVar="5" Cut="8.7251180410385132e-01" cType="1" res="-8.5466308519244194e-03" rms="4.2080867290496826e-01" purity="4.9386036396026611e-01" nType="0">
        <Node pos="l" depth="1" NCoef="0" IVar="15" Cut="1.1857142448425293e+01" cType="1" res="1.0241658985614777e-01" rms="3.1973439455032349e-01" purity="8.4441828727722168e-01" nType="0">
          <Node pos="l" depth="2" NCoef="0" IVar="-1" Cut="0.0000000000000000e+00" cType="1" res="2.2247239947319031e-02" rms="2.2286412119865417e-01" purity="9.4965273141860962e-01" nType="-99"/>
          <Node pos="r" depth="2" NCoef="0" IVar="-1" Cut="0.0000000000000000e+00" cType="1" res="-5.9140045195817947e-03" rms="4.7300744056701660e-01" purity="5.6403738260269165e-01" nType="-99"/>
        </Node>
        <Node pos="r" depth="1" NCoef="0" IVar="21" Cut="4.2380952835083008e+00" cType="1" res="-1.9896397367119789e-02" rms="4.2819115519523621e-01" purity="4.5800393819808960e-01" nType="0">
          <Node pos="l" depth="2" NCoef="0" IVar="-1" Cut="0.0000000000000000e+00" cType="1" res="-2.0259406883269548e-03" rms="4.3548408150672913e-01" purity="5.0097942352294922e-01" nType="-99"/>
          <Node pos="r" depth="2" NCoef="0" IVar="-1" Cut="0.0000000000000000e+00" cType="1" res="8.9240237139165401e-04" rms="4.1273826360702515e-01" purity="3.9593195915222168e-01" nType="-99"/>
        </Node>
      </Node>
    </BinaryTree>
    <BinaryTree type="DecisionTree" boostWeight="1.0000000000000000e+00" itree="198">
      <Node pos="s" depth="0" NCoef="0" IVar="9" Cut="-5.7142858505249023e+00" cType="1" res="-2.6062696706503630e-03" rms="4.1859623789787292e-01" purity="5.0159710645675659e-01" nType="0">
        <Node pos="l" depth="1" NCoef="0" IVar="9" Cut="-1.0369047164916992e+01" cType="1" res="-1.2387340515851974e-01" rms="4.4898322224617004e-01" purity="5.2683365345001221e-01" nType="0">
          <Node pos="l" depth="2" NCoef="0" IVar="-1" Cut="0.0000000000000000e+00" cType="1" res="1.2786911800503731e-02" rms="3.8865429162979126e-01" purity="7.9743415117263794e-01" nType="-99"/>
          <Node pos="r" depth="2" NCoef="0" IVar="-1" Cut="0.0000000000000000e+00" cType="1" res="-9.4658210873603821e-03" rms="4.3865531682968140e-01" purity="3.7760055065155029e-01" nType="-99"/>
        </Node>
        <Node pos="r" depth="1" NCoef="0" IVar="20" Cut="7.3729797363281250e+01" cType="1" res="8.2038585096597672e-03" rms="4.1405913233757019e-01" purity="4.9934747815132141e-01" nType="0">
          <Node pos="l" depth="2" NCoef="0" IVar="-1" Cut="0.0000000000000000e+00" cType="1" res="2.2205897039384581e-05" rms="4.1199818253517151e-01" purity="5.0433343648910522e-01" nType="-99"/>
          <Node pos="r" depth="2" NCoef="0" IVar="-1" Cut="0.0000000000000000e+00" cType="1" res="-7.0997779257595539e-03" rms="4.3280383944511414e-01" purity="3.0560690164566040e-01" nType="-99"/>
        </Node>
      </Node>
    </BinaryTree>
    <BinaryTree type="DecisionTree" boostWeight="1.0000000000000000e+00" itree="199">
      <Node pos="s" depth="0" NCoef="0" IVar="0" Cut="4.4257822632789612e-01" cType="1" res="5.0281509757041931e-03" rms="4.1814878582954407e-01" purity="5.1308637857437134e-01" nType="0">
        <Node pos="l" depth="1" NCoef="0" IVar="20" Cut="1.7669393539428711e+01" cType="1" res="-1.2613138556480408e-01" rms="4.7504812479019165e-01" purity="5.2896815538406372e-01" nType="0">
          <Node pos="l" depth="2" NCoef="0" IVar="-1" Cut="0.0000000000000000e+00" cType="1" res="-4.1870195418596268e-03" rms="4.5787218213081360e-01" purity="6.2702929973602295e-01" nType="-99"/>
          <Node pos="r" depth="2" NCoef="0" IVar="-1" Cut="0.0000000000000000e+00" cType="1" res="-6.8755880929529667e-03" rms="4.7964674234390259e-01" purity="4.3187752366065979e-01" nType="-99"/>
        </Node>
        <Node pos="r" depth="1" NCoef="0" IVar="4" Cut="2.5033159255981445e+00" cType="1" res="1.3552268967032433e-02" rms="4.1274055838584900e-01" purity="5.1205420494079590e-01" nType="0">
          <Node pos="l" depth="2" NCoef="0" IVar="-1" Cut="0.0000000000000000e+00" cType="1" res="7.7318074181675911e-04" rms="4.2601144313812256e-01" purity="6.2345880270004272e-01" nType="-99"/>
          <Node pos="r" depth="2" NCoef="0" IVar="-1" Cut="0.0000000000000000e+00" cType="1" res="-2.0627938210964203e-03" rms="3.6488214135169983e-01" purity="2.0047555863857269e-01" nType="-99"/>
        </Node>
      </Node>
    </BinaryTree>
    <BinaryTree type="DecisionTree" boostWeight="1.0000000000000000e+00" itree="200">
      <Node pos="s" depth="0" NCoef="0" IVar="18" Cut="5.1428570747375488e+00" cType="1" res="-6.1590983532369137e-03" rms="4.2093652486801147e-01" purity="4.9867802858352661e-01" nType="0">
        <Node pos="l" depth="1" NCoef="0" IVar="12" Cut="1.4285714924335480e-01" cType="0" res="3.4715000540018082e-02" rms="4.1040644049644470e-01" purity="6.7094814777374268e-01" nType="0">
          <Node pos="l" depth="2" NCoef="0" IVar="-1" Cut="0.0000000000000000e+00" cType="1" res="3.0473859515041113e-03" rms="4.2255073785781860e-01" purity="7.0834875106811523e-01" nType="-99"/>
          <Node pos="r" depth="2" NCoef="0" IVar="-1" Cut="0.0000000000000000e+00" cType="1" res="-2.6641122531145811e-03" rms="3.8153868913650513e-01" purity="6.0431092977523804e-01" nType="-99"/>
        </Node>
        <Node pos="r" depth="1" NCoef="0" IVar="4" Cut="1.3218628168106079e+00" cType="1" res="-4.7319889068603516e-02" rms="4.2734813690185547e-01" purity="3.2519957423210144e-01" nType="0">
          <Node pos="l" depth="2" NCoef="0" IVar="-1" Cut="0.0000000000000000e+00" cType="1" res="-9.1562019661068916e-03" rms="4.7108477354049683e-01" purity="3.3673557639122009e-01" nType="-99"/>
          <Node pos="r" depth="2" NCoef="0" IVar="-1" Cut="0.0000000000000000e+00" cType="1" res="-8.0718012759461999e-04" rms="4.1673913598060608e-01" purity="3.2404372096061707e-01" nType="-99"/>
        </Node>
      </Node>
    </BinaryTree>
    <BinaryTree type="DecisionTree" boostWeight="1.0000000000000000e+00" itree="201">
      <Node pos="s" depth="0" NCoef="0" IVar="6" Cut="3.3093962669372559e+00" cType="1" res="1.4287932775914669e-02" rms="4.1291943192481995e-01" purity="5.2348047494888306e-01" nType="0">
        <Node pos="l" depth="1" NCoef="0" IVar="3" Cut="3.9047617912292480e+00" cType="1" res="2.2544950246810913e-02" rms="4.1955560445785522e-01" purity="5.5315023660659790e-01" nType="0">
          <Node pos="l" depth="2" NCoef="0" IVar="-1" Cut="0.0000000000000000e+00" cType="1" res="7.5791747076436877e-04" rms="4.0502649545669556e-01" purity="5.6788462400436401e-01" nType="-99"/>
          <Node pos="r" depth="2" NCoef="0" IVar="-1" Cut="0.0000000000000000e+00" cType="1" res="-2.2398447617888451e-03" rms="4.4992539286613464e-01" purity="5.1610982418060303e-01" nType="-99"/>
        </Node>
        <Node pos="r" depth="1" NCoef="0" IVar="-1" Cut="0.0000000000000000e+00" cType="1" res="-4.8260283656418324e-03" rms="2.6318034529685974e-01" purity="7.0647858083248138e-02" nType="-99"/>
      </Node>
    </BinaryTree>
    <BinaryTree type="DecisionTree" boostWeight="1.0000000000000000e+00" itree="202">
      <Node pos="s" depth="0" NCoef="0" IVar="0" Cut="8.8515645265579224e-01" cType="1" res="-1.1023627594113350e-02" rms="4.1810047626495361e-01" purity="4.8708000779151917e-01" nType="0">
        <Node pos="l" depth="1" NCoef="0" IVar="1" Cut="4.7142858505249023e+00" cType="1" res="-5.7897422462701797e-02" rms="4.3588805198669434e-01" purity="5.5696719884872437e-01" nType="0">
          <Node pos="l" depth="2" NCoef="0" IVar="-1" Cut="0.0000000000000000e+00" cType="1" res="5.5063579929992557e-04" rms="4.3248388171195984e-01" purity="6.7985218763351440e-01" nType="-99"/>
          <Node pos="r" depth="2" NCoef="0" IVar="-1" Cut="0.0000000000000000e+00" cType="1" res="-5.2493065595626831e-03" rms="4.3145638704299927e-01" purity="4.3149390816688538e-01" nType="-99"/>
        </Node>
        <Node pos="r" depth="1" NCoef="0" IVar="18" Cut="6.1904764175415039e+00" cType="1" res="3.2477751374244690e-03" rms="4.1147351264953613e-01" purity="4.6580183506011963e-01" nType="0">
          <Node pos="l" depth="2" NCoef="0" IVar="-1" Cut="0.0000000000000000e+00" cType="1" res="1.3833128614351153e-03" rms="4.4562283158302307e-01" purity="5.8129900693893433e-01" nType="-99"/>
          <Node pos="r" depth="2" NCoef="0" IVar="-1" Cut="0.0000000000000000e+00" cType="1" res="-4.1577606461942196e-03" rms="2.4933104217052460e-01" purity="6.8633601069450378e-02" nType="-99"/>
        </Node>
      </Node>
    </BinaryTree>
    <BinaryTree type="DecisionTree" boostWeight="1.0000000000000000e+00" itree="203">
      <Node pos="s" depth="0" NCoef="0" IVar="14" Cut="1.0183473205566406e+02" cType="0" res="-1.1316905729472637e-02" rms="4.2584028840065002e-01" purity="5.0112962722778320e-01" nType="0">
        <Node pos="l" depth="1" NCoef="0" IVar="12" Cut="1.4285714924335480e-01" cType="0" res="4.6513255685567856e-02" rms="4.3626591563224792e-01" purity="6.0741549730300903e-01" nType="0">
          <Node pos="l" depth="2" NCoef="0" IVar="-1" Cut="0.0000000000000000e+00" cType="1" res="3.3791523892432451e-03" rms="4.2708274722099304e-01" purity="6.2008386850357056e-01" nType="-99"/>
          <Node pos="r" depth="2" NCoef="0" IVar="-1" Cut="0.0000000000000000e+00" cType="1" res="-6.8973978050053120e-03" rms="4.2802003026008606e-01" purity="5.6645506620407104e-01" nType="-99"/>
        </Node>
        <Node pos="r" depth="1" NCoef="0" IVar="0" Cut="1.3362091779708862e+00" cType="1" res="-2.5458058342337608e-02" rms="4.2204782366752625e-01" purity="4.7513961791992188e-01" nType="0">
          <Node pos="l" depth="2" NCoef="0" IVar="-1" Cut="0.0000000000000000e+00" cType="1" res="-2.2299117408692837e-03" rms="4.3529903888702393e-01" purity="5.4082053899765015e-01" nType="-99"/>
          <Node pos="r" depth="2" NCoef="0" IVar="-1" Cut="0.0000000000000000e+00" cType="1" res="1.0442345228511840e-04" rms="4.0928313136100769e-01" purity="4.2287471890449524e-01" nType="-99"/>
        </Node>
      </Node>
    </BinaryTree>
    <BinaryTree type="DecisionTree" boostWeight="1.0000000000000000e+00" itree="204">
      <Node pos="s" depth="0" NCoef="0" IVar="21" Cut="4.2380952835083008e+00" cType="1" res="-1.4072573743760586e-02" rms="4.2835035920143127e-01" purity="4.9971327185630798e-01" nType="0">
        <Node pos="l" depth="1" NCoef="0" IVar="5" Cut="1.4535034894943237e+00" cType="1" res="-4.9197807908058167e-02" rms="4.3200433254241943e-01" purity="5.4567742347717285e-01" nType="0">
          <Node pos="l" depth="2" NCoef="0" IVar="-1" Cut="0.0000000000000000e+00" cType="1" res="1.8825180595740676e-03" rms="4.1114449501037598e-01" purity="7.2028201818466187e-01" nType="-99"/>
          <Node pos="r" depth="2" NCoef="0" IVar="-1" Cut="0.0000000000000000e+00" cType="1" res="-2.8845928609371185e-03" rms="4.4675150513648987e-01" purity="3.7910309433937073e-01" nType="-99"/>
        </Node>
        <Node pos="r" depth="1" NCoef="0" IVar="15" Cut="1.8428571701049805e+01" cType="1" res="4.2926229536533356e-02" rms="4.1609093546867371e-01" purity="4.2512580752372742e-01" nType="0">
          <Node pos="l" depth="2" NCoef="0" IVar="-1" Cut="0.0000000000000000e+00" cType="1" res="3.2417539041489363e-03" rms="4.6394082903862000e-01" purity="5.8529442548751831e-01" nType="-99"/>
          <Node pos="r" depth="2" NCoef="0" IVar="-1" Cut="0.0000000000000000e+00" cType="1" res="-4.7301179729402065e-03" rms="2.6684978604316711e-01" purity="8.0779612064361572e-02" nType="-99"/>
        </Node>
      </Node>
    </BinaryTree>
    <BinaryTree type="DecisionTree" boostWeight="1.0000000000000000e+00" itree="205">
      <Node pos="s" depth="0" NCoef="0" IVar="20" Cut="2.2077249526977539e+01" cType="0" res="1.1404346441850066e-03" rms="4.2566481232643127e-01" purity="5.1364535093307495e-01" nType="0">
        <Node pos="l" depth="1" NCoef="0" IVar="4" Cut="2.7030999660491943e+00" cType="1" res="4.8129007220268250e-02" rms="4.1308352351188660e-01" purity="5.7586163282394409e-01" nType="0">
          <Node pos="l" depth="2" NCoef="0" IVar="-1" Cut="0.0000000000000000e+00" cType="1" res="1.4385401736944914e-03" rms="4.1894820332527161e-01" purity="6.7203539609909058e-01" nType="-99"/>
          <Node pos="r" depth="2" NCoef="0" IVar="-1" Cut="0.0000000000000000e+00" cType="1" res="-1.8275298643857241e-03" rms="3.7102809548377991e-01" purity="1.8793396651744843e-01" nType="-99"/>
        </Node>
        <Node pos="r" depth="1" NCoef="0" IVar="20" Cut="1.4426169395446777e+01" cType="1" res="-2.2399870678782463e-02" rms="4.2990332841873169e-01" purity="4.8247626423835754e-01" nType="0">
          <Node pos="l" depth="2" NCoef="0" IVar="-1" Cut="0.0000000000000000e+00" cType="1" res="2.1605321671813726e-03" rms="4.3562203645706177e-01" purity="5.6234335899353027e-01" nType="-99"/>
          <Node pos="r" depth="2" NCoef="0" IVar="-1" Cut="0.0000000000000000e+00" cType="1" res="-5.0195036455988884e-03" rms="4.1352835297584534e-01" purity="3.5723787546157837e-01" nType="-99"/>
        </Node>
      </Node>
    </BinaryTree>
    <BinaryTree type="DecisionTree" boostWeight="1.0000000000000000e+00" itree="206">
      <Node pos="s" depth="0" NCoef="0" IVar="0" Cut="4.4257822632789612e-01" cType="1" res="-1.1343854479491711e-02" rms="4.2030075192451477e-01" purity="4.8967766761779785e-01" nType="0">
        <Node pos="l" depth="1" NCoef="0" IVar="10" Cut="7.7842420339584351e-01" cType="1" res="-1.1482218652963638e-01" rms="4.5500397682189941e-01" purity="5.0989520549774170e-01" nType="0">
          <Node pos="l" depth="2" NCoef="0" IVar="-1" Cut="0.0000000000000000e+00" cType="1" res="-1.0196885559707880e-03" rms="3.9297342300415039e-01" purity="7.8423303365707397e-01" nType="-99"/>
          <Node pos="r" depth="2" NCoef="0" IVar="-1" Cut="0.0000000000000000e+00" cType="1" res="-6.0685258358716965e-03" rms="4.6187365055084229e-01" purity="4.2657074332237244e-01" nType="-99"/>
        </Node>
        <Node pos="r" depth="1" NCoef="0" IVar="12" Cut="2.1428570747375488e+00" cType="1" res="-3.9896429516375065e-03" rms="4.1674789786338806e-01" purity="4.8824083805084229e-01" nType="0">
          <Node pos="l" depth="2" NCoef="0" IVar="-1" Cut="0.0000000000000000e+00" cType="1" res="4.4796295696869493e-04" rms="4.0923756361007690e-01" purity="4.9991247057914734e-01" nType="-99"/>
          <Node pos="r" depth="2" NCoef="0" IVar="-1" Cut="0.0000000000000000e+00" cType="1" res="-2.4039149284362793e-03" rms="4.5008322596549988e-01" purity="4.2473477125167847e-01" nType="-99"/>
        </Node>
      </Node>
    </BinaryTree>
    <BinaryTree type="DecisionTree" boostWeight="1.0000000000000000e+00" itree="207">
      <Node pos="s" depth="0" NCoef="0" IVar="6" Cut="2.7077522277832031e+00" cType="1" res="1.7596773803234100e-02" rms="4.1860905289649963e-01" purity="5.3119069337844849e-01" nType="0">
        <Node pos="l" depth="1" NCoef="0" IVar="15" Cut="9.8571424484252930e+00" cType="1" res="2.8011038899421692e-02" rms="4.3028327822685242e-01" purity="5.9414601325988770e-01" nType="0">
          <Node pos="l" depth="2" NCoef="0" IVar="-1" Cut="0.0000000000000000e+00" cType="1" res="2.5160829536616802e-03" rms="3.7328141927719116e-01" purity="7.5994497537612915e-01" nType="-99"/>
          <Node pos="r" depth="2" NCoef="0" IVar="-1" Cut="0.0000000000000000e+00" cType="1" res="-7.6116813579574227e-04" rms="4.6308293938636780e-01" purity="4.8368239402770996e-01" nType="-99"/>
        </Node>
        <Node pos="r" depth="1" NCoef="0" IVar="10" Cut="2.6837382316589355e+00" cType="1" res="-4.2660921812057495e-02" rms="3.3709660172462463e-01" purity="1.6692669689655304e-01" nType="0">
          <Node pos="l" depth="2" NCoef="0" IVar="-1" Cut="0.0000000000000000e+00" cType="1" res="2.2640624083578587e-03" rms="4.1777753829956055e-01" purity="3.3038192987442017e-01" nType="-99"/>
          <Node pos="r" depth="2" NCoef="0" IVar="-1" Cut="0.0000000000000000e+00" cType="1" res="-4.9176174215972424e-03" rms="2.9878845810890198e-01" purity="1.1688351631164551e-01" nType="-99"/>
        </Node>
      </Node>
    </BinaryTree>
    <BinaryTree type="DecisionTree" boostWeight="1.0000000000000000e+00" itree="208">
      <Node pos="s" depth="0" NCoef="0" IVar="0" Cut="4.4238096475601196e-01" cType="1" res="2.2043334320187569e-03" rms="4.1897100210189819e-01" purity="5.0730109214782715e-01" nType="0">
        <Node pos="l" depth="1" NCoef="0" IVar="4" Cut="1.2957556247711182e+00" cType="1" res="-1.2958402931690216e-01" rms="4.7451701760292053e-01" purity="5.0735127925872803e-01" nType="0">
          <Node pos="l" depth="2" NCoef="0" IVar="-1" Cut="0.0000000000000000e+00" cType="1" res="-3.6714684683829546e-03" rms="4.2496544122695923e-01" purity="7.4807709455490112e-01" nType="-99"/>
          <Node pos="r" depth="2" NCoef="0" IVar="-1" Cut="0.0000000000000000e+00" cType="1" res="-5.7461122050881386e-03" rms="4.8616570234298706e-01" purity="3.3100292086601257e-01" nType="-99"/>
        </Node>
        <Node pos="r" depth="1" NCoef="0" IVar="9" Cut="-1.1428571701049805e+01" cType="1" res="1.1319660581648350e-02" rms="4.1330328583717346e-01" purity="5.0729763507843018e-01" nType="0">
          <Node pos="l" depth="2" NCoef="0" IVar="-1" Cut="0.0000000000000000e+00" cType="1" res="2.7663184329867363e-02" rms="1.4745184779167175e-01" purity="1.0000000000000000e+00" nType="-99"/>
          <Node pos="r" depth="2" NCoef="0" IVar="-1" Cut="0.0000000000000000e+00" cType="1" res="-3.2766527147032320e-04" rms="4.1521042585372925e-01" purity="4.9820789694786072e-01" nType="-99"/>
        </Node>
      </Node>
    </BinaryTree>
    <BinaryTree type="DecisionTree" boostWeight="1.0000000000000000e+00" itree="209">
      <Node pos="s" depth="0" NCoef="0" IVar="12" Cut="2.1428570747375488e+00" cType="1" res="-4.6417396515607834e-03" rms="4.2739275097846985e-01" purity="5.0481718778610229e-01" nType="0">
        <Node pos="l" depth="1" NCoef="0" IVar="12" Cut="9.5238097012042999e-02" cType="1" res="9.0261390432715416e-03" rms="4.1982251405715942e-01" purity="5.2322429418563843e-01" nType="0">
          <Node pos="l" depth="2" NCoef="0" IVar="-1" Cut="0.0000000000000000e+00" cType="1" res="-3.3112526871263981e-03" rms="4.0688207745552063e-01" purity="6.0323250293731689e-01" nType="-99"/>
          <Node pos="r" depth="2" NCoef="0" IVar="-1" Cut="0.0000000000000000e+00" cType="1" res="1.1423007817938924e-03" rms="4.2241281270980835e-01" purity="5.0066971778869629e-01" nType="-99"/>
        </Node>
        <Node pos="r" depth="1" NCoef="0" IVar="18" Cut="5.1904764175415039e+00" cType="1" res="-6.6532067954540253e-02" rms="4.5500570535659790e-01" purity="4.2146691679954529e-01" nType="0">
          <Node pos="l" depth="2" NCoef="0" IVar="-1" Cut="0.0000000000000000e+00" cType="1" res="-1.0580309026408941e-04" rms="4.7899988293647766e-01" purity="5.3189235925674438e-01" nType="-99"/>
          <Node pos="r" depth="2" NCoef="0" IVar="-1" Cut="0.0000000000000000e+00" cType="1" res="-8.2976343110203743e-03" rms="3.6652085185050964e-01" purity="1.4659188687801361e-01" nType="-99"/>
        </Node>
      </Node>
    </BinaryTree>
    <BinaryTree type="DecisionTree" boostWeight="1.0000000000000000e+00" itree="210">
      <Node pos="s" depth="0" NCoef="0" IVar="10" Cut="2.1584119796752930e+00" cType="1" res="-1.0458892211318016e-02" rms="4.1696071624755859e-01" purity="4.8973023891448975e-01" nType="0">
        <Node pos="l" depth="1" NCoef="0" IVar="18" Cut="5.1428570747375488e+00" cType="1" res="1.7328213900327682e-02" rms="4.1150102019309998e-01" purity="6.1334753036499023e-01" nType="0">
          <Node pos="l" depth="2" NCoef="0" IVar="-1" Cut="0.0000000000000000e+00" cType="1" res="4.2561185546219349e-03" rms="3.9586842060089111e-01" purity="7.6882910728454590e-01" nType="-99"/>
          <Node pos="r" depth="2" NCoef="0" IVar="-1" Cut="0.0000000000000000e+00" cType="1" res="-1.2074648402631283e-03" rms="4.2975908517837524e-01" purity="3.7938094139099121e-01" nType="-99"/>
        </Node>
        <Node pos="r" depth="1" NCoef="0" IVar="15" Cut="4.1428570747375488e+00" cType="0" res="-4.1909053921699524e-02" rms="4.2084753513336182e-01" purity="3.4981700778007507e-01" nType="0">
          <Node pos="l" depth="2" NCoef="0" IVar="-1" Cut="0.0000000000000000e+00" cType="1" res="-1.4541296986863017e-03" rms="4.1482970118522644e-01" purity="3.5168895125389099e-01" nType="-99"/>
          <Node pos="r" depth="2" NCoef="0" IVar="-1" Cut="0.0000000000000000e+00" cType="1" res="-8.8466340675950050e-03" rms="4.5012903213500977e-01" purity="3.2208672165870667e-01" nType="-99"/>
        </Node>
      </Node>
    </BinaryTree>
    <BinaryTree type="DecisionTree" boostWeight="1.0000000000000000e+00" itree="211">
      <Node pos="s" depth="0" NCoef="0" IVar="17" Cut="5.2264549255371094e+01" cType="1" res="1.1962007731199265e-02" rms="4.2121303081512451e-01" purity="5.2511417865753174e-01" nType="0">
        <Node pos="l" depth="1" NCoef="0" IVar="9" Cut="-5.7142858505249023e+00" cType="1" res="3.5426747053861618e-02" rms="4.1368377208709717e-01" purity="5.4581308364868164e-01" nType="0">
          <Node pos="l" depth="2" NCoef="0" IVar="-1" Cut="0.0000000000000000e+00" cType="1" res="-3.0557049904018641e-03" rms="4.6038454771041870e-01" purity="5.4808247089385986e-01" nType="-99"/>
          <Node pos="r" depth="2" NCoef="0" IVar="-1" Cut="0.0000000000000000e+00" cType="1" res="3.2200786517933011e-04" rms="4.0628948807716370e-01" purity="5.4560410976409912e-01" nType="-99"/>
        </Node>
        <Node pos="r" depth="1" NCoef="0" IVar="14" Cut="1.3597660827636719e+02" cType="0" res="-1.3750907778739929e-01" rms="4.3773797154426575e-01" purity="3.9326161146163940e-01" nType="0">
          <Node pos="l" depth="2" NCoef="0" IVar="-1" Cut="0.0000000000000000e+00" cType="1" res="-2.5170834269374609e-03" rms="4.3076777458190918e-01" purity="4.2297744750976562e-01" nType="-99"/>
          <Node pos="r" depth="2" NCoef="0" IVar="-1" Cut="0.0000000000000000e+00" cType="1" res="-8.9703258126974106e-03" rms="4.3072912096977234e-01" purity="2.9103118181228638e-01" nType="-99"/>
        </Node>
      </Node>
    </BinaryTree>
    <BinaryTree type="DecisionTree" boostWeight="1.0000000000000000e+00" itree="212">
      <Node pos="s" depth="0" NCoef="0" IVar="18" Cut="5.1428570747375488e+00" cType="1" res="-9.8133115097880363e-03" rms="4.2053741216659546e-01" purity="4.9130317568778992e-01" nType="0">
        <Node pos="l" depth="1" NCoef="0" IVar="20" Cut="3.2140285491943359e+01" cType="1" res="2.4230096489191055e-02" rms="4.1727891564369202e-01" purity="6.6498911380767822e-01" nType="0">
          <Node pos="l" depth="2" NCoef="0" IVar="-1" Cut="0.0000000000000000e+00" cType="1" res="1.3659469550475478e-03" rms="4.0545594692230225e-01" purity="6.8305754661560059e-01" nType="-99"/>
          <Node pos="r" depth="2" NCoef="0" IVar="-1" Cut="0.0000000000000000e+00" cType="1" res="-2.5515531888231635e-04" rms="4.4781336188316345e-01" purity="6.0062646865844727e-01" nType="-99"/>
        </Node>
        <Node pos="r" depth="1" NCoef="0" IVar="15" Cut="1.6142856597900391e+01" cType="0" res="-4.3231055140495300e-02" rms="4.2104294896125793e-01" purity="3.2080930471420288e-01" nType="0">
          <Node pos="l" depth="2" NCoef="0" IVar="-1" Cut="0.0000000000000000e+00" cType="1" res="-4.6229033614508808e-05" rms="4.1129082441329956e-01" purity="3.3682808279991150e-01" nType="-99"/>
          <Node pos="r" depth="2" NCoef="0" IVar="-1" Cut="0.0000000000000000e+00" cType="1" res="-4.0841484442353249e-03" rms="4.3290477991104126e-01" purity="2.8202781081199646e-01" nType="-99"/>
        </Node>
      </Node>
    </BinaryTree>
    <BinaryTree type="DecisionTree" boostWeight="1.0000000000000000e+00" itree="213">
      <Node pos="s" depth="0" NCoef="0" IVar="9" Cut="-1.0000000000000000e+01" cType="1" res="-9.0143913403153419e-03" rms="4.1790398955345154e-01" purity="4.9527341127395630e-01" nType="0">
        <Node pos="l" depth="1" NCoef="0" IVar="-1" Cut="0.0000000000000000e+00" cType="1" res="7.2433478198945522e-03" rms="3.1690883636474609e-01" purity="8.6102426052093506e-01" nType="1"/>
        <Node pos="r" depth="1" NCoef="0" IVar="7" Cut="-7.0880956649780273e+00" cType="0" res="-1.3987476006150246e-02" rms="4.1969355940818787e-01" purity="4.8385864496231079e-01" nType="0">
          <Node pos="l" depth="2" NCoef="0" IVar="-1" Cut="0.0000000000000000e+00" cType="1" res="-2.2807341883890331e-04" rms="4.1714152693748474e-01" purity="4.8689329624176025e-01" nType="-99"/>
          <Node pos="r" depth="2" NCoef="0" IVar="-1" Cut="0.0000000000000000e+00" cType="1" res="-1.1142284609377384e-02" rms="4.3259865045547485e-01" purity="3.6311328411102295e-01" nType="-99"/>
        </Node>
      </Node>
    </BinaryTree>
    <BinaryTree type="DecisionTree" boostWeight="1.0000000000000000e+00" itree="214">
      <Node pos="s" depth="0" NCoef="0" IVar="5" Cut="1.7591992616653442e+00" cType="1" res="2.1317476406693459e-02" rms="4.1015785932540894e-01" purity="5.2285623550415039e-01" nType="0">
        <Node pos="l" depth="1" NCoef="0" IVar="0" Cut="4.8342636227607727e-01" cType="0" res="5.1284801214933395e-02" rms="4.0759065747261047e-01" purity="7.1086430549621582e-01" nType="0">
          <Node pos="l" depth="2" NCoef="0" IVar="-1" Cut="0.0000000000000000e+00" cType="1" res="1.2309118174016476e-03" rms="3.9498928189277649e-01" purity="7.2263228893280029e-01" nType="-99"/>
          <Node pos="r" depth="2" NCoef="0" IVar="-1" Cut="0.0000000000000000e+00" cType="1" res="-5.4260571487247944e-03" rms="4.7030800580978394e-01" purity="6.2872833013534546e-01" nType="-99"/>
        </Node>
        <Node pos="r" depth="1" NCoef="0" IVar="12" Cut="1.4285714924335480e-01" cType="0" res="-1.1796294711530209e-02" rms="4.1043919324874878e-01" purity="3.1510812044143677e-01" nType="0">
          <Node pos="l" depth="2" NCoef="0" IVar="-1" Cut="0.0000000000000000e+00" cType="1" res="-4.4795822759624571e-05" rms="4.1535028815269470e-01" purity="3.3457171916961670e-01" nType="-99"/>
          <Node pos="r" depth="2" NCoef="0" IVar="-1" Cut="0.0000000000000000e+00" cType="1" res="-5.9431497938930988e-03" rms="3.5889789462089539e-01" purity="2.0248159766197205e-01" nType="-99"/>
        </Node>
      </Node>
    </BinaryTree>
    <BinaryTree type="DecisionTree" boostWeight="1.0000000000000000e+00" itree="215">
      <Node pos="s" depth="0" NCoef="0" IVar="18" Cut="5.2380952835083008e+00" cType="1" res="-2.0006375852972269e-03" rms="4.2161774635314941e-01" purity="5.0596672296524048e-01" nType="0">
        <Node pos="l" depth="1" NCoef="0" IVar="15" Cut="1.4142857551574707e+01" cType="0" res="1.9425405189394951e-02" rms="4.2102426290512085e-01" purity="6.6733068227767944e-01" nType="0">
          <Node pos="l" depth="2" NCoef="0" IVar="-1" Cut="0.0000000000000000e+00" cType="1" res="7.2232089005410671e-03" rms="4.5095729827880859e-01" purity="6.7369210720062256e-01" nType="-99"/>
          <Node pos="r" depth="2" NCoef="0" IVar="-1" Cut="0.0000000000000000e+00" cType="1" res="-6.0150752688059583e-05" rms="4.1532915830612183e-01" purity="6.6652262210845947e-01" nType="-99"/>
        </Node>
        <Node pos="r" depth="1" NCoef="0" IVar="4" Cut="1.4773495197296143e+00" cType="1" res="-2.4903250858187675e-02" rms="4.2104727029800415e-01" purity="3.3348241448402405e-01" nType="0">
          <Node pos="l" depth="2" NCoef="0" IVar="-1" Cut="0.0000000000000000e+00" cType="1" res="-6.6905748099088669e-03" rms="4.8805570602416992e-01" purity="3.9945742487907410e-01" nType="-99"/>
          <Node pos="r" depth="2" NCoef="0" IVar="-1" Cut="0.0000000000000000e+00" cType="1" res="-7.0088967913761735e-04" rms="4.0557596087455750e-01" purity="3.2380267977714539e-01" nType="-99"/>
        </Node>
      </Node>
    </BinaryTree>
    <BinaryTree type="DecisionTree" boostWeight="1.0000000000000000e+00" itree="216">
      <Node pos="s" depth="0" NCoef="0" IVar="0" Cut="8.9080607891082764e-01" cType="1" res="-6.5785148181021214e-03" rms="4.2080864310264587e-01" purity="4.9647092819213867e-01" nType="0">
        <Node pos="l" depth="1" NCoef="0" IVar="0" Cut="2.9684743285179138e-01" cType="0" res="-5.5293895304203033e-02" rms="4.4523692131042480e-01" purity="5.6102985143661499e-01" nType="0">
          <Node pos="l" depth="2" NCoef="0" IVar="-1" Cut="0.0000000000000000e+00" cType="1" res="-1.8317295471206307e-03" rms="4.3499684333801270e-01" purity="5.7735878229141235e-01" nType="-99"/>
          <Node pos="r" depth="2" NCoef="0" IVar="-1" Cut="0.0000000000000000e+00" cType="1" res="-6.5606767311692238e-03" rms="4.8397836089134216e-01" purity="4.4757363200187683e-01" nType="-99"/>
        </Node>
        <Node pos="r" depth="1" NCoef="0" IVar="5" Cut="8.8554799556732178e-01" cType="1" res="7.9877134412527084e-03" rms="4.1210722923278809e-01" purity="4.7716736793518066e-01" nType="0">
          <Node pos="l" depth="2" NCoef="0" IVar="-1" Cut="0.0000000000000000e+00" cType="1" res="4.2409361340105534e-03" rms="2.1206691861152649e-01" purity="9.6863478422164917e-01" nType="-99"/>
          <Node pos="r" depth="2" NCoef="0" IVar="-1" Cut="0.0000000000000000e+00" cType="1" res="1.0885603842325509e-04" rms="4.1604924201965332e-01" purity="4.5940926671028137e-01" nType="-99"/>
        </Node>
      </Node>
    </BinaryTree>
    <BinaryTree type="DecisionTree" boostWeight="1.0000000000000000e+00" itree="217">
      <Node pos="s" depth="0" NCoef="0" IVar="20" Cut="7.3729797363281250e+01" cType="1" res="-5.2869610954076052e-04" rms="4.2120352387428284e-01" purity="5.0658112764358521e-01" nType="0">
        <Node pos="l" depth="1" NCoef="0" IVar="20" Cut="1.3859189987182617e+01" cType="1" res="4.6130293048918247e-03" rms="4.1941288113594055e-01" purity="5.1114416122436523e-01" nType="0">
          <Node pos="l" depth="2" NCoef="0" IVar="-1" Cut="0.0000000000000000e+00" cType="1" res="2.3574964143335819e-03" rms="4.1692468523979187e-01" purity="5.8325964212417603e-01" nType="-99"/>
          <Node pos="r" depth="2" NCoef="0" IVar="-1" Cut="0.0000000000000000e+00" cType="1" res="-1.5444910386577249e-03" rms="4.1871950030326843e-01" purity="4.6853023767471313e-01" nType="-99"/>
        </Node>
        <Node pos="r" depth="1" NCoef="0" IVar="-1" Cut="0.0000000000000000e+00" cType="1" res="-6.9480254314839840e-03" rms="4.4005078077316284e-01" purity="3.1978049874305725e-01" nType="-99"/>
      </Node>
    </BinaryTree>
    <BinaryTree type="DecisionTree" boostWeight="1.0000000000000000e+00" itree="218">
      <Node pos="s" depth="0" NCoef="0" IVar="8" Cut="2.3880953788757324e+00" cType="1" res="-1.5999279916286469e-02" rms="4.2757281661033630e-01" purity="4.9638482928276062e-01" nType="0">
        <Node pos="l" depth="1" NCoef="0" IVar="8" Cut="3.7857145071029663e-01" cType="1" res="-6.9165853783488274e-03" rms="4.2610907554626465e-01" purity="5.0762057304382324e-01" nType="0">
          <Node pos="l" depth="2" NCoef="0" IVar="-1" Cut="0.0000000000000000e+00" cType="1" res="8.3505368093028665e-04" rms="4.2371872067451477e-01" purity="5.4012084007263184e-01" nType="-99"/>
          <Node pos="r" depth="2" NCoef="0" IVar="-1" Cut="0.0000000000000000e+00" cType="1" res="-1.4585395110771060e-03" rms="4.2647838592529297e-01" purity="4.4373923540115356e-01" nType="-99"/>
        </Node>
        <Node pos="r" depth="1" NCoef="0" IVar="10" Cut="1.1427201032638550e+00" cType="1" res="-1.0306173563003540e-01" rms="4.3177041411399841e-01" purity="3.8868415355682373e-01" nType="0">
          <Node pos="l" depth="2" NCoef="0" IVar="-1" Cut="0.0000000000000000e+00" cType="1" res="-8.7105506099760532e-04" rms="4.0132796764373779e-01" purity="7.0013654232025146e-01" nType="-99"/>
          <Node pos="r" depth="2" NCoef="0" IVar="-1" Cut="0.0000000000000000e+00" cType="1" res="-4.1602947749197483e-03" rms="4.2741742730140686e-01" purity="3.0596250295639038e-01" nType="-99"/>
        </Node>
      </Node>
    </BinaryTree>
    <BinaryTree type="DecisionTree" boostWeight="1.0000000000000000e+00" itree="219">
      <Node pos="s" depth="0" NCoef="0" IVar="3" Cut="3.9047617912292480e+00" cType="1" res="-9.0774605050683022e-03" rms="4.1673198342323303e-01" purity="4.9299335479736328e-01" nType="0">
        <Node pos="l" depth="1" NCoef="0" IVar="18" Cut="6.1904764175415039e+00" cType="1" res="1.3727402314543724e-02" rms="4.0066909790039062e-01" purity="5.0229185819625854e-01" nType="0">
          <Node pos="l" depth="2" NCoef="0" IVar="-1" Cut="0.0000000000000000e+00" cType="1" res="1.7787296092137694e-03" rms="4.2962732911109924e-01" purity="6.1664932966232300e-01" nType="-99"/>
          <Node pos="r" depth="2" NCoef="0" IVar="-1" Cut="0.0000000000000000e+00" cType="1" res="-4.7664851881563663e-03" rms="2.4949637055397034e-01" purity="6.9681309163570404e-02" nType="-99"/>
        </Node>
        <Node pos="r" depth="1" NCoef="0" IVar="9" Cut="-2.8571429252624512e+00" cType="0" res="-6.8217575550079346e-02" rms="4.5040979981422424e-01" purity="4.6887934207916260e-01" nType="0">
          <Node pos="l" depth="2" NCoef="0" IVar="-1" Cut="0.0000000000000000e+00" cType="1" res="-7.9630390973761678e-04" rms="4.4768038392066956e-01" purity="4.8472931981086731e-01" nType="-99"/>
          <Node pos="r" depth="2" NCoef="0" IVar="-1" Cut="0.0000000000000000e+00" cType="1" res="-6.3952822238206863e-03" rms="4.4163084030151367e-01" purity="4.2168319225311279e-01" nType="-99"/>
        </Node>
      </Node>
    </BinaryTree>
    <BinaryTree type="DecisionTree" boostWeight="1.0000000000000000e+00" itree="220">
      <Node pos="s" depth="0" NCoef="0" IVar="20" Cut="1.4912144660949707e+01" cType="1" res="-1.0368824936449528e-02" rms="4.2286878824234009e-01" purity="4.9580106139183044e-01" nType="0">
        <Node pos="l" depth="1" NCoef="0" IVar="20" Cut="1.8588796854019165e+00" cType="0" res="3.0359210446476936e-02" rms="4.2127567529678345e-01" purity="5.6434363126754761e-01" nType="0">
          <Node pos="l" depth="2" NCoef="0" IVar="-1" Cut="0.0000000000000000e+00" cType="1" res="3.0715810135006905e-03" rms="4.2061832547187805e-01" purity="6.0304427146911621e-01" nType="-99"/>
          <Node pos="r" depth="2" NCoef="0" IVar="-1" Cut="0.0000000000000000e+00" cType="1" res="-6.3192499801516533e-03" rms="3.9041364192962646e-01" purity="3.3540582656860352e-01" nType="-99"/>
        </Node>
        <Node pos="r" depth="1" NCoef="0" IVar="3" Cut="3.2380952835083008e+00" cType="1" res="-3.7235539406538010e-02" rms="4.2176899313926697e-01" purity="4.5058614015579224e-01" nType="0">
          <Node pos="l" depth="2" NCoef="0" IVar="-1" Cut="0.0000000000000000e+00" cType="1" res="-2.3892246827017516e-04" rms="4.1480484604835510e-01" purity="4.6703219413757324e-01" nType="-99"/>
          <Node pos="r" depth="2" NCoef="0" IVar="-1" Cut="0.0000000000000000e+00" cType="1" res="-4.9378708936274052e-03" rms="4.3513232469558716e-01" purity="4.0106961131095886e-01" nType="-99"/>
        </Node>
      </Node>
    </BinaryTree>
    <BinaryTree type="DecisionTree" boostWeight="1.0000000000000000e+00" itree="221">
      <Node pos="s" depth="0" NCoef="0" IVar="3" Cut="5.8571429252624512e+00" cType="0" res="7.5578594987746328e-05" rms="4.2442253232002258e-01" purity="5.1600193977355957e-01" nType="0">
        <Node pos="l" depth="1" NCoef="0" IVar="21" Cut="1.3809523582458496e+00" cType="0" res="1.1306405067443848e-01" rms="4.1744771599769592e-01" purity="6.7008852958679199e-01" nType="0">
          <Node pos="l" depth="2" NCoef="0" IVar="-1" Cut="0.0000000000000000e+00" cType="1" res="2.3432234302163124e-03" rms="3.1156885623931885e-01" purity="7.9067075252532959e-01" nType="-99"/>
          <Node pos="r" depth="2" NCoef="0" IVar="-1" Cut="0.0000000000000000e+00" cType="1" res="1.5762121183797717e-03" rms="4.4346618652343750e-01" purity="5.9168684482574463e-01" nType="-99"/>
        </Node>
        <Node pos="r" depth="1" NCoef="0" IVar="10" Cut="3.3104176521301270e+00" cType="1" res="-4.8676268197596073e-03" rms="4.2403823137283325e-01" purity="5.0926071405410767e-01" nType="0">
          <Node pos="l" depth="2" NCoef="0" IVar="-1" Cut="0.0000000000000000e+00" cType="1" res="3.8797600427642465e-04" rms="4.2628324031829834e-01" purity="5.5272287130355835e-01" nType="-99"/>
          <Node pos="r" depth="2" NCoef="0" IVar="-1" Cut="0.0000000000000000e+00" cType="1" res="-3.8411109708249569e-03" rms="4.0615290403366089e-01" purity="2.6470899581909180e-01" nType="-99"/>
        </Node>
      </Node>
    </BinaryTree>
    <BinaryTree type="DecisionTree" boostWeight="1.0000000000000000e+00" itree="222">
      <Node pos="s" depth="0" NCoef="0" IVar="18" Cut="1.4285714626312256e+00" cType="1" res="-1.8959413282573223e-03" rms="4.1809180378913879e-01" purity="4.9963709712028503e-01" nType="0">
        <Node pos="l" depth="1" NCoef="0" IVar="10" Cut="1.3455569744110107e+00" cType="1" res="-1.0971168428659439e-01" rms="4.4862750172615051e-01" purity="6.0652905702590942e-01" nType="0">
          <Node pos="l" depth="2" NCoef="0" IVar="-1" Cut="0.0000000000000000e+00" cType="1" res="3.1692355405539274e-03" rms="3.8147529959678650e-01" purity="8.1831693649291992e-01" nType="-99"/>
          <Node pos="r" depth="2" NCoef="0" IVar="-1" Cut="0.0000000000000000e+00" cType="1" res="-9.1606723144650459e-03" rms="4.7102737426757812e-01" purity="4.6471524238586426e-01" nType="-99"/>
        </Node>
        <Node pos="r" depth="1" NCoef="0" IVar="15" Cut="1.8952381134033203e+01" cType="1" res="4.7901351936161518e-03" rms="4.1520348191261292e-01" purity="4.9300828576087952e-01" nType="0">
          <Node pos="l" depth="2" NCoef="0" IVar="-1" Cut="0.0000000000000000e+00" cType="1" res="6.1171315610408783e-04" rms="4.3956696987152100e-01" purity="5.7222658395767212e-01" nType="-99"/>
          <Node pos="r" depth="2" NCoef="0" IVar="-1" Cut="0.0000000000000000e+00" cType="1" res="-4.5520830899477005e-03" rms="2.3208552598953247e-01" purity="6.0964565724134445e-02" nType="-99"/>
        </Node>
      </Node>
    </BinaryTree>
    <BinaryTree type="DecisionTree" boostWeight="1.0000000000000000e+00" itree="223">
      <Node pos="s" depth="0" NCoef="0" IVar="8" Cut="4.8023810386657715e+00" cType="1" res="-1.8051321385428309e-03" rms="4.2110952734947205e-01" purity="5.0445663928985596e-01" nType="0">
        <Node pos="l" depth="1" NCoef="0" IVar="18" Cut="6.4285712242126465e+00" cType="1" res="4.7294162213802338e-03" rms="4.1742247343063354e-01" purity="5.0900411605834961e-01" nType="0">
          <Node pos="l" depth="2" NCoef="0" IVar="-1" Cut="0.0000000000000000e+00" cType="1" res="5.3136702626943588e-04" rms="4.4199874997138977e-01" purity="6.0499662160873413e-01" nType="-99"/>
          <Node pos="r" depth="2" NCoef="0" IVar="-1" Cut="0.0000000000000000e+00" cType="1" res="-3.6067767068743706e-03" rms="2.7906104922294617e-01" purity="8.7606228888034821e-02" nType="-99"/>
        </Node>
        <Node pos="r" depth="1" NCoef="0" IVar="4" Cut="1.2748072147369385e+00" cType="1" res="-1.6157007217407227e-01" rms="4.7576716542243958e-01" purity="3.9327475428581238e-01" nType="0">
          <Node pos="l" depth="2" NCoef="0" IVar="-1" Cut="0.0000000000000000e+00" cType="1" res="-1.1614398099482059e-03" rms="4.8341709375381470e-01" purity="4.5074656605720520e-01" nType="-99"/>
          <Node pos="r" depth="2" NCoef="0" IVar="-1" Cut="0.0000000000000000e+00" cType="1" res="-3.0044603627175093e-03" rms="4.6145710349082947e-01" purity="3.4921273589134216e-01" nType="-99"/>
        </Node>
      </Node>
    </BinaryTree>
    <BinaryTree type="DecisionTree" boostWeight="1.0000000000000000e+00" itree="224">
      <Node pos="s" depth="0" NCoef="0" IVar="18" Cut="1.2857142686843872e+00" cType="1" res="3.6677669268101454e-03" rms="4.2090308666229248e-01" purity="5.0635415315628052e-01" nType="0">
        <Node pos="l" depth="1" NCoef="0" IVar="9" Cut="-1.3976190090179443e+00" cType="1" res="-1.5808859467506409e-01" rms="4.7995945811271667e-01" purity="5.6645506620407104e-01" nType="0">
          <Node pos="l" depth="2" NCoef="0" IVar="-1" Cut="0.0000000000000000e+00" cType="1" res="1.0738566052168608e-03" rms="4.4057404994964600e-01" purity="7.6539349555969238e-01" nType="-99"/>
          <Node pos="r" depth="2" NCoef="0" IVar="-1" Cut="0.0000000000000000e+00" cType="1" res="-9.6880309283733368e-03" rms="4.7642949223518372e-01" purity="4.6097654104232788e-01" nType="-99"/>
        </Node>
        <Node pos="r" depth="1" NCoef="0" IVar="11" Cut="2.0974164009094238e+00" cType="1" res="1.4818289317190647e-02" rms="4.1420283913612366e-01" purity="5.0221109390258789e-01" nType="0">
          <Node pos="l" depth="2" NCoef="0" IVar="-1" Cut="0.0000000000000000e+00" cType="1" res="6.0398544883355498e-04" rms="4.1740092635154724e-01" purity="5.5620300769805908e-01" nType="-99"/>
          <Node pos="r" depth="2" NCoef="0" IVar="-1" Cut="0.0000000000000000e+00" cType="1" res="-2.6733137201517820e-03" rms="3.9123743772506714e-01" purity="2.5145575404167175e-01" nType="-99"/>
        </Node>
      </Node>
    </BinaryTree>
    <BinaryTree type="DecisionTree" boostWeight="1.0000000000000000e+00" itree="225">
      <Node pos="s" depth="0" NCoef="0" IVar="9" Cut="-1.1428571701049805e+01" cType="1" res="2.3326305672526360e-03" rms="4.1742303967475891e-01" purity="5.0938922166824341e-01" nType="0">
        <Node pos="l" depth="1" NCoef="0" IVar="-1" Cut="0.0000000000000000e+00" cType="1" res="9.5145162194967270e-03" rms="2.2417278587818146e-01" purity="9.6194261312484741e-01" nType="-99"/>
        <Node pos="r" depth="1" NCoef="0" IVar="9" Cut="-6.5142860412597656e+00" cType="0" res="-2.6726992800831795e-03" rms="4.1951060295104980e-01" purity="4.9895474314689636e-01" nType="0">
          <Node pos="l" depth="2" NCoef="0" IVar="-1" Cut="0.0000000000000000e+00" cType="1" res="-7.3595670983195305e-05" rms="4.1813874244689941e-01" purity="4.9991217255592346e-01" nType="-99"/>
          <Node pos="r" depth="2" NCoef="0" IVar="-1" Cut="0.0000000000000000e+00" cType="1" res="-9.0420544147491455e-03" rms="4.2850887775421143e-01" purity="4.7500610351562500e-01" nType="-99"/>
        </Node>
      </Node>
    </BinaryTree>
    <BinaryTree type="DecisionTree" boostWeight="1.0000000000000000e+00" itree="226">
      <Node pos="s" depth="0" NCoef="0" IVar="0" Cut="1.3362091779708862e+00" cType="1" res="-1.0120283812284470e-02" rms="4.2268410325050354e-01" purity="4.9292254447937012e-01" nType="0">
        <Node pos="l" depth="1" NCoef="0" IVar="18" Cut="3.4285714626312256e+00" cType="1" res="-4.3402928858995438e-02" rms="4.2963847517967224e-01" purity="5.5985975265502930e-01" nType="0">
          <Node pos="l" depth="2" NCoef="0" IVar="-1" Cut="0.0000000000000000e+00" cType="1" res="2.5892455596476793e-03" rms="3.5597163438796997e-01" purity="8.2502508163452148e-01" nType="-99"/>
          <Node pos="r" depth="2" NCoef="0" IVar="-1" Cut="0.0000000000000000e+00" cType="1" res="-2.2832110989838839e-03" rms="4.5461043715476990e-01" purity="4.3900352716445923e-01" nType="-99"/>
        </Node>
        <Node pos="r" depth="1" NCoef="0" IVar="5" Cut="1.9202611446380615e+00" cType="1" res="1.6825344413518906e-02" rms="4.1501823067665100e-01" purity="4.3873015046119690e-01" nType="0">
          <Node pos="l" depth="2" NCoef="0" IVar="-1" Cut="0.0000000000000000e+00" cType="1" res="2.3395942989736795e-03" rms="4.1616055369377136e-01" purity="6.4585137367248535e-01" nType="-99"/>
          <Node pos="r" depth="2" NCoef="0" IVar="-1" Cut="0.0000000000000000e+00" cType="1" res="-7.5935199856758118e-04" rms="4.1136449575424194e-01" purity="2.8405556082725525e-01" nType="-99"/>
        </Node>
      </Node>
    </BinaryTree>
    <BinaryTree type="DecisionTree" boostWeight="1.0000000000000000e+00" itree="227">
      <Node pos="s" depth="0" NCoef="0" IVar="9" Cut="-1.1428571701049805e+01" cType="1" res="-5.7590212672948837e-03" rms="4.1915374994277954e-01" purity="4.9907609820365906e-01" nType="0">
        <Node pos="l" depth="1" NCoef="0" IVar="-1" Cut="0.0000000000000000e+00" cType="1" res="9.0089421719312668e-03" rms="2.8801900148391724e-01" purity="8.8944506645202637e-01" nType="-99"/>
        <Node pos="r" depth="1" NCoef="0" IVar="9" Cut="-5.4047620296478271e-01" cType="1" res="-9.8164351657032967e-03" rms="4.2085936665534973e-01" purity="4.8999634385108948e-01" nType="0">
          <Node pos="l" depth="2" NCoef="0" IVar="-1" Cut="0.0000000000000000e+00" cType="1" res="-2.0892256870865822e-03" rms="4.3936714529991150e-01" purity="4.9135199189186096e-01" nType="-99"/>
          <Node pos="r" depth="2" NCoef="0" IVar="-1" Cut="0.0000000000000000e+00" cType="1" res="5.5931683164089918e-04" rms="4.0644145011901855e-01" purity="4.8918017745018005e-01" nType="-99"/>
        </Node>
      </Node>
    </BinaryTree>
    <BinaryTree type="DecisionTree" boostWeight="1.0000000000000000e+00" itree="228">
      <Node pos="s" depth="0" NCoef="0" IVar="9" Cut="-1.2857142448425293e+01" cType="1" res="-1.5717791393399239e-03" rms="4.1864639520645142e-01" purity="5.0409930944442749e-01" nType="0">
        <Node pos="l" depth="1" NCoef="0" IVar="-1" Cut="0.0000000000000000e+00" cType="1" res="8.2757007330656052e-03" rms="2.9272985458374023e-01" purity="9.5206087827682495e-01" nType="-99"/>
        <Node pos="r" depth="1" NCoef="0" IVar="7" Cut="-6.9452381134033203e+00" cType="0" res="-5.3526409901678562e-03" rms="4.1963571310043335e-01" purity="4.9595040082931519e-01" nType="0">
          <Node pos="l" depth="2" NCoef="0" IVar="-1" Cut="0.0000000000000000e+00" cType="1" res="-6.6173852246720344e-05" rms="4.1954508423805237e-01" purity="4.9660259485244751e-01" nType="-99"/>
          <Node pos="r" depth="2" NCoef="0" IVar="-1" Cut="0.0000000000000000e+00" cType="1" res="-9.7596198320388794e-03" rms="3.9767324924468994e-01" purity="4.7704783082008362e-01" nType="-99"/>
        </Node>
      </Node>
    </BinaryTree>
    <BinaryTree type="DecisionTree" boostWeight="1.0000000000000000e+00" itree="229">
      <Node pos="s" depth="0" NCoef="0" IVar="21" Cut="4.2380952835083008e+00" cType="1" res="-1.7544784350320697e-03" rms="4.1797292232513428e-01" purity="5.0546872615814209e-01" nType="0">
        <Node pos="l" depth="1" NCoef="0" IVar="4" Cut="1.7757135629653931e+00" cType="1" res="-3.0555455014109612e-02" rms="4.1649371385574341e-01" purity="5.5327528715133667e-01" nType="0">
          <Node pos="l" depth="2" NCoef="0" IVar="-1" Cut="0.0000000000000000e+00" cType="1" res="-3.0381965916603804e-04" rms="3.9796710014343262e-01" purity="7.5735801458358765e-01" nType="-99"/>
          <Node pos="r" depth="2" NCoef="0" IVar="-1" Cut="0.0000000000000000e+00" cType="1" res="-1.7674773698672652e-03" rms="4.3037348985671997e-01" purity="3.3114767074584961e-01" nType="-99"/>
        </Node>
        <Node pos="r" depth="1" NCoef="0" IVar="15" Cut="1.8571428298950195e+01" cType="1" res="4.6391706913709641e-02" rms="4.1600495576858521e-01" purity="4.2555120587348938e-01" nType="0">
          <Node pos="l" depth="2" NCoef="0" IVar="-1" Cut="0.0000000000000000e+00" cType="1" res="3.1709242612123489e-03" rms="4.7209477424621582e-01" purity="6.1265844106674194e-01" nType="-99"/>
          <Node pos="r" depth="2" NCoef="0" IVar="-1" Cut="0.0000000000000000e+00" cType="1" res="-4.4441027566790581e-03" rms="2.5618287920951843e-01" purity="7.4151918292045593e-02" nType="-99"/>
        </Node>
      </Node>
    </BinaryTree>
    <BinaryTree type="DecisionTree" boostWeight="1.0000000000000000e+00" itree="230">
      <Node pos="s" depth="0" NCoef="0" IVar="5" Cut="1.3173946142196655e+00" cType="1" res="-1.2243147008121014e-02" rms="4.1592290997505188e-01" purity="4.8986697196960449e-01" nType="0">
        <Node pos="l" depth="1" NCoef="0" IVar="0" Cut="8.8144737482070923e-01" cType="0" res="3.2804511487483978e-02" rms="3.9876133203506470e-01" purity="7.1899926662445068e-01" nType="0">
          <Node pos="l" depth="2" NCoef="0" IVar="-1" Cut="0.0000000000000000e+00" cType="1" res="3.5834943410009146e-03" rms="3.5211929678916931e-01" purity="7.6450061798095703e-01" nType="-99"/>
          <Node pos="r" depth="2" NCoef="0" IVar="-1" Cut="0.0000000000000000e+00" cType="1" res="-1.4703131746500731e-03" rms="4.3836250901222229e-01" purity="6.6737484931945801e-01" nType="-99"/>
        </Node>
        <Node pos="r" depth="1" NCoef="0" IVar="21" Cut="4.2380952835083008e+00" cType="1" res="-3.3903948962688446e-02" rms="4.2221996188163757e-01" purity="3.7969055771827698e-01" nType="0">
          <Node pos="l" depth="2" NCoef="0" IVar="-1" Cut="0.0000000000000000e+00" cType="1" res="-2.6908644940704107e-03" rms="4.3039721250534058e-01" purity="4.0551540255546570e-01" nType="-99"/>
          <Node pos="r" depth="2" NCoef="0" IVar="-1" Cut="0.0000000000000000e+00" cType="1" res="1.5339757082983851e-03" rms="4.1049572825431824e-01" purity="3.5163646936416626e-01" nType="-99"/>
        </Node>
      </Node>
    </BinaryTree>
    <BinaryTree type="DecisionTree" boostWeight="1.0000000000000000e+00" itree="231">
      <Node pos="s" depth="0" NCoef="0" IVar="12" Cut="1.4285714924335480e-01" cType="1" res="6.5178424119949341e-03" rms="4.2176452279090881e-01" purity="5.1491367816925049e-01" nType="0">
        <Node pos="l" depth="1" NCoef="0" IVar="15" Cut="9.0000000000000000e+00" cType="1" res="-5.2075423300266266e-02" rms="4.0374091267585754e-01" purity="5.7156664133071899e-01" nType="0">
          <Node pos="l" depth="2" NCoef="0" IVar="-1" Cut="0.0000000000000000e+00" cType="1" res="-2.1692698355764151e-03" rms="3.9934524893760681e-01" purity="6.1405694484710693e-01" nType="-99"/>
          <Node pos="r" depth="2" NCoef="0" IVar="-1" Cut="0.0000000000000000e+00" cType="1" res="-8.6621036753058434e-03" rms="3.9133736491203308e-01" purity="1.8370974063873291e-01" nType="-99"/>
        </Node>
        <Node pos="r" depth="1" NCoef="0" IVar="20" Cut="4.1526027679443359e+01" cType="0" res="2.1689463406801224e-02" rms="4.2499259114265442e-01" purity="5.0024449825286865e-01" nType="0">
          <Node pos="l" depth="2" NCoef="0" IVar="-1" Cut="0.0000000000000000e+00" cType="1" res="2.5632283650338650e-03" rms="4.0099969506263733e-01" purity="5.9927564859390259e-01" nType="-99"/>
          <Node pos="r" depth="2" NCoef="0" IVar="-1" Cut="0.0000000000000000e+00" cType="1" res="-6.2472834542859346e-05" rms="4.2692732810974121e-01" purity="4.8736089468002319e-01" nType="-99"/>
        </Node>
      </Node>
    </BinaryTree>
    <BinaryTree type="DecisionTree" boostWeight="1.0000000000000000e+00" itree="232">
      <Node pos="s" depth="0" NCoef="0" IVar="7" Cut="3.5571424961090088e+00" cType="1" res="-9.1005126014351845e-03" rms="4.1931411623954773e-01" purity="4.9099761247634888e-01" nType="0">
        <Node pos="l" depth="1" NCoef="0" IVar="20" Cut="7.1492652893066406e+01" cType="1" res="-2.4803427513688803e-03" rms="4.1673886775970459e-01" purity="4.9817103147506714e-01" nType="0">
          <Node pos="l" depth="2" NCoef="0" IVar="-1" Cut="0.0000000000000000e+00" cType="1" res="8.9499946625437587e-05" rms="4.1641399264335632e-01" purity="5.0489640235900879e-01" nType="-99"/>
          <Node pos="r" depth="2" NCoef="0" IVar="-1" Cut="0.0000000000000000e+00" cType="1" res="-4.6872114762663841e-03" rms="3.9940017461776733e-01" purity="3.0775338411331177e-01" nType="-99"/>
        </Node>
        <Node pos="r" depth="1" NCoef="0" IVar="-1" Cut="0.0000000000000000e+00" cType="1" res="-5.2828080952167511e-03" rms="4.4842624664306641e-01" purity="3.0673545598983765e-01" nType="-99"/>
      </Node>
    </BinaryTree>
    <BinaryTree type="DecisionTree" boostWeight="1.0000000000000000e+00" itree="233">
      <Node pos="s" depth="0" NCoef="0" IVar="18" Cut="5.2380952835083008e+00" cType="1" res="6.8186623975634575e-03" rms="4.1348138451576233e-01" purity="5.0730055570602417e-01" nType="0">
        <Node pos="l" depth="1" NCoef="0" IVar="7" Cut="2.6785714626312256e+00" cType="1" res="3.9178311824798584e-02" rms="4.0998092293739319e-01" purity="6.8132746219635010e-01" nType="0">
          <Node pos="l" depth="2" NCoef="0" IVar="-1" Cut="0.0000000000000000e+00" cType="1" res="1.6066414536908269e-03" rms="4.0467259287834167e-01" purity="6.9454866647720337e-01" nType="-99"/>
          <Node pos="r" depth="2" NCoef="0" IVar="-1" Cut="0.0000000000000000e+00" cType="1" res="-4.9245557747781277e-03" rms="4.6230879426002502e-01" purity="4.9583759903907776e-01" nType="-99"/>
        </Node>
        <Node pos="r" depth="1" NCoef="0" IVar="16" Cut="1.0090228915214539e-01" cType="1" res="-2.6624545454978943e-02" rms="4.1442152857780457e-01" purity="3.2744643092155457e-01" nType="0">
          <Node pos="l" depth="2" NCoef="0" IVar="-1" Cut="0.0000000000000000e+00" cType="1" res="-3.6142376484349370e-04" rms="4.1058784723281860e-01" purity="3.3834207057952881e-01" nType="-99"/>
          <Node pos="r" depth="2" NCoef="0" IVar="-1" Cut="0.0000000000000000e+00" cType="1" res="-6.9959810934960842e-03" rms="4.2050161957740784e-01" purity="2.5296613574028015e-01" nType="-99"/>
        </Node>
      </Node>
    </BinaryTree>
    <BinaryTree type="DecisionTree" boostWeight="1.0000000000000000e+00" itree="234">
      <Node pos="s" depth="0" NCoef="0" IVar="8" Cut="4.8023810386657715e+00" cType="1" res="-2.2027334198355675e-03" rms="4.2202639579772949e-01" purity="5.0753992795944214e-01" nType="0">
        <Node pos="l" depth="1" NCoef="0" IVar="18" Cut="6.1904764175415039e+00" cType="1" res="2.7372960466891527e-03" rms="4.1910612583160400e-01" purity="5.1118636131286621e-01" nType="0">
          <Node pos="l" depth="2" NCoef="0" IVar="-1" Cut="0.0000000000000000e+00" cType="1" res="5.2789226174354553e-04" rms="4.4270098209381104e-01" purity="5.9948766231536865e-01" nType="-99"/>
          <Node pos="r" depth="2" NCoef="0" IVar="-1" Cut="0.0000000000000000e+00" cType="1" res="-3.4871189855039120e-03" rms="2.7077797055244446e-01" purity="8.2729808986186981e-02" nType="-99"/>
        </Node>
        <Node pos="r" depth="1" NCoef="0" IVar="10" Cut="1.7314144372940063e+00" cType="0" res="-1.2774945795536041e-01" rms="4.7344505786895752e-01" purity="4.1486853361129761e-01" nType="0">
          <Node pos="l" depth="2" NCoef="0" IVar="-1" Cut="0.0000000000000000e+00" cType="1" res="-2.8918860480189323e-03" rms="4.9103692173957825e-01" purity="4.2228123545646667e-01" nType="-99"/>
          <Node pos="r" depth="2" NCoef="0" IVar="-1" Cut="0.0000000000000000e+00" cType="1" res="-9.5789664192125201e-04" rms="4.4841900467872620e-01" purity="4.0726312994956970e-01" nType="-99"/>
        </Node>
      </Node>
    </BinaryTree>
    <BinaryTree type="DecisionTree" boostWeight="1.0000000000000000e+00" itree="235">
      <Node pos="s" depth="0" NCoef="0" IVar="20" Cut="1.0373162269592285e+01" cType="1" res="1.2116496451199055e-02" rms="4.2026761174201965e-01" purity="5.2131474018096924e-01" nType="0">
        <Node pos="l" depth="1" NCoef="0" IVar="12" Cut="1.1428571939468384e+00" cType="1" res="5.6446332484483719e-02" rms="4.2360064387321472e-01" purity="5.9485602378845215e-01" nType="0">
          <Node pos="l" depth="2" NCoef="0" IVar="-1" Cut="0.0000000000000000e+00" cType="1" res="-3.2743008341640234e-03" rms="3.9115071296691895e-01" purity="6.4607298374176025e-01" nType="-99"/>
          <Node pos="r" depth="2" NCoef="0" IVar="-1" Cut="0.0000000000000000e+00" cType="1" res="2.4314795155078173e-03" rms="4.3328261375427246e-01" purity="5.6718075275421143e-01" nType="-99"/>
        </Node>
        <Node pos="r" depth="1" NCoef="0" IVar="18" Cut="3.2857143878936768e+00" cType="1" res="-4.4731060042977333e-03" rms="4.1780576109886169e-01" purity="4.9379330873489380e-01" nType="0">
          <Node pos="l" depth="2" NCoef="0" IVar="-1" Cut="0.0000000000000000e+00" cType="1" res="6.0313255526125431e-03" rms="3.4306836128234863e-01" purity="7.9564756155014038e-01" nType="-99"/>
          <Node pos="r" depth="2" NCoef="0" IVar="-1" Cut="0.0000000000000000e+00" cType="1" res="-1.6696420498192310e-03" rms="4.3591266870498657e-01" purity="4.0191480517387390e-01" nType="-99"/>
        </Node>
      </Node>
    </BinaryTree>
    <BinaryTree type="DecisionTree" boostWeight="1.0000000000000000e+00" itree="236">
      <Node pos="s" depth="0" NCoef="0" IVar="7" Cut="-5.2166657447814941e+00" cType="1" res="-2.9317188818822615e-06" rms="4.1948488354682922e-01" purity="4.9945467710494995e-01" nType="0">
        <Node pos="l" depth="1" NCoef="0" IVar="7" Cut="-8.7857141494750977e+00" cType="1" res="-1.1956188082695007e-01" rms="4.3952682614326477e-01" purity="5.4511249065399170e-01" nType="0">
          <Node pos="l" depth="2" NCoef="0" IVar="-1" Cut="0.0000000000000000e+00" cType="1" res="2.4527229834347963e-03" rms="4.0309506654739380e-01" purity="7.8118878602981567e-01" nType="-99"/>
          <Node pos="r" depth="2" NCoef="0" IVar="-1" Cut="0.0000000000000000e+00" cType="1" res="-7.1618054062128067e-03" rms="4.3345960974693298e-01" purity="3.8493371009826660e-01" nType="-99"/>
        </Node>
        <Node pos="r" depth="1" NCoef="0" IVar="8" Cut="2.2619047164916992e+00" cType="1" res="8.4941033273935318e-03" rms="4.1672044992446899e-01" purity="4.9620977044105530e-01" nType="0">
          <Node pos="l" depth="2" NCoef="0" IVar="-1" Cut="0.0000000000000000e+00" cType="1" res="3.1964518711902201e-04" rms="4.1173881292343140e-01" purity="5.0658881664276123e-01" nType="-99"/>
          <Node pos="r" depth="2" NCoef="0" IVar="-1" Cut="0.0000000000000000e+00" cType="1" res="-3.3735118340700865e-03" rms="4.5105776190757751e-01" purity="3.9784672856330872e-01" nType="-99"/>
        </Node>
      </Node>
    </BinaryTree>
    <BinaryTree type="DecisionTree" boostWeight="1.0000000000000000e+00" itree="237">
      <Node pos="s" depth="0" NCoef="0" IVar="9" Cut="-7.1428570747375488e+00" cType="1" res="-1.4140779152512550e-02" rms="4.2259407043457031e-01" purity="4.9280434846878052e-01" nType="0">
        <Node pos="l" depth="1" NCoef="0" IVar="17" Cut="2.4540893554687500e+01" cType="1" res="-1.4440894126892090e-01" rms="4.7319412231445312e-01" purity="5.4477083683013916e-01" nType="0">
          <Node pos="l" depth="2" NCoef="0" IVar="-1" Cut="0.0000000000000000e+00" cType="1" res="-4.9854409880936146e-03" rms="4.5088225603103638e-01" purity="6.8011659383773804e-01" nType="-99"/>
          <Node pos="r" depth="2" NCoef="0" IVar="-1" Cut="0.0000000000000000e+00" cType="1" res="-3.1938040629029274e-03" rms="4.6471989154815674e-01" purity="4.7002497315406799e-01" nType="-99"/>
        </Node>
        <Node pos="r" depth="1" NCoef="0" IVar="9" Cut="-3.0428571701049805e+00" cType="1" res="-5.9689353220164776e-03" rms="4.1786482930183411e-01" purity="4.8954445123672485e-01" nType="0">
          <Node pos="l" depth="2" NCoef="0" IVar="-1" Cut="0.0000000000000000e+00" cType="1" res="2.3964268621057272e-03" rms="3.6362180113792419e-01" purity="7.1766287088394165e-01" nType="-99"/>
          <Node pos="r" depth="2" NCoef="0" IVar="-1" Cut="0.0000000000000000e+00" cType="1" res="-2.5919187464751303e-04" rms="4.2026805877685547e-01" purity="4.7415068745613098e-01" nType="-99"/>
        </Node>
      </Node>
    </BinaryTree>
    <BinaryTree type="DecisionTree" boostWeight="1.0000000000000000e+00" itree="238">
      <Node pos="s" depth="0" NCoef="0" IVar="5" Cut="1.7565259933471680e+00" cType="1" res="3.2914609182626009e-03" rms="4.1520413756370544e-01" purity="5.0465047359466553e-01" nType="0">
        <Node pos="l" depth="1" NCoef="0" IVar="0" Cut="1.4211452007293701e+00" cType="0" res="3.6346789449453354e-02" rms="4.2089110612869263e-01" purity="7.0653927326202393e-01" nType="0">
          <Node pos="l" depth="2" NCoef="0" IVar="-1" Cut="0.0000000000000000e+00" cType="1" res="4.8592146486043930e-03" rms="4.1201511025428772e-01" purity="7.3850542306900024e-01" nType="-99"/>
          <Node pos="r" depth="2" NCoef="0" IVar="-1" Cut="0.0000000000000000e+00" cType="1" res="-1.2444857275113463e-03" rms="4.2210537195205688e-01" purity="6.9436842203140259e-01" nType="-99"/>
        </Node>
        <Node pos="r" depth="1" NCoef="0" IVar="12" Cut="1.4285714924335480e-01" cType="0" res="-3.0424218624830246e-02" rms="4.0656289458274841e-01" purity="2.9872843623161316e-01" nType="0">
          <Node pos="l" depth="2" NCoef="0" IVar="-1" Cut="0.0000000000000000e+00" cType="1" res="6.3350860727950931e-05" rms="4.1462013125419617e-01" purity="3.2143625617027283e-01" nType="-99"/>
          <Node pos="r" depth="2" NCoef="0" IVar="-1" Cut="0.0000000000000000e+00" cType="1" res="-5.6420532055199146e-03" rms="3.3746349811553955e-01" purity="1.7308039963245392e-01" nType="-99"/>
        </Node>
      </Node>
    </BinaryTree>
    <BinaryTree type="DecisionTree" boostWeight="1.0000000000000000e+00" itree="239">
      <Node pos="s" depth="0" NCoef="0" IVar="20" Cut="7.3032043457031250e+01" cType="1" res="-6.3706364016979933e-04" rms="4.2568150162696838e-01" purity="5.0759780406951904e-01" nType="0">
        <Node pos="l" depth="1" NCoef="0" IVar="0" Cut="4.4540303945541382e-01" cType="1" res="5.0187385641038418e-03" rms="4.2634281516075134e-01" purity="5.1586252450942993e-01" nType="0">
          <Node pos="l" depth="2" NCoef="0" IVar="-1" Cut="0.0000000000000000e+00" cType="1" res="-4.0713259950280190e-03" rms="4.7613793611526489e-01" purity="5.2668750286102295e-01" nType="-99"/>
          <Node pos="r" depth="2" NCoef="0" IVar="-1" Cut="0.0000000000000000e+00" cType="1" res="2.3303405032493174e-04" rms="4.2110121250152588e-01" purity="5.1504415273666382e-01" nType="-99"/>
        </Node>
        <Node pos="r" depth="1" NCoef="0" IVar="-1" Cut="0.0000000000000000e+00" cType="1" res="-7.4146296828985214e-03" rms="3.6576455831527710e-01" purity="2.5714358687400818e-01" nType="-99"/>
      </Node>
    </BinaryTree>
    <BinaryTree type="DecisionTree" boostWeight="1.0000000000000000e+00" itree="240">
      <Node pos="s" depth="0" NCoef="0" IVar="20" Cut="2.4560720920562744e+00" cType="0" res="-1.2614818289875984e-02" rms="4.2406895756721497e-01" purity="4.8956012725830078e-01" nType="0">
        <Node pos="l" depth="1" NCoef="0" IVar="20" Cut="1.3739395141601562e+01" cType="1" res="-4.4058887287974358e-03" rms="4.2273634672164917e-01" purity="4.9783369898796082e-01" nType="0">
          <Node pos="l" depth="2" NCoef="0" IVar="-1" Cut="0.0000000000000000e+00" cType="1" res="4.1556628420948982e-03" rms="4.1714397072792053e-01" purity="5.8379983901977539e-01" nType="-99"/>
          <Node pos="r" depth="2" NCoef="0" IVar="-1" Cut="0.0000000000000000e+00" cType="1" res="-1.6385760391131043e-03" rms="4.2310255765914917e-01" purity="4.5548200607299805e-01" nType="-99"/>
        </Node>
        <Node pos="r" depth="1" NCoef="0" IVar="0" Cut="9.1643267869949341e-01" cType="0" res="-1.0490918159484863e-01" rms="4.2807245254516602e-01" purity="3.9653909206390381e-01" nType="0">
          <Node pos="l" depth="2" NCoef="0" IVar="-1" Cut="0.0000000000000000e+00" cType="1" res="-5.4001470562070608e-04" rms="4.0379166603088379e-01" purity="4.4450420141220093e-01" nType="-99"/>
          <Node pos="r" depth="2" NCoef="0" IVar="-1" Cut="0.0000000000000000e+00" cType="1" res="-1.2055117636919022e-02" rms="4.1982623934745789e-01" purity="2.8479042649269104e-01" nType="-99"/>
        </Node>
      </Node>
    </BinaryTree>
    <BinaryTree type="DecisionTree" boostWeight="1.0000000000000000e+00" itree="241">
      <Node pos="s" depth="0" NCoef="0" IVar="7" Cut="-4.5833334922790527e+00" cType="1" res="-2.4108979851007462e-02" rms="4.2275074124336243e-01" purity="4.8132607340812683e-01" nType="0">
        <Node pos="l" depth="1" NCoef="0" IVar="7" Cut="-1.0647619247436523e+01" cType="1" res="-1.5388521552085876e-01" rms="4.5244210958480835e-01" purity="5.2952128648757935e-01" nType="0">
          <Node pos="l" depth="2" NCoef="0" IVar="-1" Cut="0.0000000000000000e+00" cType="1" res="9.3944761902093887e-03" rms="2.0597819983959198e-01" purity="9.5206087827682495e-01" nType="-99"/>
          <Node pos="r" depth="2" NCoef="0" IVar="-1" Cut="0.0000000000000000e+00" cType="1" res="-5.0195138901472092e-03" rms="4.6285802125930786e-01" purity="4.1166600584983826e-01" nType="-99"/>
        </Node>
        <Node pos="r" depth="1" NCoef="0" IVar="10" Cut="1.7435643672943115e+00" cType="1" res="-1.3222489506006241e-02" rms="4.1833838820457458e-01" purity="4.7728314995765686e-01" nType="0">
          <Node pos="l" depth="2" NCoef="0" IVar="-1" Cut="0.0000000000000000e+00" cType="1" res="1.7428699648007751e-03" rms="4.0883234143257141e-01" purity="6.4448755979537964e-01" nType="-99"/>
          <Node pos="r" depth="2" NCoef="0" IVar="-1" Cut="0.0000000000000000e+00" cType="1" res="-9.5984485233202577e-04" rms="4.2259356379508972e-01" purity="3.7484011054039001e-01" nType="-99"/>
        </Node>
      </Node>
    </BinaryTree>
    <BinaryTree type="DecisionTree" boostWeight="1.0000000000000000e+00" itree="242">
      <Node pos="s" depth="0" NCoef="0" IVar="12" Cut="2.1428570747375488e+00" cType="1" res="3.7177766207605600e-03" rms="4.1133001446723938e-01" purity="4.9812215566635132e-01" nType="0">
        <Node pos="l" depth="1" NCoef="0" IVar="18" Cut="6.4285712242126465e+00" cType="1" res="1.9678426906466484e-02" rms="4.0185165405273438e-01" purity="5.1530069112777710e-01" nType="0">
          <Node pos="l" depth="2" NCoef="0" IVar="-1" Cut="0.0000000000000000e+00" cType="1" res="1.3866575900465250e-03" rms="4.3137210607528687e-01" purity="6.4340990781784058e-01" nType="-99"/>
          <Node pos="r" depth="2" NCoef="0" IVar="-1" Cut="0.0000000000000000e+00" cType="1" res="-3.5717531573027372e-03" rms="2.6414766907691956e-01" purity="7.8250646591186523e-02" nType="-99"/>
        </Node>
        <Node pos="r" depth="1" NCoef="0" IVar="20" Cut="3.1896326065063477e+01" cType="1" res="-6.5696798264980316e-02" rms="4.4360730051994324e-01" purity="4.2341101169586182e-01" nType="0">
          <Node pos="l" depth="2" NCoef="0" IVar="-1" Cut="0.0000000000000000e+00" cType="1" res="-1.9796164706349373e-03" rms="4.3889153003692627e-01" purity="4.5970419049263000e-01" nType="-99"/>
          <Node pos="r" depth="2" NCoef="0" IVar="-1" Cut="0.0000000000000000e+00" cType="1" res="-4.8436098732054234e-03" rms="4.3587419390678406e-01" purity="3.1862151622772217e-01" nType="-99"/>
        </Node>
      </Node>
    </BinaryTree>
    <BinaryTree type="DecisionTree" boostWeight="1.0000000000000000e+00" itree="243">
      <Node pos="s" depth="0" NCoef="0" IVar="10" Cut="2.1584119796752930e+00" cType="1" res="3.4928694367408752e-03" rms="4.1294172406196594e-01" purity="5.0205725431442261e-01" nType="0">
        <Node pos="l" depth="1" NCoef="0" IVar="7" Cut="-1.7142885923385620e-01" cType="1" res="2.9955752193927765e-02" rms="4.0411302447319031e-01" purity="6.2669008970260620e-01" nType="0">
          <Node pos="l" depth="2" NCoef="0" IVar="-1" Cut="0.0000000000000000e+00" cType="1" res="3.6920488346368074e-03" rms="3.7371462583541870e-01" purity="7.1005064249038696e-01" nType="-99"/>
          <Node pos="r" depth="2" NCoef="0" IVar="-1" Cut="0.0000000000000000e+00" cType="1" res="-9.6693540399428457e-05" rms="4.1900172829627991e-01" purity="5.7336002588272095e-01" nType="-99"/>
        </Node>
        <Node pos="r" depth="1" NCoef="0" IVar="0" Cut="2.9366147518157959e+00" cType="1" res="-2.6719903573393822e-02" rms="4.2076626420021057e-01" purity="3.5976344347000122e-01" nType="0">
          <Node pos="l" depth="2" NCoef="0" IVar="-1" Cut="0.0000000000000000e+00" cType="1" res="-1.0710640344768763e-03" rms="4.4325664639472961e-01" purity="4.1530302166938782e-01" nType="-99"/>
          <Node pos="r" depth="2" NCoef="0" IVar="-1" Cut="0.0000000000000000e+00" cType="1" res="-4.2865108698606491e-03" rms="2.9387021064758301e-01" purity="1.1131457984447479e-01" nType="-99"/>
        </Node>
      </Node>
    </BinaryTree>
    <BinaryTree type="DecisionTree" boostWeight="1.0000000000000000e+00" itree="244">
      <Node pos="s" depth="0" NCoef="0" IVar="5" Cut="8.7870955467224121e-01" cType="1" res="-1.8037870526313782e-02" rms="4.1457960009574890e-01" purity="4.8272147774696350e-01" nType="0">
        <Node pos="l" depth="1" NCoef="0" IVar="18" Cut="5.3333334922790527e+00" cType="1" res="9.9945738911628723e-02" rms="3.0935049057006836e-01" purity="8.4670126438140869e-01" nType="0">
          <Node pos="l" depth="2" NCoef="0" IVar="-1" Cut="0.0000000000000000e+00" cType="1" res="1.4086512848734856e-02" rms="2.3018248379230499e-01" purity="9.3900108337402344e-01" nType="-99"/>
          <Node pos="r" depth="2" NCoef="0" IVar="-1" Cut="0.0000000000000000e+00" cType="1" res="-4.2311558499932289e-03" rms="4.7509062290191650e-01" purity="5.0898903608322144e-01" nType="-99"/>
        </Node>
        <Node pos="r" depth="1" NCoef="0" IVar="0" Cut="1.1346575021743774e+00" cType="1" res="-2.9535524547100067e-02" rms="4.2167666554450989e-01" purity="4.4725117087364197e-01" nType="0">
          <Node pos="l" depth="2" NCoef="0" IVar="-1" Cut="0.0000000000000000e+00" cType="1" res="-2.5582876987755299e-03" rms="4.4999080896377563e-01" purity="4.7315266728401184e-01" nType="-99"/>
          <Node pos="r" depth="2" NCoef="0" IVar="-1" Cut="0.0000000000000000e+00" cType="1" res="1.2370813055895269e-04" rms="4.0655508637428284e-01" purity="4.3663844466209412e-01" nType="-99"/>
        </Node>
      </Node>
    </BinaryTree>
    <BinaryTree type="DecisionTree" boostWeight="1.0000000000000000e+00" itree="245">
      <Node pos="s" depth="0" NCoef="0" IVar="18" Cut="5.2380952835083008e+00" cType="1" res="1.3464998453855515e-02" rms="4.1408392786979675e-01" purity="5.1674646139144897e-01" nType="0">
        <Node pos="l" depth="1" NCoef="0" IVar="15" Cut="1.4142857551574707e+01" cType="0" res="4.5384045690298080e-02" rms="4.0332117676734924e-01" purity="6.9114750623703003e-01" nType="0">
          <Node pos="l" depth="2" NCoef="0" IVar="-1" Cut="0.0000000000000000e+00" cType="1" res="6.6685625351965427e-03" rms="4.3458402156829834e-01" purity="7.4723672866821289e-01" nType="-99"/>
          <Node pos="r" depth="2" NCoef="0" IVar="-1" Cut="0.0000000000000000e+00" cType="1" res="-3.1489013053942472e-05" rms="3.9552700519561768e-01" purity="6.8333989381790161e-01" nType="-99"/>
        </Node>
        <Node pos="r" depth="1" NCoef="0" IVar="4" Cut="1.4695377349853516e+00" cType="1" res="-1.9182324409484863e-02" rms="4.2232191562652588e-01" purity="3.3836627006530762e-01" nType="0">
          <Node pos="l" depth="2" NCoef="0" IVar="-1" Cut="0.0000000000000000e+00" cType="1" res="-6.3158371485769749e-03" rms="4.7727966308593750e-01" purity="3.6870428919792175e-01" nType="-99"/>
          <Node pos="r" depth="2" NCoef="0" IVar="-1" Cut="0.0000000000000000e+00" cType="1" res="-5.7499652029946446e-04" rms="4.0994900465011597e-01" purity="3.3446347713470459e-01" nType="-99"/>
        </Node>
      </Node>
    </BinaryTree>
    <BinaryTree type="DecisionTree" boostWeight="1.0000000000000000e+00" itree="246">
      <Node pos="s" depth="0" NCoef="0" IVar="12" Cut="2.1428570747375488e+00" cType="1" res="-1.3404434546828270e-02" rms="4.2229929566383362e-01" purity="4.9325126409530640e-01" nType="0">
        <Node pos="l" depth="1" NCoef="0" IVar="10" Cut="2.1584119796752930e+00" cType="1" res="3.9240010082721710e-03" rms="4.1338446736335754e-01" purity="5.1306867599487305e-01" nType="0">
          <Node pos="l" depth="2" NCoef="0" IVar="-1" Cut="0.0000000000000000e+00" cType="1" res="2.6615625247359276e-03" rms="4.0310224890708923e-01" purity="6.4663404226303101e-01" nType="-99"/>
          <Node pos="r" depth="2" NCoef="0" IVar="-1" Cut="0.0000000000000000e+00" cType="1" res="-1.6361322486773133e-03" rms="4.2209738492965698e-01" purity="3.4903371334075928e-01" nType="-99"/>
        </Node>
        <Node pos="r" depth="1" NCoef="0" IVar="5" Cut="1.1287579536437988e+00" cType="1" res="-9.4946801662445068e-02" rms="4.5313552021980286e-01" purity="3.9999663829803467e-01" nType="0">
          <Node pos="l" depth="2" NCoef="0" IVar="-1" Cut="0.0000000000000000e+00" cType="1" res="-3.9610313251614571e-03" rms="4.5536565780639648e-01" purity="4.1328653693199158e-01" nType="-99"/>
          <Node pos="r" depth="2" NCoef="0" IVar="-1" Cut="0.0000000000000000e+00" cType="1" res="-2.1603135392069817e-03" rms="4.4303083419799805e-01" purity="3.9217773079872131e-01" nType="-99"/>
        </Node>
      </Node>
    </BinaryTree>
    <BinaryTree type="DecisionTree" boostWeight="1.0000000000000000e+00" itree="247">
      <Node pos="s" depth="0" NCoef="0" IVar="5" Cut="8.6892843246459961e-01" cType="1" res="2.5518762413412333e-03" rms="4.1486719250679016e-01" purity="5.0277006626129150e-01" nType="0">
        <Node pos="l" depth="1" NCoef="0" IVar="15" Cut="1.1857142448425293e+01" cType="1" res="9.1043226420879364e-02" rms="3.2279980182647705e-01" purity="8.3773910999298096e-01" nType="0">
          <Node pos="l" depth="2" NCoef="0" IVar="-1" Cut="0.0000000000000000e+00" cType="1" res="2.1520739421248436e-02" rms="2.3047621548175812e-01" purity="9.3806773424148560e-01" nType="-99"/>
          <Node pos="r" depth="2" NCoef="0" IVar="-1" Cut="0.0000000000000000e+00" cType="1" res="-5.7204174809157848e-03" rms="4.7736501693725586e-01" purity="5.6952440738677979e-01" nType="-99"/>
        </Node>
        <Node pos="r" depth="1" NCoef="0" IVar="4" Cut="1.0462346076965332e+00" cType="1" res="-6.6604902967810631e-03" rms="4.2223805189132690e-01" purity="4.6789821982383728e-01" nType="0">
          <Node pos="l" depth="2" NCoef="0" IVar="-1" Cut="0.0000000000000000e+00" cType="1" res="-7.0622679777443409e-03" rms="4.6383029222488403e-01" purity="5.8412325382232666e-01" nType="-99"/>
          <Node pos="r" depth="2" NCoef="0" IVar="-1" Cut="0.0000000000000000e+00" cType="1" res="-2.4117705470416695e-04" rms="4.1668966412544250e-01" purity="4.5885244011878967e-01" nType="-99"/>
        </Node>
      </Node>
    </BinaryTree>
    <BinaryTree type="DecisionTree" boostWeight="1.0000000000000000e+00" itree="248">
      <Node pos="s" depth="0" NCoef="0" IVar="18" Cut="3.4285714626312256e+00" cType="1" res="1.1874201009050012e-03" rms="4.1337183117866516e-01" purity="5.0056302547454834e-01" nType="0">
        <Node pos="l" depth="1" NCoef="0" IVar="6" Cut="2.2103354930877686e+00" cType="1" res="5.8285161852836609e-02" rms="3.1873869895935059e-01" purity="7.5252032279968262e-01" nType="0">
          <Node pos="l" depth="2" NCoef="0" IVar="-1" Cut="0.0000000000000000e+00" cType="1" res="5.3351684473454952e-03" rms="3.1029686331748962e-01" purity="8.6587303876876831e-01" nType="-99"/>
          <Node pos="r" depth="2" NCoef="0" IVar="-1" Cut="0.0000000000000000e+00" cType="1" res="-6.6760620102286339e-03" rms="2.9910475015640259e-01" purity="1.4166031777858734e-01" nType="-99"/>
        </Node>
        <Node pos="r" depth="1" NCoef="0" IVar="4" Cut="1.1535943746566772e+00" cType="1" res="-1.7239311710000038e-02" rms="4.3799936771392822e-01" purity="4.1925069689750671e-01" nType="0">
          <Node pos="l" depth="2" NCoef="0" IVar="-1" Cut="0.0000000000000000e+00" cType="1" res="-6.1749094165861607e-03" rms="4.8596358299255371e-01" purity="4.7002494335174561e-01" nType="-99"/>
          <Node pos="r" depth="2" NCoef="0" IVar="-1" Cut="0.0000000000000000e+00" cType="1" res="-2.9998394893482327e-04" rms="4.3079423904418945e-01" purity="4.1498494148254395e-01" nType="-99"/>
        </Node>
      </Node>
    </BinaryTree>
    <BinaryTree type="DecisionTree" boostWeight="1.0000000000000000e+00" itree="249">
      <Node pos="s" depth="0" NCoef="0" IVar="0" Cut="8.6891120672225952e-01" cType="1" res="-1.1895587667822838e-02" rms="4.1998639702796936e-01" purity="4.8809438943862915e-01" nType="0">
        <Node pos="l" depth="1" NCoef="0" IVar="21" Cut="5.1904764175415039e+00" cType="1" res="-7.6393269002437592e-02" rms="4.3352606892585754e-01" purity="5.2274209260940552e-01" nType="0">
          <Node pos="l" depth="2" NCoef="0" IVar="-1" Cut="0.0000000000000000e+00" cType="1" res="-3.5562594421207905e-03" rms="4.3372505903244019e-01" purity="5.3181701898574829e-01" nType="-99"/>
          <Node pos="r" depth="2" NCoef="0" IVar="-1" Cut="0.0000000000000000e+00" cType="1" res="3.3479821868240833e-03" rms="3.9653706550598145e-01" purity="4.7203916311264038e-01" nType="-99"/>
        </Node>
        <Node pos="r" depth="1" NCoef="0" IVar="7" Cut="-7.4833335876464844e+00" cType="0" res="7.2849052958190441e-03" rms="4.1394075751304626e-01" purity="4.7779077291488647e-01" nType="0">
          <Node pos="l" depth="2" NCoef="0" IVar="-1" Cut="0.0000000000000000e+00" cType="1" res="3.1050885445438325e-04" rms="4.1207259893417358e-01" purity="4.7903236746788025e-01" nType="-99"/>
          <Node pos="r" depth="2" NCoef="0" IVar="-1" Cut="0.0000000000000000e+00" cType="1" res="-4.9381763674318790e-03" rms="4.1542008519172668e-01" purity="4.3593764305114746e-01" nType="-99"/>
        </Node>
      </Node>
    </BinaryTree>
    <BinaryTree type="DecisionTree" boostWeight="1.0000000000000000e+00" itree="250">
      <Node pos="s" depth="0" NCoef="0" IVar="5" Cut="1.8694375753402710e+00" cType="1" res="2.4224113672971725e-02" rms="4.1403952240943909e-01" purity="5.2926063537597656e-01" nType="0">
        <Node pos="l" depth="1" NCoef="0" IVar="18" Cut="1.2857142686843872e+00" cType="0" res="5.6783970445394516e-02" rms="4.1585367918014526e-01" purity="7.0493447780609131e-01" nType="0">
          <Node pos="l" depth="2" NCoef="0" IVar="-1" Cut="0.0000000000000000e+00" cType="1" res="9.7601424204185605e-04" rms="4.1233953833580017e-01" purity="7.0869356393814087e-01" nType="-99"/>
          <Node pos="r" depth="2" NCoef="0" IVar="-1" Cut="0.0000000000000000e+00" cType="1" res="-6.3787293620407581e-03" rms="4.2741200327873230e-01" purity="6.6616404056549072e-01" nType="-99"/>
        </Node>
        <Node pos="r" depth="1" NCoef="0" IVar="4" Cut="2.1321408748626709e+00" cType="1" res="-2.0458985120058060e-02" rms="4.0732192993164062e-01" purity="2.8817692399024963e-01" nType="0">
          <Node pos="l" depth="2" NCoef="0" IVar="-1" Cut="0.0000000000000000e+00" cType="1" res="-2.3075849749147892e-03" rms="4.5117574930191040e-01" purity="3.6259198188781738e-01" nType="-99"/>
          <Node pos="r" depth="2" NCoef="0" IVar="-1" Cut="0.0000000000000000e+00" cType="1" res="-7.5209804344922304e-04" rms="3.9040714502334595e-01" purity="2.6371166110038757e-01" nType="-99"/>
        </Node>
      </Node>
    </BinaryTree>
    <BinaryTree type="DecisionTree" boostWeight="1.0000000000000000e+00" itree="251">
      <Node pos="s" depth="0" NCoef="0" IVar="12" Cut="1.4285714924335480e-01" cType="1" res="-1.5674591122660786e-04" rms="4.2598178982734680e-01" purity="5.0924044847488403e-01" nType="0">
        <Node pos="l" depth="1" NCoef="0" IVar="10" Cut="1.9058202505111694e+00" cType="1" res="-5.0775639712810516e-02" rms="4.0526783466339111e-01" purity="5.7999640703201294e-01" nType="0">
          <Node pos="l" depth="2" NCoef="0" IVar="-1" Cut="0.0000000000000000e+00" cType="1" res="2.6942705735564232e-03" rms="3.9119070768356323e-01" purity="7.6864761114120483e-01" nType="-99"/>
          <Node pos="r" depth="2" NCoef="0" IVar="-1" Cut="0.0000000000000000e+00" cType="1" res="-6.5790712833404541e-03" rms="4.0832665562629700e-01" purity="3.4706023335456848e-01" nType="-99"/>
        </Node>
        <Node pos="r" depth="1" NCoef="0" IVar="7" Cut="-3.3000004291534424e+00" cType="1" res="1.1789368465542793e-02" rms="4.2985653877258301e-01" purity="4.9254196882247925e-01" nType="0">
          <Node pos="l" depth="2" NCoef="0" IVar="-1" Cut="0.0000000000000000e+00" cType="1" res="-7.3964986950159073e-04" rms="3.8415935635566711e-01" purity="7.9819715023040771e-01" nType="-99"/>
          <Node pos="r" depth="2" NCoef="0" IVar="-1" Cut="0.0000000000000000e+00" cType="1" res="3.3579303999431431e-04" rms="4.3030905723571777e-01" purity="4.7890466451644897e-01" nType="-99"/>
        </Node>
      </Node>
    </BinaryTree>
    <BinaryTree type="DecisionTree" boostWeight="1.0000000000000000e+00" itree="252">
      <Node pos="s" depth="0" NCoef="0" IVar="7" Cut="-1.1809518337249756e+00" cType="1" res="1.1832060990855098e-03" rms="4.1033545136451721e-01" purity="4.9737086892127991e-01" nType="0">
        <Node pos="l" depth="1" NCoef="0" IVar="15" Cut="7.2857141494750977e+00" cType="1" res="5.9456810355186462e-02" rms="3.9285239577293396e-01" purity="6.6997092962265015e-01" nType="0">
          <Node pos="l" depth="2" NCoef="0" IVar="-1" Cut="0.0000000000000000e+00" cType="1" res="1.2951379641890526e-02" rms="2.7300193905830383e-01" purity="9.3215888738632202e-01" nType="-99"/>
          <Node pos="r" depth="2" NCoef="0" IVar="-1" Cut="0.0000000000000000e+00" cType="1" res="-1.8646679818630219e-03" rms="4.3706712126731873e-01" purity="5.1694953441619873e-01" nType="-99"/>
        </Node>
        <Node pos="r" depth="1" NCoef="0" IVar="3" Cut="3.9047617912292480e+00" cType="1" res="-1.0906973853707314e-02" rms="4.1284120082855225e-01" purity="4.6156108379364014e-01" nType="0">
          <Node pos="l" depth="2" NCoef="0" IVar="-1" Cut="0.0000000000000000e+00" cType="1" res="-9.3815280706621706e-05" rms="4.0328237414360046e-01" purity="4.6748694777488708e-01" nType="-99"/>
          <Node pos="r" depth="2" NCoef="0" IVar="-1" Cut="0.0000000000000000e+00" cType="1" res="-2.0008196588605642e-03" rms="4.4079720973968506e-01" purity="4.4110366702079773e-01" nType="-99"/>
        </Node>
      </Node>
    </BinaryTree>
    <BinaryTree type="DecisionTree" boostWeight="1.0000000000000000e+00" itree="253">
      <Node pos="s" depth="0" NCoef="0" IVar="8" Cut="7.1785717010498047e+00" cType="1" res="-9.7218677401542664e-03" rms="4.2440468072891235e-01" purity="4.9532809853553772e-01" nType="0">
        <Node pos="l" depth="1" NCoef="0" IVar="9" Cut="-5.7142858505249023e+00" cType="1" res="-4.0592788718640804e-03" rms="4.2237609624862671e-01" purity="5.0018906593322754e-01" nType="0">
          <Node pos="l" depth="2" NCoef="0" IVar="-1" Cut="0.0000000000000000e+00" cType="1" res="-4.1335206478834152e-03" rms="4.4850879907608032e-01" purity="5.6843054294586182e-01" nType="-99"/>
          <Node pos="r" depth="2" NCoef="0" IVar="-1" Cut="0.0000000000000000e+00" cType="1" res="4.5182907342677936e-05" rms="4.1920965909957886e-01" purity="4.9493303894996643e-01" nType="-99"/>
        </Node>
        <Node pos="r" depth="1" NCoef="0" IVar="-1" Cut="0.0000000000000000e+00" cType="1" res="-3.2627270556986332e-03" rms="4.4633796811103821e-01" purity="3.2009592652320862e-01" nType="-99"/>
      </Node>
    </BinaryTree>
    <BinaryTree type="DecisionTree" boostWeight="1.0000000000000000e+00" itree="254">
      <Node pos="s" depth="0" NCoef="0" IVar="7" Cut="3.5571424961090088e+00" cType="1" res="8.3657047071028501e-05" rms="4.2196354269981384e-01" purity="5.0654900074005127e-01" nType="0">
        <Node pos="l" depth="1" NCoef="0" IVar="20" Cut="4.1526027679443359e+01" cType="0" res="7.3004914447665215e-03" rms="4.1737994551658630e-01" purity="5.1250159740447998e-01" nType="0">
          <Node pos="l" depth="2" NCoef="0" IVar="-1" Cut="0.0000000000000000e+00" cType="1" res="2.6424233801662922e-03" rms="4.0916454792022705e-01" purity="6.2212485074996948e-01" nType="-99"/>
          <Node pos="r" depth="2" NCoef="0" IVar="-1" Cut="0.0000000000000000e+00" cType="1" res="-4.1178570245392621e-04" rms="4.1746985912322998e-01" purity="4.9926963448524475e-01" nType="-99"/>
        </Node>
        <Node pos="r" depth="1" NCoef="0" IVar="-1" Cut="0.0000000000000000e+00" cType="1" res="-4.6828626655042171e-03" rms="4.9168524146080017e-01" purity="3.5047847032546997e-01" nType="-99"/>
      </Node>
    </BinaryTree>
    <BinaryTree type="DecisionTree" boostWeight="1.0000000000000000e+00" itree="255">
      <Node pos="s" depth="0" NCoef="0" IVar="12" Cut="1.4285714924335480e-01" cType="1" res="-4.4787446968257427e-03" rms="4.1851645708084106e-01" purity="5.0142472982406616e-01" nType="0">
        <Node pos="l" depth="1" NCoef="0" IVar="5" Cut="1.1589913368225098e+00" cType="1" res="-6.3783347606658936e-02" rms="4.0579590201377869e-01" purity="5.6563335657119751e-01" nType="0">
          <Node pos="l" depth="2" NCoef="0" IVar="-1" Cut="0.0000000000000000e+00" cType="1" res="4.3946853838860989e-03" rms="3.7263676524162292e-01" purity="8.1758213043212891e-01" nType="-99"/>
          <Node pos="r" depth="2" NCoef="0" IVar="-1" Cut="0.0000000000000000e+00" cType="1" res="-5.4753562435507774e-03" rms="4.1887572407722473e-01" purity="3.6978772282600403e-01" nType="-99"/>
        </Node>
        <Node pos="r" depth="1" NCoef="0" IVar="18" Cut="5.2380952835083008e+00" cType="1" res="1.0038709267973900e-02" rms="4.2029890418052673e-01" purity="4.8570683598518372e-01" nType="0">
          <Node pos="l" depth="2" NCoef="0" IVar="-1" Cut="0.0000000000000000e+00" cType="1" res="2.5927261449396610e-03" rms="4.2200022935867310e-01" purity="6.9548004865646362e-01" nType="-99"/>
          <Node pos="r" depth="2" NCoef="0" IVar="-1" Cut="0.0000000000000000e+00" cType="1" res="-8.9446321362629533e-04" rms="4.1686210036277771e-01" purity="3.4008535742759705e-01" nType="-99"/>
        </Node>
      </Node>
    </BinaryTree>
    <BinaryTree type="DecisionTree" boostWeight="1.0000000000000000e+00" itree="256">
      <Node pos="s" depth="0" NCoef="0" IVar="3" Cut="3.8571429252624512e+00" cType="1" res="2.5924376677721739e-03" rms="4.1642940044403076e-01" purity="5.0119364261627197e-01" nType="0">
        <Node pos="l" depth="1" NCoef="0" IVar="18" Cut="6.1904764175415039e+00" cType="1" res="1.9748084247112274e-02" rms="4.0082055330276489e-01" purity="5.0361114740371704e-01" nType="0">
          <Node pos="l" depth="2" NCoef="0" IVar="-1" Cut="0.0000000000000000e+00" cType="1" res="1.6080117784440517e-03" rms="4.3076413869857788e-01" purity="6.2573033571243286e-01" nType="-99"/>
          <Node pos="r" depth="2" NCoef="0" IVar="-1" Cut="0.0000000000000000e+00" cType="1" res="-4.4237328693270683e-03" rms="2.5815117359161377e-01" purity="7.3453217744827271e-02" nType="-99"/>
        </Node>
        <Node pos="r" depth="1" NCoef="0" IVar="9" Cut="-5.4857144355773926e+00" cType="0" res="-4.4891338795423508e-02" rms="4.5348808169364929e-01" purity="4.9450257420539856e-01" nType="0">
          <Node pos="l" depth="2" NCoef="0" IVar="-1" Cut="0.0000000000000000e+00" cType="1" res="-1.0375768179073930e-03" rms="4.5072424411773682e-01" purity="5.0219422578811646e-01" nType="-99"/>
          <Node pos="r" depth="2" NCoef="0" IVar="-1" Cut="0.0000000000000000e+00" cType="1" res="-7.6020765118300915e-03" rms="4.4197034835815430e-01" purity="4.4490650296211243e-01" nType="-99"/>
        </Node>
      </Node>
    </BinaryTree>
    <BinaryTree type="DecisionTree" boostWeight="1.0000000000000000e+00" itree="257">
      <Node pos="s" depth="0" NCoef="0" IVar="5" Cut="1.0978288650512695e+00" cType="1" res="1.4709036797285080e-02" rms="4.1623166203498840e-01" purity="5.2369636297225952e-01" nType="0">
        <Node pos="l" depth="1" NCoef="0" IVar="5" Cut="9.4017100334167480e-01" cType="0" res="7.8812837600708008e-02" rms="3.5671243071556091e-01" purity="7.8525513410568237e-01" nType="0">
          <Node pos="l" depth="2" NCoef="0" IVar="-1" Cut="0.0000000000000000e+00" cType="1" res="2.3612722288817167e-03" rms="3.2019180059432983e-01" purity="8.2438075542449951e-01" nType="-99"/>
          <Node pos="r" depth="2" NCoef="0" IVar="-1" Cut="0.0000000000000000e+00" cType="1" res="-1.1674987617880106e-03" rms="3.7345153093338013e-01" purity="7.5492167472839355e-01" nType="-99"/>
        </Node>
        <Node pos="r" depth="1" NCoef="0" IVar="20" Cut="4.1526027679443359e+01" cType="0" res="-4.6264370903372765e-03" rms="4.3071088194847107e-01" purity="4.4480305910110474e-01" nType="0">
          <Node pos="l" depth="2" NCoef="0" IVar="-1" Cut="0.0000000000000000e+00" cType="1" res="3.1897663138806820e-03" rms="4.1727036237716675e-01" purity="5.9272640943527222e-01" nType="-99"/>
          <Node pos="r" depth="2" NCoef="0" IVar="-1" Cut="0.0000000000000000e+00" cType="1" res="-8.6825090693309903e-04" rms="4.3045076727867126e-01" purity="4.2690783739089966e-01" nType="-99"/>
        </Node>
      </Node>
    </BinaryTree>
    <BinaryTree type="DecisionTree" boostWeight="1.0000000000000000e+00" itree="258">
      <Node pos="s" depth="0" NCoef="0" IVar="20" Cut="7.3729797363281250e+01" cType="1" res="-1.5276148915290833e-02" rms="4.2758488655090332e-01" purity="4.9582552909851074e-01" nType="0">
        <Node pos="l" depth="1" NCoef="0" IVar="20" Cut="1.3875966072082520e+01" cType="1" res="-1.0129953734576702e-02" rms="4.2722743749618530e-01" purity="5.0174689292907715e-01" nType="0">
          <Node pos="l" depth="2" NCoef="0" IVar="-1" Cut="0.0000000000000000e+00" cType="1" res="2.2657839581370354e-03" rms="4.2783239483833313e-01" purity="5.8150529861450195e-01" nType="-99"/>
          <Node pos="r" depth="2" NCoef="0" IVar="-1" Cut="0.0000000000000000e+00" cType="1" res="-1.4182395534589887e-03" rms="4.2453625798225403e-01" purity="4.5295047760009766e-01" nType="-99"/>
        </Node>
        <Node pos="r" depth="1" NCoef="0" IVar="-1" Cut="0.0000000000000000e+00" cType="1" res="-6.6025834530591965e-03" rms="4.0247842669487000e-01" purity="2.9561832547187805e-01" nType="-99"/>
      </Node>
    </BinaryTree>
    <BinaryTree type="DecisionTree" boostWeight="1.0000000000000000e+00" itree="259">
      <Node pos="s" depth="0" NCoef="0" IVar="15" Cut="8.0000000000000000e+00" cType="1" res="-1.3310408219695091e-02" rms="4.1619011759757996e-01" purity="4.8346877098083496e-01" nType="0">
        <Node pos="l" depth="1" NCoef="0" IVar="21" Cut="1.1428571939468384e+00" cType="0" res="8.1440871581435204e-03" rms="4.0103930234909058e-01" purity="6.9394725561141968e-01" nType="0">
          <Node pos="l" depth="2" NCoef="0" IVar="-1" Cut="0.0000000000000000e+00" cType="1" res="9.6410587430000305e-03" rms="3.0958676338195801e-01" purity="8.1875014305114746e-01" nType="-99"/>
          <Node pos="r" depth="2" NCoef="0" IVar="-1" Cut="0.0000000000000000e+00" cType="1" res="-1.7654428957030177e-03" rms="4.1963252425193787e-01" purity="6.5592288970947266e-01" nType="-99"/>
        </Node>
        <Node pos="r" depth="1" NCoef="0" IVar="12" Cut="1.4285714924335480e-01" cType="0" res="-2.0470669493079185e-02" rms="4.2088195681571960e-01" purity="4.1322335600852966e-01" nType="0">
          <Node pos="l" depth="2" NCoef="0" IVar="-1" Cut="0.0000000000000000e+00" cType="1" res="1.2151363625889644e-04" rms="4.2404970526695251e-01" purity="4.2930492758750916e-01" nType="-99"/>
          <Node pos="r" depth="2" NCoef="0" IVar="-1" Cut="0.0000000000000000e+00" cType="1" res="-8.2872333005070686e-03" rms="3.3234784007072449e-01" purity="1.8234731256961823e-01" nType="-99"/>
        </Node>
      </Node>
    </BinaryTree>
    <BinaryTree type="DecisionTree" boostWeight="1.0000000000000000e+00" itree="260">
      <Node pos="s" depth="0" NCoef="0" IVar="20" Cut="1.7164216995239258e+01" cType="1" res="1.6551969572901726e-02" rms="4.1390532255172729e-01" purity="5.2179992198944092e-01" nType="0">
        <Node pos="l" depth="1" NCoef="0" IVar="20" Cut="2.9307892322540283e+00" cType="0" res="4.4096831232309341e-02" rms="4.1235369443893433e-01" purity="5.6740707159042358e-01" nType="0">
          <Node pos="l" depth="2" NCoef="0" IVar="-1" Cut="0.0000000000000000e+00" cType="1" res="6.4436194952577353e-04" rms="4.1841095685958862e-01" purity="6.1001855134963989e-01" nType="-99"/>
          <Node pos="r" depth="2" NCoef="0" IVar="-1" Cut="0.0000000000000000e+00" cType="1" res="-3.0340782832354307e-03" rms="3.7332266569137573e-01" purity="3.9574402570724487e-01" nType="-99"/>
        </Node>
        <Node pos="r" depth="1" NCoef="0" IVar="14" Cut="2.2423094177246094e+02" cType="1" res="-8.9556071907281876e-03" rms="4.1370472311973572e-01" purity="4.7956591844558716e-01" nType="0">
          <Node pos="l" depth="2" NCoef="0" IVar="-1" Cut="0.0000000000000000e+00" cType="1" res="-1.5539708329015411e-05" rms="4.1134813427925110e-01" purity="4.8513478040695190e-01" nType="-99"/>
          <Node pos="r" depth="2" NCoef="0" IVar="-1" Cut="0.0000000000000000e+00" cType="1" res="-7.0525794290006161e-03" rms="4.3115481734275818e-01" purity="3.7156486511230469e-01" nType="-99"/>
        </Node>
      </Node>
    </BinaryTree>
    <BinaryTree type="DecisionTree" boostWeight="1.0000000000000000e+00" itree="261">
      <Node pos="s" depth="0" NCoef="0" IVar="9" Cut="-1.2857142448425293e+01" cType="1" res="6.4340694807469845e-03" rms="4.1594642400741577e-01" purity="5.1472014188766479e-01" nType="0">
        <Node pos="l" depth="1" NCoef="0" IVar="-1" Cut="0.0000000000000000e+00" cType="1" res="7.6358793303370476e-03" rms="1.9430491328239441e-01" purity="9.5569384098052979e-01" nType="-99"/>
        <Node pos="r" depth="1" NCoef="0" IVar="9" Cut="-6.7309527397155762e+00" cType="0" res="2.0915402565151453e-03" rms="4.1801777482032776e-01" purity="5.0593918561935425e-01" nType="0">
          <Node pos="l" depth="2" NCoef="0" IVar="-1" Cut="0.0000000000000000e+00" cType="1" res="-1.9400498786126263e-05" rms="4.1471287608146667e-01" purity="5.0873738527297974e-01" nType="-99"/>
          <Node pos="r" depth="2" NCoef="0" IVar="-1" Cut="0.0000000000000000e+00" cType="1" res="-7.6284827664494514e-03" rms="4.3967866897583008e-01" purity="4.5065966248512268e-01" nType="-99"/>
        </Node>
      </Node>
    </BinaryTree>
    <BinaryTree type="DecisionTree" boostWeight="1.0000000000000000e+00" itree="262">
      <Node pos="s" depth="0" NCoef="0" IVar="0" Cut="4.4176682829856873e-01" cType="1" res="-1.1817357735708356e-03" rms="4.1622066497802734e-01" purity="4.9987378716468811e-01" nType="0">
        <Node pos="l" depth="1" NCoef="0" IVar="12" Cut="2.1428570747375488e+00" cType="1" res="-8.6767278611660004e-02" rms="4.5771944522857666e-01" purity="5.5924540758132935e-01" nType="0">
          <Node pos="l" depth="2" NCoef="0" IVar="-1" Cut="0.0000000000000000e+00" cType="1" res="-3.4897865261882544e-03" rms="4.3454957008361816e-01" purity="6.6428464651107788e-01" nType="-99"/>
          <Node pos="r" depth="2" NCoef="0" IVar="-1" Cut="0.0000000000000000e+00" cType="1" res="-6.3359239138662815e-03" rms="4.7271615266799927e-01" purity="3.5854619741439819e-01" nType="-99"/>
        </Node>
        <Node pos="r" depth="1" NCoef="0" IVar="15" Cut="4.8571429252624512e+00" cType="1" res="4.7417804598808289e-03" rms="4.1253784298896790e-01" purity="4.9576455354690552e-01" nType="0">
          <Node pos="l" depth="2" NCoef="0" IVar="-1" Cut="0.0000000000000000e+00" cType="1" res="-5.9328577481210232e-03" rms="4.2497581243515015e-01" purity="6.2108963727951050e-01" nType="-99"/>
          <Node pos="r" depth="2" NCoef="0" IVar="-1" Cut="0.0000000000000000e+00" cType="1" res="3.3692133729346097e-04" rms="4.1069954633712769e-01" purity="4.8548984527587891e-01" nType="-99"/>
        </Node>
      </Node>
    </BinaryTree>
    <BinaryTree type="DecisionTree" boostWeight="1.0000000000000000e+00" itree="263">
      <Node pos="s" depth="0" NCoef="0" IVar="15" Cut="9.5714282989501953e+00" cType="1" res="-7.9032033681869507e-03" rms="4.1593298316001892e-01" purity="4.9420031905174255e-01" nType="0">
        <Node pos="l" depth="1" NCoef="0" IVar="4" Cut="2.3633701801300049e+00" cType="1" res="1.9767103716731071e-02" rms="3.6795446276664734e-01" purity="6.5926629304885864e-01" nType="0">
          <Node pos="l" depth="2" NCoef="0" IVar="-1" Cut="0.0000000000000000e+00" cType="1" res="3.4249818418174982e-03" rms="3.7142392992973328e-01" purity="7.7062857151031494e-01" nType="-99"/>
          <Node pos="r" depth="2" NCoef="0" IVar="-1" Cut="0.0000000000000000e+00" cType="1" res="-5.3232829086482525e-03" rms="3.1801277399063110e-01" purity="1.4870043098926544e-01" nType="-99"/>
        </Node>
        <Node pos="r" depth="1" NCoef="0" IVar="15" Cut="1.2857142448425293e+01" cType="1" res="-2.4188995361328125e-02" rms="4.4093105196952820e-01" purity="3.9704817533493042e-01" nType="0">
          <Node pos="l" depth="2" NCoef="0" IVar="-1" Cut="0.0000000000000000e+00" cType="1" res="-3.7946731317788363e-03" rms="4.8056805133819580e-01" purity="4.7117784619331360e-01" nType="-99"/>
          <Node pos="r" depth="2" NCoef="0" IVar="-1" Cut="0.0000000000000000e+00" cType="1" res="5.9325884649297222e-05" rms="4.2930915951728821e-01" purity="3.7942084670066833e-01" nType="-99"/>
        </Node>
      </Node>
    </BinaryTree>
    <BinaryTree type="DecisionTree" boostWeight="1.0000000000000000e+00" itree="264">
      <Node pos="s" depth="0" NCoef="0" IVar="21" Cut="4.2380952835083008e+00" cType="1" res="2.1408868487924337e-03" rms="4.1737920045852661e-01" purity="5.0158619880676270e-01" nType="0">
        <Node pos="l" depth="1" NCoef="0" IVar="21" Cut="3.0476191043853760e+00" cType="1" res="-2.4013033136725426e-02" rms="4.2377522587776184e-01" purity="5.6660288572311401e-01" nType="0">
          <Node pos="l" depth="2" NCoef="0" IVar="-1" Cut="0.0000000000000000e+00" cType="1" res="-5.0649361219257116e-04" rms="4.1697239875793457e-01" purity="5.8150011301040649e-01" nType="-99"/>
          <Node pos="r" depth="2" NCoef="0" IVar="-1" Cut="0.0000000000000000e+00" cType="1" res="-6.6779996268451214e-03" rms="4.6764564514160156e-01" purity="4.1829788684844971e-01" nType="-99"/>
        </Node>
        <Node pos="r" depth="1" NCoef="0" IVar="15" Cut="1.8428571701049805e+01" cType="1" res="4.0516790002584457e-02" rms="4.0476509928703308e-01" purity="4.0618661046028137e-01" nType="0">
          <Node pos="l" depth="2" NCoef="0" IVar="-1" Cut="0.0000000000000000e+00" cType="1" res="3.0421055853366852e-03" rms="4.6502742171287537e-01" purity="6.0461050271987915e-01" nType="-99"/>
          <Node pos="r" depth="2" NCoef="0" IVar="-1" Cut="0.0000000000000000e+00" cType="1" res="-4.1811163537204266e-03" rms="2.3981392383575439e-01" purity="6.2828674912452698e-02" nType="-99"/>
        </Node>
      </Node>
    </BinaryTree>
    <BinaryTree type="DecisionTree" boostWeight="1.0000000000000000e+00" itree="265">
      <Node pos="s" depth="0" NCoef="0" IVar="18" Cut="5.1428570747375488e+00" cType="1" res="6.7550134845077991e-03" rms="4.1187903285026550e-01" purity="5.0103062391281128e-01" nType="0">
        <Node pos="l" depth="1" NCoef="0" IVar="5" Cut="1.3647397756576538e+00" cType="1" res="3.4555789083242416e-02" rms="4.0747544169425964e-01" purity="6.7313146591186523e-01" nType="0">
          <Node pos="l" depth="2" NCoef="0" IVar="-1" Cut="0.0000000000000000e+00" cType="1" res="4.7888541594147682e-03" rms="3.5069486498832703e-01" purity="8.3144927024841309e-01" nType="-99"/>
          <Node pos="r" depth="2" NCoef="0" IVar="-1" Cut="0.0000000000000000e+00" cType="1" res="-8.5816939827054739e-04" rms="4.4940632581710815e-01" purity="5.3160715103149414e-01" nType="-99"/>
        </Node>
        <Node pos="r" depth="1" NCoef="0" IVar="15" Cut="1.6142856597900391e+01" cType="0" res="-2.0761769264936447e-02" rms="4.1435906291007996e-01" purity="3.3068773150444031e-01" nType="0">
          <Node pos="l" depth="2" NCoef="0" IVar="-1" Cut="0.0000000000000000e+00" cType="1" res="1.8062978051602840e-04" rms="4.0933930873870850e-01" purity="3.6160412430763245e-01" nType="-99"/>
          <Node pos="r" depth="2" NCoef="0" IVar="-1" Cut="0.0000000000000000e+00" cType="1" res="-3.6795099731534719e-03" rms="4.1329950094223022e-01" purity="2.6300650835037231e-01" nType="-99"/>
        </Node>
      </Node>
    </BinaryTree>
    <BinaryTree type="DecisionTree" boostWeight="1.0000000000000000e+00" itree="266">
      <Node pos="s" depth="0" NCoef="0" IVar="12" Cut="1.4285714924335480e-01" cType="1" res="-6.7926351912319660e-03" rms="4.2039787769317627e-01" purity="5.0037968158721924e-01" nType="0">
        <Node pos="l" depth="1" NCoef="0" IVar="5" Cut="7.7771806716918945e-01" cType="1" res="-6.5876923501491547e-02" rms="4.0801090002059937e-01" purity="5.5228644609451294e-01" nType="0">
          <Node pos="l" depth="2" NCoef="0" IVar="-1" Cut="0.0000000000000000e+00" cType="1" res="1.5196845866739750e-02" rms="2.6331695914268494e-01" purity="9.1854059696197510e-01" nType="-99"/>
          <Node pos="r" depth="2" NCoef="0" IVar="-1" Cut="0.0000000000000000e+00" cType="1" res="-4.2274910956621170e-03" rms="4.2407730221748352e-01" purity="4.8770648241043091e-01" nType="-99"/>
        </Node>
        <Node pos="r" depth="1" NCoef="0" IVar="9" Cut="-1.4285714626312256e+00" cType="1" res="8.6965905502438545e-03" rms="4.2221957445144653e-01" purity="4.8677203059196472e-01" nType="0">
          <Node pos="l" depth="2" NCoef="0" IVar="-1" Cut="0.0000000000000000e+00" cType="1" res="-2.1882234141230583e-03" rms="4.5492136478424072e-01" purity="4.9006336927413940e-01" nType="-99"/>
          <Node pos="r" depth="2" NCoef="0" IVar="-1" Cut="0.0000000000000000e+00" cType="1" res="8.5401721298694611e-04" rms="4.1278070211410522e-01" purity="4.8602917790412903e-01" nType="-99"/>
        </Node>
      </Node>
    </BinaryTree>
    <BinaryTree type="DecisionTree" boostWeight="1.0000000000000000e+00" itree="267">
      <Node pos="s" depth="0" NCoef="0" IVar="0" Cut="4.4540303945541382e-01" cType="1" res="-9.1077368706464767e-03" rms="4.2322263121604919e-01" purity="5.0003319978713989e-01" nType="0">
        <Node pos="l" depth="1" NCoef="0" IVar="1" Cut="4.5238094329833984e+00" cType="1" res="-1.4614267647266388e-01" rms="4.8291060328483582e-01" purity="5.1222503185272217e-01" nType="0">
          <Node pos="l" depth="2" NCoef="0" IVar="-1" Cut="0.0000000000000000e+00" cType="1" res="-2.3502113763242960e-03" rms="4.8065325617790222e-01" purity="6.5451973676681519e-01" nType="-99"/>
          <Node pos="r" depth="2" NCoef="0" IVar="-1" Cut="0.0000000000000000e+00" cType="1" res="-6.0165622271597385e-03" rms="4.6051546931266785e-01" purity="3.1634247303009033e-01" nType="-99"/>
        </Node>
        <Node pos="r" depth="1" NCoef="0" IVar="8" Cut="2.3880953788757324e+00" cType="1" res="7.4423308251425624e-04" rms="4.1687154769897461e-01" purity="4.9915674328804016e-01" nType="0">
          <Node pos="l" depth="2" NCoef="0" IVar="-1" Cut="0.0000000000000000e+00" cType="1" res="3.9735421887598932e-04" rms="4.1318124532699585e-01" purity="5.0933384895324707e-01" nType="-99"/>
          <Node pos="r" depth="2" NCoef="0" IVar="-1" Cut="0.0000000000000000e+00" cType="1" res="-3.9187534712255001e-03" rms="4.4214078783988953e-01" purity="3.8504439592361450e-01" nType="-99"/>
        </Node>
      </Node>
    </BinaryTree>
    <BinaryTree type="DecisionTree" boostWeight="1.0000000000000000e+00" itree="268">
      <Node pos="s" depth="0" NCoef="0" IVar="20" Cut="1.4678148269653320e+01" cType="1" res="-1.1721380986273289e-02" rms="4.1503456234931946e-01" purity="4.8329624533653259e-01" nType="0">
        <Node pos="l" depth="1" NCoef="0" IVar="4" Cut="1.9901769161224365e+00" cType="1" res="2.7637250721454620e-02" rms="4.1265943646430969e-01" purity="5.4717093706130981e-01" nType="0">
          <Node pos="l" depth="2" NCoef="0" IVar="-1" Cut="0.0000000000000000e+00" cType="1" res="3.6084118764847517e-03" rms="3.9838868379592896e-01" purity="7.5065886974334717e-01" nType="-99"/>
          <Node pos="r" depth="2" NCoef="0" IVar="-1" Cut="0.0000000000000000e+00" cType="1" res="9.2786573804914951e-04" rms="4.2304107546806335e-01" purity="3.1570670008659363e-01" nType="-99"/>
        </Node>
        <Node pos="r" depth="1" NCoef="0" IVar="18" Cut="3.2857143878936768e+00" cType="1" res="-3.6692742258310318e-02" rms="4.1460165381431580e-01" purity="4.4277051091194153e-01" nType="0">
          <Node pos="l" depth="2" NCoef="0" IVar="-1" Cut="0.0000000000000000e+00" cType="1" res="4.6061212196946144e-03" rms="3.7477412819862366e-01" purity="7.4583166837692261e-01" nType="-99"/>
          <Node pos="r" depth="2" NCoef="0" IVar="-1" Cut="0.0000000000000000e+00" cType="1" res="-2.5501851923763752e-03" rms="4.2384126782417297e-01" purity="3.5688599944114685e-01" nType="-99"/>
        </Node>
      </Node>
    </BinaryTree>
    <BinaryTree type="DecisionTree" boostWeight="1.0000000000000000e+00" itree="269">
      <Node pos="s" depth="0" NCoef="0" IVar="12" Cut="2.1428570747375488e+00" cType="1" res="1.4628571458160877e-02" rms="4.1150924563407898e-01" purity="5.2240228652954102e-01" nType="0">
        <Node pos="l" depth="1" NCoef="0" IVar="20" Cut="3.5821082592010498e+00" cType="0" res="2.8983617201447487e-02" rms="4.0197801589965820e-01" purity="5.3814435005187988e-01" nType="0">
          <Node pos="l" depth="2" NCoef="0" IVar="-1" Cut="0.0000000000000000e+00" cType="1" res="8.2648114766925573e-04" rms="4.0044572949409485e-01" purity="5.5866110324859619e-01" nType="-99"/>
          <Node pos="r" depth="2" NCoef="0" IVar="-1" Cut="0.0000000000000000e+00" cType="1" res="-3.1928375829011202e-03" rms="3.9746996760368347e-01" purity="4.0268182754516602e-01" nType="-99"/>
        </Node>
        <Node pos="r" depth="1" NCoef="0" IVar="16" Cut="9.8262898623943329e-02" cType="0" res="-5.3939465433359146e-02" rms="4.4798362255096436e-01" purity="4.4720932841300964e-01" nType="0">
          <Node pos="l" depth="2" NCoef="0" IVar="-1" Cut="0.0000000000000000e+00" cType="1" res="3.6091692745685577e-03" rms="4.2389607429504395e-01" purity="6.1549878120422363e-01" nType="-99"/>
          <Node pos="r" depth="2" NCoef="0" IVar="-1" Cut="0.0000000000000000e+00" cType="1" res="-3.8875443860888481e-03" rms="4.4292402267456055e-01" purity="4.1238150000572205e-01" nType="-99"/>
        </Node>
      </Node>
    </BinaryTree>
    <BinaryTree type="DecisionTree" boostWeight="1.0000000000000000e+00" itree="270">
      <Node pos="s" depth="0" NCoef="0" IVar="9" Cut="-7.1428570747375488e+00" cType="1" res="-1.7929572612047195e-02" rms="4.2765358090400696e-01" purity="4.9352076649665833e-01" nType="0">
        <Node pos="l" depth="1" NCoef="0" IVar="9" Cut="-1.0414285659790039e+01" cType="1" res="-1.1761730909347534e-01" rms="4.6193632483482361e-01" purity="5.8187454938888550e-01" nType="0">
          <Node pos="l" depth="2" NCoef="0" IVar="-1" Cut="0.0000000000000000e+00" cType="1" res="9.3251150101423264e-03" rms="3.8896369934082031e-01" purity="7.9743415117263794e-01" nType="-99"/>
          <Node pos="r" depth="2" NCoef="0" IVar="-1" Cut="0.0000000000000000e+00" cType="1" res="-1.0268907994031906e-02" rms="4.7869837284088135e-01" purity="3.9369088411331177e-01" nType="-99"/>
        </Node>
        <Node pos="r" depth="1" NCoef="0" IVar="7" Cut="3.0333337783813477e+00" cType="1" res="-1.1378978379070759e-02" rms="4.2448514699935913e-01" purity="4.8771494626998901e-01" nType="0">
          <Node pos="l" depth="2" NCoef="0" IVar="-1" Cut="0.0000000000000000e+00" cType="1" res="1.2055054685333744e-04" rms="4.2240726947784424e-01" purity="4.9507805705070496e-01" nType="-99"/>
          <Node pos="r" depth="2" NCoef="0" IVar="-1" Cut="0.0000000000000000e+00" cType="1" res="-4.1357711888849735e-03" rms="4.4367232918739319e-01" purity="3.3792775869369507e-01" nType="-99"/>
        </Node>
      </Node>
    </BinaryTree>
    <BinaryTree type="DecisionTree" boostWeight="1.0000000000000000e+00" itree="271">
      <Node pos="s" depth="0" NCoef="0" IVar="5" Cut="1.3173954486846924e+00" cType="1" res="-6.0968659818172455e-04" rms="4.1451165080070496e-01" purity="5.0080770254135132e-01" nType="0">
        <Node pos="l" depth="1" NCoef="0" IVar="4" Cut="1.8715424537658691e+00" cType="1" res="5.2189651876688004e-02" rms="3.8647317886352539e-01" purity="7.5144016742706299e-01" nType="0">
          <Node pos="l" depth="2" NCoef="0" IVar="-1" Cut="0.0000000000000000e+00" cType="1" res="7.2020071092993021e-04" rms="3.8401302695274353e-01" purity="7.6300674676895142e-01" nType="-99"/>
          <Node pos="r" depth="2" NCoef="0" IVar="-1" Cut="0.0000000000000000e+00" cType="1" res="9.6166774164885283e-04" rms="3.7379834055900574e-01" purity="6.7642837762832642e-01" nType="-99"/>
        </Node>
        <Node pos="r" depth="1" NCoef="0" IVar="21" Cut="4.2380952835083008e+00" cType="1" res="-2.4803120642900467e-02" rms="4.2455619573593140e-01" purity="3.8596412539482117e-01" nType="0">
          <Node pos="l" depth="2" NCoef="0" IVar="-1" Cut="0.0000000000000000e+00" cType="1" res="-2.3826959077268839e-03" rms="4.4230398535728455e-01" purity="4.1045096516609192e-01" nType="-99"/>
          <Node pos="r" depth="2" NCoef="0" IVar="-1" Cut="0.0000000000000000e+00" cType="1" res="1.5555770369246602e-03" rms="3.9683046936988831e-01" purity="3.5797548294067383e-01" nType="-99"/>
        </Node>
      </Node>
    </BinaryTree>
    <BinaryTree type="DecisionTree" boostWeight="1.0000000000000000e+00" itree="272">
      <Node pos="s" depth="0" NCoef="0" IVar="12" Cut="2.1428570747375488e+00" cType="1" res="-1.0303947143256664e-02" rms="4.2050933837890625e-01" purity="4.9563628435134888e-01" nType="0">
        <Node pos="l" depth="1" NCoef="0" IVar="10" Cut="2.1584119796752930e+00" cType="1" res="3.3382989931851625e-03" rms="4.1431677341461182e-01" purity="5.1525294780731201e-01" nType="0">
          <Node pos="l" depth="2" NCoef="0" IVar="-1" Cut="0.0000000000000000e+00" cType="1" res="2.3825895041227341e-03" rms="4.1212412714958191e-01" purity="6.5467369556427002e-01" nType="-99"/>
          <Node pos="r" depth="2" NCoef="0" IVar="-1" Cut="0.0000000000000000e+00" cType="1" res="-1.4593785163015127e-03" rms="4.1388452053070068e-01" purity="3.4753736853599548e-01" nType="-99"/>
        </Node>
        <Node pos="r" depth="1" NCoef="0" IVar="21" Cut="1.3809523582458496e+00" cType="1" res="-7.2551250457763672e-02" rms="4.4237172603607178e-01" purity="4.0612861514091492e-01" nType="0">
          <Node pos="l" depth="2" NCoef="0" IVar="-1" Cut="0.0000000000000000e+00" cType="1" res="5.9448409592732787e-04" rms="4.5003879070281982e-01" purity="5.3697538375854492e-01" nType="-99"/>
          <Node pos="r" depth="2" NCoef="0" IVar="-1" Cut="0.0000000000000000e+00" cType="1" res="-4.5165964402258396e-03" rms="4.2688283324241638e-01" purity="3.0148595571517944e-01" nType="-99"/>
        </Node>
      </Node>
    </BinaryTree>
    <BinaryTree type="DecisionTree" boostWeight="1.0000000000000000e+00" itree="273">
      <Node pos="s" depth="0" NCoef="0" IVar="0" Cut="3.1178214550018311e+00" cType="1" res="-3.3160871826112270e-03" rms="4.1916418075561523e-01" purity="5.0514638423919678e-01" nType="0">
        <Node pos="l" depth="1" NCoef="0" IVar="4" Cut="1.1913368701934814e+00" cType="1" res="2.6525408029556274e-03" rms="4.2658576369285583e-01" purity="5.3317528963088989e-01" nType="0">
          <Node pos="l" depth="2" NCoef="0" IVar="-1" Cut="0.0000000000000000e+00" cType="1" res="-5.2275438793003559e-04" rms="4.0889114141464233e-01" purity="7.0641559362411499e-01" nType="-99"/>
          <Node pos="r" depth="2" NCoef="0" IVar="-1" Cut="0.0000000000000000e+00" cType="1" res="5.4971977078821510e-05" rms="4.2959523200988770e-01" purity="4.9431079626083374e-01" nType="-99"/>
        </Node>
        <Node pos="r" depth="1" NCoef="0" IVar="-1" Cut="0.0000000000000000e+00" cType="1" res="-4.0379147976636887e-03" rms="2.7060765027999878e-01" purity="8.5592843592166901e-02" nType="-99"/>
      </Node>
    </BinaryTree>
    <BinaryTree type="DecisionTree" boostWeight="1.0000000000000000e+00" itree="274">
      <Node pos="s" depth="0" NCoef="0" IVar="18" Cut="5.2380952835083008e+00" cType="1" res="-7.0290151052176952e-03" rms="4.1376760601997375e-01" purity="4.8522043228149414e-01" nType="0">
        <Node pos="l" depth="1" NCoef="0" IVar="17" Cut="5.2903694152832031e+01" cType="1" res="1.9456183537840843e-02" rms="4.1409307718276978e-01" purity="6.6081058979034424e-01" nType="0">
          <Node pos="l" depth="2" NCoef="0" IVar="-1" Cut="0.0000000000000000e+00" cType="1" res="1.4377605402842164e-03" rms="4.1006106138229370e-01" purity="6.7602294683456421e-01" nType="-99"/>
          <Node pos="r" depth="2" NCoef="0" IVar="-1" Cut="0.0000000000000000e+00" cType="1" res="-3.1453338451683521e-03" rms="4.2710158228874207e-01" purity="5.4131054878234863e-01" nType="-99"/>
        </Node>
        <Node pos="r" depth="1" NCoef="0" IVar="4" Cut="1.4789783954620361e+00" cType="1" res="-3.3105939626693726e-02" rms="4.1178596019744873e-01" purity="3.1233707070350647e-01" nType="0">
          <Node pos="l" depth="2" NCoef="0" IVar="-1" Cut="0.0000000000000000e+00" cType="1" res="-6.0130055062472820e-03" rms="4.7849571704864502e-01" purity="3.7539833784103394e-01" nType="-99"/>
          <Node pos="r" depth="2" NCoef="0" IVar="-1" Cut="0.0000000000000000e+00" cType="1" res="-4.6871966333128512e-04" rms="3.9931875467300415e-01" purity="3.0491080880165100e-01" nType="-99"/>
        </Node>
      </Node>
    </BinaryTree>
    <BinaryTree type="DecisionTree" boostWeight="1.0000000000000000e+00" itree="275">
      <Node pos="s" depth="0" NCoef="0" IVar="0" Cut="6.6810458898544312e-01" cType="1" res="2.8539621271193027e-03" rms="4.1395917534828186e-01" purity="5.0094091892242432e-01" nType="0">
        <Node pos="l" depth="1" NCoef="0" IVar="20" Cut="6.7615628242492676e+00" cType="0" res="-8.3328031003475189e-02" rms="4.6243524551391602e-01" purity="5.6180733442306519e-01" nType="0">
          <Node pos="l" depth="2" NCoef="0" IVar="-1" Cut="0.0000000000000000e+00" cType="1" res="-1.0964883258566260e-03" rms="4.6135100722312927e-01" purity="6.1317616701126099e-01" nType="-99"/>
          <Node pos="r" depth="2" NCoef="0" IVar="-1" Cut="0.0000000000000000e+00" cType="1" res="-5.7596717961132526e-03" rms="4.4714465737342834e-01" purity="4.1257458925247192e-01" nType="-99"/>
        </Node>
        <Node pos="r" depth="1" NCoef="0" IVar="4" Cut="2.5683071613311768e+00" cType="1" res="1.5630980953574181e-02" rms="4.0472123026847839e-01" purity="4.9191707372665405e-01" nType="0">
          <Node pos="l" depth="2" NCoef="0" IVar="-1" Cut="0.0000000000000000e+00" cType="1" res="8.3394796820357442e-04" rms="4.1827705502510071e-01" purity="6.0923653841018677e-01" nType="-99"/>
          <Node pos="r" depth="2" NCoef="0" IVar="-1" Cut="0.0000000000000000e+00" cType="1" res="-2.0640611182898283e-03" rms="3.5912841558456421e-01" purity="1.8330736458301544e-01" nType="-99"/>
        </Node>
      </Node>
    </BinaryTree>
    <BinaryTree type="DecisionTree" boostWeight="1.0000000000000000e+00" itree="276">
      <Node pos="s" depth="0" NCoef="0" IVar="6" Cut="6.7806333303451538e-01" cType="1" res="-7.5955037027597427e-03" rms="4.2176502943038940e-01" purity="5.0200593471527100e-01" nType="0">
        <Node pos="l" depth="1" NCoef="0" IVar="-1" Cut="0.0000000000000000e+00" cType="1" res="-2.1342458203434944e-03" rms="4.8774993419647217e-01" purity="5.2152419090270996e-01" nType="1"/>
        <Node pos="r" depth="1" NCoef="0" IVar="20" Cut="3.5821082592010498e+00" cType="0" res="-1.9236446823924780e-03" rms="4.1827067732810974e-01" purity="5.0139713287353516e-01" nType="0">
          <Node pos="l" depth="2" NCoef="0" IVar="-1" Cut="0.0000000000000000e+00" cType="1" res="1.1001201346516609e-04" rms="4.1549783945083618e-01" purity="5.1028311252593994e-01" nType="-99"/>
          <Node pos="r" depth="2" NCoef="0" IVar="-1" Cut="0.0000000000000000e+00" cType="1" res="-2.6264202315360308e-03" rms="4.3221896886825562e-01" purity="4.3016856908798218e-01" nType="-99"/>
        </Node>
      </Node>
    </BinaryTree>
    <BinaryTree type="DecisionTree" boostWeight="1.0000000000000000e+00" itree="277">
      <Node pos="s" depth="0" NCoef="0" IVar="7" Cut="1.5238153934478760e-01" cType="1" res="-7.5482414104044437e-03" rms="4.2034098505973816e-01" purity="4.9820294976234436e-01" nType="0">
        <Node pos="l" depth="1" NCoef="0" IVar="18" Cut="1.2857142686843872e+00" cType="1" res="1.4319893904030323e-02" rms="4.1434061527252197e-01" purity="5.4199784994125366e-01" nType="0">
          <Node pos="l" depth="2" NCoef="0" IVar="-1" Cut="0.0000000000000000e+00" cType="1" res="-7.3359552770853043e-03" rms="4.4294065237045288e-01" purity="5.9796023368835449e-01" nType="-99"/>
          <Node pos="r" depth="2" NCoef="0" IVar="-1" Cut="0.0000000000000000e+00" cType="1" res="9.4228767557069659e-04" rms="4.1007313132286072e-01" purity="5.3756517171859741e-01" nType="-99"/>
        </Node>
        <Node pos="r" depth="1" NCoef="0" IVar="17" Cut="2.8441267013549805e+01" cType="0" res="-5.0344698131084442e-02" rms="4.2862653732299805e-01" purity="4.1249537467956543e-01" nType="0">
          <Node pos="l" depth="2" NCoef="0" IVar="-1" Cut="0.0000000000000000e+00" cType="1" res="1.7449911683797836e-03" rms="4.4177761673927307e-01" purity="5.2646332979202271e-01" nType="-99"/>
          <Node pos="r" depth="2" NCoef="0" IVar="-1" Cut="0.0000000000000000e+00" cType="1" res="-3.2435508910566568e-03" rms="4.1538414359092712e-01" purity="3.5932511091232300e-01" nType="-99"/>
        </Node>
      </Node>
    </BinaryTree>
    <BinaryTree type="DecisionTree" boostWeight="1.0000000000000000e+00" itree="278">
      <Node pos="s" depth="0" NCoef="0" IVar="20" Cut="1.4080162048339844e+01" cType="1" res="1.9424293190240860e-02" rms="4.2186585068702698e-01" purity="5.3652632236480713e-01" nType="0">
        <Node pos="l" depth="1" NCoef="0" IVar="15" Cut="1.7428571701049805e+01" cType="0" res="5.7176239788532257e-02" rms="4.2039239406585693e-01" purity="6.1384469270706177e-01" nType="0">
          <Node pos="l" depth="2" NCoef="0" IVar="-1" Cut="0.0000000000000000e+00" cType="1" res="8.5056368261575699e-03" rms="4.1586211323738098e-01" purity="6.1713278293609619e-01" nType="-99"/>
          <Node pos="r" depth="2" NCoef="0" IVar="-1" Cut="0.0000000000000000e+00" cType="1" res="1.0141034144908190e-03" rms="4.1626021265983582e-01" purity="6.1319947242736816e-01" nType="-99"/>
        </Node>
        <Node pos="r" depth="1" NCoef="0" IVar="21" Cut="2.1428570747375488e+00" cType="1" res="-4.3961568735539913e-03" rms="4.2105481028556824e-01" purity="4.8774054646492004e-01" nType="0">
          <Node pos="l" depth="2" NCoef="0" IVar="-1" Cut="0.0000000000000000e+00" cType="1" res="-4.1187852621078491e-03" rms="4.4969016313552856e-01" purity="5.5665951967239380e-01" nType="-99"/>
          <Node pos="r" depth="2" NCoef="0" IVar="-1" Cut="0.0000000000000000e+00" cType="1" res="-3.5704104811884463e-04" rms="3.9854380488395691e-01" purity="4.4416475296020508e-01" nType="-99"/>
        </Node>
      </Node>
    </BinaryTree>
    <BinaryTree type="DecisionTree" boostWeight="1.0000000000000000e+00" itree="279">
      <Node pos="s" depth="0" NCoef="0" IVar="7" Cut="-4.6333327293395996e+00" cType="1" res="-1.5935463830828667e-02" rms="4.2305082082748413e-01" purity="4.8993328213691711e-01" nType="0">
        <Node pos="l" depth="1" NCoef="0" IVar="5" Cut="6.8841218948364258e-01" cType="1" res="-1.0190751403570175e-01" rms="4.3579652905464172e-01" purity="5.7785332202911377e-01" nType="0">
          <Node pos="l" depth="2" NCoef="0" IVar="-1" Cut="0.0000000000000000e+00" cType="1" res="6.9914315827190876e-03" rms="1.8666605651378632e-01" purity="9.4777899980545044e-01" nType="-99"/>
          <Node pos="r" depth="2" NCoef="0" IVar="-1" Cut="0.0000000000000000e+00" cType="1" res="-4.6617942862212658e-03" rms="4.6060836315155029e-01" purity="4.7443616390228271e-01" nType="-99"/>
        </Node>
        <Node pos="r" depth="1" NCoef="0" IVar="18" Cut="3.4285714626312256e+00" cType="1" res="-9.1243665665388107e-03" rms="4.2127519845962524e-01" purity="4.8296791315078735e-01" nType="0">
          <Node pos="l" depth="2" NCoef="0" IVar="-1" Cut="0.0000000000000000e+00" cType="1" res="2.2262171842157841e-03" rms="3.4358736872673035e-01" purity="7.5100928544998169e-01" nType="-99"/>
          <Node pos="r" depth="2" NCoef="0" IVar="-1" Cut="0.0000000000000000e+00" cType="1" res="-4.3892514077015221e-04" rms="4.3992745876312256e-01" purity="4.0511530637741089e-01" nType="-99"/>
        </Node>
      </Node>
    </BinaryTree>
    <BinaryTree type="DecisionTree" boostWeight="1.0000000000000000e+00" itree="280">
      <Node pos="s" depth="0" NCoef="0" IVar="18" Cut="5.1904764175415039e+00" cType="1" res="8.4738302975893021e-03" rms="4.1296425461769104e-01" purity="5.0838792324066162e-01" nType="0">
        <Node pos="l" depth="1" NCoef="0" IVar="12" Cut="2.1428570747375488e+00" cType="1" res="4.2320556938648224e-02" rms="4.0533396601676941e-01" purity="6.8936657905578613e-01" nType="0">
          <Node pos="l" depth="2" NCoef="0" IVar="-1" Cut="0.0000000000000000e+00" cType="1" res="1.1205520713701844e-03" rms="3.6717668175697327e-01" purity="7.3775333166122437e-01" nType="-99"/>
          <Node pos="r" depth="2" NCoef="0" IVar="-1" Cut="0.0000000000000000e+00" cType="1" res="2.9885515687055886e-04" rms="4.9574154615402222e-01" purity="5.4370361566543579e-01" nType="-99"/>
        </Node>
        <Node pos="r" depth="1" NCoef="0" IVar="16" Cut="8.0622404813766479e-02" cType="1" res="-2.4106411263346672e-02" rms="4.1759487986564636e-01" purity="3.3418110013008118e-01" nType="0">
          <Node pos="l" depth="2" NCoef="0" IVar="-1" Cut="0.0000000000000000e+00" cType="1" res="4.0137270843842998e-05" rms="4.1201752424240112e-01" purity="3.4683674573898315e-01" nType="-99"/>
          <Node pos="r" depth="2" NCoef="0" IVar="-1" Cut="0.0000000000000000e+00" cType="1" res="-5.3742425516247749e-03" rms="4.2459261417388916e-01" purity="2.7863579988479614e-01" nType="-99"/>
        </Node>
      </Node>
    </BinaryTree>
    <BinaryTree type="DecisionTree" boostWeight="1.0000000000000000e+00" itree="281">
      <Node pos="s" depth="0" NCoef="0" IVar="21" Cut="1.3809523582458496e+00" cType="1" res="-1.9395263865590096e-02" rms="4.1941562294960022e-01" purity="4.8562821745872498e-01" nType="0">
        <Node pos="l" depth="1" NCoef="0" IVar="5" Cut="7.8919631242752075e-01" cType="1" res="-5.5960062891244888e-02" rms="4.3943369388580322e-01" purity="5.0960862636566162e-01" nType="0">
          <Node pos="l" depth="2" NCoef="0" IVar="-1" Cut="0.0000000000000000e+00" cType="1" res="5.6746173650026321e-03" rms="3.6375930905342102e-01" purity="8.3562713861465454e-01" nType="-99"/>
          <Node pos="r" depth="2" NCoef="0" IVar="-1" Cut="0.0000000000000000e+00" cType="1" res="-1.4522011624649167e-03" rms="4.4580090045928955e-01" purity="4.7275426983833313e-01" nType="-99"/>
        </Node>
        <Node pos="r" depth="1" NCoef="0" IVar="15" Cut="9.0000000000000000e+00" cType="1" res="4.6066432259976864e-03" rms="4.0394335985183716e-01" purity="4.6988698840141296e-01" nType="0">
          <Node pos="l" depth="2" NCoef="0" IVar="-1" Cut="0.0000000000000000e+00" cType="1" res="6.5611973404884338e-03" rms="2.9261574149131775e-01" purity="7.4625480175018311e-01" nType="-99"/>
          <Node pos="r" depth="2" NCoef="0" IVar="-1" Cut="0.0000000000000000e+00" cType="1" res="-7.0148136001080275e-04" rms="4.2714506387710571e-01" purity="3.9377477765083313e-01" nType="-99"/>
        </Node>
      </Node>
    </BinaryTree>
    <BinaryTree type="DecisionTree" boostWeight="1.0000000000000000e+00" itree="282">
      <Node pos="s" depth="0" NCoef="0" IVar="5" Cut="1.7450214624404907e+00" cType="1" res="-1.1741848429664969e-03" rms="4.1495764255523682e-01" purity="5.0331825017929077e-01" nType="0">
        <Node pos="l" depth="1" NCoef="0" IVar="0" Cut="1.0283552408218384e+00" cType="0" res="3.1217182055115700e-02" rms="4.0486559271812439e-01" purity="6.8598228693008423e-01" nType="0">
          <Node pos="l" depth="2" NCoef="0" IVar="-1" Cut="0.0000000000000000e+00" cType="1" res="1.4697794103994966e-03" rms="3.9069166779518127e-01" purity="7.1153265237808228e-01" nType="-99"/>
          <Node pos="r" depth="2" NCoef="0" IVar="-1" Cut="0.0000000000000000e+00" cType="1" res="-1.2567051453515887e-03" rms="4.1674154996871948e-01" purity="6.5581434965133667e-01" nType="-99"/>
        </Node>
        <Node pos="r" depth="1" NCoef="0" IVar="18" Cut="4.2857141494750977e+00" cType="0" res="-3.5887718200683594e-02" rms="4.2276144027709961e-01" purity="3.0755883455276489e-01" nType="0">
          <Node pos="l" depth="2" NCoef="0" IVar="-1" Cut="0.0000000000000000e+00" cType="1" res="6.4798594394233078e-05" rms="4.2081606388092041e-01" purity="3.0913752317428589e-01" nType="-99"/>
          <Node pos="r" depth="2" NCoef="0" IVar="-1" Cut="0.0000000000000000e+00" cType="1" res="-2.8083149809390306e-03" rms="4.1782730817794800e-01" purity="3.0248880386352539e-01" nType="-99"/>
        </Node>
      </Node>
    </BinaryTree>
    <BinaryTree type="DecisionTree" boostWeight="1.0000000000000000e+00" itree="283">
      <Node pos="s" depth="0" NCoef="0" IVar="12" Cut="1.4285714924335480e-01" cType="1" res="-1.2576760491356254e-03" rms="4.2381218075752258e-01" purity="5.0802320241928101e-01" nType="0">
        <Node pos="l" depth="1" NCoef="0" IVar="4" Cut="1.2094663381576538e+00" cType="1" res="-6.9299571216106415e-02" rms="4.0925657749176025e-01" purity="5.6414520740509033e-01" nType="0">
          <Node pos="l" depth="2" NCoef="0" IVar="-1" Cut="0.0000000000000000e+00" cType="1" res="2.0454602781683207e-03" rms="3.1303060054779053e-01" purity="8.7837135791778564e-01" nType="-99"/>
          <Node pos="r" depth="2" NCoef="0" IVar="-1" Cut="0.0000000000000000e+00" cType="1" res="-4.1630626656115055e-03" rms="4.3428802490234375e-01" purity="4.2090246081352234e-01" nType="-99"/>
        </Node>
        <Node pos="r" depth="1" NCoef="0" IVar="20" Cut="4.1526027679443359e+01" cType="0" res="1.5837827697396278e-02" rms="4.2568522691726685e-01" purity="4.9392253160476685e-01" nType="0">
          <Node pos="l" depth="2" NCoef="0" IVar="-1" Cut="0.0000000000000000e+00" cType="1" res="2.7098201680928469e-03" rms="4.0775451064109802e-01" purity="5.9276413917541504e-01" nType="-99"/>
          <Node pos="r" depth="2" NCoef="0" IVar="-1" Cut="0.0000000000000000e+00" cType="1" res="1.9372555470908992e-05" rms="4.2685231566429138e-01" purity="4.8109474778175354e-01" nType="-99"/>
        </Node>
      </Node>
    </BinaryTree>
    <BinaryTree type="DecisionTree" boostWeight="1.0000000000000000e+00" itree="284">
      <Node pos="s" depth="0" NCoef="0" IVar="7" Cut="1.5238153934478760e-01" cType="1" res="7.5663352617993951e-04" rms="4.1708281636238098e-01" purity="4.9953472614288330e-01" nType="0">
        <Node pos="l" depth="1" NCoef="0" IVar="15" Cut="4.1428570747375488e+00" cType="1" res="1.9304787740111351e-02" rms="4.1212451457977295e-01" purity="5.4327636957168579e-01" nType="0">
          <Node pos="l" depth="2" NCoef="0" IVar="-1" Cut="0.0000000000000000e+00" cType="1" res="-6.8050320260226727e-03" rms="4.2140957713127136e-01" purity="6.4121228456497192e-01" nType="-99"/>
          <Node pos="r" depth="2" NCoef="0" IVar="-1" Cut="0.0000000000000000e+00" cType="1" res="1.0456156451255083e-03" rms="4.0976646542549133e-01" purity="5.3333044052124023e-01" nType="-99"/>
        </Node>
        <Node pos="r" depth="1" NCoef="0" IVar="12" Cut="2.1428570747375488e+00" cType="1" res="-3.5433243960142136e-02" rms="4.2426300048828125e-01" purity="4.1418910026550293e-01" nType="0">
          <Node pos="l" depth="2" NCoef="0" IVar="-1" Cut="0.0000000000000000e+00" cType="1" res="-8.2420074613764882e-04" rms="4.1685804724693298e-01" purity="4.3881669640541077e-01" nType="-99"/>
          <Node pos="r" depth="2" NCoef="0" IVar="-1" Cut="0.0000000000000000e+00" cType="1" res="-3.9005945436656475e-03" rms="4.4197574257850647e-01" purity="3.2055100798606873e-01" nType="-99"/>
        </Node>
      </Node>
    </BinaryTree>
    <BinaryTree type="DecisionTree" boostWeight="1.0000000000000000e+00" itree="285">
      <Node pos="s" depth="0" NCoef="0" IVar="3" Cut="3.9047617912292480e+00" cType="1" res="-8.9448541402816772e-03" rms="4.1783747076988220e-01" purity="4.9227625131607056e-01" nType="0">
        <Node pos="l" depth="1" NCoef="0" IVar="6" Cut="1.5444192886352539e+00" cType="1" res="6.2588718719780445e-03" rms="4.0522328019142151e-01" purity="4.9672678112983704e-01" nType="0">
          <Node pos="l" depth="2" NCoef="0" IVar="-1" Cut="0.0000000000000000e+00" cType="1" res="6.5309193450957537e-04" rms="3.9490017294883728e-01" purity="7.2402071952819824e-01" nType="-99"/>
          <Node pos="r" depth="2" NCoef="0" IVar="-1" Cut="0.0000000000000000e+00" cType="1" res="2.6937428629025817e-04" rms="4.0904015302658081e-01" purity="3.5767108201980591e-01" nType="-99"/>
        </Node>
        <Node pos="r" depth="1" NCoef="0" IVar="17" Cut="1.7952383041381836e+01" cType="1" res="-4.9276936799287796e-02" rms="4.4709059596061707e-01" purity="4.8047003149986267e-01" nType="0">
          <Node pos="l" depth="2" NCoef="0" IVar="-1" Cut="0.0000000000000000e+00" cType="1" res="5.2687288261950016e-03" rms="4.2990472912788391e-01" purity="6.0530889034271240e-01" nType="-99"/>
          <Node pos="r" depth="2" NCoef="0" IVar="-1" Cut="0.0000000000000000e+00" cType="1" res="-4.5395810157060623e-03" rms="4.4406026601791382e-01" purity="4.1923946142196655e-01" nType="-99"/>
        </Node>
      </Node>
    </BinaryTree>
    <BinaryTree type="DecisionTree" boostWeight="1.0000000000000000e+00" itree="286">
      <Node pos="s" depth="0" NCoef="0" IVar="7" Cut="-7.3857140541076660e+00" cType="1" res="-3.7786213215440512e-03" rms="4.2253118753433228e-01" purity="4.9980261921882629e-01" nType="0">
        <Node pos="l" depth="1" NCoef="0" IVar="14" Cut="8.7417678833007812e+01" cType="1" res="-2.0960395038127899e-01" rms="4.6917054057121277e-01" purity="5.2132719755172729e-01" nType="0">
          <Node pos="l" depth="2" NCoef="0" IVar="-1" Cut="0.0000000000000000e+00" cType="1" res="2.1246522665023804e-03" rms="4.0315213799476624e-01" purity="6.3362157344818115e-01" nType="-99"/>
          <Node pos="r" depth="2" NCoef="0" IVar="-1" Cut="0.0000000000000000e+00" cType="1" res="-1.0691229254007339e-02" rms="4.9276366829872131e-01" purity="4.0790447592735291e-01" nType="-99"/>
        </Node>
        <Node pos="r" depth="1" NCoef="0" IVar="5" Cut="3.2984988689422607e+00" cType="1" res="6.3003036193549633e-03" rms="4.1751646995544434e-01" purity="4.9874860048294067e-01" nType="0">
          <Node pos="l" depth="2" NCoef="0" IVar="-1" Cut="0.0000000000000000e+00" cType="1" res="1.3039475015830249e-04" rms="4.2670840024948120e-01" purity="5.3062212467193604e-01" nType="-99"/>
          <Node pos="r" depth="2" NCoef="0" IVar="-1" Cut="0.0000000000000000e+00" cType="1" res="-4.3491474352777004e-03" rms="2.4567595124244690e-01" purity="6.5066069364547729e-02" nType="-99"/>
        </Node>
      </Node>
    </BinaryTree>
    <BinaryTree type="DecisionTree" boostWeight="1.0000000000000000e+00" itree="287">
      <Node pos="s" depth="0" NCoef="0" IVar="15" Cut="8.0000000000000000e+00" cType="1" res="-3.5366818774491549e-03" rms="4.1368168592453003e-01" purity="5.0058150291442871e-01" nType="0">
        <Node pos="l" depth="1" NCoef="0" IVar="3" Cut="3.5714285373687744e+00" cType="1" res="4.2075835168361664e-02" rms="3.7780427932739258e-01" purity="7.3015123605728149e-01" nType="0">
          <Node pos="l" depth="2" NCoef="0" IVar="-1" Cut="0.0000000000000000e+00" cType="1" res="3.3116927370429039e-03" rms="3.5411536693572998e-01" purity="7.8522902727127075e-01" nType="-99"/>
          <Node pos="r" depth="2" NCoef="0" IVar="-1" Cut="0.0000000000000000e+00" cType="1" res="-3.3192795235663652e-03" rms="4.1326358914375305e-01" purity="6.2340897321701050e-01" nType="-99"/>
        </Node>
        <Node pos="r" depth="1" NCoef="0" IVar="14" Cut="3.1027580261230469e+01" cType="1" res="-1.9171526655554771e-02" rms="4.2415627837181091e-01" purity="4.2189061641693115e-01" nType="0">
          <Node pos="l" depth="2" NCoef="0" IVar="-1" Cut="0.0000000000000000e+00" cType="1" res="7.4996403418481350e-03" rms="4.1659602522850037e-01" purity="5.6088078022003174e-01" nType="-99"/>
          <Node pos="r" depth="2" NCoef="0" IVar="-1" Cut="0.0000000000000000e+00" cType="1" res="-1.2690299190580845e-03" rms="4.2351493239402771e-01" purity="4.0414494276046753e-01" nType="-99"/>
        </Node>
      </Node>
    </BinaryTree>
    <BinaryTree type="DecisionTree" boostWeight="1.0000000000000000e+00" itree="288">
      <Node pos="s" depth="0" NCoef="0" IVar="12" Cut="1.4285714924335480e-01" cType="1" res="-6.8223993293941021e-03" rms="4.2259195446968079e-01" purity="5.0911849737167358e-01" nType="0">
        <Node pos="l" depth="1" NCoef="0" IVar="4" Cut="1.6148424148559570e+00" cType="1" res="-7.8502081334590912e-02" rms="4.0832233428955078e-01" purity="5.4911559820175171e-01" nType="0">
          <Node pos="l" depth="2" NCoef="0" IVar="-1" Cut="0.0000000000000000e+00" cType="1" res="2.4309390573762357e-04" rms="3.9359977841377258e-01" purity="7.7704983949661255e-01" nType="-99"/>
          <Node pos="r" depth="2" NCoef="0" IVar="-1" Cut="0.0000000000000000e+00" cType="1" res="-4.4573983177542686e-03" rms="4.1592726111412048e-01" purity="3.0267700552940369e-01" nType="-99"/>
        </Node>
        <Node pos="r" depth="1" NCoef="0" IVar="12" Cut="2.0476191043853760e+00" cType="1" res="1.2321378104388714e-02" rms="4.2427811026573181e-01" purity="4.9843627214431763e-01" nType="0">
          <Node pos="l" depth="2" NCoef="0" IVar="-1" Cut="0.0000000000000000e+00" cType="1" res="1.1295612202957273e-03" rms="4.1529899835586548e-01" purity="5.1342868804931641e-01" nType="-99"/>
          <Node pos="r" depth="2" NCoef="0" IVar="-1" Cut="0.0000000000000000e+00" cType="1" res="-2.2514064330607653e-03" rms="4.5055291056632996e-01" purity="4.4495278596878052e-01" nType="-99"/>
        </Node>
      </Node>
    </BinaryTree>
    <BinaryTree type="DecisionTree" boostWeight="1.0000000000000000e+00" itree="289">
      <Node pos="s" depth="0" NCoef="0" IVar="15" Cut="4.1428570747375488e+00" cType="1" res="-4.5290710404515266e-03" rms="4.2221048474311829e-01" purity="5.0576388835906982e-01" nType="0">
        <Node pos="l" depth="1" NCoef="0" IVar="10" Cut="1.6690111160278320e+00" cType="1" res="-1.1265591531991959e-01" rms="4.4376009702682495e-01" purity="6.1170798540115356e-01" nType="0">
          <Node pos="l" depth="2" NCoef="0" IVar="-1" Cut="0.0000000000000000e+00" cType="1" res="3.8632960058748722e-03" rms="3.8904905319213867e-01" purity="8.0619764328002930e-01" nType="-99"/>
          <Node pos="r" depth="2" NCoef="0" IVar="-1" Cut="0.0000000000000000e+00" cType="1" res="-9.0741002932190895e-03" rms="4.6923989057540894e-01" purity="4.3607658147811890e-01" nType="-99"/>
        </Node>
        <Node pos="r" depth="1" NCoef="0" IVar="15" Cut="7.0952382087707520e+00" cType="1" res="5.2167098037898540e-03" rms="4.1884478926658630e-01" purity="4.9621489644050598e-01" nType="0">
          <Node pos="l" depth="2" NCoef="0" IVar="-1" Cut="0.0000000000000000e+00" cType="1" res="6.3638524152338505e-03" rms="3.7099787592887878e-01" purity="8.3557963371276855e-01" nType="-99"/>
          <Node pos="r" depth="2" NCoef="0" IVar="-1" Cut="0.0000000000000000e+00" cType="1" res="-5.9272913495078683e-04" rms="4.2453703284263611e-01" purity="4.3574377894401550e-01" nType="-99"/>
        </Node>
      </Node>
    </BinaryTree>
    <BinaryTree type="DecisionTree" boostWeight="1.0000000000000000e+00" itree="290">
      <Node pos="s" depth="0" NCoef="0" IVar="20" Cut="7.3729797363281250e+01" cType="1" res="-3.0558964237570763e-02" rms="4.2730641365051270e-01" purity="4.7923144698143005e-01" nType="0">
        <Node pos="l" depth="1" NCoef="0" IVar="12" Cut="1.4285714924335480e-01" cType="1" res="-2.5028986856341362e-02" rms="4.2727237939834595e-01" purity="4.8690265417098999e-01" nType="0">
          <Node pos="l" depth="2" NCoef="0" IVar="-1" Cut="0.0000000000000000e+00" cType="1" res="-2.9582111164927483e-03" rms="4.0764829516410828e-01" purity="5.5594086647033691e-01" nType="-99"/>
          <Node pos="r" depth="2" NCoef="0" IVar="-1" Cut="0.0000000000000000e+00" cType="1" res="4.9629050772637129e-04" rms="4.3088141083717346e-01" purity="4.7081294655799866e-01" nType="-99"/>
        </Node>
        <Node pos="r" depth="1" NCoef="0" IVar="-1" Cut="0.0000000000000000e+00" cType="1" res="-6.1013889499008656e-03" rms="3.9023867249488831e-01" purity="2.3793174326419830e-01" nType="-99"/>
      </Node>
    </BinaryTree>
    <BinaryTree type="DecisionTree" boostWeight="1.0000000000000000e+00" itree="291">
      <Node pos="s" depth="0" NCoef="0" IVar="7" Cut="-1.7142885923385620e-01" cType="1" res="-4.0865289047360420e-03" rms="4.0773212909698486e-01" purity="4.9149528145790100e-01" nType="0">
        <Node pos="l" depth="1" NCoef="0" IVar="18" Cut="6.4285712242126465e+00" cType="1" res="3.9082061499357224e-02" rms="4.0450331568717957e-01" purity="5.8976942300796509e-01" nType="0">
          <Node pos="l" depth="2" NCoef="0" IVar="-1" Cut="0.0000000000000000e+00" cType="1" res="1.2865650933235884e-03" rms="4.2407527565956116e-01" purity="6.8949675559997559e-01" nType="-99"/>
          <Node pos="r" depth="2" NCoef="0" IVar="-1" Cut="0.0000000000000000e+00" cType="1" res="-2.0043216645717621e-03" rms="2.6827847957611084e-01" purity="8.4539383649826050e-02" nType="-99"/>
        </Node>
        <Node pos="r" depth="1" NCoef="0" IVar="18" Cut="3.4285714626312256e+00" cType="1" res="-3.0997322872281075e-02" rms="4.0742418169975281e-01" purity="4.3023231625556946e-01" nType="0">
          <Node pos="l" depth="2" NCoef="0" IVar="-1" Cut="0.0000000000000000e+00" cType="1" res="2.0123750437051058e-03" rms="3.3602750301361084e-01" purity="7.0067542791366577e-01" nType="-99"/>
          <Node pos="r" depth="2" NCoef="0" IVar="-1" Cut="0.0000000000000000e+00" cType="1" res="-1.2831668136641383e-03" rms="4.2457497119903564e-01" purity="3.4936296939849854e-01" nType="-99"/>
        </Node>
      </Node>
    </BinaryTree>
    <BinaryTree type="DecisionTree" boostWeight="1.0000000000000000e+00" itree="292">
      <Node pos="s" depth="0" NCoef="0" IVar="1" Cut="8.4285717010498047e+00" cType="0" res="-1.3568934518843889e-03" rms="4.1703459620475769e-01" purity="5.0001233816146851e-01" nType="0">
        <Node pos="l" depth="1" NCoef="0" IVar="4" Cut="1.9238070249557495e+00" cType="0" res="1.1526468396186829e-01" rms="4.6521809697151184e-01" purity="6.0135376453399658e-01" nType="0">
          <Node pos="l" depth="2" NCoef="0" IVar="-1" Cut="0.0000000000000000e+00" cType="1" res="6.8231094628572464e-03" rms="4.3801167607307434e-01" purity="6.4354926347732544e-01" nType="-99"/>
          <Node pos="r" depth="2" NCoef="0" IVar="-1" Cut="0.0000000000000000e+00" cType="1" res="6.5009249374270439e-04" rms="4.3679019808769226e-01" purity="5.6092810630798340e-01" nType="-99"/>
        </Node>
        <Node pos="r" depth="1" NCoef="0" IVar="10" Cut="2.1677305698394775e+00" cType="1" res="-5.4133376106619835e-03" rms="4.1466817259788513e-01" purity="4.9648737907409668e-01" nType="0">
          <Node pos="l" depth="2" NCoef="0" IVar="-1" Cut="0.0000000000000000e+00" cType="1" res="1.0297569679096341e-03" rms="4.0943145751953125e-01" purity="6.3637846708297729e-01" nType="-99"/>
          <Node pos="r" depth="2" NCoef="0" IVar="-1" Cut="0.0000000000000000e+00" cType="1" res="-1.7402466619387269e-03" rms="4.1704377532005310e-01" purity="3.3472660183906555e-01" nType="-99"/>
        </Node>
      </Node>
    </BinaryTree>
    <BinaryTree type="DecisionTree" boostWeight="1.0000000000000000e+00" itree="293">
      <Node pos="s" depth="0" NCoef="0" IVar="9" Cut="-1.0000000000000000e+01" cType="1" res="1.6681511187925935e-03" rms="4.1761568188667297e-01" purity="5.1158040761947632e-01" nType="0">
        <Node pos="l" depth="1" NCoef="0" IVar="-1" Cut="0.0000000000000000e+00" cType="1" res="5.5642444640398026e-03" rms="3.7837234139442444e-01" purity="8.8145405054092407e-01" nType="-99"/>
        <Node pos="r" depth="1" NCoef="0" IVar="12" Cut="2.1428570747375488e+00" cType="1" res="-2.0033880136907101e-03" rms="4.1817063093185425e-01" purity="5.0056791305541992e-01" nType="0">
          <Node pos="l" depth="2" NCoef="0" IVar="-1" Cut="0.0000000000000000e+00" cType="1" res="1.7843175737652928e-04" rms="4.0709668397903442e-01" purity="5.1007324457168579e-01" nType="-99"/>
          <Node pos="r" depth="2" NCoef="0" IVar="-1" Cut="0.0000000000000000e+00" cType="1" res="-2.3069796152412891e-03" rms="4.6461808681488037e-01" purity="4.5465224981307983e-01" nType="-99"/>
        </Node>
      </Node>
    </BinaryTree>
    <BinaryTree type="DecisionTree" boostWeight="1.0000000000000000e+00" itree="294">
      <Node pos="s" depth="0" NCoef="0" IVar="9" Cut="-1.4285714626312256e+00" cType="1" res="-1.4659493463113904e-03" rms="4.1917967796325684e-01" purity="5.0740271806716919e-01" nType="0">
        <Node pos="l" depth="1" NCoef="0" IVar="15" Cut="9.8571424484252930e+00" cType="1" res="-5.4708231240510941e-02" rms="4.2701351642608643e-01" purity="5.3374081850051880e-01" nType="0">
          <Node pos="l" depth="2" NCoef="0" IVar="-1" Cut="0.0000000000000000e+00" cType="1" res="4.4842483475804329e-03" rms="3.8335430622100830e-01" purity="7.0973294973373413e-01" nType="-99"/>
          <Node pos="r" depth="2" NCoef="0" IVar="-1" Cut="0.0000000000000000e+00" cType="1" res="-4.2652217671275139e-03" rms="4.5378816127777100e-01" purity="3.4722024202346802e-01" nType="-99"/>
        </Node>
        <Node pos="r" depth="1" NCoef="0" IVar="12" Cut="1.4285714924335480e-01" cType="0" res="1.5132681466639042e-02" rms="4.1531398892402649e-01" purity="4.9919161200523376e-01" nType="0">
          <Node pos="l" depth="2" NCoef="0" IVar="-1" Cut="0.0000000000000000e+00" cType="1" res="8.5579516598954797e-04" rms="4.1597884893417358e-01" purity="5.0549131631851196e-01" nType="-99"/>
          <Node pos="r" depth="2" NCoef="0" IVar="-1" Cut="0.0000000000000000e+00" cType="1" res="-5.2596651948988438e-03" rms="3.9419853687286377e-01" purity="4.6541672945022583e-01" nType="-99"/>
        </Node>
      </Node>
    </BinaryTree>
    <BinaryTree type="DecisionTree" boostWeight="1.0000000000000000e+00" itree="295">
      <Node pos="s" depth="0" NCoef="0" IVar="15" Cut="1.8428571701049805e+01" cType="1" res="2.5060558691620827e-02" rms="4.0612119436264038e-01" purity="5.2725958824157715e-01" nType="0">
        <Node pos="l" depth="1" NCoef="0" IVar="20" Cut="9.3222599029541016e+00" cType="0" res="3.8128934800624847e-02" rms="4.2654186487197876e-01" purity="6.0571652650833130e-01" nType="0">
          <Node pos="l" depth="2" NCoef="0" IVar="-1" Cut="0.0000000000000000e+00" cType="1" res="5.8833160437643528e-04" rms="4.2694935202598572e-01" purity="6.4607036113739014e-01" nType="-99"/>
          <Node pos="r" depth="2" NCoef="0" IVar="-1" Cut="0.0000000000000000e+00" cType="1" res="-2.3448196589015424e-04" rms="4.2174878716468811e-01" purity="5.2085781097412109e-01" nType="-99"/>
        </Node>
        <Node pos="r" depth="1" NCoef="0" IVar="16" Cut="3.5280823707580566e-02" cType="0" res="-5.2086673676967621e-02" rms="2.3999302089214325e-01" purity="6.4100325107574463e-02" nType="0">
          <Node pos="l" depth="2" NCoef="0" IVar="-1" Cut="0.0000000000000000e+00" cType="1" res="-2.5525828823447227e-03" rms="2.7110227942466736e-01" purity="8.5719317197799683e-02" nType="-99"/>
          <Node pos="r" depth="2" NCoef="0" IVar="-1" Cut="0.0000000000000000e+00" cType="1" res="-5.8955657295882702e-03" rms="2.0239713788032532e-01" purity="4.2608182877302170e-02" nType="-99"/>
        </Node>
      </Node>
    </BinaryTree>
    <BinaryTree type="DecisionTree" boostWeight="1.0000000000000000e+00" itree="296">
      <Node pos="s" depth="0" NCoef="0" IVar="12" Cut="1.4285714924335480e-01" cType="1" res="-1.1686045676469803e-02" rms="4.1427606344223022e-01" purity="4.8354542255401611e-01" nType="0">
        <Node pos="l" depth="1" NCoef="0" IVar="10" Cut="1.7435643672943115e+00" cType="1" res="-8.5149936378002167e-02" rms="4.0214729309082031e-01" purity="5.2973359823226929e-01" nType="0">
          <Node pos="l" depth="2" NCoef="0" IVar="-1" Cut="0.0000000000000000e+00" cType="1" res="2.8031459078192711e-03" rms="3.9086177945137024e-01" purity="7.6185411214828491e-01" nType="-99"/>
          <Node pos="r" depth="2" NCoef="0" IVar="-1" Cut="0.0000000000000000e+00" cType="1" res="-5.8257500641047955e-03" rms="3.9917993545532227e-01" purity="3.1139805912971497e-01" nType="-99"/>
        </Node>
        <Node pos="r" depth="1" NCoef="0" IVar="8" Cut="2.4261906147003174e+00" cType="1" res="6.3448208384215832e-03" rms="4.1521716117858887e-01" purity="4.7220906615257263e-01" nType="0">
          <Node pos="l" depth="2" NCoef="0" IVar="-1" Cut="0.0000000000000000e+00" cType="1" res="5.1845773123204708e-04" rms="4.1098865866661072e-01" purity="4.8511675000190735e-01" nType="-99"/>
          <Node pos="r" depth="2" NCoef="0" IVar="-1" Cut="0.0000000000000000e+00" cType="1" res="-1.7716831061989069e-03" rms="4.4075617194175720e-01" purity="3.3322247862815857e-01" nType="-99"/>
        </Node>
      </Node>
    </BinaryTree>
    <BinaryTree type="DecisionTree" boostWeight="1.0000000000000000e+00" itree="297">
      <Node pos="s" depth="0" NCoef="0" IVar="0" Cut="4.4540303945541382e-01" cType="1" res="-5.6815808638930321e-03" rms="4.2206203937530518e-01" purity="5.0696814060211182e-01" nType="0">
        <Node pos="l" depth="1" NCoef="0" IVar="8" Cut="2.4261906147003174e+00" cType="0" res="-1.2160173803567886e-01" rms="4.9235907196998596e-01" purity="5.2652090787887573e-01" nType="0">
          <Node pos="l" depth="2" NCoef="0" IVar="-1" Cut="0.0000000000000000e+00" cType="1" res="3.6430358886718750e-03" rms="4.4727525115013123e-01" purity="6.2542462348937988e-01" nType="-99"/>
          <Node pos="r" depth="2" NCoef="0" IVar="-1" Cut="0.0000000000000000e+00" cType="1" res="-7.0414170622825623e-03" rms="4.9112173914909363e-01" purity="4.9543476104736328e-01" nType="-99"/>
        </Node>
        <Node pos="r" depth="1" NCoef="0" IVar="18" Cut="5.1428570747375488e+00" cType="1" res="2.8016164433211088e-03" rms="4.1518291831016541e-01" purity="5.0553721189498901e-01" nType="0">
          <Node pos="l" depth="2" NCoef="0" IVar="-1" Cut="0.0000000000000000e+00" cType="1" res="1.4931004261597991e-03" rms="4.1102141141891479e-01" purity="6.8245023488998413e-01" nType="-99"/>
          <Node pos="r" depth="2" NCoef="0" IVar="-1" Cut="0.0000000000000000e+00" cType="1" res="-1.0260111885145307e-03" rms="4.1718170046806335e-01" purity="3.3385467529296875e-01" nType="-99"/>
        </Node>
      </Node>
    </BinaryTree>
    <BinaryTree type="DecisionTree" boostWeight="1.0000000000000000e+00" itree="298">
      <Node pos="s" depth="0" NCoef="0" IVar="6" Cut="1.4874308109283447e+00" cType="1" res="-2.5697434321045876e-03" rms="4.1901975870132446e-01" purity="4.9939465522766113e-01" nType="0">
        <Node pos="l" depth="1" NCoef="0" IVar="20" Cut="2.0021230697631836e+01" cType="0" res="-3.3648420125246048e-02" rms="4.2975372076034546e-01" purity="6.3583052158355713e-01" nType="0">
          <Node pos="l" depth="2" NCoef="0" IVar="-1" Cut="0.0000000000000000e+00" cType="1" res="7.2793639265000820e-04" rms="3.8928729295730591e-01" purity="6.8934094905853271e-01" nType="-99"/>
          <Node pos="r" depth="2" NCoef="0" IVar="-1" Cut="0.0000000000000000e+00" cType="1" res="-2.5492631830275059e-03" rms="4.4787800312042236e-01" purity="6.0185533761978149e-01" nType="-99"/>
        </Node>
        <Node pos="r" depth="1" NCoef="0" IVar="5" Cut="1.1016826629638672e+00" cType="1" res="1.6254611313343048e-02" rms="4.1124179959297180e-01" purity="4.1675537824630737e-01" nType="0">
          <Node pos="l" depth="2" NCoef="0" IVar="-1" Cut="0.0000000000000000e+00" cType="1" res="3.8115493953227997e-03" rms="3.8953512907028198e-01" purity="7.3996853828430176e-01" nType="-99"/>
          <Node pos="r" depth="2" NCoef="0" IVar="-1" Cut="0.0000000000000000e+00" cType="1" res="-1.2682913802564144e-04" rms="4.1152304410934448e-01" purity="3.8128980994224548e-01" nType="-99"/>
        </Node>
      </Node>
    </BinaryTree>
    <BinaryTree type="DecisionTree" boostWeight="1.0000000000000000e+00" itree="299">
      <Node pos="s" depth="0" NCoef="0" IVar="18" Cut="3.4285714626312256e+00" cType="1" res="-3.9522149600088596e-03" rms="4.1140010952949524e-01" purity="4.9187943339347839e-01" nType="0">
        <Node pos="l" depth="1" NCoef="0" IVar="0" Cut="5.5964243412017822e-01" cType="0" res="3.9704918861389160e-02" rms="3.4708032011985779e-01" purity="7.5220102071762085e-01" nType="0">
          <Node pos="l" depth="2" NCoef="0" IVar="-1" Cut="0.0000000000000000e+00" cType="1" res="3.0860153492540121e-03" rms="3.0992048978805542e-01" purity="7.7207905054092407e-01" nType="-99"/>
          <Node pos="r" depth="2" NCoef="0" IVar="-1" Cut="0.0000000000000000e+00" cType="1" res="-9.0010175481438637e-03" rms="4.6649739146232605e-01" purity="6.4050513505935669e-01" nType="-99"/>
        </Node>
        <Node pos="r" depth="1" NCoef="0" IVar="20" Cut="1.2849643707275391e+01" cType="1" res="-1.8368359655141830e-02" rms="4.2956069111824036e-01" purity="4.0591794252395630e-01" nType="0">
          <Node pos="l" depth="2" NCoef="0" IVar="-1" Cut="0.0000000000000000e+00" cType="1" res="2.5327880866825581e-03" rms="4.4395962357521057e-01" purity="5.1159894466400146e-01" nType="-99"/>
          <Node pos="r" depth="2" NCoef="0" IVar="-1" Cut="0.0000000000000000e+00" cType="1" res="-1.8208672991022468e-03" rms="4.2162761092185974e-01" purity="3.6244305968284607e-01" nType="-99"/>
        </Node>
      </Node>
    </BinaryTree>
    <BinaryTree type="DecisionTree" boostWeight="1.0000000000000000e+00" itree="300">
      <Node pos="s" depth="0" NCoef="0" IVar="7" Cut="1.5238153934478760e-01" cType="1" res="-3.1785476021468639e-03" rms="4.1254821419715881e-01" purity="4.9703431129455566e-01" nType="0">
        <Node pos="l" depth="1" NCoef="0" IVar="5" Cut="4.3625536561012268e-01" cType="1" res="1.9565762951970100e-02" rms="4.0902608633041382e-01" purity="5.4905194044113159e-01" nType="0">
          <Node pos="l" depth="2" NCoef="0" IVar="-1" Cut="0.0000000000000000e+00" cType="1" res="1.7317846417427063e-02" rms="1.1524332314729691e-01" purity="1.0000000000000000e+00" nType="-99"/>
          <Node pos="r" depth="2" NCoef="0" IVar="-1" Cut="0.0000000000000000e+00" cType="1" res="3.5187177127227187e-04" rms="4.1291093826293945e-01" purity="5.3690618276596069e-01" nType="-99"/>
        </Node>
        <Node pos="r" depth="1" NCoef="0" IVar="4" Cut="1.1411663293838501e+00" cType="1" res="-4.5245308429002762e-02" rms="4.1571825742721558e-01" purity="4.0082514286041260e-01" nType="0">
          <Node pos="l" depth="2" NCoef="0" IVar="-1" Cut="0.0000000000000000e+00" cType="1" res="9.1809476725757122e-04" rms="3.2996228337287903e-01" purity="8.0264389514923096e-01" nType="-99"/>
          <Node pos="r" depth="2" NCoef="0" IVar="-1" Cut="0.0000000000000000e+00" cType="1" res="-1.6185247804969549e-03" rms="4.2358377575874329e-01" purity="3.4528306126594543e-01" nType="-99"/>
        </Node>
      </Node>
    </BinaryTree>
    <BinaryTree type="DecisionTree" boostWeight="1.0000000000000000e+00" itree="301">
      <Node pos="s" depth="0" NCoef="0" IVar="7" Cut="4.2619051933288574e+00" cType="1" res="-5.9502390213310719e-03" rms="4.1251868009567261e-01" purity="4.9023827910423279e-01" nType="0">
        <Node pos="l" depth="1" NCoef="0" IVar="4" Cut="3.2973644733428955e+00" cType="1" res="-1.0934044839814305e-03" rms="4.1030073165893555e-01" purity="4.9487376213073730e-01" nType="0">
          <Node pos="l" depth="2" NCoef="0" IVar="-1" Cut="0.0000000000000000e+00" cType="1" res="2.7428191970102489e-04" rms="4.2216220498085022e-01" purity="5.4017883539199829e-01" nType="-99"/>
          <Node pos="r" depth="2" NCoef="0" IVar="-1" Cut="0.0000000000000000e+00" cType="1" res="-4.8533342778682709e-03" rms="2.6017090678215027e-01" purity="7.2986841201782227e-02" nType="-99"/>
        </Node>
        <Node pos="r" depth="1" NCoef="0" IVar="-1" Cut="0.0000000000000000e+00" cType="1" res="-2.0172519143670797e-03" rms="4.5179751515388489e-01" purity="3.3329045772552490e-01" nType="-99"/>
      </Node>
    </BinaryTree>
    <BinaryTree type="DecisionTree" boostWeight="1.0000000000000000e+00" itree="302">
      <Node pos="s" depth="0" NCoef="0" IVar="20" Cut="2.3955270767211914e+01" cType="0" res="-1.2860906310379505e-02" rms="4.1789105534553528e-01" purity="4.8736357688903809e-01" nType="0">
        <Node pos="l" depth="1" NCoef="0" IVar="6" Cut="1.5378221273422241e+00" cType="1" res="3.9690468460321426e-02" rms="4.0061929821968079e-01" purity="5.5322605371475220e-01" nType="0">
          <Node pos="l" depth="2" NCoef="0" IVar="-1" Cut="0.0000000000000000e+00" cType="1" res="3.9596902206540108e-03" rms="3.5124817490577698e-01" purity="7.8675824403762817e-01" nType="-99"/>
          <Node pos="r" depth="2" NCoef="0" IVar="-1" Cut="0.0000000000000000e+00" cType="1" res="-4.1789803071878850e-04" rms="4.2402127385139465e-01" purity="4.1024744510650635e-01" nType="-99"/>
        </Node>
        <Node pos="r" depth="1" NCoef="0" IVar="6" Cut="1.1043329238891602e+00" cType="1" res="-3.5700492560863495e-02" rms="4.2314919829368591e-01" purity="4.5873880386352539e-01" nType="0">
          <Node pos="l" depth="2" NCoef="0" IVar="-1" Cut="0.0000000000000000e+00" cType="1" res="-5.2228773711249232e-04" rms="4.4209185242652893e-01" purity="5.8246177434921265e-01" nType="-99"/>
          <Node pos="r" depth="2" NCoef="0" IVar="-1" Cut="0.0000000000000000e+00" cType="1" res="-6.7195075098425150e-04" rms="4.1653496026992798e-01" purity="4.2599490284919739e-01" nType="-99"/>
        </Node>
      </Node>
    </BinaryTree>
    <BinaryTree type="DecisionTree" boostWeight="1.0000000000000000e+00" itree="303">
      <Node pos="s" depth="0" NCoef="0" IVar="5" Cut="8.7959969043731689e-01" cType="1" res="-4.0337308309972286e-03" rms="4.1593414545059204e-01" purity="4.9697816371917725e-01" nType="0">
        <Node pos="l" depth="1" NCoef="0" IVar="20" Cut="2.0021230697631836e+01" cType="0" res="9.1505967080593109e-02" rms="3.1539416313171387e-01" purity="8.6450076103210449e-01" nType="0">
          <Node pos="l" depth="2" NCoef="0" IVar="-1" Cut="0.0000000000000000e+00" cType="1" res="9.0974578633904457e-03" rms="1.5910455584526062e-01" purity="9.4977289438247681e-01" nType="-99"/>
          <Node pos="r" depth="2" NCoef="0" IVar="-1" Cut="0.0000000000000000e+00" cType="1" res="1.1078205425292253e-03" rms="3.7298607826232910e-01" purity="8.1103092432022095e-01" nType="-99"/>
        </Node>
        <Node pos="r" depth="1" NCoef="0" IVar="4" Cut="1.0582896471023560e+00" cType="1" res="-1.3110956177115440e-02" rms="4.2312815785408020e-01" purity="4.6205982565879822e-01" nType="0">
          <Node pos="l" depth="2" NCoef="0" IVar="-1" Cut="0.0000000000000000e+00" cType="1" res="-6.2221046537160873e-03" rms="4.3899336457252502e-01" purity="5.9864711761474609e-01" nType="-99"/>
          <Node pos="r" depth="2" NCoef="0" IVar="-1" Cut="0.0000000000000000e+00" cType="1" res="-1.2735572818201035e-04" rms="4.2031654715538025e-01" purity="4.5088812708854675e-01" nType="-99"/>
        </Node>
      </Node>
    </BinaryTree>
    <BinaryTree type="DecisionTree" boostWeight="1.0000000000000000e+00" itree="304">
      <Node pos="s" depth="0" NCoef="0" IVar="15" Cut="4.8571429252624512e+00" cType="1" res="-7.8675001859664917e-03" rms="4.2222884297370911e-01" purity="4.9905037879943848e-01" nType="0">
        <Node pos="l" depth="1" NCoef="0" IVar="14" Cut="6.0034965515136719e+01" cType="0" res="-9.7467094659805298e-02" rms="4.3654057383537292e-01" purity="6.1801320314407349e-01" nType="0">
          <Node pos="l" depth="2" NCoef="0" IVar="-1" Cut="0.0000000000000000e+00" cType="1" res="2.0196030382066965e-03" rms="3.5090714693069458e-01" purity="7.6712399721145630e-01" nType="-99"/>
          <Node pos="r" depth="2" NCoef="0" IVar="-1" Cut="0.0000000000000000e+00" cType="1" res="-9.7733018919825554e-03" rms="4.6319922804832458e-01" purity="5.2328276634216309e-01" nType="-99"/>
        </Node>
        <Node pos="r" depth="1" NCoef="0" IVar="18" Cut="3.1428570747375488e+00" cType="1" res="4.1407876415178180e-04" rms="4.1991734504699707e-01" purity="4.8805481195449829e-01" nType="0">
          <Node pos="l" depth="2" NCoef="0" IVar="-1" Cut="0.0000000000000000e+00" cType="1" res="4.7759800218045712e-03" rms="3.3654350042343140e-01" purity="7.7866363525390625e-01" nType="-99"/>
          <Node pos="r" depth="2" NCoef="0" IVar="-1" Cut="0.0000000000000000e+00" cType="1" res="-4.7926345723681152e-04" rms="4.3570810556411743e-01" purity="4.2221871018409729e-01" nType="-99"/>
        </Node>
      </Node>
    </BinaryTree>
    <BinaryTree type="DecisionTree" boostWeight="1.0000000000000000e+00" itree="305">
      <Node pos="s" depth="0" NCoef="0" IVar="21" Cut="4.2380952835083008e+00" cType="1" res="-6.2254471704363823e-03" rms="4.2408013343811035e-01" purity="5.0599408149719238e-01" nType="0">
        <Node pos="l" depth="1" NCoef="0" IVar="20" Cut="1.4678148269653320e+01" cType="1" res="-2.8712827712297440e-02" rms="4.2332163453102112e-01" purity="5.6235748529434204e-01" nType="0">
          <Node pos="l" depth="2" NCoef="0" IVar="-1" Cut="0.0000000000000000e+00" cType="1" res="5.9505342505872250e-04" rms="4.0343788266181946e-01" purity="5.8281886577606201e-01" nType="-99"/>
          <Node pos="r" depth="2" NCoef="0" IVar="-1" Cut="0.0000000000000000e+00" cType="1" res="-2.8549602720886469e-03" rms="4.3629148602485657e-01" purity="5.4345148801803589e-01" nType="-99"/>
        </Node>
        <Node pos="r" depth="1" NCoef="0" IVar="17" Cut="1.5220273017883301e+01" cType="1" res="2.9582766816020012e-02" rms="4.2282387614250183e-01" purity="4.1624274849891663e-01" nType="0">
          <Node pos="l" depth="2" NCoef="0" IVar="-1" Cut="0.0000000000000000e+00" cType="1" res="6.1876722611486912e-03" rms="4.3956235051155090e-01" purity="5.9465962648391724e-01" nType="-99"/>
          <Node pos="r" depth="2" NCoef="0" IVar="-1" Cut="0.0000000000000000e+00" cType="1" res="-4.8438506200909615e-04" rms="4.1383016109466553e-01" purity="3.6329084634780884e-01" nType="-99"/>
        </Node>
      </Node>
    </BinaryTree>
    <BinaryTree type="DecisionTree" boostWeight="1.0000000000000000e+00" itree="306">
      <Node pos="s" depth="0" NCoef="0" IVar="15" Cut="4.8571429252624512e+00" cType="1" res="-1.0925177484750748e-02" rms="4.2315319180488586e-01" purity="4.9651122093200684e-01" nType="0">
        <Node pos="l" depth="1" NCoef="0" IVar="20" Cut="1.9674621582031250e+01" cType="0" res="-1.0624351352453232e-01" rms="4.5340326428413391e-01" purity="6.1296063661575317e-01" nType="0">
          <Node pos="l" depth="2" NCoef="0" IVar="-1" Cut="0.0000000000000000e+00" cType="1" res="7.0759961381554604e-03" rms="3.5809725522994995e-01" purity="8.1577253341674805e-01" nType="-99"/>
          <Node pos="r" depth="2" NCoef="0" IVar="-1" Cut="0.0000000000000000e+00" cType="1" res="-8.2563515752553940e-03" rms="4.6851840615272522e-01" purity="5.3819775581359863e-01" nType="-99"/>
        </Node>
        <Node pos="r" depth="1" NCoef="0" IVar="12" Cut="1.4285714924335480e-01" cType="1" res="-2.0887393038719893e-03" rms="4.1914212703704834e-01" purity="4.8571586608886719e-01" nType="0">
          <Node pos="l" depth="2" NCoef="0" IVar="-1" Cut="0.0000000000000000e+00" cType="1" res="-2.9359229374676943e-03" rms="4.0388458967208862e-01" purity="5.3095966577529907e-01" nType="-99"/>
          <Node pos="r" depth="2" NCoef="0" IVar="-1" Cut="0.0000000000000000e+00" cType="1" res="5.7405838742852211e-04" rms="4.2092511057853699e-01" purity="4.7575366497039795e-01" nType="-99"/>
        </Node>
      </Node>
    </BinaryTree>
    <BinaryTree type="DecisionTree" boostWeight="1.0000000000000000e+00" itree="307">
      <Node pos="s" depth="0" NCoef="0" IVar="9" Cut="-5.7142858505249023e+00" cType="1" res="-1.0338986758142710e-03" rms="4.1386064887046814e-01" purity="4.9817103147506714e-01" nType="0">
        <Node pos="l" depth="1" NCoef="0" IVar="15" Cut="9.4285717010498047e+00" cType="1" res="-9.3066819012165070e-02" rms="4.1817450523376465e-01" purity="5.4927951097488403e-01" nType="0">
          <Node pos="l" depth="2" NCoef="0" IVar="-1" Cut="0.0000000000000000e+00" cType="1" res="-3.5942026879638433e-03" rms="3.9753285050392151e-01" purity="6.7034691572189331e-01" nType="-99"/>
          <Node pos="r" depth="2" NCoef="0" IVar="-1" Cut="0.0000000000000000e+00" cType="1" res="-2.6224439498037100e-03" rms="4.3193739652633667e-01" purity="2.8767204284667969e-01" nType="-99"/>
        </Node>
        <Node pos="r" depth="1" NCoef="0" IVar="8" Cut="2.3476190567016602e+00" cType="1" res="6.4120916649699211e-03" rms="4.1261303424835205e-01" purity="4.9403607845306396e-01" nType="0">
          <Node pos="l" depth="2" NCoef="0" IVar="-1" Cut="0.0000000000000000e+00" cType="1" res="2.8637176728807390e-04" rms="4.0833839774131775e-01" purity="5.0348132848739624e-01" nType="-99"/>
          <Node pos="r" depth="2" NCoef="0" IVar="-1" Cut="0.0000000000000000e+00" cType="1" res="-2.5221284013241529e-03" rms="4.4663020968437195e-01" purity="3.9076590538024902e-01" nType="-99"/>
        </Node>
      </Node>
    </BinaryTree>
    <BinaryTree type="DecisionTree" boostWeight="1.0000000000000000e+00" itree="308">
      <Node pos="s" depth="0" NCoef="0" IVar="12" Cut="2.1428570747375488e+00" cType="1" res="-5.9753609821200371e-03" rms="4.1644579172134399e-01" purity="4.9535244703292847e-01" nType="0">
        <Node pos="l" depth="1" NCoef="0" IVar="20" Cut="3.7537380218505859e+01" cType="0" res="6.1137615703046322e-03" rms="4.0384709835052490e-01" purity="5.0468659400939941e-01" nType="0">
          <Node pos="l" depth="2" NCoef="0" IVar="-1" Cut="0.0000000000000000e+00" cType="1" res="1.7801750218495727e-03" rms="4.0120363235473633e-01" purity="6.3928729295730591e-01" nType="-99"/>
          <Node pos="r" depth="2" NCoef="0" IVar="-1" Cut="0.0000000000000000e+00" cType="1" res="8.2266473327763379e-05" rms="4.0324565768241882e-01" purity="4.8580670356750488e-01" nType="-99"/>
        </Node>
        <Node pos="r" depth="1" NCoef="0" IVar="15" Cut="7.0000000000000000e+00" cType="1" res="-6.5721333026885986e-02" rms="4.6926569938659668e-01" purity="4.4922214746475220e-01" nType="0">
          <Node pos="l" depth="2" NCoef="0" IVar="-1" Cut="0.0000000000000000e+00" cType="1" res="7.2710122913122177e-04" rms="5.0095117092132568e-01" purity="5.5834656953811646e-01" nType="-99"/>
          <Node pos="r" depth="2" NCoef="0" IVar="-1" Cut="0.0000000000000000e+00" cType="1" res="-2.7230593841522932e-03" rms="4.5716065168380737e-01" purity="4.0976023674011230e-01" nType="-99"/>
        </Node>
      </Node>
    </BinaryTree>
    <BinaryTree type="DecisionTree" boostWeight="1.0000000000000000e+00" itree="309">
      <Node pos="s" depth="0" NCoef="0" IVar="7" Cut="1.5238153934478760e-01" cType="1" res="5.3653768263757229e-03" rms="4.1796946525573730e-01" purity="5.1038920879364014e-01" nType="0">
        <Node pos="l" depth="1" NCoef="0" IVar="20" Cut="1.4912144660949707e+01" cType="1" res="2.7936959639191628e-02" rms="4.1138043999671936e-01" purity="5.5912011861801147e-01" nType="0">
          <Node pos="l" depth="2" NCoef="0" IVar="-1" Cut="0.0000000000000000e+00" cType="1" res="2.8783809393644333e-03" rms="4.1357734799385071e-01" purity="6.4354932308197021e-01" nType="-99"/>
          <Node pos="r" depth="2" NCoef="0" IVar="-1" Cut="0.0000000000000000e+00" cType="1" res="-9.8565581720322371e-04" rms="4.0784266591072083e-01" purity="4.9959337711334229e-01" nType="-99"/>
        </Node>
        <Node pos="r" depth="1" NCoef="0" IVar="6" Cut="1.0999121665954590e+00" cType="1" res="-3.7286836653947830e-02" rms="4.2689892649650574e-01" purity="4.1830521821975708e-01" nType="0">
          <Node pos="l" depth="2" NCoef="0" IVar="-1" Cut="0.0000000000000000e+00" cType="1" res="-5.9136960771866143e-05" rms="4.0793746709823608e-01" purity="6.4809006452560425e-01" nType="-99"/>
          <Node pos="r" depth="2" NCoef="0" IVar="-1" Cut="0.0000000000000000e+00" cType="1" res="-1.8372812774032354e-03" rms="4.2845198512077332e-01" purity="3.2253664731979370e-01" nType="-99"/>
        </Node>
      </Node>
    </BinaryTree>
    <BinaryTree type="DecisionTree" boostWeight="1.0000000000000000e+00" itree="310">
      <Node pos="s" depth="0" NCoef="0" IVar="18" Cut="1.2857142686843872e+00" cType="1" res="-6.8046706728637218e-03" rms="4.1154274344444275e-01" purity="4.8884806036949158e-01" nType="0">
        <Node pos="l" depth="1" NCoef="0" IVar="20" Cut="7.2528190612792969e+00" cType="0" res="-1.3492727279663086e-01" rms="4.4583764672279358e-01" purity="5.7261741161346436e-01" nType="0">
          <Node pos="l" depth="2" NCoef="0" IVar="-1" Cut="0.0000000000000000e+00" cType="1" res="-1.0232005297439173e-04" rms="4.1592848300933838e-01" purity="7.1447104215621948e-01" nType="-99"/>
          <Node pos="r" depth="2" NCoef="0" IVar="-1" Cut="0.0000000000000000e+00" cType="1" res="-1.2320492416620255e-02" rms="4.4288527965545654e-01" purity="3.6096474528312683e-01" nType="-99"/>
        </Node>
        <Node pos="r" depth="1" NCoef="0" IVar="5" Cut="1.3193994760513306e+00" cType="1" res="1.2870384380221367e-03" rms="4.0793162584304810e-01" purity="4.8355752229690552e-01" nType="0">
          <Node pos="l" depth="2" NCoef="0" IVar="-1" Cut="0.0000000000000000e+00" cType="1" res="8.3836441626772285e-04" rms="3.8138830661773682e-01" purity="7.2651195526123047e-01" nType="-99"/>
          <Node pos="r" depth="2" NCoef="0" IVar="-1" Cut="0.0000000000000000e+00" cType="1" res="-2.1578017913270742e-04" rms="4.1741359233856201e-01" purity="3.7974464893341064e-01" nType="-99"/>
        </Node>
      </Node>
    </BinaryTree>
    <BinaryTree type="DecisionTree" boostWeight="1.0000000000000000e+00" itree="311">
      <Node pos="s" depth="0" NCoef="0" IVar="21" Cut="4.2380952835083008e+00" cType="1" res="-1.6023049131035805e-02" rms="4.2545410990715027e-01" purity="4.9852663278579712e-01" nType="0">
        <Node pos="l" depth="1" NCoef="0" IVar="6" Cut="1.6522731781005859e+00" cType="1" res="-4.0014933794736862e-02" rms="4.2587339878082275e-01" purity="5.5369639396667480e-01" nType="0">
          <Node pos="l" depth="2" NCoef="0" IVar="-1" Cut="0.0000000000000000e+00" cType="1" res="-1.6621524700894952e-03" rms="4.2194113135337830e-01" purity="6.2593495845794678e-01" nType="-99"/>
          <Node pos="r" depth="2" NCoef="0" IVar="-1" Cut="0.0000000000000000e+00" cType="1" res="-4.7656995593570173e-04" rms="4.2850008606910706e-01" purity="4.4091296195983887e-01" nType="-99"/>
        </Node>
        <Node pos="r" depth="1" NCoef="0" IVar="20" Cut="8.1605997085571289e+00" cType="1" res="2.1548233926296234e-02" rms="4.2206540703773499e-01" purity="4.1213074326515198e-01" nType="0">
          <Node pos="l" depth="2" NCoef="0" IVar="-1" Cut="0.0000000000000000e+00" cType="1" res="2.1863723173737526e-02" rms="3.7446036934852600e-01" purity="7.5252026319503784e-01" nType="-99"/>
          <Node pos="r" depth="2" NCoef="0" IVar="-1" Cut="0.0000000000000000e+00" cType="1" res="1.3242049317341298e-04" rms="4.2056611180305481e-01" purity="3.9646825194358826e-01" nType="-99"/>
        </Node>
      </Node>
    </BinaryTree>
    <BinaryTree type="DecisionTree" boostWeight="1.0000000000000000e+00" itree="312">
      <Node pos="s" depth="0" NCoef="0" IVar="0" Cut="4.3445560336112976e-01" cType="1" res="-1.4784699305891991e-03" rms="4.1008785367012024e-01" purity="4.9484470486640930e-01" nType="0">
        <Node pos="l" depth="1" NCoef="0" IVar="4" Cut="1.3276151418685913e+00" cType="1" res="-1.2596246600151062e-01" rms="4.6711197495460510e-01" purity="4.9790379405021667e-01" nType="0">
          <Node pos="l" depth="2" NCoef="0" IVar="-1" Cut="0.0000000000000000e+00" cType="1" res="-9.3172694323584437e-04" rms="4.0292701125144958e-01" purity="7.3448210954666138e-01" nType="-99"/>
          <Node pos="r" depth="2" NCoef="0" IVar="-1" Cut="0.0000000000000000e+00" cType="1" res="-5.1724542863667011e-03" rms="4.8475086688995361e-01" purity="3.1472951173782349e-01" nType="-99"/>
        </Node>
        <Node pos="r" depth="1" NCoef="0" IVar="15" Cut="1.9000000000000000e+01" cType="1" res="7.2009577415883541e-03" rms="4.0438666939735413e-01" purity="4.9463137984275818e-01" nType="0">
          <Node pos="l" depth="2" NCoef="0" IVar="-1" Cut="0.0000000000000000e+00" cType="1" res="6.5754848765209317e-04" rms="4.2549759149551392e-01" purity="5.6724292039871216e-01" nType="-99"/>
          <Node pos="r" depth="2" NCoef="0" IVar="-1" Cut="0.0000000000000000e+00" cType="1" res="-4.1770702227950096e-03" rms="2.3244093358516693e-01" purity="6.0693860054016113e-02" nType="-99"/>
        </Node>
      </Node>
    </BinaryTree>
    <BinaryTree type="DecisionTree" boostWeight="1.0000000000000000e+00" itree="313">
      <Node pos="s" depth="0" NCoef="0" IVar="0" Cut="1.0898293256759644e+00" cType="1" res="-9.9697634577751160e-03" rms="4.2321160435676575e-01" purity="4.9927595257759094e-01" nType="0">
        <Node pos="l" depth="1" NCoef="0" IVar="20" Cut="1.9801039695739746e+00" cType="0" res="-4.9564849585294724e-02" rms="4.3969541788101196e-01" purity="5.6677377223968506e-01" nType="0">
          <Node pos="l" depth="2" NCoef="0" IVar="-1" Cut="0.0000000000000000e+00" cType="1" res="-7.3348998557776213e-04" rms="4.3361082673072815e-01" purity="5.8660048246383667e-01" nType="-99"/>
          <Node pos="r" depth="2" NCoef="0" IVar="-1" Cut="0.0000000000000000e+00" cType="1" res="-9.0966308489441872e-03" rms="4.6050599217414856e-01" purity="3.0560690164566040e-01" nType="-99"/>
        </Node>
        <Node pos="r" depth="1" NCoef="0" IVar="3" Cut="5.8571429252624512e+00" cType="0" res="8.9752711355686188e-03" rms="4.1375505924224854e-01" purity="4.6698030829429626e-01" nType="0">
          <Node pos="l" depth="2" NCoef="0" IVar="-1" Cut="0.0000000000000000e+00" cType="1" res="3.5901155788451433e-03" rms="4.4184952974319458e-01" purity="7.1265190839767456e-01" nType="-99"/>
          <Node pos="r" depth="2" NCoef="0" IVar="-1" Cut="0.0000000000000000e+00" cType="1" res="1.1961280688410625e-04" rms="4.1108578443527222e-01" purity="4.5595809817314148e-01" nType="-99"/>
        </Node>
      </Node>
    </BinaryTree>
    <BinaryTree type="DecisionTree" boostWeight="1.0000000000000000e+00" itree="314">
      <Node pos="s" depth="0" NCoef="0" IVar="21" Cut="4.2380952835083008e+00" cType="1" res="-4.2612524703145027e-03" rms="4.1101595759391785e-01" purity="4.8863098025321960e-01" nType="0">
        <Node pos="l" depth="1" NCoef="0" IVar="15" Cut="1.2000000000000000e+01" cType="1" res="-2.1171592175960541e-02" rms="4.0547603368759155e-01" purity="5.4312574863433838e-01" nType="0">
          <Node pos="l" depth="2" NCoef="0" IVar="-1" Cut="0.0000000000000000e+00" cType="1" res="-5.1503034774214029e-04" rms="3.9956995844841003e-01" purity="6.0323250293731689e-01" nType="-99"/>
          <Node pos="r" depth="2" NCoef="0" IVar="-1" Cut="0.0000000000000000e+00" cType="1" res="-2.3021216038614511e-03" rms="4.2553684115409851e-01" purity="2.9929450154304504e-01" nType="-99"/>
        </Node>
        <Node pos="r" depth="1" NCoef="0" IVar="13" Cut="2.1978557109832764e-01" cType="1" res="2.2413855418562889e-02" rms="4.1821852326393127e-01" purity="4.0266850590705872e-01" nType="0">
          <Node pos="l" depth="2" NCoef="0" IVar="-1" Cut="0.0000000000000000e+00" cType="1" res="1.6916801687330008e-03" rms="4.1108980774879456e-01" purity="4.1416698694229126e-01" nType="-99"/>
          <Node pos="r" depth="2" NCoef="0" IVar="-1" Cut="0.0000000000000000e+00" cType="1" res="-8.2134762778878212e-03" rms="4.3689224123954773e-01" purity="2.6371166110038757e-01" nType="-99"/>
        </Node>
      </Node>
    </BinaryTree>
    <BinaryTree type="DecisionTree" boostWeight="1.0000000000000000e+00" itree="315">
      <Node pos="s" depth="0" NCoef="0" IVar="12" Cut="2.1428570747375488e+00" cType="1" res="1.2881102738901973e-03" rms="4.1673025488853455e-01" purity="5.0792735815048218e-01" nType="0">
        <Node pos="l" depth="1" NCoef="0" IVar="15" Cut="2.1285715103149414e+01" cType="1" res="1.2912309728562832e-02" rms="4.0605354309082031e-01" purity="5.2100127935409546e-01" nType="0">
          <Node pos="l" depth="2" NCoef="0" IVar="-1" Cut="0.0000000000000000e+00" cType="1" res="7.9451233614236116e-04" rms="4.2181336879730225e-01" purity="5.6963765621185303e-01" nType="-99"/>
          <Node pos="r" depth="2" NCoef="0" IVar="-1" Cut="0.0000000000000000e+00" cType="1" res="-6.8138851784169674e-03" rms="1.4951032400131226e-01" purity="2.4003829807043076e-02" nType="-99"/>
        </Node>
        <Node pos="r" depth="1" NCoef="0" IVar="16" Cut="5.0972167402505875e-02" cType="0" res="-5.7399600744247437e-02" rms="4.6248146891593933e-01" purity="4.4192016124725342e-01" nType="0">
          <Node pos="l" depth="2" NCoef="0" IVar="-1" Cut="0.0000000000000000e+00" cType="1" res="-2.2860418539494276e-04" rms="4.5544168353080750e-01" purity="5.4944026470184326e-01" nType="-99"/>
          <Node pos="r" depth="2" NCoef="0" IVar="-1" Cut="0.0000000000000000e+00" cType="1" res="-3.7965995725244284e-03" rms="4.5268139243125916e-01" purity="3.6630913615226746e-01" nType="-99"/>
        </Node>
      </Node>
    </BinaryTree>
    <BinaryTree type="DecisionTree" boostWeight="1.0000000000000000e+00" itree="316">
      <Node pos="s" depth="0" NCoef="0" IVar="6" Cut="1.3268771171569824e+00" cType="1" res="-2.6126876473426819e-03" rms="4.2142775654792786e-01" purity="5.0602108240127563e-01" nType="0">
        <Node pos="l" depth="1" NCoef="0" IVar="18" Cut="5.1428570747375488e+00" cType="1" res="-3.8919970393180847e-02" rms="4.1182395815849304e-01" purity="6.2134397029876709e-01" nType="0">
          <Node pos="l" depth="2" NCoef="0" IVar="-1" Cut="0.0000000000000000e+00" cType="1" res="2.1941205486655235e-03" rms="3.8892337679862976e-01" purity="7.7558457851409912e-01" nType="-99"/>
          <Node pos="r" depth="2" NCoef="0" IVar="-1" Cut="0.0000000000000000e+00" cType="1" res="-4.8712482675909996e-03" rms="4.2789655923843384e-01" purity="2.9364839196205139e-01" nType="-99"/>
        </Node>
        <Node pos="r" depth="1" NCoef="0" IVar="20" Cut="2.8815066814422607e+00" cType="0" res="1.3488480821251869e-02" rms="4.2462491989135742e-01" purity="4.5487889647483826e-01" nType="0">
          <Node pos="l" depth="2" NCoef="0" IVar="-1" Cut="0.0000000000000000e+00" cType="1" res="6.6386099206283689e-04" rms="4.2502826452255249e-01" purity="4.6943745017051697e-01" nType="-99"/>
          <Node pos="r" depth="2" NCoef="0" IVar="-1" Cut="0.0000000000000000e+00" cType="1" res="-4.2792302556335926e-03" rms="4.0992501378059387e-01" purity="3.3055746555328369e-01" nType="-99"/>
        </Node>
      </Node>
    </BinaryTree>
    <BinaryTree type="DecisionTree" boostWeight="1.0000000000000000e+00" itree="317">
      <Node pos="s" depth="0" NCoef="0" IVar="15" Cut="9.5714282989501953e+00" cType="1" res="-1.8469044007360935e-03" rms="4.1306737065315247e-01" purity="4.9683687090873718e-01" nType="0">
        <Node pos="l" depth="1" NCoef="0" IVar="6" Cut="2.3323295116424561e+00" cType="1" res="3.6806456744670868e-02" rms="3.7197208404541016e-01" purity="7.0855158567428589e-01" nType="0">
          <Node pos="l" depth="2" NCoef="0" IVar="-1" Cut="0.0000000000000000e+00" cType="1" res="2.4471064098179340e-03" rms="3.7006524205207825e-01" purity="7.9324120283126831e-01" nType="-99"/>
          <Node pos="r" depth="2" NCoef="0" IVar="-1" Cut="0.0000000000000000e+00" cType="1" res="-4.5633632689714432e-03" rms="3.5337069630622864e-01" purity="1.8789002299308777e-01" nType="-99"/>
        </Node>
        <Node pos="r" depth="1" NCoef="0" IVar="6" Cut="1.4657130241394043e+00" cType="1" res="-2.2499278187751770e-02" rms="4.3201506137847900e-01" purity="3.8371831178665161e-01" nType="0">
          <Node pos="l" depth="2" NCoef="0" IVar="-1" Cut="0.0000000000000000e+00" cType="1" res="-4.4633769430220127e-03" rms="4.5886072516441345e-01" purity="4.2680922150611877e-01" nType="-99"/>
          <Node pos="r" depth="2" NCoef="0" IVar="-1" Cut="0.0000000000000000e+00" cType="1" res="8.2277797628194094e-04" rms="4.1858220100402832e-01" purity="3.6801674962043762e-01" nType="-99"/>
        </Node>
      </Node>
    </BinaryTree>
    <BinaryTree type="DecisionTree" boostWeight="1.0000000000000000e+00" itree="318">
      <Node pos="s" depth="0" NCoef="0" IVar="20" Cut="2.8644519805908203e+01" cType="0" res="-1.1335093528032303e-02" rms="4.1070798039436340e-01" purity="4.8138734698295593e-01" nType="0">
        <Node pos="l" depth="1" NCoef="0" IVar="4" Cut="1.1950501203536987e+00" cType="1" res="4.3736889958381653e-02" rms="4.2228245735168457e-01" purity="5.7648366689682007e-01" nType="0">
          <Node pos="l" depth="2" NCoef="0" IVar="-1" Cut="0.0000000000000000e+00" cType="1" res="-5.6068031117320061e-03" rms="4.1118055582046509e-01" purity="6.4111810922622681e-01" nType="-99"/>
          <Node pos="r" depth="2" NCoef="0" IVar="-1" Cut="0.0000000000000000e+00" cType="1" res="1.9673057831823826e-03" rms="4.1891914606094360e-01" purity="5.6015032529830933e-01" nType="-99"/>
        </Node>
        <Node pos="r" depth="1" NCoef="0" IVar="20" Cut="1.3919920921325684e+01" cType="1" res="-2.7251511812210083e-02" rms="4.0591216087341309e-01" purity="4.5390349626541138e-01" nType="0">
          <Node pos="l" depth="2" NCoef="0" IVar="-1" Cut="0.0000000000000000e+00" cType="1" res="2.0830787252634764e-03" rms="4.0616157650947571e-01" purity="5.3286606073379517e-01" nType="-99"/>
          <Node pos="r" depth="2" NCoef="0" IVar="-1" Cut="0.0000000000000000e+00" cType="1" res="-2.8162950184196234e-03" rms="4.0180775523185730e-01" purity="3.7924867868423462e-01" nType="-99"/>
        </Node>
      </Node>
    </BinaryTree>
    <BinaryTree type="DecisionTree" boostWeight="1.0000000000000000e+00" itree="319">
      <Node pos="s" depth="0" NCoef="0" IVar="20" Cut="1.0373162269592285e+01" cType="1" res="8.8569959625601768e-03" rms="4.0774080157279968e-01" purity="5.0148862600326538e-01" nType="0">
        <Node pos="l" depth="1" NCoef="0" IVar="18" Cut="1.2857142686843872e+00" cType="0" res="5.2080102264881134e-02" rms="4.1067734360694885e-01" purity="5.8756029605865479e-01" nType="0">
          <Node pos="l" depth="2" NCoef="0" IVar="-1" Cut="0.0000000000000000e+00" cType="1" res="1.5613550785928965e-03" rms="4.0594521164894104e-01" purity="6.0038208961486816e-01" nType="-99"/>
          <Node pos="r" depth="2" NCoef="0" IVar="-1" Cut="0.0000000000000000e+00" cType="1" res="-1.1191819794476032e-02" rms="4.0222051739692688e-01" purity="4.6946829557418823e-01" nType="-99"/>
        </Node>
        <Node pos="r" depth="1" NCoef="0" IVar="19" Cut="8.9937925338745117e-02" cType="0" res="-6.5910872071981430e-03" rms="4.0557029843330383e-01" purity="4.7072637081146240e-01" nType="0">
          <Node pos="l" depth="2" NCoef="0" IVar="-1" Cut="0.0000000000000000e+00" cType="1" res="2.3999528959393501e-02" rms="1.7007392644882202e-01" purity="9.4218462705612183e-01" nType="-99"/>
          <Node pos="r" depth="2" NCoef="0" IVar="-1" Cut="0.0000000000000000e+00" cType="1" res="-8.2363747060298920e-04" rms="4.1146999597549438e-01" purity="4.5100477337837219e-01" nType="-99"/>
        </Node>
      </Node>
    </BinaryTree>
    <BinaryTree type="DecisionTree" boostWeight="1.0000000000000000e+00" itree="320">
      <Node pos="s" depth="0" NCoef="0" IVar="7" Cut="-1.1809518337249756e+00" cType="1" res="-1.6315300017595291e-02" rms="4.1493776440620422e-01" purity="4.8544034361839294e-01" nType="0">
        <Node pos="l" depth="1" NCoef="0" IVar="17" Cut="6.1491313934326172e+01" cType="1" res="4.3645065277814865e-02" rms="3.9790913462638855e-01" purity="6.5952938795089722e-01" nType="0">
          <Node pos="l" depth="2" NCoef="0" IVar="-1" Cut="0.0000000000000000e+00" cType="1" res="2.0576491951942444e-03" rms="3.8522139191627502e-01" purity="6.9307184219360352e-01" nType="-99"/>
          <Node pos="r" depth="2" NCoef="0" IVar="-1" Cut="0.0000000000000000e+00" cType="1" res="-5.9886993840336800e-03" rms="4.3050828576087952e-01" purity="4.3187755346298218e-01" nType="-99"/>
        </Node>
        <Node pos="r" depth="1" NCoef="0" IVar="5" Cut="9.0485286712646484e-01" cType="1" res="-2.8821708634495735e-02" rms="4.1731777787208557e-01" purity="4.4912919402122498e-01" nType="0">
          <Node pos="l" depth="2" NCoef="0" IVar="-1" Cut="0.0000000000000000e+00" cType="1" res="-5.1812478341162205e-03" rms="4.5684033632278442e-01" purity="5.7884800434112549e-01" nType="-99"/>
          <Node pos="r" depth="2" NCoef="0" IVar="-1" Cut="0.0000000000000000e+00" cType="1" res="-2.4619247415103018e-04" rms="4.1213682293891907e-01" purity="4.3974718451499939e-01" nType="-99"/>
        </Node>
      </Node>
    </BinaryTree>
    <BinaryTree type="DecisionTree" boostWeight="1.0000000000000000e+00" itree="321">
      <Node pos="s" depth="0" NCoef="0" IVar="0" Cut="8.9085650444030762e-01" cType="1" res="-1.9059604033827782e-02" rms="4.2044645547866821e-01" purity="4.8256361484527588e-01" nType="0">
        <Node pos="l" depth="1" NCoef="0" IVar="14" Cut="3.1868350982666016e+01" cType="1" res="-7.9680614173412323e-02" rms="4.4175469875335693e-01" purity="5.2482098340988159e-01" nType="0">
          <Node pos="l" depth="2" NCoef="0" IVar="-1" Cut="0.0000000000000000e+00" cType="1" res="8.1412130966782570e-03" rms="3.5978993773460388e-01" purity="7.8803563117980957e-01" nType="-99"/>
          <Node pos="r" depth="2" NCoef="0" IVar="-1" Cut="0.0000000000000000e+00" cType="1" res="-3.3056715037673712e-03" rms="4.4267132878303528e-01" purity="4.8550444841384888e-01" nType="-99"/>
        </Node>
        <Node pos="r" depth="1" NCoef="0" IVar="15" Cut="9.8571424484252930e+00" cType="1" res="3.3387818257324398e-04" rms="4.1151669621467590e-01" purity="4.6904489398002625e-01" nType="0">
          <Node pos="l" depth="2" NCoef="0" IVar="-1" Cut="0.0000000000000000e+00" cType="1" res="2.5025189388543367e-03" rms="3.5075929760932922e-01" purity="6.6836059093475342e-01" nType="-99"/>
          <Node pos="r" depth="2" NCoef="0" IVar="-1" Cut="0.0000000000000000e+00" cType="1" res="-4.0148120024241507e-04" rms="4.3397629261016846e-01" purity="3.8270011544227600e-01" nType="-99"/>
        </Node>
      </Node>
    </BinaryTree>
    <BinaryTree type="DecisionTree" boostWeight="1.0000000000000000e+00" itree="322">
      <Node pos="s" depth="0" NCoef="0" IVar="0" Cut="8.9080607891082764e-01" cType="1" res="-1.6155077144503593e-02" rms="4.1840586066246033e-01" purity="4.7818225622177124e-01" nType="0">
        <Node pos="l" depth="1" NCoef="0" IVar="10" Cut="1.7774164676666260e+00" cType="1" res="-6.7536190152168274e-02" rms="4.5116063952445984e-01" purity="5.4911857843399048e-01" nType="0">
          <Node pos="l" depth="2" NCoef="0" IVar="-1" Cut="0.0000000000000000e+00" cType="1" res="-3.0482001602649689e-03" rms="4.6130603551864624e-01" purity="5.8568620681762695e-01" nType="-99"/>
          <Node pos="r" depth="2" NCoef="0" IVar="-1" Cut="0.0000000000000000e+00" cType="1" res="-3.7059016176499426e-04" rms="4.2367485165596008e-01" purity="4.7748976945877075e-01" nType="-99"/>
        </Node>
        <Node pos="r" depth="1" NCoef="0" IVar="20" Cut="6.7289039611816406e+01" cType="1" res="-1.9154386827722192e-03" rms="4.0771985054016113e-01" purity="4.5852315425872803e-01" nType="0">
          <Node pos="l" depth="2" NCoef="0" IVar="-1" Cut="0.0000000000000000e+00" cType="1" res="5.5866554612293839e-04" rms="4.0935108065605164e-01" purity="4.6748912334442139e-01" nType="-99"/>
          <Node pos="r" depth="2" NCoef="0" IVar="-1" Cut="0.0000000000000000e+00" cType="1" res="-5.7932864874601364e-03" rms="3.3951857686042786e-01" purity="2.5312677025794983e-01" nType="-99"/>
        </Node>
      </Node>
    </BinaryTree>
    <BinaryTree type="DecisionTree" boostWeight="1.0000000000000000e+00" itree="323">
      <Node pos="s" depth="0" NCoef="0" IVar="9" Cut="-5.7142858505249023e+00" cType="1" res="-7.7867656946182251e-03" rms="4.1526398062705994e-01" purity="4.9983793497085571e-01" nType="0">
        <Node pos="l" depth="1" NCoef="0" IVar="9" Cut="-1.0369047164916992e+01" cType="1" res="-9.3457877635955811e-02" rms="4.3312436342239380e-01" purity="5.4965448379516602e-01" nType="0">
          <Node pos="l" depth="2" NCoef="0" IVar="-1" Cut="0.0000000000000000e+00" cType="1" res="9.6030319109559059e-03" rms="3.6703863739967346e-01" purity="8.7512403726577759e-01" nType="-99"/>
          <Node pos="r" depth="2" NCoef="0" IVar="-1" Cut="0.0000000000000000e+00" cType="1" res="-7.0414491929113865e-03" rms="4.3122664093971252e-01" purity="3.9609527587890625e-01" nType="-99"/>
        </Node>
        <Node pos="r" depth="1" NCoef="0" IVar="5" Cut="3.0792784690856934e+00" cType="1" res="1.4190355432219803e-04" rms="4.1267386078834534e-01" purity="4.9522751569747925e-01" nType="0">
          <Node pos="l" depth="2" NCoef="0" IVar="-1" Cut="0.0000000000000000e+00" cType="1" res="3.4742985735647380e-04" rms="4.2510905861854553e-01" purity="5.3719609975814819e-01" nType="-99"/>
          <Node pos="r" depth="2" NCoef="0" IVar="-1" Cut="0.0000000000000000e+00" cType="1" res="-3.7088424433022738e-03" rms="2.3836626112461090e-01" purity="6.7904084920883179e-02" nType="-99"/>
        </Node>
      </Node>
    </BinaryTree>
    <BinaryTree type="DecisionTree" boostWeight="1.0000000000000000e+00" itree="324">
      <Node pos="s" depth="0" NCoef="0" IVar="20" Cut="2.8644519805908203e+01" cType="0" res="-9.3466462567448616e-03" rms="4.1779124736785889e-01" purity="4.9528810381889343e-01" nType="0">
        <Node pos="l" depth="1" NCoef="0" IVar="14" Cut="2.0121699523925781e+02" cType="1" res="4.4775974005460739e-02" rms="4.2628064751625061e-01" purity="5.8798921108245850e-01" nType="0">
          <Node pos="l" depth="2" NCoef="0" IVar="-1" Cut="0.0000000000000000e+00" cType="1" res="2.3551080375909805e-03" rms="4.2106300592422485e-01" purity="6.1451733112335205e-01" nType="-99"/>
          <Node pos="r" depth="2" NCoef="0" IVar="-1" Cut="0.0000000000000000e+00" cType="1" res="-3.8311393000185490e-03" rms="4.3674510717391968e-01" purity="4.3876349925994873e-01" nType="-99"/>
        </Node>
        <Node pos="r" depth="1" NCoef="0" IVar="18" Cut="5.1428570747375488e+00" cType="1" res="-2.4315468966960907e-02" rms="4.1416600346565247e-01" purity="4.6964952349662781e-01" nType="0">
          <Node pos="l" depth="2" NCoef="0" IVar="-1" Cut="0.0000000000000000e+00" cType="1" res="1.1857099598273635e-03" rms="4.1669145226478577e-01" purity="6.4822751283645630e-01" nType="-99"/>
          <Node pos="r" depth="2" NCoef="0" IVar="-1" Cut="0.0000000000000000e+00" cType="1" res="-1.7964547732844949e-03" rms="4.0962791442871094e-01" purity="2.9567697644233704e-01" nType="-99"/>
        </Node>
      </Node>
    </BinaryTree>
    <BinaryTree type="DecisionTree" boostWeight="1.0000000000000000e+00" itree="325">
      <Node pos="s" depth="0" NCoef="0" IVar="12" Cut="2.1428570747375488e+00" cType="1" res="-1.2297793291509151e-02" rms="4.1203624010086060e-01" purity="4.8772224783897400e-01" nType="0">
        <Node pos="l" depth="1" NCoef="0" IVar="10" Cut="2.3571369647979736e+00" cType="1" res="2.1953995747026056e-04" rms="4.0183818340301514e-01" purity="5.0082719326019287e-01" nType="0">
          <Node pos="l" depth="2" NCoef="0" IVar="-1" Cut="0.0000000000000000e+00" cType="1" res="2.4010392371565104e-03" rms="3.9605614542961121e-01" purity="6.1368924379348755e-01" nType="-99"/>
          <Node pos="r" depth="2" NCoef="0" IVar="-1" Cut="0.0000000000000000e+00" cType="1" res="-1.9207961158826947e-03" rms="4.0832081437110901e-01" purity="3.3074113726615906e-01" nType="-99"/>
        </Node>
        <Node pos="r" depth="1" NCoef="0" IVar="17" Cut="3.4373424530029297e+01" cType="1" res="-7.3956660926342010e-02" rms="4.5396542549133301e-01" purity="4.2316889762878418e-01" nType="0">
          <Node pos="l" depth="2" NCoef="0" IVar="-1" Cut="0.0000000000000000e+00" cType="1" res="-5.0558720249682665e-04" rms="4.5623007416725159e-01" purity="4.7245115041732788e-01" nType="-99"/>
          <Node pos="r" depth="2" NCoef="0" IVar="-1" Cut="0.0000000000000000e+00" cType="1" res="-5.2528390660881996e-03" rms="4.3499338626861572e-01" purity="3.2014030218124390e-01" nType="-99"/>
        </Node>
      </Node>
    </BinaryTree>
    <BinaryTree type="DecisionTree" boostWeight="1.0000000000000000e+00" itree="326">
      <Node pos="s" depth="0" NCoef="0" IVar="15" Cut="1.1142857551574707e+01" cType="1" res="4.0432722307741642e-03" rms="4.1626906394958496e-01" purity="5.1202934980392456e-01" nType="0">
        <Node pos="l" depth="1" NCoef="0" IVar="12" Cut="1.4285714924335480e-01" cType="0" res="3.9498884230852127e-02" rms="3.8998138904571533e-01" purity="6.9045102596282959e-01" nType="0">
          <Node pos="l" depth="2" NCoef="0" IVar="-1" Cut="0.0000000000000000e+00" cType="1" res="3.1843564938753843e-03" rms="3.8637405633926392e-01" purity="7.3647576570510864e-01" nType="-99"/>
          <Node pos="r" depth="2" NCoef="0" IVar="-1" Cut="0.0000000000000000e+00" cType="1" res="-2.7445317246019840e-03" rms="3.8869887590408325e-01" purity="6.2902575731277466e-01" nType="-99"/>
        </Node>
        <Node pos="r" depth="1" NCoef="0" IVar="4" Cut="1.4580671787261963e+00" cType="1" res="-2.1631263196468353e-02" rms="4.3250206112861633e-01" purity="3.8282859325408936e-01" nType="0">
          <Node pos="l" depth="2" NCoef="0" IVar="-1" Cut="0.0000000000000000e+00" cType="1" res="-6.5888254903256893e-03" rms="4.8249763250350952e-01" purity="4.7683563828468323e-01" nType="-99"/>
          <Node pos="r" depth="2" NCoef="0" IVar="-1" Cut="0.0000000000000000e+00" cType="1" res="2.4271126312669367e-04" rms="4.2036139965057373e-01" purity="3.6752980947494507e-01" nType="-99"/>
        </Node>
      </Node>
    </BinaryTree>
    <BinaryTree type="DecisionTree" boostWeight="1.0000000000000000e+00" itree="327">
      <Node pos="s" depth="0" NCoef="0" IVar="12" Cut="2.1428570747375488e+00" cType="1" res="5.7052401825785637e-03" rms="4.1593089699745178e-01" purity="5.1110196113586426e-01" nType="0">
        <Node pos="l" depth="1" NCoef="0" IVar="15" Cut="4.8571429252624512e+00" cType="1" res="1.8484130501747131e-02" rms="4.0777054429054260e-01" purity="5.2605688571929932e-01" nType="0">
          <Node pos="l" depth="2" NCoef="0" IVar="-1" Cut="0.0000000000000000e+00" cType="1" res="-3.5908659920096397e-03" rms="3.9209717512130737e-01" purity="6.2637454271316528e-01" nType="-99"/>
          <Node pos="r" depth="2" NCoef="0" IVar="-1" Cut="0.0000000000000000e+00" cType="1" res="4.7498493222519755e-04" rms="4.0809768438339233e-01" purity="5.1779919862747192e-01" nType="-99"/>
        </Node>
        <Node pos="r" depth="1" NCoef="0" IVar="18" Cut="5.1428570747375488e+00" cType="1" res="-5.5693116039037704e-02" rms="4.4803988933563232e-01" purity="4.3924814462661743e-01" nType="0">
          <Node pos="l" depth="2" NCoef="0" IVar="-1" Cut="0.0000000000000000e+00" cType="1" res="6.1563390772789717e-04" rms="4.7799989581108093e-01" purity="5.4958003759384155e-01" nType="-99"/>
          <Node pos="r" depth="2" NCoef="0" IVar="-1" Cut="0.0000000000000000e+00" cType="1" res="-7.4035120196640491e-03" rms="3.1796309351921082e-01" purity="1.1353369802236557e-01" nType="-99"/>
        </Node>
      </Node>
    </BinaryTree>
    <BinaryTree type="DecisionTree" boostWeight="1.0000000000000000e+00" itree="328">
      <Node pos="s" depth="0" NCoef="0" IVar="9" Cut="-1.0000000000000000e+01" cType="1" res="1.6199994832277298e-02" rms="4.1460508108139038e-01" purity="5.2428275346755981e-01" nType="0">
        <Node pos="l" depth="1" NCoef="0" IVar="-1" Cut="0.0000000000000000e+00" cType="1" res="5.1380791701376438e-03" rms="2.5910982489585876e-01" purity="8.8310015201568604e-01" nType="-99"/>
        <Node pos="r" depth="1" NCoef="0" IVar="9" Cut="-6.6000003814697266e+00" cType="0" res="1.1655959300696850e-02" rms="4.1773930191993713e-01" purity="5.1302289962768555e-01" nType="0">
          <Node pos="l" depth="2" NCoef="0" IVar="-1" Cut="0.0000000000000000e+00" cType="1" res="3.1143212254391983e-05" rms="4.1549468040466309e-01" purity="5.1633983850479126e-01" nType="-99"/>
          <Node pos="r" depth="2" NCoef="0" IVar="-1" Cut="0.0000000000000000e+00" cType="1" res="-8.2377009093761444e-03" rms="4.4324630498886108e-01" purity="4.0956541895866394e-01" nType="-99"/>
        </Node>
      </Node>
    </BinaryTree>
    <BinaryTree type="DecisionTree" boostWeight="1.0000000000000000e+00" itree="329">
      <Node pos="s" depth="0" NCoef="0" IVar="12" Cut="2.1428570747375488e+00" cType="1" res="-2.7293921448290348e-04" rms="4.2205128073692322e-01" purity="5.0870436429977417e-01" nType="0">
        <Node pos="l" depth="1" NCoef="0" IVar="20" Cut="5.4407535552978516e+01" cType="1" res="1.3056466355919838e-02" rms="4.0905544161796570e-01" purity="5.2117484807968140e-01" nType="0">
          <Node pos="l" depth="2" NCoef="0" IVar="-1" Cut="0.0000000000000000e+00" cType="1" res="3.5073159961029887e-04" rms="4.0637904405593872e-01" purity="5.2898645401000977e-01" nType="-99"/>
          <Node pos="r" depth="2" NCoef="0" IVar="-1" Cut="0.0000000000000000e+00" cType="1" res="-8.8485301239416003e-04" rms="4.3064182996749878e-01" purity="4.2597496509552002e-01" nType="-99"/>
        </Node>
        <Node pos="r" depth="1" NCoef="0" IVar="5" Cut="1.8271366357803345e+00" cType="1" res="-6.5434530377388000e-02" rms="4.7519853711128235e-01" purity="4.4774162769317627e-01" nType="0">
          <Node pos="l" depth="2" NCoef="0" IVar="-1" Cut="0.0000000000000000e+00" cType="1" res="-3.0189452227205038e-03" rms="4.7337841987609863e-01" purity="4.7002494335174561e-01" nType="-99"/>
          <Node pos="r" depth="2" NCoef="0" IVar="-1" Cut="0.0000000000000000e+00" cType="1" res="-3.1060757464729249e-04" rms="4.5898929238319397e-01" purity="3.9128410816192627e-01" nType="-99"/>
        </Node>
      </Node>
    </BinaryTree>
    <BinaryTree type="DecisionTree" boostWeight="1.0000000000000000e+00" itree="330">
      <Node pos="s" depth="0" NCoef="0" IVar="20" Cut="3.5821082592010498e+00" cType="0" res="5.1444680429995060e-03" rms="4.1147699952125549e-01" purity="5.0848144292831421e-01" nType="0">
        <Node pos="l" depth="1" NCoef="0" IVar="20" Cut="1.5873568534851074e+01" cType="1" res="1.9022442400455475e-02" rms="4.0958291292190552e-01" purity="5.2554839849472046e-01" nType="0">
          <Node pos="l" depth="2" NCoef="0" IVar="-1" Cut="0.0000000000000000e+00" cType="1" res="9.4220129540190101e-04" rms="4.0241220593452454e-01" purity="6.0733371973037720e-01" nType="-99"/>
          <Node pos="r" depth="2" NCoef="0" IVar="-1" Cut="0.0000000000000000e+00" cType="1" res="-3.8527708966284990e-04" rms="4.1178894042968750e-01" purity="4.7854796051979065e-01" nType="-99"/>
        </Node>
        <Node pos="r" depth="1" NCoef="0" IVar="17" Cut="1.3755007743835449e+01" cType="1" res="-9.9418908357620239e-02" rms="4.1066521406173706e-01" purity="3.7989062070846558e-01" nType="0">
          <Node pos="l" depth="2" NCoef="0" IVar="-1" Cut="0.0000000000000000e+00" cType="1" res="6.3029476441442966e-03" rms="3.5035827755928040e-01" purity="4.4456350803375244e-01" nType="-99"/>
          <Node pos="r" depth="2" NCoef="0" IVar="-1" Cut="0.0000000000000000e+00" cType="1" res="-5.6402734480798244e-03" rms="4.2225736379623413e-01" purity="3.4635135531425476e-01" nType="-99"/>
        </Node>
      </Node>
    </BinaryTree>
    <BinaryTree type="DecisionTree" boostWeight="1.0000000000000000e+00" itree="331">
      <Node pos="s" depth="0" NCoef="0" IVar="12" Cut="2.1428570747375488e+00" cType="1" res="-1.4453304000198841e-02" rms="4.1629537940025330e-01" purity="4.9099269509315491e-01" nType="0">
        <Node pos="l" depth="1" NCoef="0" IVar="20" Cut="1.5763013839721680e+01" cType="1" res="-2.7886671014130116e-03" rms="4.0490493178367615e-01" purity="5.0359439849853516e-01" nType="0">
          <Node pos="l" depth="2" NCoef="0" IVar="-1" Cut="0.0000000000000000e+00" cType="1" res="6.7720294464379549e-04" rms="4.0335336327552795e-01" purity="5.7349801063537598e-01" nType="-99"/>
          <Node pos="r" depth="2" NCoef="0" IVar="-1" Cut="0.0000000000000000e+00" cType="1" res="-7.3873932706192136e-05" rms="4.0402773022651672e-01" purity="4.5207142829895020e-01" nType="-99"/>
        </Node>
        <Node pos="r" depth="1" NCoef="0" IVar="0" Cut="1.7879712581634521e+00" cType="1" res="-7.0632576942443848e-02" rms="4.6318507194519043e-01" purity="4.3030038475990295e-01" nType="0">
          <Node pos="l" depth="2" NCoef="0" IVar="-1" Cut="0.0000000000000000e+00" cType="1" res="-2.5739860720932484e-03" rms="4.5991536974906921e-01" purity="4.3122425675392151e-01" nType="-99"/>
          <Node pos="r" depth="2" NCoef="0" IVar="-1" Cut="0.0000000000000000e+00" cType="1" res="1.8176870071329176e-04" rms="4.5174658298492432e-01" purity="4.2649310827255249e-01" nType="-99"/>
        </Node>
      </Node>
    </BinaryTree>
    <BinaryTree type="DecisionTree" boostWeight="1.0000000000000000e+00" itree="332">
      <Node pos="s" depth="0" NCoef="0" IVar="0" Cut="2.2270156443119049e-01" cType="0" res="2.9550723265856504e-03" rms="4.1376900672912598e-01" purity="4.9921452999114990e-01" nType="0">
        <Node pos="l" depth="1" NCoef="0" IVar="18" Cut="5.1428570747375488e+00" cType="1" res="7.9397531226277351e-03" rms="4.1043838858604431e-01" purity="5.0082182884216309e-01" nType="0">
          <Node pos="l" depth="2" NCoef="0" IVar="-1" Cut="0.0000000000000000e+00" cType="1" res="9.6723058959469199e-04" rms="4.0916842222213745e-01" purity="6.8497794866561890e-01" nType="-99"/>
          <Node pos="r" depth="2" NCoef="0" IVar="-1" Cut="0.0000000000000000e+00" cType="1" res="-9.5713534392416477e-04" rms="4.0995898842811584e-01" purity="3.2575106620788574e-01" nType="-99"/>
        </Node>
        <Node pos="r" depth="1" NCoef="0" IVar="-1" Cut="0.0000000000000000e+00" cType="1" res="-2.9478669166564941e-03" rms="4.9551180005073547e-01" purity="4.1486853361129761e-01" nType="-99"/>
      </Node>
    </BinaryTree>
    <BinaryTree type="DecisionTree" boostWeight="1.0000000000000000e+00" itree="333">
      <Node pos="s" depth="0" NCoef="0" IVar="6" Cut="6.7182022333145142e-01" cType="1" res="-6.3905664719641209e-03" rms="4.1371428966522217e-01" purity="4.9010813236236572e-01" nType="0">
        <Node pos="l" depth="1" NCoef="0" IVar="12" Cut="1.4285714924335480e-01" cType="0" res="-1.4911043643951416e-01" rms="4.4926729798316956e-01" purity="4.9062430858612061e-01" nType="0">
          <Node pos="l" depth="2" NCoef="0" IVar="-1" Cut="0.0000000000000000e+00" cType="1" res="1.9969571381807327e-02" rms="4.0742275118827820e-01" purity="5.8565831184387207e-01" nType="-99"/>
          <Node pos="r" depth="2" NCoef="0" IVar="-1" Cut="0.0000000000000000e+00" cType="1" res="-1.3502554036676884e-02" rms="4.4069105386734009e-01" purity="4.1379407048225403e-01" nType="-99"/>
        </Node>
        <Node pos="r" depth="1" NCoef="0" IVar="3" Cut="5.8571429252624512e+00" cType="0" res="-1.0901662753894925e-03" rms="4.1138237714767456e-01" purity="4.9008890986442566e-01" nType="0">
          <Node pos="l" depth="2" NCoef="0" IVar="-1" Cut="0.0000000000000000e+00" cType="1" res="2.1860015112906694e-03" rms="4.2086988687515259e-01" purity="6.7784339189529419e-01" nType="-99"/>
          <Node pos="r" depth="2" NCoef="0" IVar="-1" Cut="0.0000000000000000e+00" cType="1" res="-2.5306572206318378e-04" rms="4.1022321581840515e-01" purity="4.8280057311058044e-01" nType="-99"/>
        </Node>
      </Node>
    </BinaryTree>
    <BinaryTree type="DecisionTree" boostWeight="1.0000000000000000e+00" itree="334">
      <Node pos="s" depth="0" NCoef="0" IVar="21" Cut="4.2380952835083008e+00" cType="1" res="-4.2392457835376263e-03" rms="4.1350117325782776e-01" purity="4.9609026312828064e-01" nType="0">
        <Node pos="l" depth="1" NCoef="0" IVar="15" Cut="1.2000000000000000e+01" cType="1" res="-2.5426641106605530e-02" rms="4.1534838080406189e-01" purity="5.5653291940689087e-01" nType="0">
          <Node pos="l" depth="2" NCoef="0" IVar="-1" Cut="0.0000000000000000e+00" cType="1" res="-6.3368532573804259e-04" rms="4.1094985604286194e-01" purity="6.1545509099960327e-01" nType="-99"/>
          <Node pos="r" depth="2" NCoef="0" IVar="-1" Cut="0.0000000000000000e+00" cType="1" res="-2.1181730553507805e-03" rms="4.3133273720741272e-01" purity="3.1146025657653809e-01" nType="-99"/>
        </Node>
        <Node pos="r" depth="1" NCoef="0" IVar="21" Cut="6.1428570747375488e+00" cType="1" res="2.7824541553854942e-02" rms="4.0860587358474731e-01" purity="4.0461981296539307e-01" nType="0">
          <Node pos="l" depth="2" NCoef="0" IVar="-1" Cut="0.0000000000000000e+00" cType="1" res="2.8933261055499315e-03" rms="4.6587005257606506e-01" purity="5.7842803001403809e-01" nType="-99"/>
          <Node pos="r" depth="2" NCoef="0" IVar="-1" Cut="0.0000000000000000e+00" cType="1" res="-3.9669144898653030e-03" rms="2.4912749230861664e-01" purity="6.9123513996601105e-02" nType="-99"/>
        </Node>
      </Node>
    </BinaryTree>
    <BinaryTree type="DecisionTree" boostWeight="1.0000000000000000e+00" itree="335">
      <Node pos="s" depth="0" NCoef="0" IVar="0" Cut="1.3362091779708862e+00" cType="1" res="-1.4805356971919537e-02" rms="4.2176869511604309e-01" purity="4.8904109001159668e-01" nType="0">
        <Node pos="l" depth="1" NCoef="0" IVar="11" Cut="2.3036734759807587e-01" cType="1" res="-4.3762270361185074e-02" rms="4.3379786610603333e-01" purity="5.6956607103347778e-01" nType="0">
          <Node pos="l" depth="2" NCoef="0" IVar="-1" Cut="0.0000000000000000e+00" cType="1" res="3.9882058626972139e-04" rms="3.9506080746650696e-01" purity="6.8457490205764771e-01" nType="-99"/>
          <Node pos="r" depth="2" NCoef="0" IVar="-1" Cut="0.0000000000000000e+00" cType="1" res="-2.1324751432985067e-03" rms="4.5834159851074219e-01" purity="4.7589027881622314e-01" nType="-99"/>
        </Node>
        <Node pos="r" depth="1" NCoef="0" IVar="12" Cut="1.4285714924335480e-01" cType="0" res="7.5011425651609898e-03" rms="4.1087377071380615e-01" purity="4.2700996994972229e-01" nType="0">
          <Node pos="l" depth="2" NCoef="0" IVar="-1" Cut="0.0000000000000000e+00" cType="1" res="1.1904439888894558e-03" rms="4.1095709800720215e-01" purity="4.3196800351142883e-01" nType="-99"/>
          <Node pos="r" depth="2" NCoef="0" IVar="-1" Cut="0.0000000000000000e+00" cType="1" res="-4.1312025859951973e-03" rms="4.0246623754501343e-01" purity="3.9443096518516541e-01" nType="-99"/>
        </Node>
      </Node>
    </BinaryTree>
    <BinaryTree type="DecisionTree" boostWeight="1.0000000000000000e+00" itree="336">
      <Node pos="s" depth="0" NCoef="0" IVar="0" Cut="2.2270151972770691e-01" cType="0" res="1.6475443262606859e-03" rms="4.0845099091529846e-01" purity="4.9676138162612915e-01" nType="0">
        <Node pos="l" depth="1" NCoef="0" IVar="9" Cut="-5.7142858505249023e+00" cType="1" res="4.9819252453744411e-03" rms="4.0621808171272278e-01" purity="4.9748823046684265e-01" nType="0">
          <Node pos="l" depth="2" NCoef="0" IVar="-1" Cut="0.0000000000000000e+00" cType="1" res="-2.6932337787002325e-03" rms="4.0837043523788452e-01" purity="5.5018097162246704e-01" nType="-99"/>
          <Node pos="r" depth="2" NCoef="0" IVar="-1" Cut="0.0000000000000000e+00" cType="1" res="2.7106791094411165e-05" rms="4.0518477559089661e-01" purity="4.9313554167747498e-01" nType="-99"/>
        </Node>
        <Node pos="r" depth="1" NCoef="0" IVar="-1" Cut="0.0000000000000000e+00" cType="1" res="-2.7608494274318218e-03" rms="4.8303875327110291e-01" purity="4.5590963959693909e-01" nType="-99"/>
      </Node>
    </BinaryTree>
    <BinaryTree type="DecisionTree" boostWeight="1.0000000000000000e+00" itree="337">
      <Node pos="s" depth="0" NCoef="0" IVar="6" Cut="8.6487376689910889e-01" cType="1" res="-3.7993649020791054e-03" rms="4.1129523515701294e-01" purity="4.8445338010787964e-01" nType="0">
        <Node pos="l" depth="1" NCoef="0" IVar="12" Cut="1.1428571939468384e+00" cType="1" res="1.4440178871154785e-01" rms="3.0924701690673828e-01" purity="8.5156619548797607e-01" nType="0">
          <Node pos="l" depth="2" NCoef="0" IVar="-1" Cut="0.0000000000000000e+00" cType="1" res="-6.1445008032023907e-03" rms="2.9809290170669556e-01" purity="8.5764026641845703e-01" nType="-99"/>
          <Node pos="r" depth="2" NCoef="0" IVar="-1" Cut="0.0000000000000000e+00" cType="1" res="4.7438819892704487e-03" rms="2.6921433210372925e-01" purity="8.4020298719406128e-01" nType="-99"/>
        </Node>
        <Node pos="r" depth="1" NCoef="0" IVar="0" Cut="6.6810458898544312e-01" cType="1" res="-1.0729376226663589e-02" rms="4.1415822505950928e-01" purity="4.6728685498237610e-01" nType="0">
          <Node pos="l" depth="2" NCoef="0" IVar="-1" Cut="0.0000000000000000e+00" cType="1" res="-1.7652965616434813e-03" rms="4.4976517558097839e-01" purity="5.1839905977249146e-01" nType="-99"/>
          <Node pos="r" depth="2" NCoef="0" IVar="-1" Cut="0.0000000000000000e+00" cType="1" res="4.1059218347072601e-05" rms="4.0838006138801575e-01" purity="4.6097654104232788e-01" nType="-99"/>
        </Node>
      </Node>
    </BinaryTree>
    <BinaryTree type="DecisionTree" boostWeight="1.0000000000000000e+00" itree="338">
      <Node pos="s" depth="0" NCoef="0" IVar="3" Cut="3.9047617912292480e+00" cType="1" res="3.5275178961455822e-03" rms="4.1241782903671265e-01" purity="4.9912926554679871e-01" nType="0">
        <Node pos="l" depth="1" NCoef="0" IVar="18" Cut="6.1904764175415039e+00" cType="1" res="2.0645458251237869e-02" rms="4.0179675817489624e-01" purity="5.0692284107208252e-01" nType="0">
          <Node pos="l" depth="2" NCoef="0" IVar="-1" Cut="0.0000000000000000e+00" cType="1" res="1.5621613711118698e-03" rms="4.3084186315536499e-01" purity="6.2251108884811401e-01" nType="-99"/>
          <Node pos="r" depth="2" NCoef="0" IVar="-1" Cut="0.0000000000000000e+00" cType="1" res="-4.1009597480297089e-03" rms="2.5396263599395752e-01" purity="7.2046957910060883e-02" nType="-99"/>
        </Node>
        <Node pos="r" depth="1" NCoef="0" IVar="21" Cut="2.3333332538604736e+00" cType="1" res="-4.0624503046274185e-02" rms="4.3553245067596436e-01" purity="4.7902753949165344e-01" nType="0">
          <Node pos="l" depth="2" NCoef="0" IVar="-1" Cut="0.0000000000000000e+00" cType="1" res="-2.8325866442173719e-03" rms="4.3746533989906311e-01" purity="4.8504751920700073e-01" nType="-99"/>
          <Node pos="r" depth="2" NCoef="0" IVar="-1" Cut="0.0000000000000000e+00" cType="1" res="9.3392583949025720e-05" rms="4.2537128925323486e-01" purity="4.6949326992034912e-01" nType="-99"/>
        </Node>
      </Node>
    </BinaryTree>
    <BinaryTree type="DecisionTree" boostWeight="1.0000000000000000e+00" itree="339">
      <Node pos="s" depth="0" NCoef="0" IVar="18" Cut="6.1904764175415039e+00" cType="1" res="2.1864252164959908e-02" rms="4.0729492902755737e-01" purity="5.2038776874542236e-01" nType="0">
        <Node pos="l" depth="1" NCoef="0" IVar="21" Cut="4.3333334922790527e+00" cType="1" res="3.2833985984325409e-02" rms="4.2826896905899048e-01" purity="6.1284393072128296e-01" nType="0">
          <Node pos="l" depth="2" NCoef="0" IVar="-1" Cut="0.0000000000000000e+00" cType="1" res="-1.0120715014636517e-03" rms="4.1066724061965942e-01" purity="6.2015718221664429e-01" nType="-99"/>
          <Node pos="r" depth="2" NCoef="0" IVar="-1" Cut="0.0000000000000000e+00" cType="1" res="2.7053947560489178e-03" rms="4.5827871561050415e-01" purity="5.9772855043411255e-01" nType="-99"/>
        </Node>
        <Node pos="r" depth="1" NCoef="0" IVar="3" Cut="2.2857143878936768e+00" cType="0" res="-2.8581116348505020e-02" rms="2.8670552372932434e-01" purity="9.5219559967517853e-02" nType="0">
          <Node pos="l" depth="2" NCoef="0" IVar="-1" Cut="0.0000000000000000e+00" cType="1" res="-5.8593777794158086e-05" rms="3.7566697597503662e-01" purity="1.7947517335414886e-01" nType="-99"/>
          <Node pos="r" depth="2" NCoef="0" IVar="-1" Cut="0.0000000000000000e+00" cType="1" res="-4.7206343151628971e-03" rms="2.2845746576786041e-01" purity="5.6616697460412979e-02" nType="-99"/>
        </Node>
      </Node>
    </BinaryTree>
    <BinaryTree type="DecisionTree" boostWeight="1.0000000000000000e+00" itree="340">
      <Node pos="s" depth="0" NCoef="0" IVar="21" Cut="4.2380952835083008e+00" cType="1" res="-7.3230150155723095e-03" rms="4.1415792703628540e-01" purity="4.9792164564132690e-01" nType="0">
        <Node pos="l" depth="1" NCoef="0" IVar="10" Cut="2.3571369647979736e+00" cType="1" res="-3.3556435257196426e-02" rms="4.1523158550262451e-01" purity="5.4336392879486084e-01" nType="0">
          <Node pos="l" depth="2" NCoef="0" IVar="-1" Cut="0.0000000000000000e+00" cType="1" res="3.0279887141659856e-05" rms="4.1194176673889160e-01" purity="6.7066121101379395e-01" nType="-99"/>
          <Node pos="r" depth="2" NCoef="0" IVar="-1" Cut="0.0000000000000000e+00" cType="1" res="-2.0668127108365297e-03" rms="4.1558969020843506e-01" purity="3.2779681682586670e-01" nType="-99"/>
        </Node>
        <Node pos="r" depth="1" NCoef="0" IVar="16" Cut="9.1295488178730011e-02" cType="1" res="3.6764945834875107e-02" rms="4.0857058763504028e-01" purity="4.2155134677886963e-01" nType="0">
          <Node pos="l" depth="2" NCoef="0" IVar="-1" Cut="0.0000000000000000e+00" cType="1" res="1.7779573099687696e-03" rms="3.9809989929199219e-01" purity="4.3462449312210083e-01" nType="-99"/>
          <Node pos="r" depth="2" NCoef="0" IVar="-1" Cut="0.0000000000000000e+00" cType="1" res="-3.0690552666783333e-03" rms="4.3436208367347717e-01" purity="3.6386814713478088e-01" nType="-99"/>
        </Node>
      </Node>
    </BinaryTree>
    <BinaryTree type="DecisionTree" boostWeight="1.0000000000000000e+00" itree="341">
      <Node pos="s" depth="0" NCoef="0" IVar="9" Cut="-1.1428571701049805e+01" cType="1" res="5.2057947032153606e-03" rms="4.0979319810867310e-01" purity="5.0187730789184570e-01" nType="0">
        <Node pos="l" depth="1" NCoef="0" IVar="-1" Cut="0.0000000000000000e+00" cType="1" res="6.8954201415181160e-03" rms="2.6136907935142517e-01" purity="9.2914420366287231e-01" nType="-99"/>
        <Node pos="r" depth="1" NCoef="0" IVar="12" Cut="1.4285714924335480e-01" cType="1" res="1.2098501902073622e-03" rms="4.1198989748954773e-01" purity="4.9129968881607056e-01" nType="0">
          <Node pos="l" depth="2" NCoef="0" IVar="-1" Cut="0.0000000000000000e+00" cType="1" res="-3.2047079876065254e-03" rms="3.9761880040168762e-01" purity="5.4701608419418335e-01" nType="-99"/>
          <Node pos="r" depth="2" NCoef="0" IVar="-1" Cut="0.0000000000000000e+00" cType="1" res="3.0053674709051847e-04" rms="4.1401842236518860e-01" purity="4.7857892513275146e-01" nType="-99"/>
        </Node>
      </Node>
    </BinaryTree>
    <BinaryTree type="DecisionTree" boostWeight="1.0000000000000000e+00" itree="342">
      <Node pos="s" depth="0" NCoef="0" IVar="10" Cut="2.3571369647979736e+00" cType="1" res="7.7230036258697510e-03" rms="4.0715441107749939e-01" purity="5.0511658191680908e-01" nType="0">
        <Node pos="l" depth="1" NCoef="0" IVar="18" Cut="5.1428570747375488e+00" cType="1" res="3.5868022590875626e-02" rms="4.0767845511436462e-01" purity="6.3485705852508545e-01" nType="0">
          <Node pos="l" depth="2" NCoef="0" IVar="-1" Cut="0.0000000000000000e+00" cType="1" res="2.8770344797521830e-03" rms="3.7967661023139954e-01" purity="7.8083771467208862e-01" nType="-99"/>
          <Node pos="r" depth="2" NCoef="0" IVar="-1" Cut="0.0000000000000000e+00" cType="1" res="-4.1417198372073472e-04" rms="4.4222655892372131e-01" purity="4.1993889212608337e-01" nType="-99"/>
        </Node>
        <Node pos="r" depth="1" NCoef="0" IVar="12" Cut="1.4285714924335480e-01" cType="0" res="-3.1440474092960358e-02" rms="4.0316808223724365e-01" purity="3.2458418607711792e-01" nType="0">
          <Node pos="l" depth="2" NCoef="0" IVar="-1" Cut="0.0000000000000000e+00" cType="1" res="-6.7908019991591573e-04" rms="4.0909731388092041e-01" purity="3.3411616086959839e-01" nType="-99"/>
          <Node pos="r" depth="2" NCoef="0" IVar="-1" Cut="0.0000000000000000e+00" cType="1" res="-5.6432392448186874e-03" rms="3.6539700627326965e-01" purity="2.7789652347564697e-01" nType="-99"/>
        </Node>
      </Node>
    </BinaryTree>
    <BinaryTree type="DecisionTree" boostWeight="1.0000000000000000e+00" itree="343">
      <Node pos="s" depth="0" NCoef="0" IVar="14" Cut="3.8380950927734375e+01" cType="1" res="9.7409226000308990e-03" rms="4.0507560968399048e-01" purity="5.0508683919906616e-01" nType="0">
        <Node pos="l" depth="1" NCoef="0" IVar="20" Cut="1.9384927749633789e+00" cType="0" res="6.0575783252716064e-02" rms="4.1980114579200745e-01" purity="6.3401365280151367e-01" nType="0">
          <Node pos="l" depth="2" NCoef="0" IVar="-1" Cut="0.0000000000000000e+00" cType="1" res="5.1987152546644211e-03" rms="4.0316453576087952e-01" purity="6.8800085783004761e-01" nType="-99"/>
          <Node pos="r" depth="2" NCoef="0" IVar="-1" Cut="0.0000000000000000e+00" cType="1" res="-5.3460472263395786e-03" rms="4.4097366929054260e-01" purity="4.0067887306213379e-01" nType="-99"/>
        </Node>
        <Node pos="r" depth="1" NCoef="0" IVar="14" Cut="1.0351437377929688e+02" cType="0" res="-3.9192247204482555e-03" rms="3.9992651343345642e-01" purity="4.7044220566749573e-01" nType="0">
          <Node pos="l" depth="2" NCoef="0" IVar="-1" Cut="0.0000000000000000e+00" cType="1" res="1.4125120360404253e-03" rms="3.9953377842903137e-01" purity="5.7849401235580444e-01" nType="-99"/>
          <Node pos="r" depth="2" NCoef="0" IVar="-1" Cut="0.0000000000000000e+00" cType="1" res="-1.6817911528050900e-03" rms="3.9813518524169922e-01" purity="4.3467316031455994e-01" nType="-99"/>
        </Node>
      </Node>
    </BinaryTree>
    <BinaryTree type="DecisionTree" boostWeight="1.0000000000000000e+00" itree="344">
      <Node pos="s" depth="0" NCoef="0" IVar="7" Cut="2.6785714626312256e+00" cType="1" res="-5.6175829377025366e-04" rms="4.1467291116714478e-01" purity="4.9175354838371277e-01" nType="0">
        <Node pos="l" depth="1" NCoef="0" IVar="20" Cut="4.1526027679443359e+01" cType="0" res="5.9848176315426826e-03" rms="4.1268423199653625e-01" purity="5.0119525194168091e-01" nType="0">
          <Node pos="l" depth="2" NCoef="0" IVar="-1" Cut="0.0000000000000000e+00" cType="1" res="2.3456485942006111e-03" rms="3.9050483703613281e-01" purity="6.0354393720626831e-01" nType="-99"/>
          <Node pos="r" depth="2" NCoef="0" IVar="-1" Cut="0.0000000000000000e+00" cType="1" res="-3.2806172384880483e-04" rms="4.1435298323631287e-01" purity="4.8897039890289307e-01" nType="-99"/>
        </Node>
        <Node pos="r" depth="1" NCoef="0" IVar="21" Cut="1.3333333730697632e+00" cType="0" res="-1.1749975383281708e-01" rms="4.3232369422912598e-01" purity="3.2310080528259277e-01" nType="0">
          <Node pos="l" depth="2" NCoef="0" IVar="-1" Cut="0.0000000000000000e+00" cType="1" res="2.8031619731336832e-03" rms="3.9899018406867981e-01" purity="4.3187755346298218e-01" nType="-99"/>
          <Node pos="r" depth="2" NCoef="0" IVar="-1" Cut="0.0000000000000000e+00" cType="1" res="-5.2702380344271660e-03" rms="4.2321425676345825e-01" purity="2.5416108965873718e-01" nType="-99"/>
        </Node>
      </Node>
    </BinaryTree>
    <BinaryTree type="DecisionTree" boostWeight="1.0000000000000000e+00" itree="345">
      <Node pos="s" depth="0" NCoef="0" IVar="12" Cut="2.1428570747375488e+00" cType="1" res="-1.5238570049405098e-03" rms="4.1079786419868469e-01" purity="4.9755868315696716e-01" nType="0">
        <Node pos="l" depth="1" NCoef="0" IVar="5" Cut="1.3173944950103760e+00" cType="1" res="1.1827627196907997e-02" rms="3.9893516898155212e-01" purity="5.1130443811416626e-01" nType="0">
          <Node pos="l" depth="2" NCoef="0" IVar="-1" Cut="0.0000000000000000e+00" cType="1" res="1.3243986759334803e-03" rms="3.5325396060943604e-01" purity="7.6972180604934692e-01" nType="-99"/>
          <Node pos="r" depth="2" NCoef="0" IVar="-1" Cut="0.0000000000000000e+00" cType="1" res="-4.4878775952383876e-05" rms="4.1561210155487061e-01" purity="3.9680305123329163e-01" nType="-99"/>
        </Node>
        <Node pos="r" depth="1" NCoef="0" IVar="20" Cut="6.6675004959106445e+00" cType="1" res="-6.4295753836631775e-02" rms="4.5731520652770996e-01" purity="4.3293315172195435e-01" nType="0">
          <Node pos="l" depth="2" NCoef="0" IVar="-1" Cut="0.0000000000000000e+00" cType="1" res="1.7539946129545569e-03" rms="4.2561960220336914e-01" purity="6.7517995834350586e-01" nType="-99"/>
          <Node pos="r" depth="2" NCoef="0" IVar="-1" Cut="0.0000000000000000e+00" cType="1" res="-2.3583229631185532e-03" rms="4.5389282703399658e-01" purity="3.9977458119392395e-01" nType="-99"/>
        </Node>
      </Node>
    </BinaryTree>
    <BinaryTree type="DecisionTree" boostWeight="1.0000000000000000e+00" itree="346">
      <Node pos="s" depth="0" NCoef="0" IVar="18" Cut="1.4285714626312256e+00" cType="1" res="-2.2119539789855480e-03" rms="4.1300883889198303e-01" purity="4.9134293198585510e-01" nType="0">
        <Node pos="l" depth="1" NCoef="0" IVar="9" Cut="-1.4285714626312256e+00" cType="1" res="-1.0897631198167801e-01" rms="4.4936600327491760e-01" purity="6.0429811477661133e-01" nType="0">
          <Node pos="l" depth="2" NCoef="0" IVar="-1" Cut="0.0000000000000000e+00" cType="1" res="1.9755077082663774e-03" rms="3.1457829475402832e-01" purity="8.7549340724945068e-01" nType="-99"/>
          <Node pos="r" depth="2" NCoef="0" IVar="-1" Cut="0.0000000000000000e+00" cType="1" res="-8.7868338450789452e-03" rms="4.5969676971435547e-01" purity="4.6426934003829956e-01" nType="-99"/>
        </Node>
        <Node pos="r" depth="1" NCoef="0" IVar="7" Cut="1.5238153934478760e-01" cType="1" res="4.6255784109234810e-03" rms="4.0962371230125427e-01" purity="4.8410892486572266e-01" nType="0">
          <Node pos="l" depth="2" NCoef="0" IVar="-1" Cut="0.0000000000000000e+00" cType="1" res="7.8018417116254568e-04" rms="4.0344515442848206e-01" purity="5.2749574184417725e-01" nType="-99"/>
          <Node pos="r" depth="2" NCoef="0" IVar="-1" Cut="0.0000000000000000e+00" cType="1" res="-1.2287328718230128e-03" rms="4.1870895028114319e-01" purity="3.9884483814239502e-01" nType="-99"/>
        </Node>
      </Node>
    </BinaryTree>
    <BinaryTree type="DecisionTree" boostWeight="1.0000000000000000e+00" itree="347">
      <Node pos="s" depth="0" NCoef="0" IVar="0" Cut="1.3362091779708862e+00" cType="1" res="4.2951619252562523e-03" rms="4.1599571704864502e-01" purity="5.1169753074645996e-01" nType="0">
        <Node pos="l" depth="1" NCoef="0" IVar="10" Cut="2.3571369647979736e+00" cType="1" res="-3.3287845551967621e-02" rms="4.2500206828117371e-01" purity="5.7814639806747437e-01" nType="0">
          <Node pos="l" depth="2" NCoef="0" IVar="-1" Cut="0.0000000000000000e+00" cType="1" res="-1.4408233982976526e-04" rms="4.1815176606178284e-01" purity="6.3872349262237549e-01" nType="-99"/>
          <Node pos="r" depth="2" NCoef="0" IVar="-1" Cut="0.0000000000000000e+00" cType="1" res="-2.8563407249748707e-03" rms="4.3805247545242310e-01" purity="3.9279389381408691e-01" nType="-99"/>
        </Node>
        <Node pos="r" depth="1" NCoef="0" IVar="18" Cut="6.4285712242126465e+00" cType="1" res="3.4453529864549637e-02" rms="4.0611758828163147e-01" purity="4.5837575197219849e-01" nType="0">
          <Node pos="l" depth="2" NCoef="0" IVar="-1" Cut="0.0000000000000000e+00" cType="1" res="1.5479652211070061e-03" rms="4.3984350562095642e-01" purity="5.8728122711181641e-01" nType="-99"/>
          <Node pos="r" depth="2" NCoef="0" IVar="-1" Cut="0.0000000000000000e+00" cType="1" res="-3.6086158361285925e-03" rms="2.7748093008995056e-01" purity="8.7811894714832306e-02" nType="-99"/>
        </Node>
      </Node>
    </BinaryTree>
    <BinaryTree type="DecisionTree" boostWeight="1.0000000000000000e+00" itree="348">
      <Node pos="s" depth="0" NCoef="0" IVar="3" Cut="3.1428570747375488e+00" cType="1" res="-1.9740501884371042e-03" rms="4.1289979219436646e-01" purity="4.9869978427886963e-01" nType="0">
        <Node pos="l" depth="1" NCoef="0" IVar="18" Cut="6.4285712242126465e+00" cType="1" res="1.7822267487645149e-02" rms="3.9681690931320190e-01" purity="5.0859320163726807e-01" nType="0">
          <Node pos="l" depth="2" NCoef="0" IVar="-1" Cut="0.0000000000000000e+00" cType="1" res="1.4592403313145041e-03" rms="4.2477846145629883e-01" purity="6.2306100130081177e-01" nType="-99"/>
          <Node pos="r" depth="2" NCoef="0" IVar="-1" Cut="0.0000000000000000e+00" cType="1" res="-3.9616129361093044e-03" rms="2.5329318642616272e-01" purity="7.0446401834487915e-02" nType="-99"/>
        </Node>
        <Node pos="r" depth="1" NCoef="0" IVar="0" Cut="1.5112497806549072e+00" cType="0" res="-5.4604172706604004e-02" rms="4.4866022467613220e-01" purity="4.7239726781845093e-01" nType="0">
          <Node pos="l" depth="2" NCoef="0" IVar="-1" Cut="0.0000000000000000e+00" cType="1" res="1.9623311236500740e-03" rms="4.3728330731391907e-01" purity="4.7978496551513672e-01" nType="-99"/>
          <Node pos="r" depth="2" NCoef="0" IVar="-1" Cut="0.0000000000000000e+00" cType="1" res="-4.4664186425507069e-03" rms="4.4598203897476196e-01" purity="4.6725258231163025e-01" nType="-99"/>
        </Node>
      </Node>
    </BinaryTree>
    <BinaryTree type="DecisionTree" boostWeight="1.0000000000000000e+00" itree="349">
      <Node pos="s" depth="0" NCoef="0" IVar="8" Cut="7.1785717010498047e+00" cType="1" res="3.4601723309606314e-03" rms="4.1641670465469360e-01" purity="5.0969696044921875e-01" nType="0">
        <Node pos="l" depth="1" NCoef="0" IVar="5" Cut="2.1989996433258057e+00" cType="1" res="7.3189781978726387e-03" rms="4.1572129726409912e-01" purity="5.1357394456863403e-01" nType="0">
          <Node pos="l" depth="2" NCoef="0" IVar="-1" Cut="0.0000000000000000e+00" cType="1" res="9.8829375929199159e-05" rms="4.2843404412269592e-01" purity="6.3184285163879395e-01" nType="-99"/>
          <Node pos="r" depth="2" NCoef="0" IVar="-1" Cut="0.0000000000000000e+00" cType="1" res="-5.8241607621312141e-04" rms="3.8111338019371033e-01" purity="2.2743231058120728e-01" nType="-99"/>
        </Node>
        <Node pos="r" depth="1" NCoef="0" IVar="-1" Cut="0.0000000000000000e+00" cType="1" res="-2.1131141111254692e-03" rms="4.1441169381141663e-01" purity="3.5222363471984863e-01" nType="-99"/>
      </Node>
    </BinaryTree>
    <BinaryTree type="DecisionTree" boostWeight="1.0000000000000000e+00" itree="350">
      <Node pos="s" depth="0" NCoef="0" IVar="20" Cut="1.5661799430847168e+01" cType="1" res="1.0174552910029888e-02" rms="4.0921822190284729e-01" purity="5.1082408428192139e-01" nType="0">
        <Node pos="l" depth="1" NCoef="0" IVar="4" Cut="2.4669642448425293e+00" cType="1" res="5.2073549479246140e-02" rms="4.0071851015090942e-01" purity="5.8225858211517334e-01" nType="0">
          <Node pos="l" depth="2" NCoef="0" IVar="-1" Cut="0.0000000000000000e+00" cType="1" res="1.1774388840422034e-03" rms="3.9925017952919006e-01" purity="6.9109183549880981e-01" nType="-99"/>
          <Node pos="r" depth="2" NCoef="0" IVar="-1" Cut="0.0000000000000000e+00" cType="1" res="-7.3616363806650043e-04" rms="3.9677140116691589e-01" purity="2.5221312046051025e-01" nType="-99"/>
        </Node>
        <Node pos="r" depth="1" NCoef="0" IVar="19" Cut="8.7101384997367859e-02" cType="0" res="-2.0217463374137878e-02" rms="4.1262099146842957e-01" purity="4.5900812745094299e-01" nType="0">
          <Node pos="l" depth="2" NCoef="0" IVar="-1" Cut="0.0000000000000000e+00" cType="1" res="1.9846033304929733e-02" rms="1.7549534142017365e-01" purity="9.6685671806335449e-01" nType="-99"/>
          <Node pos="r" depth="2" NCoef="0" IVar="-1" Cut="0.0000000000000000e+00" cType="1" res="-1.0433683637529612e-03" rms="4.1908729076385498e-01" purity="4.3530187010765076e-01" nType="-99"/>
        </Node>
      </Node>
    </BinaryTree>
    <BinaryTree type="DecisionTree" boostWeight="1.0000000000000000e+00" itree="351">
      <Node pos="s" depth="0" NCoef="0" IVar="21" Cut="4.2380952835083008e+00" cType="1" res="-9.0714124962687492e-03" rms="4.2041304707527161e-01" purity="5.0316500663757324e-01" nType="0">
        <Node pos="l" depth="1" NCoef="0" IVar="7" Cut="1.5238153934478760e-01" cType="1" res="-3.9643649011850357e-02" rms="4.2292934656143188e-01" purity="5.4817265272140503e-01" nType="0">
          <Node pos="l" depth="2" NCoef="0" IVar="-1" Cut="0.0000000000000000e+00" cType="1" res="1.3779463188257068e-04" rms="4.2075344920158386e-01" purity="6.2841618061065674e-01" nType="-99"/>
          <Node pos="r" depth="2" NCoef="0" IVar="-1" Cut="0.0000000000000000e+00" cType="1" res="-2.4431359488517046e-03" rms="4.2157343029975891e-01" purity="4.1009923815727234e-01" nType="-99"/>
        </Node>
        <Node pos="r" depth="1" NCoef="0" IVar="4" Cut="2.0315639972686768e+00" cType="1" res="4.2190149426460266e-02" rms="4.1108882427215576e-01" purity="4.2769908905029297e-01" nType="0">
          <Node pos="l" depth="2" NCoef="0" IVar="-1" Cut="0.0000000000000000e+00" cType="1" res="2.6409663259983063e-03" rms="4.3261259794235229e-01" purity="6.9455593824386597e-01" nType="-99"/>
          <Node pos="r" depth="2" NCoef="0" IVar="-1" Cut="0.0000000000000000e+00" cType="1" res="-1.0435976582812145e-04" rms="3.9381235837936401e-01" purity="2.9614567756652832e-01" nType="-99"/>
        </Node>
      </Node>
    </BinaryTree>
    <BinaryTree type="DecisionTree" boostWeight="1.0000000000000000e+00" itree="352">
      <Node pos="s" depth="0" NCoef="0" IVar="5" Cut="8.6892843246459961e-01" cType="1" res="-1.9262863788753748e-03" rms="4.1512787342071533e-01" purity="5.0574213266372681e-01" nType="0">
        <Node pos="l" depth="1" NCoef="0" IVar="21" Cut="1.2857142686843872e+00" cType="0" res="7.8635148704051971e-02" rms="3.2725486159324646e-01" purity="8.4166437387466431e-01" nType="0">
          <Node pos="l" depth="2" NCoef="0" IVar="-1" Cut="0.0000000000000000e+00" cType="1" res="6.3053467310965061e-03" rms="1.9758518040180206e-01" purity="9.5071381330490112e-01" nType="-99"/>
          <Node pos="r" depth="2" NCoef="0" IVar="-1" Cut="0.0000000000000000e+00" cType="1" res="1.8917419947683811e-03" rms="3.7128275632858276e-01" purity="7.7540719509124756e-01" nType="-99"/>
        </Node>
        <Node pos="r" depth="1" NCoef="0" IVar="4" Cut="1.0492570400238037e+00" cType="1" res="-1.0132997296750546e-02" rms="4.2219442129135132e-01" purity="4.7152209281921387e-01" nType="0">
          <Node pos="l" depth="2" NCoef="0" IVar="-1" Cut="0.0000000000000000e+00" cType="1" res="-6.5721515566110611e-03" rms="4.5404601097106934e-01" purity="6.1126959323883057e-01" nType="-99"/>
          <Node pos="r" depth="2" NCoef="0" IVar="-1" Cut="0.0000000000000000e+00" cType="1" res="-6.6550950577948242e-05" rms="4.1787356138229370e-01" purity="4.6008279919624329e-01" nType="-99"/>
        </Node>
      </Node>
    </BinaryTree>
    <BinaryTree type="DecisionTree" boostWeight="1.0000000000000000e+00" itree="353">
      <Node pos="s" depth="0" NCoef="0" IVar="12" Cut="2.1428570747375488e+00" cType="1" res="-8.7560974061489105e-03" rms="4.1731467843055725e-01" purity="4.9727740883827209e-01" nType="0">
        <Node pos="l" depth="1" NCoef="0" IVar="14" Cut="3.8380950927734375e+01" cType="1" res="9.0171890333294868e-03" rms="4.0665370225906372e-01" purity="5.1959127187728882e-01" nType="0">
          <Node pos="l" depth="2" NCoef="0" IVar="-1" Cut="0.0000000000000000e+00" cType="1" res="3.4473394043743610e-03" rms="4.2307755351066589e-01" purity="6.4420074224472046e-01" nType="-99"/>
          <Node pos="r" depth="2" NCoef="0" IVar="-1" Cut="0.0000000000000000e+00" cType="1" res="-5.7484349235892296e-04" rms="4.0056478977203369e-01" purity="4.8482128977775574e-01" nType="-99"/>
        </Node>
        <Node pos="r" depth="1" NCoef="0" IVar="18" Cut="5.1904764175415039e+00" cType="1" res="-8.3657056093215942e-02" rms="4.5191749930381775e-01" purity="4.0324124693870544e-01" nType="0">
          <Node pos="l" depth="2" NCoef="0" IVar="-1" Cut="0.0000000000000000e+00" cType="1" res="7.5174146331846714e-04" rms="4.8610514402389526e-01" purity="5.1219606399536133e-01" nType="-99"/>
          <Node pos="r" depth="2" NCoef="0" IVar="-1" Cut="0.0000000000000000e+00" cType="1" res="-7.1931001730263233e-03" rms="3.2251194119453430e-01" purity="1.1606468260288239e-01" nType="-99"/>
        </Node>
      </Node>
    </BinaryTree>
    <BinaryTree type="DecisionTree" boostWeight="1.0000000000000000e+00" itree="354">
      <Node pos="s" depth="0" NCoef="0" IVar="7" Cut="1.5238153934478760e-01" cType="1" res="1.1632194742560387e-02" rms="4.0748673677444458e-01" purity="5.0623542070388794e-01" nType="0">
        <Node pos="l" depth="1" NCoef="0" IVar="15" Cut="1.9000000000000000e+01" cType="1" res="2.8762726113200188e-02" rms="4.0025231242179871e-01" purity="5.4699760675430298e-01" nType="0">
          <Node pos="l" depth="2" NCoef="0" IVar="-1" Cut="0.0000000000000000e+00" cType="1" res="1.1665048077702522e-03" rms="4.2299497127532959e-01" purity="6.3883221149444580e-01" nType="-99"/>
          <Node pos="r" depth="2" NCoef="0" IVar="-1" Cut="0.0000000000000000e+00" cType="1" res="-4.3129185214638710e-03" rms="2.3405693471431732e-01" purity="6.1502639204263687e-02" nType="-99"/>
        </Node>
        <Node pos="r" depth="1" NCoef="0" IVar="17" Cut="2.8441267013549805e+01" cType="0" res="-2.2720305249094963e-02" rms="4.1951772570610046e-01" purity="4.2449355125427246e-01" nType="0">
          <Node pos="l" depth="2" NCoef="0" IVar="-1" Cut="0.0000000000000000e+00" cType="1" res="2.1930218208581209e-03" rms="4.3690165877342224e-01" purity="5.0247734785079956e-01" nType="-99"/>
          <Node pos="r" depth="2" NCoef="0" IVar="-1" Cut="0.0000000000000000e+00" cType="1" res="-2.8105669189244509e-03" rms="4.0570089221000671e-01" purity="3.8003391027450562e-01" nType="-99"/>
        </Node>
      </Node>
    </BinaryTree>
    <BinaryTree type="DecisionTree" boostWeight="1.0000000000000000e+00" itree="355">
      <Node pos="s" depth="0" NCoef="0" IVar="18" Cut="5.1428570747375488e+00" cType="1" res="8.7307151407003403e-03" rms="4.0429496765136719e-01" purity="5.0501525402069092e-01" nType="0">
        <Node pos="l" depth="1" NCoef="0" IVar="0" Cut="2.3476128578186035e+00" cType="1" res="3.1405668705701828e-02" rms="3.9896252751350403e-01" purity="6.7148101329803467e-01" nType="0">
          <Node pos="l" depth="2" NCoef="0" IVar="-1" Cut="0.0000000000000000e+00" cType="1" res="1.5142520423978567e-03" rms="4.0368101000785828e-01" purity="7.3493331670761108e-01" nType="-99"/>
          <Node pos="r" depth="2" NCoef="0" IVar="-1" Cut="0.0000000000000000e+00" cType="1" res="-2.9948307201266289e-03" rms="3.4216976165771484e-01" purity="1.8186083436012268e-01" nType="-99"/>
        </Node>
        <Node pos="r" depth="1" NCoef="0" IVar="15" Cut="1.5238095283508301e+01" cType="0" res="-1.4957538805902004e-02" rms="4.0844938158988953e-01" purity="3.3111041784286499e-01" nType="0">
          <Node pos="l" depth="2" NCoef="0" IVar="-1" Cut="0.0000000000000000e+00" cType="1" res="-5.4529835324501619e-05" rms="3.9680987596511841e-01" purity="3.4561440348625183e-01" nType="-99"/>
          <Node pos="r" depth="2" NCoef="0" IVar="-1" Cut="0.0000000000000000e+00" cType="1" res="-2.7421116828918457e-03" rms="4.2806088924407959e-01" purity="2.9877254366874695e-01" nType="-99"/>
        </Node>
      </Node>
    </BinaryTree>
    <BinaryTree type="DecisionTree" boostWeight="1.0000000000000000e+00" itree="356">
      <Node pos="s" depth="0" NCoef="0" IVar="21" Cut="4.2380952835083008e+00" cType="1" res="-1.0644902475178242e-02" rms="4.1470587253570557e-01" purity="4.8807531595230103e-01" nType="0">
        <Node pos="l" depth="1" NCoef="0" IVar="21" Cut="3.0476191043853760e+00" cType="1" res="-2.9094466939568520e-02" rms="4.1198989748954773e-01" purity="5.3621208667755127e-01" nType="0">
          <Node pos="l" depth="2" NCoef="0" IVar="-1" Cut="0.0000000000000000e+00" cType="1" res="-2.1806322911288589e-04" rms="4.0385836362838745e-01" purity="5.4699021577835083e-01" nType="-99"/>
          <Node pos="r" depth="2" NCoef="0" IVar="-1" Cut="0.0000000000000000e+00" cType="1" res="-6.5398728474974632e-03" rms="4.7159180045127869e-01" purity="4.2631882429122925e-01" nType="-99"/>
        </Node>
        <Node pos="r" depth="1" NCoef="0" IVar="13" Cut="1.5642590820789337e-01" cType="1" res="1.9640702754259109e-02" rms="4.1736158728599548e-01" purity="4.0905719995498657e-01" nType="0">
          <Node pos="l" depth="2" NCoef="0" IVar="-1" Cut="0.0000000000000000e+00" cType="1" res="1.4174525858834386e-03" rms="4.0545353293418884e-01" purity="4.1402199864387512e-01" nType="-99"/>
          <Node pos="r" depth="2" NCoef="0" IVar="-1" Cut="0.0000000000000000e+00" cType="1" res="-2.3924962151795626e-03" rms="4.5796096324920654e-01" purity="3.8513606786727905e-01" nType="-99"/>
        </Node>
      </Node>
    </BinaryTree>
    <BinaryTree type="DecisionTree" boostWeight="1.0000000000000000e+00" itree="357">
      <Node pos="s" depth="0" NCoef="0" IVar="9" Cut="-7.1428570747375488e+00" cType="1" res="-5.5365036241710186e-03" rms="4.2048978805541992e-01" purity="5.0687187910079956e-01" nType="0">
        <Node pos="l" depth="1" NCoef="0" IVar="3" Cut="3.5238094329833984e+00" cType="1" res="-1.1365640908479691e-01" rms="4.5067635178565979e-01" purity="5.5499714612960815e-01" nType="0">
          <Node pos="l" depth="2" NCoef="0" IVar="-1" Cut="0.0000000000000000e+00" cType="1" res="8.9724443387240171e-04" rms="4.0885496139526367e-01" purity="7.1265190839767456e-01" nType="-99"/>
          <Node pos="r" depth="2" NCoef="0" IVar="-1" Cut="0.0000000000000000e+00" cType="1" res="-6.9989580661058426e-03" rms="4.5633363723754883e-01" purity="4.0714639425277710e-01" nType="-99"/>
        </Node>
        <Node pos="r" depth="1" NCoef="0" IVar="20" Cut="7.3729797363281250e+01" cType="1" res="1.5827619936317205e-03" rms="4.1744419932365417e-01" purity="5.0370305776596069e-01" nType="0">
          <Node pos="l" depth="2" NCoef="0" IVar="-1" Cut="0.0000000000000000e+00" cType="1" res="1.6357113781850785e-04" rms="4.1702705621719360e-01" purity="5.0992447137832642e-01" nType="-99"/>
          <Node pos="r" depth="2" NCoef="0" IVar="-1" Cut="0.0000000000000000e+00" cType="1" res="-6.0110897757112980e-03" rms="4.0326198935508728e-01" purity="2.9094433784484863e-01" nType="-99"/>
        </Node>
      </Node>
    </BinaryTree>
    <BinaryTree type="DecisionTree" boostWeight="1.0000000000000000e+00" itree="358">
      <Node pos="s" depth="0" NCoef="0" IVar="6" Cut="4.5578101277351379e-01" cType="0" res="4.9470532685518265e-03" rms="4.1163581609725952e-01" purity="5.0334495306015015e-01" nType="0">
        <Node pos="l" depth="1" NCoef="0" IVar="6" Cut="1.0531212091445923e+00" cType="1" res="9.6295410767197609e-03" rms="4.0858551859855652e-01" purity="5.0464308261871338e-01" nType="0">
          <Node pos="l" depth="2" NCoef="0" IVar="-1" Cut="0.0000000000000000e+00" cType="1" res="-8.0415752017870545e-04" rms="4.0512266755104065e-01" purity="6.2472414970397949e-01" nType="-99"/>
          <Node pos="r" depth="2" NCoef="0" IVar="-1" Cut="0.0000000000000000e+00" cType="1" res="-1.2532961591205094e-05" rms="4.0810093283653259e-01" purity="4.7775611281394958e-01" nType="-99"/>
        </Node>
        <Node pos="r" depth="1" NCoef="0" IVar="-1" Cut="0.0000000000000000e+00" cType="1" res="-5.2309297025203705e-03" rms="4.8839664459228516e-01" purity="4.3886810541152954e-01" nType="-99"/>
      </Node>
    </BinaryTree>
    <BinaryTree type="DecisionTree" boostWeight="1.0000000000000000e+00" itree="359">
      <Node pos="s" depth="0" NCoef="0" IVar="5" Cut="4.3625536561012268e-01" cType="1" res="-3.2246459275484085e-02" rms="4.1683384776115417e-01" purity="4.6175259351730347e-01" nType="0">
        <Node pos="l" depth="1" NCoef="0" IVar="-1" Cut="0.0000000000000000e+00" cType="1" res="1.7049267888069153e-02" rms="9.9598236382007599e-02" purity="1.0000000000000000e+00" nType="-99"/>
        <Node pos="r" depth="1" NCoef="0" IVar="0" Cut="1.3362091779708862e+00" cType="1" res="-3.5306356847286224e-02" rms="4.1895762085914612e-01" purity="4.5380648970603943e-01" nType="0">
          <Node pos="l" depth="2" NCoef="0" IVar="-1" Cut="0.0000000000000000e+00" cType="1" res="-1.2996101286262274e-03" rms="4.3705686926841736e-01" purity="5.3129649162292480e-01" nType="-99"/>
          <Node pos="r" depth="2" NCoef="0" IVar="-1" Cut="0.0000000000000000e+00" cType="1" res="3.9174570702016354e-04" rms="4.0421858429908752e-01" purity="3.9898440241813660e-01" nType="-99"/>
        </Node>
      </Node>
    </BinaryTree>
    <BinaryTree type="DecisionTree" boostWeight="1.0000000000000000e+00" itree="360">
      <Node pos="s" depth="0" NCoef="0" IVar="12" Cut="1.4285714924335480e-01" cType="1" res="-5.0103417597711086e-03" rms="4.1453766822814941e-01" purity="5.0007957220077515e-01" nType="0">
        <Node pos="l" depth="1" NCoef="0" IVar="9" Cut="-2.8571429252624512e+00" cType="1" res="-6.9267265498638153e-02" rms="4.0418505668640137e-01" purity="5.5622583627700806e-01" nType="0">
          <Node pos="l" depth="2" NCoef="0" IVar="-1" Cut="0.0000000000000000e+00" cType="1" res="2.4253425654023886e-03" rms="3.8885149359703064e-01" purity="7.6882910728454590e-01" nType="-99"/>
          <Node pos="r" depth="2" NCoef="0" IVar="-1" Cut="0.0000000000000000e+00" cType="1" res="-3.9359293878078461e-03" rms="4.0501418709754944e-01" purity="4.7589030861854553e-01" nType="-99"/>
        </Node>
        <Node pos="r" depth="1" NCoef="0" IVar="15" Cut="1.1142857551574707e+01" cType="1" res="1.1102348566055298e-02" rms="4.1553804278373718e-01" purity="4.8600062727928162e-01" nType="0">
          <Node pos="l" depth="2" NCoef="0" IVar="-1" Cut="0.0000000000000000e+00" cType="1" res="3.1093442812561989e-03" rms="4.0042254328727722e-01" purity="7.1916007995605469e-01" nType="-99"/>
          <Node pos="r" depth="2" NCoef="0" IVar="-1" Cut="0.0000000000000000e+00" cType="1" res="-5.7219795417040586e-04" rms="4.2026114463806152e-01" purity="3.8874444365501404e-01" nType="-99"/>
        </Node>
      </Node>
    </BinaryTree>
    <BinaryTree type="DecisionTree" boostWeight="1.0000000000000000e+00" itree="361">
      <Node pos="s" depth="0" NCoef="0" IVar="20" Cut="3.7537380218505859e+01" cType="0" res="9.2448393115773797e-04" rms="4.0977758169174194e-01" purity="4.9863713979721069e-01" nType="0">
        <Node pos="l" depth="1" NCoef="0" IVar="20" Cut="6.0191959381103516e+01" cType="1" res="9.0013578534126282e-02" rms="3.8860556483268738e-01" purity="6.2446993589401245e-01" nType="0">
          <Node pos="l" depth="2" NCoef="0" IVar="-1" Cut="0.0000000000000000e+00" cType="1" res="3.9324737153947353e-03" rms="3.9279198646545410e-01" purity="7.3534274101257324e-01" nType="-99"/>
          <Node pos="r" depth="2" NCoef="0" IVar="-1" Cut="0.0000000000000000e+00" cType="1" res="-2.9980058316141367e-03" rms="3.6826100945472717e-01" purity="4.4987648725509644e-01" nType="-99"/>
        </Node>
        <Node pos="r" depth="1" NCoef="0" IVar="6" Cut="1.9965052604675293e+00" cType="1" res="-1.2327616102993488e-02" rms="4.1118833422660828e-01" purity="4.7991937398910522e-01" nType="0">
          <Node pos="l" depth="2" NCoef="0" IVar="-1" Cut="0.0000000000000000e+00" cType="1" res="-1.0852190898731351e-03" rms="4.2100805044174194e-01" purity="5.6900250911712646e-01" nType="-99"/>
          <Node pos="r" depth="2" NCoef="0" IVar="-1" Cut="0.0000000000000000e+00" cType="1" res="7.6541723683476448e-04" rms="3.8918501138687134e-01" purity="3.1428119540214539e-01" nType="-99"/>
        </Node>
      </Node>
    </BinaryTree>
    <BinaryTree type="DecisionTree" boostWeight="1.0000000000000000e+00" itree="362">
      <Node pos="s" depth="0" NCoef="0" IVar="6" Cut="1.9824386835098267e+00" cType="1" res="-8.5371090099215508e-03" rms="4.2086723446846008e-01" purity="4.9531129002571106e-01" nType="0">
        <Node pos="l" depth="1" NCoef="0" IVar="20" Cut="4.4328433990478516e+01" cType="0" res="-2.8260516002774239e-02" rms="4.2897015810012817e-01" purity="5.8288401365280151e-01" nType="0">
          <Node pos="l" depth="2" NCoef="0" IVar="-1" Cut="0.0000000000000000e+00" cType="1" res="3.8413263391703367e-03" rms="3.6791601777076721e-01" purity="6.6360288858413696e-01" nType="-99"/>
          <Node pos="r" depth="2" NCoef="0" IVar="-1" Cut="0.0000000000000000e+00" cType="1" res="-6.8807363277301192e-04" rms="4.3390551209449768e-01" purity="5.7401108741760254e-01" nType="-99"/>
        </Node>
        <Node pos="r" depth="1" NCoef="0" IVar="11" Cut="1.8624503612518311e+00" cType="1" res="2.7153372764587402e-02" rms="4.0334928035736084e-01" purity="3.3684408664703369e-01" nType="0">
          <Node pos="l" depth="2" NCoef="0" IVar="-1" Cut="0.0000000000000000e+00" cType="1" res="1.0532174492254853e-03" rms="4.1742089390754700e-01" purity="4.0941959619522095e-01" nType="-99"/>
          <Node pos="r" depth="2" NCoef="0" IVar="-1" Cut="0.0000000000000000e+00" cType="1" res="-2.1591989789158106e-03" rms="3.6740195751190186e-01" purity="2.0251414179801941e-01" nType="-99"/>
        </Node>
      </Node>
    </BinaryTree>
    <BinaryTree type="DecisionTree" boostWeight="1.0000000000000000e+00" itree="363">
      <Node pos="s" depth="0" NCoef="0" IVar="5" Cut="2.1956574916839600e+00" cType="1" res="3.8402052596211433e-03" rms="4.1237860918045044e-01" purity="5.0485402345657349e-01" nType="0">
        <Node pos="l" depth="1" NCoef="0" IVar="12" Cut="2.1428570747375488e+00" cType="1" res="1.7127893865108490e-02" rms="4.2366924881935120e-01" purity="6.1782258749008179e-01" nType="0">
          <Node pos="l" depth="2" NCoef="0" IVar="-1" Cut="0.0000000000000000e+00" cType="1" res="5.6835735449567437e-04" rms="4.1529956459999084e-01" purity="6.4003026485443115e-01" nType="-99"/>
          <Node pos="r" depth="2" NCoef="0" IVar="-1" Cut="0.0000000000000000e+00" cType="1" res="-2.0154295489192009e-03" rms="4.5669931173324585e-01" purity="5.1575005054473877e-01" nType="-99"/>
        </Node>
        <Node pos="r" depth="1" NCoef="0" IVar="15" Cut="1.1000000000000000e+01" cType="0" res="-2.9138391837477684e-02" rms="3.8092315196990967e-01" purity="2.2447834908962250e-01" nType="0">
          <Node pos="l" depth="2" NCoef="0" IVar="-1" Cut="0.0000000000000000e+00" cType="1" res="6.4220518106594682e-04" rms="3.8273161649703979e-01" purity="2.3416662216186523e-01" nType="-99"/>
          <Node pos="r" depth="2" NCoef="0" IVar="-1" Cut="0.0000000000000000e+00" cType="1" res="-3.6135597620159388e-03" rms="3.6828315258026123e-01" purity="1.8873476982116699e-01" nType="-99"/>
        </Node>
      </Node>
    </BinaryTree>
    <BinaryTree type="DecisionTree" boostWeight="1.0000000000000000e+00" itree="364">
      <Node pos="s" depth="0" NCoef="0" IVar="4" Cut="1.8426712751388550e+00" cType="1" res="-4.8589352518320084e-03" rms="4.1010314226150513e-01" purity="4.9465918540954590e-01" nType="0">
        <Node pos="l" depth="1" NCoef="0" IVar="20" Cut="2.2077249526977539e+01" cType="0" res="2.2677067667245865e-02" rms="4.0108698606491089e-01" purity="7.1462589502334595e-01" nType="0">
          <Node pos="l" depth="2" NCoef="0" IVar="-1" Cut="0.0000000000000000e+00" cType="1" res="5.5936360731720924e-03" rms="3.3050036430358887e-01" purity="7.7438938617706299e-01" nType="-99"/>
          <Node pos="r" depth="2" NCoef="0" IVar="-1" Cut="0.0000000000000000e+00" cType="1" res="-2.3012680467218161e-03" rms="4.2886489629745483e-01" purity="6.8304449319839478e-01" nType="-99"/>
        </Node>
        <Node pos="r" depth="1" NCoef="0" IVar="21" Cut="4.2380952835083008e+00" cType="0" res="-2.6474049314856529e-02" rms="4.1576838493347168e-01" purity="3.2199051976203918e-01" nType="0">
          <Node pos="l" depth="2" NCoef="0" IVar="-1" Cut="0.0000000000000000e+00" cType="1" res="4.7274175449274480e-04" rms="4.1305559873580933e-01" purity="3.3362978696823120e-01" nType="-99"/>
          <Node pos="r" depth="2" NCoef="0" IVar="-1" Cut="0.0000000000000000e+00" cType="1" res="-1.0476610623300076e-03" rms="4.1677102446556091e-01" purity="3.0868571996688843e-01" nType="-99"/>
        </Node>
      </Node>
    </BinaryTree>
    <BinaryTree type="DecisionTree" boostWeight="1.0000000000000000e+00" itree="365">
      <Node pos="s" depth="0" NCoef="0" IVar="20" Cut="7.3729797363281250e+01" cType="1" res="-1.6642313450574875e-02" rms="4.2199900746345520e-01" purity="4.8707661032676697e-01" nType="0">
        <Node pos="l" depth="1" NCoef="0" IVar="20" Cut="1.9379827976226807e+00" cType="0" res="-1.1689320206642151e-02" rms="4.2176064848899841e-01" purity="4.9358719587326050e-01" nType="0">
          <Node pos="l" depth="2" NCoef="0" IVar="-1" Cut="0.0000000000000000e+00" cType="1" res="2.7078669518232346e-04" rms="4.1989436745643616e-01" purity="5.0178706645965576e-01" nType="-99"/>
          <Node pos="r" depth="2" NCoef="0" IVar="-1" Cut="0.0000000000000000e+00" cType="1" res="-3.8084129337221384e-03" rms="4.3229839205741882e-01" purity="3.6041277647018433e-01" nType="-99"/>
        </Node>
        <Node pos="r" depth="1" NCoef="0" IVar="-1" Cut="0.0000000000000000e+00" cType="1" res="-5.6276521645486355e-03" rms="3.9450022578239441e-01" purity="2.6529330015182495e-01" nType="-99"/>
      </Node>
    </BinaryTree>
    <BinaryTree type="DecisionTree" boostWeight="1.0000000000000000e+00" itree="366">
      <Node pos="s" depth="0" NCoef="0" IVar="7" Cut="-4.5833334922790527e+00" cType="1" res="7.1297530084848404e-03" rms="4.1110110282897949e-01" purity="5.1424711942672729e-01" nType="0">
        <Node pos="l" depth="1" NCoef="0" IVar="5" Cut="8.0482381582260132e-01" cType="1" res="-9.5407143235206604e-02" rms="4.3402618169784546e-01" purity="5.7615566253662109e-01" nType="0">
          <Node pos="l" depth="2" NCoef="0" IVar="-1" Cut="0.0000000000000000e+00" cType="1" res="7.9548899084329605e-03" rms="3.0620557069778442e-01" purity="8.7549340724945068e-01" nType="-99"/>
          <Node pos="r" depth="2" NCoef="0" IVar="-1" Cut="0.0000000000000000e+00" cType="1" res="-4.5228870585560799e-03" rms="4.5617285370826721e-01" purity="4.5760917663574219e-01" nType="-99"/>
        </Node>
        <Node pos="r" depth="1" NCoef="0" IVar="18" Cut="5.1428570747375488e+00" cType="1" res="1.5176478773355484e-02" rms="4.0815907716751099e-01" purity="5.0938874483108521e-01" nType="0">
          <Node pos="l" depth="2" NCoef="0" IVar="-1" Cut="0.0000000000000000e+00" cType="1" res="9.4060727860778570e-04" rms="3.9691910147666931e-01" purity="6.8841820955276489e-01" nType="-99"/>
          <Node pos="r" depth="2" NCoef="0" IVar="-1" Cut="0.0000000000000000e+00" cType="1" res="-7.0610968396067619e-04" rms="4.1602513194084167e-01" purity="3.4190082550048828e-01" nType="-99"/>
        </Node>
      </Node>
    </BinaryTree>
    <BinaryTree type="DecisionTree" boostWeight="1.0000000000000000e+00" itree="367">
      <Node pos="s" depth="0" NCoef="0" IVar="20" Cut="7.3400848388671875e+01" cType="1" res="3.8115747738629580e-03" rms="4.0865993499755859e-01" purity="4.9653199315071106e-01" nType="0">
        <Node pos="l" depth="1" NCoef="0" IVar="20" Cut="2.1743730545043945e+01" cType="0" res="8.3374232053756714e-03" rms="4.0821325778961182e-01" purity="5.0171369314193726e-01" nType="0">
          <Node pos="l" depth="2" NCoef="0" IVar="-1" Cut="0.0000000000000000e+00" cType="1" res="1.7686074133962393e-03" rms="4.0493327379226685e-01" purity="5.5903077125549316e-01" nType="-99"/>
          <Node pos="r" depth="2" NCoef="0" IVar="-1" Cut="0.0000000000000000e+00" cType="1" res="-8.7521586101502180e-04" rms="4.0839356184005737e-01" purity="4.7349476814270020e-01" nType="-99"/>
        </Node>
        <Node pos="r" depth="1" NCoef="0" IVar="-1" Cut="0.0000000000000000e+00" cType="1" res="-5.4192566312849522e-03" rms="3.9095857739448547e-01" purity="3.0996394157409668e-01" nType="-99"/>
      </Node>
    </BinaryTree>
    <BinaryTree type="DecisionTree" boostWeight="1.0000000000000000e+00" itree="368">
      <Node pos="s" depth="0" NCoef="0" IVar="0" Cut="8.9080607891082764e-01" cType="1" res="-1.6207167878746986e-02" rms="4.1827863454818726e-01" purity="4.9278700351715088e-01" nType="0">
        <Node pos="l" depth="1" NCoef="0" IVar="3" Cut="2.7142856121063232e+00" cType="1" res="-6.0337245464324951e-02" rms="4.4168263673782349e-01" purity="5.5655354261398315e-01" nType="0">
          <Node pos="l" depth="2" NCoef="0" IVar="-1" Cut="0.0000000000000000e+00" cType="1" res="5.6095741456374526e-04" rms="4.2090305685997009e-01" purity="6.6066730022430420e-01" nType="-99"/>
          <Node pos="r" depth="2" NCoef="0" IVar="-1" Cut="0.0000000000000000e+00" cType="1" res="-3.5335081629455090e-03" rms="4.4833526015281677e-01" purity="4.5597520470619202e-01" nType="-99"/>
        </Node>
        <Node pos="r" depth="1" NCoef="0" IVar="7" Cut="-1.1809518337249756e+00" cType="1" res="-2.3103996645659208e-03" rms="4.0964949131011963e-01" purity="4.7270661592483521e-01" nType="0">
          <Node pos="l" depth="2" NCoef="0" IVar="-1" Cut="0.0000000000000000e+00" cType="1" res="2.4358585942536592e-03" rms="4.0109220147132874e-01" purity="6.3967955112457275e-01" nType="-99"/>
          <Node pos="r" depth="2" NCoef="0" IVar="-1" Cut="0.0000000000000000e+00" cType="1" res="-1.0495012247702107e-04" rms="4.0993577241897583e-01" purity="4.4839042425155640e-01" nType="-99"/>
        </Node>
      </Node>
    </BinaryTree>
    <BinaryTree type="DecisionTree" boostWeight="1.0000000000000000e+00" itree="369">
      <Node pos="s" depth="0" NCoef="0" IVar="5" Cut="1.3173954486846924e+00" cType="1" res="6.0226949863135815e-03" rms="4.0854951739311218e-01" purity="5.0301092863082886e-01" nType="0">
        <Node pos="l" depth="1" NCoef="0" IVar="20" Cut="6.0569950103759766e+01" cType="1" res="4.9357246607542038e-02" rms="3.7326672673225403e-01" purity="7.4084478616714478e-01" nType="0">
          <Node pos="l" depth="2" NCoef="0" IVar="-1" Cut="0.0000000000000000e+00" cType="1" res="1.1216640705242753e-03" rms="3.6563229560852051e-01" purity="7.6304572820663452e-01" nType="-99"/>
          <Node pos="r" depth="2" NCoef="0" IVar="-1" Cut="0.0000000000000000e+00" cType="1" res="-4.9708825536072254e-03" rms="4.1483110189437866e-01" purity="4.3405982851982117e-01" nType="-99"/>
        </Node>
        <Node pos="r" depth="1" NCoef="0" IVar="0" Cut="6.6810548305511475e-01" cType="0" res="-1.3576500117778778e-02" rms="4.2208427190780640e-01" purity="3.9544427394866943e-01" nType="0">
          <Node pos="l" depth="2" NCoef="0" IVar="-1" Cut="0.0000000000000000e+00" cType="1" res="-1.7297430895268917e-04" rms="4.2085868120193481e-01" purity="4.0287256240844727e-01" nType="-99"/>
          <Node pos="r" depth="2" NCoef="0" IVar="-1" Cut="0.0000000000000000e+00" cType="1" res="-3.5280147567391396e-03" rms="4.2408904433250427e-01" purity="3.0009347200393677e-01" nType="-99"/>
        </Node>
      </Node>
    </BinaryTree>
    <BinaryTree type="DecisionTree" boostWeight="1.0000000000000000e+00" itree="370">
      <Node pos="s" depth="0" NCoef="0" IVar="10" Cut="2.7318577766418457e+00" cType="1" res="6.1955960700288415e-04" rms="4.1713857650756836e-01" purity="5.1619154214859009e-01" nType="0">
        <Node pos="l" depth="1" NCoef="0" IVar="18" Cut="3.4285714626312256e+00" cType="1" res="1.8502786755561829e-02" rms="4.1841635107994080e-01" purity="5.9630596637725830e-01" nType="0">
          <Node pos="l" depth="2" NCoef="0" IVar="-1" Cut="0.0000000000000000e+00" cType="1" res="3.2867591362446547e-03" rms="3.1387612223625183e-01" purity="8.6816245317459106e-01" nType="-99"/>
          <Node pos="r" depth="2" NCoef="0" IVar="-1" Cut="0.0000000000000000e+00" cType="1" res="1.5651193098165095e-04" rms="4.4971618056297302e-01" purity="4.9316996335983276e-01" nType="-99"/>
        </Node>
        <Node pos="r" depth="1" NCoef="0" IVar="18" Cut="2.1428570747375488e+00" cType="1" res="-4.3920721858739853e-02" rms="4.1056683659553528e-01" purity="3.1665706634521484e-01" nType="0">
          <Node pos="l" depth="2" NCoef="0" IVar="-1" Cut="0.0000000000000000e+00" cType="1" res="-3.5022038500756025e-03" rms="4.4089156389236450e-01" purity="3.6311328411102295e-01" nType="-99"/>
          <Node pos="r" depth="2" NCoef="0" IVar="-1" Cut="0.0000000000000000e+00" cType="1" res="-1.4899226371198893e-03" rms="4.0496924519538879e-01" purity="3.1153771281242371e-01" nType="-99"/>
        </Node>
      </Node>
    </BinaryTree>
    <BinaryTree type="DecisionTree" boostWeight="1.0000000000000000e+00" itree="371">
      <Node pos="s" depth="0" NCoef="0" IVar="12" Cut="1.4285714924335480e-01" cType="1" res="-6.3289152458310127e-03" rms="4.1006392240524292e-01" purity="4.9145066738128662e-01" nType="0">
        <Node pos="l" depth="1" NCoef="0" IVar="11" Cut="6.2868171930313110e-01" cType="1" res="-7.0145130157470703e-02" rms="3.9976191520690918e-01" purity="5.3762269020080566e-01" nType="0">
          <Node pos="l" depth="2" NCoef="0" IVar="-1" Cut="0.0000000000000000e+00" cType="1" res="3.7039520684629679e-03" rms="3.5738122463226318e-01" purity="7.4857866764068604e-01" nType="-99"/>
          <Node pos="r" depth="2" NCoef="0" IVar="-1" Cut="0.0000000000000000e+00" cType="1" res="-5.9990691952407360e-03" rms="4.1792213916778564e-01" purity="3.6404067277908325e-01" nType="-99"/>
        </Node>
        <Node pos="r" depth="1" NCoef="0" IVar="18" Cut="3.4285714626312256e+00" cType="1" res="9.3951551243662834e-03" rms="4.1104423999786377e-01" purity="4.8007404804229736e-01" nType="0">
          <Node pos="l" depth="2" NCoef="0" IVar="-1" Cut="0.0000000000000000e+00" cType="1" res="1.0544108226895332e-02" rms="2.6780444383621216e-01" purity="8.7484550476074219e-01" nType="-99"/>
          <Node pos="r" depth="2" NCoef="0" IVar="-1" Cut="0.0000000000000000e+00" cType="1" res="-2.7446099556982517e-04" rms="4.2739874124526978e-01" purity="4.1982623934745789e-01" nType="-99"/>
        </Node>
      </Node>
    </BinaryTree>
    <BinaryTree type="DecisionTree" boostWeight="1.0000000000000000e+00" itree="372">
      <Node pos="s" depth="0" NCoef="0" IVar="0" Cut="2.2270156443119049e-01" cType="0" res="-7.1188490837812424e-03" rms="4.1511338949203491e-01" purity="4.9555447697639465e-01" nType="0">
        <Node pos="l" depth="1" NCoef="0" IVar="1" Cut="8.4285717010498047e+00" cType="0" res="-3.2992551568895578e-03" rms="4.1295909881591797e-01" purity="4.9658796191215515e-01" nType="0">
          <Node pos="l" depth="2" NCoef="0" IVar="-1" Cut="0.0000000000000000e+00" cType="1" res="4.6009770594537258e-03" rms="4.5406302809715271e-01" purity="6.1363726854324341e-01" nType="-99"/>
          <Node pos="r" depth="2" NCoef="0" IVar="-1" Cut="0.0000000000000000e+00" cType="1" res="-3.4744266304187477e-04" rms="4.1090229153633118e-01" purity="4.9287313222885132e-01" nType="-99"/>
        </Node>
        <Node pos="r" depth="1" NCoef="0" IVar="-1" Cut="0.0000000000000000e+00" cType="1" res="-2.4188791867345572e-03" rms="4.7375494241714478e-01" purity="4.4343373179435730e-01" nType="-99"/>
      </Node>
    </BinaryTree>
    <BinaryTree type="DecisionTree" boostWeight="1.0000000000000000e+00" itree="373">
      <Node pos="s" depth="0" NCoef="0" IVar="20" Cut="7.5162002563476562e+01" cType="1" res="7.3483819141983986e-03" rms="4.0524441003799438e-01" purity="5.0231707096099854e-01" nType="0">
        <Node pos="l" depth="1" NCoef="0" IVar="18" Cut="1.4285714626312256e+00" cType="1" res="1.2093766592442989e-02" rms="4.0502569079399109e-01" purity="5.0904905796051025e-01" nType="0">
          <Node pos="l" depth="2" NCoef="0" IVar="-1" Cut="0.0000000000000000e+00" cType="1" res="-5.3592710755765438e-03" rms="4.4003251194953918e-01" purity="6.2420171499252319e-01" nType="-99"/>
          <Node pos="r" depth="2" NCoef="0" IVar="-1" Cut="0.0000000000000000e+00" cType="1" res="2.3852918820921332e-04" rms="4.0189263224601746e-01" purity="5.0184887647628784e-01" nType="-99"/>
        </Node>
        <Node pos="r" depth="1" NCoef="0" IVar="-1" Cut="0.0000000000000000e+00" cType="1" res="-6.3363215886056423e-03" rms="3.7815245985984802e-01" purity="2.7122911810874939e-01" nType="-99"/>
      </Node>
    </BinaryTree>
    <BinaryTree type="DecisionTree" boostWeight="1.0000000000000000e+00" itree="374">
      <Node pos="s" depth="0" NCoef="0" IVar="20" Cut="2.4560720920562744e+00" cType="0" res="2.7911348734050989e-03" rms="4.0708738565444946e-01" purity="4.9801623821258545e-01" nType="0">
        <Node pos="l" depth="1" NCoef="0" IVar="20" Cut="1.3736462593078613e+01" cType="1" res="9.8334075883030891e-03" rms="4.0491977334022522e-01" purity="5.0609242916107178e-01" nType="0">
          <Node pos="l" depth="2" NCoef="0" IVar="-1" Cut="0.0000000000000000e+00" cType="1" res="3.5093200858682394e-03" rms="4.1796371340751648e-01" purity="6.1754351854324341e-01" nType="-99"/>
          <Node pos="r" depth="2" NCoef="0" IVar="-1" Cut="0.0000000000000000e+00" cType="1" res="-1.3461050111800432e-03" rms="3.9770004153251648e-01" purity="4.5601287484169006e-01" nType="-99"/>
        </Node>
        <Node pos="r" depth="1" NCoef="0" IVar="0" Cut="1.0056678056716919e+00" cType="0" res="-8.9549288153648376e-02" rms="4.2381885647773743e-01" purity="3.9211937785148621e-01" nType="0">
          <Node pos="l" depth="2" NCoef="0" IVar="-1" Cut="0.0000000000000000e+00" cType="1" res="-4.1532915201969445e-04" rms="3.8300007581710815e-01" purity="4.3968361616134644e-01" nType="-99"/>
          <Node pos="r" depth="2" NCoef="0" IVar="-1" Cut="0.0000000000000000e+00" cType="1" res="-8.7942313402891159e-03" rms="4.3738871812820435e-01" purity="3.0503228306770325e-01" nType="-99"/>
        </Node>
      </Node>
    </BinaryTree>
    <BinaryTree type="DecisionTree" boostWeight="1.0000000000000000e+00" itree="375">
      <Node pos="s" depth="0" NCoef="0" IVar="17" Cut="6.5467987060546875e+01" cType="1" res="3.2881877850741148e-03" rms="4.1360756754875183e-01" purity="5.0941520929336548e-01" nType="0">
        <Node pos="l" depth="1" NCoef="0" IVar="17" Cut="5.9196285247802734e+01" cType="1" res="1.1223073117434978e-02" rms="4.1152447462081909e-01" purity="5.1729488372802734e-01" nType="0">
          <Node pos="l" depth="2" NCoef="0" IVar="-1" Cut="0.0000000000000000e+00" cType="1" res="2.5884257047437131e-04" rms="4.1036027669906616e-01" purity="5.2406734228134155e-01" nType="-99"/>
          <Node pos="r" depth="2" NCoef="0" IVar="-1" Cut="0.0000000000000000e+00" cType="1" res="-7.3851654306054115e-03" rms="4.0433692932128906e-01" purity="3.1099069118499756e-01" nType="-99"/>
        </Node>
        <Node pos="r" depth="1" NCoef="0" IVar="6" Cut="1.0775952339172363e+00" cType="1" res="-9.5088593661785126e-02" rms="4.2652356624603271e-01" purity="4.1172346472740173e-01" nType="0">
          <Node pos="l" depth="2" NCoef="0" IVar="-1" Cut="0.0000000000000000e+00" cType="1" res="-7.1408757939934731e-03" rms="4.2194238305091858e-01" purity="4.1503533720970154e-01" nType="-99"/>
          <Node pos="r" depth="2" NCoef="0" IVar="-1" Cut="0.0000000000000000e+00" cType="1" res="-1.2050961377099156e-03" rms="4.1520771384239197e-01" purity="4.1037011146545410e-01" nType="-99"/>
        </Node>
      </Node>
    </BinaryTree>
    <BinaryTree type="DecisionTree" boostWeight="1.0000000000000000e+00" itree="376">
      <Node pos="s" depth="0" NCoef="0" IVar="0" Cut="8.8476192951202393e-01" cType="1" res="1.5091227833181620e-03" rms="4.0942198038101196e-01" purity="5.0194358825683594e-01" nType="0">
        <Node pos="l" depth="1" NCoef="0" IVar="18" Cut="4.2857141494750977e+00" cType="1" res="-5.3842891007661819e-02" rms="4.2534145712852478e-01" purity="5.5312383174896240e-01" nType="0">
          <Node pos="l" depth="2" NCoef="0" IVar="-1" Cut="0.0000000000000000e+00" cType="1" res="-2.5804978795349598e-03" rms="4.0382701158523560e-01" purity="7.5043785572052002e-01" nType="-99"/>
          <Node pos="r" depth="2" NCoef="0" IVar="-1" Cut="0.0000000000000000e+00" cType="1" res="-1.0756984120234847e-03" rms="4.3871119618415833e-01" purity="3.7205505371093750e-01" nType="-99"/>
        </Node>
        <Node pos="r" depth="1" NCoef="0" IVar="15" Cut="1.9000000000000000e+01" cType="1" res="1.7528757452964783e-02" rms="4.0328276157379150e-01" purity="4.8713126778602600e-01" nType="0">
          <Node pos="l" depth="2" NCoef="0" IVar="-1" Cut="0.0000000000000000e+00" cType="1" res="9.5373531803488731e-04" rms="4.2783641815185547e-01" purity="5.6968325376510620e-01" nType="-99"/>
          <Node pos="r" depth="2" NCoef="0" IVar="-1" Cut="0.0000000000000000e+00" cType="1" res="-4.2356718331575394e-03" rms="2.2292515635490417e-01" purity="5.5437035858631134e-02" nType="-99"/>
        </Node>
      </Node>
    </BinaryTree>
    <BinaryTree type="DecisionTree" boostWeight="1.0000000000000000e+00" itree="377">
      <Node pos="s" depth="0" NCoef="0" IVar="5" Cut="1.8691042661666870e+00" cType="1" res="1.8224878294859082e-04" rms="4.0940791368484497e-01" purity="5.0393778085708618e-01" nType="0">
        <Node pos="l" depth="1" NCoef="0" IVar="0" Cut="1.1627907752990723e+00" cType="0" res="1.9572537392377853e-02" rms="4.1358271241188049e-01" purity="6.6473054885864258e-01" nType="0">
          <Node pos="l" depth="2" NCoef="0" IVar="-1" Cut="0.0000000000000000e+00" cType="1" res="1.2056707637384534e-03" rms="3.9072650671005249e-01" purity="6.9899874925613403e-01" nType="-99"/>
          <Node pos="r" depth="2" NCoef="0" IVar="-1" Cut="0.0000000000000000e+00" cType="1" res="-5.8106624055653811e-04" rms="4.2700740694999695e-01" purity="6.3377612829208374e-01" nType="-99"/>
        </Node>
        <Node pos="r" depth="1" NCoef="0" IVar="5" Cut="2.1071043014526367e+00" cType="1" res="-2.7462538331747055e-02" rms="4.0176621079444885e-01" purity="2.7469512820243835e-01" nType="0">
          <Node pos="l" depth="2" NCoef="0" IVar="-1" Cut="0.0000000000000000e+00" cType="1" res="-1.3394602574408054e-03" rms="4.2888313531875610e-01" purity="3.2788926362991333e-01" nType="-99"/>
          <Node pos="r" depth="2" NCoef="0" IVar="-1" Cut="0.0000000000000000e+00" cType="1" res="-3.7530070403590798e-04" rms="3.8728347420692444e-01" purity="2.5190481543540955e-01" nType="-99"/>
        </Node>
      </Node>
    </BinaryTree>
    <BinaryTree type="DecisionTree" boostWeight="1.0000000000000000e+00" itree="378">
      <Node pos="s" depth="0" NCoef="0" IVar="15" Cut="1.1142857551574707e+01" cType="1" res="8.6402744054794312e-03" rms="4.0898016095161438e-01" purity="5.0929713249206543e-01" nType="0">
        <Node pos="l" depth="1" NCoef="0" IVar="12" Cut="1.4285714924335480e-01" cType="0" res="4.3549209833145142e-02" rms="3.7839442491531372e-01" purity="6.9427573680877686e-01" nType="0">
          <Node pos="l" depth="2" NCoef="0" IVar="-1" Cut="0.0000000000000000e+00" cType="1" res="2.9040235094726086e-03" rms="3.6668813228607178e-01" purity="7.3201799392700195e-01" nType="-99"/>
          <Node pos="r" depth="2" NCoef="0" IVar="-1" Cut="0.0000000000000000e+00" cType="1" res="-2.2105460520833731e-03" rms="3.8694450259208679e-01" purity="6.4255416393280029e-01" nType="-99"/>
        </Node>
        <Node pos="r" depth="1" NCoef="0" IVar="20" Cut="1.2854787826538086e+01" cType="1" res="-1.5504338778555393e-02" rms="4.2719486355781555e-01" purity="3.8135749101638794e-01" nType="0">
          <Node pos="l" depth="2" NCoef="0" IVar="-1" Cut="0.0000000000000000e+00" cType="1" res="1.8079606816172600e-03" rms="4.4910496473312378e-01" purity="5.1577168703079224e-01" nType="-99"/>
          <Node pos="r" depth="2" NCoef="0" IVar="-1" Cut="0.0000000000000000e+00" cType="1" res="-1.5008834889158607e-03" rms="4.1639181971549988e-01" purity="3.3565300703048706e-01" nType="-99"/>
        </Node>
      </Node>
    </BinaryTree>
    <BinaryTree type="DecisionTree" boostWeight="1.0000000000000000e+00" itree="379">
      <Node pos="s" depth="0" NCoef="0" IVar="20" Cut="3.5085273742675781e+01" cType="0" res="2.2942237555980682e-03" rms="4.1249063611030579e-01" purity="5.0072270631790161e-01" nType="0">
        <Node pos="l" depth="1" NCoef="0" IVar="18" Cut="2.3333332538604736e+00" cType="1" res="5.7727765291929245e-02" rms="4.0844690799713135e-01" purity="6.0969829559326172e-01" nType="0">
          <Node pos="l" depth="2" NCoef="0" IVar="-1" Cut="0.0000000000000000e+00" cType="1" res="-8.2712173461914062e-03" rms="4.3190914392471313e-01" purity="6.6519844532012939e-01" nType="-99"/>
          <Node pos="r" depth="2" NCoef="0" IVar="-1" Cut="0.0000000000000000e+00" cType="1" res="9.0740632731467485e-04" rms="3.9373487234115601e-01" purity="5.9631443023681641e-01" nType="-99"/>
        </Node>
        <Node pos="r" depth="1" NCoef="0" IVar="0" Cut="1.7816121578216553e+00" cType="1" res="-6.9628693163394928e-03" rms="4.1243672370910645e-01" purity="4.8252445459365845e-01" nType="0">
          <Node pos="l" depth="2" NCoef="0" IVar="-1" Cut="0.0000000000000000e+00" cType="1" res="-7.2920479578897357e-04" rms="4.1919291019439697e-01" purity="5.5378603935241699e-01" nType="-99"/>
          <Node pos="r" depth="2" NCoef="0" IVar="-1" Cut="0.0000000000000000e+00" cType="1" res="6.5591977909207344e-04" rms="3.9658963680267334e-01" purity="3.4717124700546265e-01" nType="-99"/>
        </Node>
      </Node>
    </BinaryTree>
    <BinaryTree type="DecisionTree" boostWeight="1.0000000000000000e+00" itree="380">
      <Node pos="s" depth="0" NCoef="0" IVar="10" Cut="3.4871287345886230e+00" cType="1" res="9.5885763585101813e-05" rms="4.1535013914108276e-01" purity="5.0674122571945190e-01" nType="0">
        <Node pos="l" depth="1" NCoef="0" IVar="21" Cut="2.3333332538604736e+00" cType="1" res="1.2181582860648632e-02" rms="4.1805851459503174e-01" purity="5.4628688097000122e-01" nType="0">
          <Node pos="l" depth="2" NCoef="0" IVar="-1" Cut="0.0000000000000000e+00" cType="1" res="-3.0394908390007913e-04" rms="4.2792245745658875e-01" purity="5.8401471376419067e-01" nType="-99"/>
          <Node pos="r" depth="2" NCoef="0" IVar="-1" Cut="0.0000000000000000e+00" cType="1" res="6.7729415604844689e-04" rms="4.0504494309425354e-01" purity="5.0812608003616333e-01" nType="-99"/>
        </Node>
        <Node pos="r" depth="1" NCoef="0" IVar="3" Cut="4.5714287757873535e+00" cType="0" res="-8.0058544874191284e-02" rms="3.8749489188194275e-01" purity="2.4446743726730347e-01" nType="0">
          <Node pos="l" depth="2" NCoef="0" IVar="-1" Cut="0.0000000000000000e+00" cType="1" res="2.2018232848495245e-03" rms="4.2725139856338501e-01" purity="4.9704241752624512e-01" nType="-99"/>
          <Node pos="r" depth="2" NCoef="0" IVar="-1" Cut="0.0000000000000000e+00" cType="1" res="-3.5733494441956282e-03" rms="3.7005323171615601e-01" purity="1.8357774615287781e-01" nType="-99"/>
        </Node>
      </Node>
    </BinaryTree>
    <BinaryTree type="DecisionTree" boostWeight="1.0000000000000000e+00" itree="381">
      <Node pos="s" depth="0" NCoef="0" IVar="15" Cut="4.1428570747375488e+00" cType="1" res="-3.6470810882747173e-03" rms="4.1512802243232727e-01" purity="4.9994120001792908e-01" nType="0">
        <Node pos="l" depth="1" NCoef="0" IVar="1" Cut="7.0000000000000000e+00" cType="1" res="-8.7548375129699707e-02" rms="4.4028723239898682e-01" purity="6.3910424709320068e-01" nType="0">
          <Node pos="l" depth="2" NCoef="0" IVar="-1" Cut="0.0000000000000000e+00" cType="1" res="-4.0187551639974117e-03" rms="4.4040012359619141e-01" purity="7.0675587654113770e-01" nType="-99"/>
          <Node pos="r" depth="2" NCoef="0" IVar="-1" Cut="0.0000000000000000e+00" cType="1" res="-6.2618493102490902e-03" rms="4.2590472102165222e-01" purity="3.2993468642234802e-01" nType="-99"/>
        </Node>
        <Node pos="r" depth="1" NCoef="0" IVar="15" Cut="7.0952382087707520e+00" cType="1" res="3.4405943006277084e-03" rms="4.1215083003044128e-01" purity="4.8818522691726685e-01" nType="0">
          <Node pos="l" depth="2" NCoef="0" IVar="-1" Cut="0.0000000000000000e+00" cType="1" res="6.0239546000957489e-03" rms="3.5634306073188782e-01" purity="8.2133752107620239e-01" nType="-99"/>
          <Node pos="r" depth="2" NCoef="0" IVar="-1" Cut="0.0000000000000000e+00" cType="1" res="-5.2174652228131890e-04" rms="4.1954329609870911e-01" purity="4.2941331863403320e-01" nType="-99"/>
        </Node>
      </Node>
    </BinaryTree>
    <BinaryTree type="DecisionTree" boostWeight="1.0000000000000000e+00" itree="382">
      <Node pos="s" depth="0" NCoef="0" IVar="21" Cut="1.3809523582458496e+00" cType="1" res="4.4045452959835529e-03" rms="4.1596764326095581e-01" purity="5.1413738727569580e-01" nType="0">
        <Node pos="l" depth="1" NCoef="0" IVar="20" Cut="4.1323600769042969e+01" cType="0" res="-2.6515150442719460e-02" rms="4.3007105588912964e-01" purity="5.3423362970352173e-01" nType="0">
          <Node pos="l" depth="2" NCoef="0" IVar="-1" Cut="0.0000000000000000e+00" cType="1" res="2.8079114854335785e-03" rms="3.3949047327041626e-01" purity="7.1532922983169556e-01" nType="-99"/>
          <Node pos="r" depth="2" NCoef="0" IVar="-1" Cut="0.0000000000000000e+00" cType="1" res="-9.0651935897767544e-04" rms="4.3450090289115906e-01" purity="5.2071589231491089e-01" nType="-99"/>
        </Node>
        <Node pos="r" depth="1" NCoef="0" IVar="4" Cut="1.7968528270721436e+00" cType="1" res="2.4703614413738251e-02" rms="4.0516155958175659e-01" purity="5.0094401836395264e-01" nType="0">
          <Node pos="l" depth="2" NCoef="0" IVar="-1" Cut="0.0000000000000000e+00" cType="1" res="3.9754505269229412e-03" rms="3.6319243907928467e-01" purity="7.9239141941070557e-01" nType="-99"/>
          <Node pos="r" depth="2" NCoef="0" IVar="-1" Cut="0.0000000000000000e+00" cType="1" res="-9.4026455190032721e-04" rms="4.2226874828338623e-01" purity="3.5512450337409973e-01" nType="-99"/>
        </Node>
      </Node>
    </BinaryTree>
    <BinaryTree type="DecisionTree" boostWeight="1.0000000000000000e+00" itree="383">
      <Node pos="s" depth="0" NCoef="0" IVar="6" Cut="1.7020350694656372e+00" cType="1" res="3.4906268119812012e-03" rms="4.2339506745338440e-01" purity="5.1513308286666870e-01" nType="0">
        <Node pos="l" depth="1" NCoef="0" IVar="15" Cut="9.8571424484252930e+00" cType="1" res="-3.1344525516033173e-02" rms="4.2640575766563416e-01" purity="6.2136596441268921e-01" nType="0">
          <Node pos="l" depth="2" NCoef="0" IVar="-1" Cut="0.0000000000000000e+00" cType="1" res="2.4815287906676531e-03" rms="3.7984585762023926e-01" purity="7.6948016881942749e-01" nType="-99"/>
          <Node pos="r" depth="2" NCoef="0" IVar="-1" Cut="0.0000000000000000e+00" cType="1" res="-2.5579349603503942e-03" rms="4.6719792485237122e-01" purity="4.6224501729011536e-01" nType="-99"/>
        </Node>
        <Node pos="r" depth="1" NCoef="0" IVar="18" Cut="6.3333334922790527e+00" cType="1" res="3.9539627730846405e-02" rms="4.1720551252365112e-01" purity="4.0519845485687256e-01" nType="0">
          <Node pos="l" depth="2" NCoef="0" IVar="-1" Cut="0.0000000000000000e+00" cType="1" res="1.3891933485865593e-03" rms="4.6512520313262939e-01" purity="5.4949480295181274e-01" nType="-99"/>
          <Node pos="r" depth="2" NCoef="0" IVar="-1" Cut="0.0000000000000000e+00" cType="1" res="-3.4564640372991562e-03" rms="2.6455318927764893e-01" purity="7.8783094882965088e-02" nType="-99"/>
        </Node>
      </Node>
    </BinaryTree>
    <BinaryTree type="DecisionTree" boostWeight="1.0000000000000000e+00" itree="384">
      <Node pos="s" depth="0" NCoef="0" IVar="20" Cut="3.7537380218505859e+01" cType="0" res="8.5569312795996666e-03" rms="4.0779218077659607e-01" purity="5.0788742303848267e-01" nType="0">
        <Node pos="l" depth="1" NCoef="0" IVar="20" Cut="5.5665699005126953e+01" cType="1" res="9.6749484539031982e-02" rms="3.8191255927085876e-01" purity="6.4236164093017578e-01" nType="0">
          <Node pos="l" depth="2" NCoef="0" IVar="-1" Cut="0.0000000000000000e+00" cType="1" res="3.6504096351563931e-03" rms="3.7492617964744568e-01" purity="7.8340035676956177e-01" nType="-99"/>
          <Node pos="r" depth="2" NCoef="0" IVar="-1" Cut="0.0000000000000000e+00" cType="1" res="-1.7543457215651870e-03" rms="3.7764695286750793e-01" purity="4.9078437685966492e-01" nType="-99"/>
        </Node>
        <Node pos="r" depth="1" NCoef="0" IVar="14" Cut="9.7284156799316406e+01" cType="1" res="-3.6786152049899101e-03" rms="4.0975731611251831e-01" purity="4.8923087120056152e-01" nType="0">
          <Node pos="l" depth="2" NCoef="0" IVar="-1" Cut="0.0000000000000000e+00" cType="1" res="-2.6102899573743343e-04" rms="4.0389660000801086e-01" purity="4.9045035243034363e-01" nType="-99"/>
          <Node pos="r" depth="2" NCoef="0" IVar="-1" Cut="0.0000000000000000e+00" cType="1" res="-6.8607466528192163e-04" rms="4.4797894358634949e-01" purity="4.7976016998291016e-01" nType="-99"/>
        </Node>
      </Node>
    </BinaryTree>
    <BinaryTree type="DecisionTree" boostWeight="1.0000000000000000e+00" itree="385">
      <Node pos="s" depth="0" NCoef="0" IVar="20" Cut="1.5661799430847168e+01" cType="1" res="-1.6672106459736824e-02" rms="4.0869137644767761e-01" purity="4.7938266396522522e-01" nType="0">
        <Node pos="l" depth="1" NCoef="0" IVar="6" Cut="2.1344232559204102e+00" cType="1" res="1.3688927516341209e-02" rms="4.1092807054519653e-01" purity="5.3596591949462891e-01" nType="0">
          <Node pos="l" depth="2" NCoef="0" IVar="-1" Cut="0.0000000000000000e+00" cType="1" res="5.7373160962015390e-04" rms="4.0877753496170044e-01" purity="6.6616398096084595e-01" nType="-99"/>
          <Node pos="r" depth="2" NCoef="0" IVar="-1" Cut="0.0000000000000000e+00" cType="1" res="6.5577443456277251e-04" rms="4.0760475397109985e-01" purity="2.7225422859191895e-01" nType="-99"/>
        </Node>
        <Node pos="r" depth="1" NCoef="0" IVar="17" Cut="5.3525936126708984e+01" cType="1" res="-3.9781760424375534e-02" rms="4.0545967221260071e-01" purity="4.3631365895271301e-01" nType="0">
          <Node pos="l" depth="2" NCoef="0" IVar="-1" Cut="0.0000000000000000e+00" cType="1" res="1.6790213703643531e-04" rms="4.0158495306968689e-01" purity="4.5516273379325867e-01" nType="-99"/>
          <Node pos="r" depth="2" NCoef="0" IVar="-1" Cut="0.0000000000000000e+00" cType="1" res="-4.6750926412642002e-03" rms="4.1212001442909241e-01" purity="3.4710830450057983e-01" nType="-99"/>
        </Node>
      </Node>
    </BinaryTree>
    <BinaryTree type="DecisionTree" boostWeight="1.0000000000000000e+00" itree="386">
      <Node pos="s" depth="0" NCoef="0" IVar="0" Cut="1.3277347087860107e+00" cType="1" res="5.7819108478724957e-03" rms="4.1277310252189636e-01" purity="5.0329202413558960e-01" nType="0">
        <Node pos="l" depth="1" NCoef="0" IVar="15" Cut="9.8571424484252930e+00" cType="1" res="-3.2037034630775452e-02" rms="4.3056449294090271e-01" purity="5.7831257581710815e-01" nType="0">
          <Node pos="l" depth="2" NCoef="0" IVar="-1" Cut="0.0000000000000000e+00" cType="1" res="1.2054635444656014e-03" rms="3.7612396478652954e-01" purity="7.5897026062011719e-01" nType="-99"/>
          <Node pos="r" depth="2" NCoef="0" IVar="-1" Cut="0.0000000000000000e+00" cType="1" res="-2.3435193579643965e-03" rms="4.6703773736953735e-01" purity="4.1683849692344666e-01" nType="-99"/>
        </Node>
        <Node pos="r" depth="1" NCoef="0" IVar="15" Cut="1.9000000000000000e+01" cType="1" res="3.4393198788166046e-02" rms="3.9639607071876526e-01" purity="4.4653645157814026e-01" nType="0">
          <Node pos="l" depth="2" NCoef="0" IVar="-1" Cut="0.0000000000000000e+00" cType="1" res="1.4363265363499522e-03" rms="4.2849245667457581e-01" purity="5.5263251066207886e-01" nType="-99"/>
          <Node pos="r" depth="2" NCoef="0" IVar="-1" Cut="0.0000000000000000e+00" cType="1" res="-4.6462267637252808e-03" rms="2.2695294022560120e-01" purity="5.6682147085666656e-02" nType="-99"/>
        </Node>
      </Node>
    </BinaryTree>
    <BinaryTree type="DecisionTree" boostWeight="1.0000000000000000e+00" itree="387">
      <Node pos="s" depth="0" NCoef="0" IVar="4" Cut="2.2279336452484131e+00" cType="1" res="-7.1563911624252796e-03" rms="4.1995105147361755e-01" purity="5.0169879198074341e-01" nType="0">
        <Node pos="l" depth="1" NCoef="0" IVar="3" Cut="3.9047617912292480e+00" cType="1" res="-2.4541178718209267e-02" rms="4.3624976277351379e-01" purity="6.0627871751785278e-01" nType="0">
          <Node pos="l" depth="2" NCoef="0" IVar="-1" Cut="0.0000000000000000e+00" cType="1" res="9.0377527521923184e-04" rms="4.3129640817642212e-01" purity="6.2878936529159546e-01" nType="-99"/>
          <Node pos="r" depth="2" NCoef="0" IVar="-1" Cut="0.0000000000000000e+00" cType="1" res="-3.2209695782512426e-03" rms="4.4612675905227661e-01" purity="5.4976153373718262e-01" nType="-99"/>
        </Node>
        <Node pos="r" depth="1" NCoef="0" IVar="18" Cut="6.1904764175415039e+00" cType="1" res="2.7941551059484482e-02" rms="3.8254842162132263e-01" purity="2.9056373238563538e-01" nType="0">
          <Node pos="l" depth="2" NCoef="0" IVar="-1" Cut="0.0000000000000000e+00" cType="1" res="1.7746576340869069e-03" rms="4.4340950250625610e-01" purity="4.3463134765625000e-01" nType="-99"/>
          <Node pos="r" depth="2" NCoef="0" IVar="-1" Cut="0.0000000000000000e+00" cType="1" res="-3.4264237619936466e-03" rms="2.4488680064678192e-01" purity="6.6085472702980042e-02" nType="-99"/>
        </Node>
      </Node>
    </BinaryTree>
    <BinaryTree type="DecisionTree" boostWeight="1.0000000000000000e+00" itree="388">
      <Node pos="s" depth="0" NCoef="0" IVar="21" Cut="4.2380952835083008e+00" cType="1" res="-3.6366228014230728e-03" rms="4.1069182753562927e-01" purity="5.0266420841217041e-01" nType="0">
        <Node pos="l" depth="1" NCoef="0" IVar="20" Cut="3.7537380218505859e+01" cType="0" res="-2.5973601266741753e-02" rms="4.1369754076004028e-01" purity="5.6352585554122925e-01" nType="0">
          <Node pos="l" depth="2" NCoef="0" IVar="-1" Cut="0.0000000000000000e+00" cType="1" res="1.3496248284354806e-03" rms="3.7643644213676453e-01" purity="7.5943464040756226e-01" nType="-99"/>
          <Node pos="r" depth="2" NCoef="0" IVar="-1" Cut="0.0000000000000000e+00" cType="1" res="-1.1773337610065937e-03" rms="4.1629275679588318e-01" purity="5.4045641422271729e-01" nType="-99"/>
        </Node>
        <Node pos="r" depth="1" NCoef="0" IVar="5" Cut="1.8741276264190674e+00" cType="1" res="3.0258974060416222e-02" rms="4.0373459458351135e-01" purity="4.1030865907669067e-01" nType="0">
          <Node pos="l" depth="2" NCoef="0" IVar="-1" Cut="0.0000000000000000e+00" cType="1" res="1.8487365450710058e-03" rms="4.1170725226402283e-01" purity="6.2085586786270142e-01" nType="-99"/>
          <Node pos="r" depth="2" NCoef="0" IVar="-1" Cut="0.0000000000000000e+00" cType="1" res="1.7761252820491791e-04" rms="3.9043551683425903e-01" purity="2.6316469907760620e-01" nType="-99"/>
        </Node>
      </Node>
    </BinaryTree>
    <BinaryTree type="DecisionTree" boostWeight="1.0000000000000000e+00" itree="389">
      <Node pos="s" depth="0" NCoef="0" IVar="6" Cut="1.3199239969253540e+00" cType="1" res="-2.2950448095798492e-02" rms="4.1330704092979431e-01" purity="4.7619372606277466e-01" nType="0">
        <Node pos="l" depth="1" NCoef="0" IVar="8" Cut="2.3476190567016602e+00" cType="1" res="1.5978056937456131e-02" rms="3.8987359404563904e-01" purity="6.8137335777282715e-01" nType="0">
          <Node pos="l" depth="2" NCoef="0" IVar="-1" Cut="0.0000000000000000e+00" cType="1" res="3.9972408558242023e-05" rms="3.7070444226264954e-01" purity="7.5621891021728516e-01" nType="-99"/>
          <Node pos="r" depth="2" NCoef="0" IVar="-1" Cut="0.0000000000000000e+00" cType="1" res="-3.1490426044911146e-03" rms="4.3324142694473267e-01" purity="4.2828875780105591e-01" nType="-99"/>
        </Node>
        <Node pos="r" depth="1" NCoef="0" IVar="0" Cut="8.9080613851547241e-01" cType="1" res="-3.7327527999877930e-02" rms="4.2072248458862305e-01" purity="4.0041676163673401e-01" nType="0">
          <Node pos="l" depth="2" NCoef="0" IVar="-1" Cut="0.0000000000000000e+00" cType="1" res="-1.0407293448224664e-03" rms="4.3144804239273071e-01" purity="4.0255683660507202e-01" nType="-99"/>
          <Node pos="r" depth="2" NCoef="0" IVar="-1" Cut="0.0000000000000000e+00" cType="1" res="1.8861120042856783e-04" rms="4.1800451278686523e-01" purity="4.0011432766914368e-01" nType="-99"/>
        </Node>
      </Node>
    </BinaryTree>
    <BinaryTree type="DecisionTree" boostWeight="1.0000000000000000e+00" itree="390">
      <Node pos="s" depth="0" NCoef="0" IVar="9" Cut="-5.7142858505249023e+00" cType="1" res="3.5049214493483305e-03" rms="4.1668522357940674e-01" purity="5.1257538795471191e-01" nType="0">
        <Node pos="l" depth="1" NCoef="0" IVar="0" Cut="4.7320637106895447e-01" cType="0" res="-8.9082390069961548e-02" rms="4.4735467433929443e-01" purity="5.7876664400100708e-01" nType="0">
          <Node pos="l" depth="2" NCoef="0" IVar="-1" Cut="0.0000000000000000e+00" cType="1" res="-1.1426992714405060e-03" rms="4.1749435663223267e-01" purity="6.1484926939010620e-01" nType="-99"/>
          <Node pos="r" depth="2" NCoef="0" IVar="-1" Cut="0.0000000000000000e+00" cType="1" res="-7.7773230150341988e-03" rms="4.9051180481910706e-01" purity="4.7661429643630981e-01" nType="-99"/>
        </Node>
        <Node pos="r" depth="1" NCoef="0" IVar="4" Cut="2.6658163070678711e+00" cType="1" res="1.1259514838457108e-02" rms="4.1307264566421509e-01" purity="5.0703155994415283e-01" nType="0">
          <Node pos="l" depth="2" NCoef="0" IVar="-1" Cut="0.0000000000000000e+00" cType="1" res="3.1790367211215198e-04" rms="4.2709696292877197e-01" purity="5.9139627218246460e-01" nType="-99"/>
          <Node pos="r" depth="2" NCoef="0" IVar="-1" Cut="0.0000000000000000e+00" cType="1" res="-1.0778949363157153e-03" rms="3.4783715009689331e-01" purity="1.7833510041236877e-01" nType="-99"/>
        </Node>
      </Node>
    </BinaryTree>
    <BinaryTree type="DecisionTree" boostWeight="1.0000000000000000e+00" itree="391">
      <Node pos="s" depth="0" NCoef="0" IVar="9" Cut="-1.1428571701049805e+01" cType="1" res="-1.3143861666321754e-02" rms="4.1210219264030457e-01" purity="4.8808476328849792e-01" nType="0">
        <Node pos="l" depth="1" NCoef="0" IVar="-1" Cut="0.0000000000000000e+00" cType="1" res="6.8290540948510170e-03" rms="2.6653727889060974e-01" purity="9.6095418930053711e-01" nType="-99"/>
        <Node pos="r" depth="1" NCoef="0" IVar="3" Cut="3.1428570747375488e+00" cType="1" res="-1.7691258341073990e-02" rms="4.1350260376930237e-01" purity="4.7786933183670044e-01" nType="0">
          <Node pos="l" depth="2" NCoef="0" IVar="-1" Cut="0.0000000000000000e+00" cType="1" res="3.7647385033778846e-04" rms="4.0254682302474976e-01" purity="4.8399943113327026e-01" nType="-99"/>
          <Node pos="r" depth="2" NCoef="0" IVar="-1" Cut="0.0000000000000000e+00" cType="1" res="-1.7588693881407380e-03" rms="4.4002702832221985e-01" purity="4.6081316471099854e-01" nType="-99"/>
        </Node>
      </Node>
    </BinaryTree>
    <BinaryTree type="DecisionTree" boostWeight="1.0000000000000000e+00" itree="392">
      <Node pos="s" depth="0" NCoef="0" IVar="6" Cut="6.6764771938323975e-01" cType="1" res="5.4485318250954151e-03" rms="4.1210764646530151e-01" purity="5.0557065010070801e-01" nType="0">
        <Node pos="l" depth="1" NCoef="0" IVar="-1" Cut="0.0000000000000000e+00" cType="1" res="-1.9746804609894753e-03" rms="3.0193996429443359e-01" purity="8.3498281240463257e-01" nType="-99"/>
        <Node pos="r" depth="1" NCoef="0" IVar="8" Cut="2.4261906147003174e+00" cType="1" res="2.0108108874410391e-03" rms="4.1345882415771484e-01" purity="4.9853342771530151e-01" nType="0">
          <Node pos="l" depth="2" NCoef="0" IVar="-1" Cut="0.0000000000000000e+00" cType="1" res="-1.2098219485778827e-05" rms="4.1087061166763306e-01" purity="5.0833070278167725e-01" nType="-99"/>
          <Node pos="r" depth="2" NCoef="0" IVar="-1" Cut="0.0000000000000000e+00" cType="1" res="-1.0586001444607973e-03" rms="4.3342795968055725e-01" purity="3.9418384432792664e-01" nType="-99"/>
        </Node>
      </Node>
    </BinaryTree>
    <BinaryTree type="DecisionTree" boostWeight="1.0000000000000000e+00" itree="393">
      <Node pos="s" depth="0" NCoef="0" IVar="5" Cut="2.6175322532653809e+00" cType="1" res="5.9211659245193005e-03" rms="4.0765514969825745e-01" purity="5.0647705793380737e-01" nType="0">
        <Node pos="l" depth="1" NCoef="0" IVar="0" Cut="8.9398539066314697e-01" cType="1" res="1.5515360049903393e-02" rms="4.1875460743904114e-01" purity="5.6981164216995239e-01" nType="0">
          <Node pos="l" depth="2" NCoef="0" IVar="-1" Cut="0.0000000000000000e+00" cType="1" res="-1.5572969568893313e-03" rms="4.2072713375091553e-01" purity="5.9123069047927856e-01" nType="-99"/>
          <Node pos="r" depth="2" NCoef="0" IVar="-1" Cut="0.0000000000000000e+00" cType="1" res="6.9623114541172981e-04" rms="4.1696411371231079e-01" purity="5.6159698963165283e-01" nType="-99"/>
        </Node>
        <Node pos="r" depth="1" NCoef="0" IVar="10" Cut="2.5846483707427979e+00" cType="1" res="-4.7833967953920364e-02" rms="3.3374202251434326e-01" purity="1.5162119269371033e-01" nType="0">
          <Node pos="l" depth="2" NCoef="0" IVar="-1" Cut="0.0000000000000000e+00" cType="1" res="1.6654436476528645e-03" rms="4.0039122104644775e-01" purity="2.8300550580024719e-01" nType="-99"/>
          <Node pos="r" depth="2" NCoef="0" IVar="-1" Cut="0.0000000000000000e+00" cType="1" res="-2.7783859986811876e-03" rms="3.0897235870361328e-01" purity="1.1800429224967957e-01" nType="-99"/>
        </Node>
      </Node>
    </BinaryTree>
    <BinaryTree type="DecisionTree" boostWeight="1.0000000000000000e+00" itree="394">
      <Node pos="s" depth="0" NCoef="0" IVar="9" Cut="-1.2857142448425293e+01" cType="1" res="5.0872587598860264e-03" rms="4.1333439946174622e-01" purity="5.0698995590209961e-01" nType="0">
        <Node pos="l" depth="1" NCoef="0" IVar="-1" Cut="0.0000000000000000e+00" cType="1" res="6.1504757031798363e-03" rms="1.6061875224113464e-01" purity="1.0000000000000000e+00" nType="-99"/>
        <Node pos="r" depth="1" NCoef="0" IVar="18" Cut="1.2857142686843872e+00" cType="1" res="1.2588342651724815e-03" rms="4.1513723134994507e-01" purity="4.9884715676307678e-01" nType="0">
          <Node pos="l" depth="2" NCoef="0" IVar="-1" Cut="0.0000000000000000e+00" cType="1" res="-4.1196602396667004e-03" rms="4.4735825061798096e-01" purity="6.0815697908401489e-01" nType="-99"/>
          <Node pos="r" depth="2" NCoef="0" IVar="-1" Cut="0.0000000000000000e+00" cType="1" res="-5.5552423873450607e-05" rms="4.1245380043983459e-01" purity="4.9260249733924866e-01" nType="-99"/>
        </Node>
      </Node>
    </BinaryTree>
    <BinaryTree type="DecisionTree" boostWeight="1.0000000000000000e+00" itree="395">
      <Node pos="s" depth="0" NCoef="0" IVar="18" Cut="1.2857142686843872e+00" cType="1" res="3.0126732308417559e-03" rms="4.0822967886924744e-01" purity="4.9322104454040527e-01" nType="0">
        <Node pos="l" depth="1" NCoef="0" IVar="11" Cut="8.7412136793136597e-01" cType="1" res="-8.2116916775703430e-02" rms="4.0816521644592285e-01" purity="5.6475478410720825e-01" nType="0">
          <Node pos="l" depth="2" NCoef="0" IVar="-1" Cut="0.0000000000000000e+00" cType="1" res="-1.9489387050271034e-03" rms="3.7604293227195740e-01" purity="6.9034355878829956e-01" nType="-99"/>
          <Node pos="r" depth="2" NCoef="0" IVar="-1" Cut="0.0000000000000000e+00" cType="1" res="-8.1980749964714050e-03" rms="4.3350690603256226e-01" purity="3.5083618760108948e-01" nType="-99"/>
        </Node>
        <Node pos="r" depth="1" NCoef="0" IVar="20" Cut="1.3548611640930176e+01" cType="1" res="7.9924669116735458e-03" rms="4.0768349170684814e-01" purity="4.8903658986091614e-01" nType="0">
          <Node pos="l" depth="2" NCoef="0" IVar="-1" Cut="0.0000000000000000e+00" cType="1" res="2.7753743343055248e-03" rms="4.0439406037330627e-01" purity="5.8820456266403198e-01" nType="-99"/>
          <Node pos="r" depth="2" NCoef="0" IVar="-1" Cut="0.0000000000000000e+00" cType="1" res="-1.2769745662808418e-03" rms="4.0745612978935242e-01" purity="4.3961811065673828e-01" nType="-99"/>
        </Node>
      </Node>
    </BinaryTree>
    <BinaryTree type="DecisionTree" boostWeight="1.0000000000000000e+00" itree="396">
      <Node pos="s" depth="0" NCoef="0" IVar="0" Cut="4.4540303945541382e-01" cType="0" res="-2.7785969432443380e-03" rms="4.0859708189964294e-01" purity="4.9663805961608887e-01" nType="0">
        <Node pos="l" depth="1" NCoef="0" IVar="9" Cut="-1.0000000000000000e+01" cType="1" res="6.8741845898330212e-03" rms="4.0196943283081055e-01" purity="4.9904477596282959e-01" nType="0">
          <Node pos="l" depth="2" NCoef="0" IVar="-1" Cut="0.0000000000000000e+00" cType="1" res="1.6579346731305122e-02" rms="2.1809029579162598e-01" purity="9.5815992355346680e-01" nType="-99"/>
          <Node pos="r" depth="2" NCoef="0" IVar="-1" Cut="0.0000000000000000e+00" cType="1" res="-1.4517788076773286e-04" rms="4.0421119332313538e-01" purity="4.8882779479026794e-01" nType="-99"/>
        </Node>
        <Node pos="r" depth="1" NCoef="0" IVar="7" Cut="-3.9000003337860107e+00" cType="0" res="-1.2871894240379333e-01" rms="4.6900492906570435e-01" purity="4.6523728966712952e-01" nType="0">
          <Node pos="l" depth="2" NCoef="0" IVar="-1" Cut="0.0000000000000000e+00" cType="1" res="-1.8486775225028396e-03" rms="4.4056996703147888e-01" purity="4.7720524668693542e-01" nType="-99"/>
          <Node pos="r" depth="2" NCoef="0" IVar="-1" Cut="0.0000000000000000e+00" cType="1" res="-1.0855653323233128e-02" rms="4.9019771814346313e-01" purity="4.2931017279624939e-01" nType="-99"/>
        </Node>
      </Node>
    </BinaryTree>
    <BinaryTree type="DecisionTree" boostWeight="1.0000000000000000e+00" itree="397">
      <Node pos="s" depth="0" NCoef="0" IVar="21" Cut="4.2380952835083008e+00" cType="1" res="2.8765894239768386e-04" rms="4.1454425454139709e-01" purity="5.0420737266540527e-01" nType="0">
        <Node pos="l" depth="1" NCoef="0" IVar="15" Cut="1.2000000000000000e+01" cType="1" res="-1.7730498686432838e-02" rms="4.1392043232917786e-01" purity="5.6593930721282959e-01" nType="0">
          <Node pos="l" depth="2" NCoef="0" IVar="-1" Cut="0.0000000000000000e+00" cType="1" res="-5.8102968614548445e-04" rms="4.0256670117378235e-01" purity="6.1894589662551880e-01" nType="-99"/>
          <Node pos="r" depth="2" NCoef="0" IVar="-1" Cut="0.0000000000000000e+00" cType="1" res="-1.7318588215857744e-03" rms="4.5941478013992310e-01" purity="3.2798978686332703e-01" nType="-99"/>
        </Node>
        <Node pos="r" depth="1" NCoef="0" IVar="4" Cut="1.7371242046356201e+00" cType="1" res="2.8009649366140366e-02" rms="4.1397354006767273e-01" purity="4.0922918915748596e-01" nType="0">
          <Node pos="l" depth="2" NCoef="0" IVar="-1" Cut="0.0000000000000000e+00" cType="1" res="1.9540470093488693e-03" rms="3.8110592961311340e-01" purity="7.8920322656631470e-01" nType="-99"/>
          <Node pos="r" depth="2" NCoef="0" IVar="-1" Cut="0.0000000000000000e+00" cType="1" res="6.2990759033709764e-04" rms="4.1421905159950256e-01" purity="3.4095513820648193e-01" nType="-99"/>
        </Node>
      </Node>
    </BinaryTree>
    <BinaryTree type="DecisionTree" boostWeight="1.0000000000000000e+00" itree="398">
      <Node pos="s" depth="0" NCoef="0" IVar="10" Cut="2.3571369647979736e+00" cType="1" res="5.2308989688754082e-03" rms="4.1229736804962158e-01" purity="5.0755852460861206e-01" nType="0">
        <Node pos="l" depth="1" NCoef="0" IVar="6" Cut="1.6711375713348389e+00" cType="1" res="2.5403553619980812e-02" rms="4.0913373231887817e-01" purity="6.1904281377792358e-01" nType="0">
          <Node pos="l" depth="2" NCoef="0" IVar="-1" Cut="0.0000000000000000e+00" cType="1" res="-5.6060747010633349e-04" rms="3.9968863129615784e-01" purity="6.6835886240005493e-01" nType="-99"/>
          <Node pos="r" depth="2" NCoef="0" IVar="-1" Cut="0.0000000000000000e+00" cType="1" res="2.6146885938942432e-03" rms="4.1693165898323059e-01" purity="5.3896278142929077e-01" nType="-99"/>
        </Node>
        <Node pos="r" depth="1" NCoef="0" IVar="20" Cut="4.9241477966308594e+01" cType="1" res="-2.3458506911993027e-02" rms="4.1507011651992798e-01" purity="3.4900647401809692e-01" nType="0">
          <Node pos="l" depth="2" NCoef="0" IVar="-1" Cut="0.0000000000000000e+00" cType="1" res="-9.4538490520790219e-04" rms="4.1563460230827332e-01" purity="3.6636778712272644e-01" nType="-99"/>
          <Node pos="r" depth="2" NCoef="0" IVar="-1" Cut="0.0000000000000000e+00" cType="1" res="-5.3917141631245613e-03" rms="3.7742495536804199e-01" purity="1.9591438770294189e-01" nType="-99"/>
        </Node>
      </Node>
    </BinaryTree>
    <BinaryTree type="DecisionTree" boostWeight="1.0000000000000000e+00" itree="399">
      <Node pos="s" depth="0" NCoef="0" IVar="6" Cut="1.7260760068893433e+00" cType="1" res="-1.0828587226569653e-02" rms="4.1658347845077515e-01" purity="4.9304467439651489e-01" nType="0">
        <Node pos="l" depth="1" NCoef="0" IVar="18" Cut="3.4285714626312256e+00" cType="1" res="-3.2834183424711227e-02" rms="4.1610196232795715e-01" purity="6.0348272323608398e-01" nType="0">
          <Node pos="l" depth="2" NCoef="0" IVar="-1" Cut="0.0000000000000000e+00" cType="1" res="5.2807005122303963e-03" rms="3.2233536243438721e-01" purity="8.4615749120712280e-01" nType="-99"/>
          <Node pos="r" depth="2" NCoef="0" IVar="-1" Cut="0.0000000000000000e+00" cType="1" res="-2.0350057166069746e-03" rms="4.5571377873420715e-01" purity="4.6298918128013611e-01" nType="-99"/>
        </Node>
        <Node pos="r" depth="1" NCoef="0" IVar="15" Cut="1.8428571701049805e+01" cType="1" res="1.2009051628410816e-02" rms="4.1585305333137512e-01" purity="3.7843087315559387e-01" nType="0">
          <Node pos="l" depth="2" NCoef="0" IVar="-1" Cut="0.0000000000000000e+00" cType="1" res="1.2150887632742524e-03" rms="4.5657902956008911e-01" purity="4.7566708922386169e-01" nType="-99"/>
          <Node pos="r" depth="2" NCoef="0" IVar="-1" Cut="0.0000000000000000e+00" cType="1" res="-4.5563871972262859e-03" rms="2.2520583868026733e-01" purity="5.5809929966926575e-02" nType="-99"/>
        </Node>
      </Node>
    </BinaryTree>
    <BinaryTree type="DecisionTree" boostWeight="1.0000000000000000e+00" itree="400">
      <Node pos="s" depth="0" NCoef="0" IVar="5" Cut="8.8004612922668457e-01" cType="1" res="-1.5051865950226784e-02" rms="4.1124394536018372e-01" purity="4.8467615246772766e-01" nType="0">
        <Node pos="l" depth="1" NCoef="0" IVar="21" Cut="1.2857142686843872e+00" cType="0" res="7.4209876358509064e-02" rms="3.3625280857086182e-01" purity="8.4152412414550781e-01" nType="0">
          <Node pos="l" depth="2" NCoef="0" IVar="-1" Cut="0.0000000000000000e+00" cType="1" res="7.3166065849363804e-03" rms="2.9714122414588928e-01" purity="9.0521156787872314e-01" nType="-99"/>
          <Node pos="r" depth="2" NCoef="0" IVar="-1" Cut="0.0000000000000000e+00" cType="1" res="5.7365937391296029e-04" rms="3.5140934586524963e-01" purity="8.0022311210632324e-01" nType="-99"/>
        </Node>
        <Node pos="r" depth="1" NCoef="0" IVar="21" Cut="4.2380952835083008e+00" cType="1" res="-2.3836247622966766e-02" rms="4.1686546802520752e-01" purity="4.4955825805664062e-01" nType="0">
          <Node pos="l" depth="2" NCoef="0" IVar="-1" Cut="0.0000000000000000e+00" cType="1" res="-1.2946922797709703e-03" rms="4.2370644211769104e-01" purity="4.9359762668609619e-01" nType="-99"/>
          <Node pos="r" depth="2" NCoef="0" IVar="-1" Cut="0.0000000000000000e+00" cType="1" res="8.5765332914888859e-04" rms="4.0376272797584534e-01" purity="3.8603109121322632e-01" nType="-99"/>
        </Node>
      </Node>
    </BinaryTree>
    <BinaryTree type="DecisionTree" boostWeight="1.0000000000000000e+00" itree="401">
      <Node pos="s" depth="0" NCoef="0" IVar="7" Cut="-7.6285715103149414e+00" cType="1" res="-1.2524475343525410e-02" rms="4.1441670060157776e-01" purity="4.9052011966705322e-01" nType="0">
        <Node pos="l" depth="1" NCoef="0" IVar="14" Cut="9.2829017639160156e+01" cType="1" res="-1.4904069900512695e-01" rms="4.4790214300155640e-01" purity="5.6780976057052612e-01" nType="0">
          <Node pos="l" depth="2" NCoef="0" IVar="-1" Cut="0.0000000000000000e+00" cType="1" res="-2.0973174832761288e-03" rms="3.6285629868507385e-01" purity="6.1296063661575317e-01" nType="-99"/>
          <Node pos="r" depth="2" NCoef="0" IVar="-1" Cut="0.0000000000000000e+00" cType="1" res="-9.9569279700517654e-03" rms="5.2244085073471069e-01" purity="5.0478810071945190e-01" nType="-99"/>
        </Node>
        <Node pos="r" depth="1" NCoef="0" IVar="21" Cut="3.1904761791229248e+00" cType="1" res="-6.2068984843790531e-03" rms="4.1170692443847656e-01" purity="4.8694336414337158e-01" nType="0">
          <Node pos="l" depth="2" NCoef="0" IVar="-1" Cut="0.0000000000000000e+00" cType="1" res="6.5015192376449704e-05" rms="3.9576542377471924e-01" purity="5.9052634239196777e-01" nType="-99"/>
          <Node pos="r" depth="2" NCoef="0" IVar="-1" Cut="0.0000000000000000e+00" cType="1" res="-1.0072800796478987e-04" rms="4.2583045363426208e-01" purity="3.7648880481719971e-01" nType="-99"/>
        </Node>
      </Node>
    </BinaryTree>
    <BinaryTree type="DecisionTree" boostWeight="1.0000000000000000e+00" itree="402">
      <Node pos="s" depth="0" NCoef="0" IVar="9" Cut="-1.0000000000000000e+01" cType="1" res="-6.3042510300874710e-03" rms="4.2126846313476562e-01" purity="5.0270086526870728e-01" nType="0">
        <Node pos="l" depth="1" NCoef="0" IVar="-1" Cut="0.0000000000000000e+00" cType="1" res="4.3942006304860115e-03" rms="2.9786658287048340e-01" purity="8.8687014579772949e-01" nType="1"/>
        <Node pos="r" depth="1" NCoef="0" IVar="9" Cut="-4.7380951046943665e-01" cType="1" res="-1.0327145457267761e-02" rms="4.2389884591102600e-01" purity="4.9075397849082947e-01" nType="0">
          <Node pos="l" depth="2" NCoef="0" IVar="-1" Cut="0.0000000000000000e+00" cType="1" res="-1.2664604000747204e-03" rms="4.3533974885940552e-01" purity="4.9680513143539429e-01" nType="-99"/>
          <Node pos="r" depth="2" NCoef="0" IVar="-1" Cut="0.0000000000000000e+00" cType="1" res="4.4788626837544143e-04" rms="4.1433879733085632e-01" purity="4.8688879609107971e-01" nType="-99"/>
        </Node>
      </Node>
    </BinaryTree>
    <BinaryTree type="DecisionTree" boostWeight="1.0000000000000000e+00" itree="403">
      <Node pos="s" depth="0" NCoef="0" IVar="20" Cut="2.4560720920562744e+00" cType="0" res="-1.7459705471992493e-02" rms="4.1191011667251587e-01" purity="4.7997185587882996e-01" nType="0">
        <Node pos="l" depth="1" NCoef="0" IVar="20" Cut="1.3733103752136230e+01" cType="1" res="-1.0093105956912041e-02" rms="4.1031041741371155e-01" purity="4.8924127221107483e-01" nType="0">
          <Node pos="l" depth="2" NCoef="0" IVar="-1" Cut="0.0000000000000000e+00" cType="1" res="3.2610970083624125e-03" rms="4.2133077979087830e-01" purity="6.0753899812698364e-01" nType="-99"/>
          <Node pos="r" depth="2" NCoef="0" IVar="-1" Cut="0.0000000000000000e+00" cType="1" res="-1.2183592189103365e-03" rms="4.0347814559936523e-01" purity="4.3735599517822266e-01" nType="-99"/>
        </Node>
        <Node pos="r" depth="1" NCoef="0" IVar="0" Cut="9.1643267869949341e-01" cType="0" res="-1.0569994151592255e-01" rms="4.2070016264915466e-01" purity="3.6893904209136963e-01" nType="0">
          <Node pos="l" depth="2" NCoef="0" IVar="-1" Cut="0.0000000000000000e+00" cType="1" res="2.4152304104063660e-04" rms="3.9595663547515869e-01" purity="3.9773899316787720e-01" nType="-99"/>
          <Node pos="r" depth="2" NCoef="0" IVar="-1" Cut="0.0000000000000000e+00" cType="1" res="-1.0598083958029747e-02" rms="4.3779954314231873e-01" purity="2.9829627275466919e-01" nType="-99"/>
        </Node>
      </Node>
    </BinaryTree>
    <BinaryTree type="DecisionTree" boostWeight="1.0000000000000000e+00" itree="404">
      <Node pos="s" depth="0" NCoef="0" IVar="15" Cut="1.1285714149475098e+01" cType="1" res="1.7365218373015523e-03" rms="4.0299803018569946e-01" purity="4.9238923192024231e-01" nType="0">
        <Node pos="l" depth="1" NCoef="0" IVar="20" Cut="8.0601215362548828e+00" cType="0" res="4.3243862688541412e-02" rms="3.7028107047080994e-01" purity="6.7815214395523071e-01" nType="0">
          <Node pos="l" depth="2" NCoef="0" IVar="-1" Cut="0.0000000000000000e+00" cType="1" res="1.2252125889062881e-03" rms="3.4078544378280640e-01" purity="7.2611308097839355e-01" nType="-99"/>
          <Node pos="r" depth="2" NCoef="0" IVar="-1" Cut="0.0000000000000000e+00" cType="1" res="-4.4528988655656576e-04" rms="4.1896256804466248e-01" purity="5.7513922452926636e-01" nType="-99"/>
        </Node>
        <Node pos="r" depth="1" NCoef="0" IVar="21" Cut="4.0476188659667969e+00" cType="0" res="-2.6022532954812050e-02" rms="4.2119377851486206e-01" purity="3.6815571784973145e-01" nType="0">
          <Node pos="l" depth="2" NCoef="0" IVar="-1" Cut="0.0000000000000000e+00" cType="1" res="8.2516734255477786e-04" rms="4.0706515312194824e-01" purity="3.8006833195686340e-01" nType="-99"/>
          <Node pos="r" depth="2" NCoef="0" IVar="-1" Cut="0.0000000000000000e+00" cType="1" res="-3.2748889643698931e-03" rms="4.4443249702453613e-01" purity="3.4050586819648743e-01" nType="-99"/>
        </Node>
      </Node>
    </BinaryTree>
    <BinaryTree type="DecisionTree" boostWeight="1.0000000000000000e+00" itree="405">
      <Node pos="s" depth="0" NCoef="0" IVar="20" Cut="2.8492700576782227e+01" cType="0" res="4.9778544344007969e-03" rms="4.0886199474334717e-01" purity="5.0640410184860229e-01" nType="0">
        <Node pos="l" depth="1" NCoef="0" IVar="5" Cut="9.7730547189712524e-01" cType="1" res="6.1815708875656128e-02" rms="3.9833730459213257e-01" purity="5.8632421493530273e-01" nType="0">
          <Node pos="l" depth="2" NCoef="0" IVar="-1" Cut="0.0000000000000000e+00" cType="1" res="-1.2114967685192823e-03" rms="4.1496264934539795e-01" purity="6.8431466817855835e-01" nType="-99"/>
          <Node pos="r" depth="2" NCoef="0" IVar="-1" Cut="0.0000000000000000e+00" cType="1" res="1.1227313661947846e-03" rms="3.8945493102073669e-01" purity="5.6244385242462158e-01" nType="-99"/>
        </Node>
        <Node pos="r" depth="1" NCoef="0" IVar="20" Cut="2.6653150558471680e+01" cType="1" res="-1.1390599422156811e-02" rms="4.1038572788238525e-01" purity="4.8338827490806580e-01" nType="0">
          <Node pos="l" depth="2" NCoef="0" IVar="-1" Cut="0.0000000000000000e+00" cType="1" res="5.4557847761316225e-05" rms="4.1128727793693542e-01" purity="4.9535921216011047e-01" nType="-99"/>
          <Node pos="r" depth="2" NCoef="0" IVar="-1" Cut="0.0000000000000000e+00" cType="1" res="-6.8679172545671463e-03" rms="3.6476776003837585e-01" purity="2.8864803910255432e-01" nType="-99"/>
        </Node>
      </Node>
    </BinaryTree>
    <BinaryTree type="DecisionTree" boostWeight="1.0000000000000000e+00" itree="406">
      <Node pos="s" depth="0" NCoef="0" IVar="9" Cut="-1.4285714149475098e+01" cType="1" res="2.9989236500114202e-03" rms="4.1111406683921814e-01" purity="5.0278991460800171e-01" nType="0">
        <Node pos="l" depth="1" NCoef="0" IVar="-1" Cut="0.0000000000000000e+00" cType="1" res="1.5268911374732852e-03" rms="4.6187874674797058e-01" purity="5.6403738260269165e-01" nType="-99"/>
        <Node pos="r" depth="1" NCoef="0" IVar="4" Cut="3.1028206348419189e+00" cType="1" res="7.3837083764374256e-03" rms="4.0877687931060791e-01" purity="5.0117743015289307e-01" nType="0">
          <Node pos="l" depth="2" NCoef="0" IVar="-1" Cut="0.0000000000000000e+00" cType="1" res="2.0336362649686635e-04" rms="4.2183926701545715e-01" purity="5.5082398653030396e-01" nType="-99"/>
          <Node pos="r" depth="2" NCoef="0" IVar="-1" Cut="0.0000000000000000e+00" cType="1" res="-3.2242350280284882e-03" rms="2.6840803027153015e-01" purity="8.9624002575874329e-02" nType="-99"/>
        </Node>
      </Node>
    </BinaryTree>
    <BinaryTree type="DecisionTree" boostWeight="1.0000000000000000e+00" itree="407">
      <Node pos="s" depth="0" NCoef="0" IVar="9" Cut="-1.4285714626312256e+00" cType="1" res="-5.1637678407132626e-03" rms="4.1211217641830444e-01" purity="4.9552851915359497e-01" nType="0">
        <Node pos="l" depth="1" NCoef="0" IVar="7" Cut="3.5476231575012207e-01" cType="1" res="-5.6930843740701675e-02" rms="4.3291631340980530e-01" purity="5.4645687341690063e-01" nType="0">
          <Node pos="l" depth="2" NCoef="0" IVar="-1" Cut="0.0000000000000000e+00" cType="1" res="5.8433657977730036e-04" rms="4.2411312460899353e-01" purity="6.0963886976242065e-01" nType="-99"/>
          <Node pos="r" depth="2" NCoef="0" IVar="-1" Cut="0.0000000000000000e+00" cType="1" res="-4.1922535747289658e-03" rms="4.3713054060935974e-01" purity="3.3307686448097229e-01" nType="-99"/>
        </Node>
        <Node pos="r" depth="1" NCoef="0" IVar="12" Cut="1.4285714924335480e-01" cType="1" res="1.0871498845517635e-02" rms="4.0410843491554260e-01" purity="4.7975301742553711e-01" nType="0">
          <Node pos="l" depth="2" NCoef="0" IVar="-1" Cut="0.0000000000000000e+00" cType="1" res="-4.6485969796776772e-03" rms="3.9703497290611267e-01" purity="4.8170495033264160e-01" nType="-99"/>
          <Node pos="r" depth="2" NCoef="0" IVar="-1" Cut="0.0000000000000000e+00" cType="1" res="7.6307152630761266e-04" rms="4.0296539664268494e-01" purity="4.7939610481262207e-01" nType="-99"/>
        </Node>
      </Node>
    </BinaryTree>
    <BinaryTree type="DecisionTree" boostWeight="1.0000000000000000e+00" itree="408">
      <Node pos="s" depth="0" NCoef="0" IVar="8" Cut="2.4261906147003174e+00" cType="1" res="4.8457258380949497e-03" rms="4.0768250823020935e-01" purity="5.0612622499465942e-01" nType="0">
        <Node pos="l" depth="1" NCoef="0" IVar="18" Cut="1.2857142686843872e+00" cType="1" res="1.2056632898747921e-02" rms="4.0425345301628113e-01" purity="5.1554703712463379e-01" nType="0">
          <Node pos="l" depth="2" NCoef="0" IVar="-1" Cut="0.0000000000000000e+00" cType="1" res="-4.9516633152961731e-03" rms="4.3236604332923889e-01" purity="6.1574417352676392e-01" nType="-99"/>
          <Node pos="r" depth="2" NCoef="0" IVar="-1" Cut="0.0000000000000000e+00" cType="1" res="2.3764597426634282e-04" rms="4.0170255303382874e-01" purity="5.0986683368682861e-01" nType="-99"/>
        </Node>
        <Node pos="r" depth="1" NCoef="0" IVar="11" Cut="2.2113826870918274e-01" cType="0" res="-6.5604619681835175e-02" rms="4.3351453542709351e-01" purity="4.1408544778823853e-01" nType="0">
          <Node pos="l" depth="2" NCoef="0" IVar="-1" Cut="0.0000000000000000e+00" cType="1" res="3.1738646794110537e-04" rms="4.3189606070518494e-01" purity="4.5109847187995911e-01" nType="-99"/>
          <Node pos="r" depth="2" NCoef="0" IVar="-1" Cut="0.0000000000000000e+00" cType="1" res="-5.5465823970735073e-03" rms="4.1054466366767883e-01" purity="3.5443130135536194e-01" nType="-99"/>
        </Node>
      </Node>
    </BinaryTree>
    <BinaryTree type="DecisionTree" boostWeight="1.0000000000000000e+00" itree="409">
      <Node pos="s" depth="0" NCoef="0" IVar="15" Cut="1.1142857551574707e+01" cType="1" res="-1.6225546598434448e-02" rms="4.1164240241050720e-01" purity="4.8188745975494385e-01" nType="0">
        <Node pos="l" depth="1" NCoef="0" IVar="4" Cut="2.5684487819671631e+00" cType="1" res="2.0820211619138718e-02" rms="3.8299131393432617e-01" purity="6.5966093540191650e-01" nType="0">
          <Node pos="l" depth="2" NCoef="0" IVar="-1" Cut="0.0000000000000000e+00" cType="1" res="1.8052069935947657e-03" rms="3.9090183377265930e-01" purity="7.2664952278137207e-01" nType="-99"/>
          <Node pos="r" depth="2" NCoef="0" IVar="-1" Cut="0.0000000000000000e+00" cType="1" res="-4.4449893757700920e-03" rms="2.9365679621696472e-01" purity="1.2697559595108032e-01" nType="-99"/>
        </Node>
        <Node pos="r" depth="1" NCoef="0" IVar="9" Cut="-1.3785715103149414e+00" cType="0" res="-4.2172025889158249e-02" rms="4.2867341637611389e-01" purity="3.5737666487693787e-01" nType="0">
          <Node pos="l" depth="2" NCoef="0" IVar="-1" Cut="0.0000000000000000e+00" cType="1" res="4.0198327042162418e-05" rms="4.1824752092361450e-01" purity="3.6682158708572388e-01" nType="-99"/>
          <Node pos="r" depth="2" NCoef="0" IVar="-1" Cut="0.0000000000000000e+00" cType="1" res="-3.5900708753615618e-03" rms="4.5528385043144226e-01" purity="3.1464594602584839e-01" nType="-99"/>
        </Node>
      </Node>
    </BinaryTree>
    <BinaryTree type="DecisionTree" boostWeight="1.0000000000000000e+00" itree="410">
      <Node pos="s" depth="0" NCoef="0" IVar="12" Cut="2.1428570747375488e+00" cType="1" res="2.1179728209972382e-03" rms="4.1751092672348022e-01" purity="5.0986868143081665e-01" nType="0">
        <Node pos="l" depth="1" NCoef="0" IVar="9" Cut="-4.2857141494750977e+00" cType="1" res="1.5848441049456596e-02" rms="4.0845620632171631e-01" purity="5.2516978979110718e-01" nType="0">
          <Node pos="l" depth="2" NCoef="0" IVar="-1" Cut="0.0000000000000000e+00" cType="1" res="7.5874023605138063e-04" rms="3.0080813169479370e-01" purity="8.8282120227813721e-01" nType="-99"/>
          <Node pos="r" depth="2" NCoef="0" IVar="-1" Cut="0.0000000000000000e+00" cType="1" res="2.3309981042984873e-04" rms="4.1301661729812622e-01" purity="5.0058412551879883e-01" nType="-99"/>
        </Node>
        <Node pos="r" depth="1" NCoef="0" IVar="16" Cut="9.8030492663383484e-02" cType="0" res="-6.1797719448804855e-02" rms="4.5184856653213501e-01" purity="4.3864202499389648e-01" nType="0">
          <Node pos="l" depth="2" NCoef="0" IVar="-1" Cut="0.0000000000000000e+00" cType="1" res="4.3188487179577351e-03" rms="4.6974784135818481e-01" purity="5.8660775423049927e-01" nType="-99"/>
          <Node pos="r" depth="2" NCoef="0" IVar="-1" Cut="0.0000000000000000e+00" cType="1" res="-3.0283632222563028e-03" rms="4.4119590520858765e-01" purity="4.0575021505355835e-01" nType="-99"/>
        </Node>
      </Node>
    </BinaryTree>
    <BinaryTree type="DecisionTree" boostWeight="1.0000000000000000e+00" itree="411">
      <Node pos="s" depth="0" NCoef="0" IVar="0" Cut="2.6622588634490967e+00" cType="1" res="1.3970110565423965e-02" rms="4.1300085186958313e-01" purity="5.1789569854736328e-01" nType="0">
        <Node pos="l" depth="1" NCoef="0" IVar="12" Cut="2.1428570747375488e+00" cType="1" res="2.2633580490946770e-02" rms="4.2217040061950684e-01" purity="5.6837189197540283e-01" nType="0">
          <Node pos="l" depth="2" NCoef="0" IVar="-1" Cut="0.0000000000000000e+00" cType="1" res="7.9554307740181684e-04" rms="4.1234502196311951e-01" purity="5.9158104658126831e-01" nType="-99"/>
          <Node pos="r" depth="2" NCoef="0" IVar="-1" Cut="0.0000000000000000e+00" cType="1" res="-1.9276525126770139e-03" rms="4.5902869105339050e-01" purity="4.6485275030136108e-01" nType="-99"/>
        </Node>
        <Node pos="r" depth="1" NCoef="0" IVar="9" Cut="-1.3095238804817200e-01" cType="0" res="-4.8988271504640579e-02" rms="3.3227682113647461e-01" purity="1.5107962489128113e-01" nType="0">
          <Node pos="l" depth="2" NCoef="0" IVar="-1" Cut="0.0000000000000000e+00" cType="1" res="-1.5270592411980033e-03" rms="3.4635356068611145e-01" purity="1.7734375596046448e-01" nType="-99"/>
          <Node pos="r" depth="2" NCoef="0" IVar="-1" Cut="0.0000000000000000e+00" cType="1" res="-3.9089526981115341e-03" rms="3.0704429745674133e-01" purity="1.1391548812389374e-01" nType="-99"/>
        </Node>
      </Node>
    </BinaryTree>
    <BinaryTree type="DecisionTree" boostWeight="1.0000000000000000e+00" itree="412">
      <Node pos="s" depth="0" NCoef="0" IVar="9" Cut="-1.0000000000000000e+01" cType="1" res="-1.5614564530551434e-02" rms="4.1593107581138611e-01" purity="4.8031941056251526e-01" nType="0">
        <Node pos="l" depth="1" NCoef="0" IVar="3" Cut="2.3809523582458496e+00" cType="0" res="1.1812235414981842e-01" rms="3.6917930841445923e-01" purity="8.8807326555252075e-01" nType="0">
          <Node pos="l" depth="2" NCoef="0" IVar="-1" Cut="0.0000000000000000e+00" cType="1" res="1.9832085818052292e-02" rms="1.4404544234275818e-01" purity="1.0000000000000000e+00" nType="-99"/>
          <Node pos="r" depth="2" NCoef="0" IVar="-1" Cut="0.0000000000000000e+00" cType="1" res="-8.3818556740880013e-03" rms="4.7866621613502502e-01" purity="7.7257591485977173e-01" nType="-99"/>
        </Node>
        <Node pos="r" depth="1" NCoef="0" IVar="5" Cut="8.7959963083267212e-01" cType="1" res="-1.9730692729353905e-02" rms="4.1660648584365845e-01" purity="4.6776965260505676e-01" nType="0">
          <Node pos="l" depth="2" NCoef="0" IVar="-1" Cut="0.0000000000000000e+00" cType="1" res="3.5095300991088152e-03" rms="3.6525169014930725e-01" purity="7.8513413667678833e-01" nType="-99"/>
          <Node pos="r" depth="2" NCoef="0" IVar="-1" Cut="0.0000000000000000e+00" cType="1" res="-4.0164100937545300e-04" rms="4.2059007287025452e-01" purity="4.3707838654518127e-01" nType="-99"/>
        </Node>
      </Node>
    </BinaryTree>
    <BinaryTree type="DecisionTree" boostWeight="1.0000000000000000e+00" itree="413">
      <Node pos="s" depth="0" NCoef="0" IVar="18" Cut="5.2380952835083008e+00" cType="1" res="1.5206496231257915e-02" rms="4.0972575545310974e-01" purity="5.1778805255889893e-01" nType="0">
        <Node pos="l" depth="1" NCoef="0" IVar="20" Cut="1.4332000732421875e+01" cType="1" res="4.7429881989955902e-02" rms="4.0224850177764893e-01" purity="6.9502514600753784e-01" nType="0">
          <Node pos="l" depth="2" NCoef="0" IVar="-1" Cut="0.0000000000000000e+00" cType="1" res="1.3526566326618195e-03" rms="3.7202408909797668e-01" purity="7.5252032279968262e-01" nType="-99"/>
          <Node pos="r" depth="2" NCoef="0" IVar="-1" Cut="0.0000000000000000e+00" cType="1" res="2.8561378712765872e-04" rms="4.1909372806549072e-01" purity="6.5569704771041870e-01" nType="-99"/>
        </Node>
        <Node pos="r" depth="1" NCoef="0" IVar="15" Cut="1.6380952835083008e+01" cType="0" res="-1.8574846908450127e-02" rms="4.1474130749702454e-01" purity="3.3198177814483643e-01" nType="0">
          <Node pos="l" depth="2" NCoef="0" IVar="-1" Cut="0.0000000000000000e+00" cType="1" res="2.1331371681299061e-04" rms="4.0763598680496216e-01" purity="3.5106545686721802e-01" nType="-99"/>
          <Node pos="r" depth="2" NCoef="0" IVar="-1" Cut="0.0000000000000000e+00" cType="1" res="-2.7721384540200233e-03" rms="4.2377313971519470e-01" purity="2.8933411836624146e-01" nType="-99"/>
        </Node>
      </Node>
    </BinaryTree>
    <BinaryTree type="DecisionTree" boostWeight="1.0000000000000000e+00" itree="414">
      <Node pos="s" depth="0" NCoef="0" IVar="7" Cut="3.9214291572570801e+00" cType="0" res="6.2505123205482960e-03" rms="4.1366371512413025e-01" purity="5.1032239198684692e-01" nType="0">
        <Node pos="l" depth="1" NCoef="0" IVar="-1" Cut="0.0000000000000000e+00" cType="1" res="-1.0515410685911775e-03" rms="4.0484181046485901e-01" purity="7.0786595344543457e-01" nType="-99"/>
        <Node pos="r" depth="1" NCoef="0" IVar="7" Cut="6.7142868041992188e-01" cType="1" res="2.4482251610606909e-03" rms="4.1286373138427734e-01" purity="5.0666314363479614e-01" nType="0">
          <Node pos="l" depth="2" NCoef="0" IVar="-1" Cut="0.0000000000000000e+00" cType="1" res="1.0822502372320741e-04" rms="4.1243645548820496e-01" purity="5.3218680620193481e-01" nType="-99"/>
          <Node pos="r" depth="2" NCoef="0" IVar="-1" Cut="0.0000000000000000e+00" cType="1" res="-1.0328363860026002e-03" rms="4.1186374425888062e-01" purity="3.8781255483627319e-01" nType="-99"/>
        </Node>
      </Node>
    </BinaryTree>
    <BinaryTree type="DecisionTree" boostWeight="1.0000000000000000e+00" itree="415">
      <Node pos="s" depth="0" NCoef="0" IVar="18" Cut="1.4285714626312256e+00" cType="1" res="6.3600554130971432e-03" rms="4.1662806272506714e-01" purity="5.1820939779281616e-01" nType="0">
        <Node pos="l" depth="1" NCoef="0" IVar="10" Cut="1.3014800548553467e+00" cType="1" res="-1.0370885580778122e-01" rms="4.3784606456756592e-01" purity="6.2239688634872437e-01" nType="0">
          <Node pos="l" depth="2" NCoef="0" IVar="-1" Cut="0.0000000000000000e+00" cType="1" res="1.6645919531583786e-03" rms="3.4316158294677734e-01" purity="8.5234719514846802e-01" nType="-99"/>
          <Node pos="r" depth="2" NCoef="0" IVar="-1" Cut="0.0000000000000000e+00" cType="1" res="-6.5825316123664379e-03" rms="4.6732577681541443e-01" purity="4.7324037551879883e-01" nType="-99"/>
        </Node>
        <Node pos="r" depth="1" NCoef="0" IVar="15" Cut="7.9047617912292480e+00" cType="1" res="1.3494141399860382e-02" rms="4.1420730948448181e-01" purity="5.1145648956298828e-01" nType="0">
          <Node pos="l" depth="2" NCoef="0" IVar="-1" Cut="0.0000000000000000e+00" cType="1" res="4.1766334325075150e-03" rms="3.6118766665458679e-01" purity="7.8812670707702637e-01" nType="-99"/>
          <Node pos="r" depth="2" NCoef="0" IVar="-1" Cut="0.0000000000000000e+00" cType="1" res="-4.6902956091798842e-04" rms="4.2414236068725586e-01" purity="4.4983455538749695e-01" nType="-99"/>
        </Node>
      </Node>
    </BinaryTree>
    <BinaryTree type="DecisionTree" boostWeight="1.0000000000000000e+00" itree="416">
      <Node pos="s" depth="0" NCoef="0" IVar="12" Cut="2.1428570747375488e+00" cType="1" res="-5.1930584013462067e-03" rms="4.0859350562095642e-01" purity="4.8748201131820679e-01" nType="0">
        <Node pos="l" depth="1" NCoef="0" IVar="3" Cut="3.5238094329833984e+00" cType="1" res="7.2236927226185799e-03" rms="4.0270042419433594e-01" purity="5.0814771652221680e-01" nType="0">
          <Node pos="l" depth="2" NCoef="0" IVar="-1" Cut="0.0000000000000000e+00" cType="1" res="6.6452723694965243e-04" rms="3.8623329997062683e-01" purity="5.1125419139862061e-01" nType="-99"/>
          <Node pos="r" depth="2" NCoef="0" IVar="-1" Cut="0.0000000000000000e+00" cType="1" res="-8.5298315389081836e-04" rms="4.4332605600357056e-01" purity="4.9943470954895020e-01" nType="-99"/>
        </Node>
        <Node pos="r" depth="1" NCoef="0" IVar="14" Cut="4.6639827728271484e+01" cType="1" res="-6.1047360301017761e-02" rms="4.2969983816146851e-01" purity="3.9452144503593445e-01" nType="0">
          <Node pos="l" depth="2" NCoef="0" IVar="-1" Cut="0.0000000000000000e+00" cType="1" res="4.0519720641896129e-04" rms="4.2699250578880310e-01" purity="6.2372392416000366e-01" nType="-99"/>
          <Node pos="r" depth="2" NCoef="0" IVar="-1" Cut="0.0000000000000000e+00" cType="1" res="-2.3288177326321602e-03" rms="4.2276245355606079e-01" purity="3.3070951700210571e-01" nType="-99"/>
        </Node>
      </Node>
    </BinaryTree>
    <BinaryTree type="DecisionTree" boostWeight="1.0000000000000000e+00" itree="417">
      <Node pos="s" depth="0" NCoef="0" IVar="3" Cut="3.9047617912292480e+00" cType="1" res="-1.7106140032410622e-02" rms="4.1436821222305298e-01" purity="4.8481857776641846e-01" nType="0">
        <Node pos="l" depth="1" NCoef="0" IVar="20" Cut="2.3955270767211914e+01" cType="0" res="-4.8236356815323234e-04" rms="4.0256232023239136e-01" purity="4.9196562170982361e-01" nType="0">
          <Node pos="l" depth="2" NCoef="0" IVar="-1" Cut="0.0000000000000000e+00" cType="1" res="2.8597961645573378e-03" rms="3.8316437602043152e-01" purity="5.7633793354034424e-01" nType="-99"/>
          <Node pos="r" depth="2" NCoef="0" IVar="-1" Cut="0.0000000000000000e+00" cType="1" res="-7.4987392872571945e-04" rms="4.0837922692298889e-01" purity="4.5246773958206177e-01" nType="-99"/>
        </Node>
        <Node pos="r" depth="1" NCoef="0" IVar="6" Cut="1.0511034727096558e+00" cType="1" res="-5.9295773506164551e-02" rms="4.4010996818542480e-01" purity="4.6668002009391785e-01" nType="0">
          <Node pos="l" depth="2" NCoef="0" IVar="-1" Cut="0.0000000000000000e+00" cType="1" res="-1.0064050555229187e-02" rms="4.5484742522239685e-01" purity="4.9886718392372131e-01" nType="-99"/>
          <Node pos="r" depth="2" NCoef="0" IVar="-1" Cut="0.0000000000000000e+00" cType="1" res="-4.1945721022784710e-04" rms="4.3410837650299072e-01" purity="4.6217429637908936e-01" nType="-99"/>
        </Node>
      </Node>
    </BinaryTree>
    <BinaryTree type="DecisionTree" boostWeight="1.0000000000000000e+00" itree="418">
      <Node pos="s" depth="0" NCoef="0" IVar="6" Cut="2.2014484405517578e+00" cType="1" res="-5.3513813763856888e-03" rms="4.1976180672645569e-01" purity="5.0392240285873413e-01" nType="0">
        <Node pos="l" depth="1" NCoef="0" IVar="20" Cut="8.2490005493164062e+00" cType="1" res="-2.0157879218459129e-02" rms="4.3047228455543518e-01" purity="5.8013057708740234e-01" nType="0">
          <Node pos="l" depth="2" NCoef="0" IVar="-1" Cut="0.0000000000000000e+00" cType="1" res="1.4090690528973937e-03" rms="4.1930136084556580e-01" purity="6.4645224809646606e-01" nType="-99"/>
          <Node pos="r" depth="2" NCoef="0" IVar="-1" Cut="0.0000000000000000e+00" cType="1" res="-1.0583095718175173e-03" rms="4.3233218789100647e-01" purity="5.6147295236587524e-01" nType="-99"/>
        </Node>
        <Node pos="r" depth="1" NCoef="0" IVar="6" Cut="2.7756664752960205e+00" cType="1" res="3.3877406269311905e-02" rms="3.8723811507225037e-01" purity="3.0201426148414612e-01" nType="0">
          <Node pos="l" depth="2" NCoef="0" IVar="-1" Cut="0.0000000000000000e+00" cType="1" res="3.0589445959776640e-03" rms="4.2368948459625244e-01" purity="4.4779902696609497e-01" nType="-99"/>
          <Node pos="r" depth="2" NCoef="0" IVar="-1" Cut="0.0000000000000000e+00" cType="1" res="-2.0320150069892406e-03" rms="3.3507382869720459e-01" purity="1.5821366012096405e-01" nType="-99"/>
        </Node>
      </Node>
    </BinaryTree>
    <BinaryTree type="DecisionTree" boostWeight="1.0000000000000000e+00" itree="419">
      <Node pos="s" depth="0" NCoef="0" IVar="12" Cut="1.4285714924335480e-01" cType="1" res="-5.7555953972041607e-03" rms="4.1859492659568787e-01" purity="5.0557851791381836e-01" nType="0">
        <Node pos="l" depth="1" NCoef="0" IVar="10" Cut="1.5309520959854126e+00" cType="1" res="-6.7505985498428345e-02" rms="3.9357969164848328e-01" purity="5.5010658502578735e-01" nType="0">
          <Node pos="l" depth="2" NCoef="0" IVar="-1" Cut="0.0000000000000000e+00" cType="1" res="4.0358309634029865e-03" rms="3.3351817727088928e-01" purity="8.1478071212768555e-01" nType="-99"/>
          <Node pos="r" depth="2" NCoef="0" IVar="-1" Cut="0.0000000000000000e+00" cType="1" res="-4.8845671117305756e-03" rms="4.1445922851562500e-01" purity="3.8120645284652710e-01" nType="-99"/>
        </Node>
        <Node pos="r" depth="1" NCoef="0" IVar="20" Cut="1.2271677970886230e+01" cType="1" res="9.8310783505439758e-03" rms="4.2325466871261597e-01" purity="4.9433898925781250e-01" nType="0">
          <Node pos="l" depth="2" NCoef="0" IVar="-1" Cut="0.0000000000000000e+00" cType="1" res="1.7717380542308092e-03" rms="4.2923438549041748e-01" purity="6.1529666185379028e-01" nType="-99"/>
          <Node pos="r" depth="2" NCoef="0" IVar="-1" Cut="0.0000000000000000e+00" cType="1" res="-3.1475155265070498e-04" rms="4.1846469044685364e-01" purity="4.4299915432929993e-01" nType="-99"/>
        </Node>
      </Node>
    </BinaryTree>
    <BinaryTree type="DecisionTree" boostWeight="1.0000000000000000e+00" itree="420">
      <Node pos="s" depth="0" NCoef="0" IVar="7" Cut="-7.6285715103149414e+00" cType="1" res="5.9443581849336624e-03" rms="4.0733227133750916e-01" purity="5.0203537940979004e-01" nType="0">
        <Node pos="l" depth="1" NCoef="0" IVar="17" Cut="3.6813762664794922e+01" cType="1" res="-9.9582724273204803e-02" rms="4.4377142190933228e-01" purity="6.7064166069030762e-01" nType="0">
          <Node pos="l" depth="2" NCoef="0" IVar="-1" Cut="0.0000000000000000e+00" cType="1" res="-1.4181870501488447e-03" rms="3.5525995492935181e-01" purity="7.8312134742736816e-01" nType="-99"/>
          <Node pos="r" depth="2" NCoef="0" IVar="-1" Cut="0.0000000000000000e+00" cType="1" res="-1.2180925346910954e-02" rms="4.8849952220916748e-01" purity="5.3733521699905396e-01" nType="-99"/>
        </Node>
        <Node pos="r" depth="1" NCoef="0" IVar="15" Cut="8.4285717010498047e+00" cType="1" res="9.8573835566639900e-03" rms="4.0539032220840454e-01" purity="4.9578326940536499e-01" nType="0">
          <Node pos="l" depth="2" NCoef="0" IVar="-1" Cut="0.0000000000000000e+00" cType="1" res="9.7138376440852880e-04" rms="3.7673714756965637e-01" purity="7.4775683879852295e-01" nType="-99"/>
          <Node pos="r" depth="2" NCoef="0" IVar="-1" Cut="0.0000000000000000e+00" cType="1" res="-2.2670459293294698e-04" rms="4.1263812780380249e-01" purity="4.2125979065895081e-01" nType="-99"/>
        </Node>
      </Node>
    </BinaryTree>
    <BinaryTree type="DecisionTree" boostWeight="1.0000000000000000e+00" itree="421">
      <Node pos="s" depth="0" NCoef="0" IVar="9" Cut="-8.5714282989501953e+00" cType="1" res="-3.1756069511175156e-03" rms="4.1406026482582092e-01" purity="4.9921378493309021e-01" nType="0">
        <Node pos="l" depth="1" NCoef="0" IVar="10" Cut="1.8548562526702881e+00" cType="0" res="-1.2223249673843384e-01" rms="4.5784038305282593e-01" purity="5.7022565603256226e-01" nType="0">
          <Node pos="l" depth="2" NCoef="0" IVar="-1" Cut="0.0000000000000000e+00" cType="1" res="1.7432011663913727e-02" rms="3.9215269684791565e-01" purity="6.8132740259170532e-01" nType="-99"/>
          <Node pos="r" depth="2" NCoef="0" IVar="-1" Cut="0.0000000000000000e+00" cType="1" res="-9.5805861055850983e-03" rms="4.5649865269660950e-01" purity="5.2267915010452271e-01" nType="-99"/>
        </Node>
        <Node pos="r" depth="1" NCoef="0" IVar="3" Cut="5.8571429252624512e+00" cType="0" res="3.4947709646075964e-03" rms="4.1044926643371582e-01" purity="4.9523523449897766e-01" nType="0">
          <Node pos="l" depth="2" NCoef="0" IVar="-1" Cut="0.0000000000000000e+00" cType="1" res="4.0038209408521652e-03" rms="4.0812906622886658e-01" purity="6.3407117128372192e-01" nType="-99"/>
          <Node pos="r" depth="2" NCoef="0" IVar="-1" Cut="0.0000000000000000e+00" cType="1" res="-3.1659717205911875e-04" rms="4.0967497229576111e-01" purity="4.8923450708389282e-01" nType="-99"/>
        </Node>
      </Node>
    </BinaryTree>
    <BinaryTree type="DecisionTree" boostWeight="1.0000000000000000e+00" itree="422">
      <Node pos="s" depth="0" NCoef="0" IVar="4" Cut="3.1140918731689453e+00" cType="1" res="1.1152596212923527e-02" rms="4.0751838684082031e-01" purity="5.0694930553436279e-01" nType="0">
        <Node pos="l" depth="1" NCoef="0" IVar="4" Cut="1.0966072082519531e+00" cType="1" res="1.9479492679238319e-02" rms="4.1977939009666443e-01" purity="5.5874645709991455e-01" nType="0">
          <Node pos="l" depth="2" NCoef="0" IVar="-1" Cut="0.0000000000000000e+00" cType="1" res="-1.4243257464841008e-03" rms="3.8880699872970581e-01" purity="7.2041028738021851e-01" nType="-99"/>
          <Node pos="r" depth="2" NCoef="0" IVar="-1" Cut="0.0000000000000000e+00" cType="1" res="3.5415514139458537e-04" rms="4.2393419146537781e-01" purity="5.3011167049407959e-01" nType="-99"/>
        </Node>
        <Node pos="r" depth="1" NCoef="0" IVar="10" Cut="3.1310279369354248e+00" cType="1" res="-5.4354012012481689e-02" rms="2.8537169098854065e-01" purity="9.9467486143112183e-02" nType="0">
          <Node pos="l" depth="2" NCoef="0" IVar="-1" Cut="0.0000000000000000e+00" cType="1" res="-3.0018051620572805e-03" rms="2.8629451990127563e-01" purity="1.0001415014266968e-01" nType="-99"/>
          <Node pos="r" depth="2" NCoef="0" IVar="-1" Cut="0.0000000000000000e+00" cType="1" res="-3.3120783045887947e-03" rms="2.8224164247512817e-01" purity="9.8910711705684662e-02" nType="-99"/>
        </Node>
      </Node>
    </BinaryTree>
    <BinaryTree type="DecisionTree" boostWeight="1.0000000000000000e+00" itree="423">
      <Node pos="s" depth="0" NCoef="0" IVar="9" Cut="-7.1428570747375488e+00" cType="1" res="1.0505841113626957e-02" rms="4.1544944047927856e-01" purity="5.2153366804122925e-01" nType="0">
        <Node pos="l" depth="1" NCoef="0" IVar="20" Cut="9.2463502883911133e+00" cType="1" res="-1.2784968316555023e-01" rms="4.6089026331901550e-01" purity="5.7367861270904541e-01" nType="0">
          <Node pos="l" depth="2" NCoef="0" IVar="-1" Cut="0.0000000000000000e+00" cType="1" res="7.6961060985922813e-03" rms="3.6737295985221863e-01" purity="7.9170656204223633e-01" nType="-99"/>
          <Node pos="r" depth="2" NCoef="0" IVar="-1" Cut="0.0000000000000000e+00" cType="1" res="-7.4170660227537155e-03" rms="4.6645504236221313e-01" purity="4.9543473124504089e-01" nType="-99"/>
        </Node>
        <Node pos="r" depth="1" NCoef="0" IVar="15" Cut="1.2714285850524902e+01" cType="1" res="2.0129086449742317e-02" rms="4.1037109494209290e-01" purity="5.1790684461593628e-01" nType="0">
          <Node pos="l" depth="2" NCoef="0" IVar="-1" Cut="0.0000000000000000e+00" cType="1" res="-1.5516593703068793e-04" rms="4.0509027242660522e-01" purity="6.2758016586303711e-01" nType="-99"/>
          <Node pos="r" depth="2" NCoef="0" IVar="-1" Cut="0.0000000000000000e+00" cType="1" res="1.8169645045418292e-04" rms="4.1417470574378967e-01" purity="4.1550141572952271e-01" nType="-99"/>
        </Node>
      </Node>
    </BinaryTree>
    <BinaryTree type="DecisionTree" boostWeight="1.0000000000000000e+00" itree="424">
      <Node pos="s" depth="0" NCoef="0" IVar="12" Cut="1.4285714924335480e-01" cType="1" res="-2.6704284828156233e-03" rms="4.1130861639976501e-01" purity="5.0148707628250122e-01" nType="0">
        <Node pos="l" depth="1" NCoef="0" IVar="5" Cut="1.3647397756576538e+00" cType="1" res="-4.5495115220546722e-02" rms="3.8899666070938110e-01" purity="5.8506542444229126e-01" nType="0">
          <Node pos="l" depth="2" NCoef="0" IVar="-1" Cut="0.0000000000000000e+00" cType="1" res="2.9626768082380295e-03" rms="3.5410445928573608e-01" purity="8.1647342443466187e-01" nType="-99"/>
          <Node pos="r" depth="2" NCoef="0" IVar="-1" Cut="0.0000000000000000e+00" cType="1" res="-4.7232965007424355e-03" rms="4.1318163275718689e-01" purity="3.1899741291999817e-01" nType="-99"/>
        </Node>
        <Node pos="r" depth="1" NCoef="0" IVar="20" Cut="1.4678148269653320e+01" cType="1" res="7.2307395748794079e-03" rms="4.1566953063011169e-01" purity="4.8216357827186584e-01" nType="0">
          <Node pos="l" depth="2" NCoef="0" IVar="-1" Cut="0.0000000000000000e+00" cType="1" res="2.5614430196583271e-03" rms="4.2505255341529846e-01" purity="5.8027124404907227e-01" nType="-99"/>
          <Node pos="r" depth="2" NCoef="0" IVar="-1" Cut="0.0000000000000000e+00" cType="1" res="-9.5729687018319964e-04" rms="4.0811359882354736e-01" purity="4.2304217815399170e-01" nType="-99"/>
        </Node>
      </Node>
    </BinaryTree>
    <BinaryTree type="DecisionTree" boostWeight="1.0000000000000000e+00" itree="425">
      <Node pos="s" depth="0" NCoef="0" IVar="15" Cut="1.8428571701049805e+01" cType="1" res="5.6159952655434608e-03" rms="4.0555313229560852e-01" purity="5.0080770254135132e-01" nType="0">
        <Node pos="l" depth="1" NCoef="0" IVar="6" Cut="2.2911071777343750e+00" cType="1" res="1.6588861122727394e-02" rms="4.2794826626777649e-01" purity="5.7728284597396851e-01" nType="0">
          <Node pos="l" depth="2" NCoef="0" IVar="-1" Cut="0.0000000000000000e+00" cType="1" res="-2.8823141474276781e-04" rms="4.2696398496627808e-01" purity="6.1939895153045654e-01" nType="-99"/>
          <Node pos="r" depth="2" NCoef="0" IVar="-1" Cut="0.0000000000000000e+00" cType="1" res="2.2037650924175978e-03" rms="4.2680934071540833e-01" purity="4.0353035926818848e-01" nType="-99"/>
        </Node>
        <Node pos="r" depth="1" NCoef="0" IVar="5" Cut="2.3504488468170166e+00" cType="0" res="-5.8337498456239700e-02" rms="2.2558295726776123e-01" purity="5.5085055530071259e-02" nType="0">
          <Node pos="l" depth="2" NCoef="0" IVar="-1" Cut="0.0000000000000000e+00" cType="1" res="-3.3156112767755985e-03" rms="2.4847348034381866e-01" purity="6.6844463348388672e-02" nType="-99"/>
          <Node pos="r" depth="2" NCoef="0" IVar="-1" Cut="0.0000000000000000e+00" cType="1" res="-3.5488142166286707e-03" rms="2.0532986521720886e-01" purity="4.7120589762926102e-02" nType="-99"/>
        </Node>
      </Node>
    </BinaryTree>
    <BinaryTree type="DecisionTree" boostWeight="1.0000000000000000e+00" itree="426">
      <Node pos="s" depth="0" NCoef="0" IVar="7" Cut="-6.0166664123535156e+00" cType="1" res="5.8288094587624073e-03" rms="4.0637996792793274e-01" purity="5.1272928714752197e-01" nType="0">
        <Node pos="l" depth="1" NCoef="0" IVar="20" Cut="2.1240409851074219e+01" cType="0" res="-9.1095179319381714e-02" rms="4.2945504188537598e-01" purity="6.0509359836578369e-01" nType="0">
          <Node pos="l" depth="2" NCoef="0" IVar="-1" Cut="0.0000000000000000e+00" cType="1" res="1.1017642100341618e-04" rms="4.0793430805206299e-01" purity="8.1298977136611938e-01" nType="-99"/>
          <Node pos="r" depth="2" NCoef="0" IVar="-1" Cut="0.0000000000000000e+00" cType="1" res="-5.0818724557757378e-03" rms="4.1576969623565674e-01" purity="4.9218845367431641e-01" nType="-99"/>
        </Node>
        <Node pos="r" depth="1" NCoef="0" IVar="4" Cut="1.8175967931747437e+00" cType="1" res="1.1271197348833084e-02" rms="4.0435698628425598e-01" purity="5.0754296779632568e-01" nType="0">
          <Node pos="l" depth="2" NCoef="0" IVar="-1" Cut="0.0000000000000000e+00" cType="1" res="7.6540047302842140e-04" rms="3.8611039519309998e-01" purity="7.4580860137939453e-01" nType="-99"/>
          <Node pos="r" depth="2" NCoef="0" IVar="-1" Cut="0.0000000000000000e+00" cType="1" res="-2.8564574313350022e-04" rms="4.1541659832000732e-01" purity="3.3895713090896606e-01" nType="-99"/>
        </Node>
      </Node>
    </BinaryTree>
    <BinaryTree type="DecisionTree" boostWeight="1.0000000000000000e+00" itree="427">
      <Node pos="s" depth="0" NCoef="0" IVar="12" Cut="1.4285714924335480e-01" cType="1" res="-6.0271541588008404e-03" rms="4.1590321063995361e-01" purity="5.0397193431854248e-01" nType="0">
        <Node pos="l" depth="1" NCoef="0" IVar="10" Cut="1.7435643672943115e+00" cType="1" res="-5.4588682949542999e-02" rms="3.9116722345352173e-01" purity="5.6086820363998413e-01" nType="0">
          <Node pos="l" depth="2" NCoef="0" IVar="-1" Cut="0.0000000000000000e+00" cType="1" res="2.7709163259714842e-03" rms="3.6788907647132874e-01" purity="7.4113053083419800e-01" nType="-99"/>
          <Node pos="r" depth="2" NCoef="0" IVar="-1" Cut="0.0000000000000000e+00" cType="1" res="-4.9644536338746548e-03" rms="4.0767145156860352e-01" purity="3.6902937293052673e-01" nType="-99"/>
        </Node>
        <Node pos="r" depth="1" NCoef="0" IVar="6" Cut="9.4431382417678833e-01" cType="1" res="5.8826701715588570e-03" rms="4.2089360952377319e-01" purity="4.9001803994178772e-01" nType="0">
          <Node pos="l" depth="2" NCoef="0" IVar="-1" Cut="0.0000000000000000e+00" cType="1" res="7.0093525573611259e-03" rms="3.5946187376976013e-01" purity="7.6712393760681152e-01" nType="-99"/>
          <Node pos="r" depth="2" NCoef="0" IVar="-1" Cut="0.0000000000000000e+00" cType="1" res="9.4246061053127050e-06" rms="4.2314490675926208e-01" purity="4.7407367825508118e-01" nType="-99"/>
        </Node>
      </Node>
    </BinaryTree>
    <BinaryTree type="DecisionTree" boostWeight="1.0000000000000000e+00" itree="428">
      <Node pos="s" depth="0" NCoef="0" IVar="4" Cut="1.5626521110534668e+00" cType="1" res="4.0433686226606369e-03" rms="4.1136199235916138e-01" purity="5.0434631109237671e-01" nType="0">
        <Node pos="l" depth="1" NCoef="0" IVar="0" Cut="1.2658441066741943e+00" cType="0" res="-4.0889035910367966e-02" rms="4.1279304027557373e-01" purity="6.7848777770996094e-01" nType="0">
          <Node pos="l" depth="2" NCoef="0" IVar="-1" Cut="0.0000000000000000e+00" cType="1" res="4.5068883337080479e-03" rms="3.4673541784286499e-01" purity="8.0194240808486938e-01" nType="-99"/>
          <Node pos="r" depth="2" NCoef="0" IVar="-1" Cut="0.0000000000000000e+00" cType="1" res="-2.7220216579735279e-03" rms="4.2717137932777405e-01" purity="6.3875091075897217e-01" nType="-99"/>
        </Node>
        <Node pos="r" depth="1" NCoef="0" IVar="4" Cut="2.5625755786895752e+00" cType="1" res="2.5302255526185036e-02" rms="4.0896642208099365e-01" purity="4.2195472121238708e-01" nType="0">
          <Node pos="l" depth="2" NCoef="0" IVar="-1" Cut="0.0000000000000000e+00" cType="1" res="8.0940406769514084e-04" rms="4.3734717369079590e-01" purity="5.4639637470245361e-01" nType="-99"/>
          <Node pos="r" depth="2" NCoef="0" IVar="-1" Cut="0.0000000000000000e+00" cType="1" res="-1.2595308944582939e-03" rms="3.4189403057098389e-01" purity="1.8387559056282043e-01" nType="-99"/>
        </Node>
      </Node>
    </BinaryTree>
    <BinaryTree type="DecisionTree" boostWeight="1.0000000000000000e+00" itree="429">
      <Node pos="s" depth="0" NCoef="0" IVar="15" Cut="1.1285714149475098e+01" cType="1" res="9.9289615172892809e-04" rms="4.0571835637092590e-01" purity="5.0272989273071289e-01" nType="0">
        <Node pos="l" depth="1" NCoef="0" IVar="5" Cut="1.9496282339096069e+00" cType="1" res="3.4455154091119766e-02" rms="3.7462645769119263e-01" purity="6.7276400327682495e-01" nType="0">
          <Node pos="l" depth="2" NCoef="0" IVar="-1" Cut="0.0000000000000000e+00" cType="1" res="2.0800190977752209e-03" rms="3.6488276720046997e-01" purity="7.7781397104263306e-01" nType="-99"/>
          <Node pos="r" depth="2" NCoef="0" IVar="-1" Cut="0.0000000000000000e+00" cType="1" res="-2.2846835199743509e-03" rms="3.9748442173004150e-01" purity="2.5245764851570129e-01" nType="-99"/>
        </Node>
        <Node pos="r" depth="1" NCoef="0" IVar="15" Cut="1.2714285850524902e+01" cType="0" res="-2.3319501429796219e-02" rms="4.2524215579032898e-01" purity="3.7918964028358459e-01" nType="0">
          <Node pos="l" depth="2" NCoef="0" IVar="-1" Cut="0.0000000000000000e+00" cType="1" res="1.8623421783559024e-04" rms="4.2101308703422546e-01" purity="3.8063910603523254e-01" nType="-99"/>
          <Node pos="r" depth="2" NCoef="0" IVar="-1" Cut="0.0000000000000000e+00" cType="1" res="-6.4602750353515148e-03" rms="4.3531796336174011e-01" purity="3.6887851357460022e-01" nType="-99"/>
        </Node>
      </Node>
    </BinaryTree>
    <BinaryTree type="DecisionTree" boostWeight="1.0000000000000000e+00" itree="430">
      <Node pos="s" depth="0" NCoef="0" IVar="0" Cut="4.4540303945541382e-01" cType="1" res="4.5564784668385983e-03" rms="4.1049912571907043e-01" purity="5.0957608222961426e-01" nType="0">
        <Node pos="l" depth="1" NCoef="0" IVar="12" Cut="1.4285714924335480e-01" cType="1" res="-7.3481239378452301e-02" rms="4.5666468143463135e-01" purity="5.2216315269470215e-01" nType="0">
          <Node pos="l" depth="2" NCoef="0" IVar="-1" Cut="0.0000000000000000e+00" cType="1" res="-3.8476050831377506e-03" rms="3.7737888097763062e-01" purity="7.2945749759674072e-01" nType="-99"/>
          <Node pos="r" depth="2" NCoef="0" IVar="-1" Cut="0.0000000000000000e+00" cType="1" res="-2.5042057968676090e-03" rms="4.8222860693931580e-01" purity="3.9945745468139648e-01" nType="-99"/>
        </Node>
        <Node pos="r" depth="1" NCoef="0" IVar="20" Cut="4.1526027679443359e+01" cType="0" res="1.0320784524083138e-02" rms="4.0628734230995178e-01" purity="5.0864630937576294e-01" nType="0">
          <Node pos="l" depth="2" NCoef="0" IVar="-1" Cut="0.0000000000000000e+00" cType="1" res="2.4887342005968094e-03" rms="3.7360867857933044e-01" purity="5.9160602092742920e-01" nType="-99"/>
          <Node pos="r" depth="2" NCoef="0" IVar="-1" Cut="0.0000000000000000e+00" cType="1" res="-2.7365816640667617e-04" rms="4.0948319435119629e-01" purity="4.9824136495590210e-01" nType="-99"/>
        </Node>
      </Node>
    </BinaryTree>
    <BinaryTree type="DecisionTree" boostWeight="1.0000000000000000e+00" itree="431">
      <Node pos="s" depth="0" NCoef="0" IVar="6" Cut="6.4957320690155029e-01" cType="1" res="-6.9141676649451256e-03" rms="4.1755694150924683e-01" purity="5.0639653205871582e-01" nType="0">
        <Node pos="l" depth="1" NCoef="0" IVar="-1" Cut="0.0000000000000000e+00" cType="1" res="-1.3862749328836799e-03" rms="5.0114792585372925e-01" purity="5.5982929468154907e-01" nType="-99"/>
        <Node pos="r" depth="1" NCoef="0" IVar="18" Cut="3.3333332538604736e+00" cType="1" res="-2.4413391947746277e-03" rms="4.1420650482177734e-01" purity="5.0500661134719849e-01" nType="0">
          <Node pos="l" depth="2" NCoef="0" IVar="-1" Cut="0.0000000000000000e+00" cType="1" res="1.9431735854595900e-03" rms="3.1894582509994507e-01" purity="7.6015633344650269e-01" nType="-99"/>
          <Node pos="r" depth="2" NCoef="0" IVar="-1" Cut="0.0000000000000000e+00" cType="1" res="-4.6697768266312778e-04" rms="4.3890812993049622e-01" purity="4.2500737309455872e-01" nType="-99"/>
        </Node>
      </Node>
    </BinaryTree>
    <BinaryTree type="DecisionTree" boostWeight="1.0000000000000000e+00" itree="432">
      <Node pos="s" depth="0" NCoef="0" IVar="20" Cut="2.2203767776489258e+01" cType="0" res="-1.8639782210811973e-03" rms="4.0973949432373047e-01" purity="4.9608376622200012e-01" nType="0">
        <Node pos="l" depth="1" NCoef="0" IVar="3" Cut="3.2380952835083008e+00" cType="1" res="3.1101083382964134e-02" rms="4.1302430629730225e-01" purity="5.6147408485412598e-01" nType="0">
          <Node pos="l" depth="2" NCoef="0" IVar="-1" Cut="0.0000000000000000e+00" cType="1" res="2.6866374537348747e-03" rms="3.9596027135848999e-01" purity="5.8702975511550903e-01" nType="-99"/>
          <Node pos="r" depth="2" NCoef="0" IVar="-1" Cut="0.0000000000000000e+00" cType="1" res="-3.6676151212304831e-03" rms="4.4784244894981384e-01" purity="4.8627719283103943e-01" nType="-99"/>
        </Node>
        <Node pos="r" depth="1" NCoef="0" IVar="20" Cut="1.4516584396362305e+01" cType="1" res="-1.8155509606003761e-02" rms="4.0712201595306396e-01" purity="4.6376755833625793e-01" nType="0">
          <Node pos="l" depth="2" NCoef="0" IVar="-1" Cut="0.0000000000000000e+00" cType="1" res="1.7285100184381008e-03" rms="4.1032630205154419e-01" purity="5.2928739786148071e-01" nType="-99"/>
          <Node pos="r" depth="2" NCoef="0" IVar="-1" Cut="0.0000000000000000e+00" cType="1" res="-3.7737837992608547e-03" rms="3.9852219820022583e-01" purity="3.5882347822189331e-01" nType="-99"/>
        </Node>
      </Node>
    </BinaryTree>
    <BinaryTree type="DecisionTree" boostWeight="1.0000000000000000e+00" itree="433">
      <Node pos="s" depth="0" NCoef="0" IVar="4" Cut="1.5679123401641846e+00" cType="1" res="-1.7124820500612259e-02" rms="4.1663092374801636e-01" purity="4.8179486393928528e-01" nType="0">
        <Node pos="l" depth="1" NCoef="0" IVar="12" Cut="2.1428570747375488e+00" cType="1" res="-5.9616874903440475e-02" rms="4.2486649751663208e-01" purity="6.6995620727539062e-01" nType="0">
          <Node pos="l" depth="2" NCoef="0" IVar="-1" Cut="0.0000000000000000e+00" cType="1" res="5.8405275922268629e-06" rms="4.0786737203598022e-01" purity="7.1711474657058716e-01" nType="-99"/>
          <Node pos="r" depth="2" NCoef="0" IVar="-1" Cut="0.0000000000000000e+00" cType="1" res="-4.7387843951582909e-03" rms="4.7641783952713013e-01" purity="4.4483768939971924e-01" nType="-99"/>
        </Node>
        <Node pos="r" depth="1" NCoef="0" IVar="18" Cut="1.2857142686843872e+00" cType="0" res="2.7372606564313173e-03" rms="4.1122189164161682e-01" purity="3.9384254813194275e-01" nType="0">
          <Node pos="l" depth="2" NCoef="0" IVar="-1" Cut="0.0000000000000000e+00" cType="1" res="3.1925583607517183e-04" rms="4.0756633877754211e-01" purity="3.9670908451080322e-01" nType="-99"/>
          <Node pos="r" depth="2" NCoef="0" IVar="-1" Cut="0.0000000000000000e+00" cType="1" res="-6.6380212083458900e-03" rms="4.4220903515815735e-01" purity="3.2773527503013611e-01" nType="-99"/>
        </Node>
      </Node>
    </BinaryTree>
    <BinaryTree type="DecisionTree" boostWeight="1.0000000000000000e+00" itree="434">
      <Node pos="s" depth="0" NCoef="0" IVar="18" Cut="5.1428570747375488e+00" cType="1" res="-1.5078255906701088e-02" rms="4.0766876935958862e-01" purity="4.7377005219459534e-01" nType="0">
        <Node pos="l" depth="1" NCoef="0" IVar="15" Cut="4.7142858505249023e+00" cType="0" res="1.4704570174217224e-02" rms="4.0847262740135193e-01" purity="6.5506404638290405e-01" nType="0">
          <Node pos="l" depth="2" NCoef="0" IVar="-1" Cut="0.0000000000000000e+00" cType="1" res="1.4047925360500813e-03" rms="4.0557715296745300e-01" purity="6.5707820653915405e-01" nType="-99"/>
          <Node pos="r" depth="2" NCoef="0" IVar="-1" Cut="0.0000000000000000e+00" cType="1" res="-4.1592582128942013e-03" rms="4.1714775562286377e-01" purity="6.4354920387268066e-01" nType="-99"/>
        </Node>
        <Node pos="r" depth="1" NCoef="0" IVar="12" Cut="2.1428570747375488e+00" cType="1" res="-4.3401245027780533e-02" rms="4.0487548708915710e-01" purity="3.0136236548423767e-01" nType="0">
          <Node pos="l" depth="2" NCoef="0" IVar="-1" Cut="0.0000000000000000e+00" cType="1" res="3.3207907108590007e-06" rms="4.1272199153900146e-01" purity="3.2574430108070374e-01" nType="-99"/>
          <Node pos="r" depth="2" NCoef="0" IVar="-1" Cut="0.0000000000000000e+00" cType="1" res="-6.8532186560332775e-03" rms="3.0552911758422852e-01" purity="1.0646936297416687e-01" nType="-99"/>
        </Node>
      </Node>
    </BinaryTree>
    <BinaryTree type="DecisionTree" boostWeight="1.0000000000000000e+00" itree="435">
      <Node pos="s" depth="0" NCoef="0" IVar="15" Cut="2.2142856597900391e+01" cType="1" res="5.0711627118289471e-03" rms="4.1047430038452148e-01" purity="5.0414764881134033e-01" nType="0">
        <Node pos="l" depth="1" NCoef="0" IVar="20" Cut="2.4560720920562744e+00" cType="0" res="1.0893126949667931e-02" rms="4.2425173521041870e-01" purity="5.4409873485565186e-01" nType="0">
          <Node pos="l" depth="2" NCoef="0" IVar="-1" Cut="0.0000000000000000e+00" cType="1" res="4.6353801735676825e-04" rms="4.2213600873947144e-01" purity="5.5306434631347656e-01" nType="-99"/>
          <Node pos="r" depth="2" NCoef="0" IVar="-1" Cut="0.0000000000000000e+00" cType="1" res="-2.6859622448682785e-03" rms="4.4406428933143616e-01" purity="4.3585002422332764e-01" nType="-99"/>
        </Node>
        <Node pos="r" depth="1" NCoef="0" IVar="-1" Cut="0.0000000000000000e+00" cType="1" res="-6.4797359518706799e-03" rms="1.6249766945838928e-01" purity="2.8645150363445282e-02" nType="-99"/>
      </Node>
    </BinaryTree>
    <BinaryTree type="DecisionTree" boostWeight="1.0000000000000000e+00" itree="436">
      <Node pos="s" depth="0" NCoef="0" IVar="5" Cut="2.6076593399047852e+00" cType="1" res="1.7524469643831253e-02" rms="4.0604832768440247e-01" purity="5.2240407466888428e-01" nType="0">
        <Node pos="l" depth="1" NCoef="0" IVar="0" Cut="4.8572179675102234e-01" cType="0" res="2.8191935271024704e-02" rms="4.1671371459960938e-01" purity="5.9172767400741577e-01" nType="0">
          <Node pos="l" depth="2" NCoef="0" IVar="-1" Cut="0.0000000000000000e+00" cType="1" res="4.9199769273400307e-04" rms="4.0925839543342590e-01" purity="5.9563148021697998e-01" nType="-99"/>
          <Node pos="r" depth="2" NCoef="0" IVar="-1" Cut="0.0000000000000000e+00" cType="1" res="-3.7592977751046419e-03" rms="4.7371557354927063e-01" purity="5.5056709051132202e-01" nType="-99"/>
        </Node>
        <Node pos="r" depth="1" NCoef="0" IVar="6" Cut="2.4636690616607666e+00" cType="0" res="-3.8697581738233566e-02" rms="3.3891925215721130e-01" purity="1.5703941881656647e-01" nType="0">
          <Node pos="l" depth="2" NCoef="0" IVar="-1" Cut="0.0000000000000000e+00" cType="1" res="-7.1244704304262996e-04" rms="3.2944864034652710e-01" purity="1.5905684232711792e-01" nType="-99"/>
          <Node pos="r" depth="2" NCoef="0" IVar="-1" Cut="0.0000000000000000e+00" cType="1" res="-3.0351467430591583e-03" rms="3.5099825263023376e-01" purity="1.5249724686145782e-01" nType="-99"/>
        </Node>
      </Node>
    </BinaryTree>
    <BinaryTree type="DecisionTree" boostWeight="1.0000000000000000e+00" itree="437">
      <Node pos="s" depth="0" NCoef="0" IVar="8" Cut="2.3476190567016602e+00" cType="1" res="9.0174572542309761e-03" rms="4.0784642100334167e-01" purity="5.0799113512039185e-01" nType="0">
        <Node pos="l" depth="1" NCoef="0" IVar="8" Cut="1.4428571462631226e+00" cType="1" res="1.6423217952251434e-02" rms="4.0456542372703552e-01" purity="5.1743721961975098e-01" nType="0">
          <Node pos="l" depth="2" NCoef="0" IVar="-1" Cut="0.0000000000000000e+00" cType="1" res="9.4968832854647189e-05" rms="4.0300726890563965e-01" purity="5.3180044889450073e-01" nType="-99"/>
          <Node pos="r" depth="2" NCoef="0" IVar="-1" Cut="0.0000000000000000e+00" cType="1" res="-6.8270089104771614e-04" rms="4.0974369645118713e-01" purity="3.7322834134101868e-01" nType="-99"/>
        </Node>
        <Node pos="r" depth="1" NCoef="0" IVar="4" Cut="1.5153899192810059e+00" cType="1" res="-6.3617430627346039e-02" rms="4.3205124139785767e-01" purity="4.1534486413002014e-01" nType="0">
          <Node pos="l" depth="2" NCoef="0" IVar="-1" Cut="0.0000000000000000e+00" cType="1" res="-5.3659388795495033e-03" rms="4.4182333350181580e-01" purity="4.8514950275421143e-01" nType="-99"/>
          <Node pos="r" depth="2" NCoef="0" IVar="-1" Cut="0.0000000000000000e+00" cType="1" res="1.2448296183720231e-03" rms="4.1670787334442139e-01" purity="3.6212342977523804e-01" nType="-99"/>
        </Node>
      </Node>
    </BinaryTree>
    <BinaryTree type="DecisionTree" boostWeight="1.0000000000000000e+00" itree="438">
      <Node pos="s" depth="0" NCoef="0" IVar="3" Cut="5.8571429252624512e+00" cType="0" res="-7.9881036654114723e-03" rms="4.0997496247291565e-01" purity="4.8540630936622620e-01" nType="0">
        <Node pos="l" depth="1" NCoef="0" IVar="17" Cut="1.9210302352905273e+01" cType="1" res="1.4045888185501099e-01" rms="4.0713068842887878e-01" purity="6.7840594053268433e-01" nType="0">
          <Node pos="l" depth="2" NCoef="0" IVar="-1" Cut="0.0000000000000000e+00" cType="1" res="1.1643863283097744e-02" rms="2.4417607486248016e-01" purity="8.9425867795944214e-01" nType="-99"/>
          <Node pos="r" depth="2" NCoef="0" IVar="-1" Cut="0.0000000000000000e+00" cType="1" res="-2.2471600677818060e-03" rms="4.5137858390808105e-01" purity="5.3116935491561890e-01" nType="-99"/>
        </Node>
        <Node pos="r" depth="1" NCoef="0" IVar="4" Cut="9.2620766162872314e-01" cType="1" res="-1.3877423480153084e-02" rms="4.0897765755653381e-01" purity="4.7774940729141235e-01" nType="0">
          <Node pos="l" depth="2" NCoef="0" IVar="-1" Cut="0.0000000000000000e+00" cType="1" res="1.0578542016446590e-02" rms="1.9841217994689941e-01" purity="9.7128760814666748e-01" nType="-99"/>
          <Node pos="r" depth="2" NCoef="0" IVar="-1" Cut="0.0000000000000000e+00" cType="1" res="-3.6068307235836983e-04" rms="4.1304421424865723e-01" purity="4.6268260478973389e-01" nType="-99"/>
        </Node>
      </Node>
    </BinaryTree>
    <BinaryTree type="DecisionTree" boostWeight="1.0000000000000000e+00" itree="439">
      <Node pos="s" depth="0" NCoef="0" IVar="9" Cut="-5.7142858505249023e+00" cType="1" res="-4.0703029371798038e-03" rms="4.1517308354377747e-01" purity="5.0240355730056763e-01" nType="0">
        <Node pos="l" depth="1" NCoef="0" IVar="7" Cut="-9.5166664123535156e+00" cType="1" res="-8.2234770059585571e-02" rms="4.2028769850730896e-01" purity="5.5610853433609009e-01" nType="0">
          <Node pos="l" depth="2" NCoef="0" IVar="-1" Cut="0.0000000000000000e+00" cType="1" res="4.0827458724379539e-03" rms="3.3478826284408569e-01" purity="8.6654627323150635e-01" nType="-99"/>
          <Node pos="r" depth="2" NCoef="0" IVar="-1" Cut="0.0000000000000000e+00" cType="1" res="-3.7886793725192547e-03" rms="4.3250399827957153e-01" purity="4.4556039571762085e-01" nType="-99"/>
        </Node>
        <Node pos="r" depth="1" NCoef="0" IVar="9" Cut="-1.9000000953674316e+00" cType="1" res="2.1954013500362635e-03" rms="4.1412216424942017e-01" purity="4.9809852242469788e-01" nType="0">
          <Node pos="l" depth="2" NCoef="0" IVar="-1" Cut="0.0000000000000000e+00" cType="1" res="1.6574768815189600e-03" rms="3.9370492100715637e-01" purity="7.0165449380874634e-01" nType="-99"/>
          <Node pos="r" depth="2" NCoef="0" IVar="-1" Cut="0.0000000000000000e+00" cType="1" res="-1.6736076213419437e-04" rms="4.1493269801139832e-01" purity="4.7537189722061157e-01" nType="-99"/>
        </Node>
      </Node>
    </BinaryTree>
    <BinaryTree type="DecisionTree" boostWeight="1.0000000000000000e+00" itree="440">
      <Node pos="s" depth="0" NCoef="0" IVar="4" Cut="1.7794172763824463e+00" cType="1" res="4.3407171033322811e-03" rms="4.0918472409248352e-01" purity="4.9995008111000061e-01" nType="0">
        <Node pos="l" depth="1" NCoef="0" IVar="7" Cut="2.6785714626312256e+00" cType="1" res="3.4162648022174835e-02" rms="3.8580226898193359e-01" purity="7.5140196084976196e-01" nType="0">
          <Node pos="l" depth="2" NCoef="0" IVar="-1" Cut="0.0000000000000000e+00" cType="1" res="9.1347243869677186e-04" rms="3.7747821211814880e-01" purity="7.7229976654052734e-01" nType="-99"/>
          <Node pos="r" depth="2" NCoef="0" IVar="-1" Cut="0.0000000000000000e+00" cType="1" res="-5.8153490535914898e-03" rms="4.5894929766654968e-01" purity="4.7211000323295593e-01" nType="-99"/>
        </Node>
        <Node pos="r" depth="1" NCoef="0" IVar="4" Cut="2.3130652904510498e+00" cType="1" res="-1.4370405115187168e-02" rms="4.2212218046188354e-01" purity="3.4218204021453857e-01" nType="0">
          <Node pos="l" depth="2" NCoef="0" IVar="-1" Cut="0.0000000000000000e+00" cType="1" res="-9.0388825628906488e-04" rms="4.4793254137039185e-01" purity="4.0186116099357605e-01" nType="-99"/>
          <Node pos="r" depth="2" NCoef="0" IVar="-1" Cut="0.0000000000000000e+00" cType="1" res="4.3959496542811394e-04" rms="3.9237928390502930e-01" purity="2.8642901778221130e-01" nType="-99"/>
        </Node>
      </Node>
    </BinaryTree>
    <BinaryTree type="DecisionTree" boostWeight="1.0000000000000000e+00" itree="441">
      <Node pos="s" depth="0" NCoef="0" IVar="5" Cut="2.6387989521026611e+00" cType="1" res="-9.9561852402985096e-04" rms="4.0878573060035706e-01" purity="5.0053304433822632e-01" nType="0">
        <Node pos="l" depth="1" NCoef="0" IVar="6" Cut="9.3405079841613770e-01" cType="1" res="8.4351608529686928e-03" rms="4.2037820816040039e-01" purity="5.6200605630874634e-01" nType="0">
          <Node pos="l" depth="2" NCoef="0" IVar="-1" Cut="0.0000000000000000e+00" cType="1" res="1.0628950549289584e-03" rms="3.3514523506164551e-01" purity="8.2632666826248169e-01" nType="-99"/>
          <Node pos="r" depth="2" NCoef="0" IVar="-1" Cut="0.0000000000000000e+00" cType="1" res="6.9903537223581225e-05" rms="4.2593774199485779e-01" purity="5.3877335786819458e-01" nType="-99"/>
        </Node>
        <Node pos="r" depth="1" NCoef="0" IVar="6" Cut="2.4636690616607666e+00" cType="0" res="-5.5855698883533478e-02" rms="3.2812204957008362e-01" purity="1.4293675124645233e-01" nType="0">
          <Node pos="l" depth="2" NCoef="0" IVar="-1" Cut="0.0000000000000000e+00" cType="1" res="-8.2100648432970047e-04" rms="3.2270702719688416e-01" purity="1.4871065318584442e-01" nType="-99"/>
          <Node pos="r" depth="2" NCoef="0" IVar="-1" Cut="0.0000000000000000e+00" cType="1" res="-2.9002770315855742e-03" rms="3.3145612478256226e-01" purity="1.3077722489833832e-01" nType="-99"/>
        </Node>
      </Node>
    </BinaryTree>
    <BinaryTree type="DecisionTree" boostWeight="1.0000000000000000e+00" itree="442">
      <Node pos="s" depth="0" NCoef="0" IVar="9" Cut="-1.1428571701049805e+01" cType="1" res="9.6730672521516681e-04" rms="4.1605523228645325e-01" purity="5.1545941829681396e-01" nType="0">
        <Node pos="l" depth="1" NCoef="0" IVar="-1" Cut="0.0000000000000000e+00" cType="1" res="5.5058165453374386e-03" rms="2.4649026989936829e-01" purity="9.6080881357192993e-01" nType="-99"/>
        <Node pos="r" depth="1" NCoef="0" IVar="12" Cut="1.4285714924335480e-01" cType="1" res="-3.3382612746208906e-03" rms="4.1814103722572327e-01" purity="5.0527501106262207e-01" nType="0">
          <Node pos="l" depth="2" NCoef="0" IVar="-1" Cut="0.0000000000000000e+00" cType="1" res="-2.8401350136846304e-03" rms="3.9136463403701782e-01" purity="5.2688908576965332e-01" nType="-99"/>
          <Node pos="r" depth="2" NCoef="0" IVar="-1" Cut="0.0000000000000000e+00" cType="1" res="2.9113981872797012e-04" rms="4.2307850718498230e-01" purity="5.0022357702255249e-01" nType="-99"/>
        </Node>
      </Node>
    </BinaryTree>
    <BinaryTree type="DecisionTree" boostWeight="1.0000000000000000e+00" itree="443">
      <Node pos="s" depth="0" NCoef="0" IVar="20" Cut="4.1526027679443359e+01" cType="0" res="3.9590001106262207e-03" rms="4.0635371208190918e-01" purity="5.0317138433456421e-01" nType="0">
        <Node pos="l" depth="1" NCoef="0" IVar="3" Cut="3.3333332538604736e+00" cType="1" res="7.8214928507804871e-02" rms="3.8937470316886902e-01" purity="6.1268132925033569e-01" nType="0">
          <Node pos="l" depth="2" NCoef="0" IVar="-1" Cut="0.0000000000000000e+00" cType="1" res="3.8936429191380739e-03" rms="3.4966304898262024e-01" purity="6.8333798646926880e-01" nType="-99"/>
          <Node pos="r" depth="2" NCoef="0" IVar="-1" Cut="0.0000000000000000e+00" cType="1" res="-4.0010050870478153e-03" rms="4.3705603480339050e-01" purity="4.0790447592735291e-01" nType="-99"/>
        </Node>
        <Node pos="r" depth="1" NCoef="0" IVar="18" Cut="1.2857142686843872e+00" cType="1" res="-5.3904652595520020e-03" rms="4.0748348832130432e-01" purity="4.8938313126564026e-01" nType="0">
          <Node pos="l" depth="2" NCoef="0" IVar="-1" Cut="0.0000000000000000e+00" cType="1" res="-4.4527617283165455e-03" rms="4.2786484956741333e-01" purity="5.5888319015502930e-01" nType="-99"/>
          <Node pos="r" depth="2" NCoef="0" IVar="-1" Cut="0.0000000000000000e+00" cType="1" res="-1.8144695786759257e-04" rms="4.0534707903862000e-01" purity="4.8506250977516174e-01" nType="-99"/>
        </Node>
      </Node>
    </BinaryTree>
    <BinaryTree type="DecisionTree" boostWeight="1.0000000000000000e+00" itree="444">
      <Node pos="s" depth="0" NCoef="0" IVar="20" Cut="7.3729797363281250e+01" cType="1" res="1.6658643260598183e-02" rms="4.0383374691009521e-01" purity="5.1480633020401001e-01" nType="0">
        <Node pos="l" depth="1" NCoef="0" IVar="5" Cut="1.0994994640350342e+00" cType="1" res="2.2359674796462059e-02" rms="4.0233272314071655e-01" purity="5.2110040187835693e-01" nType="0">
          <Node pos="l" depth="2" NCoef="0" IVar="-1" Cut="0.0000000000000000e+00" cType="1" res="7.3600449832156301e-04" rms="3.6073625087738037e-01" purity="7.9139494895935059e-01" nType="-99"/>
          <Node pos="r" depth="2" NCoef="0" IVar="-1" Cut="0.0000000000000000e+00" cType="1" res="-1.2500194134190679e-04" rms="4.1277056932449341e-01" purity="4.4095048308372498e-01" nType="-99"/>
        </Node>
        <Node pos="r" depth="1" NCoef="0" IVar="-1" Cut="0.0000000000000000e+00" cType="1" res="-5.0479858182370663e-03" rms="4.0429183840751648e-01" purity="2.8876614570617676e-01" nType="-99"/>
      </Node>
    </BinaryTree>
    <BinaryTree type="DecisionTree" boostWeight="1.0000000000000000e+00" itree="445">
      <Node pos="s" depth="0" NCoef="0" IVar="9" Cut="-1.4285714626312256e+00" cType="1" res="-1.7554007470607758e-02" rms="4.1108721494674683e-01" purity="4.7699129581451416e-01" nType="0">
        <Node pos="l" depth="1" NCoef="0" IVar="15" Cut="7.2857141494750977e+00" cType="1" res="-7.5871519744396210e-02" rms="4.3621534109115601e-01" purity="5.3641200065612793e-01" nType="0">
          <Node pos="l" depth="2" NCoef="0" IVar="-1" Cut="0.0000000000000000e+00" cType="1" res="6.7422022111713886e-03" rms="4.0373483300209045e-01" purity="7.8096246719360352e-01" nType="-99"/>
          <Node pos="r" depth="2" NCoef="0" IVar="-1" Cut="0.0000000000000000e+00" cType="1" res="-2.6300973258912563e-03" rms="4.4447547197341919e-01" purity="3.9002335071563721e-01" nType="-99"/>
        </Node>
        <Node pos="r" depth="1" NCoef="0" IVar="12" Cut="1.4285714924335480e-01" cType="0" res="-3.5639744601212442e-04" rms="4.0176528692245483e-01" purity="4.5946839451789856e-01" nType="0">
          <Node pos="l" depth="2" NCoef="0" IVar="-1" Cut="0.0000000000000000e+00" cType="1" res="7.1573437890037894e-04" rms="4.0463852882385254e-01" purity="4.6135711669921875e-01" nType="-99"/>
          <Node pos="r" depth="2" NCoef="0" IVar="-1" Cut="0.0000000000000000e+00" cType="1" res="-4.4646095484495163e-03" rms="3.7694904208183289e-01" purity="4.4882658123970032e-01" nType="-99"/>
        </Node>
      </Node>
    </BinaryTree>
    <BinaryTree type="DecisionTree" boostWeight="1.0000000000000000e+00" itree="446">
      <Node pos="s" depth="0" NCoef="0" IVar="5" Cut="1.0994995832443237e+00" cType="1" res="-2.2841475438326597e-03" rms="4.1076377034187317e-01" purity="5.0092339515686035e-01" nType="0">
        <Node pos="l" depth="1" NCoef="0" IVar="0" Cut="8.8144743442535400e-01" cType="0" res="4.1486743837594986e-02" rms="3.7691628932952881e-01" purity="7.6890969276428223e-01" nType="0">
          <Node pos="l" depth="2" NCoef="0" IVar="-1" Cut="0.0000000000000000e+00" cType="1" res="2.5588350836187601e-03" rms="3.0141019821166992e-01" purity="8.5274225473403931e-01" nType="-99"/>
          <Node pos="r" depth="2" NCoef="0" IVar="-1" Cut="0.0000000000000000e+00" cType="1" res="-1.3121358351781964e-03" rms="4.1550338268280029e-01" purity="7.0733612775802612e-01" nType="-99"/>
        </Node>
        <Node pos="r" depth="1" NCoef="0" IVar="12" Cut="1.4285714924335480e-01" cType="0" res="-1.5403477475047112e-02" rms="4.1948962211608887e-01" purity="4.2060059309005737e-01" nType="0">
          <Node pos="l" depth="2" NCoef="0" IVar="-1" Cut="0.0000000000000000e+00" cType="1" res="4.7035020543262362e-04" rms="4.2101886868476868e-01" purity="4.2894822359085083e-01" nType="-99"/>
          <Node pos="r" depth="2" NCoef="0" IVar="-1" Cut="0.0000000000000000e+00" cType="1" res="-4.1514844633638859e-03" rms="4.0257772803306580e-01" purity="3.7293544411659241e-01" nType="-99"/>
        </Node>
      </Node>
    </BinaryTree>
    <BinaryTree type="DecisionTree" boostWeight="1.0000000000000000e+00" itree="447">
      <Node pos="s" depth="0" NCoef="0" IVar="6" Cut="1.9788415431976318e+00" cType="1" res="-1.5789346769452095e-02" rms="4.2419552803039551e-01" purity="4.9560710787773132e-01" nType="0">
        <Node pos="l" depth="1" NCoef="0" IVar="6" Cut="9.4821739196777344e-01" cType="1" res="-3.9898980408906937e-02" rms="4.3604373931884766e-01" purity="5.8698612451553345e-01" nType="0">
          <Node pos="l" depth="2" NCoef="0" IVar="-1" Cut="0.0000000000000000e+00" cType="1" res="2.4094346445053816e-03" rms="3.9729866385459900e-01" purity="7.7685028314590454e-01" nType="-99"/>
          <Node pos="r" depth="2" NCoef="0" IVar="-1" Cut="0.0000000000000000e+00" cType="1" res="-6.7545718047767878e-04" rms="4.4014129042625427e-01" purity="5.5959868431091309e-01" nType="-99"/>
        </Node>
        <Node pos="r" depth="1" NCoef="0" IVar="18" Cut="6.4285712242126465e+00" cType="1" res="2.8748108074069023e-02" rms="3.9756304025650024e-01" purity="3.2680368423461914e-01" nType="0">
          <Node pos="l" depth="2" NCoef="0" IVar="-1" Cut="0.0000000000000000e+00" cType="1" res="1.4269492821767926e-03" rms="4.5940381288528442e-01" purity="4.8238268494606018e-01" nType="-99"/>
          <Node pos="r" depth="2" NCoef="0" IVar="-1" Cut="0.0000000000000000e+00" cType="1" res="-3.2719976734369993e-03" rms="2.5961092114448547e-01" purity="7.7167466282844543e-02" nType="-99"/>
        </Node>
      </Node>
    </BinaryTree>
    <BinaryTree type="DecisionTree" boostWeight="1.0000000000000000e+00" itree="448">
      <Node pos="s" depth="0" NCoef="0" IVar="15" Cut="1.1142857551574707e+01" cType="1" res="9.1067934408783913e-03" rms="4.0244042873382568e-01" purity="5.0658297538757324e-01" nType="0">
        <Node pos="l" depth="1" NCoef="0" IVar="5" Cut="9.7481417655944824e-01" cType="1" res="3.4029137343168259e-02" rms="3.7873178720474243e-01" purity="6.8240302801132202e-01" nType="0">
          <Node pos="l" depth="2" NCoef="0" IVar="-1" Cut="0.0000000000000000e+00" cType="1" res="8.0934949219226837e-03" rms="2.6417806744575500e-01" purity="9.1201943159103394e-01" nType="-99"/>
          <Node pos="r" depth="2" NCoef="0" IVar="-1" Cut="0.0000000000000000e+00" cType="1" res="-4.4122000690549612e-04" rms="4.0840345621109009e-01" purity="6.0120648145675659e-01" nType="-99"/>
        </Node>
        <Node pos="r" depth="1" NCoef="0" IVar="15" Cut="1.2857142448425293e+01" cType="1" res="-8.6279036477208138e-03" rms="4.1758945584297180e-01" purity="3.8146972656250000e-01" nType="0">
          <Node pos="l" depth="2" NCoef="0" IVar="-1" Cut="0.0000000000000000e+00" cType="1" res="-6.3008428551256657e-03" rms="4.7762572765350342e-01" purity="4.4866722822189331e-01" nType="-99"/>
          <Node pos="r" depth="2" NCoef="0" IVar="-1" Cut="0.0000000000000000e+00" cType="1" res="1.7637839482631534e-04" rms="4.0773120522499084e-01" purity="3.7357142567634583e-01" nType="-99"/>
        </Node>
      </Node>
    </BinaryTree>
    <BinaryTree type="DecisionTree" boostWeight="1.0000000000000000e+00" itree="449">
      <Node pos="s" depth="0" NCoef="0" IVar="4" Cut="3.3093612194061279e+00" cType="1" res="1.6723128035664558e-02" rms="3.9928364753723145e-01" purity="5.1114201545715332e-01" nType="0">
        <Node pos="l" depth="1" NCoef="0" IVar="12" Cut="2.1428570747375488e+00" cType="1" res="2.3846339434385300e-02" rms="4.0854567289352417e-01" purity="5.4874086380004883e-01" nType="0">
          <Node pos="l" depth="2" NCoef="0" IVar="-1" Cut="0.0000000000000000e+00" cType="1" res="5.9258233522996306e-04" rms="3.9867952466011047e-01" purity="5.6456255912780762e-01" nType="-99"/>
          <Node pos="r" depth="2" NCoef="0" IVar="-1" Cut="0.0000000000000000e+00" cType="1" res="-1.5621831407770514e-03" rms="4.4981306791305542e-01" purity="4.7130590677261353e-01" nType="-99"/>
        </Node>
        <Node pos="r" depth="1" NCoef="0" IVar="-1" Cut="0.0000000000000000e+00" cType="1" res="-3.6951517686247826e-03" rms="2.5435465574264526e-01" purity="7.2742611169815063e-02" nType="-99"/>
      </Node>
    </BinaryTree>
    <BinaryTree type="DecisionTree" boostWeight="1.0000000000000000e+00" itree="450">
      <Node pos="s" depth="0" NCoef="0" IVar="3" Cut="5.8571429252624512e+00" cType="0" res="-6.2667643651366234e-03" rms="4.1205075383186340e-01" purity="4.9221247434616089e-01" nType="0">
        <Node pos="l" depth="1" NCoef="0" IVar="17" Cut="1.9507371902465820e+01" cType="1" res="1.4246104657649994e-01" rms="3.7432858347892761e-01" purity="6.4421874284744263e-01" nType="0">
          <Node pos="l" depth="2" NCoef="0" IVar="-1" Cut="0.0000000000000000e+00" cType="1" res="1.1454556137323380e-02" rms="3.0993166565895081e-01" purity="8.5422211885452271e-01" nType="-99"/>
          <Node pos="r" depth="2" NCoef="0" IVar="-1" Cut="0.0000000000000000e+00" cType="1" res="-2.3394611198455095e-03" rms="3.8674861192703247e-01" purity="5.0022709369659424e-01" nType="-99"/>
        </Node>
        <Node pos="r" depth="1" NCoef="0" IVar="6" Cut="8.8420069217681885e-01" cType="1" res="-1.2783599086105824e-02" rms="4.1240018606185913e-01" purity="4.8555201292037964e-01" nType="0">
          <Node pos="l" depth="2" NCoef="0" IVar="-1" Cut="0.0000000000000000e+00" cType="1" res="-1.4217515708878636e-03" rms="4.6580642461776733e-01" purity="6.0003381967544556e-01" nType="-99"/>
          <Node pos="r" depth="2" NCoef="0" IVar="-1" Cut="0.0000000000000000e+00" cType="1" res="-1.8335496133659035e-04" rms="4.0725979208946228e-01" purity="4.7674188017845154e-01" nType="-99"/>
        </Node>
      </Node>
    </BinaryTree>
    <BinaryTree type="DecisionTree" boostWeight="1.0000000000000000e+00" itree="451">
      <Node pos="s" depth="0" NCoef="0" IVar="21" Cut="4.2380952835083008e+00" cType="1" res="-4.8606670461595058e-03" rms="4.1396167874336243e-01" purity="4.9581331014633179e-01" nType="0">
        <Node pos="l" depth="1" NCoef="0" IVar="0" Cut="3.7309458851814270e-01" cType="0" res="-2.7021288871765137e-02" rms="4.1511276364326477e-01" purity="5.5058771371841431e-01" nType="0">
          <Node pos="l" depth="2" NCoef="0" IVar="-1" Cut="0.0000000000000000e+00" cType="1" res="-5.7755905436351895e-04" rms="4.0825256705284119e-01" purity="5.5294716358184814e-01" nType="-99"/>
          <Node pos="r" depth="2" NCoef="0" IVar="-1" Cut="0.0000000000000000e+00" cType="1" res="-4.2865844443440437e-03" rms="4.7862669825553894e-01" purity="5.1998358964920044e-01" nType="-99"/>
        </Node>
        <Node pos="r" depth="1" NCoef="0" IVar="15" Cut="1.8571428298950195e+01" cType="1" res="3.0617836862802505e-02" rms="4.0962356328964233e-01" purity="4.0812110900878906e-01" nType="0">
          <Node pos="l" depth="2" NCoef="0" IVar="-1" Cut="0.0000000000000000e+00" cType="1" res="2.2719306871294975e-03" rms="4.6521607041358948e-01" purity="5.7904851436614990e-01" nType="-99"/>
          <Node pos="r" depth="2" NCoef="0" IVar="-1" Cut="0.0000000000000000e+00" cType="1" res="-3.3330044243484735e-03" rms="2.6176887750625610e-01" purity="7.8388199210166931e-02" nType="-99"/>
        </Node>
      </Node>
    </BinaryTree>
    <BinaryTree type="DecisionTree" boostWeight="1.0000000000000000e+00" itree="452">
      <Node pos="s" depth="0" NCoef="0" IVar="18" Cut="1.4285714626312256e+00" cType="1" res="-1.0924216359853745e-02" rms="4.1314345598220825e-01" purity="4.8923248052597046e-01" nType="0">
        <Node pos="l" depth="1" NCoef="0" IVar="10" Cut="1.7940759658813477e+00" cType="1" res="-1.2416201084852219e-01" rms="4.3439984321594238e-01" purity="5.4263341426849365e-01" nType="0">
          <Node pos="l" depth="2" NCoef="0" IVar="-1" Cut="0.0000000000000000e+00" cType="1" res="-5.6616282090544701e-03" rms="3.9720538258552551e-01" purity="7.5056505203247070e-01" nType="-99"/>
          <Node pos="r" depth="2" NCoef="0" IVar="-1" Cut="0.0000000000000000e+00" cType="1" res="-3.0463233124464750e-03" rms="4.4730910658836365e-01" purity="3.5712772607803345e-01" nType="-99"/>
        </Node>
        <Node pos="r" depth="1" NCoef="0" IVar="12" Cut="2.1428570747375488e+00" cType="0" res="-3.1986704561859369e-03" rms="4.1051661968231201e-01" purity="4.8558926582336426e-01" nType="0">
          <Node pos="l" depth="2" NCoef="0" IVar="-1" Cut="0.0000000000000000e+00" cType="1" res="-1.0615134378895164e-03" rms="4.3029361963272095e-01" purity="5.1902186870574951e-01" nType="-99"/>
          <Node pos="r" depth="2" NCoef="0" IVar="-1" Cut="0.0000000000000000e+00" cType="1" res="3.0780053930357099e-04" rms="4.0659061074256897e-01" purity="4.8035761713981628e-01" nType="-99"/>
        </Node>
      </Node>
    </BinaryTree>
    <BinaryTree type="DecisionTree" boostWeight="1.0000000000000000e+00" itree="453">
      <Node pos="s" depth="0" NCoef="0" IVar="21" Cut="4.2380952835083008e+00" cType="1" res="-1.1428359430283308e-03" rms="4.1636440157890320e-01" purity="5.0466150045394897e-01" nType="0">
        <Node pos="l" depth="1" NCoef="0" IVar="7" Cut="-1.1809518337249756e+00" cType="1" res="-1.8988268449902534e-02" rms="4.1236829757690430e-01" purity="5.5647325515747070e-01" nType="0">
          <Node pos="l" depth="2" NCoef="0" IVar="-1" Cut="0.0000000000000000e+00" cType="1" res="2.7081584557890892e-03" rms="3.8011899590492249e-01" purity="7.3730218410491943e-01" nType="-99"/>
          <Node pos="r" depth="2" NCoef="0" IVar="-1" Cut="0.0000000000000000e+00" cType="1" res="-1.5985700301826000e-03" rms="4.1758632659912109e-01" purity="5.0734245777130127e-01" nType="-99"/>
        </Node>
        <Node pos="r" depth="1" NCoef="0" IVar="15" Cut="1.8428571701049805e+01" cType="1" res="2.7665184810757637e-02" rms="4.2114302515983582e-01" purity="4.2102146148681641e-01" nType="0">
          <Node pos="l" depth="2" NCoef="0" IVar="-1" Cut="0.0000000000000000e+00" cType="1" res="2.1885028108954430e-03" rms="4.7541201114654541e-01" purity="5.7701605558395386e-01" nType="-99"/>
          <Node pos="r" depth="2" NCoef="0" IVar="-1" Cut="0.0000000000000000e+00" cType="1" res="-3.2907703425735235e-03" rms="2.5390627980232239e-01" purity="7.4420370161533356e-02" nType="-99"/>
        </Node>
      </Node>
    </BinaryTree>
    <BinaryTree type="DecisionTree" boostWeight="1.0000000000000000e+00" itree="454">
      <Node pos="s" depth="0" NCoef="0" IVar="5" Cut="4.3625536561012268e-01" cType="1" res="-4.2254218715243042e-04" rms="4.1202226281166077e-01" purity="5.0942343473434448e-01" nType="0">
        <Node pos="l" depth="1" NCoef="0" IVar="-1" Cut="0.0000000000000000e+00" cType="1" res="1.5230956487357616e-02" rms="1.3281314074993134e-01" purity="1.0000000000000000e+00" nType="-99"/>
        <Node pos="r" depth="1" NCoef="0" IVar="6" Cut="2.2160398960113525e+00" cType="1" res="-3.7505894433706999e-03" rms="4.1434225440025330e-01" purity="5.0110000371932983e-01" nType="0">
          <Node pos="l" depth="2" NCoef="0" IVar="-1" Cut="0.0000000000000000e+00" cType="1" res="-5.6955427862703800e-04" rms="4.2463001608848572e-01" purity="5.7178866863250732e-01" nType="-99"/>
          <Node pos="r" depth="2" NCoef="0" IVar="-1" Cut="0.0000000000000000e+00" cType="1" res="5.7686009677127004e-04" rms="3.8062742352485657e-01" purity="2.9783201217651367e-01" nType="-99"/>
        </Node>
      </Node>
    </BinaryTree>
    <BinaryTree type="DecisionTree" boostWeight="1.0000000000000000e+00" itree="455">
      <Node pos="s" depth="0" NCoef="0" IVar="15" Cut="1.1142857551574707e+01" cType="1" res="-1.2642081128433347e-03" rms="4.0832889080047607e-01" purity="5.0056594610214233e-01" nType="0">
        <Node pos="l" depth="1" NCoef="0" IVar="5" Cut="1.3610047101974487e+00" cType="1" res="3.1239200383424759e-02" rms="3.7425222992897034e-01" purity="6.6719394922256470e-01" nType="0">
          <Node pos="l" depth="2" NCoef="0" IVar="-1" Cut="0.0000000000000000e+00" cType="1" res="5.3972131572663784e-03" rms="3.2324278354644775e-01" purity="8.5140341520309448e-01" nType="-99"/>
          <Node pos="r" depth="2" NCoef="0" IVar="-1" Cut="0.0000000000000000e+00" cType="1" res="-1.4696263242512941e-03" rms="4.1456553339958191e-01" purity="4.7904545068740845e-01" nType="-99"/>
        </Node>
        <Node pos="r" depth="1" NCoef="0" IVar="13" Cut="2.1946237981319427e-01" cType="1" res="-2.4661978706717491e-02" rms="4.2967599630355835e-01" purity="3.8061776757240295e-01" nType="0">
          <Node pos="l" depth="2" NCoef="0" IVar="-1" Cut="0.0000000000000000e+00" cType="1" res="4.1722272726474330e-05" rms="4.2364659905433655e-01" purity="3.8857057690620422e-01" nType="-99"/>
          <Node pos="r" depth="2" NCoef="0" IVar="-1" Cut="0.0000000000000000e+00" cType="1" res="-8.4137413650751114e-03" rms="4.5463573932647705e-01" purity="2.6777184009552002e-01" nType="-99"/>
        </Node>
      </Node>
    </BinaryTree>
    <BinaryTree type="DecisionTree" boostWeight="1.0000000000000000e+00" itree="456">
      <Node pos="s" depth="0" NCoef="0" IVar="0" Cut="1.7703129053115845e+00" cType="1" res="-1.6140862135216594e-03" rms="4.1807317733764648e-01" purity="5.0701153278350830e-01" nType="0">
        <Node pos="l" depth="1" NCoef="0" IVar="20" Cut="3.7537380218505859e+01" cType="0" res="-1.5834277495741844e-02" rms="4.2237240076065063e-01" purity="5.7773035764694214e-01" nType="0">
          <Node pos="l" depth="2" NCoef="0" IVar="-1" Cut="0.0000000000000000e+00" cType="1" res="4.2220805771648884e-03" rms="3.9206448197364807e-01" purity="6.7549294233322144e-01" nType="-99"/>
          <Node pos="r" depth="2" NCoef="0" IVar="-1" Cut="0.0000000000000000e+00" cType="1" res="-1.0653136996552348e-03" rms="4.2555165290832520e-01" purity="5.6331300735473633e-01" nType="-99"/>
        </Node>
        <Node pos="r" depth="1" NCoef="0" IVar="3" Cut="2.4285714626312256e+00" cType="0" res="2.6293896138668060e-02" rms="4.0806645154953003e-01" purity="3.6822155117988586e-01" nType="0">
          <Node pos="l" depth="2" NCoef="0" IVar="-1" Cut="0.0000000000000000e+00" cType="1" res="1.4500721590593457e-03" rms="4.2160764336585999e-01" purity="4.4297510385513306e-01" nType="-99"/>
          <Node pos="r" depth="2" NCoef="0" IVar="-1" Cut="0.0000000000000000e+00" cType="1" res="-5.4973736405372620e-04" rms="3.9627179503440857e-01" purity="3.2128202915191650e-01" nType="-99"/>
        </Node>
      </Node>
    </BinaryTree>
    <BinaryTree type="DecisionTree" boostWeight="1.0000000000000000e+00" itree="457">
      <Node pos="s" depth="0" NCoef="0" IVar="20" Cut="3.0746324539184570e+01" cType="1" res="9.0641910210251808e-03" rms="4.0121215581893921e-01" purity="5.0828766822814941e-01" nType="0">
        <Node pos="l" depth="1" NCoef="0" IVar="18" Cut="5.2380952835083008e+00" cType="1" res="2.6866212487220764e-02" rms="3.9136302471160889e-01" purity="5.1106292009353638e-01" nType="0">
          <Node pos="l" depth="2" NCoef="0" IVar="-1" Cut="0.0000000000000000e+00" cType="1" res="1.2265989789739251e-03" rms="3.8488367199897766e-01" purity="7.1629470586776733e-01" nType="-99"/>
          <Node pos="r" depth="2" NCoef="0" IVar="-1" Cut="0.0000000000000000e+00" cType="1" res="-1.1066216975450516e-03" rms="3.9430186152458191e-01" purity="3.1694379448890686e-01" nType="-99"/>
        </Node>
        <Node pos="r" depth="1" NCoef="0" IVar="5" Cut="7.3451811075210571e-01" cType="1" res="-4.7175806015729904e-02" rms="4.2599090933799744e-01" purity="4.9952030181884766e-01" nType="0">
          <Node pos="l" depth="2" NCoef="0" IVar="-1" Cut="0.0000000000000000e+00" cType="1" res="-1.3247490860521793e-02" rms="5.0406289100646973e-01" purity="5.3087705373764038e-01" nType="-99"/>
          <Node pos="r" depth="2" NCoef="0" IVar="-1" Cut="0.0000000000000000e+00" cType="1" res="3.9159489097073674e-04" rms="4.1099348664283752e-01" purity="4.9662885069847107e-01" nType="-99"/>
        </Node>
      </Node>
    </BinaryTree>
    <BinaryTree type="DecisionTree" boostWeight="1.0000000000000000e+00" itree="458">
      <Node pos="s" depth="0" NCoef="0" IVar="9" Cut="-7.1428570747375488e+00" cType="1" res="6.4547923393547535e-03" rms="4.1231334209442139e-01" purity="5.0571769475936890e-01" nType="0">
        <Node pos="l" depth="1" NCoef="0" IVar="5" Cut="1.2099866867065430e+00" cType="0" res="-7.9630970954895020e-02" rms="4.6375703811645508e-01" purity="6.0954153537750244e-01" nType="0">
          <Node pos="l" depth="2" NCoef="0" IVar="-1" Cut="0.0000000000000000e+00" cType="1" res="-6.9694267585873604e-04" rms="3.6403602361679077e-01" purity="6.6438961029052734e-01" nType="-99"/>
          <Node pos="r" depth="2" NCoef="0" IVar="-1" Cut="0.0000000000000000e+00" cType="1" res="-5.9581319801509380e-03" rms="4.6535140275955200e-01" purity="5.9132647514343262e-01" nType="-99"/>
        </Node>
        <Node pos="r" depth="1" NCoef="0" IVar="9" Cut="-6.7619049549102783e-01" cType="1" res="1.2058146297931671e-02" rms="4.0811151266098022e-01" purity="4.9895980954170227e-01" nType="0">
          <Node pos="l" depth="2" NCoef="0" IVar="-1" Cut="0.0000000000000000e+00" cType="1" res="-1.3775355182588100e-03" rms="4.3032145500183105e-01" purity="5.2112442255020142e-01" nType="-99"/>
          <Node pos="r" depth="2" NCoef="0" IVar="-1" Cut="0.0000000000000000e+00" cType="1" res="6.8199582165107131e-04" rms="3.9710748195648193e-01" purity="4.8956954479217529e-01" nType="-99"/>
        </Node>
      </Node>
    </BinaryTree>
    <BinaryTree type="DecisionTree" boostWeight="1.0000000000000000e+00" itree="459">
      <Node pos="s" depth="0" NCoef="0" IVar="9" Cut="-7.1428570747375488e+00" cType="1" res="-3.7131984718143940e-03" rms="4.0875631570816040e-01" purity="4.8879915475845337e-01" nType="0">
        <Node pos="l" depth="1" NCoef="0" IVar="20" Cut="2.0739721298217773e+01" cType="1" res="-1.0501425713300705e-01" rms="4.6522596478462219e-01" purity="5.7196557521820068e-01" nType="0">
          <Node pos="l" depth="2" NCoef="0" IVar="-1" Cut="0.0000000000000000e+00" cType="1" res="-1.9137718481943011e-03" rms="4.1460633277893066e-01" purity="6.5196937322616577e-01" nType="-99"/>
          <Node pos="r" depth="2" NCoef="0" IVar="-1" Cut="0.0000000000000000e+00" cType="1" res="-6.5052998252213001e-03" rms="4.9020326137542725e-01" purity="4.7877451777458191e-01" nType="-99"/>
        </Node>
        <Node pos="r" depth="1" NCoef="0" IVar="18" Cut="5.1428570747375488e+00" cType="1" res="2.9071751050651073e-03" rms="4.0390816330909729e-01" purity="4.8336398601531982e-01" nType="0">
          <Node pos="l" depth="2" NCoef="0" IVar="-1" Cut="0.0000000000000000e+00" cType="1" res="1.1601288570091128e-03" rms="4.0427631139755249e-01" purity="6.7004495859146118e-01" nType="-99"/>
          <Node pos="r" depth="2" NCoef="0" IVar="-1" Cut="0.0000000000000000e+00" cType="1" res="-7.7955023152753711e-04" rms="4.0179374814033508e-01" purity="3.1675833463668823e-01" nType="-99"/>
        </Node>
      </Node>
    </BinaryTree>
    <BinaryTree type="DecisionTree" boostWeight="1.0000000000000000e+00" itree="460">
      <Node pos="s" depth="0" NCoef="0" IVar="6" Cut="1.9780502319335938e+00" cType="1" res="-1.1560756713151932e-02" rms="4.1425061225891113e-01" purity="4.9426299333572388e-01" nType="0">
        <Node pos="l" depth="1" NCoef="0" IVar="1" Cut="4.9523811340332031e+00" cType="1" res="-2.9883554205298424e-02" rms="4.2134937644004822e-01" purity="5.8622288703918457e-01" nType="0">
          <Node pos="l" depth="2" NCoef="0" IVar="-1" Cut="0.0000000000000000e+00" cType="1" res="2.7621916960924864e-03" rms="3.9987185597419739e-01" purity="7.0546370744705200e-01" nType="-99"/>
          <Node pos="r" depth="2" NCoef="0" IVar="-1" Cut="0.0000000000000000e+00" cType="1" res="-2.1063776221126318e-03" rms="4.3343761563301086e-01" purity="4.9826276302337646e-01" nType="-99"/>
        </Node>
        <Node pos="r" depth="1" NCoef="0" IVar="18" Cut="5.2380952835083008e+00" cType="1" res="2.1928491070866585e-02" rms="3.9878162741661072e-01" purity="3.2618445158004761e-01" nType="0">
          <Node pos="l" depth="2" NCoef="0" IVar="-1" Cut="0.0000000000000000e+00" cType="1" res="1.1956368107348680e-03" rms="4.0547308325767517e-01" purity="4.4701412320137024e-01" nType="-99"/>
          <Node pos="r" depth="2" NCoef="0" IVar="-1" Cut="0.0000000000000000e+00" cType="1" res="-2.4921304429881275e-04" rms="3.9268034696578979e-01" purity="2.7378264069557190e-01" nType="-99"/>
        </Node>
      </Node>
    </BinaryTree>
    <BinaryTree type="DecisionTree" boostWeight="1.0000000000000000e+00" itree="461">
      <Node pos="s" depth="0" NCoef="0" IVar="15" Cut="4.8571429252624512e+00" cType="1" res="-1.3121999800205231e-02" rms="4.2069914937019348e-01" purity="4.9391990900039673e-01" nType="0">
        <Node pos="l" depth="1" NCoef="0" IVar="1" Cut="7.0000000000000000e+00" cType="1" res="-1.0577771812677383e-01" rms="4.3861219286918640e-01" purity="6.1605370044708252e-01" nType="0">
          <Node pos="l" depth="2" NCoef="0" IVar="-1" Cut="0.0000000000000000e+00" cType="1" res="-3.5068185534328222e-03" rms="4.3948745727539062e-01" purity="6.4437997341156006e-01" nType="-99"/>
          <Node pos="r" depth="2" NCoef="0" IVar="-1" Cut="0.0000000000000000e+00" cType="1" res="-5.4861861281096935e-03" rms="4.2693629860877991e-01" purity="3.7570708990097046e-01" nType="-99"/>
        </Node>
        <Node pos="r" depth="1" NCoef="0" IVar="15" Cut="7.3809523582458496e+00" cType="1" res="-5.3764004260301590e-03" rms="4.1823837161064148e-01" purity="4.8371011018753052e-01" nType="0">
          <Node pos="l" depth="2" NCoef="0" IVar="-1" Cut="0.0000000000000000e+00" cType="1" res="5.1555512472987175e-03" rms="3.6376047134399414e-01" purity="7.9016393423080444e-01" nType="-99"/>
          <Node pos="r" depth="2" NCoef="0" IVar="-1" Cut="0.0000000000000000e+00" cType="1" res="-4.4728012289851904e-04" rms="4.2623096704483032e-01" purity="4.2837080359458923e-01" nType="-99"/>
        </Node>
      </Node>
    </BinaryTree>
    <BinaryTree type="DecisionTree" boostWeight="1.0000000000000000e+00" itree="462">
      <Node pos="s" depth="0" NCoef="0" IVar="15" Cut="8.0000000000000000e+00" cType="1" res="-5.4290919797495008e-04" rms="4.1002222895622253e-01" purity="4.9728065729141235e-01" nType="0">
        <Node pos="l" depth="1" NCoef="0" IVar="12" Cut="1.1428571939468384e+00" cType="1" res="3.5644792020320892e-02" rms="3.8791915774345398e-01" purity="7.2969824075698853e-01" nType="0">
          <Node pos="l" depth="2" NCoef="0" IVar="-1" Cut="0.0000000000000000e+00" cType="1" res="1.7616952536627650e-03" rms="3.4179514646530151e-01" purity="8.0750417709350586e-01" nType="-99"/>
          <Node pos="r" depth="2" NCoef="0" IVar="-1" Cut="0.0000000000000000e+00" cType="1" res="-1.4804441016167402e-03" rms="4.6646404266357422e-01" purity="5.5353635549545288e-01" nType="-99"/>
        </Node>
        <Node pos="r" depth="1" NCoef="0" IVar="21" Cut="4.4285712242126465e+00" cType="1" res="-1.2939233332872391e-02" rms="4.1660249233245850e-01" purity="4.1766458749771118e-01" nType="0">
          <Node pos="l" depth="2" NCoef="0" IVar="-1" Cut="0.0000000000000000e+00" cType="1" res="-1.4762304490432143e-03" rms="4.1487219929695129e-01" purity="4.2652660608291626e-01" nType="-99"/>
          <Node pos="r" depth="2" NCoef="0" IVar="-1" Cut="0.0000000000000000e+00" cType="1" res="7.5382692739367485e-04" rms="4.1477566957473755e-01" purity="4.0971976518630981e-01" nType="-99"/>
        </Node>
      </Node>
    </BinaryTree>
    <BinaryTree type="DecisionTree" boostWeight="1.0000000000000000e+00" itree="463">
      <Node pos="s" depth="0" NCoef="0" IVar="18" Cut="6.1904764175415039e+00" cType="1" res="5.4349801503121853e-03" rms="4.0880507230758667e-01" purity="5.0903350114822388e-01" nType="0">
        <Node pos="l" depth="1" NCoef="0" IVar="6" Cut="2.1463427543640137e+00" cType="1" res="1.4917124062776566e-02" rms="4.3346571922302246e-01" purity="6.0407745838165283e-01" nType="0">
          <Node pos="l" depth="2" NCoef="0" IVar="-1" Cut="0.0000000000000000e+00" cType="1" res="-3.9044962613843381e-04" rms="4.2900192737579346e-01" purity="6.3884800672531128e-01" nType="-99"/>
          <Node pos="r" depth="2" NCoef="0" IVar="-1" Cut="0.0000000000000000e+00" cType="1" res="1.8254579044878483e-03" rms="4.4317534565925598e-01" purity="4.7174677252769470e-01" nType="-99"/>
        </Node>
        <Node pos="r" depth="1" NCoef="0" IVar="16" Cut="5.3304836153984070e-02" cType="0" res="-3.7358950823545456e-02" rms="2.6672637462615967e-01" purity="8.0090075731277466e-02" nType="0">
          <Node pos="l" depth="2" NCoef="0" IVar="-1" Cut="0.0000000000000000e+00" cType="1" res="2.4125822819769382e-03" rms="3.2175621390342712e-01" purity="1.2268785387277603e-01" nType="-99"/>
          <Node pos="r" depth="2" NCoef="0" IVar="-1" Cut="0.0000000000000000e+00" cType="1" res="-4.1076885536313057e-03" rms="2.3886884748935699e-01" purity="6.2609724700450897e-02" nType="-99"/>
        </Node>
      </Node>
    </BinaryTree>
    <BinaryTree type="DecisionTree" boostWeight="1.0000000000000000e+00" itree="464">
      <Node pos="s" depth="0" NCoef="0" IVar="5" Cut="8.7959969043731689e-01" cType="1" res="-3.2343438360840082e-03" rms="4.0918666124343872e-01" purity="4.9794214963912964e-01" nType="0">
        <Node pos="l" depth="1" NCoef="0" IVar="11" Cut="7.1367427706718445e-02" cType="1" res="7.7193610370159149e-02" rms="3.1405219435691833e-01" purity="8.2260453701019287e-01" nType="0">
          <Node pos="l" depth="2" NCoef="0" IVar="-1" Cut="0.0000000000000000e+00" cType="1" res="5.1569440402090549e-03" rms="2.8203582763671875e-01" purity="8.9378440380096436e-01" nType="-99"/>
          <Node pos="r" depth="2" NCoef="0" IVar="-1" Cut="0.0000000000000000e+00" cType="1" res="-2.5408498477190733e-03" rms="3.7124353647232056e-01" purity="6.0727071762084961e-01" nType="-99"/>
        </Node>
        <Node pos="r" depth="1" NCoef="0" IVar="12" Cut="1.4285714924335480e-01" cType="1" res="-1.1737348511815071e-02" rms="4.1707521677017212e-01" purity="4.6361824870109558e-01" nType="0">
          <Node pos="l" depth="2" NCoef="0" IVar="-1" Cut="0.0000000000000000e+00" cType="1" res="-2.9697276186197996e-03" rms="4.0086239576339722e-01" purity="4.8830085992813110e-01" nType="-99"/>
          <Node pos="r" depth="2" NCoef="0" IVar="-1" Cut="0.0000000000000000e+00" cType="1" res="1.8783600535243750e-04" rms="4.1952884197235107e-01" purity="4.5848149061203003e-01" nType="-99"/>
        </Node>
      </Node>
    </BinaryTree>
    <BinaryTree type="DecisionTree" boostWeight="1.0000000000000000e+00" itree="465">
      <Node pos="s" depth="0" NCoef="0" IVar="17" Cut="6.0512565612792969e+01" cType="1" res="8.0887842923402786e-03" rms="4.1011220216751099e-01" purity="5.1337969303131104e-01" nType="0">
        <Node pos="l" depth="1" NCoef="0" IVar="17" Cut="1.4405350685119629e+01" cType="1" res="1.7059173434972763e-02" rms="4.0492022037506104e-01" purity="5.1979494094848633e-01" nType="0">
          <Node pos="l" depth="2" NCoef="0" IVar="-1" Cut="0.0000000000000000e+00" cType="1" res="4.5477179810404778e-03" rms="3.9879363775253296e-01" purity="6.5459132194519043e-01" nType="-99"/>
          <Node pos="r" depth="2" NCoef="0" IVar="-1" Cut="0.0000000000000000e+00" cType="1" res="-9.3447469407692552e-04" rms="4.0457165241241455e-01" purity="4.7672736644744873e-01" nType="-99"/>
        </Node>
        <Node pos="r" depth="1" NCoef="0" IVar="5" Cut="1.5926688909530640e+00" cType="1" res="-8.8336162269115448e-02" rms="4.5112755894660950e-01" purity="4.4441998004913330e-01" nType="0">
          <Node pos="l" depth="2" NCoef="0" IVar="-1" Cut="0.0000000000000000e+00" cType="1" res="-6.5987156704068184e-03" rms="4.4410911202430725e-01" purity="4.9066296219825745e-01" nType="-99"/>
          <Node pos="r" depth="2" NCoef="0" IVar="-1" Cut="0.0000000000000000e+00" cType="1" res="-5.7459325762465596e-04" rms="4.3873873353004456e-01" purity="3.8181909918785095e-01" nType="-99"/>
        </Node>
      </Node>
    </BinaryTree>
    <BinaryTree type="DecisionTree" boostWeight="1.0000000000000000e+00" itree="466">
      <Node pos="s" depth="0" NCoef="0" IVar="15" Cut="1.1285714149475098e+01" cType="1" res="1.4467353932559490e-02" rms="4.0747055411338806e-01" purity="5.1649504899978638e-01" nType="0">
        <Node pos="l" depth="1" NCoef="0" IVar="5" Cut="9.7567862272262573e-01" cType="1" res="4.5421287417411804e-02" rms="3.7670332193374634e-01" purity="6.9166237115859985e-01" nType="0">
          <Node pos="l" depth="2" NCoef="0" IVar="-1" Cut="0.0000000000000000e+00" cType="1" res="7.3609082028269768e-03" rms="2.4030290544033051e-01" purity="9.2304152250289917e-01" nType="-99"/>
          <Node pos="r" depth="2" NCoef="0" IVar="-1" Cut="0.0000000000000000e+00" cType="1" res="-3.9481592830270529e-04" rms="4.0920275449752808e-01" purity="6.1507719755172729e-01" nType="-99"/>
        </Node>
        <Node pos="r" depth="1" NCoef="0" IVar="13" Cut="2.6037368178367615e-01" cType="1" res="-7.3478836566209793e-03" rms="4.2647957801818848e-01" purity="3.9304333925247192e-01" nType="0">
          <Node pos="l" depth="2" NCoef="0" IVar="-1" Cut="0.0000000000000000e+00" cType="1" res="-1.6675781807862222e-04" rms="4.1969054937362671e-01" purity="3.9625248312950134e-01" nType="-99"/>
          <Node pos="r" depth="2" NCoef="0" IVar="-1" Cut="0.0000000000000000e+00" cType="1" res="-9.3786548823118210e-03" rms="5.1095384359359741e-01" purity="3.1472951173782349e-01" nType="-99"/>
        </Node>
      </Node>
    </BinaryTree>
    <BinaryTree type="DecisionTree" boostWeight="1.0000000000000000e+00" itree="467">
      <Node pos="s" depth="0" NCoef="0" IVar="9" Cut="-1.4285714626312256e+00" cType="1" res="-7.7150799334049225e-03" rms="4.1672152280807495e-01" purity="5.0143086910247803e-01" nType="0">
        <Node pos="l" depth="1" NCoef="0" IVar="4" Cut="2.3090038299560547e+00" cType="0" res="-4.9671187996864319e-02" rms="4.3406364321708679e-01" purity="5.5057996511459351e-01" nType="0">
          <Node pos="l" depth="2" NCoef="0" IVar="-1" Cut="0.0000000000000000e+00" cType="1" res="6.1524268239736557e-03" rms="4.7187843918800354e-01" purity="5.7944911718368530e-01" nType="-99"/>
          <Node pos="r" depth="2" NCoef="0" IVar="-1" Cut="0.0000000000000000e+00" cType="1" res="-1.7911005998030305e-03" rms="4.2382448911666870e-01" purity="5.4778325557708740e-01" nType="-99"/>
        </Node>
        <Node pos="r" depth="1" NCoef="0" IVar="1" Cut="8.4285717010498047e+00" cType="0" res="4.5343358069658279e-03" rms="4.1071301698684692e-01" purity="4.8708146810531616e-01" nType="0">
          <Node pos="l" depth="2" NCoef="0" IVar="-1" Cut="0.0000000000000000e+00" cType="1" res="1.0579228401184082e-02" rms="4.2863634228706360e-01" purity="5.9431022405624390e-01" nType="-99"/>
          <Node pos="r" depth="2" NCoef="0" IVar="-1" Cut="0.0000000000000000e+00" cType="1" res="-3.2795034348964691e-04" rms="4.0893197059631348e-01" purity="4.8352801799774170e-01" nType="-99"/>
        </Node>
      </Node>
    </BinaryTree>
    <BinaryTree type="DecisionTree" boostWeight="1.0000000000000000e+00" itree="468">
      <Node pos="s" depth="0" NCoef="0" IVar="20" Cut="4.1526027679443359e+01" cType="0" res="-4.5334007591009140e-03" rms="4.1501170396804810e-01" purity="4.9945494532585144e-01" nType="0">
        <Node pos="l" depth="1" NCoef="0" IVar="6" Cut="2.0804674625396729e+00" cType="1" res="6.4735509455204010e-02" rms="4.0910294651985168e-01" purity="6.0894936323165894e-01" nType="0">
          <Node pos="l" depth="2" NCoef="0" IVar="-1" Cut="0.0000000000000000e+00" cType="1" res="6.1665326356887817e-03" rms="3.6615478992462158e-01" purity="7.6612526178359985e-01" nType="-99"/>
          <Node pos="r" depth="2" NCoef="0" IVar="-1" Cut="0.0000000000000000e+00" cType="1" res="-3.4862975589931011e-03" rms="4.5752966403961182e-01" purity="3.1916287541389465e-01" nType="-99"/>
        </Node>
        <Node pos="r" depth="1" NCoef="0" IVar="20" Cut="3.9052791595458984e+01" cType="1" res="-1.2788604013621807e-02" rms="4.1493982076644897e-01" purity="4.8640578985214233e-01" nType="0">
          <Node pos="l" depth="2" NCoef="0" IVar="-1" Cut="0.0000000000000000e+00" cType="1" res="-2.9588013421744108e-04" rms="4.1240644454956055e-01" purity="4.8761892318725586e-01" nType="-99"/>
          <Node pos="r" depth="2" NCoef="0" IVar="-1" Cut="0.0000000000000000e+00" cType="1" res="-3.8992189802229404e-03" rms="4.8550990223884583e-01" purity="4.3187752366065979e-01" nType="-99"/>
        </Node>
      </Node>
    </BinaryTree>
    <BinaryTree type="DecisionTree" boostWeight="1.0000000000000000e+00" itree="469">
      <Node pos="s" depth="0" NCoef="0" IVar="5" Cut="8.8051819801330566e-01" cType="1" res="-4.6768770553171635e-03" rms="4.1144490242004395e-01" purity="5.0438165664672852e-01" nType="0">
        <Node pos="l" depth="1" NCoef="0" IVar="21" Cut="3.1904761791229248e+00" cType="0" res="7.3803745210170746e-02" rms="3.0339324474334717e-01" purity="8.2408720254898071e-01" nType="0">
          <Node pos="l" depth="2" NCoef="0" IVar="-1" Cut="0.0000000000000000e+00" cType="1" res="-1.2126161018386483e-03" rms="2.9902589321136475e-01" purity="8.3939003944396973e-01" nType="-99"/>
          <Node pos="r" depth="2" NCoef="0" IVar="-1" Cut="0.0000000000000000e+00" cType="1" res="4.6772584319114685e-03" rms="2.9307886958122253e-01" purity="8.2107871770858765e-01" nType="-99"/>
        </Node>
        <Node pos="r" depth="1" NCoef="0" IVar="7" Cut="-3.6166660785675049e+00" cType="0" res="-1.3138035312294960e-02" rms="4.2056941986083984e-01" purity="4.6991351246833801e-01" nType="0">
          <Node pos="l" depth="2" NCoef="0" IVar="-1" Cut="0.0000000000000000e+00" cType="1" res="-1.3870472321286798e-04" rms="4.1892683506011963e-01" purity="4.7056561708450317e-01" nType="-99"/>
          <Node pos="r" depth="2" NCoef="0" IVar="-1" Cut="0.0000000000000000e+00" cType="1" res="-2.7619607280939817e-03" rms="4.3199908733367920e-01" purity="4.5929807424545288e-01" nType="-99"/>
        </Node>
      </Node>
    </BinaryTree>
    <BinaryTree type="DecisionTree" boostWeight="1.0000000000000000e+00" itree="470">
      <Node pos="s" depth="0" NCoef="0" IVar="20" Cut="3.5821082592010498e+00" cType="0" res="6.9964923895895481e-03" rms="4.1236811876296997e-01" purity="5.1043546199798584e-01" nType="0">
        <Node pos="l" depth="1" NCoef="0" IVar="9" Cut="-5.7142858505249023e+00" cType="1" res="1.5973320230841637e-02" rms="4.1095298528671265e-01" purity="5.2147608995437622e-01" nType="0">
          <Node pos="l" depth="2" NCoef="0" IVar="-1" Cut="0.0000000000000000e+00" cType="1" res="-3.9278976619243622e-03" rms="4.2907732725143433e-01" purity="5.6936961412429810e-01" nType="-99"/>
          <Node pos="r" depth="2" NCoef="0" IVar="-1" Cut="0.0000000000000000e+00" cType="1" res="3.6617493606172502e-04" rms="4.0841421484947205e-01" purity="5.1748830080032349e-01" nType="-99"/>
        </Node>
        <Node pos="r" depth="1" NCoef="0" IVar="17" Cut="1.3975979804992676e+01" cType="1" res="-6.7564971745014191e-02" rms="4.1652864217758179e-01" purity="4.1873204708099365e-01" nType="0">
          <Node pos="l" depth="2" NCoef="0" IVar="-1" Cut="0.0000000000000000e+00" cType="1" res="7.0327371358871460e-03" rms="3.5590425133705139e-01" purity="6.2446987628936768e-01" nType="-99"/>
          <Node pos="r" depth="2" NCoef="0" IVar="-1" Cut="0.0000000000000000e+00" cType="1" res="-5.3196451626718044e-03" rms="4.1121137142181396e-01" purity="3.3353522419929504e-01" nType="-99"/>
        </Node>
      </Node>
    </BinaryTree>
    <BinaryTree type="DecisionTree" boostWeight="1.0000000000000000e+00" itree="471">
      <Node pos="s" depth="0" NCoef="0" IVar="9" Cut="-1.1428571701049805e+01" cType="1" res="-6.8041491322219372e-03" rms="4.1654673218727112e-01" purity="4.9892368912696838e-01" nType="0">
        <Node pos="l" depth="1" NCoef="0" IVar="-1" Cut="0.0000000000000000e+00" cType="1" res="5.4560662247240543e-03" rms="2.9296761751174927e-01" purity="8.5337579250335693e-01" nType="-99"/>
        <Node pos="r" depth="1" NCoef="0" IVar="9" Cut="-4.8857145309448242e+00" cType="0" res="-9.7957719117403030e-03" rms="4.1861045360565186e-01" purity="4.9041327834129333e-01" nType="0">
          <Node pos="l" depth="2" NCoef="0" IVar="-1" Cut="0.0000000000000000e+00" cType="1" res="2.1914520402788185e-05" rms="4.1723352670669556e-01" purity="4.9259650707244873e-01" nType="-99"/>
          <Node pos="r" depth="2" NCoef="0" IVar="-1" Cut="0.0000000000000000e+00" cType="1" res="-3.7802236620336771e-03" rms="4.2291027307510376e-01" purity="4.5812994241714478e-01" nType="-99"/>
        </Node>
      </Node>
    </BinaryTree>
    <BinaryTree type="DecisionTree" boostWeight="1.0000000000000000e+00" itree="472">
      <Node pos="s" depth="0" NCoef="0" IVar="20" Cut="2.4560720920562744e+00" cType="0" res="4.0746061131358147e-03" rms="4.0701213479042053e-01" purity="5.0472897291183472e-01" nType="0">
        <Node pos="l" depth="1" NCoef="0" IVar="7" Cut="3.9214291572570801e+00" cType="1" res="1.0239036753773689e-02" rms="4.0773490071296692e-01" purity="5.1500618457794189e-01" nType="0">
          <Node pos="l" depth="2" NCoef="0" IVar="-1" Cut="0.0000000000000000e+00" cType="1" res="9.6651267085690051e-05" rms="4.0600273013114929e-01" purity="5.1922196149826050e-01" nType="-99"/>
          <Node pos="r" depth="2" NCoef="0" IVar="-1" Cut="0.0000000000000000e+00" cType="1" res="-5.7549437042325735e-04" rms="4.4403085112571716e-01" purity="3.6914151906967163e-01" nType="-99"/>
        </Node>
        <Node pos="r" depth="1" NCoef="0" IVar="14" Cut="2.9878383636474609e+01" cType="1" res="-7.2085194289684296e-02" rms="3.9001774787902832e-01" purity="3.7775784730911255e-01" nType="0">
          <Node pos="l" depth="2" NCoef="0" IVar="-1" Cut="0.0000000000000000e+00" cType="1" res="3.8410692941397429e-03" rms="3.9477738738059998e-01" purity="6.0323250293731689e-01" nType="-99"/>
          <Node pos="r" depth="2" NCoef="0" IVar="-1" Cut="0.0000000000000000e+00" cType="1" res="-5.6078867055475712e-03" rms="3.5654860734939575e-01" purity="2.5714358687400818e-01" nType="-99"/>
        </Node>
      </Node>
    </BinaryTree>
    <BinaryTree type="DecisionTree" boostWeight="1.0000000000000000e+00" itree="473">
      <Node pos="s" depth="0" NCoef="0" IVar="7" Cut="-1.1142851114273071e+00" cType="1" res="4.5697940513491631e-03" rms="4.1056904196739197e-01" purity="5.1114326715469360e-01" nType="0">
        <Node pos="l" depth="1" NCoef="0" IVar="4" Cut="1.9700248241424561e+00" cType="1" res="6.2620490789413452e-02" rms="3.8747897744178772e-01" purity="6.8013423681259155e-01" nType="0">
          <Node pos="l" depth="2" NCoef="0" IVar="-1" Cut="0.0000000000000000e+00" cType="1" res="-1.0840793838724494e-03" rms="3.6578309535980225e-01" purity="7.0530956983566284e-01" nType="-99"/>
          <Node pos="r" depth="2" NCoef="0" IVar="-1" Cut="0.0000000000000000e+00" cType="1" res="4.3460121378302574e-03" rms="4.3246668577194214e-01" purity="6.0251891613006592e-01" nType="-99"/>
        </Node>
        <Node pos="r" depth="1" NCoef="0" IVar="12" Cut="1.4285714924335480e-01" cType="1" res="-8.7513430044054985e-03" rms="4.1454154253005981e-01" purity="4.7236424684524536e-01" nType="0">
          <Node pos="l" depth="2" NCoef="0" IVar="-1" Cut="0.0000000000000000e+00" cType="1" res="-4.3234061449766159e-03" rms="4.2518594861030579e-01" purity="4.8565381765365601e-01" nType="-99"/>
          <Node pos="r" depth="2" NCoef="0" IVar="-1" Cut="0.0000000000000000e+00" cType="1" res="3.6773513420484960e-04" rms="4.1011494398117065e-01" purity="4.6976876258850098e-01" nType="-99"/>
        </Node>
      </Node>
    </BinaryTree>
    <BinaryTree type="DecisionTree" boostWeight="1.0000000000000000e+00" itree="474">
      <Node pos="s" depth="0" NCoef="0" IVar="9" Cut="-1.2857142448425293e+01" cType="1" res="-6.7598214372992516e-03" rms="4.1225904226303101e-01" purity="4.9727740883827209e-01" nType="0">
        <Node pos="l" depth="1" NCoef="0" IVar="-1" Cut="0.0000000000000000e+00" cType="1" res="4.7436770983040333e-03" rms="2.7930432558059692e-01" purity="9.5434844493865967e-01" nType="-99"/>
        <Node pos="r" depth="1" NCoef="0" IVar="9" Cut="-6.1190479993820190e-01" cType="1" res="-1.0321420617401600e-02" rms="4.1353863477706909e-01" purity="4.8862883448600769e-01" nType="0">
          <Node pos="l" depth="2" NCoef="0" IVar="-1" Cut="0.0000000000000000e+00" cType="1" res="-1.4835071051493287e-03" rms="4.2320996522903442e-01" purity="4.9364507198333740e-01" nType="-99"/>
          <Node pos="r" depth="2" NCoef="0" IVar="-1" Cut="0.0000000000000000e+00" cType="1" res="5.2305206190794706e-04" rms="4.0544971823692322e-01" purity="4.8587000370025635e-01" nType="-99"/>
        </Node>
      </Node>
    </BinaryTree>
    <BinaryTree type="DecisionTree" boostWeight="1.0000000000000000e+00" itree="475">
      <Node pos="s" depth="0" NCoef="0" IVar="3" Cut="3.9047617912292480e+00" cType="1" res="1.6301474533975124e-03" rms="4.0736994147300720e-01" purity="5.0156235694885254e-01" nType="0">
        <Node pos="l" depth="1" NCoef="0" IVar="20" Cut="2.8644519805908203e+01" cType="0" res="1.4312519691884518e-02" rms="3.9840307831764221e-01" purity="5.1012837886810303e-01" nType="0">
          <Node pos="l" depth="2" NCoef="0" IVar="-1" Cut="0.0000000000000000e+00" cType="1" res="2.9130324255675077e-03" rms="4.1342437267303467e-01" purity="6.3804113864898682e-01" nType="-99"/>
          <Node pos="r" depth="2" NCoef="0" IVar="-1" Cut="0.0000000000000000e+00" cType="1" res="-4.3573335278779268e-04" rms="3.9217889308929443e-01" purity="4.7287189960479736e-01" nType="-99"/>
        </Node>
        <Node pos="r" depth="1" NCoef="0" IVar="7" Cut="-6.5833334922790527e+00" cType="0" res="-3.0992524698376656e-02" rms="4.2785245180130005e-01" purity="4.7952827811241150e-01" nType="0">
          <Node pos="l" depth="2" NCoef="0" IVar="-1" Cut="0.0000000000000000e+00" cType="1" res="-6.9753162097185850e-04" rms="4.2498016357421875e-01" purity="4.8025965690612793e-01" nType="-99"/>
          <Node pos="r" depth="2" NCoef="0" IVar="-1" Cut="0.0000000000000000e+00" cType="1" res="-6.8861152976751328e-03" rms="4.3630784749984741e-01" purity="4.7179830074310303e-01" nType="-99"/>
        </Node>
      </Node>
    </BinaryTree>
    <BinaryTree type="DecisionTree" boostWeight="1.0000000000000000e+00" itree="476">
      <Node pos="s" depth="0" NCoef="0" IVar="18" Cut="5.1428570747375488e+00" cType="1" res="-1.0025548981502652e-03" rms="4.1385084390640259e-01" purity="5.1174306869506836e-01" nType="0">
        <Node pos="l" depth="1" NCoef="0" IVar="9" Cut="-7.1428570747375488e+00" cType="0" res="2.3476038128137589e-02" rms="4.0955972671508789e-01" purity="6.8419635295867920e-01" nType="0">
          <Node pos="l" depth="2" NCoef="0" IVar="-1" Cut="0.0000000000000000e+00" cType="1" res="1.0825187200680375e-03" rms="4.0442681312561035e-01" purity="6.9013828039169312e-01" nType="-99"/>
          <Node pos="r" depth="2" NCoef="0" IVar="-1" Cut="0.0000000000000000e+00" cType="1" res="-3.8275897968560457e-03" rms="4.4148978590965271e-01" purity="6.2857234477996826e-01" nType="-99"/>
        </Node>
        <Node pos="r" depth="1" NCoef="0" IVar="6" Cut="1.4071013927459717e+00" cType="1" res="-2.5920987129211426e-02" rms="4.1669949889183044e-01" purity="3.3619108796119690e-01" nType="0">
          <Node pos="l" depth="2" NCoef="0" IVar="-1" Cut="0.0000000000000000e+00" cType="1" res="-3.6652295384556055e-03" rms="4.6128737926483154e-01" purity="3.7083885073661804e-01" nType="-99"/>
          <Node pos="r" depth="2" NCoef="0" IVar="-1" Cut="0.0000000000000000e+00" cType="1" res="6.5442320192232728e-05" rms="4.0342503786087036e-01" purity="3.2803341746330261e-01" nType="-99"/>
        </Node>
      </Node>
    </BinaryTree>
    <BinaryTree type="DecisionTree" boostWeight="1.0000000000000000e+00" itree="477">
      <Node pos="s" depth="0" NCoef="0" IVar="20" Cut="1.0373162269592285e+01" cType="1" res="-3.6652153357863426e-03" rms="4.1116526722908020e-01" purity="5.0051099061965942e-01" nType="0">
        <Node pos="l" depth="1" NCoef="0" IVar="0" Cut="7.4623960256576538e-01" cType="0" res="3.6120623350143433e-02" rms="4.1494241356849670e-01" purity="5.9308534860610962e-01" nType="0">
          <Node pos="l" depth="2" NCoef="0" IVar="-1" Cut="0.0000000000000000e+00" cType="1" res="1.4114626683294773e-03" rms="4.0806448459625244e-01" purity="6.0641235113143921e-01" nType="-99"/>
          <Node pos="r" depth="2" NCoef="0" IVar="-1" Cut="0.0000000000000000e+00" cType="1" res="-3.7956747692078352e-03" rms="4.2239493131637573e-01" purity="5.4050856828689575e-01" nType="-99"/>
        </Node>
        <Node pos="r" depth="1" NCoef="0" IVar="7" Cut="-5.2166657447814941e+00" cType="1" res="-1.7757989466190338e-02" rms="4.0889158844947815e-01" purity="4.6771970391273499e-01" nType="0">
          <Node pos="l" depth="2" NCoef="0" IVar="-1" Cut="0.0000000000000000e+00" cType="1" res="-4.4137779623270035e-03" rms="4.3316200375556946e-01" purity="5.6421095132827759e-01" nType="-99"/>
          <Node pos="r" depth="2" NCoef="0" IVar="-1" Cut="0.0000000000000000e+00" cType="1" res="-1.2296286877244711e-04" rms="4.0631279349327087e-01" purity="4.6128657460212708e-01" nType="-99"/>
        </Node>
      </Node>
    </BinaryTree>
    <BinaryTree type="DecisionTree" boostWeight="1.0000000000000000e+00" itree="478">
      <Node pos="s" depth="0" NCoef="0" IVar="12" Cut="2.1428570747375488e+00" cType="1" res="3.8634266238659620e-03" rms="4.1415220499038696e-01" purity="5.0692331790924072e-01" nType="0">
        <Node pos="l" depth="1" NCoef="0" IVar="11" Cut="2.0512211322784424e+00" cType="1" res="1.5808604657649994e-02" rms="4.0244787931442261e-01" purity="5.2041155099868774e-01" nType="0">
          <Node pos="l" depth="2" NCoef="0" IVar="-1" Cut="0.0000000000000000e+00" cType="1" res="6.7627697717398405e-04" rms="4.0665826201438904e-01" purity="5.8340555429458618e-01" nType="-99"/>
          <Node pos="r" depth="2" NCoef="0" IVar="-1" Cut="0.0000000000000000e+00" cType="1" res="-1.4690961688756943e-03" rms="3.7967973947525024e-01" purity="2.5036236643791199e-01" nType="-99"/>
        </Node>
        <Node pos="r" depth="1" NCoef="0" IVar="18" Cut="4.2857141494750977e+00" cType="0" res="-5.4339408874511719e-02" rms="4.6261146664619446e-01" purity="4.4120177626609802e-01" nType="0">
          <Node pos="l" depth="2" NCoef="0" IVar="-1" Cut="0.0000000000000000e+00" cType="1" res="-8.1957207294180989e-04" rms="4.5064043998718262e-01" purity="4.4887879490852356e-01" nType="-99"/>
          <Node pos="r" depth="2" NCoef="0" IVar="-1" Cut="0.0000000000000000e+00" cType="1" res="-2.8183441609144211e-03" rms="4.6546694636344910e-01" purity="4.3056944012641907e-01" nType="-99"/>
        </Node>
      </Node>
    </BinaryTree>
    <BinaryTree type="DecisionTree" boostWeight="1.0000000000000000e+00" itree="479">
      <Node pos="s" depth="0" NCoef="0" IVar="4" Cut="2.0187876224517822e+00" cType="1" res="1.1230064556002617e-02" rms="4.0652093291282654e-01" purity="5.1118391752243042e-01" nType="0">
        <Node pos="l" depth="1" NCoef="0" IVar="4" Cut="1.9252461194992065e+00" cType="1" res="2.9004255309700966e-02" rms="4.1055095195770264e-01" purity="6.9041508436203003e-01" nType="0">
          <Node pos="l" depth="2" NCoef="0" IVar="-1" Cut="0.0000000000000000e+00" cType="1" res="-5.5737799266353250e-04" rms="4.0684026479721069e-01" purity="6.9402158260345459e-01" nType="-99"/>
          <Node pos="r" depth="2" NCoef="0" IVar="-1" Cut="0.0000000000000000e+00" cType="1" res="3.3436750527471304e-03" rms="4.2925456166267395e-01" purity="6.5222883224487305e-01" nType="-99"/>
        </Node>
        <Node pos="r" depth="1" NCoef="0" IVar="4" Cut="2.1430585384368896e+00" cType="1" res="-1.0466257110238075e-02" rms="4.0047907829284668e-01" purity="2.9240286350250244e-01" nType="0">
          <Node pos="l" depth="2" NCoef="0" IVar="-1" Cut="0.0000000000000000e+00" cType="1" res="-3.5125811118632555e-03" rms="4.4060608744621277e-01" purity="3.5415613651275635e-01" nType="-99"/>
          <Node pos="r" depth="2" NCoef="0" IVar="-1" Cut="0.0000000000000000e+00" cType="1" res="5.1699788309633732e-04" rms="3.9241692423820496e-01" purity="2.8207373619079590e-01" nType="-99"/>
        </Node>
      </Node>
    </BinaryTree>
    <BinaryTree type="DecisionTree" boostWeight="1.0000000000000000e+00" itree="480">
      <Node pos="s" depth="0" NCoef="0" IVar="10" Cut="3.3380222320556641e+00" cType="1" res="8.2315010949969292e-03" rms="4.0765136480331421e-01" purity="5.0708711147308350e-01" nType="0">
        <Node pos="l" depth="1" NCoef="0" IVar="18" Cut="5.1904764175415039e+00" cType="1" res="1.7998646944761276e-02" rms="4.0719789266586304e-01" purity="5.5389678478240967e-01" nType="0">
          <Node pos="l" depth="2" NCoef="0" IVar="-1" Cut="0.0000000000000000e+00" cType="1" res="1.7015680205076933e-03" rms="3.9830809831619263e-01" purity="7.1655279397964478e-01" nType="-99"/>
          <Node pos="r" depth="2" NCoef="0" IVar="-1" Cut="0.0000000000000000e+00" cType="1" res="-1.0546040721237659e-03" rms="4.1602984070777893e-01" purity="3.6365193128585815e-01" nType="-99"/>
        </Node>
        <Node pos="r" depth="1" NCoef="0" IVar="1" Cut="7.0952382087707520e+00" cType="0" res="-4.1000425815582275e-02" rms="4.0637111663818359e-01" purity="2.7113962173461914e-01" nType="0">
          <Node pos="l" depth="2" NCoef="0" IVar="-1" Cut="0.0000000000000000e+00" cType="1" res="3.5035274922847748e-03" rms="4.5227178931236267e-01" purity="4.7963362932205200e-01" nType="-99"/>
          <Node pos="r" depth="2" NCoef="0" IVar="-1" Cut="0.0000000000000000e+00" cType="1" res="-2.6021541561931372e-03" rms="3.8591966032981873e-01" purity="2.1944664418697357e-01" nType="-99"/>
        </Node>
      </Node>
    </BinaryTree>
    <BinaryTree type="DecisionTree" boostWeight="1.0000000000000000e+00" itree="481">
      <Node pos="s" depth="0" NCoef="0" IVar="18" Cut="5.2380952835083008e+00" cType="1" res="2.3126098676584661e-04" rms="4.1025879979133606e-01" purity="5.0326508283615112e-01" nType="0">
        <Node pos="l" depth="1" NCoef="0" IVar="14" Cut="3.8380950927734375e+01" cType="1" res="2.5784743949770927e-02" rms="4.0380817651748657e-01" purity="6.6731339693069458e-01" nType="0">
          <Node pos="l" depth="2" NCoef="0" IVar="-1" Cut="0.0000000000000000e+00" cType="1" res="2.1092316601425409e-03" rms="3.7561237812042236e-01" purity="7.4770987033843994e-01" nType="-99"/>
          <Node pos="r" depth="2" NCoef="0" IVar="-1" Cut="0.0000000000000000e+00" cType="1" res="1.7193073290400207e-04" rms="4.1079786419868469e-01" purity="6.4171051979064941e-01" nType="-99"/>
        </Node>
        <Node pos="r" depth="1" NCoef="0" IVar="6" Cut="2.1219048500061035e+00" cType="1" res="-2.6868859305977821e-02" rms="4.1527634859085083e-01" purity="3.2928761839866638e-01" nType="0">
          <Node pos="l" depth="2" NCoef="0" IVar="-1" Cut="0.0000000000000000e+00" cType="1" res="-1.9988066051155329e-03" rms="4.3037992715835571e-01" purity="3.5782194137573242e-01" nType="-99"/>
          <Node pos="r" depth="2" NCoef="0" IVar="-1" Cut="0.0000000000000000e+00" cType="1" res="1.2341885594651103e-03" rms="3.8626980781555176e-01" purity="2.8999063372612000e-01" nType="-99"/>
        </Node>
      </Node>
    </BinaryTree>
    <BinaryTree type="DecisionTree" boostWeight="1.0000000000000000e+00" itree="482">
      <Node pos="s" depth="0" NCoef="0" IVar="12" Cut="2.1428570747375488e+00" cType="1" res="-6.2477062456309795e-03" rms="4.1562324762344360e-01" purity="5.0538641214370728e-01" nType="0">
        <Node pos="l" depth="1" NCoef="0" IVar="20" Cut="9.3222599029541016e+00" cType="0" res="6.1274706386029720e-03" rms="4.0472266077995300e-01" purity="5.1909321546554565e-01" nType="0">
          <Node pos="l" depth="2" NCoef="0" IVar="-1" Cut="0.0000000000000000e+00" cType="1" res="3.0355530907399952e-04" rms="3.9959070086479187e-01" purity="5.3423398733139038e-01" nType="-99"/>
          <Node pos="r" depth="2" NCoef="0" IVar="-1" Cut="0.0000000000000000e+00" cType="1" res="2.1406535779533442e-06" rms="4.1244059801101685e-01" purity="4.8212513327598572e-01" nType="-99"/>
        </Node>
        <Node pos="r" depth="1" NCoef="0" IVar="3" Cut="4.8571429252624512e+00" cType="1" res="-6.6140025854110718e-02" rms="4.6010041236877441e-01" purity="4.3904975056648254e-01" nType="0">
          <Node pos="l" depth="2" NCoef="0" IVar="-1" Cut="0.0000000000000000e+00" cType="1" res="-1.3745683245360851e-03" rms="4.6228274703025818e-01" purity="4.6067628264427185e-01" nType="-99"/>
          <Node pos="r" depth="2" NCoef="0" IVar="-1" Cut="0.0000000000000000e+00" cType="1" res="-1.8736220663413405e-03" rms="4.3132910132408142e-01" purity="3.2603356242179871e-01" nType="-99"/>
        </Node>
      </Node>
    </BinaryTree>
    <BinaryTree type="DecisionTree" boostWeight="1.0000000000000000e+00" itree="483">
      <Node pos="s" depth="0" NCoef="0" IVar="4" Cut="1.7935950756072998e+00" cType="1" res="-2.0015607587993145e-03" rms="4.1034260392189026e-01" purity="5.0712323188781738e-01" nType="0">
        <Node pos="l" depth="1" NCoef="0" IVar="0" Cut="1.7597545385360718e+00" cType="1" res="2.4025471881031990e-02" rms="3.9323499798774719e-01" purity="7.3468714952468872e-01" nType="0">
          <Node pos="l" depth="2" NCoef="0" IVar="-1" Cut="0.0000000000000000e+00" cType="1" res="7.9203495988622308e-04" rms="3.8263660669326782e-01" purity="7.4780762195587158e-01" nType="-99"/>
          <Node pos="r" depth="2" NCoef="0" IVar="-1" Cut="0.0000000000000000e+00" cType="1" res="-4.7231339849531651e-03" rms="4.8217222094535828e-01" purity="5.6615722179412842e-01" nType="-99"/>
        </Node>
        <Node pos="r" depth="1" NCoef="0" IVar="4" Cut="1.9295263290405273e+00" cType="1" res="-2.1067509427666664e-02" rms="4.2141643166542053e-01" purity="3.4042268991470337e-01" nType="0">
          <Node pos="l" depth="2" NCoef="0" IVar="-1" Cut="0.0000000000000000e+00" cType="1" res="-2.9480163939297199e-03" rms="4.5758169889450073e-01" purity="4.2688733339309692e-01" nType="-99"/>
          <Node pos="r" depth="2" NCoef="0" IVar="-1" Cut="0.0000000000000000e+00" cType="1" res="2.5010298122651875e-04" rms="4.1235366463661194e-01" purity="3.2326811552047729e-01" nType="-99"/>
        </Node>
      </Node>
    </BinaryTree>
    <BinaryTree type="DecisionTree" boostWeight="1.0000000000000000e+00" itree="484">
      <Node pos="s" depth="0" NCoef="0" IVar="7" Cut="-6.3333334922790527e+00" cType="1" res="1.5310510061681271e-02" rms="4.0874111652374268e-01" purity="5.1674693822860718e-01" nType="0">
        <Node pos="l" depth="1" NCoef="0" IVar="5" Cut="9.0135562419891357e-01" cType="1" res="-8.4579035639762878e-02" rms="4.0719363093376160e-01" purity="5.7750093936920166e-01" nType="0">
          <Node pos="l" depth="2" NCoef="0" IVar="-1" Cut="0.0000000000000000e+00" cType="1" res="1.5062063932418823e-02" rms="3.1712734699249268e-01" purity="9.1514712572097778e-01" nType="-99"/>
          <Node pos="r" depth="2" NCoef="0" IVar="-1" Cut="0.0000000000000000e+00" cType="1" res="-6.8153827451169491e-03" rms="4.1930359601974487e-01" purity="3.6789506673812866e-01" nType="-99"/>
        </Node>
        <Node pos="r" depth="1" NCoef="0" IVar="15" Cut="4.1428570747375488e+00" cType="1" res="2.0987572148442268e-02" rms="4.0809527039527893e-01" purity="5.1329410076141357e-01" nType="0">
          <Node pos="l" depth="2" NCoef="0" IVar="-1" Cut="0.0000000000000000e+00" cType="1" res="-4.5179598964750767e-03" rms="4.2597150802612305e-01" purity="6.3874220848083496e-01" nType="-99"/>
          <Node pos="r" depth="2" NCoef="0" IVar="-1" Cut="0.0000000000000000e+00" cType="1" res="2.4025184393394738e-04" rms="4.0612164139747620e-01" purity="5.0362211465835571e-01" nType="-99"/>
        </Node>
      </Node>
    </BinaryTree>
    <BinaryTree type="DecisionTree" boostWeight="1.0000000000000000e+00" itree="485">
      <Node pos="s" depth="0" NCoef="0" IVar="20" Cut="7.3729797363281250e+01" cType="1" res="7.3409336619079113e-03" rms="4.0810754895210266e-01" purity="5.0849044322967529e-01" nType="0">
        <Node pos="l" depth="1" NCoef="0" IVar="17" Cut="2.8441267013549805e+01" cType="0" res="1.2145273387432098e-02" rms="4.0727186203002930e-01" purity="5.1423478126525879e-01" nType="0">
          <Node pos="l" depth="2" NCoef="0" IVar="-1" Cut="0.0000000000000000e+00" cType="1" res="1.7906116554513574e-03" rms="4.2188492417335510e-01" purity="6.1459475755691528e-01" nType="-99"/>
          <Node pos="r" depth="2" NCoef="0" IVar="-1" Cut="0.0000000000000000e+00" cType="1" res="-7.6999567681923509e-04" rms="3.9871439337730408e-01" purity="4.7080382704734802e-01" nType="-99"/>
        </Node>
        <Node pos="r" depth="1" NCoef="0" IVar="-1" Cut="0.0000000000000000e+00" cType="1" res="-5.0036008469760418e-03" rms="3.9994338154792786e-01" purity="2.9952538013458252e-01" nType="-99"/>
      </Node>
    </BinaryTree>
    <BinaryTree type="DecisionTree" boostWeight="1.0000000000000000e+00" itree="486">
      <Node pos="s" depth="0" NCoef="0" IVar="0" Cut="4.3178549408912659e-01" cType="1" res="-2.4468190968036652e-02" rms="4.1513648629188538e-01" purity="4.7619920969009399e-01" nType="0">
        <Node pos="l" depth="1" NCoef="0" IVar="0" Cut="3.0664378404617310e-01" cType="0" res="-1.2376108020544052e-01" rms="4.4372922182083130e-01" purity="4.8304191231727600e-01" nType="0">
          <Node pos="l" depth="2" NCoef="0" IVar="-1" Cut="0.0000000000000000e+00" cType="1" res="-9.7900046966969967e-05" rms="3.8577646017074585e-01" purity="6.0072356462478638e-01" nType="-99"/>
          <Node pos="r" depth="2" NCoef="0" IVar="-1" Cut="0.0000000000000000e+00" cType="1" res="-4.5144557952880859e-03" rms="4.5265412330627441e-01" purity="3.9369088411331177e-01" nType="-99"/>
        </Node>
        <Node pos="r" depth="1" NCoef="0" IVar="0" Cut="1.7994356155395508e+00" cType="1" res="-1.8447048962116241e-02" rms="4.1257125139236450e-01" purity="4.7578427195549011e-01" nType="0">
          <Node pos="l" depth="2" NCoef="0" IVar="-1" Cut="0.0000000000000000e+00" cType="1" res="-2.0302832126617432e-04" rms="4.1989746689796448e-01" purity="5.4875099658966064e-01" nType="-99"/>
          <Node pos="r" depth="2" NCoef="0" IVar="-1" Cut="0.0000000000000000e+00" cType="1" res="3.3817382063716650e-04" rms="3.9628773927688599e-01" purity="3.3537369966506958e-01" nType="-99"/>
        </Node>
      </Node>
    </BinaryTree>
    <BinaryTree type="DecisionTree" boostWeight="1.0000000000000000e+00" itree="487">
      <Node pos="s" depth="0" NCoef="0" IVar="0" Cut="4.4176682829856873e-01" cType="0" res="-1.8408711999654770e-02" rms="4.2142063379287720e-01" purity="4.9316343665122986e-01" nType="0">
        <Node pos="l" depth="1" NCoef="0" IVar="8" Cut="4.4499998092651367e+00" cType="1" res="-1.0597015731036663e-02" rms="4.1557946801185608e-01" purity="4.9374300241470337e-01" nType="0">
          <Node pos="l" depth="2" NCoef="0" IVar="-1" Cut="0.0000000000000000e+00" cType="1" res="2.4222895444836468e-04" rms="4.1355219483375549e-01" purity="4.9782568216323853e-01" nType="-99"/>
          <Node pos="r" depth="2" NCoef="0" IVar="-1" Cut="0.0000000000000000e+00" cType="1" res="-3.8386776577681303e-03" rms="4.5572599768638611e-01" purity="3.7784668803215027e-01" nType="-99"/>
        </Node>
        <Node pos="r" depth="1" NCoef="0" IVar="8" Cut="2.4261906147003174e+00" cType="0" res="-1.2238062918186188e-01" rms="4.8067179322242737e-01" purity="4.8544916510581970e-01" nType="0">
          <Node pos="l" depth="2" NCoef="0" IVar="-1" Cut="0.0000000000000000e+00" cType="1" res="5.9450441040098667e-03" rms="4.6293947100639343e-01" purity="5.9671622514724731e-01" nType="-99"/>
          <Node pos="r" depth="2" NCoef="0" IVar="-1" Cut="0.0000000000000000e+00" cType="1" res="-6.3781645148992538e-03" rms="4.7279578447341919e-01" purity="4.5539772510528564e-01" nType="-99"/>
        </Node>
      </Node>
    </BinaryTree>
    <BinaryTree type="DecisionTree" boostWeight="1.0000000000000000e+00" itree="488">
      <Node pos="s" depth="0" NCoef="0" IVar="4" Cut="1.7840467691421509e+00" cType="1" res="-4.5111747458577156e-03" rms="4.1062656044960022e-01" purity="4.9479836225509644e-01" nType="0">
        <Node pos="l" depth="1" NCoef="0" IVar="8" Cut="2.2619047164916992e+00" cType="1" res="2.2153200581669807e-02" rms="3.9175438880920410e-01" purity="7.2973811626434326e-01" nType="0">
          <Node pos="l" depth="2" NCoef="0" IVar="-1" Cut="0.0000000000000000e+00" cType="1" res="1.0154297342523932e-03" rms="3.8147798180580139e-01" purity="7.7010488510131836e-01" nType="-99"/>
          <Node pos="r" depth="2" NCoef="0" IVar="-1" Cut="0.0000000000000000e+00" cType="1" res="-3.1553101725876331e-03" rms="4.3288671970367432e-01" purity="4.8364579677581787e-01" nType="-99"/>
        </Node>
        <Node pos="r" depth="1" NCoef="0" IVar="20" Cut="9.3222599029541016e+00" cType="0" res="-2.2215725854039192e-02" rms="4.2176181077957153e-01" purity="3.3880361914634705e-01" nType="0">
          <Node pos="l" depth="2" NCoef="0" IVar="-1" Cut="0.0000000000000000e+00" cType="1" res="3.9141828892752528e-05" rms="4.1382443904876709e-01" purity="3.4119021892547607e-01" nType="-99"/>
          <Node pos="r" depth="2" NCoef="0" IVar="-1" Cut="0.0000000000000000e+00" cType="1" res="-8.6936756270006299e-04" rms="4.3785971403121948e-01" purity="3.3216947317123413e-01" nType="-99"/>
        </Node>
      </Node>
    </BinaryTree>
    <BinaryTree type="DecisionTree" boostWeight="1.0000000000000000e+00" itree="489">
      <Node pos="s" depth="0" NCoef="0" IVar="0" Cut="4.4540303945541382e-01" cType="1" res="7.0916065014898777e-03" rms="4.1134050488471985e-01" purity="5.1932662725448608e-01" nType="0">
        <Node pos="l" depth="1" NCoef="0" IVar="17" Cut="3.2048397064208984e+01" cType="1" res="-7.9648926854133606e-02" rms="4.6042567491531372e-01" purity="5.4782706499099731e-01" nType="0">
          <Node pos="l" depth="2" NCoef="0" IVar="-1" Cut="0.0000000000000000e+00" cType="1" res="2.0365966483950615e-03" rms="4.3688079714775085e-01" purity="6.5733194351196289e-01" nType="-99"/>
          <Node pos="r" depth="2" NCoef="0" IVar="-1" Cut="0.0000000000000000e+00" cType="1" res="-1.0401316918432713e-02" rms="4.5704126358032227e-01" purity="3.9252430200576782e-01" nType="-99"/>
        </Node>
        <Node pos="r" depth="1" NCoef="0" IVar="9" Cut="-8.5714282989501953e+00" cType="1" res="1.3528063893318176e-02" rms="4.0672600269317627e-01" purity="5.1721179485321045e-01" nType="0">
          <Node pos="l" depth="2" NCoef="0" IVar="-1" Cut="0.0000000000000000e+00" cType="1" res="5.6031430140137672e-03" rms="2.7644711732864380e-01" purity="8.9931696653366089e-01" nType="-99"/>
          <Node pos="r" depth="2" NCoef="0" IVar="-1" Cut="0.0000000000000000e+00" cType="1" res="-6.9099609390832484e-05" rms="4.0909397602081299e-01" purity="5.0629723072052002e-01" nType="-99"/>
        </Node>
      </Node>
    </BinaryTree>
    <BinaryTree type="DecisionTree" boostWeight="1.0000000000000000e+00" itree="490">
      <Node pos="s" depth="0" NCoef="0" IVar="20" Cut="3.7537380218505859e+01" cType="0" res="8.1466436386108398e-03" rms="4.0821728110313416e-01" purity="5.0465452671051025e-01" nType="0">
        <Node pos="l" depth="1" NCoef="0" IVar="3" Cut="3.3333332538604736e+00" cType="1" res="6.5723016858100891e-02" rms="4.0720722079277039e-01" purity="6.3477748632431030e-01" nType="0">
          <Node pos="l" depth="2" NCoef="0" IVar="-1" Cut="0.0000000000000000e+00" cType="1" res="3.6510021891444921e-03" rms="3.7000602483749390e-01" purity="6.8105918169021606e-01" nType="-99"/>
          <Node pos="r" depth="2" NCoef="0" IVar="-1" Cut="0.0000000000000000e+00" cType="1" res="-6.3975891098380089e-03" rms="4.7645309567451477e-01" purity="4.9628216028213501e-01" nType="-99"/>
        </Node>
        <Node pos="r" depth="1" NCoef="0" IVar="20" Cut="8.1078815460205078e+00" cType="1" res="-5.0546770216897130e-04" rms="4.0766665339469910e-01" purity="4.8510065674781799e-01" nType="0">
          <Node pos="l" depth="2" NCoef="0" IVar="-1" Cut="0.0000000000000000e+00" cType="1" res="1.0299453279003501e-03" rms="4.0371146798133850e-01" purity="5.6812816858291626e-01" nType="-99"/>
          <Node pos="r" depth="2" NCoef="0" IVar="-1" Cut="0.0000000000000000e+00" cType="1" res="-6.1079073930159211e-04" rms="4.0756562352180481e-01" purity="4.5715087652206421e-01" nType="-99"/>
        </Node>
      </Node>
    </BinaryTree>
    <BinaryTree type="DecisionTree" boostWeight="1.0000000000000000e+00" itree="491">
      <Node pos="s" depth="0" NCoef="0" IVar="4" Cut="3.1053133010864258e+00" cType="1" res="1.4363396912813187e-02" rms="4.0223062038421631e-01" purity="5.1122087240219116e-01" nType="0">
        <Node pos="l" depth="1" NCoef="0" IVar="6" Cut="7.4728411436080933e-01" cType="1" res="2.2873569279909134e-02" rms="4.1426825523376465e-01" purity="5.6059741973876953e-01" nType="0">
          <Node pos="l" depth="2" NCoef="0" IVar="-1" Cut="0.0000000000000000e+00" cType="1" res="2.2811670787632465e-03" rms="2.5498253107070923e-01" purity="9.3319249153137207e-01" nType="-99"/>
          <Node pos="r" depth="2" NCoef="0" IVar="-1" Cut="0.0000000000000000e+00" cType="1" res="1.4911704056430608e-04" rms="4.1719201207160950e-01" purity="5.4967784881591797e-01" nType="-99"/>
        </Node>
        <Node pos="r" depth="1" NCoef="0" IVar="4" Cut="3.4715790748596191e+00" cType="1" res="-5.7234771549701691e-02" rms="2.7085512876510620e-01" purity="9.5803946256637573e-02" nType="0">
          <Node pos="l" depth="2" NCoef="0" IVar="-1" Cut="0.0000000000000000e+00" cType="1" res="-8.4229261847212911e-04" rms="3.0659189820289612e-01" purity="1.3907331228256226e-01" nType="-99"/>
          <Node pos="r" depth="2" NCoef="0" IVar="-1" Cut="0.0000000000000000e+00" cType="1" res="-4.5679360628128052e-03" rms="2.3094281554222107e-01" purity="5.8238849043846130e-02" nType="-99"/>
        </Node>
      </Node>
    </BinaryTree>
    <BinaryTree type="DecisionTree" boostWeight="1.0000000000000000e+00" itree="492">
      <Node pos="s" depth="0" NCoef="0" IVar="18" Cut="2.1428570747375488e+00" cType="1" res="8.5848439484834671e-03" rms="4.1194429993629456e-01" purity="5.1551705598831177e-01" nType="0">
        <Node pos="l" depth="1" NCoef="0" IVar="9" Cut="-1.4285714626312256e+00" cType="1" res="-4.8325974494218826e-02" rms="4.1040506958961487e-01" purity="6.9756239652633667e-01" nType="0">
          <Node pos="l" depth="2" NCoef="0" IVar="-1" Cut="0.0000000000000000e+00" cType="1" res="6.4096837304532528e-03" rms="3.4153902530670166e-01" purity="8.1705355644226074e-01" nType="-99"/>
          <Node pos="r" depth="2" NCoef="0" IVar="-1" Cut="0.0000000000000000e+00" cType="1" res="-3.6514755338430405e-03" rms="4.3725839257240295e-01" purity="6.3014799356460571e-01" nType="-99"/>
        </Node>
        <Node pos="r" depth="1" NCoef="0" IVar="4" Cut="1.5223767757415771e+00" cType="1" res="1.9077094271779060e-02" rms="4.1136875748634338e-01" purity="4.8195457458496094e-01" nType="0">
          <Node pos="l" depth="2" NCoef="0" IVar="-1" Cut="0.0000000000000000e+00" cType="1" res="-2.0871940068900585e-03" rms="4.0883773565292358e-01" purity="6.7285490036010742e-01" nType="-99"/>
          <Node pos="r" depth="2" NCoef="0" IVar="-1" Cut="0.0000000000000000e+00" cType="1" res="4.0945655200630426e-04" rms="4.1132983565330505e-01" purity="4.2314362525939941e-01" nType="-99"/>
        </Node>
      </Node>
    </BinaryTree>
    <BinaryTree type="DecisionTree" boostWeight="1.0000000000000000e+00" itree="493">
      <Node pos="s" depth="0" NCoef="0" IVar="20" Cut="7.1492652893066406e+01" cType="1" res="2.6036337949335575e-03" rms="4.0463671088218689e-01" purity="4.9819025397300720e-01" nType="0">
        <Node pos="l" depth="1" NCoef="0" IVar="20" Cut="4.0161285400390625e+01" cType="0" res="9.6654100343585014e-03" rms="4.0540000796318054e-01" purity="5.0973522663116455e-01" nType="0">
          <Node pos="l" depth="2" NCoef="0" IVar="-1" Cut="0.0000000000000000e+00" cType="1" res="4.4928658753633499e-03" rms="3.9409062266349792e-01" purity="7.2760963439941406e-01" nType="-99"/>
          <Node pos="r" depth="2" NCoef="0" IVar="-1" Cut="0.0000000000000000e+00" cType="1" res="-3.9318963536061347e-04" rms="4.0457299351692200e-01" purity="4.8857659101486206e-01" nType="-99"/>
        </Node>
        <Node pos="r" depth="1" NCoef="0" IVar="-1" Cut="0.0000000000000000e+00" cType="1" res="-3.4364906605333090e-03" rms="3.4333053231239319e-01" purity="2.1700684726238251e-01" nType="-99"/>
      </Node>
    </BinaryTree>
    <BinaryTree type="DecisionTree" boostWeight="1.0000000000000000e+00" itree="494">
      <Node pos="s" depth="0" NCoef="0" IVar="7" Cut="-7.6285715103149414e+00" cType="1" res="9.2091067926958203e-04" rms="4.0569773316383362e-01" purity="4.9133682250976562e-01" nType="0">
        <Node pos="l" depth="1" NCoef="0" IVar="5" Cut="9.1788291931152344e-01" cType="1" res="-1.2873612344264984e-01" rms="4.1291341185569763e-01" purity="5.6847524642944336e-01" nType="0">
          <Node pos="l" depth="2" NCoef="0" IVar="-1" Cut="0.0000000000000000e+00" cType="1" res="-3.1551301945000887e-03" rms="4.0573710203170776e-01" purity="7.8401160240173340e-01" nType="-99"/>
          <Node pos="r" depth="2" NCoef="0" IVar="-1" Cut="0.0000000000000000e+00" cType="1" res="-3.9701359346508980e-03" rms="4.0648242831230164e-01" purity="3.8920590281486511e-01" nType="-99"/>
        </Node>
        <Node pos="r" depth="1" NCoef="0" IVar="7" Cut="-2.2309527397155762e+00" cType="1" res="6.6678621806204319e-03" rms="4.0441399812698364e-01" purity="4.8791772127151489e-01" nType="0">
          <Node pos="l" depth="2" NCoef="0" IVar="-1" Cut="0.0000000000000000e+00" cType="1" res="2.6568234898149967e-03" rms="3.7846237421035767e-01" purity="7.4903285503387451e-01" nType="-99"/>
          <Node pos="r" depth="2" NCoef="0" IVar="-1" Cut="0.0000000000000000e+00" cType="1" res="-2.1656474564224482e-04" rms="4.0528407692909241e-01" purity="4.6637549996376038e-01" nType="-99"/>
        </Node>
      </Node>
    </BinaryTree>
    <BinaryTree type="DecisionTree" boostWeight="1.0000000000000000e+00" itree="495">
      <Node pos="s" depth="0" NCoef="0" IVar="20" Cut="3.7537380218505859e+01" cType="0" res="-2.5022614281624556e-03" rms="4.1052362322807312e-01" purity="4.9842914938926697e-01" nType="0">
        <Node pos="l" depth="1" NCoef="0" IVar="17" Cut="5.2253787994384766e+01" cType="1" res="5.3159132599830627e-02" rms="4.0378731489181519e-01" purity="5.9445977210998535e-01" nType="0">
          <Node pos="l" depth="2" NCoef="0" IVar="-1" Cut="0.0000000000000000e+00" cType="1" res="6.8287174217402935e-03" rms="3.7316396832466125e-01" purity="7.5444519519805908e-01" nType="-99"/>
          <Node pos="r" depth="2" NCoef="0" IVar="-1" Cut="0.0000000000000000e+00" cType="1" res="-3.0219873879104853e-03" rms="4.1066470742225647e-01" purity="4.8505821824073792e-01" nType="-99"/>
        </Node>
        <Node pos="r" depth="1" NCoef="0" IVar="0" Cut="1.8925884962081909e+00" cType="1" res="-1.0432218201458454e-02" rms="4.1086110472679138e-01" purity="4.8474788665771484e-01" nType="0">
          <Node pos="l" depth="2" NCoef="0" IVar="-1" Cut="0.0000000000000000e+00" cType="1" res="-7.6030963100492954e-04" rms="4.1772919893264771e-01" purity="5.5370855331420898e-01" nType="-99"/>
          <Node pos="r" depth="2" NCoef="0" IVar="-1" Cut="0.0000000000000000e+00" cType="1" res="9.9109380971640348e-04" rms="3.9149752259254456e-01" purity="3.1512069702148438e-01" nType="-99"/>
        </Node>
      </Node>
    </BinaryTree>
    <BinaryTree type="DecisionTree" boostWeight="1.0000000000000000e+00" itree="496">
      <Node pos="s" depth="0" NCoef="0" IVar="18" Cut="6.1904764175415039e+00" cType="1" res="1.5597529709339142e-02" rms="4.0239852666854858e-01" purity="5.1805031299591064e-01" nType="0">
        <Node pos="l" depth="1" NCoef="0" IVar="11" Cut="2.9177014827728271e+00" cType="1" res="2.7245078235864639e-02" rms="4.2700836062431335e-01" purity="6.2304902076721191e-01" nType="0">
          <Node pos="l" depth="2" NCoef="0" IVar="-1" Cut="0.0000000000000000e+00" cType="1" res="5.4344866657629609e-04" rms="4.2728888988494873e-01" purity="6.4347326755523682e-01" nType="-99"/>
          <Node pos="r" depth="2" NCoef="0" IVar="-1" Cut="0.0000000000000000e+00" cType="1" res="-2.9238495044410229e-03" rms="4.0826037526130676e-01" purity="2.5744715332984924e-01" nType="-99"/>
        </Node>
        <Node pos="r" depth="1" NCoef="0" IVar="13" Cut="5.9221874922513962e-02" cType="0" res="-3.2412316650152206e-02" rms="2.7372661232948303e-01" purity="8.5257947444915771e-02" nType="0">
          <Node pos="l" depth="2" NCoef="0" IVar="-1" Cut="0.0000000000000000e+00" cType="1" res="-6.0173968086019158e-04" rms="3.1197109818458557e-01" purity="1.1326751112937927e-01" nType="-99"/>
          <Node pos="r" depth="2" NCoef="0" IVar="-1" Cut="0.0000000000000000e+00" cType="1" res="-5.0005740486085415e-03" rms="1.9960230588912964e-01" purity="4.2861565947532654e-02" nType="-99"/>
        </Node>
      </Node>
    </BinaryTree>
    <BinaryTree type="DecisionTree" boostWeight="1.0000000000000000e+00" itree="497">
      <Node pos="s" depth="0" NCoef="0" IVar="18" Cut="3.4285714626312256e+00" cType="1" res="7.4011972174048424e-03" rms="4.0742465853691101e-01" purity="5.0462812185287476e-01" nType="0">
        <Node pos="l" depth="1" NCoef="0" IVar="6" Cut="2.0810122489929199e+00" cType="1" res="7.2551235556602478e-02" rms="3.0229243636131287e-01" purity="7.8808087110519409e-01" nType="0">
          <Node pos="l" depth="2" NCoef="0" IVar="-1" Cut="0.0000000000000000e+00" cType="1" res="4.4428971596062183e-03" rms="2.8949850797653198e-01" purity="8.7909418344497681e-01" nType="-99"/>
          <Node pos="r" depth="2" NCoef="0" IVar="-1" Cut="0.0000000000000000e+00" cType="1" res="-5.7887709699571133e-03" rms="3.4700715541839600e-01" purity="2.2183164954185486e-01" nType="-99"/>
        </Node>
        <Node pos="r" depth="1" NCoef="0" IVar="15" Cut="8.0000000000000000e+00" cType="1" res="-1.2786435894668102e-02" rms="4.3288832902908325e-01" purity="4.1679644584655762e-01" nType="0">
          <Node pos="l" depth="2" NCoef="0" IVar="-1" Cut="0.0000000000000000e+00" cType="1" res="2.9180089477449656e-03" rms="4.2175337672233582e-01" purity="6.1467838287353516e-01" nType="-99"/>
          <Node pos="r" depth="2" NCoef="0" IVar="-1" Cut="0.0000000000000000e+00" cType="1" res="-6.0687289806082845e-04" rms="4.3365836143493652e-01" purity="3.9594718813896179e-01" nType="-99"/>
        </Node>
      </Node>
    </BinaryTree>
    <BinaryTree type="DecisionTree" boostWeight="1.0000000000000000e+00" itree="498">
      <Node pos="s" depth="0" NCoef="0" IVar="14" Cut="3.8380950927734375e+01" cType="1" res="8.2803694531321526e-03" rms="4.0079006552696228e-01" purity="5.0289988517761230e-01" nType="0">
        <Node pos="l" depth="1" NCoef="0" IVar="17" Cut="1.3158403396606445e+01" cType="1" res="6.9562733173370361e-02" rms="3.9803856611251831e-01" purity="6.4128881692886353e-01" nType="0">
          <Node pos="l" depth="2" NCoef="0" IVar="-1" Cut="0.0000000000000000e+00" cType="1" res="5.1439842209219933e-03" rms="4.0352019667625427e-01" purity="7.1809917688369751e-01" nType="-99"/>
          <Node pos="r" depth="2" NCoef="0" IVar="-1" Cut="0.0000000000000000e+00" cType="1" res="-4.8437379300594330e-03" rms="3.5104286670684814e-01" purity="3.8500666618347168e-01" nType="-99"/>
        </Node>
        <Node pos="r" depth="1" NCoef="0" IVar="7" Cut="-7.5333328247070312e+00" cType="1" res="-7.5685647316277027e-03" rms="3.9997333288192749e-01" purity="4.6710950136184692e-01" nType="0">
          <Node pos="l" depth="2" NCoef="0" IVar="-1" Cut="0.0000000000000000e+00" cType="1" res="-5.4369918070733547e-03" rms="4.3382570147514343e-01" purity="5.5953097343444824e-01" nType="-99"/>
          <Node pos="r" depth="2" NCoef="0" IVar="-1" Cut="0.0000000000000000e+00" cType="1" res="-5.7288707466796041e-04" rms="3.9711531996726990e-01" purity="4.6259912848472595e-01" nType="-99"/>
        </Node>
      </Node>
    </BinaryTree>
    <BinaryTree type="DecisionTree" boostWeight="1.0000000000000000e+00" itree="499">
      <Node pos="s" depth="0" NCoef="0" IVar="3" Cut="1.2857142686843872e+00" cType="1" res="2.5526212994009256e-03" rms="4.1606432199478149e-01" purity="5.1194584369659424e-01" nType="0">
        <Node pos="l" depth="1" NCoef="0" IVar="4" Cut="2.7276930809020996e+00" cType="1" res="5.4445724934339523e-02" rms="3.7306582927703857e-01" purity="5.3177380561828613e-01" nType="0">
          <Node pos="l" depth="2" NCoef="0" IVar="-1" Cut="0.0000000000000000e+00" cType="1" res="1.5386054292321205e-03" rms="3.9655807614326477e-01" purity="6.8205285072326660e-01" nType="-99"/>
          <Node pos="r" depth="2" NCoef="0" IVar="-1" Cut="0.0000000000000000e+00" cType="1" res="-2.2034954745322466e-03" rms="2.7432137727737427e-01" purity="1.1210825294256210e-01" nType="-99"/>
        </Node>
        <Node pos="r" depth="1" NCoef="0" IVar="21" Cut="3.2857143878936768e+00" cType="1" res="-1.6577463597059250e-02" rms="4.2925453186035156e-01" purity="5.0463634729385376e-01" nType="0">
          <Node pos="l" depth="2" NCoef="0" IVar="-1" Cut="0.0000000000000000e+00" cType="1" res="-2.7075389516539872e-04" rms="4.0896904468536377e-01" purity="5.8972865343093872e-01" nType="-99"/>
          <Node pos="r" depth="2" NCoef="0" IVar="-1" Cut="0.0000000000000000e+00" cType="1" res="-4.8402015818282962e-04" rms="4.5084473490715027e-01" purity="4.0286502242088318e-01" nType="-99"/>
        </Node>
      </Node>
    </BinaryTree>
    <BinaryTree type="DecisionTree" boostWeight="1.0000000000000000e+00" itree="500">
      <Node pos="s" depth="0" NCoef="0" IVar="20" Cut="6.7289039611816406e+01" cType="1" res="-4.5390976592898369e-03" rms="4.0320938825607300e-01" purity="4.8886504769325256e-01" nType="0">
        <Node pos="l" depth="1" NCoef="0" IVar="20" Cut="4.1517765045166016e+01" cType="0" res="-1.2563343625515699e-04" rms="4.0511366724967957e-01" purity="4.9787709116935730e-01" nType="0">
          <Node pos="l" depth="2" NCoef="0" IVar="-1" Cut="0.0000000000000000e+00" cType="1" res="3.9999336004257202e-03" rms="3.9118728041648865e-01" purity="6.9014716148376465e-01" nType="-99"/>
          <Node pos="r" depth="2" NCoef="0" IVar="-1" Cut="0.0000000000000000e+00" cType="1" res="-2.9808148974552751e-04" rms="4.0493512153625488e-01" purity="4.8330342769622803e-01" nType="-99"/>
        </Node>
        <Node pos="r" depth="1" NCoef="0" IVar="14" Cut="2.2686447143554688e+02" cType="1" res="-9.7866170108318329e-02" rms="3.4771606326103210e-01" purity="2.9829627275466919e-01" nType="0">
          <Node pos="l" depth="2" NCoef="0" IVar="-1" Cut="0.0000000000000000e+00" cType="1" res="1.5456911642104387e-03" rms="3.3485859632492065e-01" purity="3.2464581727981567e-01" nType="-99"/>
          <Node pos="r" depth="2" NCoef="0" IVar="-1" Cut="0.0000000000000000e+00" cType="1" res="-5.6769042275846004e-03" rms="3.5493296384811401e-01" purity="2.7541062235832214e-01" nType="-99"/>
        </Node>
      </Node>
    </BinaryTree>
    <BinaryTree type="DecisionTree" boostWeight="1.0000000000000000e+00" itree="501">
      <Node pos="s" depth="0" NCoef="0" IVar="7" Cut="3.5571424961090088e+00" cType="1" res="-1.4250659383833408e-02" rms="4.0737777948379517e-01" purity="4.7804290056228638e-01" nType="0">
        <Node pos="l" depth="1" NCoef="0" IVar="5" Cut="1.5396670103073120e+00" cType="1" res="-9.7534265369176865e-03" rms="4.0462747216224670e-01" purity="4.8359215259552002e-01" nType="0">
          <Node pos="l" depth="2" NCoef="0" IVar="-1" Cut="0.0000000000000000e+00" cType="1" res="1.3545453839469701e-04" rms="3.9475318789482117e-01" purity="6.8736881017684937e-01" nType="-99"/>
          <Node pos="r" depth="2" NCoef="0" IVar="-1" Cut="0.0000000000000000e+00" cType="1" res="-9.4313320005312562e-05" rms="4.1026261448860168e-01" purity="3.3984461426734924e-01" nType="-99"/>
        </Node>
        <Node pos="r" depth="1" NCoef="0" IVar="-1" Cut="0.0000000000000000e+00" cType="1" res="-2.4482344742864370e-03" rms="4.5966723561286926e-01" purity="3.2657435536384583e-01" nType="-99"/>
      </Node>
    </BinaryTree>
    <BinaryTree type="DecisionTree" boostWeight="1.0000000000000000e+00" itree="502">
      <Node pos="s" depth="0" NCoef="0" IVar="15" Cut="5.5714287757873535e+00" cType="1" res="-1.5024133957922459e-02" rms="4.1299754381179810e-01" purity="4.8691472411155701e-01" nType="0">
        <Node pos="l" depth="1" NCoef="0" IVar="0" Cut="3.5570931434631348e-01" cType="0" res="-8.8177241384983063e-02" rms="4.2705264687538147e-01" purity="6.3390481472015381e-01" nType="0">
          <Node pos="l" depth="2" NCoef="0" IVar="-1" Cut="0.0000000000000000e+00" cType="1" res="-1.0744720930233598e-03" rms="4.1244015097618103e-01" purity="6.5471285581588745e-01" nType="-99"/>
          <Node pos="r" depth="2" NCoef="0" IVar="-1" Cut="0.0000000000000000e+00" cType="1" res="-1.1048947460949421e-02" rms="4.7247007489204407e-01" purity="5.0180441141128540e-01" nType="-99"/>
        </Node>
        <Node pos="r" depth="1" NCoef="0" IVar="5" Cut="8.7959969043731689e-01" cType="1" res="-4.7587146982550621e-03" rms="4.0994364023208618e-01" purity="4.6628794074058533e-01" nType="0">
          <Node pos="l" depth="2" NCoef="0" IVar="-1" Cut="0.0000000000000000e+00" cType="1" res="4.5439405366778374e-03" rms="3.4389629960060120e-01" purity="8.0165207386016846e-01" nType="-99"/>
          <Node pos="r" depth="2" NCoef="0" IVar="-1" Cut="0.0000000000000000e+00" cType="1" res="-1.7116176604758948e-04" rms="4.1380149126052856e-01" purity="4.4028925895690918e-01" nType="-99"/>
        </Node>
      </Node>
    </BinaryTree>
    <BinaryTree type="DecisionTree" boostWeight="1.0000000000000000e+00" itree="503">
      <Node pos="s" depth="0" NCoef="0" IVar="3" Cut="3.9047617912292480e+00" cType="1" res="-1.6786949709057808e-02" rms="4.1098192334175110e-01" purity="4.8389247059822083e-01" nType="0">
        <Node pos="l" depth="1" NCoef="0" IVar="20" Cut="3.7537380218505859e+01" cType="0" res="3.7969709956087172e-04" rms="4.0211069583892822e-01" purity="4.9506542086601257e-01" nType="0">
          <Node pos="l" depth="2" NCoef="0" IVar="-1" Cut="0.0000000000000000e+00" cType="1" res="3.3520588185638189e-03" rms="3.7750214338302612e-01" purity="5.8437043428421021e-01" nType="-99"/>
          <Node pos="r" depth="2" NCoef="0" IVar="-1" Cut="0.0000000000000000e+00" cType="1" res="-1.2161642371211201e-04" rms="4.0567278861999512e-01" purity="4.7929081320762634e-01" nType="-99"/>
        </Node>
        <Node pos="r" depth="1" NCoef="0" IVar="14" Cut="8.2104652404785156e+01" cType="1" res="-6.2070176005363464e-02" rms="4.3023875355720520e-01" purity="4.5441979169845581e-01" nType="0">
          <Node pos="l" depth="2" NCoef="0" IVar="-1" Cut="0.0000000000000000e+00" cType="1" res="1.5992352564353496e-04" rms="4.3084350228309631e-01" purity="5.1340889930725098e-01" nType="-99"/>
          <Node pos="r" depth="2" NCoef="0" IVar="-1" Cut="0.0000000000000000e+00" cType="1" res="-4.0129031985998154e-03" rms="4.1353234648704529e-01" purity="3.3786255121231079e-01" nType="-99"/>
        </Node>
      </Node>
    </BinaryTree>
    <BinaryTree type="DecisionTree" boostWeight="1.0000000000000000e+00" itree="504">
      <Node pos="s" depth="0" NCoef="0" IVar="15" Cut="4.1428570747375488e+00" cType="1" res="-2.1489497274160385e-02" rms="4.1742417216300964e-01" purity="4.8394629359245300e-01" nType="0">
        <Node pos="l" depth="1" NCoef="0" IVar="1" Cut="7.0000000000000000e+00" cType="1" res="-1.0896913707256317e-01" rms="4.2284494638442993e-01" purity="5.7450616359710693e-01" nType="0">
          <Node pos="l" depth="2" NCoef="0" IVar="-1" Cut="0.0000000000000000e+00" cType="1" res="-3.3525254111737013e-03" rms="4.3732124567031860e-01" purity="6.3657385110855103e-01" nType="-99"/>
          <Node pos="r" depth="2" NCoef="0" IVar="-1" Cut="0.0000000000000000e+00" cType="1" res="-5.0338068976998329e-03" rms="3.4985756874084473e-01" purity="2.9772749543190002e-01" nType="-99"/>
        </Node>
        <Node pos="r" depth="1" NCoef="0" IVar="7" Cut="-1.0095229148864746e+00" cType="1" res="-1.3539259321987629e-02" rms="4.1601717472076416e-01" purity="4.7571611404418945e-01" nType="0">
          <Node pos="l" depth="2" NCoef="0" IVar="-1" Cut="0.0000000000000000e+00" cType="1" res="3.0779655207879841e-04" rms="4.2129653692245483e-01" purity="6.1692494153976440e-01" nType="-99"/>
          <Node pos="r" depth="2" NCoef="0" IVar="-1" Cut="0.0000000000000000e+00" cType="1" res="6.3404142565559596e-05" rms="4.1423884034156799e-01" purity="4.4455903768539429e-01" nType="-99"/>
        </Node>
      </Node>
    </BinaryTree>
    <BinaryTree type="DecisionTree" boostWeight="1.0000000000000000e+00" itree="505">
      <Node pos="s" depth="0" NCoef="0" IVar="12" Cut="2.1428570747375488e+00" cType="1" res="-1.4060680754482746e-02" rms="4.1876348853111267e-01" purity="5.0047469139099121e-01" nType="0">
        <Node pos="l" depth="1" NCoef="0" IVar="5" Cut="1.0906394720077515e+00" cType="1" res="-4.5434143394231796e-03" rms="4.0860417485237122e-01" purity="5.1243150234222412e-01" nType="0">
          <Node pos="l" depth="2" NCoef="0" IVar="-1" Cut="0.0000000000000000e+00" cType="1" res="9.1164634795859456e-04" rms="3.5213071107864380e-01" purity="7.9161489009857178e-01" nType="-99"/>
          <Node pos="r" depth="2" NCoef="0" IVar="-1" Cut="0.0000000000000000e+00" cType="1" res="9.2978974862489849e-05" rms="4.2195141315460205e-01" purity="4.3398487567901611e-01" nType="-99"/>
        </Node>
        <Node pos="r" depth="1" NCoef="0" IVar="1" Cut="6.8571429252624512e+00" cType="0" res="-5.9843439608812332e-02" rms="4.6180695295333862e-01" purity="4.4295662641525269e-01" nType="0">
          <Node pos="l" depth="2" NCoef="0" IVar="-1" Cut="0.0000000000000000e+00" cType="1" res="1.5983005287125707e-03" rms="4.2895799875259399e-01" purity="5.7212096452713013e-01" nType="-99"/>
          <Node pos="r" depth="2" NCoef="0" IVar="-1" Cut="0.0000000000000000e+00" cType="1" res="-2.0911642350256443e-03" rms="4.6305504441261292e-01" purity="4.1837605834007263e-01" nType="-99"/>
        </Node>
      </Node>
    </BinaryTree>
    <BinaryTree type="DecisionTree" boostWeight="1.0000000000000000e+00" itree="506">
      <Node pos="s" depth="0" NCoef="0" IVar="1" Cut="8.4285717010498047e+00" cType="0" res="2.2198180668056011e-03" rms="4.1035068035125732e-01" purity="5.0631600618362427e-01" nType="0">
        <Node pos="l" depth="1" NCoef="0" IVar="6" Cut="1.8907508850097656e+00" cType="1" res="1.4331038296222687e-01" rms="4.7218140959739685e-01" purity="6.2731963396072388e-01" nType="0">
          <Node pos="l" depth="2" NCoef="0" IVar="-1" Cut="0.0000000000000000e+00" cType="1" res="2.1325941197574139e-03" rms="4.4925349950790405e-01" purity="6.6965705156326294e-01" nType="-99"/>
          <Node pos="r" depth="2" NCoef="0" IVar="-1" Cut="0.0000000000000000e+00" cType="1" res="7.6803229749202728e-03" rms="4.8970773816108704e-01" purity="5.8768749237060547e-01" nType="-99"/>
        </Node>
        <Node pos="r" depth="1" NCoef="0" IVar="1" Cut="3.0476191043853760e+00" cType="1" res="-2.4824666325002909e-03" rms="4.0728795528411865e-01" purity="5.0228315591812134e-01" nType="0">
          <Node pos="l" depth="2" NCoef="0" IVar="-1" Cut="0.0000000000000000e+00" cType="1" res="4.6925763599574566e-03" rms="3.4599882364273071e-01" purity="6.5872102975845337e-01" nType="-99"/>
          <Node pos="r" depth="2" NCoef="0" IVar="-1" Cut="0.0000000000000000e+00" cType="1" res="-1.2990854447707534e-03" rms="4.1933101415634155e-01" purity="4.6120601892471313e-01" nType="-99"/>
        </Node>
      </Node>
    </BinaryTree>
    <BinaryTree type="DecisionTree" boostWeight="1.0000000000000000e+00" itree="507">
      <Node pos="s" depth="0" NCoef="0" IVar="0" Cut="4.4540303945541382e-01" cType="1" res="5.9129297733306885e-04" rms="4.1560620069503784e-01" purity="5.1259678602218628e-01" nType="0">
        <Node pos="l" depth="1" NCoef="0" IVar="10" Cut="1.7144017219543457e+00" cType="0" res="-1.0344404727220535e-01" rms="4.6951368451118469e-01" purity="5.3277051448822021e-01" nType="0">
          <Node pos="l" depth="2" NCoef="0" IVar="-1" Cut="0.0000000000000000e+00" cType="1" res="5.2400697022676468e-03" rms="3.9956727623939514e-01" purity="5.7281023263931274e-01" nType="-99"/>
          <Node pos="r" depth="2" NCoef="0" IVar="-1" Cut="0.0000000000000000e+00" cType="1" res="-6.5894089639186859e-03" rms="4.7520595788955688e-01" purity="5.1770222187042236e-01" nType="-99"/>
        </Node>
        <Node pos="r" depth="1" NCoef="0" IVar="4" Cut="3.2973644733428955e+00" cType="1" res="8.0552641302347183e-03" rms="4.1045466065406799e-01" purity="5.1114940643310547e-01" nType="0">
          <Node pos="l" depth="2" NCoef="0" IVar="-1" Cut="0.0000000000000000e+00" cType="1" res="3.9689778350293636e-04" rms="4.2146933078765869e-01" purity="5.5211323499679565e-01" nType="-99"/>
          <Node pos="r" depth="2" NCoef="0" IVar="-1" Cut="0.0000000000000000e+00" cType="1" res="-3.9428360760211945e-03" rms="2.5401648879051208e-01" purity="7.1612387895584106e-02" nType="-99"/>
        </Node>
      </Node>
    </BinaryTree>
    <BinaryTree type="DecisionTree" boostWeight="1.0000000000000000e+00" itree="508">
      <Node pos="s" depth="0" NCoef="0" IVar="5" Cut="4.3979990482330322e-01" cType="1" res="-5.6653078645467758e-03" rms="4.1043126583099365e-01" purity="4.9959886074066162e-01" nType="0">
        <Node pos="l" depth="1" NCoef="0" IVar="-1" Cut="0.0000000000000000e+00" cType="1" res="1.3654858805239201e-02" rms="1.1427511274814606e-01" purity="1.0000000000000000e+00" nType="-99"/>
        <Node pos="r" depth="1" NCoef="0" IVar="8" Cut="7.1785717010498047e+00" cType="1" res="-8.7361270561814308e-03" rms="4.1307175159454346e-01" purity="4.9083292484283447e-01" nType="0">
          <Node pos="l" depth="2" NCoef="0" IVar="-1" Cut="0.0000000000000000e+00" cType="1" res="-1.5580776380375028e-04" rms="4.1161227226257324e-01" purity="4.9563664197921753e-01" nType="-99"/>
          <Node pos="r" depth="2" NCoef="0" IVar="-1" Cut="0.0000000000000000e+00" cType="1" res="-1.2257412308827043e-03" rms="4.4244736433029175e-01" purity="3.1790208816528320e-01" nType="-99"/>
        </Node>
      </Node>
    </BinaryTree>
    <BinaryTree type="DecisionTree" boostWeight="1.0000000000000000e+00" itree="509">
      <Node pos="s" depth="0" NCoef="0" IVar="6" Cut="8.9041763544082642e-01" cType="1" res="4.1146037983708084e-04" rms="4.1190314292907715e-01" purity="5.0363779067993164e-01" nType="0">
        <Node pos="l" depth="1" NCoef="0" IVar="20" Cut="2.6874166488647461e+01" cType="1" res="-1.4082129299640656e-01" rms="4.6461507678031921e-01" purity="5.6941157579421997e-01" nType="0">
          <Node pos="l" depth="2" NCoef="0" IVar="-1" Cut="0.0000000000000000e+00" cType="1" res="1.3996150810271502e-03" rms="3.9286914467811584e-01" purity="6.9891089200973511e-01" nType="-99"/>
          <Node pos="r" depth="2" NCoef="0" IVar="-1" Cut="0.0000000000000000e+00" cType="1" res="-8.2282265648245811e-03" rms="4.8397597670555115e-01" purity="4.0714639425277710e-01" nType="-99"/>
        </Node>
        <Node pos="r" depth="1" NCoef="0" IVar="20" Cut="2.8644519805908203e+01" cType="0" res="1.1155777610838413e-02" rms="4.0560621023178101e-01" purity="4.9863404035568237e-01" nType="0">
          <Node pos="l" depth="2" NCoef="0" IVar="-1" Cut="0.0000000000000000e+00" cType="1" res="1.0612220503389835e-03" rms="4.0641388297080994e-01" purity="5.8833920955657959e-01" nType="-99"/>
          <Node pos="r" depth="2" NCoef="0" IVar="-1" Cut="0.0000000000000000e+00" cType="1" res="-3.7519785109907389e-04" rms="4.0441167354583740e-01" purity="4.7350540757179260e-01" nType="-99"/>
        </Node>
      </Node>
    </BinaryTree>
    <BinaryTree type="DecisionTree" boostWeight="1.0000000000000000e+00" itree="510">
      <Node pos="s" depth="0" NCoef="0" IVar="6" Cut="8.9041763544082642e-01" cType="1" res="4.6985265798866749e-03" rms="4.0644657611846924e-01" purity="4.9439603090286255e-01" nType="0">
        <Node pos="l" depth="1" NCoef="0" IVar="14" Cut="1.2103318786621094e+02" cType="1" res="-1.1784967035055161e-01" rms="4.5618024468421936e-01" purity="5.6403732299804688e-01" nType="0">
          <Node pos="l" depth="2" NCoef="0" IVar="-1" Cut="0.0000000000000000e+00" cType="1" res="1.0868187528103590e-03" rms="4.3120369315147400e-01" purity="6.3740861415863037e-01" nType="-99"/>
          <Node pos="r" depth="2" NCoef="0" IVar="-1" Cut="0.0000000000000000e+00" cType="1" res="-1.0291668586432934e-02" rms="4.6617802977561951e-01" purity="3.5531008243560791e-01" nType="-99"/>
        </Node>
        <Node pos="r" depth="1" NCoef="0" IVar="20" Cut="2.8644519805908203e+01" cType="0" res="1.4707816764712334e-02" rms="4.0045967698097229e-01" purity="4.8870798945426941e-01" nType="0">
          <Node pos="l" depth="2" NCoef="0" IVar="-1" Cut="0.0000000000000000e+00" cType="1" res="1.0251493658870459e-03" rms="4.0192872285842896e-01" purity="5.6547480821609497e-01" nType="-99"/>
          <Node pos="r" depth="2" NCoef="0" IVar="-1" Cut="0.0000000000000000e+00" cType="1" res="-3.6327057750895619e-04" rms="3.9907148480415344e-01" purity="4.6697685122489929e-01" nType="-99"/>
        </Node>
      </Node>
    </BinaryTree>
    <BinaryTree type="DecisionTree" boostWeight="1.0000000000000000e+00" itree="511">
      <Node pos="s" depth="0" NCoef="0" IVar="20" Cut="3.5085273742675781e+01" cType="1" res="-1.1080046184360981e-02" rms="4.2274478077888489e-01" purity="4.9714031815528870e-01" nType="0">
        <Node pos="l" depth="1" NCoef="0" IVar="15" Cut="4.1428570747375488e+00" cType="1" res="1.3513241428881884e-03" rms="4.1638818383216858e-01" purity="4.9767860770225525e-01" nType="0">
          <Node pos="l" depth="2" NCoef="0" IVar="-1" Cut="0.0000000000000000e+00" cType="1" res="-3.8679502904415131e-03" rms="4.2804312705993652e-01" purity="5.9051865339279175e-01" nType="-99"/>
          <Node pos="r" depth="2" NCoef="0" IVar="-1" Cut="0.0000000000000000e+00" cType="1" res="2.1083888714201748e-04" rms="4.1418400406837463e-01" purity="4.8890382051467896e-01" nType="-99"/>
        </Node>
        <Node pos="r" depth="1" NCoef="0" IVar="20" Cut="3.9427371978759766e+01" cType="0" res="-6.8063825368881226e-02" rms="4.4632744789123535e-01" purity="4.9467286467552185e-01" nType="0">
          <Node pos="l" depth="2" NCoef="0" IVar="-1" Cut="0.0000000000000000e+00" cType="1" res="5.5984256323426962e-04" rms="4.2987382411956787e-01" purity="5.2575200796127319e-01" nType="-99"/>
          <Node pos="r" depth="2" NCoef="0" IVar="-1" Cut="0.0000000000000000e+00" cType="1" res="-4.1224900633096695e-03" rms="4.7373178601264954e-01" purity="3.8181909918785095e-01" nType="-99"/>
        </Node>
      </Node>
    </BinaryTree>
    <BinaryTree type="DecisionTree" boostWeight="1.0000000000000000e+00" itree="512">
      <Node pos="s" depth="0" NCoef="0" IVar="20" Cut="3.5821082592010498e+00" cType="0" res="3.5669466014951468e-03" rms="4.0437239408493042e-01" purity="5.0343966484069824e-01" nType="0">
        <Node pos="l" depth="1" NCoef="0" IVar="20" Cut="7.1169349670410156e+01" cType="1" res="1.1537658981978893e-02" rms="4.0454947948455811e-01" purity="5.1480489969253540e-01" nType="0">
          <Node pos="l" depth="2" NCoef="0" IVar="-1" Cut="0.0000000000000000e+00" cType="1" res="2.4959939764812589e-04" rms="4.0473312139511108e-01" purity="5.2298903465270996e-01" nType="-99"/>
          <Node pos="r" depth="2" NCoef="0" IVar="-1" Cut="0.0000000000000000e+00" cType="1" res="-3.1494456343352795e-03" rms="3.8254860043525696e-01" purity="3.1737536191940308e-01" nType="-99"/>
        </Node>
        <Node pos="r" depth="1" NCoef="0" IVar="6" Cut="1.5301896333694458e+00" cType="1" res="-6.0879912227392197e-02" rms="3.9710411429405212e-01" purity="4.1154637932777405e-01" nType="0">
          <Node pos="l" depth="2" NCoef="0" IVar="-1" Cut="0.0000000000000000e+00" cType="1" res="9.5269689336419106e-03" rms="3.4916296601295471e-01" purity="7.7071785926818848e-01" nType="-99"/>
          <Node pos="r" depth="2" NCoef="0" IVar="-1" Cut="0.0000000000000000e+00" cType="1" res="-4.0569035336375237e-03" rms="3.9850917458534241e-01" purity="2.7615448832511902e-01" nType="-99"/>
        </Node>
      </Node>
    </BinaryTree>
    <BinaryTree type="DecisionTree" boostWeight="1.0000000000000000e+00" itree="513">
      <Node pos="s" depth="0" NCoef="0" IVar="5" Cut="1.0286051034927368e+00" cType="1" res="-9.5327701419591904e-03" rms="4.0713045001029968e-01" purity="4.8867410421371460e-01" nType="0">
        <Node pos="l" depth="1" NCoef="0" IVar="4" Cut="1.4435535669326782e+00" cType="1" res="5.2043914794921875e-02" rms="3.6195734143257141e-01" purity="7.7680814266204834e-01" nType="0">
          <Node pos="l" depth="2" NCoef="0" IVar="-1" Cut="0.0000000000000000e+00" cType="1" res="-3.2733255065977573e-03" rms="3.5222780704498291e-01" purity="7.7720069885253906e-01" nType="-99"/>
          <Node pos="r" depth="2" NCoef="0" IVar="-1" Cut="0.0000000000000000e+00" cType="1" res="5.6371353566646576e-03" rms="3.7302008271217346e-01" purity="7.7565264701843262e-01" nType="-99"/>
        </Node>
        <Node pos="r" depth="1" NCoef="0" IVar="9" Cut="-1.4285714626312256e+00" cType="0" res="-2.4180907756090164e-02" rms="4.1581636667251587e-01" purity="4.2013150453567505e-01" nType="0">
          <Node pos="l" depth="2" NCoef="0" IVar="-1" Cut="0.0000000000000000e+00" cType="1" res="2.0242990285623819e-04" rms="4.0952429175376892e-01" purity="4.2308297753334045e-01" nType="-99"/>
          <Node pos="r" depth="2" NCoef="0" IVar="-1" Cut="0.0000000000000000e+00" cType="1" res="-1.6713453223928809e-03" rms="4.4494283199310303e-01" purity="4.0341606736183167e-01" nType="-99"/>
        </Node>
      </Node>
    </BinaryTree>
    <BinaryTree type="DecisionTree" boostWeight="1.0000000000000000e+00" itree="514">
      <Node pos="s" depth="0" NCoef="0" IVar="3" Cut="1.0476191043853760e+00" cType="1" res="6.9079507375136018e-04" rms="4.1299256682395935e-01" purity="5.0535780191421509e-01" nType="0">
        <Node pos="l" depth="1" NCoef="0" IVar="10" Cut="1.8620736598968506e+00" cType="1" res="4.3793018907308578e-02" rms="3.7705400586128235e-01" purity="5.1243114471435547e-01" nType="0">
          <Node pos="l" depth="2" NCoef="0" IVar="-1" Cut="0.0000000000000000e+00" cType="1" res="2.5417539291083813e-03" rms="3.4689813852310181e-01" purity="7.5676935911178589e-01" nType="-99"/>
          <Node pos="r" depth="2" NCoef="0" IVar="-1" Cut="0.0000000000000000e+00" cType="1" res="-8.8554393732920289e-04" rms="3.9099827408790588e-01" purity="2.9499742388725281e-01" nType="-99"/>
        </Node>
        <Node pos="r" depth="1" NCoef="0" IVar="15" Cut="4.1428570747375488e+00" cType="1" res="-1.4791161753237247e-02" rms="4.2409250140190125e-01" purity="5.0281709432601929e-01" nType="0">
          <Node pos="l" depth="2" NCoef="0" IVar="-1" Cut="0.0000000000000000e+00" cType="1" res="-4.4326330535113811e-03" rms="4.3264320492744446e-01" purity="5.7534337043762207e-01" nType="-99"/>
          <Node pos="r" depth="2" NCoef="0" IVar="-1" Cut="0.0000000000000000e+00" cType="1" res="-5.0513994210632518e-05" rms="4.2219805717468262e-01" purity="4.9601006507873535e-01" nType="-99"/>
        </Node>
      </Node>
    </BinaryTree>
    <BinaryTree type="DecisionTree" boostWeight="1.0000000000000000e+00" itree="515">
      <Node pos="s" depth="0" NCoef="0" IVar="6" Cut="6.6406840085983276e-01" cType="1" res="1.9754781387746334e-03" rms="4.1584056615829468e-01" purity="5.1630783081054688e-01" nType="0">
        <Node pos="l" depth="1" NCoef="0" IVar="-1" Cut="0.0000000000000000e+00" cType="1" res="-2.3200737778097391e-03" rms="4.9948495626449585e-01" purity="5.5008232593536377e-01" nType="-99"/>
        <Node pos="r" depth="1" NCoef="0" IVar="12" Cut="2.1428570747375488e+00" cType="1" res="7.6915388926863670e-03" rms="4.1171854734420776e-01" purity="5.1530086994171143e-01" nType="0">
          <Node pos="l" depth="2" NCoef="0" IVar="-1" Cut="0.0000000000000000e+00" cType="1" res="2.6434432948008180e-04" rms="4.0367794036865234e-01" purity="5.3513890504837036e-01" nType="-99"/>
          <Node pos="r" depth="2" NCoef="0" IVar="-1" Cut="0.0000000000000000e+00" cType="1" res="-1.2918381253257394e-03" rms="4.4197160005569458e-01" purity="4.2403665184974670e-01" nType="-99"/>
        </Node>
      </Node>
    </BinaryTree>
    <BinaryTree type="DecisionTree" boostWeight="1.0000000000000000e+00" itree="516">
      <Node pos="s" depth="0" NCoef="0" IVar="7" Cut="3.5571424961090088e+00" cType="1" res="-5.7724933139979839e-03" rms="4.1502690315246582e-01" purity="4.9949449300765991e-01" nType="0">
        <Node pos="l" depth="1" NCoef="0" IVar="15" Cut="1.5857142448425293e+01" cType="1" res="1.4917623775545508e-04" rms="4.1323900222778320e-01" purity="5.0809431076049805e-01" nType="0">
          <Node pos="l" depth="2" NCoef="0" IVar="-1" Cut="0.0000000000000000e+00" cType="1" res="1.3752957102042274e-06" rms="4.1565695405006409e-01" purity="6.1572575569152832e-01" nType="-99"/>
          <Node pos="r" depth="2" NCoef="0" IVar="-1" Cut="0.0000000000000000e+00" cType="1" res="1.3040108797213179e-06" rms="4.0770503878593445e-01" purity="3.2588261365890503e-01" nType="-99"/>
        </Node>
        <Node pos="r" depth="1" NCoef="0" IVar="-1" Cut="0.0000000000000000e+00" cType="1" res="-2.2738482803106308e-03" rms="4.3242976069450378e-01" purity="3.0415698885917664e-01" nType="-99"/>
      </Node>
    </BinaryTree>
    <BinaryTree type="DecisionTree" boostWeight="1.0000000000000000e+00" itree="517">
      <Node pos="s" depth="0" NCoef="0" IVar="4" Cut="2.0299973487854004e+00" cType="1" res="6.0732741840183735e-03" rms="3.9857685565948486e-01" purity="4.9145925045013428e-01" nType="0">
        <Node pos="l" depth="1" NCoef="0" IVar="20" Cut="4.1323600769042969e+01" cType="0" res="3.4801706671714783e-02" rms="4.0363073348999023e-01" purity="6.9166630506515503e-01" nType="0">
          <Node pos="l" depth="2" NCoef="0" IVar="-1" Cut="0.0000000000000000e+00" cType="1" res="8.3953384310007095e-03" rms="3.0924394726753235e-01" purity="8.5368162393569946e-01" nType="-99"/>
          <Node pos="r" depth="2" NCoef="0" IVar="-1" Cut="0.0000000000000000e+00" cType="1" res="-7.8139983816072345e-04" rms="4.1043123602867126e-01" purity="6.7157465219497681e-01" nType="-99"/>
        </Node>
        <Node pos="r" depth="1" NCoef="0" IVar="10" Cut="2.1584119796752930e+00" cType="1" res="-2.5795269757509232e-02" rms="3.9042919874191284e-01" purity="2.6936897635459900e-01" nType="0">
          <Node pos="l" depth="2" NCoef="0" IVar="-1" Cut="0.0000000000000000e+00" cType="1" res="6.7020283313468099e-04" rms="4.0415853261947632e-01" purity="3.5305580496788025e-01" nType="-99"/>
          <Node pos="r" depth="2" NCoef="0" IVar="-1" Cut="0.0000000000000000e+00" cType="1" res="-6.8899459438398480e-04" rms="3.8333511352539062e-01" purity="2.3320947587490082e-01" nType="-99"/>
        </Node>
      </Node>
    </BinaryTree>
    <BinaryTree type="DecisionTree" boostWeight="1.0000000000000000e+00" itree="518">
      <Node pos="s" depth="0" NCoef="0" IVar="15" Cut="4.1428570747375488e+00" cType="1" res="-2.1759348455816507e-03" rms="4.1166922450065613e-01" purity="4.9729189276695251e-01" nType="0">
        <Node pos="l" depth="1" NCoef="0" IVar="1" Cut="5.4285712242126465e+00" cType="1" res="-1.0076200217008591e-01" rms="4.4378912448883057e-01" purity="6.0169225931167603e-01" nType="0">
          <Node pos="l" depth="2" NCoef="0" IVar="-1" Cut="0.0000000000000000e+00" cType="1" res="6.9858240894973278e-03" rms="3.5455039143562317e-01" purity="7.5948160886764526e-01" nType="-99"/>
          <Node pos="r" depth="2" NCoef="0" IVar="-1" Cut="0.0000000000000000e+00" cType="1" res="-1.0507839731872082e-02" rms="4.9540573358535767e-01" purity="4.0726312994956970e-01" nType="-99"/>
        </Node>
        <Node pos="r" depth="1" NCoef="0" IVar="20" Cut="1.0373162269592285e+01" cType="1" res="6.6828266717493534e-03" rms="4.0749314427375793e-01" purity="4.8791065812110901e-01" nType="0">
          <Node pos="l" depth="2" NCoef="0" IVar="-1" Cut="0.0000000000000000e+00" cType="1" res="1.5692682936787605e-03" rms="4.0790295600891113e-01" purity="5.7520514726638794e-01" nType="-99"/>
          <Node pos="r" depth="2" NCoef="0" IVar="-1" Cut="0.0000000000000000e+00" cType="1" res="-4.1837507160380483e-04" rms="4.0616664290428162e-01" purity="4.5735958218574524e-01" nType="-99"/>
        </Node>
      </Node>
    </BinaryTree>
    <BinaryTree type="DecisionTree" boostWeight="1.0000000000000000e+00" itree="519">
      <Node pos="s" depth="0" NCoef="0" IVar="15" Cut="5.5714287757873535e+00" cType="1" res="-5.9893727302551270e-03" rms="4.1571861505508423e-01" purity="4.9779695272445679e-01" nType="0">
        <Node pos="l" depth="1" NCoef="0" IVar="1" Cut="7.0000000000000000e+00" cType="1" res="-7.2834111750125885e-02" rms="4.2201960086822510e-01" purity="6.4914166927337646e-01" nType="0">
          <Node pos="l" depth="2" NCoef="0" IVar="-1" Cut="0.0000000000000000e+00" cType="1" res="-1.6815442359074950e-03" rms="4.2984557151794434e-01" purity="7.0148301124572754e-01" nType="-99"/>
          <Node pos="r" depth="2" NCoef="0" IVar="-1" Cut="0.0000000000000000e+00" cType="1" res="-1.6850107349455357e-03" rms="3.7207567691802979e-01" purity="3.4615471959114075e-01" nType="-99"/>
        </Node>
        <Node pos="r" depth="1" NCoef="0" IVar="7" Cut="-1.7142885923385620e-01" cType="1" res="3.3051054924726486e-03" rms="4.1398108005523682e-01" purity="4.7675311565399170e-01" nType="0">
          <Node pos="l" depth="2" NCoef="0" IVar="-1" Cut="0.0000000000000000e+00" cType="1" res="1.0860753245651722e-03" rms="4.0626049041748047e-01" purity="5.5697053670883179e-01" nType="-99"/>
          <Node pos="r" depth="2" NCoef="0" IVar="-1" Cut="0.0000000000000000e+00" cType="1" res="-5.7240162277594209e-04" rms="4.1724401712417603e-01" purity="4.2667713761329651e-01" nType="-99"/>
        </Node>
      </Node>
    </BinaryTree>
    <BinaryTree type="DecisionTree" boostWeight="1.0000000000000000e+00" itree="520">
      <Node pos="s" depth="0" NCoef="0" IVar="8" Cut="4.6452379226684570e+00" cType="0" res="2.2547570988535881e-03" rms="4.0650826692581177e-01" purity="5.0543653964996338e-01" nType="0">
        <Node pos="l" depth="1" NCoef="0" IVar="-1" Cut="0.0000000000000000e+00" cType="1" res="2.4765462148934603e-04" rms="3.8964661955833435e-01" purity="6.1332523822784424e-01" nType="-99"/>
        <Node pos="r" depth="1" NCoef="0" IVar="8" Cut="3.2999999523162842e+00" cType="1" res="-1.4825130347162485e-03" rms="4.0638872981071472e-01" purity="5.0227481126785278e-01" nType="0">
          <Node pos="l" depth="2" NCoef="0" IVar="-1" Cut="0.0000000000000000e+00" cType="1" res="1.1446177813922986e-04" rms="4.0396276116371155e-01" purity="5.0952428579330444e-01" nType="-99"/>
          <Node pos="r" depth="2" NCoef="0" IVar="-1" Cut="0.0000000000000000e+00" cType="1" res="-6.4276517368853092e-03" rms="4.1563439369201660e-01" purity="2.3171168565750122e-01" nType="-99"/>
        </Node>
      </Node>
    </BinaryTree>
    <BinaryTree type="DecisionTree" boostWeight="1.0000000000000000e+00" itree="521">
      <Node pos="s" depth="0" NCoef="0" IVar="6" Cut="1.7777836322784424e+00" cType="1" res="-4.1014887392520905e-03" rms="4.1019570827484131e-01" purity="4.9333944916725159e-01" nType="0">
        <Node pos="l" depth="1" NCoef="0" IVar="3" Cut="4.0000000000000000e+00" cType="1" res="-2.6466971263289452e-02" rms="4.1564354300498962e-01" purity="6.1954635381698608e-01" nType="0">
          <Node pos="l" depth="2" NCoef="0" IVar="-1" Cut="0.0000000000000000e+00" cType="1" res="-2.0181347281322815e-05" rms="4.1264259815216064e-01" purity="6.2354797124862671e-01" nType="-99"/>
          <Node pos="r" depth="2" NCoef="0" IVar="-1" Cut="0.0000000000000000e+00" cType="1" res="-6.0035428032279015e-04" rms="4.3423846364021301e-01" purity="5.8879858255386353e-01" nType="-99"/>
        </Node>
        <Node pos="r" depth="1" NCoef="0" IVar="20" Cut="2.8815066814422607e+00" cType="0" res="1.9936131313443184e-02" rms="4.0287673473358154e-01" purity="3.5769674181938171e-01" nType="0">
          <Node pos="l" depth="2" NCoef="0" IVar="-1" Cut="0.0000000000000000e+00" cType="1" res="4.3629130232147872e-04" rms="4.0464988350868225e-01" purity="3.7785702943801880e-01" nType="-99"/>
          <Node pos="r" depth="2" NCoef="0" IVar="-1" Cut="0.0000000000000000e+00" cType="1" res="-3.9104376919567585e-03" rms="3.7045440077781677e-01" purity="2.2082084417343140e-01" nType="-99"/>
        </Node>
      </Node>
    </BinaryTree>
    <BinaryTree type="DecisionTree" boostWeight="1.0000000000000000e+00" itree="522">
      <Node pos="s" depth="0" NCoef="0" IVar="15" Cut="1.8428571701049805e+01" cType="1" res="9.3890652060508728e-03" rms="4.0306982398033142e-01" purity="5.1019245386123657e-01" nType="0">
        <Node pos="l" depth="1" NCoef="0" IVar="5" Cut="5.8935993909835815e-01" cType="1" res="1.8119188025593758e-02" rms="4.2514529824256897e-01" purity="5.8577102422714233e-01" nType="0">
          <Node pos="l" depth="2" NCoef="0" IVar="-1" Cut="0.0000000000000000e+00" cType="1" res="-3.1979894265532494e-03" rms="4.2701745033264160e-01" purity="6.6686850786209106e-01" nType="-99"/>
          <Node pos="r" depth="2" NCoef="0" IVar="-1" Cut="0.0000000000000000e+00" cType="1" res="3.8954970659688115e-04" rms="4.2389336228370667e-01" purity="5.8178365230560303e-01" nType="-99"/>
        </Node>
        <Node pos="r" depth="1" NCoef="0" IVar="15" Cut="2.1285715103149414e+01" cType="1" res="-4.3027568608522415e-02" rms="2.2245375812053680e-01" purity="5.6410316377878189e-02" nType="0">
          <Node pos="l" depth="2" NCoef="0" IVar="-1" Cut="0.0000000000000000e+00" cType="1" res="-8.5079448763281107e-04" rms="2.8186619281768799e-01" purity="9.3519605696201324e-02" nType="-99"/>
          <Node pos="r" depth="2" NCoef="0" IVar="-1" Cut="0.0000000000000000e+00" cType="1" res="-6.2974868342280388e-03" rms="1.4308263361454010e-01" purity="2.1803362295031548e-02" nType="-99"/>
        </Node>
      </Node>
    </BinaryTree>
    <BinaryTree type="DecisionTree" boostWeight="1.0000000000000000e+00" itree="523">
      <Node pos="s" depth="0" NCoef="0" IVar="18" Cut="1.4285714626312256e+00" cType="1" res="1.4310847036540508e-02" rms="4.1252076625823975e-01" purity="5.3036159276962280e-01" nType="0">
        <Node pos="l" depth="1" NCoef="0" IVar="12" Cut="1.1428571939468384e+00" cType="1" res="-9.6311949193477631e-02" rms="4.2525401711463928e-01" purity="5.7367861270904541e-01" nType="0">
          <Node pos="l" depth="2" NCoef="0" IVar="-1" Cut="0.0000000000000000e+00" cType="1" res="7.5016292976215482e-04" rms="3.6319753527641296e-01" purity="6.7171800136566162e-01" nType="-99"/>
          <Node pos="r" depth="2" NCoef="0" IVar="-1" Cut="0.0000000000000000e+00" cType="1" res="-7.9057281836867332e-03" rms="4.7209531068801880e-01" purity="4.0790447592735291e-01" nType="-99"/>
        </Node>
        <Node pos="r" depth="1" NCoef="0" IVar="0" Cut="6.6387182474136353e-01" cType="1" res="2.1960426121950150e-02" rms="4.1052526235580444e-01" purity="5.2736628055572510e-01" nType="0">
          <Node pos="l" depth="2" NCoef="0" IVar="-1" Cut="0.0000000000000000e+00" cType="1" res="-5.9908017283305526e-04" rms="4.4265604019165039e-01" purity="5.9233385324478149e-01" nType="-99"/>
          <Node pos="r" depth="2" NCoef="0" IVar="-1" Cut="0.0000000000000000e+00" cType="1" res="1.2954699923284352e-04" rms="4.0474465489387512e-01" purity="5.1780408620834351e-01" nType="-99"/>
        </Node>
      </Node>
    </BinaryTree>
    <BinaryTree type="DecisionTree" boostWeight="1.0000000000000000e+00" itree="524">
      <Node pos="s" depth="0" NCoef="0" IVar="15" Cut="4.1428570747375488e+00" cType="1" res="8.7276343256235123e-03" rms="4.0727525949478149e-01" purity="5.0897437334060669e-01" nType="0">
        <Node pos="l" depth="1" NCoef="0" IVar="9" Cut="-2.8571429252624512e+00" cType="1" res="-8.5229136049747467e-02" rms="4.4561076164245605e-01" purity="6.1685252189636230e-01" nType="0">
          <Node pos="l" depth="2" NCoef="0" IVar="-1" Cut="0.0000000000000000e+00" cType="1" res="7.2124637663364410e-03" rms="2.9919719696044922e-01" purity="7.9963797330856323e-01" nType="-99"/>
          <Node pos="r" depth="2" NCoef="0" IVar="-1" Cut="0.0000000000000000e+00" cType="1" res="-6.5761120058596134e-03" rms="4.6890226006507874e-01" purity="5.4815059900283813e-01" nType="-99"/>
        </Node>
        <Node pos="r" depth="1" NCoef="0" IVar="4" Cut="2.0145142078399658e+00" cType="1" res="1.6783492639660835e-02" rms="4.0280020236968994e-01" purity="4.9972492456436157e-01" nType="0">
          <Node pos="l" depth="2" NCoef="0" IVar="-1" Cut="0.0000000000000000e+00" cType="1" res="3.3356776111759245e-04" rms="4.0551954507827759e-01" purity="6.8709957599639893e-01" nType="-99"/>
          <Node pos="r" depth="2" NCoef="0" IVar="-1" Cut="0.0000000000000000e+00" cType="1" res="-1.0896746243815869e-04" rms="3.9832541346549988e-01" purity="2.9514744877815247e-01" nType="-99"/>
        </Node>
      </Node>
    </BinaryTree>
    <BinaryTree type="DecisionTree" boostWeight="1.0000000000000000e+00" itree="525">
      <Node pos="s" depth="0" NCoef="0" IVar="15" Cut="4.8571429252624512e+00" cType="1" res="-2.4206433445215225e-03" rms="4.0464392304420471e-01" purity="4.9458310008049011e-01" nType="0">
        <Node pos="l" depth="1" NCoef="0" IVar="1" Cut="7.0000000000000000e+00" cType="1" res="-7.7668592333793640e-02" rms="4.2038521170616150e-01" purity="6.0948979854583740e-01" nType="0">
          <Node pos="l" depth="2" NCoef="0" IVar="-1" Cut="0.0000000000000000e+00" cType="1" res="-2.5979892816394567e-03" rms="4.2135632038116455e-01" purity="6.7642837762832642e-01" nType="-99"/>
          <Node pos="r" depth="2" NCoef="0" IVar="-1" Cut="0.0000000000000000e+00" cType="1" res="-4.3024891056120396e-03" rms="4.0601667761802673e-01" purity="3.1530112028121948e-01" nType="-99"/>
        </Node>
        <Node pos="r" depth="1" NCoef="0" IVar="4" Cut="2.0145142078399658e+00" cType="1" res="4.5955092646181583e-03" rms="4.0242838859558105e-01" purity="4.8386916518211365e-01" nType="0">
          <Node pos="l" depth="2" NCoef="0" IVar="-1" Cut="0.0000000000000000e+00" cType="1" res="3.2063003163784742e-04" rms="4.0752813220024109e-01" purity="6.7599523067474365e-01" nType="-99"/>
          <Node pos="r" depth="2" NCoef="0" IVar="-1" Cut="0.0000000000000000e+00" cType="1" res="-1.0607146396068856e-04" rms="3.9547669887542725e-01" purity="2.7826505899429321e-01" nType="-99"/>
        </Node>
      </Node>
    </BinaryTree>
    <BinaryTree type="DecisionTree" boostWeight="1.0000000000000000e+00" itree="526">
      <Node pos="s" depth="0" NCoef="0" IVar="12" Cut="1.4285714924335480e-01" cType="1" res="8.1922151148319244e-03" rms="4.1085785627365112e-01" purity="5.0914245843887329e-01" nType="0">
        <Node pos="l" depth="1" NCoef="0" IVar="9" Cut="-1.0000000000000000e+01" cType="1" res="-4.8500493168830872e-02" rms="3.9024373888969421e-01" purity="5.6519424915313721e-01" nType="0">
          <Node pos="l" depth="2" NCoef="0" IVar="-1" Cut="0.0000000000000000e+00" cType="1" res="3.4828325733542442e-03" rms="1.1384938657283783e-01" purity="1.0000000000000000e+00" nType="-99"/>
          <Node pos="r" depth="2" NCoef="0" IVar="-1" Cut="0.0000000000000000e+00" cType="1" res="-2.4130230303853750e-03" rms="3.9948457479476929e-01" purity="5.2788645029067993e-01" nType="-99"/>
        </Node>
        <Node pos="r" depth="1" NCoef="0" IVar="8" Cut="4.8023810386657715e+00" cType="0" res="2.2721182554960251e-02" rms="4.1473066806793213e-01" purity="4.9477776885032654e-01" nType="0">
          <Node pos="l" depth="2" NCoef="0" IVar="-1" Cut="0.0000000000000000e+00" cType="1" res="3.6968900822103024e-03" rms="3.5128918290138245e-01" purity="6.7137634754180908e-01" nType="-99"/>
          <Node pos="r" depth="2" NCoef="0" IVar="-1" Cut="0.0000000000000000e+00" cType="1" res="2.1974925766699016e-04" rms="4.1443935036659241e-01" purity="4.9121925234794617e-01" nType="-99"/>
        </Node>
      </Node>
    </BinaryTree>
    <BinaryTree type="DecisionTree" boostWeight="1.0000000000000000e+00" itree="527">
      <Node pos="s" depth="0" NCoef="0" IVar="15" Cut="9.5714282989501953e+00" cType="1" res="6.9996379315853119e-03" rms="4.0192741155624390e-01" purity="5.0063246488571167e-01" nType="0">
        <Node pos="l" depth="1" NCoef="0" IVar="4" Cut="2.3778619766235352e+00" cType="1" res="4.9866873770952225e-02" rms="3.5291495919227600e-01" purity="7.1671289205551147e-01" nType="0">
          <Node pos="l" depth="2" NCoef="0" IVar="-1" Cut="0.0000000000000000e+00" cType="1" res="2.5160140357911587e-03" rms="3.5230711102485657e-01" purity="8.0492758750915527e-01" nType="-99"/>
          <Node pos="r" depth="2" NCoef="0" IVar="-1" Cut="0.0000000000000000e+00" cType="1" res="-4.3178582563996315e-03" rms="3.3621138334274292e-01" purity="1.9330325722694397e-01" nType="-99"/>
        </Node>
        <Node pos="r" depth="1" NCoef="0" IVar="18" Cut="4.2857141494750977e+00" cType="1" res="-1.4837006106972694e-02" rms="4.2305898666381836e-01" purity="3.9056077599525452e-01" nType="0">
          <Node pos="l" depth="2" NCoef="0" IVar="-1" Cut="0.0000000000000000e+00" cType="1" res="-4.1948561556637287e-03" rms="4.5827597379684448e-01" purity="4.2931017279624939e-01" nType="-99"/>
          <Node pos="r" depth="2" NCoef="0" IVar="-1" Cut="0.0000000000000000e+00" cType="1" res="3.3400428947061300e-05" rms="4.1625630855560303e-01" purity="3.8585111498832703e-01" nType="-99"/>
        </Node>
      </Node>
    </BinaryTree>
    <BinaryTree type="DecisionTree" boostWeight="1.0000000000000000e+00" itree="528">
      <Node pos="s" depth="0" NCoef="0" IVar="3" Cut="4.4761905670166016e+00" cType="0" res="4.1891885921359062e-03" rms="4.0868604183197021e-01" purity="5.1025891304016113e-01" nType="0">
        <Node pos="l" depth="1" NCoef="0" IVar="4" Cut="2.4361150264739990e+00" cType="1" res="7.0573247969150543e-02" rms="4.2828586697578430e-01" purity="6.1406797170639038e-01" nType="0">
          <Node pos="l" depth="2" NCoef="0" IVar="-1" Cut="0.0000000000000000e+00" cType="1" res="-1.2096884893253446e-03" rms="4.1807991266250610e-01" purity="6.2395375967025757e-01" nType="-99"/>
          <Node pos="r" depth="2" NCoef="0" IVar="-1" Cut="0.0000000000000000e+00" cType="1" res="1.0951571166515350e-02" rms="4.4930791854858398e-01" purity="5.5733692646026611e-01" nType="-99"/>
        </Node>
        <Node pos="r" depth="1" NCoef="0" IVar="20" Cut="4.4328433990478516e+01" cType="0" res="-3.6299666389822960e-03" rms="4.0560057759284973e-01" purity="4.9803158640861511e-01" nType="0">
          <Node pos="l" depth="2" NCoef="0" IVar="-1" Cut="0.0000000000000000e+00" cType="1" res="-1.3860387844033539e-04" rms="3.9401224255561829e-01" purity="6.3531440496444702e-01" nType="-99"/>
          <Node pos="r" depth="2" NCoef="0" IVar="-1" Cut="0.0000000000000000e+00" cType="1" res="-2.1487580670509487e-04" rms="4.0602827072143555e-01" purity="4.8354086279869080e-01" nType="-99"/>
        </Node>
      </Node>
    </BinaryTree>
    <BinaryTree type="DecisionTree" boostWeight="1.0000000000000000e+00" itree="529">
      <Node pos="s" depth="0" NCoef="0" IVar="18" Cut="5.2380952835083008e+00" cType="1" res="-4.8494632937945426e-04" rms="4.0553671121597290e-01" purity="4.9213951826095581e-01" nType="0">
        <Node pos="l" depth="1" NCoef="0" IVar="15" Cut="1.4142857551574707e+01" cType="0" res="2.3574214428663254e-02" rms="4.0277230739593506e-01" purity="6.6254240274429321e-01" nType="0">
          <Node pos="l" depth="2" NCoef="0" IVar="-1" Cut="0.0000000000000000e+00" cType="1" res="4.5135710388422012e-03" rms="4.2266455292701721e-01" purity="7.4656033515930176e-01" nType="-99"/>
          <Node pos="r" depth="2" NCoef="0" IVar="-1" Cut="0.0000000000000000e+00" cType="1" res="2.3847318516345695e-05" rms="3.9654749631881714e-01" purity="6.5116786956787109e-01" nType="-99"/>
        </Node>
        <Node pos="r" depth="1" NCoef="0" IVar="12" Cut="2.1428570747375488e+00" cType="1" res="-2.4866048246622086e-02" rms="4.0687024593353271e-01" purity="3.1945636868476868e-01" nType="0">
          <Node pos="l" depth="2" NCoef="0" IVar="-1" Cut="0.0000000000000000e+00" cType="1" res="6.4039144490379840e-05" rms="4.0995582938194275e-01" purity="3.3890339732170105e-01" nType="-99"/>
          <Node pos="r" depth="2" NCoef="0" IVar="-1" Cut="0.0000000000000000e+00" cType="1" res="-6.5756100229918957e-03" rms="3.4949102997779846e-01" purity="1.3227038085460663e-01" nType="-99"/>
        </Node>
      </Node>
    </BinaryTree>
    <BinaryTree type="DecisionTree" boostWeight="1.0000000000000000e+00" itree="530">
      <Node pos="s" depth="0" NCoef="0" IVar="20" Cut="4.1526027679443359e+01" cType="0" res="-1.3844178058207035e-02" rms="4.1275936365127563e-01" purity="4.8890280723571777e-01" nType="0">
        <Node pos="l" depth="1" NCoef="0" IVar="14" Cut="1.6187516784667969e+02" cType="1" res="4.9567975103855133e-02" rms="3.9856579899787903e-01" purity="6.0323250293731689e-01" nType="0">
          <Node pos="l" depth="2" NCoef="0" IVar="-1" Cut="0.0000000000000000e+00" cType="1" res="9.0572973713278770e-03" rms="3.9967513084411621e-01" purity="7.8312134742736816e-01" nType="-99"/>
          <Node pos="r" depth="2" NCoef="0" IVar="-1" Cut="0.0000000000000000e+00" cType="1" res="-2.4494915269315243e-03" rms="3.8938477635383606e-01" purity="4.8966580629348755e-01" nType="-99"/>
        </Node>
        <Node pos="r" depth="1" NCoef="0" IVar="0" Cut="4.4257822632789612e-01" cType="1" res="-2.1609209477901459e-02" rms="4.1379669308662415e-01" purity="4.7490274906158447e-01" nType="0">
          <Node pos="l" depth="2" NCoef="0" IVar="-1" Cut="0.0000000000000000e+00" cType="1" res="-1.8058480927720666e-03" rms="4.8497056961059570e-01" purity="5.3154712915420532e-01" nType="-99"/>
          <Node pos="r" depth="2" NCoef="0" IVar="-1" Cut="0.0000000000000000e+00" cType="1" res="-1.3003342610318214e-04" rms="4.0752050280570984e-01" purity="4.7078207135200500e-01" nType="-99"/>
        </Node>
      </Node>
    </BinaryTree>
    <BinaryTree type="DecisionTree" boostWeight="1.0000000000000000e+00" itree="531">
      <Node pos="s" depth="0" NCoef="0" IVar="20" Cut="1.0373162269592285e+01" cType="1" res="6.0646557249128819e-03" rms="3.9961871504783630e-01" purity="5.0267910957336426e-01" nType="0">
        <Node pos="l" depth="1" NCoef="0" IVar="4" Cut="1.4241211414337158e+00" cType="1" res="5.0880227237939835e-02" rms="3.9954206347465515e-01" purity="5.8667534589767456e-01" nType="0">
          <Node pos="l" depth="2" NCoef="0" IVar="-1" Cut="0.0000000000000000e+00" cType="1" res="8.5170315578579903e-03" rms="2.7293702960014343e-01" purity="9.0515053272247314e-01" nType="-99"/>
          <Node pos="r" depth="2" NCoef="0" IVar="-1" Cut="0.0000000000000000e+00" cType="1" res="-4.8140910803340375e-04" rms="4.2885389924049377e-01" purity="4.8703339695930481e-01" nType="-99"/>
        </Node>
        <Node pos="r" depth="1" NCoef="0" IVar="18" Cut="4.0476188659667969e+00" cType="1" res="-1.0291625745594501e-02" rms="3.9839294552803040e-01" purity="4.7202309966087341e-01" nType="0">
          <Node pos="l" depth="2" NCoef="0" IVar="-1" Cut="0.0000000000000000e+00" cType="1" res="2.3242153692990541e-03" rms="3.6205556988716125e-01" purity="7.1111190319061279e-01" nType="-99"/>
          <Node pos="r" depth="2" NCoef="0" IVar="-1" Cut="0.0000000000000000e+00" cType="1" res="-1.1520244879648089e-03" rms="4.1411012411117554e-01" purity="3.4738007187843323e-01" nType="-99"/>
        </Node>
      </Node>
    </BinaryTree>
    <BinaryTree type="DecisionTree" boostWeight="1.0000000000000000e+00" itree="532">
      <Node pos="s" depth="0" NCoef="0" IVar="1" Cut="8.4285717010498047e+00" cType="0" res="1.5939405187964439e-02" rms="4.0047186613082886e-01" purity="5.1491367816925049e-01" nType="0">
        <Node pos="l" depth="1" NCoef="0" IVar="21" Cut="1.3333333730697632e+00" cType="0" res="1.6388444602489471e-01" rms="4.2149609327316284e-01" purity="5.8869463205337524e-01" nType="0">
          <Node pos="l" depth="2" NCoef="0" IVar="-1" Cut="0.0000000000000000e+00" cType="1" res="1.2364190071821213e-02" rms="3.8355726003646851e-01" purity="6.1160022020339966e-01" nType="-99"/>
          <Node pos="r" depth="2" NCoef="0" IVar="-1" Cut="0.0000000000000000e+00" cType="1" res="6.6418212372809649e-04" rms="4.4624713063240051e-01" purity="5.6892156600952148e-01" nType="-99"/>
        </Node>
        <Node pos="r" depth="1" NCoef="0" IVar="18" Cut="5.1428570747375488e+00" cType="1" res="1.0741891339421272e-02" rms="3.9871624112129211e-01" purity="5.1232165098190308e-01" nType="0">
          <Node pos="l" depth="2" NCoef="0" IVar="-1" Cut="0.0000000000000000e+00" cType="1" res="7.2292494587600231e-04" rms="3.9101710915565491e-01" purity="6.9409763813018799e-01" nType="-99"/>
          <Node pos="r" depth="2" NCoef="0" IVar="-1" Cut="0.0000000000000000e+00" cType="1" res="-1.0830259416252375e-03" rms="4.0424674749374390e-01" purity="3.2256236672401428e-01" nType="-99"/>
        </Node>
      </Node>
    </BinaryTree>
    <BinaryTree type="DecisionTree" boostWeight="1.0000000000000000e+00" itree="533">
      <Node pos="s" depth="0" NCoef="0" IVar="20" Cut="7.3729797363281250e+01" cType="1" res="8.3625437691807747e-03" rms="4.0666386485099792e-01" purity="5.0714194774627686e-01" nType="0">
        <Node pos="l" depth="1" NCoef="0" IVar="20" Cut="2.9714387893676758e+01" cType="0" res="1.2024636380374432e-02" rms="4.0606003999710083e-01" purity="5.1218807697296143e-01" nType="0">
          <Node pos="l" depth="2" NCoef="0" IVar="-1" Cut="0.0000000000000000e+00" cType="1" res="9.2251441674306989e-04" rms="4.0813887119293213e-01" purity="6.1618864536285400e-01" nType="-99"/>
          <Node pos="r" depth="2" NCoef="0" IVar="-1" Cut="0.0000000000000000e+00" cType="1" res="-1.9451777916401625e-04" rms="4.0463608503341675e-01" purity="4.8718765377998352e-01" nType="-99"/>
        </Node>
        <Node pos="r" depth="1" NCoef="0" IVar="-1" Cut="0.0000000000000000e+00" cType="1" res="-4.7020376659929752e-03" rms="4.0357950329780579e-01" purity="3.0415698885917664e-01" nType="-99"/>
      </Node>
    </BinaryTree>
    <BinaryTree type="DecisionTree" boostWeight="1.0000000000000000e+00" itree="534">
      <Node pos="s" depth="0" NCoef="0" IVar="1" Cut="8.4285717010498047e+00" cType="0" res="-4.8451945185661316e-03" rms="4.0783154964447021e-01" purity="4.8646691441535950e-01" nType="0">
        <Node pos="l" depth="1" NCoef="0" IVar="0" Cut="1.4195816516876221e+00" cType="0" res="1.4330579340457916e-01" rms="4.6535775065422058e-01" purity="6.5609377622604370e-01" nType="0">
          <Node pos="l" depth="2" NCoef="0" IVar="-1" Cut="0.0000000000000000e+00" cType="1" res="7.0214527659118176e-03" rms="4.6700552105903625e-01" purity="6.7642837762832642e-01" nType="-99"/>
          <Node pos="r" depth="2" NCoef="0" IVar="-1" Cut="0.0000000000000000e+00" cType="1" res="1.4665751950815320e-03" rms="4.4760566949844360e-01" purity="6.3651406764984131e-01" nType="-99"/>
        </Node>
        <Node pos="r" depth="1" NCoef="0" IVar="2" Cut="3.0476191043853760e+00" cType="1" res="-9.6738962456583977e-03" rms="4.0490823984146118e-01" purity="4.8093828558921814e-01" nType="0">
          <Node pos="l" depth="2" NCoef="0" IVar="-1" Cut="0.0000000000000000e+00" cType="1" res="3.4700060496106744e-04" rms="4.0170088410377502e-01" purity="5.2181452512741089e-01" nType="-99"/>
          <Node pos="r" depth="2" NCoef="0" IVar="-1" Cut="0.0000000000000000e+00" cType="1" res="-2.4939142167568207e-03" rms="4.1169148683547974e-01" purity="3.3065822720527649e-01" nType="-99"/>
        </Node>
      </Node>
    </BinaryTree>
    <BinaryTree type="DecisionTree" boostWeight="1.0000000000000000e+00" itree="535">
      <Node pos="s" depth="0" NCoef="0" IVar="5" Cut="6.5969973802566528e-01" cType="1" res="1.8782045692205429e-02" rms="4.0648555755615234e-01" purity="5.2440333366394043e-01" nType="0">
        <Node pos="l" depth="1" NCoef="0" IVar="1" Cut="3.0476191043853760e+00" cType="1" res="-6.3232153654098511e-02" rms="4.1350543498992920e-01" purity="6.8711739778518677e-01" nType="0">
          <Node pos="l" depth="2" NCoef="0" IVar="-1" Cut="0.0000000000000000e+00" cType="1" res="9.7207734361290932e-03" rms="2.9897713661193848e-01" purity="8.7437868118286133e-01" nType="-99"/>
          <Node pos="r" depth="2" NCoef="0" IVar="-1" Cut="0.0000000000000000e+00" cType="1" res="-4.5116995461285114e-03" rms="4.7112593054771423e-01" purity="4.5499479770660400e-01" nType="-99"/>
        </Node>
        <Node pos="r" depth="1" NCoef="0" IVar="15" Cut="1.8428571701049805e+01" cType="1" res="2.3202467709779739e-02" rms="4.0563306212425232e-01" purity="5.1563328504562378e-01" nType="0">
          <Node pos="l" depth="2" NCoef="0" IVar="-1" Cut="0.0000000000000000e+00" cType="1" res="2.7669916744343936e-04" rms="4.2400223016738892e-01" purity="5.8539128303527832e-01" nType="-99"/>
          <Node pos="r" depth="2" NCoef="0" IVar="-1" Cut="0.0000000000000000e+00" cType="1" res="-3.1940666958689690e-03" rms="2.5613984465599060e-01" purity="7.5485996901988983e-02" nType="-99"/>
        </Node>
      </Node>
    </BinaryTree>
    <BinaryTree type="DecisionTree" boostWeight="1.0000000000000000e+00" itree="536">
      <Node pos="s" depth="0" NCoef="0" IVar="20" Cut="2.4560720920562744e+00" cType="0" res="-1.6363540198653936e-03" rms="4.1041383147239685e-01" purity="5.0473612546920776e-01" nType="0">
        <Node pos="l" depth="1" NCoef="0" IVar="20" Cut="1.3729699134826660e+01" cType="1" res="3.6520753055810928e-03" rms="4.0917274355888367e-01" purity="5.1154297590255737e-01" nType="0">
          <Node pos="l" depth="2" NCoef="0" IVar="-1" Cut="0.0000000000000000e+00" cType="1" res="2.8830880764871836e-03" rms="4.1660490632057190e-01" purity="6.2746095657348633e-01" nType="-99"/>
          <Node pos="r" depth="2" NCoef="0" IVar="-1" Cut="0.0000000000000000e+00" cType="1" res="-1.0663751745596528e-03" rms="4.0465736389160156e-01" purity="4.6125251054763794e-01" nType="-99"/>
        </Node>
        <Node pos="r" depth="1" NCoef="0" IVar="18" Cut="3.0476191043853760e+00" cType="1" res="-6.5363794565200806e-02" rms="4.1987946629524231e-01" purity="4.2271143198013306e-01" nType="0">
          <Node pos="l" depth="2" NCoef="0" IVar="-1" Cut="0.0000000000000000e+00" cType="1" res="-6.0741910710930824e-03" rms="4.6290332078933716e-01" purity="5.1357394456863403e-01" nType="-99"/>
          <Node pos="r" depth="2" NCoef="0" IVar="-1" Cut="0.0000000000000000e+00" cType="1" res="-1.0185776045545936e-03" rms="3.6315688490867615e-01" purity="3.5721924901008606e-01" nType="-99"/>
        </Node>
      </Node>
    </BinaryTree>
    <BinaryTree type="DecisionTree" boostWeight="1.0000000000000000e+00" itree="537">
      <Node pos="s" depth="0" NCoef="0" IVar="9" Cut="-8.5714282989501953e+00" cType="1" res="6.5046586096286774e-03" rms="4.0773245692253113e-01" purity="5.1090204715728760e-01" nType="0">
        <Node pos="l" depth="1" NCoef="0" IVar="0" Cut="8.1025409698486328e-01" cType="0" res="-1.2273152917623520e-01" rms="4.3900343775749207e-01" purity="5.8556962013244629e-01" nType="0">
          <Node pos="l" depth="2" NCoef="0" IVar="-1" Cut="0.0000000000000000e+00" cType="1" res="2.6960447430610657e-03" rms="3.9317038655281067e-01" purity="7.0611780881881714e-01" nType="-99"/>
          <Node pos="r" depth="2" NCoef="0" IVar="-1" Cut="0.0000000000000000e+00" cType="1" res="-2.5125991087406874e-03" rms="4.4752970337867737e-01" purity="4.9493026733398438e-01" nType="-99"/>
        </Node>
        <Node pos="r" depth="1" NCoef="0" IVar="5" Cut="1.5400557518005371e+00" cType="1" res="1.3026799075305462e-02" rms="4.0499880909919739e-01" purity="5.0713384151458740e-01" nType="0">
          <Node pos="l" depth="2" NCoef="0" IVar="-1" Cut="0.0000000000000000e+00" cType="1" res="-1.2708257418125868e-04" rms="3.8573119044303894e-01" purity="7.2225791215896606e-01" nType="-99"/>
          <Node pos="r" depth="2" NCoef="0" IVar="-1" Cut="0.0000000000000000e+00" cType="1" res="-9.5860988949425519e-05" rms="4.1570454835891724e-01" purity="3.6791756749153137e-01" nType="-99"/>
        </Node>
      </Node>
    </BinaryTree>
    <BinaryTree type="DecisionTree" boostWeight="1.0000000000000000e+00" itree="538">
      <Node pos="s" depth="0" NCoef="0" IVar="6" Cut="4.5578101277351379e-01" cType="0" res="-9.8699692171066999e-04" rms="4.1144677996635437e-01" purity="5.0054764747619629e-01" nType="0">
        <Node pos="l" depth="1" NCoef="0" IVar="15" Cut="1.1142857551574707e+01" cType="1" res="2.3301374167203903e-03" rms="4.0853255987167358e-01" purity="5.0105935335159302e-01" nType="0">
          <Node pos="l" depth="2" NCoef="0" IVar="-1" Cut="0.0000000000000000e+00" cType="1" res="8.5180456517264247e-04" rms="3.7665519118309021e-01" purity="6.8887728452682495e-01" nType="-99"/>
          <Node pos="r" depth="2" NCoef="0" IVar="-1" Cut="0.0000000000000000e+00" cType="1" res="-5.1675562281161547e-04" rms="4.2719495296478271e-01" purity="3.7280076742172241e-01" nType="-99"/>
        </Node>
        <Node pos="r" depth="1" NCoef="0" IVar="-1" Cut="0.0000000000000000e+00" cType="1" res="-4.8410193994641304e-03" rms="5.2330142259597778e-01" purity="4.6913379430770874e-01" nType="-99"/>
      </Node>
    </BinaryTree>
    <BinaryTree type="DecisionTree" boostWeight="1.0000000000000000e+00" itree="539">
      <Node pos="s" depth="0" NCoef="0" IVar="20" Cut="2.3390743732452393e+00" cType="0" res="-1.0080590844154358e-02" rms="4.1208782792091370e-01" purity="4.8821148276329041e-01" nType="0">
        <Node pos="l" depth="1" NCoef="0" IVar="9" Cut="-1.4285714626312256e+00" cType="1" res="-2.5487467646598816e-03" rms="4.0926939249038696e-01" purity="4.9592125415802002e-01" nType="0">
          <Node pos="l" depth="2" NCoef="0" IVar="-1" Cut="0.0000000000000000e+00" cType="1" res="-9.8721613176167011e-04" rms="4.3282613158226013e-01" purity="5.3460347652435303e-01" nType="-99"/>
          <Node pos="r" depth="2" NCoef="0" IVar="-1" Cut="0.0000000000000000e+00" cType="1" res="4.4502140372060239e-04" rms="4.0016087889671326e-01" purity="4.8380240797996521e-01" nType="-99"/>
        </Node>
        <Node pos="r" depth="1" NCoef="0" IVar="15" Cut="7.4761905670166016e+00" cType="1" res="-1.0707040876150131e-01" rms="4.3530330061912537e-01" purity="3.8893038034439087e-01" nType="0">
          <Node pos="l" depth="2" NCoef="0" IVar="-1" Cut="0.0000000000000000e+00" cType="1" res="-3.4434667322784662e-03" rms="4.8261922597885132e-01" purity="5.0239330530166626e-01" nType="-99"/>
          <Node pos="r" depth="2" NCoef="0" IVar="-1" Cut="0.0000000000000000e+00" cType="1" res="-2.7247017715126276e-03" rms="3.9541032910346985e-01" purity="3.2208672165870667e-01" nType="-99"/>
        </Node>
      </Node>
    </BinaryTree>
    <BinaryTree type="DecisionTree" boostWeight="1.0000000000000000e+00" itree="540">
      <Node pos="s" depth="0" NCoef="0" IVar="20" Cut="7.3729797363281250e+01" cType="1" res="-2.9833700973540545e-03" rms="4.1117072105407715e-01" purity="5.0024598836898804e-01" nType="0">
        <Node pos="l" depth="1" NCoef="0" IVar="15" Cut="4.8571429252624512e+00" cType="1" res="7.1261561242863536e-04" rms="4.1032543778419495e-01" purity="5.0403219461441040e-01" nType="0">
          <Node pos="l" depth="2" NCoef="0" IVar="-1" Cut="0.0000000000000000e+00" cType="1" res="-3.2127965241670609e-03" rms="4.1404941678047180e-01" purity="5.9097474813461304e-01" nType="-99"/>
          <Node pos="r" depth="2" NCoef="0" IVar="-1" Cut="0.0000000000000000e+00" cType="1" res="2.2529199486598372e-04" rms="4.0932160615921021e-01" purity="4.9612104892730713e-01" nType="-99"/>
        </Node>
        <Node pos="r" depth="1" NCoef="0" IVar="-1" Cut="0.0000000000000000e+00" cType="1" res="-4.5547806657850742e-03" rms="4.1815721988677979e-01" purity="3.5280606150627136e-01" nType="-99"/>
      </Node>
    </BinaryTree>
    <BinaryTree type="DecisionTree" boostWeight="1.0000000000000000e+00" itree="541">
      <Node pos="s" depth="0" NCoef="0" IVar="20" Cut="4.1526027679443359e+01" cType="0" res="3.4234349150210619e-03" rms="4.0897431969642639e-01" purity="5.0348275899887085e-01" nType="0">
        <Node pos="l" depth="1" NCoef="0" IVar="9" Cut="-1.4285714626312256e+00" cType="0" res="7.9633697867393494e-02" rms="3.8539394736289978e-01" purity="6.3165330886840820e-01" nType="0">
          <Node pos="l" depth="2" NCoef="0" IVar="-1" Cut="0.0000000000000000e+00" cType="1" res="2.8764884918928146e-03" rms="3.4942042827606201e-01" purity="6.4807075262069702e-01" nType="-99"/>
          <Node pos="r" depth="2" NCoef="0" IVar="-1" Cut="0.0000000000000000e+00" cType="1" res="-3.7564875092357397e-03" rms="4.3720918893814087e-01" purity="5.9225189685821533e-01" nType="-99"/>
        </Node>
        <Node pos="r" depth="1" NCoef="0" IVar="1" Cut="6.9047617912292480e+00" cType="1" res="-5.3230938501656055e-03" rms="4.1069054603576660e-01" purity="4.8877280950546265e-01" nType="0">
          <Node pos="l" depth="2" NCoef="0" IVar="-1" Cut="0.0000000000000000e+00" cType="1" res="-1.6166798013728112e-04" rms="4.0191000699996948e-01" purity="5.1049005985260010e-01" nType="-99"/>
          <Node pos="r" depth="2" NCoef="0" IVar="-1" Cut="0.0000000000000000e+00" cType="1" res="-5.0947919953614473e-04" rms="4.3949890136718750e-01" purity="4.0333291888237000e-01" nType="-99"/>
        </Node>
      </Node>
    </BinaryTree>
    <BinaryTree type="DecisionTree" boostWeight="1.0000000000000000e+00" itree="542">
      <Node pos="s" depth="0" NCoef="0" IVar="12" Cut="2.1428570747375488e+00" cType="1" res="-2.0665575284510851e-03" rms="4.0996789932250977e-01" purity="5.1057124137878418e-01" nType="0">
        <Node pos="l" depth="1" NCoef="0" IVar="11" Cut="2.2135379314422607e+00" cType="1" res="1.1008638888597488e-02" rms="4.0130060911178589e-01" purity="5.3107595443725586e-01" nType="0">
          <Node pos="l" depth="2" NCoef="0" IVar="-1" Cut="0.0000000000000000e+00" cType="1" res="4.9799209227785468e-04" rms="4.0512737631797791e-01" purity="5.8403813838958740e-01" nType="-99"/>
          <Node pos="r" depth="2" NCoef="0" IVar="-1" Cut="0.0000000000000000e+00" cType="1" res="-1.1904378188773990e-03" rms="3.7076932191848755e-01" purity="2.1961222589015961e-01" nType="-99"/>
        </Node>
        <Node pos="r" depth="1" NCoef="0" IVar="0" Cut="1.7521896362304688e+00" cType="0" res="-5.7323895394802094e-02" rms="4.4046989083290100e-01" purity="4.2391601204872131e-01" nType="0">
          <Node pos="l" depth="2" NCoef="0" IVar="-1" Cut="0.0000000000000000e+00" cType="1" res="9.1872981283813715e-04" rms="4.0946438908576965e-01" purity="4.5074656605720520e-01" nType="-99"/>
          <Node pos="r" depth="2" NCoef="0" IVar="-1" Cut="0.0000000000000000e+00" cType="1" res="-2.0281306933611631e-03" rms="4.3880704045295715e-01" purity="4.1784191131591797e-01" nType="-99"/>
        </Node>
      </Node>
    </BinaryTree>
    <BinaryTree type="DecisionTree" boostWeight="1.0000000000000000e+00" itree="543">
      <Node pos="s" depth="0" NCoef="0" IVar="1" Cut="8.4285717010498047e+00" cType="0" res="-6.9163334555923939e-03" rms="4.1059407591819763e-01" purity="4.9507731199264526e-01" nType="0">
        <Node pos="l" depth="1" NCoef="0" IVar="-1" Cut="0.0000000000000000e+00" cType="1" res="4.4691907241940498e-03" rms="4.3937596678733826e-01" purity="6.3338953256607056e-01" nType="-99"/>
        <Node pos="r" depth="1" NCoef="0" IVar="10" Cut="2.6012766361236572e+00" cType="1" res="-1.0754169896245003e-02" rms="4.0910717844963074e-01" purity="4.9141305685043335e-01" nType="0">
          <Node pos="l" depth="2" NCoef="0" IVar="-1" Cut="0.0000000000000000e+00" cType="1" res="5.9698970289900899e-04" rms="4.1889691352844238e-01" purity="5.9176254272460938e-01" nType="-99"/>
          <Node pos="r" depth="2" NCoef="0" IVar="-1" Cut="0.0000000000000000e+00" cType="1" res="-1.7384113743901253e-03" rms="3.8500237464904785e-01" purity="2.7901059389114380e-01" nType="-99"/>
        </Node>
      </Node>
    </BinaryTree>
    <BinaryTree type="DecisionTree" boostWeight="1.0000000000000000e+00" itree="544">
      <Node pos="s" depth="0" NCoef="0" IVar="15" Cut="1.9000000000000000e+01" cType="1" res="1.7291806638240814e-02" rms="4.0674015879631042e-01" purity="5.1638764142990112e-01" nType="0">
        <Node pos="l" depth="1" NCoef="0" IVar="15" Cut="1.7000000000000000e+01" cType="1" res="2.4892084300518036e-02" rms="4.2455309629440308e-01" purity="5.8626765012741089e-01" nType="0">
          <Node pos="l" depth="2" NCoef="0" IVar="-1" Cut="0.0000000000000000e+00" cType="1" res="-2.6297784643247724e-04" rms="4.1295444965362549e-01" purity="5.8509677648544312e-01" nType="-99"/>
          <Node pos="r" depth="2" NCoef="0" IVar="-1" Cut="0.0000000000000000e+00" cType="1" res="1.6221354017034173e-03" rms="4.5767509937286377e-01" purity="5.9033316373825073e-01" nType="-99"/>
        </Node>
        <Node pos="r" depth="1" NCoef="0" IVar="14" Cut="5.2269653320312500e+01" cType="1" res="-3.0387017875909805e-02" rms="2.6440158486366272e-01" purity="7.8009180724620819e-02" nType="0">
          <Node pos="l" depth="2" NCoef="0" IVar="-1" Cut="0.0000000000000000e+00" cType="1" res="1.1966597521677613e-03" rms="3.2583791017532349e-01" purity="1.2648265063762665e-01" nType="-99"/>
          <Node pos="r" depth="2" NCoef="0" IVar="-1" Cut="0.0000000000000000e+00" cType="1" res="-4.8821121454238892e-03" rms="2.3153072595596313e-01" purity="5.6873407214879990e-02" nType="-99"/>
        </Node>
      </Node>
    </BinaryTree>
    <BinaryTree type="DecisionTree" boostWeight="1.0000000000000000e+00" itree="545">
      <Node pos="s" depth="0" NCoef="0" IVar="6" Cut="6.6718137264251709e-01" cType="1" res="5.0582019612193108e-03" rms="4.0455409884452820e-01" purity="5.0405371189117432e-01" nType="0">
        <Node pos="l" depth="1" NCoef="0" IVar="-1" Cut="0.0000000000000000e+00" cType="1" res="-2.0469352602958679e-03" rms="5.0352245569229126e-01" purity="5.8892637491226196e-01" nType="-99"/>
        <Node pos="r" depth="1" NCoef="0" IVar="5" Cut="8.7959963083267212e-01" cType="1" res="9.3922140076756477e-03" rms="4.0055620670318604e-01" purity="5.0166088342666626e-01" nType="0">
          <Node pos="l" depth="2" NCoef="0" IVar="-1" Cut="0.0000000000000000e+00" cType="1" res="3.4299914259463549e-03" rms="2.8039953112602234e-01" purity="8.7425357103347778e-01" nType="-99"/>
          <Node pos="r" depth="2" NCoef="0" IVar="-1" Cut="0.0000000000000000e+00" cType="1" res="-2.4444705923087895e-04" rms="4.0871134400367737e-01" purity="4.6701535582542419e-01" nType="-99"/>
        </Node>
      </Node>
    </BinaryTree>
    <BinaryTree type="DecisionTree" boostWeight="1.0000000000000000e+00" itree="546">
      <Node pos="s" depth="0" NCoef="0" IVar="1" Cut="1.0095237731933594e+01" cType="0" res="3.1169636640697718e-03" rms="4.1050949692726135e-01" purity="5.0563549995422363e-01" nType="0">
        <Node pos="l" depth="1" NCoef="0" IVar="-1" Cut="0.0000000000000000e+00" cType="1" res="5.7821557857096195e-03" rms="3.9574459195137024e-01" purity="5.3733521699905396e-01" nType="-99"/>
        <Node pos="r" depth="1" NCoef="0" IVar="1" Cut="8.0952377319335938e+00" cType="0" res="4.9552239943295717e-04" rms="4.1024386882781982e-01" purity="5.0510472059249878e-01" nType="0">
          <Node pos="l" depth="2" NCoef="0" IVar="-1" Cut="0.0000000000000000e+00" cType="1" res="3.1991444993764162e-03" rms="4.5992895960807800e-01" purity="6.4181613922119141e-01" nType="-99"/>
          <Node pos="r" depth="2" NCoef="0" IVar="-1" Cut="0.0000000000000000e+00" cType="1" res="-2.8964338707737625e-04" rms="4.0876427292823792e-01" purity="5.0276583433151245e-01" nType="-99"/>
        </Node>
      </Node>
    </BinaryTree>
    <BinaryTree type="DecisionTree" boostWeight="1.0000000000000000e+00" itree="547">
      <Node pos="s" depth="0" NCoef="0" IVar="20" Cut="7.1492652893066406e+01" cType="1" res="-8.6515274597331882e-04" rms="4.0083190798759460e-01" purity="4.8853242397308350e-01" nType="0">
        <Node pos="l" depth="1" NCoef="0" IVar="20" Cut="4.0105556488037109e+01" cType="0" res="2.5761236902326345e-03" rms="4.0143814682960510e-01" purity="4.9422705173492432e-01" nType="0">
          <Node pos="l" depth="2" NCoef="0" IVar="-1" Cut="0.0000000000000000e+00" cType="1" res="3.6989534273743629e-03" rms="4.0140071511268616e-01" purity="6.6464424133300781e-01" nType="-99"/>
          <Node pos="r" depth="2" NCoef="0" IVar="-1" Cut="0.0000000000000000e+00" cType="1" res="-3.2909031142480671e-04" rms="4.0034732222557068e-01" purity="4.7745090723037720e-01" nType="-99"/>
        </Node>
        <Node pos="r" depth="1" NCoef="0" IVar="-1" Cut="0.0000000000000000e+00" cType="1" res="-3.0579620506614447e-03" rms="3.7091395258903503e-01" purity="3.2979616522789001e-01" nType="-99"/>
      </Node>
    </BinaryTree>
    <BinaryTree type="DecisionTree" boostWeight="1.0000000000000000e+00" itree="548">
      <Node pos="s" depth="0" NCoef="0" IVar="5" Cut="4.4029885530471802e-01" cType="1" res="-7.1474136784672737e-03" rms="4.1289436817169189e-01" purity="4.9378448724746704e-01" nType="0">
        <Node pos="l" depth="1" NCoef="0" IVar="-1" Cut="0.0000000000000000e+00" cType="1" res="1.2466965243220329e-02" rms="1.1479447036981583e-01" purity="1.0000000000000000e+00" nType="-99"/>
        <Node pos="r" depth="1" NCoef="0" IVar="4" Cut="1.4579044580459595e+00" cType="1" res="-9.9832387641072273e-03" rms="4.1538357734680176e-01" purity="4.8553556203842163e-01" nType="0">
          <Node pos="l" depth="2" NCoef="0" IVar="-1" Cut="0.0000000000000000e+00" cType="1" res="-2.1267475094646215e-03" rms="4.1685199737548828e-01" purity="6.9392043352127075e-01" nType="-99"/>
          <Node pos="r" depth="2" NCoef="0" IVar="-1" Cut="0.0000000000000000e+00" cType="1" res="2.4643717915751040e-04" rms="4.1399034857749939e-01" purity="4.1366618871688843e-01" nType="-99"/>
        </Node>
      </Node>
    </BinaryTree>
    <BinaryTree type="DecisionTree" boostWeight="1.0000000000000000e+00" itree="549">
      <Node pos="s" depth="0" NCoef="0" IVar="5" Cut="8.7826311588287354e-01" cType="1" res="1.0184588842093945e-02" rms="4.0693727135658264e-01" purity="5.1582223176956177e-01" nType="0">
        <Node pos="l" depth="1" NCoef="0" IVar="12" Cut="1.1428571939468384e+00" cType="1" res="1.0694594681262970e-01" rms="2.6490932703018188e-01" purity="8.8385266065597534e-01" nType="0">
          <Node pos="l" depth="2" NCoef="0" IVar="-1" Cut="0.0000000000000000e+00" cType="1" res="9.3839550390839577e-04" rms="2.2602266073226929e-01" purity="9.3727403879165649e-01" nType="-99"/>
          <Node pos="r" depth="2" NCoef="0" IVar="-1" Cut="0.0000000000000000e+00" cType="1" res="1.9407263025641441e-03" rms="3.0668428540229797e-01" purity="7.9771226644515991e-01" nType="-99"/>
        </Node>
        <Node pos="r" depth="1" NCoef="0" IVar="6" Cut="1.8036288022994995e+00" cType="1" res="5.6112132733687758e-04" rms="4.1721016168594360e-01" purity="4.7921955585479736e-01" nType="0">
          <Node pos="l" depth="2" NCoef="0" IVar="-1" Cut="0.0000000000000000e+00" cType="1" res="-3.2091396860778332e-04" rms="4.2174777388572693e-01" purity="6.5583109855651855e-01" nType="-99"/>
          <Node pos="r" depth="2" NCoef="0" IVar="-1" Cut="0.0000000000000000e+00" cType="1" res="-7.7909164247103035e-05" rms="4.1194897890090942e-01" purity="3.2267162203788757e-01" nType="-99"/>
        </Node>
      </Node>
    </BinaryTree>
    <BinaryTree type="DecisionTree" boostWeight="1.0000000000000000e+00" itree="550">
      <Node pos="s" depth="0" NCoef="0" IVar="3" Cut="5.8571429252624512e+00" cType="0" res="-1.6751814633607864e-02" rms="4.0708604454994202e-01" purity="4.7382786870002747e-01" nType="0">
        <Node pos="l" depth="1" NCoef="0" IVar="6" Cut="1.7687820196151733e+00" cType="1" res="7.3542013764381409e-02" rms="4.3295359611511230e-01" purity="6.2040627002716064e-01" nType="0">
          <Node pos="l" depth="2" NCoef="0" IVar="-1" Cut="0.0000000000000000e+00" cType="1" res="4.8727374523878098e-03" rms="2.8752654790878296e-01" purity="9.0605765581130981e-01" nType="-99"/>
          <Node pos="r" depth="2" NCoef="0" IVar="-1" Cut="0.0000000000000000e+00" cType="1" res="7.3019333649426699e-04" rms="4.8722726106643677e-01" purity="4.2671948671340942e-01" nType="-99"/>
        </Node>
        <Node pos="r" depth="1" NCoef="0" IVar="0" Cut="4.4257825613021851e-01" cType="1" res="-2.0787442103028297e-02" rms="4.0542224049568176e-01" purity="4.6727663278579712e-01" nType="0">
          <Node pos="l" depth="2" NCoef="0" IVar="-1" Cut="0.0000000000000000e+00" cType="1" res="-3.5817455500364304e-03" rms="4.4389095902442932e-01" purity="4.9428012967109680e-01" nType="-99"/>
          <Node pos="r" depth="2" NCoef="0" IVar="-1" Cut="0.0000000000000000e+00" cType="1" res="2.8957072572666220e-05" rms="4.0179270505905151e-01" purity="4.6523007750511169e-01" nType="-99"/>
        </Node>
      </Node>
    </BinaryTree>
    <BinaryTree type="DecisionTree" boostWeight="1.0000000000000000e+00" itree="551">
      <Node pos="s" depth="0" NCoef="0" IVar="7" Cut="3.5571424961090088e+00" cType="1" res="-1.2836722657084465e-02" rms="4.1142603754997253e-01" purity="4.8513594269752502e-01" nType="0">
        <Node pos="l" depth="1" NCoef="0" IVar="7" Cut="-7.6333332061767578e+00" cType="1" res="-8.7858317419886589e-03" rms="4.0932896733283997e-01" purity="4.9022391438484192e-01" nType="0">
          <Node pos="l" depth="2" NCoef="0" IVar="-1" Cut="0.0000000000000000e+00" cType="1" res="-3.7518714088946581e-03" rms="4.2281243205070496e-01" purity="6.3105267286300659e-01" nType="-99"/>
          <Node pos="r" depth="2" NCoef="0" IVar="-1" Cut="0.0000000000000000e+00" cType="1" res="1.1230888048885390e-04" rms="4.0832203626632690e-01" purity="4.8439508676528931e-01" nType="-99"/>
        </Node>
        <Node pos="r" depth="1" NCoef="0" IVar="-1" Cut="0.0000000000000000e+00" cType="1" res="-2.0748414099216461e-03" rms="4.4984939694404602e-01" purity="3.5367172956466675e-01" nType="-99"/>
      </Node>
    </BinaryTree>
    <BinaryTree type="DecisionTree" boostWeight="1.0000000000000000e+00" itree="552">
      <Node pos="s" depth="0" NCoef="0" IVar="7" Cut="-1.1809518337249756e+00" cType="1" res="-2.2713555023074150e-02" rms="4.1474562883377075e-01" purity="4.8356446623802185e-01" nType="0">
        <Node pos="l" depth="1" NCoef="0" IVar="4" Cut="1.9259213209152222e+00" cType="1" res="3.5979997366666794e-02" rms="4.0003734827041626e-01" purity="6.5783751010894775e-01" nType="0">
          <Node pos="l" depth="2" NCoef="0" IVar="-1" Cut="0.0000000000000000e+00" cType="1" res="-1.2327353470027447e-03" rms="3.8902324438095093e-01" purity="6.9069355726242065e-01" nType="-99"/>
          <Node pos="r" depth="2" NCoef="0" IVar="-1" Cut="0.0000000000000000e+00" cType="1" res="5.2787889726459980e-03" rms="4.0854346752166748e-01" purity="5.7017362117767334e-01" nType="-99"/>
        </Node>
        <Node pos="r" depth="1" NCoef="0" IVar="12" Cut="1.4285714924335480e-01" cType="1" res="-3.5324070602655411e-02" rms="4.1676083207130432e-01" purity="4.4612127542495728e-01" nType="0">
          <Node pos="l" depth="2" NCoef="0" IVar="-1" Cut="0.0000000000000000e+00" cType="1" res="-4.1212877258658409e-03" rms="4.3024465441703796e-01" purity="4.6936511993408203e-01" nType="-99"/>
          <Node pos="r" depth="2" NCoef="0" IVar="-1" Cut="0.0000000000000000e+00" cType="1" res="3.2142896088771522e-04" rms="4.1318890452384949e-01" purity="4.4189906120300293e-01" nType="-99"/>
        </Node>
      </Node>
    </BinaryTree>
    <BinaryTree type="DecisionTree" boostWeight="1.0000000000000000e+00" itree="553">
      <Node pos="s" depth="0" NCoef="0" IVar="1" Cut="8.4285717010498047e+00" cType="0" res="2.6436056941747665e-03" rms="4.1131362318992615e-01" purity="5.0165194272994995e-01" nType="0">
        <Node pos="l" depth="1" NCoef="0" IVar="4" Cut="1.9169063568115234e+00" cType="0" res="2.0139153301715851e-01" rms="4.3356415629386902e-01" purity="6.9597375392913818e-01" nType="0">
          <Node pos="l" depth="2" NCoef="0" IVar="-1" Cut="0.0000000000000000e+00" cType="1" res="6.3628135249018669e-03" rms="4.2335093021392822e-01" purity="7.2103077173233032e-01" nType="-99"/>
          <Node pos="r" depth="2" NCoef="0" IVar="-1" Cut="0.0000000000000000e+00" cType="1" res="8.8036269880831242e-04" rms="4.0667930245399475e-01" purity="6.7137634754180908e-01" nType="-99"/>
        </Node>
        <Node pos="r" depth="1" NCoef="0" IVar="1" Cut="3.0476191043853760e+00" cType="1" res="-3.6437157541513443e-03" rms="4.0901720523834229e-01" purity="4.9550464749336243e-01" nType="0">
          <Node pos="l" depth="2" NCoef="0" IVar="-1" Cut="0.0000000000000000e+00" cType="1" res="4.4642202556133270e-03" rms="3.6368042230606079e-01" purity="6.2964129447937012e-01" nType="-99"/>
          <Node pos="r" depth="2" NCoef="0" IVar="-1" Cut="0.0000000000000000e+00" cType="1" res="-1.1942503042519093e-03" rms="4.1941517591476440e-01" purity="4.5828774571418762e-01" nType="-99"/>
        </Node>
      </Node>
    </BinaryTree>
    <BinaryTree type="DecisionTree" boostWeight="1.0000000000000000e+00" itree="554">
      <Node pos="s" depth="0" NCoef="0" IVar="15" Cut="1.1142857551574707e+01" cType="1" res="1.0300513356924057e-02" rms="4.0535938739776611e-01" purity="5.1456052064895630e-01" nType="0">
        <Node pos="l" depth="1" NCoef="0" IVar="0" Cut="3.9126881957054138e-01" cType="0" res="3.2628599554300308e-02" rms="3.8228800892829895e-01" purity="6.8238914012908936e-01" nType="0">
          <Node pos="l" depth="2" NCoef="0" IVar="-1" Cut="0.0000000000000000e+00" cType="1" res="1.0762643069028854e-03" rms="3.7016275525093079e-01" purity="6.9795697927474976e-01" nType="-99"/>
          <Node pos="r" depth="2" NCoef="0" IVar="-1" Cut="0.0000000000000000e+00" cType="1" res="-3.2001056242734194e-03" rms="4.5380553603172302e-01" purity="5.4019391536712646e-01" nType="-99"/>
        </Node>
        <Node pos="r" depth="1" NCoef="0" IVar="0" Cut="1.5589522123336792e+00" cType="1" res="-5.8391434140503407e-03" rms="4.2051267623901367e-01" purity="3.9324715733528137e-01" nType="0">
          <Node pos="l" depth="2" NCoef="0" IVar="-1" Cut="0.0000000000000000e+00" cType="1" res="-1.9473234424367547e-03" rms="4.2523550987243652e-01" purity="4.2202433943748474e-01" nType="-99"/>
          <Node pos="r" depth="2" NCoef="0" IVar="-1" Cut="0.0000000000000000e+00" cType="1" res="6.2538287602365017e-04" rms="4.1428348422050476e-01" purity="3.7053844332695007e-01" nType="-99"/>
        </Node>
      </Node>
    </BinaryTree>
    <BinaryTree type="DecisionTree" boostWeight="1.0000000000000000e+00" itree="555">
      <Node pos="s" depth="0" NCoef="0" IVar="21" Cut="4.2380952835083008e+00" cType="1" res="-4.0513384155929089e-03" rms="4.0480023622512817e-01" purity="4.9372082948684692e-01" nType="0">
        <Node pos="l" depth="1" NCoef="0" IVar="18" Cut="4.1904764175415039e+00" cType="1" res="-2.2078987210988998e-02" rms="4.1040557622909546e-01" purity="5.6116062402725220e-01" nType="0">
          <Node pos="l" depth="2" NCoef="0" IVar="-1" Cut="0.0000000000000000e+00" cType="1" res="1.7358658078592271e-04" rms="3.8725313544273376e-01" purity="6.9048994779586792e-01" nType="-99"/>
          <Node pos="r" depth="2" NCoef="0" IVar="-1" Cut="0.0000000000000000e+00" cType="1" res="-1.5002350555732846e-03" rms="4.3931171298027039e-01" purity="3.6460041999816895e-01" nType="-99"/>
        </Node>
        <Node pos="r" depth="1" NCoef="0" IVar="0" Cut="6.5389758348464966e-01" cType="1" res="2.2624656558036804e-02" rms="3.9485326409339905e-01" purity="3.9392846822738647e-01" nType="0">
          <Node pos="l" depth="2" NCoef="0" IVar="-1" Cut="0.0000000000000000e+00" cType="1" res="1.8346235156059265e-02" rms="2.6447314023971558e-01" purity="7.7971661090850830e-01" nType="-99"/>
          <Node pos="r" depth="2" NCoef="0" IVar="-1" Cut="0.0000000000000000e+00" cType="1" res="1.8091045785695314e-04" rms="3.9499327540397644e-01" purity="3.7892562150955200e-01" nType="-99"/>
        </Node>
      </Node>
    </BinaryTree>
    <BinaryTree type="DecisionTree" boostWeight="1.0000000000000000e+00" itree="556">
      <Node pos="s" depth="0" NCoef="0" IVar="21" Cut="6.1428570747375488e+00" cType="1" res="1.8699096515774727e-02" rms="4.0288525819778442e-01" purity="5.2312195301055908e-01" nType="0">
        <Node pos="l" depth="1" NCoef="0" IVar="4" Cut="2.3631129264831543e+00" cType="1" res="2.8347486630082130e-02" rms="4.2352935671806335e-01" purity="5.9975016117095947e-01" nType="0">
          <Node pos="l" depth="2" NCoef="0" IVar="-1" Cut="0.0000000000000000e+00" cType="1" res="-1.2905636685900390e-04" rms="4.1527527570724487e-01" purity="6.4627027511596680e-01" nType="-99"/>
          <Node pos="r" depth="2" NCoef="0" IVar="-1" Cut="0.0000000000000000e+00" cType="1" res="1.2770299799740314e-03" rms="4.4956547021865845e-01" purity="4.2255219817161560e-01" nType="-99"/>
        </Node>
        <Node pos="r" depth="1" NCoef="0" IVar="1" Cut="4.6190476417541504e+00" cType="0" res="-3.9273742586374283e-02" rms="2.3640392720699310e-01" purity="6.2697283923625946e-02" nType="0">
          <Node pos="l" depth="2" NCoef="0" IVar="-1" Cut="0.0000000000000000e+00" cType="1" res="-1.0222428245469928e-03" rms="3.2311251759529114e-01" purity="1.2117000669240952e-01" nType="-99"/>
          <Node pos="r" depth="2" NCoef="0" IVar="-1" Cut="0.0000000000000000e+00" cType="1" res="-4.6613765880465508e-03" rms="1.6505894064903259e-01" purity="3.0112218111753464e-02" nType="-99"/>
        </Node>
      </Node>
    </BinaryTree>
    <BinaryTree type="DecisionTree" boostWeight="1.0000000000000000e+00" itree="557">
      <Node pos="s" depth="0" NCoef="0" IVar="0" Cut="4.4540309906005859e-01" cType="1" res="5.6879414478316903e-04" rms="4.1359287500381470e-01" purity="5.1054608821868896e-01" nType="0">
        <Node pos="l" depth="1" NCoef="0" IVar="10" Cut="1.6365122795104980e+00" cType="0" res="-9.1653101146221161e-02" rms="4.6778997778892517e-01" purity="5.4080188274383545e-01" nType="0">
          <Node pos="l" depth="2" NCoef="0" IVar="-1" Cut="0.0000000000000000e+00" cType="1" res="3.8244046736508608e-03" rms="4.1499590873718262e-01" purity="5.7472836971282959e-01" nType="-99"/>
          <Node pos="r" depth="2" NCoef="0" IVar="-1" Cut="0.0000000000000000e+00" cType="1" res="-5.9797912836074829e-03" rms="4.7261616587638855e-01" purity="5.2664083242416382e-01" nType="-99"/>
        </Node>
        <Node pos="r" depth="1" NCoef="0" IVar="15" Cut="8.4285717010498047e+00" cType="1" res="6.6114296205341816e-03" rms="4.0906646847724915e-01" purity="5.0856363773345947e-01" nType="0">
          <Node pos="l" depth="2" NCoef="0" IVar="-1" Cut="0.0000000000000000e+00" cType="1" res="1.7471107421442866e-03" rms="3.5254052281379700e-01" purity="7.6237064599990845e-01" nType="-99"/>
          <Node pos="r" depth="2" NCoef="0" IVar="-1" Cut="0.0000000000000000e+00" cType="1" res="-3.0776768107898533e-04" rms="4.2310291528701782e-01" purity="4.3429523706436157e-01" nType="-99"/>
        </Node>
      </Node>
    </BinaryTree>
    <BinaryTree type="DecisionTree" boostWeight="1.0000000000000000e+00" itree="558">
      <Node pos="s" depth="0" NCoef="0" IVar="15" Cut="4.1428570747375488e+00" cType="1" res="1.5656038885936141e-03" rms="4.1005071997642517e-01" purity="5.0696814060211182e-01" nType="0">
        <Node pos="l" depth="1" NCoef="0" IVar="1" Cut="4.9523811340332031e+00" cType="1" res="-1.0401411354541779e-01" rms="4.3409642577171326e-01" purity="5.9983795881271362e-01" nType="0">
          <Node pos="l" depth="2" NCoef="0" IVar="-1" Cut="0.0000000000000000e+00" cType="1" res="9.5269801095128059e-03" rms="3.1474712491035461e-01" purity="7.8111654520034790e-01" nType="-99"/>
          <Node pos="r" depth="2" NCoef="0" IVar="-1" Cut="0.0000000000000000e+00" cType="1" res="-7.2972271591424942e-03" rms="4.8031789064407349e-01" purity="4.7316303849220276e-01" nType="-99"/>
        </Node>
        <Node pos="r" depth="1" NCoef="0" IVar="12" Cut="2.1428570747375488e+00" cType="1" res="1.1655073612928391e-02" rms="4.0624475479125977e-01" purity="4.9809324741363525e-01" nType="0">
          <Node pos="l" depth="2" NCoef="0" IVar="-1" Cut="0.0000000000000000e+00" cType="1" res="3.1730762566439807e-04" rms="3.9574280381202698e-01" purity="5.1449197530746460e-01" nType="-99"/>
          <Node pos="r" depth="2" NCoef="0" IVar="-1" Cut="0.0000000000000000e+00" cType="1" res="-8.3602988161146641e-04" rms="4.4898262619972229e-01" purity="4.1859853267669678e-01" nType="-99"/>
        </Node>
      </Node>
    </BinaryTree>
    <BinaryTree type="DecisionTree" boostWeight="1.0000000000000000e+00" itree="559">
      <Node pos="s" depth="0" NCoef="0" IVar="20" Cut="7.3729797363281250e+01" cType="1" res="2.2452478297054768e-03" rms="4.0018251538276672e-01" purity="4.9269658327102661e-01" nType="0">
        <Node pos="l" depth="1" NCoef="0" IVar="18" Cut="5.2380952835083008e+00" cType="1" res="6.2964111566543579e-03" rms="4.0009781718254089e-01" purity="4.9916911125183105e-01" nType="0">
          <Node pos="l" depth="2" NCoef="0" IVar="-1" Cut="0.0000000000000000e+00" cType="1" res="7.8774109715595841e-04" rms="3.9517769217491150e-01" purity="6.7266744375228882e-01" nType="-99"/>
          <Node pos="r" depth="2" NCoef="0" IVar="-1" Cut="0.0000000000000000e+00" cType="1" res="-5.4117740364745259e-04" rms="4.0371230244636536e-01" purity="3.2661217451095581e-01" nType="-99"/>
        </Node>
        <Node pos="r" depth="1" NCoef="0" IVar="-1" Cut="0.0000000000000000e+00" cType="1" res="-4.3815602548420429e-03" rms="3.7533777952194214e-01" purity="2.6056116819381714e-01" nType="-99"/>
      </Node>
    </BinaryTree>
    <BinaryTree type="DecisionTree" boostWeight="1.0000000000000000e+00" itree="560">
      <Node pos="s" depth="0" NCoef="0" IVar="0" Cut="1.3271428346633911e+00" cType="1" res="1.3882358558475971e-02" rms="4.0936091542243958e-01" purity="5.1968306303024292e-01" nType="0">
        <Node pos="l" depth="1" NCoef="0" IVar="20" Cut="2.0021230697631836e+01" cType="0" res="-1.4886326156556606e-02" rms="4.1950774192810059e-01" purity="6.0071074962615967e-01" nType="0">
          <Node pos="l" depth="2" NCoef="0" IVar="-1" Cut="0.0000000000000000e+00" cType="1" res="5.1924469880759716e-04" rms="3.9411851763725281e-01" purity="6.3661503791809082e-01" nType="-99"/>
          <Node pos="r" depth="2" NCoef="0" IVar="-1" Cut="0.0000000000000000e+00" cType="1" res="-1.9058414036408067e-03" rms="4.3295040726661682e-01" purity="5.7716929912567139e-01" nType="-99"/>
        </Node>
        <Node pos="r" depth="1" NCoef="0" IVar="21" Cut="6.3333334922790527e+00" cType="1" res="3.5387191921472549e-02" rms="4.0026044845581055e-01" purity="4.5911413431167603e-01" nType="0">
          <Node pos="l" depth="2" NCoef="0" IVar="-1" Cut="0.0000000000000000e+00" cType="1" res="1.3016918674111366e-03" rms="4.2738014459609985e-01" purity="5.5359339714050293e-01" nType="-99"/>
          <Node pos="r" depth="2" NCoef="0" IVar="-1" Cut="0.0000000000000000e+00" cType="1" res="-4.0966668166220188e-03" rms="2.5196027755737305e-01" purity="7.0647858083248138e-02" nType="-99"/>
        </Node>
      </Node>
    </BinaryTree>
    <BinaryTree type="DecisionTree" boostWeight="1.0000000000000000e+00" itree="561">
      <Node pos="s" depth="0" NCoef="0" IVar="9" Cut="-1.1428571701049805e+01" cType="1" res="8.3803040906786919e-03" rms="4.0900492668151855e-01" purity="5.1158136129379272e-01" nType="0">
        <Node pos="l" depth="1" NCoef="0" IVar="-1" Cut="0.0000000000000000e+00" cType="1" res="5.2542691119015217e-03" rms="2.8977969288825989e-01" purity="8.9735287427902222e-01" nType="-99"/>
        <Node pos="r" depth="1" NCoef="0" IVar="9" Cut="-5.4285717010498047e+00" cType="0" res="4.8548928461968899e-03" rms="4.1101521253585815e-01" purity="5.0165432691574097e-01" nType="0">
          <Node pos="l" depth="2" NCoef="0" IVar="-1" Cut="0.0000000000000000e+00" cType="1" res="5.2242230594856665e-05" rms="4.0916863083839417e-01" purity="5.0183951854705811e-01" nType="-99"/>
          <Node pos="r" depth="2" NCoef="0" IVar="-1" Cut="0.0000000000000000e+00" cType="1" res="-3.9623100310564041e-03" rms="4.3309760093688965e-01" purity="4.9820014834403992e-01" nType="-99"/>
        </Node>
      </Node>
    </BinaryTree>
    <BinaryTree type="DecisionTree" boostWeight="1.0000000000000000e+00" itree="562">
      <Node pos="s" depth="0" NCoef="0" IVar="9" Cut="-1.0000000000000000e+01" cType="1" res="-2.9915664345026016e-03" rms="4.0423515439033508e-01" purity="4.9576771259307861e-01" nType="0">
        <Node pos="l" depth="1" NCoef="0" IVar="18" Cut="2.3333332538604736e+00" cType="1" res="1.3280375301837921e-01" rms="3.2578068971633911e-01" purity="8.8925123214721680e-01" nType="0">
          <Node pos="l" depth="2" NCoef="0" IVar="-1" Cut="0.0000000000000000e+00" cType="1" res="-6.9310297258198261e-03" rms="2.9271686077117920e-01" purity="8.8983094692230225e-01" nType="-99"/>
          <Node pos="r" depth="2" NCoef="0" IVar="-1" Cut="0.0000000000000000e+00" cType="1" res="9.5715839415788651e-03" rms="3.4367609024047852e-01" purity="8.8866531848907471e-01" nType="-99"/>
        </Node>
        <Node pos="r" depth="1" NCoef="0" IVar="0" Cut="1.1059528589248657e+00" cType="1" res="-7.2061526589095592e-03" rms="4.0570127964019775e-01" purity="4.8355546593666077e-01" nType="0">
          <Node pos="l" depth="2" NCoef="0" IVar="-1" Cut="0.0000000000000000e+00" cType="1" res="-7.8070466406643391e-04" rms="4.2173507809638977e-01" purity="5.5437582731246948e-01" nType="-99"/>
          <Node pos="r" depth="2" NCoef="0" IVar="-1" Cut="0.0000000000000000e+00" cType="1" res="9.2173308075871319e-05" rms="3.9688441157341003e-01" purity="4.5109146833419800e-01" nType="-99"/>
        </Node>
      </Node>
    </BinaryTree>
    <BinaryTree type="DecisionTree" boostWeight="1.0000000000000000e+00" itree="563">
      <Node pos="s" depth="0" NCoef="0" IVar="7" Cut="-1.6761896610260010e+00" cType="1" res="-1.2397662736475468e-02" rms="4.1353672742843628e-01" purity="4.8767715692520142e-01" nType="0">
        <Node pos="l" depth="1" NCoef="0" IVar="15" Cut="9.0000000000000000e+00" cType="1" res="4.5909203588962555e-02" rms="3.9581269025802612e-01" purity="6.7165595293045044e-01" nType="0">
          <Node pos="l" depth="2" NCoef="0" IVar="-1" Cut="0.0000000000000000e+00" cType="1" res="7.4785356409847736e-03" rms="3.0591219663619995e-01" purity="7.9354536533355713e-01" nType="-99"/>
          <Node pos="r" depth="2" NCoef="0" IVar="-1" Cut="0.0000000000000000e+00" cType="1" res="-3.0426860321313143e-03" rms="4.8939731717109680e-01" purity="5.0448524951934814e-01" nType="-99"/>
        </Node>
        <Node pos="r" depth="1" NCoef="0" IVar="8" Cut="4.3309521675109863e+00" cType="0" res="-2.1626599133014679e-02" rms="4.1552361845970154e-01" purity="4.5855659246444702e-01" nType="0">
          <Node pos="l" depth="2" NCoef="0" IVar="-1" Cut="0.0000000000000000e+00" cType="1" res="6.6995533416047692e-05" rms="4.0924608707427979e-01" purity="6.5647751092910767e-01" nType="-99"/>
          <Node pos="r" depth="2" NCoef="0" IVar="-1" Cut="0.0000000000000000e+00" cType="1" res="-2.2108932898845524e-04" rms="4.1471451520919800e-01" purity="4.5353245735168457e-01" nType="-99"/>
        </Node>
      </Node>
    </BinaryTree>
    <BinaryTree type="DecisionTree" boostWeight="1.0000000000000000e+00" itree="564">
      <Node pos="s" depth="0" NCoef="0" IVar="4" Cut="3.1036112308502197e+00" cType="1" res="1.3735525310039520e-02" rms="3.9515244960784912e-01" purity="5.0313127040863037e-01" nType="0">
        <Node pos="l" depth="1" NCoef="0" IVar="9" Cut="-5.7142858505249023e+00" cType="1" res="2.3149373009800911e-02" rms="4.0883690118789673e-01" purity="5.5759876966476440e-01" nType="0">
          <Node pos="l" depth="2" NCoef="0" IVar="-1" Cut="0.0000000000000000e+00" cType="1" res="-2.0687771029770374e-03" rms="4.1627302765846252e-01" purity="5.6496161222457886e-01" nType="-99"/>
          <Node pos="r" depth="2" NCoef="0" IVar="-1" Cut="0.0000000000000000e+00" cType="1" res="3.4207483986392617e-04" rms="4.0697541832923889e-01" purity="5.5690735578536987e-01" nType="-99"/>
        </Node>
        <Node pos="r" depth="1" NCoef="0" IVar="5" Cut="3.2884597778320312e+00" cType="1" res="-6.0140702873468399e-02" rms="2.5229275226593018e-01" purity="7.5691387057304382e-02" nType="0">
          <Node pos="l" depth="2" NCoef="0" IVar="-1" Cut="0.0000000000000000e+00" cType="1" res="-1.9397984724491835e-03" rms="2.6013872027397156e-01" purity="8.0011568963527679e-02" nType="-99"/>
          <Node pos="r" depth="2" NCoef="0" IVar="-1" Cut="0.0000000000000000e+00" cType="1" res="-3.2050847075879574e-03" rms="2.4093545973300934e-01" purity="7.1672610938549042e-02" nType="-99"/>
        </Node>
      </Node>
    </BinaryTree>
    <BinaryTree type="DecisionTree" boostWeight="1.0000000000000000e+00" itree="565">
      <Node pos="s" depth="0" NCoef="0" IVar="15" Cut="4.1428570747375488e+00" cType="1" res="-1.1275741271674633e-02" rms="4.0843096375465393e-01" purity="4.8660159111022949e-01" nType="0">
        <Node pos="l" depth="1" NCoef="0" IVar="1" Cut="7.0000000000000000e+00" cType="1" res="-7.4568375945091248e-02" rms="4.2493215203285217e-01" purity="6.0361564159393311e-01" nType="0">
          <Node pos="l" depth="2" NCoef="0" IVar="-1" Cut="0.0000000000000000e+00" cType="1" res="-2.6365874800831079e-03" rms="4.3237140774726868e-01" purity="6.7527633905410767e-01" nType="-99"/>
          <Node pos="r" depth="2" NCoef="0" IVar="-1" Cut="0.0000000000000000e+00" cType="1" res="-4.1748685762286186e-03" rms="3.8652071356773376e-01" purity="2.9044288396835327e-01" nType="-99"/>
        </Node>
        <Node pos="r" depth="1" NCoef="0" IVar="18" Cut="3.3333332538604736e+00" cType="1" res="-5.7299146428704262e-03" rms="4.0648391842842102e-01" purity="4.7634857892990112e-01" nType="0">
          <Node pos="l" depth="2" NCoef="0" IVar="-1" Cut="0.0000000000000000e+00" cType="1" res="3.2590536866337061e-03" rms="3.0016958713531494e-01" purity="7.4908727407455444e-01" nType="-99"/>
          <Node pos="r" depth="2" NCoef="0" IVar="-1" Cut="0.0000000000000000e+00" cType="1" res="-2.9655289836227894e-04" rms="4.2733356356620789e-01" purity="4.1019248962402344e-01" nType="-99"/>
        </Node>
      </Node>
    </BinaryTree>
    <BinaryTree type="DecisionTree" boostWeight="1.0000000000000000e+00" itree="566">
      <Node pos="s" depth="0" NCoef="0" IVar="3" Cut="5.8571429252624512e+00" cType="0" res="-1.1444941163063049e-02" rms="4.0776392817497253e-01" purity="4.8826855421066284e-01" nType="0">
        <Node pos="l" depth="1" NCoef="0" IVar="6" Cut="1.7780102491378784e+00" cType="1" res="9.9311582744121552e-02" rms="4.2040833830833435e-01" purity="6.4354926347732544e-01" nType="0">
          <Node pos="l" depth="2" NCoef="0" IVar="-1" Cut="0.0000000000000000e+00" cType="1" res="4.9465298652648926e-03" rms="2.4031564593315125e-01" purity="9.5249372720718384e-01" nType="-99"/>
          <Node pos="r" depth="2" NCoef="0" IVar="-1" Cut="0.0000000000000000e+00" cType="1" res="5.2466365741565824e-04" rms="4.7669139504432678e-01" purity="4.5805463194847107e-01" nType="-99"/>
        </Node>
        <Node pos="r" depth="1" NCoef="0" IVar="3" Cut="3.0952382087707520e+00" cType="1" res="-1.6953650861978531e-02" rms="4.0633744001388550e-01" purity="4.8054531216621399e-01" nType="0">
          <Node pos="l" depth="2" NCoef="0" IVar="-1" Cut="0.0000000000000000e+00" cType="1" res="3.4279513056389987e-04" rms="3.9571651816368103e-01" purity="4.9083292484283447e-01" nType="-99"/>
          <Node pos="r" depth="2" NCoef="0" IVar="-1" Cut="0.0000000000000000e+00" cType="1" res="-1.7369288252666593e-03" rms="4.3362286686897278e-01" purity="4.4844150543212891e-01" nType="-99"/>
        </Node>
      </Node>
    </BinaryTree>
    <BinaryTree type="DecisionTree" boostWeight="1.0000000000000000e+00" itree="567">
      <Node pos="s" depth="0" NCoef="0" IVar="5" Cut="1.0994994640350342e+00" cType="1" res="1.1597522825468332e-04" rms="4.1907104849815369e-01" purity="5.1369291543960571e-01" nType="0">
        <Node pos="l" depth="1" NCoef="0" IVar="6" Cut="1.6800576448440552e+00" cType="1" res="5.4903808981180191e-02" rms="3.6821070313453674e-01" purity="7.7680659294128418e-01" nType="0">
          <Node pos="l" depth="2" NCoef="0" IVar="-1" Cut="0.0000000000000000e+00" cType="1" res="-1.2849044287577271e-03" rms="3.6155697703361511e-01" purity="7.8071761131286621e-01" nType="-99"/>
          <Node pos="r" depth="2" NCoef="0" IVar="-1" Cut="0.0000000000000000e+00" cType="1" res="2.9861619696021080e-03" rms="3.7083512544631958e-01" purity="7.6004409790039062e-01" nType="-99"/>
        </Node>
        <Node pos="r" depth="1" NCoef="0" IVar="12" Cut="1.4285714924335480e-01" cType="0" res="-1.5947811305522919e-02" rms="4.3153509497642517e-01" purity="4.3654799461364746e-01" nType="0">
          <Node pos="l" depth="2" NCoef="0" IVar="-1" Cut="0.0000000000000000e+00" cType="1" res="5.5774423526600003e-04" rms="4.3081435561180115e-01" purity="4.4536548852920532e-01" nType="-99"/>
          <Node pos="r" depth="2" NCoef="0" IVar="-1" Cut="0.0000000000000000e+00" cType="1" res="-3.8695575203746557e-03" rms="4.2294427752494812e-01" purity="3.8738828897476196e-01" nType="-99"/>
        </Node>
      </Node>
    </BinaryTree>
    <BinaryTree type="DecisionTree" boostWeight="1.0000000000000000e+00" itree="568">
      <Node pos="s" depth="0" NCoef="0" IVar="15" Cut="1.1285714149475098e+01" cType="1" res="1.9007459050044417e-03" rms="4.0331196784973145e-01" purity="5.0311744213104248e-01" nType="0">
        <Node pos="l" depth="1" NCoef="0" IVar="11" Cut="1.4588507413864136e+00" cType="1" res="2.8367897495627403e-02" rms="3.7346607446670532e-01" purity="6.7229795455932617e-01" nType="0">
          <Node pos="l" depth="2" NCoef="0" IVar="-1" Cut="0.0000000000000000e+00" cType="1" res="2.1082735620439053e-03" rms="3.5735604166984558e-01" purity="7.7798801660537720e-01" nType="-99"/>
          <Node pos="r" depth="2" NCoef="0" IVar="-1" Cut="0.0000000000000000e+00" cType="1" res="-2.2412845864892006e-03" rms="4.0725430846214294e-01" purity="3.5219559073448181e-01" nType="-99"/>
        </Node>
        <Node pos="r" depth="1" NCoef="0" IVar="0" Cut="6.6815799474716187e-01" cType="1" res="-1.7109157517552376e-02" rms="4.2243057489395142e-01" purity="3.8160440325737000e-01" nType="0">
          <Node pos="l" depth="2" NCoef="0" IVar="-1" Cut="0.0000000000000000e+00" cType="1" res="1.7952169291675091e-03" rms="3.7836039066314697e-01" purity="5.9015780687332153e-01" nType="-99"/>
          <Node pos="r" depth="2" NCoef="0" IVar="-1" Cut="0.0000000000000000e+00" cType="1" res="-5.9043586952611804e-04" rms="4.2264068126678467e-01" purity="3.7146317958831787e-01" nType="-99"/>
        </Node>
      </Node>
    </BinaryTree>
    <BinaryTree type="DecisionTree" boostWeight="1.0000000000000000e+00" itree="569">
      <Node pos="s" depth="0" NCoef="0" IVar="18" Cut="1.2857142686843872e+00" cType="1" res="-6.9500217214226723e-03" rms="4.0438923239707947e-01" purity="4.8804852366447449e-01" nType="0">
        <Node pos="l" depth="1" NCoef="0" IVar="3" Cut="3.4285714626312256e+00" cType="1" res="-1.0479542613029480e-01" rms="4.4156458973884583e-01" purity="5.8388346433639526e-01" nType="0">
          <Node pos="l" depth="2" NCoef="0" IVar="-1" Cut="0.0000000000000000e+00" cType="1" res="6.0555219533853233e-05" rms="3.9863988757133484e-01" purity="6.8390446901321411e-01" nType="-99"/>
          <Node pos="r" depth="2" NCoef="0" IVar="-1" Cut="0.0000000000000000e+00" cType="1" res="-6.3333190046250820e-03" rms="4.8260381817817688e-01" purity="4.5105299353599548e-01" nType="-99"/>
        </Node>
        <Node pos="r" depth="1" NCoef="0" IVar="9" Cut="-1.0000000000000000e+01" cType="1" res="-7.2444556280970573e-04" rms="4.0110069513320923e-01" purity="4.8195084929466248e-01" nType="0">
          <Node pos="l" depth="2" NCoef="0" IVar="-1" Cut="0.0000000000000000e+00" cType="1" res="4.9907718785107136e-03" rms="2.7121847867965698e-01" purity="9.2234742641448975e-01" nType="-99"/>
          <Node pos="r" depth="2" NCoef="0" IVar="-1" Cut="0.0000000000000000e+00" cType="1" res="-3.8771384424762800e-05" rms="4.0282744169235229e-01" purity="4.7170764207839966e-01" nType="-99"/>
        </Node>
      </Node>
    </BinaryTree>
    <BinaryTree type="DecisionTree" boostWeight="1.0000000000000000e+00" itree="570">
      <Node pos="s" depth="0" NCoef="0" IVar="12" Cut="2.1428570747375488e+00" cType="1" res="1.0408177971839905e-02" rms="4.0585103631019592e-01" purity="5.0538790225982666e-01" nType="0">
        <Node pos="l" depth="1" NCoef="0" IVar="12" Cut="9.5238097012042999e-02" cType="1" res="2.3929147049784660e-02" rms="3.9419940114021301e-01" purity="5.2159148454666138e-01" nType="0">
          <Node pos="l" depth="2" NCoef="0" IVar="-1" Cut="0.0000000000000000e+00" cType="1" res="-2.2406270727515221e-03" rms="3.7899091839790344e-01" purity="5.6223118305206299e-01" nType="-99"/>
          <Node pos="r" depth="2" NCoef="0" IVar="-1" Cut="0.0000000000000000e+00" cType="1" res="7.9346221173182130e-04" rms="3.9698413014411926e-01" purity="5.0961130857467651e-01" nType="-99"/>
        </Node>
        <Node pos="r" depth="1" NCoef="0" IVar="21" Cut="1.3809523582458496e+00" cType="1" res="-5.1147174090147018e-02" rms="4.5003601908683777e-01" purity="4.3161970376968384e-01" nType="0">
          <Node pos="l" depth="2" NCoef="0" IVar="-1" Cut="0.0000000000000000e+00" cType="1" res="1.6584601253271103e-03" rms="4.7604808211326599e-01" purity="5.7989084720611572e-01" nType="-99"/>
          <Node pos="r" depth="2" NCoef="0" IVar="-1" Cut="0.0000000000000000e+00" cType="1" res="-3.2631785143166780e-03" rms="4.2046323418617249e-01" purity="3.1883645057678223e-01" nType="-99"/>
        </Node>
      </Node>
    </BinaryTree>
    <BinaryTree type="DecisionTree" boostWeight="1.0000000000000000e+00" itree="571">
      <Node pos="s" depth="0" NCoef="0" IVar="15" Cut="1.5857142448425293e+01" cType="1" res="1.5376058872789145e-03" rms="4.1454359889030457e-01" purity="5.0765782594680786e-01" nType="0">
        <Node pos="l" depth="1" NCoef="0" IVar="9" Cut="-2.8571429252624512e+00" cType="1" res="-1.5575647354125977e-02" rms="4.1875126957893372e-01" purity="5.7003736495971680e-01" nType="0">
          <Node pos="l" depth="2" NCoef="0" IVar="-1" Cut="0.0000000000000000e+00" cType="1" res="6.0456793289631605e-04" rms="3.7483114004135132e-01" purity="7.0513755083084106e-01" nType="-99"/>
          <Node pos="r" depth="2" NCoef="0" IVar="-1" Cut="0.0000000000000000e+00" cType="1" res="-3.4095568116754293e-04" rms="4.2510065436363220e-01" purity="5.4493331909179688e-01" nType="-99"/>
        </Node>
        <Node pos="r" depth="1" NCoef="0" IVar="15" Cut="1.8666666030883789e+01" cType="1" res="3.6568351089954376e-02" rms="4.0353748202323914e-01" purity="3.7996715307235718e-01" nType="0">
          <Node pos="l" depth="2" NCoef="0" IVar="-1" Cut="0.0000000000000000e+00" cType="1" res="1.3194081839174032e-03" rms="4.6987259387969971e-01" purity="5.7857197523117065e-01" nType="-99"/>
          <Node pos="r" depth="2" NCoef="0" IVar="-1" Cut="0.0000000000000000e+00" cType="1" res="-2.9029087163507938e-03" rms="2.6761919260025024e-01" purity="8.3938121795654297e-02" nType="-99"/>
        </Node>
      </Node>
    </BinaryTree>
    <BinaryTree type="DecisionTree" boostWeight="1.0000000000000000e+00" itree="572">
      <Node pos="s" depth="0" NCoef="0" IVar="15" Cut="5.5714287757873535e+00" cType="1" res="-7.2334604337811470e-03" rms="4.0316653251647949e-01" purity="4.8772695660591125e-01" nType="0">
        <Node pos="l" depth="1" NCoef="0" IVar="5" Cut="1.5083041191101074e+00" cType="1" res="-8.8305041193962097e-02" rms="4.0495905280113220e-01" purity="6.1590361595153809e-01" nType="0">
          <Node pos="l" depth="2" NCoef="0" IVar="-1" Cut="0.0000000000000000e+00" cType="1" res="1.1507015442475677e-03" rms="4.0339550375938416e-01" purity="7.6027190685272217e-01" nType="-99"/>
          <Node pos="r" depth="2" NCoef="0" IVar="-1" Cut="0.0000000000000000e+00" cType="1" res="-4.4764075428247452e-03" rms="3.8813358545303345e-01" purity="2.9952535033226013e-01" nType="-99"/>
        </Node>
        <Node pos="r" depth="1" NCoef="0" IVar="4" Cut="1.7968528270721436e+00" cType="1" res="3.9731194265186787e-03" rms="4.0163278579711914e-01" purity="4.7000902891159058e-01" nType="0">
          <Node pos="l" depth="2" NCoef="0" IVar="-1" Cut="0.0000000000000000e+00" cType="1" res="7.1192445466294885e-04" rms="3.8249671459197998e-01" purity="7.3304647207260132e-01" nType="-99"/>
          <Node pos="r" depth="2" NCoef="0" IVar="-1" Cut="0.0000000000000000e+00" cType="1" res="-2.5422748876735568e-04" rms="4.0945866703987122e-01" purity="3.2958114147186279e-01" nType="-99"/>
        </Node>
      </Node>
    </BinaryTree>
    <BinaryTree type="DecisionTree" boostWeight="1.0000000000000000e+00" itree="573">
      <Node pos="s" depth="0" NCoef="0" IVar="1" Cut="8.4285717010498047e+00" cType="0" res="-3.6575142294168472e-03" rms="4.1116359829902649e-01" purity="4.9757331609725952e-01" nType="0">
        <Node pos="l" depth="1" NCoef="0" IVar="5" Cut="1.6887313127517700e+00" cType="0" res="1.1143737286329269e-01" rms="4.7934865951538086e-01" purity="5.8983016014099121e-01" nType="0">
          <Node pos="l" depth="2" NCoef="0" IVar="-1" Cut="0.0000000000000000e+00" cType="1" res="7.3899743147194386e-03" rms="4.4883349537849426e-01" purity="6.2542462348937988e-01" nType="-99"/>
          <Node pos="r" depth="2" NCoef="0" IVar="-1" Cut="0.0000000000000000e+00" cType="1" res="-6.2880216864868999e-04" rms="4.5770412683486938e-01" purity="5.5263257026672363e-01" nType="-99"/>
        </Node>
        <Node pos="r" depth="1" NCoef="0" IVar="11" Cut="7.4490958452224731e-01" cType="1" res="-7.3122689500451088e-03" rms="4.0828102827072144e-01" purity="4.9464374780654907e-01" nType="0">
          <Node pos="l" depth="2" NCoef="0" IVar="-1" Cut="0.0000000000000000e+00" cType="1" res="6.3601392321288586e-04" rms="3.8317063450813293e-01" purity="6.0337704420089722e-01" nType="-99"/>
          <Node pos="r" depth="2" NCoef="0" IVar="-1" Cut="0.0000000000000000e+00" cType="1" res="-9.3749171355739236e-04" rms="4.2616802453994751e-01" purity="4.0453186631202698e-01" nType="-99"/>
        </Node>
      </Node>
    </BinaryTree>
    <BinaryTree type="DecisionTree" boostWeight="1.0000000000000000e+00" itree="574">
      <Node pos="s" depth="0" NCoef="0" IVar="0" Cut="8.8515645265579224e-01" cType="1" res="-1.3241800479590893e-02" rms="4.1147962212562561e-01" purity="4.8419982194900513e-01" nType="0">
        <Node pos="l" depth="1" NCoef="0" IVar="8" Cut="4.8023810386657715e+00" cType="0" res="-6.2955729663372040e-02" rms="4.3192321062088013e-01" purity="5.3669601678848267e-01" nType="0">
          <Node pos="l" depth="2" NCoef="0" IVar="-1" Cut="0.0000000000000000e+00" cType="1" res="-7.3804683052003384e-04" rms="3.5017919540405273e-01" purity="6.1590355634689331e-01" nType="-99"/>
          <Node pos="r" depth="2" NCoef="0" IVar="-1" Cut="0.0000000000000000e+00" cType="1" res="-1.4529032632708549e-03" rms="4.3408468365669250e-01" purity="5.3039741516113281e-01" nType="-99"/>
        </Node>
        <Node pos="r" depth="1" NCoef="0" IVar="18" Cut="3.3333332538604736e+00" cType="1" res="2.0494521595537663e-03" rms="4.0375488996505737e-01" purity="4.6805277466773987e-01" nType="0">
          <Node pos="l" depth="2" NCoef="0" IVar="-1" Cut="0.0000000000000000e+00" cType="1" res="3.4670203458517790e-03" rms="3.1769144535064697e-01" purity="7.5326108932495117e-01" nType="-99"/>
          <Node pos="r" depth="2" NCoef="0" IVar="-1" Cut="0.0000000000000000e+00" cType="1" res="-2.8956841561011970e-04" rms="4.2231053113937378e-01" purity="3.9350643754005432e-01" nType="-99"/>
        </Node>
      </Node>
    </BinaryTree>
    <BinaryTree type="DecisionTree" boostWeight="1.0000000000000000e+00" itree="575">
      <Node pos="s" depth="0" NCoef="0" IVar="5" Cut="8.7826299667358398e-01" cType="1" res="2.0300555042922497e-03" rms="4.1004285216331482e-01" purity="5.0225889682769775e-01" nType="0">
        <Node pos="l" depth="1" NCoef="0" IVar="15" Cut="1.3000000000000000e+01" cType="1" res="7.0408307015895844e-02" rms="3.1267201900482178e-01" purity="8.4562653303146362e-01" nType="0">
          <Node pos="l" depth="2" NCoef="0" IVar="-1" Cut="0.0000000000000000e+00" cType="1" res="2.2881038021296263e-03" rms="2.8297442197799683e-01" purity="8.8983088731765747e-01" nType="-99"/>
          <Node pos="r" depth="2" NCoef="0" IVar="-1" Cut="0.0000000000000000e+00" cType="1" res="-1.6718068218324333e-04" rms="4.2492616176605225e-01" purity="6.3829874992370605e-01" nType="-99"/>
        </Node>
        <Node pos="r" depth="1" NCoef="0" IVar="8" Cut="6.6285719871520996e+00" cType="1" res="-4.9600061029195786e-03" rms="4.1809344291687012e-01" purity="4.6715769171714783e-01" nType="0">
          <Node pos="l" depth="2" NCoef="0" IVar="-1" Cut="0.0000000000000000e+00" cType="1" res="-1.8281268421560526e-04" rms="4.1687446832656860e-01" purity="4.7193244099617004e-01" nType="-99"/>
          <Node pos="r" depth="2" NCoef="0" IVar="-1" Cut="0.0000000000000000e+00" cType="1" res="8.9771841885522008e-05" rms="4.3117576837539673e-01" purity="3.0063372850418091e-01" nType="-99"/>
        </Node>
      </Node>
    </BinaryTree>
    <BinaryTree type="DecisionTree" boostWeight="1.0000000000000000e+00" itree="576">
      <Node pos="s" depth="0" NCoef="0" IVar="6" Cut="1.7876003980636597e+00" cType="1" res="4.0577217005193233e-03" rms="4.0145602822303772e-01" purity="4.9850797653198242e-01" nType="0">
        <Node pos="l" depth="1" NCoef="0" IVar="6" Cut="1.7049367427825928e+00" cType="0" res="3.4648284316062927e-02" rms="3.9458519220352173e-01" purity="6.8224757909774780e-01" nType="0">
          <Node pos="l" depth="2" NCoef="0" IVar="-1" Cut="0.0000000000000000e+00" cType="1" res="1.1163849383592606e-02" rms="3.7124323844909668e-01" purity="7.6882910728454590e-01" nType="-99"/>
          <Node pos="r" depth="2" NCoef="0" IVar="-1" Cut="0.0000000000000000e+00" cType="1" res="-8.2656333688646555e-04" rms="3.9459642767906189e-01" purity="6.7597031593322754e-01" nType="-99"/>
        </Node>
        <Node pos="r" depth="1" NCoef="0" IVar="12" Cut="1.4285714924335480e-01" cType="0" res="-2.5083797052502632e-02" rms="4.0575438737869263e-01" purity="3.2347190380096436e-01" nType="0">
          <Node pos="l" depth="2" NCoef="0" IVar="-1" Cut="0.0000000000000000e+00" cType="1" res="4.3034600093960762e-04" rms="4.1494476795196533e-01" purity="3.4397554397583008e-01" nType="-99"/>
          <Node pos="r" depth="2" NCoef="0" IVar="-1" Cut="0.0000000000000000e+00" cType="1" res="-3.5701543092727661e-03" rms="3.3949843049049377e-01" purity="2.1408315002918243e-01" nType="-99"/>
        </Node>
      </Node>
    </BinaryTree>
    <BinaryTree type="DecisionTree" boostWeight="1.0000000000000000e+00" itree="577">
      <Node pos="s" depth="0" NCoef="0" IVar="5" Cut="1.3173946142196655e+00" cType="1" res="1.8463615560904145e-03" rms="4.0046548843383789e-01" purity="4.9978044629096985e-01" nType="0">
        <Node pos="l" depth="1" NCoef="0" IVar="18" Cut="5.1428570747375488e+00" cType="1" res="3.4048665314912796e-02" rms="3.7154993414878845e-01" purity="7.2937226295471191e-01" nType="0">
          <Node pos="l" depth="2" NCoef="0" IVar="-1" Cut="0.0000000000000000e+00" cType="1" res="3.3520995639264584e-03" rms="3.3548703789710999e-01" purity="8.4208697080612183e-01" nType="-99"/>
          <Node pos="r" depth="2" NCoef="0" IVar="-1" Cut="0.0000000000000000e+00" cType="1" res="-2.9836765024811029e-03" rms="4.3878686428070068e-01" purity="4.5912969112396240e-01" nType="-99"/>
        </Node>
        <Node pos="r" depth="1" NCoef="0" IVar="0" Cut="1.5589141845703125e+00" cType="0" res="-1.3466946780681610e-02" rms="4.1262629628181458e-01" purity="3.9060157537460327e-01" nType="0">
          <Node pos="l" depth="2" NCoef="0" IVar="-1" Cut="0.0000000000000000e+00" cType="1" res="2.3963977582752705e-04" rms="3.9966750144958496e-01" purity="3.9540523290634155e-01" nType="-99"/>
          <Node pos="r" depth="2" NCoef="0" IVar="-1" Cut="0.0000000000000000e+00" cType="1" res="-1.0605279821902514e-03" rms="4.2620617151260376e-01" purity="3.8270112872123718e-01" nType="-99"/>
        </Node>
      </Node>
    </BinaryTree>
    <BinaryTree type="DecisionTree" boostWeight="1.0000000000000000e+00" itree="578">
      <Node pos="s" depth="0" NCoef="0" IVar="4" Cut="1.3615303039550781e+00" cType="1" res="-3.0355907510966063e-03" rms="4.0246683359146118e-01" purity="4.9000096321105957e-01" nType="0">
        <Node pos="l" depth="1" NCoef="0" IVar="21" Cut="3.1904761791229248e+00" cType="1" res="-6.0430482029914856e-02" rms="4.0823152661323547e-01" purity="6.8728756904602051e-01" nType="0">
          <Node pos="l" depth="2" NCoef="0" IVar="-1" Cut="0.0000000000000000e+00" cType="1" res="2.9896942432969809e-03" rms="3.8063776493072510e-01" purity="7.8210073709487915e-01" nType="-99"/>
          <Node pos="r" depth="2" NCoef="0" IVar="-1" Cut="0.0000000000000000e+00" cType="1" res="-6.2349820509552956e-03" rms="4.5655524730682373e-01" purity="4.1333857178688049e-01" nType="-99"/>
        </Node>
        <Node pos="r" depth="1" NCoef="0" IVar="4" Cut="2.6053929328918457e+00" cType="1" res="1.4097982086241245e-02" rms="3.9913344383239746e-01" purity="4.3110680580139160e-01" nType="0">
          <Node pos="l" depth="2" NCoef="0" IVar="-1" Cut="0.0000000000000000e+00" cType="1" res="3.6230485420674086e-04" rms="4.1675421595573425e-01" purity="5.2993381023406982e-01" nType="-99"/>
          <Node pos="r" depth="2" NCoef="0" IVar="-1" Cut="0.0000000000000000e+00" cType="1" res="-1.0220456169918180e-03" rms="3.4435057640075684e-01" purity="1.7451889812946320e-01" nType="-99"/>
        </Node>
      </Node>
    </BinaryTree>
    <BinaryTree type="DecisionTree" boostWeight="1.0000000000000000e+00" itree="579">
      <Node pos="s" depth="0" NCoef="0" IVar="18" Cut="5.1428570747375488e+00" cType="1" res="1.3608406297862530e-02" rms="4.0064966678619385e-01" purity="5.1118522882461548e-01" nType="0">
        <Node pos="l" depth="1" NCoef="0" IVar="4" Cut="1.5941009521484375e+00" cType="1" res="4.2884662747383118e-02" rms="3.9872744679450989e-01" purity="7.0148986577987671e-01" nType="0">
          <Node pos="l" depth="2" NCoef="0" IVar="-1" Cut="0.0000000000000000e+00" cType="1" res="-4.7631814959459007e-04" rms="3.7664383649826050e-01" purity="7.8382855653762817e-01" nType="-99"/>
          <Node pos="r" depth="2" NCoef="0" IVar="-1" Cut="0.0000000000000000e+00" cType="1" res="9.6386356744915247e-04" rms="4.1686874628067017e-01" purity="6.1195427179336548e-01" nType="-99"/>
        </Node>
        <Node pos="r" depth="1" NCoef="0" IVar="12" Cut="2.1428570747375488e+00" cType="1" res="-1.4628069475293159e-02" rms="4.0047246217727661e-01" purity="3.2763949036598206e-01" nType="0">
          <Node pos="l" depth="2" NCoef="0" IVar="-1" Cut="0.0000000000000000e+00" cType="1" res="1.6395092825405300e-04" rms="4.0424478054046631e-01" purity="3.4957140684127808e-01" nType="-99"/>
          <Node pos="r" depth="2" NCoef="0" IVar="-1" Cut="0.0000000000000000e+00" cType="1" res="-6.3811885192990303e-03" rms="3.1203269958496094e-01" purity="1.0818274319171906e-01" nType="-99"/>
        </Node>
      </Node>
    </BinaryTree>
    <BinaryTree type="DecisionTree" boostWeight="1.0000000000000000e+00" itree="580">
      <Node pos="s" depth="0" NCoef="0" IVar="5" Cut="2.4188990592956543e+00" cType="1" res="-5.9771109372377396e-03" rms="4.1706386208534241e-01" purity="5.0326287746429443e-01" nType="0">
        <Node pos="l" depth="1" NCoef="0" IVar="20" Cut="5.1119487762451172e+01" cType="0" res="-1.5108836814761162e-02" rms="4.2300027608871460e-01" purity="5.5470639467239380e-01" nType="0">
          <Node pos="l" depth="2" NCoef="0" IVar="-1" Cut="0.0000000000000000e+00" cType="1" res="-1.2974232668057084e-03" rms="3.8934457302093506e-01" purity="6.4050513505935669e-01" nType="-99"/>
          <Node pos="r" depth="2" NCoef="0" IVar="-1" Cut="0.0000000000000000e+00" cType="1" res="-5.1236795115983114e-05" rms="4.2488351464271545e-01" purity="5.4831820726394653e-01" nType="-99"/>
        </Node>
        <Node pos="r" depth="1" NCoef="0" IVar="21" Cut="2.1428570747375488e+00" cType="1" res="3.9812330156564713e-02" rms="3.8265016674995422e-01" purity="2.4530817568302155e-01" nType="0">
          <Node pos="l" depth="2" NCoef="0" IVar="-1" Cut="0.0000000000000000e+00" cType="1" res="1.7013079486787319e-03" rms="4.3422579765319824e-01" purity="3.7044024467468262e-01" nType="-99"/>
          <Node pos="r" depth="2" NCoef="0" IVar="-1" Cut="0.0000000000000000e+00" cType="1" res="-5.3214171202853322e-04" rms="3.6202141642570496e-01" purity="2.1104642748832703e-01" nType="-99"/>
        </Node>
      </Node>
    </BinaryTree>
    <BinaryTree type="DecisionTree" boostWeight="1.0000000000000000e+00" itree="581">
      <Node pos="s" depth="0" NCoef="0" IVar="15" Cut="4.8571429252624512e+00" cType="1" res="-9.3554081395268440e-03" rms="4.1362524032592773e-01" purity="4.9129584431648254e-01" nType="0">
        <Node pos="l" depth="1" NCoef="0" IVar="12" Cut="1.1428571939468384e+00" cType="1" res="-1.0975351929664612e-01" rms="4.4623842835426331e-01" purity="6.0248315334320068e-01" nType="0">
          <Node pos="l" depth="2" NCoef="0" IVar="-1" Cut="0.0000000000000000e+00" cType="1" res="1.3928484986536205e-04" rms="3.9638265967369080e-01" purity="6.9390660524368286e-01" nType="-99"/>
          <Node pos="r" depth="2" NCoef="0" IVar="-1" Cut="0.0000000000000000e+00" cType="1" res="-8.3222249522805214e-03" rms="5.0233697891235352e-01" purity="4.0658655762672424e-01" nType="-99"/>
        </Node>
        <Node pos="r" depth="1" NCoef="0" IVar="4" Cut="1.5639353990554810e+00" cType="1" res="-7.5726224167738110e-05" rms="4.0923842787742615e-01" purity="4.8101893067359924e-01" nType="0">
          <Node pos="l" depth="2" NCoef="0" IVar="-1" Cut="0.0000000000000000e+00" cType="1" res="-1.6940679633989930e-03" rms="4.0828776359558105e-01" purity="6.7701828479766846e-01" nType="-99"/>
          <Node pos="r" depth="2" NCoef="0" IVar="-1" Cut="0.0000000000000000e+00" cType="1" res="5.3572817705571651e-04" rms="4.0880784392356873e-01" purity="4.0203139185905457e-01" nType="-99"/>
        </Node>
      </Node>
    </BinaryTree>
    <BinaryTree type="DecisionTree" boostWeight="1.0000000000000000e+00" itree="582">
      <Node pos="s" depth="0" NCoef="0" IVar="21" Cut="4.2380952835083008e+00" cType="1" res="-2.6535436045378447e-03" rms="4.0650087594985962e-01" purity="4.9269184470176697e-01" nType="0">
        <Node pos="l" depth="1" NCoef="0" IVar="15" Cut="1.2000000000000000e+01" cType="1" res="-2.7587914839386940e-02" rms="4.0699994564056396e-01" purity="5.4069733619689941e-01" nType="0">
          <Node pos="l" depth="2" NCoef="0" IVar="-1" Cut="0.0000000000000000e+00" cType="1" res="-6.0836685588583350e-04" rms="4.0188989043235779e-01" purity="6.0631668567657471e-01" nType="-99"/>
          <Node pos="r" depth="2" NCoef="0" IVar="-1" Cut="0.0000000000000000e+00" cType="1" res="-1.1314385337755084e-03" rms="4.2284080386161804e-01" purity="2.7869030833244324e-01" nType="-99"/>
        </Node>
        <Node pos="r" depth="1" NCoef="0" IVar="15" Cut="1.5571428298950195e+01" cType="1" res="3.7563297897577286e-02" rms="4.0245243906974792e-01" purity="4.1526341438293457e-01" nType="0">
          <Node pos="l" depth="2" NCoef="0" IVar="-1" Cut="0.0000000000000000e+00" cType="1" res="4.2983540333807468e-03" rms="4.3000420928001404e-01" purity="7.4066179990768433e-01" nType="-99"/>
          <Node pos="r" depth="2" NCoef="0" IVar="-1" Cut="0.0000000000000000e+00" cType="1" res="1.4857348287478089e-04" rms="3.9366507530212402e-01" purity="3.5667675733566284e-01" nType="-99"/>
        </Node>
      </Node>
    </BinaryTree>
    <BinaryTree type="DecisionTree" boostWeight="1.0000000000000000e+00" itree="583">
      <Node pos="s" depth="0" NCoef="0" IVar="6" Cut="1.5445975065231323e+00" cType="1" res="-1.1177492560818791e-03" rms="4.1104820370674133e-01" purity="5.0409549474716187e-01" nType="0">
        <Node pos="l" depth="1" NCoef="0" IVar="3" Cut="3.8571429252624512e+00" cType="1" res="-2.8698932379484177e-02" rms="4.1495963931083679e-01" purity="6.3773703575134277e-01" nType="0">
          <Node pos="l" depth="2" NCoef="0" IVar="-1" Cut="0.0000000000000000e+00" cType="1" res="5.7308602845296264e-04" rms="4.0437233448028564e-01" purity="6.5970474481582642e-01" nType="-99"/>
          <Node pos="r" depth="2" NCoef="0" IVar="-1" Cut="0.0000000000000000e+00" cType="1" res="-3.9334669709205627e-03" rms="4.4093888998031616e-01" purity="5.6836032867431641e-01" nType="-99"/>
        </Node>
        <Node pos="r" depth="1" NCoef="0" IVar="5" Cut="1.1105437278747559e+00" cType="1" res="1.7439248040318489e-02" rms="4.0734586119651794e-01" purity="4.1417965292930603e-01" nType="0">
          <Node pos="l" depth="2" NCoef="0" IVar="-1" Cut="0.0000000000000000e+00" cType="1" res="3.3930283971130848e-03" rms="3.8343811035156250e-01" purity="7.4150228500366211e-01" nType="-99"/>
          <Node pos="r" depth="2" NCoef="0" IVar="-1" Cut="0.0000000000000000e+00" cType="1" res="-1.5971559332683682e-04" rms="4.0778425335884094e-01" purity="3.8250780105590820e-01" nType="-99"/>
        </Node>
      </Node>
    </BinaryTree>
    <BinaryTree type="DecisionTree" boostWeight="1.0000000000000000e+00" itree="584">
      <Node pos="s" depth="0" NCoef="0" IVar="21" Cut="2.1428570747375488e+00" cType="1" res="3.9056395180523396e-03" rms="4.0854939818382263e-01" purity="5.0542533397674561e-01" nType="0">
        <Node pos="l" depth="1" NCoef="0" IVar="12" Cut="2.1428570747375488e+00" cType="1" res="-2.2234926000237465e-02" rms="4.1460880637168884e-01" purity="5.4432058334350586e-01" nType="0">
          <Node pos="l" depth="2" NCoef="0" IVar="-1" Cut="0.0000000000000000e+00" cType="1" res="-1.4210104382073041e-05" rms="4.0428864955902100e-01" purity="5.7957965135574341e-01" nType="-99"/>
          <Node pos="r" depth="2" NCoef="0" IVar="-1" Cut="0.0000000000000000e+00" cType="1" res="-1.3398352311924100e-03" rms="4.4021746516227722e-01" purity="4.3225133419036865e-01" nType="-99"/>
        </Node>
        <Node pos="r" depth="1" NCoef="0" IVar="15" Cut="2.2000000000000000e+01" cType="1" res="3.0577562749385834e-02" rms="4.0051808953285217e-01" purity="4.6573942899703979e-01" nType="0">
          <Node pos="l" depth="2" NCoef="0" IVar="-1" Cut="0.0000000000000000e+00" cType="1" res="7.3286710539832711e-04" rms="4.2630583047866821e-01" purity="5.3969949483871460e-01" nType="-99"/>
          <Node pos="r" depth="2" NCoef="0" IVar="-1" Cut="0.0000000000000000e+00" cType="1" res="-6.0976156964898109e-03" rms="1.5812870860099792e-01" purity="2.6741756126284599e-02" nType="-99"/>
        </Node>
      </Node>
    </BinaryTree>
    <BinaryTree type="DecisionTree" boostWeight="1.0000000000000000e+00" itree="585">
      <Node pos="s" depth="0" NCoef="0" IVar="5" Cut="6.5169751644134521e-01" cType="1" res="-1.4505060389637947e-02" rms="4.0856191515922546e-01" purity="4.8896282911300659e-01" nType="0">
        <Node pos="l" depth="1" NCoef="0" IVar="18" Cut="2.3333332538604736e+00" cType="1" res="9.0611785650253296e-02" rms="2.6979935169219971e-01" purity="8.9296823740005493e-01" nType="0">
          <Node pos="l" depth="2" NCoef="0" IVar="-1" Cut="0.0000000000000000e+00" cType="1" res="-7.2290329262614250e-03" rms="2.9414987564086914e-01" purity="9.0391331911087036e-01" nType="-99"/>
          <Node pos="r" depth="2" NCoef="0" IVar="-1" Cut="0.0000000000000000e+00" cType="1" res="1.2811217457056046e-03" rms="2.3072963953018188e-01" purity="8.8417226076126099e-01" nType="-99"/>
        </Node>
        <Node pos="r" depth="1" NCoef="0" IVar="4" Cut="1.0324289798736572e+00" cType="1" res="-1.8808532506227493e-02" rms="4.1268107295036316e-01" purity="4.7242286801338196e-01" nType="0">
          <Node pos="l" depth="2" NCoef="0" IVar="-1" Cut="0.0000000000000000e+00" cType="1" res="-2.1090712398290634e-03" rms="4.0980851650238037e-01" purity="6.5333420038223267e-01" nType="-99"/>
          <Node pos="r" depth="2" NCoef="0" IVar="-1" Cut="0.0000000000000000e+00" cType="1" res="2.8310621928540058e-05" rms="4.1219222545623779e-01" purity="4.5431005954742432e-01" nType="-99"/>
        </Node>
      </Node>
    </BinaryTree>
    <BinaryTree type="DecisionTree" boostWeight="1.0000000000000000e+00" itree="586">
      <Node pos="s" depth="0" NCoef="0" IVar="0" Cut="4.4238096475601196e-01" cType="1" res="-8.9290691539645195e-03" rms="4.1120648384094238e-01" purity="5.0064241886138916e-01" nType="0">
        <Node pos="l" depth="1" NCoef="0" IVar="20" Cut="9.7834253311157227e+00" cType="0" res="-1.1477506160736084e-01" rms="4.8780363798141479e-01" purity="5.1284974813461304e-01" nType="0">
          <Node pos="l" depth="2" NCoef="0" IVar="-1" Cut="0.0000000000000000e+00" cType="1" res="-2.5457565207034349e-03" rms="4.6944957971572876e-01" purity="5.6194347143173218e-01" nType="-99"/>
          <Node pos="r" depth="2" NCoef="0" IVar="-1" Cut="0.0000000000000000e+00" cType="1" res="-2.4419305846095085e-03" rms="4.9668952822685242e-01" purity="4.2410519719123840e-01" nType="-99"/>
        </Node>
        <Node pos="r" depth="1" NCoef="0" IVar="5" Cut="1.5561215877532959e+00" cType="1" res="-1.4470733003690839e-03" rms="4.0419697761535645e-01" purity="4.9977952241897583e-01" nType="0">
          <Node pos="l" depth="2" NCoef="0" IVar="-1" Cut="0.0000000000000000e+00" cType="1" res="8.7732456449884921e-05" rms="3.8042429089546204e-01" purity="7.0105135440826416e-01" nType="-99"/>
          <Node pos="r" depth="2" NCoef="0" IVar="-1" Cut="0.0000000000000000e+00" cType="1" res="5.2456627599895000e-05" rms="4.1918644309043884e-01" purity="3.5682916641235352e-01" nType="-99"/>
        </Node>
      </Node>
    </BinaryTree>
    <BinaryTree type="DecisionTree" boostWeight="1.0000000000000000e+00" itree="587">
      <Node pos="s" depth="0" NCoef="0" IVar="12" Cut="1.1428571939468384e+00" cType="1" res="4.8834607005119324e-03" rms="4.0668386220932007e-01" purity="5.0668591260910034e-01" nType="0">
        <Node pos="l" depth="1" NCoef="0" IVar="18" Cut="3.3333332538604736e+00" cType="1" res="-4.0732186287641525e-02" rms="3.8160228729248047e-01" purity="6.4749705791473389e-01" nType="0">
          <Node pos="l" depth="2" NCoef="0" IVar="-1" Cut="0.0000000000000000e+00" cType="1" res="2.4084819015115499e-03" rms="3.5600483417510986e-01" purity="7.0546954870223999e-01" nType="-99"/>
          <Node pos="r" depth="2" NCoef="0" IVar="-1" Cut="0.0000000000000000e+00" cType="1" res="-7.9360743984580040e-03" rms="4.5691749453544617e-01" purity="3.4379348158836365e-01" nType="-99"/>
        </Node>
        <Node pos="r" depth="1" NCoef="0" IVar="15" Cut="8.7142858505249023e+00" cType="1" res="2.4551730602979660e-02" rms="4.1549089550971985e-01" purity="4.4597187638282776e-01" nType="0">
          <Node pos="l" depth="2" NCoef="0" IVar="-1" Cut="0.0000000000000000e+00" cType="1" res="-1.2072916142642498e-03" rms="4.1005885601043701e-01" purity="7.5284320116043091e-01" nType="-99"/>
          <Node pos="r" depth="2" NCoef="0" IVar="-1" Cut="0.0000000000000000e+00" cType="1" res="2.3295849678106606e-04" rms="4.1422751545906067e-01" purity="4.1589316725730896e-01" nType="-99"/>
        </Node>
      </Node>
    </BinaryTree>
    <BinaryTree type="DecisionTree" boostWeight="1.0000000000000000e+00" itree="588">
      <Node pos="s" depth="0" NCoef="0" IVar="20" Cut="3.4908149719238281e+01" cType="0" res="-1.4165325090289116e-02" rms="4.1039457917213440e-01" purity="4.8886504769325256e-01" nType="0">
        <Node pos="l" depth="1" NCoef="0" IVar="3" Cut="4.7619047760963440e-01" cType="0" res="2.9936276376247406e-02" rms="4.0022033452987671e-01" purity="5.7944911718368530e-01" nType="0">
          <Node pos="l" depth="2" NCoef="0" IVar="-1" Cut="0.0000000000000000e+00" cType="1" res="-2.3770227562636137e-04" rms="3.7463253736495972e-01" purity="5.9921884536743164e-01" nType="-99"/>
          <Node pos="r" depth="2" NCoef="0" IVar="-1" Cut="0.0000000000000000e+00" cType="1" res="-2.1902630105614662e-03" rms="5.1070541143417358e-01" purity="4.2931017279624939e-01" nType="-99"/>
        </Node>
        <Node pos="r" depth="1" NCoef="0" IVar="15" Cut="7.0000000000000000e+00" cType="1" res="-2.1989809349179268e-02" rms="4.1168028116226196e-01" purity="4.7279366850852966e-01" nType="0">
          <Node pos="l" depth="2" NCoef="0" IVar="-1" Cut="0.0000000000000000e+00" cType="1" res="2.6700573507696390e-03" rms="3.8048028945922852e-01" purity="7.1907597780227661e-01" nType="-99"/>
          <Node pos="r" depth="2" NCoef="0" IVar="-1" Cut="0.0000000000000000e+00" cType="1" res="-4.8621441237628460e-04" rms="4.1980752348899841e-01" purity="4.0183889865875244e-01" nType="-99"/>
        </Node>
      </Node>
    </BinaryTree>
    <BinaryTree type="DecisionTree" boostWeight="1.0000000000000000e+00" itree="589">
      <Node pos="s" depth="0" NCoef="0" IVar="5" Cut="6.5438306331634521e-01" cType="1" res="-4.6336287632584572e-03" rms="4.1403219103813171e-01" purity="5.0533723831176758e-01" nType="0">
        <Node pos="l" depth="1" NCoef="0" IVar="10" Cut="7.8991496562957764e-01" cType="1" res="1.2125574052333832e-01" rms="2.1712857484817505e-01" purity="9.3590515851974487e-01" nType="0">
          <Node pos="l" depth="2" NCoef="0" IVar="-1" Cut="0.0000000000000000e+00" cType="1" res="1.0883711511269212e-03" rms="1.8893206119537354e-01" purity="9.5184153318405151e-01" nType="-99"/>
          <Node pos="r" depth="2" NCoef="0" IVar="-1" Cut="0.0000000000000000e+00" cType="1" res="-5.3067249245941639e-04" rms="2.3389253020286560e-01" purity="9.2319744825363159e-01" nType="-99"/>
        </Node>
        <Node pos="r" depth="1" NCoef="0" IVar="21" Cut="4.2380952835083008e+00" cType="1" res="-9.8868152126669884e-03" rms="4.1942781209945679e-01" purity="4.8737028241157532e-01" nType="0">
          <Node pos="l" depth="2" NCoef="0" IVar="-1" Cut="0.0000000000000000e+00" cType="1" res="-8.7049935245886445e-04" rms="4.1744923591613770e-01" purity="5.3303050994873047e-01" nType="-99"/>
          <Node pos="r" depth="2" NCoef="0" IVar="-1" Cut="0.0000000000000000e+00" cType="1" res="9.4381952658295631e-04" rms="4.2011418938636780e-01" purity="4.1624367237091064e-01" nType="-99"/>
        </Node>
      </Node>
    </BinaryTree>
    <BinaryTree type="DecisionTree" boostWeight="1.0000000000000000e+00" itree="590">
      <Node pos="s" depth="0" NCoef="0" IVar="9" Cut="-1.0000000000000000e+01" cType="1" res="1.2911687605082989e-02" rms="3.9600679278373718e-01" purity="5.0687927007675171e-01" nType="0">
        <Node pos="l" depth="1" NCoef="0" IVar="-1" Cut="0.0000000000000000e+00" cType="1" res="3.4539040643721819e-03" rms="2.4854451417922974e-01" purity="9.4250053167343140e-01" nType="-99"/>
        <Node pos="r" depth="1" NCoef="0" IVar="9" Cut="-4.7142858505249023e+00" cType="0" res="8.3451680839061737e-03" rms="3.9880412817001343e-01" purity="4.9348518252372742e-01" nType="0">
          <Node pos="l" depth="2" NCoef="0" IVar="-1" Cut="0.0000000000000000e+00" cType="1" res="7.8047356510069221e-05" rms="3.9815673232078552e-01" purity="4.9495285749435425e-01" nType="-99"/>
          <Node pos="r" depth="2" NCoef="0" IVar="-1" Cut="0.0000000000000000e+00" cType="1" res="-3.6567342467606068e-03" rms="3.9691478013992310e-01" purity="4.7122448682785034e-01" nType="-99"/>
        </Node>
      </Node>
    </BinaryTree>
    <BinaryTree type="DecisionTree" boostWeight="1.0000000000000000e+00" itree="591">
      <Node pos="s" depth="0" NCoef="0" IVar="0" Cut="4.4257822632789612e-01" cType="1" res="-1.5209120698273182e-02" rms="4.0921965241432190e-01" purity="4.8711764812469482e-01" nType="0">
        <Node pos="l" depth="1" NCoef="0" IVar="15" Cut="5.5714287757873535e+00" cType="0" res="-1.0326056927442551e-01" rms="4.5617038011550903e-01" purity="5.0281310081481934e-01" nType="0">
          <Node pos="l" depth="2" NCoef="0" IVar="-1" Cut="0.0000000000000000e+00" cType="1" res="1.0219889372820035e-04" rms="4.2618721723556519e-01" purity="5.1571804285049438e-01" nType="-99"/>
          <Node pos="r" depth="2" NCoef="0" IVar="-1" Cut="0.0000000000000000e+00" cType="1" res="-1.3179152272641659e-02" rms="4.7458231449127197e-01" purity="4.7139009833335876e-01" nType="-99"/>
        </Node>
        <Node pos="r" depth="1" NCoef="0" IVar="20" Cut="3.5821082592010498e+00" cType="0" res="-8.5124727338552475e-03" rms="4.0464320778846741e-01" purity="4.8592394590377808e-01" nType="0">
          <Node pos="l" depth="2" NCoef="0" IVar="-1" Cut="0.0000000000000000e+00" cType="1" res="2.1944084437564015e-04" rms="4.0490525960922241e-01" purity="4.9858465790748596e-01" nType="-99"/>
          <Node pos="r" depth="2" NCoef="0" IVar="-1" Cut="0.0000000000000000e+00" cType="1" res="-1.1825596448034048e-03" rms="3.9916580915451050e-01" purity="3.9164632558822632e-01" nType="-99"/>
        </Node>
      </Node>
    </BinaryTree>
    <BinaryTree type="DecisionTree" boostWeight="1.0000000000000000e+00" itree="592">
      <Node pos="s" depth="0" NCoef="0" IVar="20" Cut="9.3222599029541016e+00" cType="1" res="2.7088674250990152e-03" rms="4.0470302104949951e-01" purity="4.9692764878273010e-01" nType="0">
        <Node pos="l" depth="1" NCoef="0" IVar="6" Cut="1.1652648448944092e+00" cType="1" res="5.3043231368064880e-02" rms="4.0778002142906189e-01" purity="5.9762907028198242e-01" nType="0">
          <Node pos="l" depth="2" NCoef="0" IVar="-1" Cut="0.0000000000000000e+00" cType="1" res="6.5040201880037785e-03" rms="2.5260436534881592e-01" purity="8.7817019224166870e-01" nType="-99"/>
          <Node pos="r" depth="2" NCoef="0" IVar="-1" Cut="0.0000000000000000e+00" cType="1" res="-1.0554918553680182e-03" rms="4.3458986282348633e-01" purity="5.2382624149322510e-01" nType="-99"/>
        </Node>
        <Node pos="r" depth="1" NCoef="0" IVar="15" Cut="1.4428571701049805e+01" cType="1" res="-1.2875894084572792e-02" rms="4.0247127413749695e-01" purity="4.6574804186820984e-01" nType="0">
          <Node pos="l" depth="2" NCoef="0" IVar="-1" Cut="0.0000000000000000e+00" cType="1" res="-8.4811134729534388e-04" rms="4.1229704022407532e-01" purity="5.7807451486587524e-01" nType="-99"/>
          <Node pos="r" depth="2" NCoef="0" IVar="-1" Cut="0.0000000000000000e+00" cType="1" res="5.1233096746727824e-04" rms="3.9091676473617554e-01" purity="3.5805749893188477e-01" nType="-99"/>
        </Node>
      </Node>
    </BinaryTree>
    <BinaryTree type="DecisionTree" boostWeight="1.0000000000000000e+00" itree="593">
      <Node pos="s" depth="0" NCoef="0" IVar="20" Cut="3.0746324539184570e+01" cType="0" res="-2.5352747179567814e-03" rms="4.0847927331924438e-01" purity="4.9554315209388733e-01" nType="0">
        <Node pos="l" depth="1" NCoef="0" IVar="15" Cut="1.1000000000000000e+01" cType="1" res="5.3956732153892517e-02" rms="4.0896481275558472e-01" purity="6.0821348428726196e-01" nType="0">
          <Node pos="l" depth="2" NCoef="0" IVar="-1" Cut="0.0000000000000000e+00" cType="1" res="-9.5459149451926351e-04" rms="3.2462033629417419e-01" purity="8.2160216569900513e-01" nType="-99"/>
          <Node pos="r" depth="2" NCoef="0" IVar="-1" Cut="0.0000000000000000e+00" cType="1" res="-3.8765752105973661e-04" rms="4.5045262575149536e-01" purity="4.7572681307792664e-01" nType="-99"/>
        </Node>
        <Node pos="r" depth="1" NCoef="0" IVar="21" Cut="4.2380952835083008e+00" cType="1" res="-1.5452647581696510e-02" rms="4.0726891160011292e-01" purity="4.6978008747100830e-01" nType="0">
          <Node pos="l" depth="2" NCoef="0" IVar="-1" Cut="0.0000000000000000e+00" cType="1" res="-4.7707298654131591e-04" rms="4.1574975848197937e-01" purity="5.2663773298263550e-01" nType="-99"/>
          <Node pos="r" depth="2" NCoef="0" IVar="-1" Cut="0.0000000000000000e+00" cType="1" res="8.5886224405840039e-04" rms="3.9047789573669434e-01" purity="3.7765023112297058e-01" nType="-99"/>
        </Node>
      </Node>
    </BinaryTree>
    <BinaryTree type="DecisionTree" boostWeight="1.0000000000000000e+00" itree="594">
      <Node pos="s" depth="0" NCoef="0" IVar="3" Cut="3.9047617912292480e+00" cType="1" res="8.8901357958093286e-04" rms="3.9840564131736755e-01" purity="4.9079570174217224e-01" nType="0">
        <Node pos="l" depth="1" NCoef="0" IVar="5" Cut="1.5268938541412354e+00" cType="1" res="1.2929387390613556e-02" rms="3.8716825842857361e-01" purity="4.9592727422714233e-01" nType="0">
          <Node pos="l" depth="2" NCoef="0" IVar="-1" Cut="0.0000000000000000e+00" cType="1" res="1.2743483530357480e-03" rms="3.6474633216857910e-01" purity="7.6058328151702881e-01" nType="-99"/>
          <Node pos="r" depth="2" NCoef="0" IVar="-1" Cut="0.0000000000000000e+00" cType="1" res="-3.5460834624245763e-05" rms="3.9725884795188904e-01" purity="3.3891749382019043e-01" nType="-99"/>
        </Node>
        <Node pos="r" depth="1" NCoef="0" IVar="0" Cut="1.4228347539901733e+00" cType="0" res="-3.4292988479137421e-02" rms="4.2762193083763123e-01" purity="4.7580131888389587e-01" nType="0">
          <Node pos="l" depth="2" NCoef="0" IVar="-1" Cut="0.0000000000000000e+00" cType="1" res="2.0215080585330725e-03" rms="4.2322266101837158e-01" purity="5.2752631902694702e-01" nType="-99"/>
          <Node pos="r" depth="2" NCoef="0" IVar="-1" Cut="0.0000000000000000e+00" cType="1" res="-4.0746242739260197e-03" rms="4.1430658102035522e-01" purity="4.4009444117546082e-01" nType="-99"/>
        </Node>
      </Node>
    </BinaryTree>
    <BinaryTree type="DecisionTree" boostWeight="1.0000000000000000e+00" itree="595">
      <Node pos="s" depth="0" NCoef="0" IVar="1" Cut="1.0095237731933594e+01" cType="0" res="-4.0246420539915562e-03" rms="4.0861594676971436e-01" purity="4.9640586972236633e-01" nType="0">
        <Node pos="l" depth="1" NCoef="0" IVar="-1" Cut="0.0000000000000000e+00" cType="1" res="5.4360236972570419e-03" rms="4.7964745759963989e-01" purity="6.1764800548553467e-01" nType="-99"/>
        <Node pos="r" depth="1" NCoef="0" IVar="1" Cut="3.3333332538604736e+00" cType="1" res="-6.1592911370098591e-03" rms="4.0705230832099915e-01" purity="4.9452966451644897e-01" nType="0">
          <Node pos="l" depth="2" NCoef="0" IVar="-1" Cut="0.0000000000000000e+00" cType="1" res="4.2100651189684868e-03" rms="3.7911546230316162e-01" purity="6.0958212614059448e-01" nType="-99"/>
          <Node pos="r" depth="2" NCoef="0" IVar="-1" Cut="0.0000000000000000e+00" cType="1" res="-1.0158506920561194e-03" rms="4.1397911310195923e-01" purity="4.6192112565040588e-01" nType="-99"/>
        </Node>
      </Node>
    </BinaryTree>
    <BinaryTree type="DecisionTree" boostWeight="1.0000000000000000e+00" itree="596">
      <Node pos="s" depth="0" NCoef="0" IVar="20" Cut="2.8644519805908203e+01" cType="0" res="6.4324931008741260e-04" rms="4.0811723470687866e-01" purity="5.0088822841644287e-01" nType="0">
        <Node pos="l" depth="1" NCoef="0" IVar="5" Cut="7.4332129955291748e-01" cType="1" res="4.4330123811960220e-02" rms="4.0950885415077209e-01" purity="5.8115249872207642e-01" nType="0">
          <Node pos="l" depth="2" NCoef="0" IVar="-1" Cut="0.0000000000000000e+00" cType="1" res="-1.0560059919953346e-02" rms="4.5748034119606018e-01" purity="6.1453580856323242e-01" nType="-99"/>
          <Node pos="r" depth="2" NCoef="0" IVar="-1" Cut="0.0000000000000000e+00" cType="1" res="8.6475792340934277e-04" rms="3.9947825670242310e-01" purity="5.7798963785171509e-01" nType="-99"/>
        </Node>
        <Node pos="r" depth="1" NCoef="0" IVar="20" Cut="2.6799877166748047e+01" cType="1" res="-1.2332782149314880e-02" rms="4.0680027008056641e-01" purity="4.7704777121543884e-01" nType="0">
          <Node pos="l" depth="2" NCoef="0" IVar="-1" Cut="0.0000000000000000e+00" cType="1" res="2.6647196500562131e-04" rms="4.0730974078178406e-01" purity="4.8775631189346313e-01" nType="-99"/>
          <Node pos="r" depth="2" NCoef="0" IVar="-1" Cut="0.0000000000000000e+00" cType="1" res="-6.6619361750781536e-03" rms="3.8169139623641968e-01" purity="3.2317671179771423e-01" nType="-99"/>
        </Node>
      </Node>
    </BinaryTree>
    <BinaryTree type="DecisionTree" boostWeight="1.0000000000000000e+00" itree="597">
      <Node pos="s" depth="0" NCoef="0" IVar="20" Cut="1.0373162269592285e+01" cType="1" res="-1.2812261702492833e-03" rms="4.1175076365470886e-01" purity="5.0200247764587402e-01" nType="0">
        <Node pos="l" depth="1" NCoef="0" IVar="18" Cut="4.2857141494750977e+00" cType="1" res="3.5410352051258087e-02" rms="4.2208626866340637e-01" purity="5.9023576974868774e-01" nType="0">
          <Node pos="l" depth="2" NCoef="0" IVar="-1" Cut="0.0000000000000000e+00" cType="1" res="-3.5543707199394703e-03" rms="3.9037880301475525e-01" purity="6.3728612661361694e-01" nType="-99"/>
          <Node pos="r" depth="2" NCoef="0" IVar="-1" Cut="0.0000000000000000e+00" cType="1" res="2.7654604054987431e-03" rms="4.3896448612213135e-01" purity="5.5059474706649780e-01" nType="-99"/>
        </Node>
        <Node pos="r" depth="1" NCoef="0" IVar="5" Cut="5.9818893671035767e-01" cType="1" res="-1.3996822759509087e-02" rms="4.0733745694160461e-01" purity="4.7142490744590759e-01" nType="0">
          <Node pos="l" depth="2" NCoef="0" IVar="-1" Cut="0.0000000000000000e+00" cType="1" res="-5.6839627213776112e-03" rms="4.3044203519821167e-01" purity="6.1057358980178833e-01" nType="-99"/>
          <Node pos="r" depth="2" NCoef="0" IVar="-1" Cut="0.0000000000000000e+00" cType="1" res="-1.6490361304022372e-04" rms="4.0542447566986084e-01" purity="4.6466881036758423e-01" nType="-99"/>
        </Node>
      </Node>
    </BinaryTree>
    <BinaryTree type="DecisionTree" boostWeight="1.0000000000000000e+00" itree="598">
      <Node pos="s" depth="0" NCoef="0" IVar="18" Cut="5.1428570747375488e+00" cType="1" res="1.8165085930377245e-03" rms="4.0167438983917236e-01" purity="4.9702596664428711e-01" nType="0">
        <Node pos="l" depth="1" NCoef="0" IVar="18" Cut="1.1904761791229248e+00" cType="0" res="3.0490847304463387e-02" rms="3.9734506607055664e-01" purity="6.7821764945983887e-01" nType="0">
          <Node pos="l" depth="2" NCoef="0" IVar="-1" Cut="0.0000000000000000e+00" cType="1" res="9.2495681019499898e-04" rms="3.9286360144615173e-01" purity="6.8048733472824097e-01" nType="-99"/>
          <Node pos="r" depth="2" NCoef="0" IVar="-1" Cut="0.0000000000000000e+00" cType="1" res="-2.8551639989018440e-03" rms="4.2400050163269043e-01" purity="6.5895152091979980e-01" nType="-99"/>
        </Node>
        <Node pos="r" depth="1" NCoef="0" IVar="4" Cut="1.4789783954620361e+00" cType="1" res="-2.7026750147342682e-02" rms="4.0393427014350891e-01" purity="3.1476688385009766e-01" nType="0">
          <Node pos="l" depth="2" NCoef="0" IVar="-1" Cut="0.0000000000000000e+00" cType="1" res="-4.3563083745539188e-03" rms="4.5013016462326050e-01" purity="3.7455663084983826e-01" nType="-99"/>
          <Node pos="r" depth="2" NCoef="0" IVar="-1" Cut="0.0000000000000000e+00" cType="1" res="-8.1340622273273766e-05" rms="3.9452844858169556e-01" purity="3.0673947930335999e-01" nType="-99"/>
        </Node>
      </Node>
    </BinaryTree>
    <BinaryTree type="DecisionTree" boostWeight="1.0000000000000000e+00" itree="599">
      <Node pos="s" depth="0" NCoef="0" IVar="20" Cut="6.7289039611816406e+01" cType="1" res="-1.4042719267308712e-02" rms="4.1731926798820496e-01" purity="4.9264246225357056e-01" nType="0">
        <Node pos="l" depth="1" NCoef="0" IVar="3" Cut="6.8571429252624512e+00" cType="1" res="-1.0127303190529346e-02" rms="4.1875135898590088e-01" purity="4.9972695112228394e-01" nType="0">
          <Node pos="l" depth="2" NCoef="0" IVar="-1" Cut="0.0000000000000000e+00" cType="1" res="6.0776921600336209e-05" rms="4.1734597086906433e-01" purity="5.0314480066299438e-01" nType="-99"/>
          <Node pos="r" depth="2" NCoef="0" IVar="-1" Cut="0.0000000000000000e+00" cType="1" res="-2.4943161406554282e-04" rms="4.4009658694267273e-01" purity="3.7505671381950378e-01" nType="-99"/>
        </Node>
        <Node pos="r" depth="1" NCoef="0" IVar="20" Cut="7.5621490478515625e+01" cType="1" res="-1.0133774578571320e-01" rms="3.7349516153335571e-01" purity="3.3469185233116150e-01" nType="0">
          <Node pos="l" depth="2" NCoef="0" IVar="-1" Cut="0.0000000000000000e+00" cType="1" res="2.0281032193452120e-03" rms="3.4376826882362366e-01" purity="3.6821129918098450e-01" nType="-99"/>
          <Node pos="r" depth="2" NCoef="0" IVar="-1" Cut="0.0000000000000000e+00" cType="1" res="-5.5966875515878201e-03" rms="3.9385247230529785e-01" purity="3.0560690164566040e-01" nType="-99"/>
        </Node>
      </Node>
    </BinaryTree>
    <BinaryTree type="DecisionTree" boostWeight="1.0000000000000000e+00" itree="600">
      <Node pos="s" depth="0" NCoef="0" IVar="6" Cut="1.2668507099151611e+00" cType="1" res="-1.0371466167271137e-02" rms="4.0932238101959229e-01" purity="4.9055507779121399e-01" nType="0">
        <Node pos="l" depth="1" NCoef="0" IVar="17" Cut="5.5333057403564453e+01" cType="1" res="2.8488490730524063e-02" rms="3.8641566038131714e-01" purity="6.9318783283233643e-01" nType="0">
          <Node pos="l" depth="2" NCoef="0" IVar="-1" Cut="0.0000000000000000e+00" cType="1" res="1.1024150298908353e-03" rms="3.7886661291122437e-01" purity="7.1500664949417114e-01" nType="-99"/>
          <Node pos="r" depth="2" NCoef="0" IVar="-1" Cut="0.0000000000000000e+00" cType="1" res="-7.7573284506797791e-03" rms="4.2115196585655212e-01" purity="5.3031724691390991e-01" nType="-99"/>
        </Node>
        <Node pos="r" depth="1" NCoef="0" IVar="6" Cut="2.3022639751434326e+00" cType="1" res="-2.4065500125288963e-02" rms="4.1623130440711975e-01" purity="4.1914844512939453e-01" nType="0">
          <Node pos="l" depth="2" NCoef="0" IVar="-1" Cut="0.0000000000000000e+00" cType="1" res="-3.5843517980538309e-04" rms="4.2945531010627747e-01" purity="4.8723995685577393e-01" nType="-99"/>
          <Node pos="r" depth="2" NCoef="0" IVar="-1" Cut="0.0000000000000000e+00" cType="1" res="6.7147199297323823e-04" rms="3.8550612330436707e-01" purity="2.7904278039932251e-01" nType="-99"/>
        </Node>
      </Node>
    </BinaryTree>
    <BinaryTree type="DecisionTree" boostWeight="1.0000000000000000e+00" itree="601">
      <Node pos="s" depth="0" NCoef="0" IVar="15" Cut="3.2857143878936768e+00" cType="1" res="-9.7671551629900932e-03" rms="4.1636204719543457e-01" purity="4.9429756402969360e-01" nType="0">
        <Node pos="l" depth="1" NCoef="0" IVar="20" Cut="1.2103791236877441e+01" cType="0" res="-1.3013419508934021e-01" rms="4.4847497344017029e-01" purity="5.5853068828582764e-01" nType="0">
          <Node pos="l" depth="2" NCoef="0" IVar="-1" Cut="0.0000000000000000e+00" cType="1" res="4.1318982839584351e-03" rms="3.9988681674003601e-01" purity="6.7333799600601196e-01" nType="-99"/>
          <Node pos="r" depth="2" NCoef="0" IVar="-1" Cut="0.0000000000000000e+00" cType="1" res="-8.5485018789768219e-03" rms="4.7289478778839111e-01" purity="4.4281554222106934e-01" nType="-99"/>
        </Node>
        <Node pos="r" depth="1" NCoef="0" IVar="20" Cut="3.0746324539184570e+01" cType="0" res="-1.1017862707376480e-03" rms="4.1260132193565369e-01" purity="4.8967337608337402e-01" nType="0">
          <Node pos="l" depth="2" NCoef="0" IVar="-1" Cut="0.0000000000000000e+00" cType="1" res="-5.5151485139504075e-04" rms="4.5098361372947693e-01" purity="5.0356698036193848e-01" nType="-99"/>
          <Node pos="r" depth="2" NCoef="0" IVar="-1" Cut="0.0000000000000000e+00" cType="1" res="2.0521340775303543e-04" rms="3.9992180466651917e-01" purity="4.8576611280441284e-01" nType="-99"/>
        </Node>
      </Node>
    </BinaryTree>
    <BinaryTree type="DecisionTree" boostWeight="1.0000000000000000e+00" itree="602">
      <Node pos="s" depth="0" NCoef="0" IVar="9" Cut="-1.5714285850524902e+01" cType="1" res="1.3426435180008411e-02" rms="4.0464308857917786e-01" purity="5.2030861377716064e-01" nType="0">
        <Node pos="l" depth="1" NCoef="0" IVar="-1" Cut="0.0000000000000000e+00" cType="1" res="9.1150996740907431e-04" rms="5.2201849222183228e-01" purity="5.9988027811050415e-01" nType="-99"/>
        <Node pos="r" depth="1" NCoef="0" IVar="20" Cut="6.4701599121093750e+01" cType="1" res="1.7840210348367691e-02" rms="4.0071302652359009e-01" purity="5.1872223615646362e-01" nType="0">
          <Node pos="l" depth="2" NCoef="0" IVar="-1" Cut="0.0000000000000000e+00" cType="1" res="3.7324778531910852e-05" rms="4.0022948384284973e-01" purity="5.2579396963119507e-01" nType="-99"/>
          <Node pos="r" depth="2" NCoef="0" IVar="-1" Cut="0.0000000000000000e+00" cType="1" res="-2.3536877706646919e-03" rms="3.9816465973854065e-01" purity="3.7458282709121704e-01" nType="-99"/>
        </Node>
      </Node>
    </BinaryTree>
    <BinaryTree type="DecisionTree" boostWeight="1.0000000000000000e+00" itree="603">
      <Node pos="s" depth="0" NCoef="0" IVar="5" Cut="8.7959963083267212e-01" cType="1" res="-8.3698686212301254e-03" rms="4.0057605504989624e-01" purity="4.8350876569747925e-01" nType="0">
        <Node pos="l" depth="1" NCoef="0" IVar="4" Cut="1.3229856491088867e+00" cType="0" res="8.9189656078815460e-02" rms="2.9983073472976685e-01" purity="8.6199617385864258e-01" nType="0">
          <Node pos="l" depth="2" NCoef="0" IVar="-1" Cut="0.0000000000000000e+00" cType="1" res="2.6048012077808380e-03" rms="2.8240513801574707e-01" purity="8.7766444683074951e-01" nType="-99"/>
          <Node pos="r" depth="2" NCoef="0" IVar="-1" Cut="0.0000000000000000e+00" cType="1" res="9.5437845448032022e-04" rms="2.9248631000518799e-01" purity="8.5525500774383545e-01" nType="-99"/>
        </Node>
        <Node pos="r" depth="1" NCoef="0" IVar="9" Cut="-8.5714282989501953e+00" cType="1" res="-1.7847707495093346e-02" rms="4.0780121088027954e-01" purity="4.4673901796340942e-01" nType="0">
          <Node pos="l" depth="2" NCoef="0" IVar="-1" Cut="0.0000000000000000e+00" cType="1" res="-1.6088373959064484e-03" rms="3.4483495354652405e-01" purity="8.3222043514251709e-01" nType="-99"/>
          <Node pos="r" depth="2" NCoef="0" IVar="-1" Cut="0.0000000000000000e+00" cType="1" res="-1.3238155224826187e-04" rms="4.0814200043678284e-01" purity="4.3619030714035034e-01" nType="-99"/>
        </Node>
      </Node>
    </BinaryTree>
    <BinaryTree type="DecisionTree" boostWeight="1.0000000000000000e+00" itree="604">
      <Node pos="s" depth="0" NCoef="0" IVar="15" Cut="4.8571429252624512e+00" cType="1" res="-8.7218591943383217e-03" rms="4.1714599728584290e-01" purity="4.9814438819885254e-01" nType="0">
        <Node pos="l" depth="1" NCoef="0" IVar="3" Cut="2.3809523582458496e+00" cType="1" res="-1.0132392495870590e-01" rms="4.3785685300827026e-01" purity="6.0244363546371460e-01" nType="0">
          <Node pos="l" depth="2" NCoef="0" IVar="-1" Cut="0.0000000000000000e+00" cType="1" res="3.9397911168634892e-03" rms="2.9865667223930359e-01" purity="8.7362450361251831e-01" nType="-99"/>
          <Node pos="r" depth="2" NCoef="0" IVar="-1" Cut="0.0000000000000000e+00" cType="1" res="-5.5908896028995514e-03" rms="4.6194723248481750e-01" purity="4.6818700432777405e-01" nType="-99"/>
        </Node>
        <Node pos="r" depth="1" NCoef="0" IVar="20" Cut="1.2844356536865234e+01" cType="1" res="-5.5676937336102128e-04" rms="4.1427847743034363e-01" purity="4.8894792795181274e-01" nType="0">
          <Node pos="l" depth="2" NCoef="0" IVar="-1" Cut="0.0000000000000000e+00" cType="1" res="1.8842031713575125e-03" rms="4.1732937097549438e-01" purity="5.8200579881668091e-01" nType="-99"/>
          <Node pos="r" depth="2" NCoef="0" IVar="-1" Cut="0.0000000000000000e+00" cType="1" res="-7.5244257459416986e-04" rms="4.1174161434173584e-01" purity="4.4426143169403076e-01" nType="-99"/>
        </Node>
      </Node>
    </BinaryTree>
    <BinaryTree type="DecisionTree" boostWeight="1.0000000000000000e+00" itree="605">
      <Node pos="s" depth="0" NCoef="0" IVar="6" Cut="8.9479875564575195e-01" cType="1" res="1.8096555722877383e-03" rms="4.0897360444068909e-01" purity="5.0435662269592285e-01" nType="0">
        <Node pos="l" depth="1" NCoef="0" IVar="14" Cut="3.9546348571777344e+01" cType="1" res="-9.4985336065292358e-02" rms="4.3852964043617249e-01" purity="5.7876664400100708e-01" nType="0">
          <Node pos="l" depth="2" NCoef="0" IVar="-1" Cut="0.0000000000000000e+00" cType="1" res="1.3431000523269176e-02" rms="3.2169017195701599e-01" purity="7.7500700950622559e-01" nType="-99"/>
          <Node pos="r" depth="2" NCoef="0" IVar="-1" Cut="0.0000000000000000e+00" cType="1" res="-5.0575453788042068e-03" rms="4.4938853383064270e-01" purity="5.2896815538406372e-01" nType="-99"/>
        </Node>
        <Node pos="r" depth="1" NCoef="0" IVar="21" Cut="1.3809523582458496e+00" cType="1" res="9.8141245543956757e-03" rms="4.0539994835853577e-01" purity="4.9820327758789062e-01" nType="0">
          <Node pos="l" depth="2" NCoef="0" IVar="-1" Cut="0.0000000000000000e+00" cType="1" res="-9.8982047347817570e-05" rms="4.2744570970535278e-01" purity="5.3153383731842041e-01" nType="-99"/>
          <Node pos="r" depth="2" NCoef="0" IVar="-1" Cut="0.0000000000000000e+00" cType="1" res="7.6425771112553775e-05" rms="3.9086431264877319e-01" purity="4.7847765684127808e-01" nType="-99"/>
        </Node>
      </Node>
    </BinaryTree>
    <BinaryTree type="DecisionTree" boostWeight="1.0000000000000000e+00" itree="606">
      <Node pos="s" depth="0" NCoef="0" IVar="15" Cut="8.0000000000000000e+00" cType="1" res="-1.1591665446758270e-02" rms="4.0786221623420715e-01" purity="4.8707413673400879e-01" nType="0">
        <Node pos="l" depth="1" NCoef="0" IVar="3" Cut="5.8571429252624512e+00" cType="1" res="2.3340737447142601e-02" rms="3.8348117470741272e-01" purity="7.0672249794006348e-01" nType="0">
          <Node pos="l" depth="2" NCoef="0" IVar="-1" Cut="0.0000000000000000e+00" cType="1" res="8.3170062862336636e-04" rms="3.7049788236618042e-01" purity="7.2644525766372681e-01" nType="-99"/>
          <Node pos="r" depth="2" NCoef="0" IVar="-1" Cut="0.0000000000000000e+00" cType="1" res="-1.7425841651856899e-03" rms="4.7119742631912231e-01" purity="5.2216315269470215e-01" nType="-99"/>
        </Node>
        <Node pos="r" depth="1" NCoef="0" IVar="9" Cut="-1.4285714626312256e+00" cType="0" res="-2.3746604099869728e-02" rms="4.1532230377197266e-01" purity="4.1064617037773132e-01" nType="0">
          <Node pos="l" depth="2" NCoef="0" IVar="-1" Cut="0.0000000000000000e+00" cType="1" res="2.7373497141525149e-04" rms="4.0601083636283875e-01" purity="4.1713264584541321e-01" nType="-99"/>
          <Node pos="r" depth="2" NCoef="0" IVar="-1" Cut="0.0000000000000000e+00" cType="1" res="-2.4620366748422384e-03" rms="4.4175511598587036e-01" purity="3.8218200206756592e-01" nType="-99"/>
        </Node>
      </Node>
    </BinaryTree>
    <BinaryTree type="DecisionTree" boostWeight="1.0000000000000000e+00" itree="607">
      <Node pos="s" depth="0" NCoef="0" IVar="7" Cut="-3.6166660785675049e+00" cType="1" res="7.7737378887832165e-03" rms="4.0506318211555481e-01" purity="5.2007323503494263e-01" nType="0">
        <Node pos="l" depth="1" NCoef="0" IVar="20" Cut="1.7975028991699219e+01" cType="0" res="9.7813546657562256e-02" rms="3.4279632568359375e-01" purity="7.9362875223159790e-01" nType="0">
          <Node pos="l" depth="2" NCoef="0" IVar="-1" Cut="0.0000000000000000e+00" cType="1" res="2.1585933864116669e-03" rms="2.6576861739158630e-01" purity="9.1316336393356323e-01" nType="-99"/>
          <Node pos="r" depth="2" NCoef="0" IVar="-1" Cut="0.0000000000000000e+00" cType="1" res="-1.2263599783182144e-03" rms="3.7479698657989502e-01" purity="7.0728558301925659e-01" nType="-99"/>
        </Node>
        <Node pos="r" depth="1" NCoef="0" IVar="12" Cut="2.1428570747375488e+00" cType="1" res="6.1813648790121078e-04" rms="4.0875595808029175e-01" purity="4.9833342432975769e-01" nType="0">
          <Node pos="l" depth="2" NCoef="0" IVar="-1" Cut="0.0000000000000000e+00" cType="1" res="2.0901509560644627e-04" rms="4.0158760547637939e-01" purity="5.1744514703750610e-01" nType="-99"/>
          <Node pos="r" depth="2" NCoef="0" IVar="-1" Cut="0.0000000000000000e+00" cType="1" res="-1.3166602002456784e-03" rms="4.3524935841560364e-01" purity="4.1026362776756287e-01" nType="-99"/>
        </Node>
      </Node>
    </BinaryTree>
    <BinaryTree type="DecisionTree" boostWeight="1.0000000000000000e+00" itree="608">
      <Node pos="s" depth="0" NCoef="0" IVar="9" Cut="-7.1428570747375488e+00" cType="1" res="3.9132591336965561e-03" rms="4.0799790620803833e-01" purity="5.1022452116012573e-01" nType="0">
        <Node pos="l" depth="1" NCoef="0" IVar="17" Cut="4.0371009826660156e+01" cType="1" res="-8.9155204594135284e-02" rms="4.3093994259834290e-01" purity="5.8187454938888550e-01" nType="0">
          <Node pos="l" depth="2" NCoef="0" IVar="-1" Cut="0.0000000000000000e+00" cType="1" res="-1.5755614731460810e-03" rms="3.9701768755912781e-01" purity="6.2844741344451904e-01" nType="-99"/>
          <Node pos="r" depth="2" NCoef="0" IVar="-1" Cut="0.0000000000000000e+00" cType="1" res="-7.5896349735558033e-03" rms="4.8009535670280457e-01" purity="4.5845496654510498e-01" nType="-99"/>
        </Node>
        <Node pos="r" depth="1" NCoef="0" IVar="8" Cut="2.4261906147003174e+00" cType="1" res="1.0245645418763161e-02" rms="4.0561470389366150e-01" purity="5.0534945726394653e-01" nType="0">
          <Node pos="l" depth="2" NCoef="0" IVar="-1" Cut="0.0000000000000000e+00" cType="1" res="2.4822412524372339e-04" rms="4.0534916520118713e-01" purity="5.2288216352462769e-01" nType="-99"/>
          <Node pos="r" depth="2" NCoef="0" IVar="-1" Cut="0.0000000000000000e+00" cType="1" res="-1.5233798185363412e-03" rms="4.0225547552108765e-01" purity="3.5055798292160034e-01" nType="-99"/>
        </Node>
      </Node>
    </BinaryTree>
    <BinaryTree type="DecisionTree" boostWeight="1.0000000000000000e+00" itree="609">
      <Node pos="s" depth="0" NCoef="0" IVar="18" Cut="5.1428570747375488e+00" cType="1" res="9.9951843731105328e-04" rms="4.0888801217079163e-01" purity="5.0734591484069824e-01" nType="0">
        <Node pos="l" depth="1" NCoef="0" IVar="20" Cut="3.5821082592010498e+00" cType="0" res="3.1008124351501465e-02" rms="4.0239310264587402e-01" purity="6.8130218982696533e-01" nType="0">
          <Node pos="l" depth="2" NCoef="0" IVar="-1" Cut="0.0000000000000000e+00" cType="1" res="8.6406228365376592e-04" rms="3.9568650722503662e-01" purity="7.0359265804290771e-01" nType="-99"/>
          <Node pos="r" depth="2" NCoef="0" IVar="-1" Cut="0.0000000000000000e+00" cType="1" res="-1.5092778485268354e-03" rms="4.2932072281837463e-01" purity="5.2870184183120728e-01" nType="-99"/>
        </Node>
        <Node pos="r" depth="1" NCoef="0" IVar="4" Cut="1.4641102552413940e+00" cType="1" res="-2.9579622671008110e-02" rms="4.1316589713096619e-01" purity="3.3008232712745667e-01" nType="0">
          <Node pos="l" depth="2" NCoef="0" IVar="-1" Cut="0.0000000000000000e+00" cType="1" res="-4.3003959581255913e-03" rms="4.5160931348800659e-01" purity="3.8463056087493896e-01" nType="-99"/>
          <Node pos="r" depth="2" NCoef="0" IVar="-1" Cut="0.0000000000000000e+00" cType="1" res="-9.6965195552911609e-05" rms="4.0414488315582275e-01" purity="3.2233688235282898e-01" nType="-99"/>
        </Node>
      </Node>
    </BinaryTree>
    <BinaryTree type="DecisionTree" boostWeight="1.0000000000000000e+00" itree="610">
      <Node pos="s" depth="0" NCoef="0" IVar="4" Cut="1.7909219264984131e+00" cType="1" res="7.2700935415923595e-03" rms="3.9892974495887756e-01" purity="5.0169008970260620e-01" nType="0">
        <Node pos="l" depth="1" NCoef="0" IVar="9" Cut="-5.7142858505249023e+00" cType="0" res="3.6430992186069489e-02" rms="3.7477055191993713e-01" purity="7.4120354652404785e-01" nType="0">
          <Node pos="l" depth="2" NCoef="0" IVar="-1" Cut="0.0000000000000000e+00" cType="1" res="6.8284617736935616e-04" rms="3.7147146463394165e-01" purity="7.5418013334274292e-01" nType="-99"/>
          <Node pos="r" depth="2" NCoef="0" IVar="-1" Cut="0.0000000000000000e+00" cType="1" res="-2.2375474218279123e-03" rms="3.8403499126434326e-01" purity="6.4713484048843384e-01" nType="-99"/>
        </Node>
        <Node pos="r" depth="1" NCoef="0" IVar="4" Cut="1.9254904985427856e+00" cType="1" res="-1.2421842664480209e-02" rms="4.1328603029251099e-01" purity="3.3995014429092407e-01" nType="0">
          <Node pos="l" depth="2" NCoef="0" IVar="-1" Cut="0.0000000000000000e+00" cType="1" res="-2.5352123193442822e-03" rms="4.5458653569221497e-01" purity="4.2888000607490540e-01" nType="-99"/>
          <Node pos="r" depth="2" NCoef="0" IVar="-1" Cut="0.0000000000000000e+00" cType="1" res="2.4253716401290148e-04" rms="4.0160533785820007e-01" purity="3.2015296816825867e-01" nType="-99"/>
        </Node>
      </Node>
    </BinaryTree>
    <BinaryTree type="DecisionTree" boostWeight="1.0000000000000000e+00" itree="611">
      <Node pos="s" depth="0" NCoef="0" IVar="20" Cut="1.5763013839721680e+01" cType="1" res="6.6934656351804733e-03" rms="4.0693888068199158e-01" purity="5.1235294342041016e-01" nType="0">
        <Node pos="l" depth="1" NCoef="0" IVar="20" Cut="1.4534974098205566e+01" cType="1" res="3.7388753145933151e-02" rms="4.0948042273521423e-01" purity="5.7969856262207031e-01" nType="0">
          <Node pos="l" depth="2" NCoef="0" IVar="-1" Cut="0.0000000000000000e+00" cType="1" res="1.6782580642029643e-03" rms="4.0776959061622620e-01" purity="6.1448794603347778e-01" nType="-99"/>
          <Node pos="r" depth="2" NCoef="0" IVar="-1" Cut="0.0000000000000000e+00" cType="1" res="-8.8039301335811615e-03" rms="3.8772636651992798e-01" purity="3.1158372759819031e-01" nType="-99"/>
        </Node>
        <Node pos="r" depth="1" NCoef="0" IVar="18" Cut="1.3809523582458496e+00" cType="1" res="-1.5263879671692848e-02" rms="4.0368163585662842e-01" purity="4.6417847275733948e-01" nType="0">
          <Node pos="l" depth="2" NCoef="0" IVar="-1" Cut="0.0000000000000000e+00" cType="1" res="2.7053202502429485e-03" rms="2.2934436798095703e-01" purity="8.6710804700851440e-01" nType="-99"/>
          <Node pos="r" depth="2" NCoef="0" IVar="-1" Cut="0.0000000000000000e+00" cType="1" res="-1.9031317788176239e-04" rms="4.0690541267395020e-01" purity="4.5016926527023315e-01" nType="-99"/>
        </Node>
      </Node>
    </BinaryTree>
    <BinaryTree type="DecisionTree" boostWeight="1.0000000000000000e+00" itree="612">
      <Node pos="s" depth="0" NCoef="0" IVar="15" Cut="9.8571424484252930e+00" cType="1" res="-1.0409675538539886e-02" rms="4.0411502122879028e-01" purity="4.8534816503524780e-01" nType="0">
        <Node pos="l" depth="1" NCoef="0" IVar="1" Cut="7.0000000000000000e+00" cType="1" res="1.9426651298999786e-02" rms="3.6445558071136475e-01" purity="6.8196475505828857e-01" nType="0">
          <Node pos="l" depth="2" NCoef="0" IVar="-1" Cut="0.0000000000000000e+00" cType="1" res="4.3691933387890458e-04" rms="3.5768091678619385e-01" purity="6.8884187936782837e-01" nType="-99"/>
          <Node pos="r" depth="2" NCoef="0" IVar="-1" Cut="0.0000000000000000e+00" cType="1" res="1.7084721475839615e-03" rms="4.2512390017509460e-01" purity="6.1296063661575317e-01" nType="-99"/>
        </Node>
        <Node pos="r" depth="1" NCoef="0" IVar="6" Cut="1.5533254146575928e+00" cType="1" res="-2.6706457138061523e-02" rms="4.2332738637924194e-01" purity="3.7795501947402954e-01" nType="0">
          <Node pos="l" depth="2" NCoef="0" IVar="-1" Cut="0.0000000000000000e+00" cType="1" res="-2.6591045316308737e-03" rms="4.6493938565254211e-01" purity="4.4586983323097229e-01" nType="-99"/>
          <Node pos="r" depth="2" NCoef="0" IVar="-1" Cut="0.0000000000000000e+00" cType="1" res="6.8515603197738528e-04" rms="4.0214103460311890e-01" purity="3.5077413916587830e-01" nType="-99"/>
        </Node>
      </Node>
    </BinaryTree>
    <BinaryTree type="DecisionTree" boostWeight="1.0000000000000000e+00" itree="613">
      <Node pos="s" depth="0" NCoef="0" IVar="15" Cut="4.1428570747375488e+00" cType="1" res="-1.9393982365727425e-02" rms="4.1609245538711548e-01" purity="4.8516312241554260e-01" nType="0">
        <Node pos="l" depth="1" NCoef="0" IVar="9" Cut="-2.7714285850524902e+00" cType="1" res="-1.0280535370111465e-01" rms="4.5531848073005676e-01" purity="6.0644072294235229e-01" nType="0">
          <Node pos="l" depth="2" NCoef="0" IVar="-1" Cut="0.0000000000000000e+00" cType="1" res="7.9499250277876854e-03" rms="3.0883762240409851e-01" purity="8.6307358741760254e-01" nType="-99"/>
          <Node pos="r" depth="2" NCoef="0" IVar="-1" Cut="0.0000000000000000e+00" cType="1" res="-6.1828489415347576e-03" rms="4.6965980529785156e-01" purity="5.2846032381057739e-01" nType="-99"/>
        </Node>
        <Node pos="r" depth="1" NCoef="0" IVar="15" Cut="7.0952382087707520e+00" cType="1" res="-1.2281103059649467e-02" rms="4.1179388761520386e-01" purity="4.7482118010520935e-01" nType="0">
          <Node pos="l" depth="2" NCoef="0" IVar="-1" Cut="0.0000000000000000e+00" cType="1" res="4.2707175016403198e-03" rms="3.6912161111831665e-01" purity="7.7818930149078369e-01" nType="-99"/>
          <Node pos="r" depth="2" NCoef="0" IVar="-1" Cut="0.0000000000000000e+00" cType="1" res="-3.6302558146417141e-04" rms="4.1829144954681396e-01" purity="4.1900700330734253e-01" nType="-99"/>
        </Node>
      </Node>
    </BinaryTree>
    <BinaryTree type="DecisionTree" boostWeight="1.0000000000000000e+00" itree="614">
      <Node pos="s" depth="0" NCoef="0" IVar="0" Cut="1.4919942617416382e+00" cType="1" res="-3.5728700459003448e-03" rms="4.1232410073280334e-01" purity="5.0303709506988525e-01" nType="0">
        <Node pos="l" depth="1" NCoef="0" IVar="5" Cut="1.1448459625244141e+00" cType="1" res="-2.9560117051005363e-02" rms="4.1605123877525330e-01" purity="5.6434357166290283e-01" nType="0">
          <Node pos="l" depth="2" NCoef="0" IVar="-1" Cut="0.0000000000000000e+00" cType="1" res="6.3719297759234905e-04" rms="3.9519882202148438e-01" purity="7.1853774785995483e-01" nType="-99"/>
          <Node pos="r" depth="2" NCoef="0" IVar="-1" Cut="0.0000000000000000e+00" cType="1" res="-1.3451136182993650e-03" rms="4.3091210722923279e-01" purity="4.2944586277008057e-01" nType="-99"/>
        </Node>
        <Node pos="r" depth="1" NCoef="0" IVar="18" Cut="6.1904764175415039e+00" cType="1" res="2.5884695351123810e-02" rms="4.0605187416076660e-01" purity="4.3354374170303345e-01" nType="0">
          <Node pos="l" depth="2" NCoef="0" IVar="-1" Cut="0.0000000000000000e+00" cType="1" res="1.2138654710724950e-03" rms="4.4505172967910767e-01" purity="5.5687612295150757e-01" nType="-99"/>
          <Node pos="r" depth="2" NCoef="0" IVar="-1" Cut="0.0000000000000000e+00" cType="1" res="-2.7731086593121290e-03" rms="2.5111177563667297e-01" purity="7.1908771991729736e-02" nType="-99"/>
        </Node>
      </Node>
    </BinaryTree>
    <BinaryTree type="DecisionTree" boostWeight="1.0000000000000000e+00" itree="615">
      <Node pos="s" depth="0" NCoef="0" IVar="12" Cut="1.4285714924335480e-01" cType="1" res="7.2476835921406746e-03" rms="4.0798032283782959e-01" purity="5.0579518079757690e-01" nType="0">
        <Node pos="l" depth="1" NCoef="0" IVar="11" Cut="8.6477524042129517e-01" cType="1" res="-5.5245377123355865e-02" rms="4.0057620406150818e-01" purity="5.6014847755432129e-01" nType="0">
          <Node pos="l" depth="2" NCoef="0" IVar="-1" Cut="0.0000000000000000e+00" cType="1" res="1.6994965262711048e-03" rms="3.6290934681892395e-01" purity="7.4732100963592529e-01" nType="-99"/>
          <Node pos="r" depth="2" NCoef="0" IVar="-1" Cut="0.0000000000000000e+00" cType="1" res="-5.1997643895447254e-03" rms="4.2568838596343994e-01" purity="3.3493918180465698e-01" nType="-99"/>
        </Node>
        <Node pos="r" depth="1" NCoef="0" IVar="21" Cut="6.1428570747375488e+00" cType="1" res="2.2940153256058693e-02" rms="4.0831887722015381e-01" purity="4.9214667081832886e-01" nType="0">
          <Node pos="l" depth="2" NCoef="0" IVar="-1" Cut="0.0000000000000000e+00" cType="1" res="7.9760985681787133e-04" rms="4.3528032302856445e-01" purity="5.8815598487854004e-01" nType="-99"/>
          <Node pos="r" depth="2" NCoef="0" IVar="-1" Cut="0.0000000000000000e+00" cType="1" res="-2.8190466109663248e-03" rms="2.4997693300247192e-01" purity="6.8993173539638519e-02" nType="-99"/>
        </Node>
      </Node>
    </BinaryTree>
    <BinaryTree type="DecisionTree" boostWeight="1.0000000000000000e+00" itree="616">
      <Node pos="s" depth="0" NCoef="0" IVar="3" Cut="5.8571429252624512e+00" cType="0" res="1.7656618729233742e-02" rms="4.0453201532363892e-01" purity="5.2297782897949219e-01" nType="0">
        <Node pos="l" depth="1" NCoef="0" IVar="5" Cut="1.4919294118881226e+00" cType="0" res="1.2914839386940002e-01" rms="4.4124037027359009e-01" purity="6.8100541830062866e-01" nType="0">
          <Node pos="l" depth="2" NCoef="0" IVar="-1" Cut="0.0000000000000000e+00" cType="1" res="6.1610103584825993e-03" rms="4.1448560357093811e-01" purity="7.8086334466934204e-01" nType="-99"/>
          <Node pos="r" depth="2" NCoef="0" IVar="-1" Cut="0.0000000000000000e+00" cType="1" res="-2.4105638731271029e-03" rms="4.2041224241256714e-01" purity="6.1764794588088989e-01" nType="-99"/>
        </Node>
        <Node pos="r" depth="1" NCoef="0" IVar="10" Cut="3.3104176521301270e+00" cType="1" res="1.2870916165411472e-02" rms="4.0219026803970337e-01" purity="5.1619458198547363e-01" nType="0">
          <Node pos="l" depth="2" NCoef="0" IVar="-1" Cut="0.0000000000000000e+00" cType="1" res="3.4554905141703784e-04" rms="4.0289515256881714e-01" purity="5.7100862264633179e-01" nType="-99"/>
          <Node pos="r" depth="2" NCoef="0" IVar="-1" Cut="0.0000000000000000e+00" cType="1" res="-2.4841513950377703e-03" rms="3.9098504185676575e-01" purity="2.4055053293704987e-01" nType="-99"/>
        </Node>
      </Node>
    </BinaryTree>
    <BinaryTree type="DecisionTree" boostWeight="1.0000000000000000e+00" itree="617">
      <Node pos="s" depth="0" NCoef="0" IVar="12" Cut="1.4285714924335480e-01" cType="1" res="5.7676532305777073e-03" rms="4.0067782998085022e-01" purity="5.0319594144821167e-01" nType="0">
        <Node pos="l" depth="1" NCoef="0" IVar="9" Cut="-1.4285714626312256e+00" cType="1" res="-4.3157931417226791e-02" rms="3.9301106333732605e-01" purity="5.6613266468048096e-01" nType="0">
          <Node pos="l" depth="2" NCoef="0" IVar="-1" Cut="0.0000000000000000e+00" cType="1" res="2.2314842790365219e-03" rms="3.6345687508583069e-01" purity="7.7777844667434692e-01" nType="-99"/>
          <Node pos="r" depth="2" NCoef="0" IVar="-1" Cut="0.0000000000000000e+00" cType="1" res="-4.2002880945801735e-03" rms="3.9960649609565735e-01" purity="4.4588771462440491e-01" nType="-99"/>
        </Node>
        <Node pos="r" depth="1" NCoef="0" IVar="15" Cut="1.1142857551574707e+01" cType="1" res="1.7405826598405838e-02" rms="4.0160349011421204e-01" purity="4.8822495341300964e-01" nType="0">
          <Node pos="l" depth="2" NCoef="0" IVar="-1" Cut="0.0000000000000000e+00" cType="1" res="2.4469383060932159e-03" rms="3.6811888217926025e-01" purity="7.4083918333053589e-01" nType="-99"/>
          <Node pos="r" depth="2" NCoef="0" IVar="-1" Cut="0.0000000000000000e+00" cType="1" res="-3.6518133128993213e-04" rms="4.1289296746253967e-01" purity="3.8221836090087891e-01" nType="-99"/>
        </Node>
      </Node>
    </BinaryTree>
    <BinaryTree type="DecisionTree" boostWeight="1.0000000000000000e+00" itree="618">
      <Node pos="s" depth="0" NCoef="0" IVar="5" Cut="1.5369602441787720e+00" cType="1" res="-1.8158158287405968e-02" rms="4.1628807783126831e-01" purity="4.8798462748527527e-01" nType="0">
        <Node pos="l" depth="1" NCoef="0" IVar="4" Cut="9.5689880847930908e-01" cType="1" res="-5.0586447119712830e-02" rms="4.2743879556655884e-01" purity="6.3684588670730591e-01" nType="0">
          <Node pos="l" depth="2" NCoef="0" IVar="-1" Cut="0.0000000000000000e+00" cType="1" res="2.5271519552916288e-03" rms="2.5893193483352661e-01" purity="8.8310009241104126e-01" nType="-99"/>
          <Node pos="r" depth="2" NCoef="0" IVar="-1" Cut="0.0000000000000000e+00" cType="1" res="-4.2050724732689559e-04" rms="4.4035211205482483e-01" purity="6.0990309715270996e-01" nType="-99"/>
        </Node>
        <Node pos="r" depth="1" NCoef="0" IVar="1" Cut="8.7142858505249023e+00" cType="0" res="7.5196772813796997e-03" rms="4.0540602803230286e-01" purity="3.7011119723320007e-01" nType="0">
          <Node pos="l" depth="2" NCoef="0" IVar="-1" Cut="0.0000000000000000e+00" cType="1" res="8.6502181366086006e-03" rms="4.3153756856918335e-01" purity="5.3277051448822021e-01" nType="-99"/>
          <Node pos="r" depth="2" NCoef="0" IVar="-1" Cut="0.0000000000000000e+00" cType="1" res="-3.5488372668623924e-04" rms="4.0223002433776855e-01" purity="3.6292096972465515e-01" nType="-99"/>
        </Node>
      </Node>
    </BinaryTree>
    <BinaryTree type="DecisionTree" boostWeight="1.0000000000000000e+00" itree="619">
      <Node pos="s" depth="0" NCoef="0" IVar="0" Cut="6.6810458898544312e-01" cType="1" res="3.1174311880022287e-03" rms="4.0666222572326660e-01" purity="5.0311613082885742e-01" nType="0">
        <Node pos="l" depth="1" NCoef="0" IVar="15" Cut="3.8571429252624512e+00" cType="0" res="-7.1622252464294434e-02" rms="4.3694797158241272e-01" purity="5.4425466060638428e-01" nType="0">
          <Node pos="l" depth="2" NCoef="0" IVar="-1" Cut="0.0000000000000000e+00" cType="1" res="-2.5226108846254647e-04" rms="4.2125037312507629e-01" purity="5.6164920330047607e-01" nType="-99"/>
          <Node pos="r" depth="2" NCoef="0" IVar="-1" Cut="0.0000000000000000e+00" cType="1" res="-6.4939241856336594e-03" rms="4.6770417690277100e-01" purity="4.2671948671340942e-01" nType="-99"/>
        </Node>
        <Node pos="r" depth="1" NCoef="0" IVar="9" Cut="-7.1428570747375488e+00" cType="1" res="1.5169663354754448e-02" rms="4.0026009082794189e-01" purity="4.9648231267929077e-01" nType="0">
          <Node pos="l" depth="2" NCoef="0" IVar="-1" Cut="0.0000000000000000e+00" cType="1" res="-3.8978145457804203e-03" rms="4.7620812058448792e-01" purity="5.8678811788558960e-01" nType="-99"/>
          <Node pos="r" depth="2" NCoef="0" IVar="-1" Cut="0.0000000000000000e+00" cType="1" res="1.4545497833751142e-04" rms="3.9547154307365417e-01" purity="4.9239882826805115e-01" nType="-99"/>
        </Node>
      </Node>
    </BinaryTree>
    <BinaryTree type="DecisionTree" boostWeight="1.0000000000000000e+00" itree="620">
      <Node pos="s" depth="0" NCoef="0" IVar="8" Cut="2.4261906147003174e+00" cType="1" res="-1.2454341631382704e-03" rms="4.0401598811149597e-01" purity="4.9605530500411987e-01" nType="0">
        <Node pos="l" depth="1" NCoef="0" IVar="20" Cut="2.8644519805908203e+01" cType="0" res="6.0202386230230331e-03" rms="3.9818027615547180e-01" purity="5.0785750150680542e-01" nType="0">
          <Node pos="l" depth="2" NCoef="0" IVar="-1" Cut="0.0000000000000000e+00" cType="1" res="1.6959338972810656e-04" rms="4.0100219845771790e-01" purity="6.0434335470199585e-01" nType="-99"/>
          <Node pos="r" depth="2" NCoef="0" IVar="-1" Cut="0.0000000000000000e+00" cType="1" res="-6.7154302087146789e-05" rms="3.9650103449821472e-01" purity="4.8087343573570251e-01" nType="-99"/>
        </Node>
        <Node pos="r" depth="1" NCoef="0" IVar="4" Cut="1.5306279659271240e+00" cType="1" res="-6.5269142389297485e-02" rms="4.4711971282958984e-01" purity="3.9205637574195862e-01" nType="0">
          <Node pos="l" depth="2" NCoef="0" IVar="-1" Cut="0.0000000000000000e+00" cType="1" res="-5.0958306528627872e-03" rms="4.4901227951049805e-01" purity="4.2624592781066895e-01" nType="-99"/>
          <Node pos="r" depth="2" NCoef="0" IVar="-1" Cut="0.0000000000000000e+00" cType="1" res="3.1184139661490917e-03" rms="4.2481237649917603e-01" purity="3.6219424009323120e-01" nType="-99"/>
        </Node>
      </Node>
    </BinaryTree>
    <BinaryTree type="DecisionTree" boostWeight="1.0000000000000000e+00" itree="621">
      <Node pos="s" depth="0" NCoef="0" IVar="0" Cut="4.4238096475601196e-01" cType="0" res="1.3488075695931911e-02" rms="3.9944720268249512e-01" purity="5.0842767953872681e-01" nType="0">
        <Node pos="l" depth="1" NCoef="0" IVar="5" Cut="1.7659146785736084e+00" cType="1" res="2.6284180581569672e-02" rms="3.8955557346343994e-01" purity="5.1054608821868896e-01" nType="0">
          <Node pos="l" depth="2" NCoef="0" IVar="-1" Cut="0.0000000000000000e+00" cType="1" res="5.1350420108065009e-04" rms="3.7794578075408936e-01" purity="7.1181464195251465e-01" nType="-99"/>
          <Node pos="r" depth="2" NCoef="0" IVar="-1" Cut="0.0000000000000000e+00" cType="1" res="-2.7839228278025985e-04" rms="3.9884421229362488e-01" purity="3.0782330036163330e-01" nType="-99"/>
        </Node>
        <Node pos="r" depth="1" NCoef="0" IVar="8" Cut="2.4261906147003174e+00" cType="0" res="-1.4917819201946259e-01" rms="4.7982132434844971e-01" purity="4.8149824142456055e-01" nType="0">
          <Node pos="l" depth="2" NCoef="0" IVar="-1" Cut="0.0000000000000000e+00" cType="1" res="7.0631261914968491e-03" rms="4.7387799620628357e-01" purity="7.1954393386840820e-01" nType="-99"/>
          <Node pos="r" depth="2" NCoef="0" IVar="-1" Cut="0.0000000000000000e+00" cType="1" res="-5.7302615605294704e-03" rms="4.5363563299179077e-01" purity="4.1818642616271973e-01" nType="-99"/>
        </Node>
      </Node>
    </BinaryTree>
    <BinaryTree type="DecisionTree" boostWeight="1.0000000000000000e+00" itree="622">
      <Node pos="s" depth="0" NCoef="0" IVar="20" Cut="5.4407535552978516e+01" cType="1" res="-2.0979993045330048e-02" rms="4.1056463122367859e-01" purity="4.7692784667015076e-01" nType="0">
        <Node pos="l" depth="1" NCoef="0" IVar="20" Cut="3.9047004699707031e+01" cType="0" res="-1.3884685002267361e-02" rms="4.0923258662223816e-01" purity="4.8580101132392883e-01" nType="0">
          <Node pos="l" depth="2" NCoef="0" IVar="-1" Cut="0.0000000000000000e+00" cType="1" res="3.4102716017514467e-03" rms="3.6682546138763428e-01" purity="7.3195099830627441e-01" nType="-99"/>
          <Node pos="r" depth="2" NCoef="0" IVar="-1" Cut="0.0000000000000000e+00" cType="1" res="-1.5125780191738158e-04" rms="4.1047987341880798e-01" purity="4.6965202689170837e-01" nType="-99"/>
        </Node>
        <Node pos="r" depth="1" NCoef="0" IVar="0" Cut="1.0246096849441528e+00" cType="0" res="-1.1040081828832626e-01" rms="4.1676726937294006e-01" purity="3.6510068178176880e-01" nType="0">
          <Node pos="l" depth="2" NCoef="0" IVar="-1" Cut="0.0000000000000000e+00" cType="1" res="-1.0124818654730916e-03" rms="3.9982318878173828e-01" purity="4.1706845164299011e-01" nType="-99"/>
          <Node pos="r" depth="2" NCoef="0" IVar="-1" Cut="0.0000000000000000e+00" cType="1" res="-3.0677921604365110e-03" rms="4.0941706299781799e-01" purity="2.7332586050033569e-01" nType="-99"/>
        </Node>
      </Node>
    </BinaryTree>
    <BinaryTree type="DecisionTree" boostWeight="1.0000000000000000e+00" itree="623">
      <Node pos="s" depth="0" NCoef="0" IVar="5" Cut="1.9631491899490356e+00" cType="1" res="1.4342617942020297e-03" rms="4.0578675270080566e-01" purity="4.9562159180641174e-01" nType="0">
        <Node pos="l" depth="1" NCoef="0" IVar="5" Cut="1.8692864179611206e+00" cType="1" res="-1.0310041718184948e-02" rms="4.1050803661346436e-01" purity="5.9848713874816895e-01" nType="0">
          <Node pos="l" depth="2" NCoef="0" IVar="-1" Cut="0.0000000000000000e+00" cType="1" res="2.4849420879036188e-04" rms="4.0782600641250610e-01" purity="6.2939190864562988e-01" nType="-99"/>
          <Node pos="r" depth="2" NCoef="0" IVar="-1" Cut="0.0000000000000000e+00" cType="1" res="-2.7696187607944012e-03" rms="4.1810509562492371e-01" purity="3.0949795246124268e-01" nType="-99"/>
        </Node>
        <Node pos="r" depth="1" NCoef="0" IVar="5" Cut="2.0885343551635742e+00" cType="1" res="2.4586522951722145e-02" rms="3.9529404044151306e-01" purity="2.9283651709556580e-01" nType="0">
          <Node pos="l" depth="2" NCoef="0" IVar="-1" Cut="0.0000000000000000e+00" cType="1" res="1.8638628534972668e-03" rms="4.3858671188354492e-01" purity="5.6011241674423218e-01" nType="-99"/>
          <Node pos="r" depth="2" NCoef="0" IVar="-1" Cut="0.0000000000000000e+00" cType="1" res="-3.1970412237569690e-04" rms="3.8727334141731262e-01" purity="2.5884988903999329e-01" nType="-99"/>
        </Node>
      </Node>
    </BinaryTree>
    <BinaryTree type="DecisionTree" boostWeight="1.0000000000000000e+00" itree="624">
      <Node pos="s" depth="0" NCoef="0" IVar="9" Cut="-7.1428570747375488e+00" cType="1" res="-8.0942325294017792e-03" rms="4.1049039363861084e-01" purity="4.9719768762588501e-01" nType="0">
        <Node pos="l" depth="1" NCoef="0" IVar="0" Cut="7.5497597455978394e-01" cType="1" res="-8.3398669958114624e-02" rms="4.2920371890068054e-01" purity="5.8478248119354248e-01" nType="0">
          <Node pos="l" depth="2" NCoef="0" IVar="-1" Cut="0.0000000000000000e+00" cType="1" res="3.6888902541249990e-03" rms="3.2974952459335327e-01" purity="8.2754635810852051e-01" nType="-99"/>
          <Node pos="r" depth="2" NCoef="0" IVar="-1" Cut="0.0000000000000000e+00" cType="1" res="-5.6799682788550854e-03" rms="4.4202050566673279e-01" purity="4.5750325918197632e-01" nType="-99"/>
        </Node>
        <Node pos="r" depth="1" NCoef="0" IVar="7" Cut="-4.4214282035827637e+00" cType="1" res="-3.4861841704696417e-03" rms="4.0886744856834412e-01" purity="4.9183815717697144e-01" nType="0">
          <Node pos="l" depth="2" NCoef="0" IVar="-1" Cut="0.0000000000000000e+00" cType="1" res="3.6311617586761713e-03" rms="2.8690770268440247e-01" purity="8.3626651763916016e-01" nType="-99"/>
          <Node pos="r" depth="2" NCoef="0" IVar="-1" Cut="0.0000000000000000e+00" cType="1" res="-2.6958075977745466e-05" rms="4.1021978855133057e-01" purity="4.8402959108352661e-01" nType="-99"/>
        </Node>
      </Node>
    </BinaryTree>
    <BinaryTree type="DecisionTree" boostWeight="1.0000000000000000e+00" itree="625">
      <Node pos="s" depth="0" NCoef="0" IVar="15" Cut="1.2714285850524902e+01" cType="1" res="5.4895528592169285e-03" rms="4.0502408146858215e-01" purity="5.0040668249130249e-01" nType="0">
        <Node pos="l" depth="1" NCoef="0" IVar="12" Cut="1.1428571939468384e+00" cType="1" res="-1.8751531839370728e-02" rms="4.0093874931335449e-01" purity="6.0568922758102417e-01" nType="0">
          <Node pos="l" depth="2" NCoef="0" IVar="-1" Cut="0.0000000000000000e+00" cType="1" res="-2.0782774663530290e-04" rms="3.4451764822006226e-01" purity="7.1229332685470581e-01" nType="-99"/>
          <Node pos="r" depth="2" NCoef="0" IVar="-1" Cut="0.0000000000000000e+00" cType="1" res="-8.0574868479743600e-04" rms="4.5389541983604431e-01" purity="4.8339435458183289e-01" nType="-99"/>
        </Node>
        <Node pos="r" depth="1" NCoef="0" IVar="17" Cut="2.9436176300048828e+01" cType="0" res="2.9651924967765808e-02" rms="4.0762349963188171e-01" purity="3.9546594023704529e-01" nType="0">
          <Node pos="l" depth="2" NCoef="0" IVar="-1" Cut="0.0000000000000000e+00" cType="1" res="3.2347959931939840e-03" rms="4.3906062841415405e-01" purity="5.4408204555511475e-01" nType="-99"/>
          <Node pos="r" depth="2" NCoef="0" IVar="-1" Cut="0.0000000000000000e+00" cType="1" res="-8.7033532327041030e-04" rms="3.9065447449684143e-01" purity="3.4635138511657715e-01" nType="-99"/>
        </Node>
      </Node>
    </BinaryTree>
    <BinaryTree type="DecisionTree" boostWeight="1.0000000000000000e+00" itree="626">
      <Node pos="s" depth="0" NCoef="0" IVar="1" Cut="8.4285717010498047e+00" cType="0" res="1.2155251577496529e-02" rms="4.0522706508636475e-01" purity="5.1300919055938721e-01" nType="0">
        <Node pos="l" depth="1" NCoef="0" IVar="18" Cut="4.0476188659667969e+00" cType="0" res="1.3031919300556183e-01" rms="4.2729216814041138e-01" purity="5.9267455339431763e-01" nType="0">
          <Node pos="l" depth="2" NCoef="0" IVar="-1" Cut="0.0000000000000000e+00" cType="1" res="1.1250947602093220e-02" rms="4.3917334079742432e-01" purity="6.7137634754180908e-01" nType="-99"/>
          <Node pos="r" depth="2" NCoef="0" IVar="-1" Cut="0.0000000000000000e+00" cType="1" res="-1.9085040548816323e-03" rms="3.9229580760002136e-01" purity="5.2432292699813843e-01" nType="-99"/>
        </Node>
        <Node pos="r" depth="1" NCoef="0" IVar="11" Cut="3.7249007821083069e-01" cType="1" res="7.9605644568800926e-03" rms="4.0378659963607788e-01" purity="5.1018118858337402e-01" nType="0">
          <Node pos="l" depth="2" NCoef="0" IVar="-1" Cut="0.0000000000000000e+00" cType="1" res="8.2324922550469637e-04" rms="3.8569951057434082e-01" purity="6.1315363645553589e-01" nType="-99"/>
          <Node pos="r" depth="2" NCoef="0" IVar="-1" Cut="0.0000000000000000e+00" cType="1" res="-8.8741857325658202e-04" rms="4.1437286138534546e-01" purity="4.4101214408874512e-01" nType="-99"/>
        </Node>
      </Node>
    </BinaryTree>
    <BinaryTree type="DecisionTree" boostWeight="1.0000000000000000e+00" itree="627">
      <Node pos="s" depth="0" NCoef="0" IVar="3" Cut="5.1428570747375488e+00" cType="0" res="-1.2882117182016373e-02" rms="4.1088071465492249e-01" purity="4.8483410477638245e-01" nType="0">
        <Node pos="l" depth="1" NCoef="0" IVar="15" Cut="1.1000000000000000e+01" cType="0" res="1.0064630210399628e-01" rms="3.9645484089851379e-01" purity="6.0535812377929688e-01" nType="0">
          <Node pos="l" depth="2" NCoef="0" IVar="-1" Cut="0.0000000000000000e+00" cType="1" res="4.4284979812800884e-03" rms="3.7761950492858887e-01" purity="6.4354926347732544e-01" nType="-99"/>
          <Node pos="r" depth="2" NCoef="0" IVar="-1" Cut="0.0000000000000000e+00" cType="1" res="-8.1492244498804212e-04" rms="3.8427063822746277e-01" purity="5.8301979303359985e-01" nType="-99"/>
        </Node>
        <Node pos="r" depth="1" NCoef="0" IVar="3" Cut="3.0952382087707520e+00" cType="1" res="-1.8081367015838623e-02" rms="4.1077858209609985e-01" purity="4.7931444644927979e-01" nType="0">
          <Node pos="l" depth="2" NCoef="0" IVar="-1" Cut="0.0000000000000000e+00" cType="1" res="3.2299751183018088e-04" rms="4.0637871623039246e-01" purity="4.9422585964202881e-01" nType="-99"/>
          <Node pos="r" depth="2" NCoef="0" IVar="-1" Cut="0.0000000000000000e+00" cType="1" res="-1.5699020586907864e-03" rms="4.2126131057739258e-01" purity="4.3148657679557800e-01" nType="-99"/>
        </Node>
      </Node>
    </BinaryTree>
    <BinaryTree type="DecisionTree" boostWeight="1.0000000000000000e+00" itree="628">
      <Node pos="s" depth="0" NCoef="0" IVar="18" Cut="3.4285714626312256e+00" cType="1" res="-9.5932185649871826e-03" rms="4.0599179267883301e-01" purity="4.8723995685577393e-01" nType="0">
        <Node pos="l" depth="1" NCoef="0" IVar="0" Cut="5.5971843004226685e-01" cType="0" res="4.4496044516563416e-02" rms="3.2378023862838745e-01" purity="7.5836277008056641e-01" nType="0">
          <Node pos="l" depth="2" NCoef="0" IVar="-1" Cut="0.0000000000000000e+00" cType="1" res="2.5560318026691675e-03" rms="2.9641762375831604e-01" purity="7.6518285274505615e-01" nType="-99"/>
          <Node pos="r" depth="2" NCoef="0" IVar="-1" Cut="0.0000000000000000e+00" cType="1" res="-7.7234166674315929e-03" rms="4.2339703440666199e-01" purity="7.2238940000534058e-01" nType="-99"/>
        </Node>
        <Node pos="r" depth="1" NCoef="0" IVar="20" Cut="2.4680410385131836e+01" cType="0" res="-2.6956655085086823e-02" rms="4.2760747671127319e-01" purity="4.0020555257797241e-01" nType="0">
          <Node pos="l" depth="2" NCoef="0" IVar="-1" Cut="0.0000000000000000e+00" cType="1" res="-3.7132421857677400e-04" rms="4.2213311791419983e-01" purity="4.7779485583305359e-01" nType="-99"/>
          <Node pos="r" depth="2" NCoef="0" IVar="-1" Cut="0.0000000000000000e+00" cType="1" res="-2.2616490605287254e-04" rms="4.2751249670982361e-01" purity="3.7060347199440002e-01" nType="-99"/>
        </Node>
      </Node>
    </BinaryTree>
    <BinaryTree type="DecisionTree" boostWeight="1.0000000000000000e+00" itree="629">
      <Node pos="s" depth="0" NCoef="0" IVar="4" Cut="1.1656931638717651e+00" cType="1" res="-1.1807110859081149e-03" rms="4.0707638859748840e-01" purity="5.0110065937042236e-01" nType="0">
        <Node pos="l" depth="1" NCoef="0" IVar="0" Cut="5.6628757715225220e-01" cType="0" res="-5.0993308424949646e-02" rms="4.0090385079383850e-01" purity="7.2710740566253662e-01" nType="0">
          <Node pos="l" depth="2" NCoef="0" IVar="-1" Cut="0.0000000000000000e+00" cType="1" res="-2.1147371444385499e-04" rms="3.6420097947120667e-01" purity="7.8183680772781372e-01" nType="-99"/>
          <Node pos="r" depth="2" NCoef="0" IVar="-1" Cut="0.0000000000000000e+00" cType="1" res="-3.4117465838789940e-03" rms="4.6036180853843689e-01" purity="5.9911042451858521e-01" nType="-99"/>
        </Node>
        <Node pos="r" depth="1" NCoef="0" IVar="15" Cut="8.0000000000000000e+00" cType="1" res="8.0629531294107437e-03" rms="4.0754237771034241e-01" purity="4.5916092395782471e-01" nType="0">
          <Node pos="l" depth="2" NCoef="0" IVar="-1" Cut="0.0000000000000000e+00" cType="1" res="9.4407051801681519e-04" rms="3.8007417321205139e-01" purity="7.0198804140090942e-01" nType="-99"/>
          <Node pos="r" depth="2" NCoef="0" IVar="-1" Cut="0.0000000000000000e+00" cType="1" res="-1.5859349514357746e-04" rms="4.1280972957611084e-01" purity="4.0081942081451416e-01" nType="-99"/>
        </Node>
      </Node>
    </BinaryTree>
    <BinaryTree type="DecisionTree" boostWeight="1.0000000000000000e+00" itree="630">
      <Node pos="s" depth="0" NCoef="0" IVar="9" Cut="-5.7142858505249023e+00" cType="1" res="1.9250614568591118e-02" rms="4.0116134285926819e-01" purity="5.2033174037933350e-01" nType="0">
        <Node pos="l" depth="1" NCoef="0" IVar="9" Cut="-1.0369047164916992e+01" cType="1" res="-6.9701075553894043e-02" rms="4.2295432090759277e-01" purity="5.6861948966979980e-01" nType="0">
          <Node pos="l" depth="2" NCoef="0" IVar="-1" Cut="0.0000000000000000e+00" cType="1" res="7.4894647113978863e-03" rms="3.7553226947784424e-01" purity="8.2467329502105713e-01" nType="-99"/>
          <Node pos="r" depth="2" NCoef="0" IVar="-1" Cut="0.0000000000000000e+00" cType="1" res="-4.6821306459605694e-03" rms="4.3053007125854492e-01" purity="4.1266101598739624e-01" nType="-99"/>
        </Node>
        <Node pos="r" depth="1" NCoef="0" IVar="18" Cut="5.1428570747375488e+00" cType="1" res="2.6819651946425438e-02" rms="3.9833605289459229e-01" purity="5.1622289419174194e-01" nType="0">
          <Node pos="l" depth="2" NCoef="0" IVar="-1" Cut="0.0000000000000000e+00" cType="1" res="7.9317420022562146e-04" rms="3.8881245255470276e-01" purity="6.9765925407409668e-01" nType="-99"/>
          <Node pos="r" depth="2" NCoef="0" IVar="-1" Cut="0.0000000000000000e+00" cType="1" res="-5.0541601376608014e-04" rms="4.0518632531166077e-01" purity="3.4704259037971497e-01" nType="-99"/>
        </Node>
      </Node>
    </BinaryTree>
    <BinaryTree type="DecisionTree" boostWeight="1.0000000000000000e+00" itree="631">
      <Node pos="s" depth="0" NCoef="0" IVar="5" Cut="1.7450222969055176e+00" cType="1" res="-2.8466167859733105e-03" rms="4.0462189912796021e-01" purity="4.9552896618843079e-01" nType="0">
        <Node pos="l" depth="1" NCoef="0" IVar="20" Cut="2.6025478363037109e+01" cType="0" res="1.9705705344676971e-02" rms="3.9781785011291504e-01" purity="6.7677968740463257e-01" nType="0">
          <Node pos="l" depth="2" NCoef="0" IVar="-1" Cut="0.0000000000000000e+00" cType="1" res="1.1960063129663467e-03" rms="3.6923369765281677e-01" purity="7.4491214752197266e-01" nType="-99"/>
          <Node pos="r" depth="2" NCoef="0" IVar="-1" Cut="0.0000000000000000e+00" cType="1" res="-3.1244856654666364e-04" rms="4.0608629584312439e-01" purity="6.5254449844360352e-01" nType="-99"/>
        </Node>
        <Node pos="r" depth="1" NCoef="0" IVar="9" Cut="-1.2190476655960083e+00" cType="1" res="-2.6881571859121323e-02" rms="4.1038754582405090e-01" purity="3.0236247181892395e-01" nType="0">
          <Node pos="l" depth="2" NCoef="0" IVar="-1" Cut="0.0000000000000000e+00" cType="1" res="3.5584992729127407e-03" rms="4.5851504802703857e-01" purity="4.5361188054084778e-01" nType="-99"/>
          <Node pos="r" depth="2" NCoef="0" IVar="-1" Cut="0.0000000000000000e+00" cType="1" res="-4.8955460079014301e-04" rms="4.0527787804603577e-01" purity="2.9262304306030273e-01" nType="-99"/>
        </Node>
      </Node>
    </BinaryTree>
    <BinaryTree type="DecisionTree" boostWeight="1.0000000000000000e+00" itree="632">
      <Node pos="s" depth="0" NCoef="0" IVar="9" Cut="-1.4285714149475098e+01" cType="1" res="1.3989827129989862e-03" rms="4.0219324827194214e-01" purity="4.8839169740676880e-01" nType="0">
        <Node pos="l" depth="1" NCoef="0" IVar="-1" Cut="0.0000000000000000e+00" cType="1" res="4.2935606325045228e-04" rms="4.6541985869407654e-01" purity="6.1764794588088989e-01" nType="-99"/>
        <Node pos="r" depth="1" NCoef="0" IVar="5" Cut="8.7342929840087891e-01" cType="1" res="4.9709537997841835e-03" rms="3.9973092079162598e-01" purity="4.8487368226051331e-01" nType="0">
          <Node pos="l" depth="2" NCoef="0" IVar="-1" Cut="0.0000000000000000e+00" cType="1" res="1.9883734639734030e-03" rms="3.0797562003135681e-01" purity="8.3971619606018066e-01" nType="-99"/>
          <Node pos="r" depth="2" NCoef="0" IVar="-1" Cut="0.0000000000000000e+00" cType="1" res="-1.8933866522274911e-04" rms="4.0624624490737915e-01" purity="4.5353195071220398e-01" nType="-99"/>
        </Node>
      </Node>
    </BinaryTree>
    <BinaryTree type="DecisionTree" boostWeight="1.0000000000000000e+00" itree="633">
      <Node pos="s" depth="0" NCoef="0" IVar="9" Cut="-1.4285714626312256e+00" cType="1" res="1.0232190601527691e-02" rms="3.9707890152931213e-01" purity="4.9687352776527405e-01" nType="0">
        <Node pos="l" depth="1" NCoef="0" IVar="0" Cut="1.3100385665893555e+00" cType="0" res="5.7467728853225708e-02" rms="3.8404932618141174e-01" purity="6.5317362546920776e-01" nType="0">
          <Node pos="l" depth="2" NCoef="0" IVar="-1" Cut="0.0000000000000000e+00" cType="1" res="4.6462910249829292e-03" rms="3.4911203384399414e-01" purity="7.2406917810440063e-01" nType="-99"/>
          <Node pos="r" depth="2" NCoef="0" IVar="-1" Cut="0.0000000000000000e+00" cType="1" res="-2.0016531925648451e-03" rms="3.8322886824607849e-01" purity="6.3579523563385010e-01" nType="-99"/>
        </Node>
        <Node pos="r" depth="1" NCoef="0" IVar="9" Cut="-7.3333334922790527e-01" cType="0" res="-1.6761679435148835e-03" rms="3.9941611886024475e-01" purity="4.5746931433677673e-01" nType="0">
          <Node pos="l" depth="2" NCoef="0" IVar="-1" Cut="0.0000000000000000e+00" cType="1" res="4.2536735418252647e-04" rms="3.9117604494094849e-01" purity="4.6597304940223694e-01" nType="-99"/>
          <Node pos="r" depth="2" NCoef="0" IVar="-1" Cut="0.0000000000000000e+00" cType="1" res="-2.4260927457362413e-03" rms="4.3014645576477051e-01" purity="4.1203951835632324e-01" nType="-99"/>
        </Node>
      </Node>
    </BinaryTree>
    <BinaryTree type="DecisionTree" boostWeight="1.0000000000000000e+00" itree="634">
      <Node pos="s" depth="0" NCoef="0" IVar="0" Cut="6.6810518503189087e-01" cType="1" res="-7.3175220750272274e-03" rms="4.1080024838447571e-01" purity="5.0218522548675537e-01" nType="0">
        <Node pos="l" depth="1" NCoef="0" IVar="21" Cut="3.1904761791229248e+00" cType="0" res="-6.4856998622417450e-02" rms="4.3874922394752502e-01" purity="5.5720388889312744e-01" nType="0">
          <Node pos="l" depth="2" NCoef="0" IVar="-1" Cut="0.0000000000000000e+00" cType="1" res="1.4459487982094288e-02" rms="3.7560978531837463e-01" purity="7.5017029047012329e-01" nType="-99"/>
          <Node pos="r" depth="2" NCoef="0" IVar="-1" Cut="0.0000000000000000e+00" cType="1" res="-3.0849431641399860e-03" rms="4.3403598666191101e-01" purity="5.2923345565795898e-01" nType="-99"/>
        </Node>
        <Node pos="r" depth="1" NCoef="0" IVar="21" Cut="3.1904761791229248e+00" cType="1" res="1.4699882594868541e-03" rms="4.0564489364624023e-01" purity="4.9378269910812378e-01" nType="0">
          <Node pos="l" depth="2" NCoef="0" IVar="-1" Cut="0.0000000000000000e+00" cType="1" res="6.6512252669781446e-04" rms="3.8009515404701233e-01" purity="6.2222307920455933e-01" nType="-99"/>
          <Node pos="r" depth="2" NCoef="0" IVar="-1" Cut="0.0000000000000000e+00" cType="1" res="-5.8552325936034322e-04" rms="4.2539390921592712e-01" purity="3.7363666296005249e-01" nType="-99"/>
        </Node>
      </Node>
    </BinaryTree>
    <BinaryTree type="DecisionTree" boostWeight="1.0000000000000000e+00" itree="635">
      <Node pos="s" depth="0" NCoef="0" IVar="6" Cut="1.5497174263000488e+00" cType="1" res="1.0008499957621098e-02" rms="4.1311049461364746e-01" purity="5.1654720306396484e-01" nType="0">
        <Node pos="l" depth="1" NCoef="0" IVar="3" Cut="3.8571429252624512e+00" cType="1" res="-1.2471440248191357e-02" rms="4.0913110971450806e-01" purity="6.4888298511505127e-01" nType="0">
          <Node pos="l" depth="2" NCoef="0" IVar="-1" Cut="0.0000000000000000e+00" cType="1" res="7.2690896922722459e-04" rms="3.9607056975364685e-01" purity="6.7677706480026245e-01" nType="-99"/>
          <Node pos="r" depth="2" NCoef="0" IVar="-1" Cut="0.0000000000000000e+00" cType="1" res="-3.5164039582014084e-03" rms="4.3743348121643066e-01" purity="5.6496155261993408e-01" nType="-99"/>
        </Node>
        <Node pos="r" depth="1" NCoef="0" IVar="15" Cut="4.8571429252624512e+00" cType="1" res="2.5493646040558815e-02" rms="4.1512206196784973e-01" purity="4.2538863420486450e-01" nType="0">
          <Node pos="l" depth="2" NCoef="0" IVar="-1" Cut="0.0000000000000000e+00" cType="1" res="-6.1341263353824615e-03" rms="4.8102477192878723e-01" purity="4.4842025637626648e-01" nType="-99"/>
          <Node pos="r" depth="2" NCoef="0" IVar="-1" Cut="0.0000000000000000e+00" cType="1" res="4.0617986815050244e-04" rms="4.1012883186340332e-01" purity="4.2423155903816223e-01" nType="-99"/>
        </Node>
      </Node>
    </BinaryTree>
    <BinaryTree type="DecisionTree" boostWeight="1.0000000000000000e+00" itree="636">
      <Node pos="s" depth="0" NCoef="0" IVar="9" Cut="-2.1428571701049805e+01" cType="1" res="-4.5914389193058014e-03" rms="4.1064220666885376e-01" purity="4.9788931012153625e-01" nType="0">
        <Node pos="l" depth="1" NCoef="0" IVar="-1" Cut="0.0000000000000000e+00" cType="1" res="-4.1442159563302994e-03" rms="4.3433806300163269e-01" purity="5.0337177515029907e-01" nType="-99"/>
        <Node pos="r" depth="1" NCoef="0" IVar="18" Cut="1.2857142686843872e+00" cType="1" res="-8.2813302287831903e-04" rms="4.0913322567939758e-01" purity="4.9780416488647461e-01" nType="0">
          <Node pos="l" depth="2" NCoef="0" IVar="-1" Cut="0.0000000000000000e+00" cType="1" res="-2.5557756889611483e-03" rms="4.3814110755920410e-01" purity="5.8657044172286987e-01" nType="-99"/>
          <Node pos="r" depth="2" NCoef="0" IVar="-1" Cut="0.0000000000000000e+00" cType="1" res="5.8996753068640828e-05" rms="4.0646228194236755e-01" purity="4.9212685227394104e-01" nType="-99"/>
        </Node>
      </Node>
    </BinaryTree>
    <BinaryTree type="DecisionTree" boostWeight="1.0000000000000000e+00" itree="637">
      <Node pos="s" depth="0" NCoef="0" IVar="5" Cut="1.7565259933471680e+00" cType="1" res="7.0242118090391159e-04" rms="4.1563117504119873e-01" purity="5.1270288228988647e-01" nType="0">
        <Node pos="l" depth="1" NCoef="0" IVar="3" Cut="3.5238094329833984e+00" cType="1" res="-1.6545169055461884e-02" rms="4.1355282068252563e-01" purity="6.3877069950103760e-01" nType="0">
          <Node pos="l" depth="2" NCoef="0" IVar="-1" Cut="0.0000000000000000e+00" cType="1" res="1.2346602743491530e-03" rms="3.9582324028015137e-01" purity="6.8051534891128540e-01" nType="-99"/>
          <Node pos="r" depth="2" NCoef="0" IVar="-1" Cut="0.0000000000000000e+00" cType="1" res="-1.8112676916643977e-03" rms="4.4313412904739380e-01" purity="5.5597507953643799e-01" nType="-99"/>
        </Node>
        <Node pos="r" depth="1" NCoef="0" IVar="12" Cut="1.4285714924335480e-01" cType="0" res="2.2242138162255287e-02" rms="4.1721218824386597e-01" purity="3.5526269674301147e-01" nType="0">
          <Node pos="l" depth="2" NCoef="0" IVar="-1" Cut="0.0000000000000000e+00" cType="1" res="4.4861502829007804e-04" rms="4.2133173346519470e-01" purity="3.7270399928092957e-01" nType="-99"/>
          <Node pos="r" depth="2" NCoef="0" IVar="-1" Cut="0.0000000000000000e+00" cType="1" res="-3.5487366840243340e-03" rms="3.7211009860038757e-01" purity="2.2777967154979706e-01" nType="-99"/>
        </Node>
      </Node>
    </BinaryTree>
    <BinaryTree type="DecisionTree" boostWeight="1.0000000000000000e+00" itree="638">
      <Node pos="s" depth="0" NCoef="0" IVar="1" Cut="8.4285717010498047e+00" cType="0" res="-1.4065011404454708e-02" rms="4.0585333108901978e-01" purity="4.8152923583984375e-01" nType="0">
        <Node pos="l" depth="1" NCoef="0" IVar="18" Cut="4.0476188659667969e+00" cType="0" res="1.0021105408668518e-01" rms="4.3829795718193054e-01" purity="5.7662928104400635e-01" nType="0">
          <Node pos="l" depth="2" NCoef="0" IVar="-1" Cut="0.0000000000000000e+00" cType="1" res="1.0837224312126637e-02" rms="4.5763653516769409e-01" purity="6.2731963396072388e-01" nType="-99"/>
          <Node pos="r" depth="2" NCoef="0" IVar="-1" Cut="0.0000000000000000e+00" cType="1" res="-1.8141221953555942e-03" rms="4.0395227074623108e-01" purity="5.3651189804077148e-01" nType="-99"/>
        </Node>
        <Node pos="r" depth="1" NCoef="0" IVar="2" Cut="2.2857143878936768e+00" cType="1" res="-1.8161263316869736e-02" rms="4.0404248237609863e-01" purity="4.7812032699584961e-01" nType="0">
          <Node pos="l" depth="2" NCoef="0" IVar="-1" Cut="0.0000000000000000e+00" cType="1" res="1.0961779626086354e-03" rms="3.9438641071319580e-01" purity="5.6011241674423218e-01" nType="-99"/>
          <Node pos="r" depth="2" NCoef="0" IVar="-1" Cut="0.0000000000000000e+00" cType="1" res="-1.7440065275877714e-03" rms="4.1477462649345398e-01" purity="3.6719503998756409e-01" nType="-99"/>
        </Node>
      </Node>
    </BinaryTree>
    <BinaryTree type="DecisionTree" boostWeight="1.0000000000000000e+00" itree="639">
      <Node pos="s" depth="0" NCoef="0" IVar="9" Cut="-7.1428570747375488e+00" cType="1" res="-4.2309951968491077e-03" rms="4.0471524000167847e-01" purity="4.9405586719512939e-01" nType="0">
        <Node pos="l" depth="1" NCoef="0" IVar="18" Cut="3.3333332538604736e+00" cType="1" res="-8.6673296988010406e-02" rms="4.2224696278572083e-01" purity="5.6515485048294067e-01" nType="0">
          <Node pos="l" depth="2" NCoef="0" IVar="-1" Cut="0.0000000000000000e+00" cType="1" res="-8.5355257615447044e-03" rms="3.9285016059875488e-01" purity="5.6734627485275269e-01" nType="-99"/>
          <Node pos="r" depth="2" NCoef="0" IVar="-1" Cut="0.0000000000000000e+00" cType="1" res="3.1315325759351254e-03" rms="4.4860616326332092e-01" purity="5.6111305952072144e-01" nType="-99"/>
        </Node>
        <Node pos="r" depth="1" NCoef="0" IVar="18" Cut="5.2380952835083008e+00" cType="1" res="1.0048152180388570e-03" rms="4.0300694108009338e-01" purity="4.8954045772552490e-01" nType="0">
          <Node pos="l" depth="2" NCoef="0" IVar="-1" Cut="0.0000000000000000e+00" cType="1" res="8.9813157683238387e-04" rms="3.9734676480293274e-01" purity="6.6953986883163452e-01" nType="-99"/>
          <Node pos="r" depth="2" NCoef="0" IVar="-1" Cut="0.0000000000000000e+00" cType="1" res="-5.6183373089879751e-04" rms="4.0675359964370728e-01" purity="3.2526972889900208e-01" nType="-99"/>
        </Node>
      </Node>
    </BinaryTree>
    <BinaryTree type="DecisionTree" boostWeight="1.0000000000000000e+00" itree="640">
      <Node pos="s" depth="0" NCoef="0" IVar="7" Cut="-1.1880951881408691e+01" cType="1" res="-5.4160365834832191e-03" rms="4.0480035543441772e-01" purity="4.9166724085807800e-01" nType="0">
        <Node pos="l" depth="1" NCoef="0" IVar="-1" Cut="0.0000000000000000e+00" cType="1" res="4.1351593099534512e-03" rms="4.3985301256179810e-01" purity="6.2713098526000977e-01" nType="-99"/>
        <Node pos="r" depth="1" NCoef="0" IVar="5" Cut="8.7295722961425781e-01" cType="1" res="-1.5867428155615926e-03" rms="4.0314862132072449e-01" purity="4.8847967386245728e-01" nType="0">
          <Node pos="l" depth="2" NCoef="0" IVar="-1" Cut="0.0000000000000000e+00" cType="1" res="1.5324566047638655e-03" rms="2.8278473019599915e-01" purity="8.4894108772277832e-01" nType="-99"/>
          <Node pos="r" depth="2" NCoef="0" IVar="-1" Cut="0.0000000000000000e+00" cType="1" res="-1.8219959747511894e-04" rms="4.1124150156974792e-01" purity="4.5657399296760559e-01" nType="-99"/>
        </Node>
      </Node>
    </BinaryTree>
    <BinaryTree type="DecisionTree" boostWeight="1.0000000000000000e+00" itree="641">
      <Node pos="s" depth="0" NCoef="0" IVar="3" Cut="5.7142858505249023e+00" cType="0" res="-2.3906563874334097e-03" rms="4.0660539269447327e-01" purity="4.9225306510925293e-01" nType="0">
        <Node pos="l" depth="1" NCoef="0" IVar="15" Cut="1.1000000000000000e+01" cType="0" res="1.7662256956100464e-01" rms="3.9456662535667419e-01" purity="7.4821412563323975e-01" nType="0">
          <Node pos="l" depth="2" NCoef="0" IVar="-1" Cut="0.0000000000000000e+00" cType="1" res="4.2221462354063988e-03" rms="3.5809397697448730e-01" purity="7.6882910728454590e-01" nType="-99"/>
          <Node pos="r" depth="2" NCoef="0" IVar="-1" Cut="0.0000000000000000e+00" cType="1" res="-7.6058361446484923e-04" rms="3.9657965302467346e-01" purity="7.3469460010528564e-01" nType="-99"/>
        </Node>
        <Node pos="r" depth="1" NCoef="0" IVar="9" Cut="-1.0000000000000000e+01" cType="1" res="-9.1807106509804726e-03" rms="4.0550237894058228e-01" purity="4.8254433274269104e-01" nType="0">
          <Node pos="l" depth="2" NCoef="0" IVar="-1" Cut="0.0000000000000000e+00" cType="1" res="8.7689338251948357e-03" rms="3.1675693392753601e-01" purity="8.8044404983520508e-01" nType="-99"/>
          <Node pos="r" depth="2" NCoef="0" IVar="-1" Cut="0.0000000000000000e+00" cType="1" res="-2.8268957976251841e-04" rms="4.0713545680046082e-01" purity="4.7064036130905151e-01" nType="-99"/>
        </Node>
      </Node>
    </BinaryTree>
    <BinaryTree type="DecisionTree" boostWeight="1.0000000000000000e+00" itree="642">
      <Node pos="s" depth="0" NCoef="0" IVar="12" Cut="1.4285714924335480e-01" cType="1" res="-8.2416547229513526e-05" rms="4.1367653012275696e-01" purity="5.1162415742874146e-01" nType="0">
        <Node pos="l" depth="1" NCoef="0" IVar="20" Cut="2.1800214767456055e+01" cType="0" res="-6.5228834748268127e-02" rms="4.0603730082511902e-01" purity="5.4674512147903442e-01" nType="0">
          <Node pos="l" depth="2" NCoef="0" IVar="-1" Cut="0.0000000000000000e+00" cType="1" res="1.4932751655578613e-03" rms="3.5495769977569580e-01" purity="6.6791969537734985e-01" nType="-99"/>
          <Node pos="r" depth="2" NCoef="0" IVar="-1" Cut="0.0000000000000000e+00" cType="1" res="-3.5004718229174614e-03" rms="4.2046251893043518e-01" purity="4.9399062991142273e-01" nType="-99"/>
        </Node>
        <Node pos="r" depth="1" NCoef="0" IVar="20" Cut="1.5763013839721680e+01" cType="1" res="1.6778036952018738e-02" rms="4.1396406292915344e-01" purity="5.0253456830978394e-01" nType="0">
          <Node pos="l" depth="2" NCoef="0" IVar="-1" Cut="0.0000000000000000e+00" cType="1" res="5.1037990488111973e-04" rms="4.2019975185394287e-01" purity="5.9701234102249146e-01" nType="-99"/>
          <Node pos="r" depth="2" NCoef="0" IVar="-1" Cut="0.0000000000000000e+00" cType="1" res="1.3445966760627925e-04" rms="4.0735495090484619e-01" purity="4.3912866711616516e-01" nType="-99"/>
        </Node>
      </Node>
    </BinaryTree>
    <BinaryTree type="DecisionTree" boostWeight="1.0000000000000000e+00" itree="643">
      <Node pos="s" depth="0" NCoef="0" IVar="18" Cut="5.1428570747375488e+00" cType="1" res="1.0034438222646713e-02" rms="4.0419438481330872e-01" purity="5.1603674888610840e-01" nType="0">
        <Node pos="l" depth="1" NCoef="0" IVar="11" Cut="1.6690111160278320e+00" cType="1" res="3.6813210695981979e-02" rms="3.9796710014343262e-01" purity="6.9634932279586792e-01" nType="0">
          <Node pos="l" depth="2" NCoef="0" IVar="-1" Cut="0.0000000000000000e+00" cType="1" res="5.5187396355904639e-05" rms="3.9483031630516052e-01" purity="7.2984486818313599e-01" nType="-99"/>
          <Node pos="r" depth="2" NCoef="0" IVar="-1" Cut="0.0000000000000000e+00" cType="1" res="2.0575171802192926e-03" rms="4.0864104032516479e-01" purity="5.0724732875823975e-01" nType="-99"/>
        </Node>
        <Node pos="r" depth="1" NCoef="0" IVar="20" Cut="1.2848010063171387e+01" cType="1" res="-1.6869237646460533e-02" rms="4.0859201550483704e-01" purity="3.3488312363624573e-01" nType="0">
          <Node pos="l" depth="2" NCoef="0" IVar="-1" Cut="0.0000000000000000e+00" cType="1" res="1.0268632322549820e-03" rms="4.4805514812469482e-01" purity="4.6747085452079773e-01" nType="-99"/>
          <Node pos="r" depth="2" NCoef="0" IVar="-1" Cut="0.0000000000000000e+00" cType="1" res="-1.2597510358318686e-03" rms="3.8958096504211426e-01" purity="2.8337979316711426e-01" nType="-99"/>
        </Node>
      </Node>
    </BinaryTree>
    <BinaryTree type="DecisionTree" boostWeight="1.0000000000000000e+00" itree="644">
      <Node pos="s" depth="0" NCoef="0" IVar="20" Cut="1.4332000732421875e+01" cType="1" res="4.3334029614925385e-03" rms="3.9526346325874329e-01" purity="4.9399739503860474e-01" nType="0">
        <Node pos="l" depth="1" NCoef="0" IVar="15" Cut="1.7428571701049805e+01" cType="1" res="3.6517318338155746e-02" rms="4.0680459141731262e-01" purity="5.8633691072463989e-01" nType="0">
          <Node pos="l" depth="2" NCoef="0" IVar="-1" Cut="0.0000000000000000e+00" cType="1" res="2.3958201927598566e-04" rms="4.0209737420082092e-01" purity="5.9354859590530396e-01" nType="-99"/>
          <Node pos="r" depth="2" NCoef="0" IVar="-1" Cut="0.0000000000000000e+00" cType="1" res="6.5108062699437141e-03" rms="4.1543757915496826e-01" purity="5.5473566055297852e-01" nType="-99"/>
        </Node>
        <Node pos="r" depth="1" NCoef="0" IVar="5" Cut="4.7136941552162170e-01" cType="1" res="-1.4225787483155727e-02" rms="3.8723823428153992e-01" purity="4.4074884057044983e-01" nType="0">
          <Node pos="l" depth="2" NCoef="0" IVar="-1" Cut="0.0000000000000000e+00" cType="1" res="-1.2588949874043465e-02" rms="4.5372661948204041e-01" purity="5.3045421838760376e-01" nType="-99"/>
          <Node pos="r" depth="2" NCoef="0" IVar="-1" Cut="0.0000000000000000e+00" cType="1" res="-7.6795381028205156e-04" rms="3.8384446501731873e-01" purity="4.3841081857681274e-01" nType="-99"/>
        </Node>
      </Node>
    </BinaryTree>
    <BinaryTree type="DecisionTree" boostWeight="1.0000000000000000e+00" itree="645">
      <Node pos="s" depth="0" NCoef="0" IVar="8" Cut="4.8023810386657715e+00" cType="0" res="1.2588831596076488e-03" rms="4.0337356925010681e-01" purity="4.9579378962516785e-01" nType="0">
        <Node pos="l" depth="1" NCoef="0" IVar="-1" Cut="0.0000000000000000e+00" cType="1" res="9.6721167210489511e-04" rms="4.4031149148941040e-01" purity="6.9319844245910645e-01" nType="-99"/>
        <Node pos="r" depth="1" NCoef="0" IVar="0" Cut="2.0043141841888428e+00" cType="1" res="-2.6372815482318401e-03" rms="4.0163242816925049e-01" purity="4.9085512757301331e-01" nType="0">
          <Node pos="l" depth="2" NCoef="0" IVar="-1" Cut="0.0000000000000000e+00" cType="1" res="-1.2404588051140308e-04" rms="4.1070991754531860e-01" purity="6.0029208660125732e-01" nType="-99"/>
          <Node pos="r" depth="2" NCoef="0" IVar="-1" Cut="0.0000000000000000e+00" cType="1" res="-6.5487300162203610e-05" rms="3.7740895152091980e-01" purity="2.3569791018962860e-01" nType="-99"/>
        </Node>
      </Node>
    </BinaryTree>
    <BinaryTree type="DecisionTree" boostWeight="1.0000000000000000e+00" itree="646">
      <Node pos="s" depth="0" NCoef="0" IVar="0" Cut="2.8754761219024658e+00" cType="1" res="7.8916903585195541e-03" rms="4.0368911623954773e-01" purity="5.0333249568939209e-01" nType="0">
        <Node pos="l" depth="1" NCoef="0" IVar="0" Cut="2.3214421272277832e+00" cType="1" res="1.4666659757494926e-02" rms="4.1656196117401123e-01" purity="5.5211687088012695e-01" nType="0">
          <Node pos="l" depth="2" NCoef="0" IVar="-1" Cut="0.0000000000000000e+00" cType="1" res="-1.4848035061731935e-04" rms="4.1387218236923218e-01" purity="5.6483489274978638e-01" nType="-99"/>
          <Node pos="r" depth="2" NCoef="0" IVar="-1" Cut="0.0000000000000000e+00" cType="1" res="2.0467778667807579e-03" rms="4.2993825674057007e-01" purity="4.1791141033172607e-01" nType="-99"/>
        </Node>
        <Node pos="r" depth="1" NCoef="0" IVar="4" Cut="3.2702267169952393e+00" cType="1" res="-4.7830566763877869e-02" rms="2.6951420307159424e-01" purity="1.0209432244300842e-01" nType="0">
          <Node pos="l" depth="2" NCoef="0" IVar="-1" Cut="0.0000000000000000e+00" cType="1" res="2.1875342354178429e-03" rms="2.9450306296348572e-01" purity="1.5340806543827057e-01" nType="-99"/>
          <Node pos="r" depth="2" NCoef="0" IVar="-1" Cut="0.0000000000000000e+00" cType="1" res="-4.3104453943669796e-03" rms="2.4969451129436493e-01" purity="6.9315068423748016e-02" nType="-99"/>
        </Node>
      </Node>
    </BinaryTree>
    <BinaryTree type="DecisionTree" boostWeight="1.0000000000000000e+00" itree="647">
      <Node pos="s" depth="0" NCoef="0" IVar="7" Cut="2.6785714626312256e+00" cType="1" res="-1.5420308336615562e-03" rms="4.0471994876861572e-01" purity="4.9601858854293823e-01" nType="0">
        <Node pos="l" depth="1" NCoef="0" IVar="18" Cut="5.1428570747375488e+00" cType="1" res="2.9695972334593534e-03" rms="4.0211397409439087e-01" purity="5.0308072566986084e-01" nType="0">
          <Node pos="l" depth="2" NCoef="0" IVar="-1" Cut="0.0000000000000000e+00" cType="1" res="7.5848458800464869e-04" rms="3.9939430356025696e-01" purity="6.7920750379562378e-01" nType="-99"/>
          <Node pos="r" depth="2" NCoef="0" IVar="-1" Cut="0.0000000000000000e+00" cType="1" res="-6.3024426344782114e-04" rms="4.0368112921714783e-01" purity="3.2897126674652100e-01" nType="-99"/>
        </Node>
        <Node pos="r" depth="1" NCoef="0" IVar="21" Cut="1.3333333730697632e+00" cType="0" res="-7.5309433043003082e-02" rms="4.3863689899444580e-01" purity="3.8054972887039185e-01" nType="0">
          <Node pos="l" depth="2" NCoef="0" IVar="-1" Cut="0.0000000000000000e+00" cType="1" res="4.7035543248057365e-03" rms="3.9008074998855591e-01" purity="5.0930923223495483e-01" nType="-99"/>
          <Node pos="r" depth="2" NCoef="0" IVar="-1" Cut="0.0000000000000000e+00" cType="1" res="-3.4434404224157333e-03" rms="4.4269832968711853e-01" purity="3.0107608437538147e-01" nType="-99"/>
        </Node>
      </Node>
    </BinaryTree>
    <BinaryTree type="DecisionTree" boostWeight="1.0000000000000000e+00" itree="648">
      <Node pos="s" depth="0" NCoef="0" IVar="4" Cut="1.1673638820648193e+00" cType="1" res="-2.3410536814481020e-03" rms="4.0984216332435608e-01" purity="4.9826166033744812e-01" nType="0">
        <Node pos="l" depth="1" NCoef="0" IVar="6" Cut="1.0564111471176147e+00" cType="0" res="-5.8928653597831726e-02" rms="3.9919826388359070e-01" purity="7.1024918556213379e-01" nType="0">
          <Node pos="l" depth="2" NCoef="0" IVar="-1" Cut="0.0000000000000000e+00" cType="1" res="1.1809784919023514e-02" rms="2.6231101155281067e-01" purity="9.2693030834197998e-01" nType="-99"/>
          <Node pos="r" depth="2" NCoef="0" IVar="-1" Cut="0.0000000000000000e+00" cType="1" res="-2.9390731360763311e-03" rms="4.0914425253868103e-01" purity="6.7294746637344360e-01" nType="-99"/>
        </Node>
        <Node pos="r" depth="1" NCoef="0" IVar="12" Cut="1.4285714924335480e-01" cType="1" res="8.3164358511567116e-03" rms="4.1094493865966797e-01" purity="4.5833677053451538e-01" nType="0">
          <Node pos="l" depth="2" NCoef="0" IVar="-1" Cut="0.0000000000000000e+00" cType="1" res="-2.3461156524717808e-03" rms="4.0260249376296997e-01" purity="4.6570652723312378e-01" nType="-99"/>
          <Node pos="r" depth="2" NCoef="0" IVar="-1" Cut="0.0000000000000000e+00" cType="1" res="4.2853679042309523e-04" rms="4.1171327233314514e-01" purity="4.5700341463088989e-01" nType="-99"/>
        </Node>
      </Node>
    </BinaryTree>
    <BinaryTree type="DecisionTree" boostWeight="1.0000000000000000e+00" itree="649">
      <Node pos="s" depth="0" NCoef="0" IVar="20" Cut="3.5085273742675781e+01" cType="1" res="9.5982402563095093e-03" rms="4.0539112687110901e-01" purity="5.1241654157638550e-01" nType="0">
        <Node pos="l" depth="1" NCoef="0" IVar="1" Cut="6.6666665077209473e+00" cType="1" res="2.1159466356039047e-02" rms="4.0038537979125977e-01" purity="5.1255029439926147e-01" nType="0">
          <Node pos="l" depth="2" NCoef="0" IVar="-1" Cut="0.0000000000000000e+00" cType="1" res="1.8467583868186921e-04" rms="3.8943690061569214e-01" purity="5.2984589338302612e-01" nType="-99"/>
          <Node pos="r" depth="2" NCoef="0" IVar="-1" Cut="0.0000000000000000e+00" cType="1" res="-4.6033554826863110e-04" rms="4.3807154893875122e-01" purity="4.4355952739715576e-01" nType="-99"/>
        </Node>
        <Node pos="r" depth="1" NCoef="0" IVar="15" Cut="1.0000000000000000e+01" cType="1" res="-4.6749148517847061e-02" rms="4.2446926236152649e-01" purity="5.1176446676254272e-01" nType="0">
          <Node pos="l" depth="2" NCoef="0" IVar="-1" Cut="0.0000000000000000e+00" cType="1" res="-1.2450804933905602e-03" rms="3.6725091934204102e-01" purity="7.2941178083419800e-01" nType="-99"/>
          <Node pos="r" depth="2" NCoef="0" IVar="-1" Cut="0.0000000000000000e+00" cType="1" res="-3.8459183997474611e-04" rms="4.4786301255226135e-01" purity="3.9279389381408691e-01" nType="-99"/>
        </Node>
      </Node>
    </BinaryTree>
    <BinaryTree type="DecisionTree" boostWeight="1.0000000000000000e+00" itree="650">
      <Node pos="s" depth="0" NCoef="0" IVar="4" Cut="1.7955514192581177e+00" cType="1" res="-1.4327008277177811e-02" rms="4.0727722644805908e-01" purity="4.8283711075782776e-01" nType="0">
        <Node pos="l" depth="1" NCoef="0" IVar="4" Cut="1.4651530981063843e+00" cType="0" res="1.3191690668463707e-02" rms="3.8936936855316162e-01" purity="7.1681421995162964e-01" nType="0">
          <Node pos="l" depth="2" NCoef="0" IVar="-1" Cut="0.0000000000000000e+00" cType="1" res="2.9633145313709974e-03" rms="3.7363627552986145e-01" purity="7.4087464809417725e-01" nType="-99"/>
          <Node pos="r" depth="2" NCoef="0" IVar="-1" Cut="0.0000000000000000e+00" cType="1" res="-1.2703825486823916e-03" rms="3.9119735360145569e-01" purity="7.0392781496047974e-01" nType="-99"/>
        </Node>
        <Node pos="r" depth="1" NCoef="0" IVar="4" Cut="2.0637710094451904e+00" cType="1" res="-3.2804202288389206e-02" rms="4.1785618662834167e-01" purity="3.2573518157005310e-01" nType="0">
          <Node pos="l" depth="2" NCoef="0" IVar="-1" Cut="0.0000000000000000e+00" cType="1" res="-7.1782420855015516e-04" rms="4.5467820763587952e-01" purity="4.0350407361984253e-01" nType="-99"/>
          <Node pos="r" depth="2" NCoef="0" IVar="-1" Cut="0.0000000000000000e+00" cType="1" res="-1.4637065760325640e-04" rms="3.9727953076362610e-01" purity="2.8858250379562378e-01" nType="-99"/>
        </Node>
      </Node>
    </BinaryTree>
    <BinaryTree type="DecisionTree" boostWeight="1.0000000000000000e+00" itree="651">
      <Node pos="s" depth="0" NCoef="0" IVar="6" Cut="4.4937068223953247e-01" cType="0" res="9.0858869953081012e-04" rms="4.1024672985076904e-01" purity="5.0781881809234619e-01" nType="0">
        <Node pos="l" depth="1" NCoef="0" IVar="6" Cut="1.2446522712707520e+00" cType="1" res="5.3660161793231964e-03" rms="4.0771475434303284e-01" purity="5.0900745391845703e-01" nType="0">
          <Node pos="l" depth="2" NCoef="0" IVar="-1" Cut="0.0000000000000000e+00" cType="1" res="-2.3106718435883522e-04" rms="3.7035772204399109e-01" purity="7.3099428415298462e-01" nType="-99"/>
          <Node pos="r" depth="2" NCoef="0" IVar="-1" Cut="0.0000000000000000e+00" cType="1" res="3.9249724068213254e-05" rms="4.1752913594245911e-01" purity="4.4188022613525391e-01" nType="-99"/>
        </Node>
        <Node pos="r" depth="1" NCoef="0" IVar="-1" Cut="0.0000000000000000e+00" cType="1" res="-4.5972238294780254e-03" rms="4.7029843926429749e-01" purity="4.4437554478645325e-01" nType="-99"/>
      </Node>
    </BinaryTree>
    <BinaryTree type="DecisionTree" boostWeight="1.0000000000000000e+00" itree="652">
      <Node pos="s" depth="0" NCoef="0" IVar="21" Cut="2.3333332538604736e+00" cType="1" res="8.8209621608257294e-03" rms="4.0278789401054382e-01" purity="5.0505185127258301e-01" nType="0">
        <Node pos="l" depth="1" NCoef="0" IVar="11" Cut="2.0974164009094238e+00" cType="1" res="3.5594515502452850e-02" rms="3.9935034513473511e-01" purity="6.1251604557037354e-01" nType="0">
          <Node pos="l" depth="2" NCoef="0" IVar="-1" Cut="0.0000000000000000e+00" cType="1" res="3.3408351009711623e-04" rms="3.9345073699951172e-01" purity="6.7141121625900269e-01" nType="-99"/>
          <Node pos="r" depth="2" NCoef="0" IVar="-1" Cut="0.0000000000000000e+00" cType="1" res="-2.9421320650726557e-03" rms="4.1674888134002686e-01" purity="2.6821267604827881e-01" nType="-99"/>
        </Node>
        <Node pos="r" depth="1" NCoef="0" IVar="0" Cut="8.9080607891082764e-01" cType="1" res="-1.3523318804800510e-02" rms="4.0427938103675842e-01" purity="4.1536593437194824e-01" nType="0">
          <Node pos="l" depth="2" NCoef="0" IVar="-1" Cut="0.0000000000000000e+00" cType="1" res="2.5902444031089544e-03" rms="3.8054046034812927e-01" purity="5.6282401084899902e-01" nType="-99"/>
          <Node pos="r" depth="2" NCoef="0" IVar="-1" Cut="0.0000000000000000e+00" cType="1" res="-2.0187627524137497e-04" rms="4.0644165873527527e-01" purity="3.9658796787261963e-01" nType="-99"/>
        </Node>
      </Node>
    </BinaryTree>
    <BinaryTree type="DecisionTree" boostWeight="1.0000000000000000e+00" itree="653">
      <Node pos="s" depth="0" NCoef="0" IVar="5" Cut="1.0906385183334351e+00" cType="1" res="-4.0530049591325223e-04" rms="4.1429197788238525e-01" purity="5.1114195585250854e-01" nType="0">
        <Node pos="l" depth="1" NCoef="0" IVar="4" Cut="1.4481830596923828e+00" cType="1" res="4.3060660362243652e-02" rms="3.7621650099754333e-01" purity="7.7529692649841309e-01" nType="0">
          <Node pos="l" depth="2" NCoef="0" IVar="-1" Cut="0.0000000000000000e+00" cType="1" res="-2.4405352305620909e-03" rms="3.7783408164978027e-01" purity="7.8412234783172607e-01" nType="-99"/>
          <Node pos="r" depth="2" NCoef="0" IVar="-1" Cut="0.0000000000000000e+00" cType="1" res="3.8068243302404881e-03" rms="3.5156315565109253e-01" purity="7.5284320116043091e-01" nType="-99"/>
        </Node>
        <Node pos="r" depth="1" NCoef="0" IVar="15" Cut="4.8571429252624512e+00" cType="1" res="-1.2625604867935181e-02" rms="4.2357945442199707e-01" purity="4.3687561154365540e-01" nType="0">
          <Node pos="l" depth="2" NCoef="0" IVar="-1" Cut="0.0000000000000000e+00" cType="1" res="-2.9910875018686056e-03" rms="4.4683912396430969e-01" purity="5.1287347078323364e-01" nType="-99"/>
          <Node pos="r" depth="2" NCoef="0" IVar="-1" Cut="0.0000000000000000e+00" cType="1" res="9.2780115664936602e-05" rms="4.2170977592468262e-01" purity="4.3237578868865967e-01" nType="-99"/>
        </Node>
      </Node>
    </BinaryTree>
    <BinaryTree type="DecisionTree" boostWeight="1.0000000000000000e+00" itree="654">
      <Node pos="s" depth="0" NCoef="0" IVar="9" Cut="-7.1428570747375488e+00" cType="1" res="-1.6669752076268196e-02" rms="4.1632381081581116e-01" purity="4.8699998855590820e-01" nType="0">
        <Node pos="l" depth="1" NCoef="0" IVar="9" Cut="-9.3261909484863281e+00" cType="1" res="-1.6355264186859131e-01" rms="4.7355210781097412e-01" purity="5.3051710128784180e-01" nType="0">
          <Node pos="l" depth="2" NCoef="0" IVar="-1" Cut="0.0000000000000000e+00" cType="1" res="2.1832038182765245e-03" rms="4.4746708869934082e-01" purity="6.8356323242187500e-01" nType="-99"/>
          <Node pos="r" depth="2" NCoef="0" IVar="-1" Cut="0.0000000000000000e+00" cType="1" res="-6.7381691187620163e-03" rms="4.6620514988899231e-01" purity="2.9952538013458252e-01" nType="-99"/>
        </Node>
        <Node pos="r" depth="1" NCoef="0" IVar="6" Cut="6.9474548101425171e-01" cType="1" res="-6.5111550502479076e-03" rms="4.1013178229331970e-01" purity="4.8399028182029724e-01" nType="0">
          <Node pos="l" depth="2" NCoef="0" IVar="-1" Cut="0.0000000000000000e+00" cType="1" res="3.9018283132463694e-03" rms="3.1589564681053162e-01" purity="8.7549340724945068e-01" nType="-99"/>
          <Node pos="r" depth="2" NCoef="0" IVar="-1" Cut="0.0000000000000000e+00" cType="1" res="-7.8095708886394277e-06" rms="4.1111001372337341e-01" purity="4.7553309798240662e-01" nType="-99"/>
        </Node>
      </Node>
    </BinaryTree>
    <BinaryTree type="DecisionTree" boostWeight="1.0000000000000000e+00" itree="655">
      <Node pos="s" depth="0" NCoef="0" IVar="15" Cut="4.8571429252624512e+00" cType="1" res="1.2589794583618641e-02" rms="4.1071957349777222e-01" purity="5.2628707885742188e-01" nType="0">
        <Node pos="l" depth="1" NCoef="0" IVar="7" Cut="-1.1809518337249756e+00" cType="1" res="-6.2257543206214905e-02" rms="4.1724678874015808e-01" purity="6.4281606674194336e-01" nType="0">
          <Node pos="l" depth="2" NCoef="0" IVar="-1" Cut="0.0000000000000000e+00" cType="1" res="6.7144581116735935e-03" rms="2.4492360651493073e-01" purity="8.2782852649688721e-01" nType="-99"/>
          <Node pos="r" depth="2" NCoef="0" IVar="-1" Cut="0.0000000000000000e+00" cType="1" res="-5.8434214442968369e-03" rms="4.5596235990524292e-01" purity="5.5800098180770874e-01" nType="-99"/>
        </Node>
        <Node pos="r" depth="1" NCoef="0" IVar="0" Cut="4.4540303945541382e-01" cType="1" res="1.9299224019050598e-02" rms="4.0946176648139954e-01" purity="5.1584124565124512e-01" nType="0">
          <Node pos="l" depth="2" NCoef="0" IVar="-1" Cut="0.0000000000000000e+00" cType="1" res="-2.3671521339565516e-03" rms="4.5073097944259644e-01" purity="5.5328732728958130e-01" nType="-99"/>
          <Node pos="r" depth="2" NCoef="0" IVar="-1" Cut="0.0000000000000000e+00" cType="1" res="2.1555359126068652e-04" rms="4.0601700544357300e-01" purity="5.1332402229309082e-01" nType="-99"/>
        </Node>
      </Node>
    </BinaryTree>
    <BinaryTree type="DecisionTree" boostWeight="1.0000000000000000e+00" itree="656">
      <Node pos="s" depth="0" NCoef="0" IVar="6" Cut="1.9848620891571045e+00" cType="1" res="6.6468077711760998e-03" rms="3.9984461665153503e-01" purity="5.0511050224304199e-01" nType="0">
        <Node pos="l" depth="1" NCoef="0" IVar="5" Cut="1.5264620780944824e+00" cType="1" res="2.5848444551229477e-02" rms="4.0568411350250244e-01" purity="6.5522706508636475e-01" nType="0">
          <Node pos="l" depth="2" NCoef="0" IVar="-1" Cut="0.0000000000000000e+00" cType="1" res="-2.8673629276454449e-04" rms="3.9111688733100891e-01" purity="7.0038038492202759e-01" nType="-99"/>
          <Node pos="r" depth="2" NCoef="0" IVar="-1" Cut="0.0000000000000000e+00" cType="1" res="-7.3410767072346061e-05" rms="4.2440253496170044e-01" purity="5.7785332202911377e-01" nType="-99"/>
        </Node>
        <Node pos="r" depth="1" NCoef="0" IVar="20" Cut="4.7966781616210938e+01" cType="1" res="-2.1855009719729424e-02" rms="3.8927358388900757e-01" purity="2.8228592872619629e-01" nType="0">
          <Node pos="l" depth="2" NCoef="0" IVar="-1" Cut="0.0000000000000000e+00" cType="1" res="7.9534831456840038e-04" rms="3.8094019889831543e-01" purity="2.8553390502929688e-01" nType="-99"/>
          <Node pos="r" depth="2" NCoef="0" IVar="-1" Cut="0.0000000000000000e+00" cType="1" res="-5.3037712350487709e-03" rms="4.4007387757301331e-01" purity="2.5114682316780090e-01" nType="-99"/>
        </Node>
      </Node>
    </BinaryTree>
    <BinaryTree type="DecisionTree" boostWeight="1.0000000000000000e+00" itree="657">
      <Node pos="s" depth="0" NCoef="0" IVar="20" Cut="4.4328433990478516e+01" cType="1" res="5.9838788583874702e-03" rms="4.0413379669189453e-01" purity="5.0835013389587402e-01" nType="0">
        <Node pos="l" depth="1" NCoef="0" IVar="3" Cut="4.8571429252624512e+00" cType="0" res="1.4027555473148823e-02" rms="4.0004542469978333e-01" purity="5.1230448484420776e-01" nType="0">
          <Node pos="l" depth="2" NCoef="0" IVar="-1" Cut="0.0000000000000000e+00" cType="1" res="1.8307826248928905e-03" rms="4.0358775854110718e-01" purity="5.7977199554443359e-01" nType="-99"/>
          <Node pos="r" depth="2" NCoef="0" IVar="-1" Cut="0.0000000000000000e+00" cType="1" res="-1.7182281590066850e-04" rms="3.9890560507774353e-01" purity="5.0326955318450928e-01" nType="-99"/>
        </Node>
        <Node pos="r" depth="1" NCoef="0" IVar="20" Cut="4.8672935485839844e+01" cType="0" res="-5.6935217231512070e-02" rms="4.2962422966957092e-01" purity="4.7741881012916565e-01" nType="0">
          <Node pos="l" depth="2" NCoef="0" IVar="-1" Cut="0.0000000000000000e+00" cType="1" res="-1.3707377365790308e-04" rms="3.8767036795616150e-01" purity="4.8627719283103943e-01" nType="-99"/>
          <Node pos="r" depth="2" NCoef="0" IVar="-1" Cut="0.0000000000000000e+00" cType="1" res="-5.6251776404678822e-03" rms="5.1265066862106323e-01" purity="4.5002168416976929e-01" nType="-99"/>
        </Node>
      </Node>
    </BinaryTree>
    <BinaryTree type="DecisionTree" boostWeight="1.0000000000000000e+00" itree="658">
      <Node pos="s" depth="0" NCoef="0" IVar="20" Cut="7.3729797363281250e+01" cType="1" res="-1.1470573954284191e-02" rms="4.0077099204063416e-01" purity="4.8170441389083862e-01" nType="0">
        <Node pos="l" depth="1" NCoef="0" IVar="20" Cut="1.3875966072082520e+01" cType="1" res="-6.7333336919546127e-03" rms="4.0066635608673096e-01" purity="4.8740589618682861e-01" nType="0">
          <Node pos="l" depth="2" NCoef="0" IVar="-1" Cut="0.0000000000000000e+00" cType="1" res="1.5720280352979898e-03" rms="4.0867656469345093e-01" purity="5.6806832551956177e-01" nType="-99"/>
          <Node pos="r" depth="2" NCoef="0" IVar="-1" Cut="0.0000000000000000e+00" cType="1" res="-8.2134484546259046e-04" rms="3.9521819353103638e-01" purity="4.4227221608161926e-01" nType="-99"/>
        </Node>
        <Node pos="r" depth="1" NCoef="0" IVar="-1" Cut="0.0000000000000000e+00" cType="1" res="-3.8199028931558132e-03" rms="3.6280909180641174e-01" purity="2.6884427666664124e-01" nType="-99"/>
      </Node>
    </BinaryTree>
    <BinaryTree type="DecisionTree" boostWeight="1.0000000000000000e+00" itree="659">
      <Node pos="s" depth="0" NCoef="0" IVar="12" Cut="2.1428570747375488e+00" cType="1" res="2.7640332700684667e-04" rms="4.0310338139533997e-01" purity="5.0584506988525391e-01" nType="0">
        <Node pos="l" depth="1" NCoef="0" IVar="0" Cut="4.4184765219688416e-01" cType="1" res="1.1906870640814304e-02" rms="3.9488190412521362e-01" purity="5.2537429332733154e-01" nType="0">
          <Node pos="l" depth="2" NCoef="0" IVar="-1" Cut="0.0000000000000000e+00" cType="1" res="-1.3264793669804931e-03" rms="3.5674026608467102e-01" purity="7.6119911670684814e-01" nType="-99"/>
          <Node pos="r" depth="2" NCoef="0" IVar="-1" Cut="0.0000000000000000e+00" cType="1" res="2.9187736799940467e-04" rms="3.9617434144020081e-01" purity="5.1341569423675537e-01" nType="-99"/>
        </Node>
        <Node pos="r" depth="1" NCoef="0" IVar="18" Cut="5.1904764175415039e+00" cType="1" res="-5.4380390793085098e-02" rms="4.3554636836051941e-01" purity="4.1406831145286560e-01" nType="0">
          <Node pos="l" depth="2" NCoef="0" IVar="-1" Cut="0.0000000000000000e+00" cType="1" res="1.1502739507704973e-03" rms="4.5651745796203613e-01" purity="5.0893348455429077e-01" nType="-99"/>
          <Node pos="r" depth="2" NCoef="0" IVar="-1" Cut="0.0000000000000000e+00" cType="1" res="-6.2620076350867748e-03" rms="3.4796312451362610e-01" purity="1.2640416622161865e-01" nType="-99"/>
        </Node>
      </Node>
    </BinaryTree>
    <BinaryTree type="DecisionTree" boostWeight="1.0000000000000000e+00" itree="660">
      <Node pos="s" depth="0" NCoef="0" IVar="4" Cut="1.1475306749343872e+00" cType="1" res="-1.5251544304192066e-02" rms="4.0996176004409790e-01" purity="4.8675978183746338e-01" nType="0">
        <Node pos="l" depth="1" NCoef="0" IVar="18" Cut="3.4285714626312256e+00" cType="1" res="-7.4427984654903412e-02" rms="3.9417913556098938e-01" purity="6.7578524351119995e-01" nType="0">
          <Node pos="l" depth="2" NCoef="0" IVar="-1" Cut="0.0000000000000000e+00" cType="1" res="6.3117500394582748e-03" rms="3.3678308129310608e-01" purity="8.5274225473403931e-01" nType="-99"/>
          <Node pos="r" depth="2" NCoef="0" IVar="-1" Cut="0.0000000000000000e+00" cType="1" res="-4.7444035299122334e-03" rms="4.4495546817779541e-01" purity="4.0623414516448975e-01" nType="-99"/>
        </Node>
        <Node pos="r" depth="1" NCoef="0" IVar="5" Cut="8.7959969043731689e-01" cType="1" res="-4.2275395244359970e-03" rms="4.1189691424369812e-01" purity="4.5154616236686707e-01" nType="0">
          <Node pos="l" depth="2" NCoef="0" IVar="-1" Cut="0.0000000000000000e+00" cType="1" res="8.0306269228458405e-04" rms="3.3291885256767273e-01" purity="8.0474936962127686e-01" nType="-99"/>
          <Node pos="r" depth="2" NCoef="0" IVar="-1" Cut="0.0000000000000000e+00" cType="1" res="-8.2285396274528466e-06" rms="4.1399216651916504e-01" purity="4.3686220049858093e-01" nType="-99"/>
        </Node>
      </Node>
    </BinaryTree>
    <BinaryTree type="DecisionTree" boostWeight="1.0000000000000000e+00" itree="661">
      <Node pos="s" depth="0" NCoef="0" IVar="20" Cut="3.9356296539306641e+01" cType="0" res="4.2499480769038200e-03" rms="4.0678054094314575e-01" purity="5.0958645343780518e-01" nType="0">
        <Node pos="l" depth="1" NCoef="0" IVar="6" Cut="1.1950391530990601e+00" cType="0" res="8.0824539065361023e-02" rms="3.8699033856391907e-01" purity="6.3818770647048950e-01" nType="0">
          <Node pos="l" depth="2" NCoef="0" IVar="-1" Cut="0.0000000000000000e+00" cType="1" res="8.2298525376245379e-04" rms="4.0318965911865234e-01" purity="6.4573097229003906e-01" nType="-99"/>
          <Node pos="r" depth="2" NCoef="0" IVar="-1" Cut="0.0000000000000000e+00" cType="1" res="-4.6152799768606201e-05" rms="3.2893487811088562e-01" purity="6.2040627002716064e-01" nType="-99"/>
        </Node>
        <Node pos="r" depth="1" NCoef="0" IVar="9" Cut="-1.2857142448425293e+01" cType="1" res="-5.5971182882785797e-03" rms="4.0821498632431030e-01" purity="4.9304908514022827e-01" nType="0">
          <Node pos="l" depth="2" NCoef="0" IVar="-1" Cut="0.0000000000000000e+00" cType="1" res="7.7010784298181534e-03" rms="2.7741751074790955e-01" purity="9.4879537820816040e-01" nType="-99"/>
          <Node pos="r" depth="2" NCoef="0" IVar="-1" Cut="0.0000000000000000e+00" cType="1" res="-2.5389587972313166e-04" rms="4.0947762131690979e-01" purity="4.8425528407096863e-01" nType="-99"/>
        </Node>
      </Node>
    </BinaryTree>
    <BinaryTree type="DecisionTree" boostWeight="1.0000000000000000e+00" itree="662">
      <Node pos="s" depth="0" NCoef="0" IVar="6" Cut="8.5276353359222412e-01" cType="1" res="5.0090067088603973e-03" rms="3.9882314205169678e-01" purity="4.9853578209877014e-01" nType="0">
        <Node pos="l" depth="1" NCoef="0" IVar="18" Cut="3.2857143878936768e+00" cType="1" res="1.3603869080543518e-01" rms="3.3927547931671143e-01" purity="8.6499738693237305e-01" nType="0">
          <Node pos="l" depth="2" NCoef="0" IVar="-1" Cut="0.0000000000000000e+00" cType="1" res="-1.0090145282447338e-02" rms="2.9305326938629150e-01" purity="9.0535360574722290e-01" nType="-99"/>
          <Node pos="r" depth="2" NCoef="0" IVar="-1" Cut="0.0000000000000000e+00" cType="1" res="7.1067144162952900e-03" rms="3.7357413768768311e-01" purity="8.0152732133865356e-01" nType="-99"/>
        </Node>
        <Node pos="r" depth="1" NCoef="0" IVar="20" Cut="7.1492652893066406e+01" cType="1" res="-9.5764215802773833e-04" rms="4.0030479431152344e-01" purity="4.8184832930564880e-01" nType="0">
          <Node pos="l" depth="2" NCoef="0" IVar="-1" Cut="0.0000000000000000e+00" cType="1" res="4.2752966692205518e-05" rms="4.0222314000129700e-01" purity="4.9322319030761719e-01" nType="-99"/>
          <Node pos="r" depth="2" NCoef="0" IVar="-1" Cut="0.0000000000000000e+00" cType="1" res="-2.7129345107823610e-03" rms="3.3455336093902588e-01" purity="2.2027339041233063e-01" nType="-99"/>
        </Node>
      </Node>
    </BinaryTree>
    <BinaryTree type="DecisionTree" boostWeight="1.0000000000000000e+00" itree="663">
      <Node pos="s" depth="0" NCoef="0" IVar="12" Cut="2.1428570747375488e+00" cType="1" res="1.7817188054323196e-02" rms="4.0272486209869385e-01" purity="5.2571266889572144e-01" nType="0">
        <Node pos="l" depth="1" NCoef="0" IVar="4" Cut="1.3668719530105591e+00" cType="1" res="2.8994267806410789e-02" rms="3.9178287982940674e-01" purity="5.4229158163070679e-01" nType="0">
          <Node pos="l" depth="2" NCoef="0" IVar="-1" Cut="0.0000000000000000e+00" cType="1" res="1.6352862585335970e-03" rms="2.9791647195816040e-01" purity="8.6864393949508667e-01" nType="-99"/>
          <Node pos="r" depth="2" NCoef="0" IVar="-1" Cut="0.0000000000000000e+00" cType="1" res="-4.3290879148116801e-06" rms="4.1300842165946960e-01" purity="4.5061683654785156e-01" nType="-99"/>
        </Node>
        <Node pos="r" depth="1" NCoef="0" IVar="15" Cut="6.4285712242126465e+00" cType="1" res="-3.2645963132381439e-02" rms="4.4533908367156982e-01" purity="4.5086082816123962e-01" nType="0">
          <Node pos="l" depth="2" NCoef="0" IVar="-1" Cut="0.0000000000000000e+00" cType="1" res="-5.3600822575390339e-03" rms="4.8813697695732117e-01" purity="4.9341070652008057e-01" nType="-99"/>
          <Node pos="r" depth="2" NCoef="0" IVar="-1" Cut="0.0000000000000000e+00" cType="1" res="-5.5056158453226089e-04" rms="4.3248292803764343e-01" purity="4.4322568178176880e-01" nType="-99"/>
        </Node>
      </Node>
    </BinaryTree>
    <BinaryTree type="DecisionTree" boostWeight="1.0000000000000000e+00" itree="664">
      <Node pos="s" depth="0" NCoef="0" IVar="0" Cut="4.4540303945541382e-01" cType="0" res="2.1630609408020973e-03" rms="4.1134983301162720e-01" purity="5.1291191577911377e-01" nType="0">
        <Node pos="l" depth="1" NCoef="0" IVar="9" Cut="-1.4285714626312256e+00" cType="1" res="1.0897107422351837e-02" rms="4.0466380119323730e-01" purity="5.1353091001510620e-01" nType="0">
          <Node pos="l" depth="2" NCoef="0" IVar="-1" Cut="0.0000000000000000e+00" cType="1" res="7.5435425969772041e-05" rms="3.9420545101165771e-01" purity="6.7106509208679199e-01" nType="-99"/>
          <Node pos="r" depth="2" NCoef="0" IVar="-1" Cut="0.0000000000000000e+00" cType="1" res="3.5594875953393057e-05" rms="4.0624216198921204e-01" purity="4.7729843854904175e-01" nType="-99"/>
        </Node>
        <Node pos="r" depth="1" NCoef="0" IVar="17" Cut="3.3182312011718750e+01" cType="1" res="-1.1101111769676208e-01" rms="4.7550866007804871e-01" purity="5.0489139556884766e-01" nType="0">
          <Node pos="l" depth="2" NCoef="0" IVar="-1" Cut="0.0000000000000000e+00" cType="1" res="2.1586746443063021e-03" rms="4.5423233509063721e-01" purity="6.3461095094680786e-01" nType="-99"/>
          <Node pos="r" depth="2" NCoef="0" IVar="-1" Cut="0.0000000000000000e+00" cType="1" res="-8.8555710390210152e-03" rms="4.5148101449012756e-01" purity="3.1440600752830505e-01" nType="-99"/>
        </Node>
      </Node>
    </BinaryTree>
    <BinaryTree type="DecisionTree" boostWeight="1.0000000000000000e+00" itree="665">
      <Node pos="s" depth="0" NCoef="0" IVar="7" Cut="-7.6285715103149414e+00" cType="1" res="5.6174104101955891e-03" rms="4.0214538574218750e-01" purity="5.0103724002838135e-01" nType="0">
        <Node pos="l" depth="1" NCoef="0" IVar="14" Cut="7.8392936706542969e+01" cType="1" res="-1.2390646338462830e-01" rms="4.1021537780761719e-01" purity="5.7520514726638794e-01" nType="0">
          <Node pos="l" depth="2" NCoef="0" IVar="-1" Cut="0.0000000000000000e+00" cType="1" res="8.6872250540181994e-04" rms="3.4275722503662109e-01" purity="6.5663319826126099e-01" nType="-99"/>
          <Node pos="r" depth="2" NCoef="0" IVar="-1" Cut="0.0000000000000000e+00" cType="1" res="-9.0931504964828491e-03" rms="4.4490343332290649e-01" purity="4.9543476104736328e-01" nType="-99"/>
        </Node>
        <Node pos="r" depth="1" NCoef="0" IVar="15" Cut="2.1285715103149414e+01" cType="1" res="1.1036330834031105e-02" rms="4.0089324116706848e-01" purity="4.9793422222137451e-01" nType="0">
          <Node pos="l" depth="2" NCoef="0" IVar="-1" Cut="0.0000000000000000e+00" cType="1" res="3.4164730459451675e-04" rms="4.1559031605720520e-01" purity="5.4033225774765015e-01" nType="-99"/>
          <Node pos="r" depth="2" NCoef="0" IVar="-1" Cut="0.0000000000000000e+00" cType="1" res="-6.0944622382521629e-03" rms="1.4246161282062531e-01" purity="2.1691096946597099e-02" nType="-99"/>
        </Node>
      </Node>
    </BinaryTree>
    <BinaryTree type="DecisionTree" boostWeight="1.0000000000000000e+00" itree="666">
      <Node pos="s" depth="0" NCoef="0" IVar="18" Cut="1.2857142686843872e+00" cType="1" res="1.8353521591052413e-03" rms="4.1560086607933044e-01" purity="5.1269429922103882e-01" nType="0">
        <Node pos="l" depth="1" NCoef="0" IVar="20" Cut="9.7830810546875000e+00" cType="0" res="-1.2575176358222961e-01" rms="4.3330115079879761e-01" purity="5.7142084836959839e-01" nType="0">
          <Node pos="l" depth="2" NCoef="0" IVar="-1" Cut="0.0000000000000000e+00" cType="1" res="4.3547060340642929e-03" rms="3.9340454339981079e-01" purity="7.5943464040756226e-01" nType="-99"/>
          <Node pos="r" depth="2" NCoef="0" IVar="-1" Cut="0.0000000000000000e+00" cType="1" res="-9.3465987592935562e-03" rms="4.3016913533210754e-01" purity="3.8260748982429504e-01" nType="-99"/>
        </Node>
        <Node pos="r" depth="1" NCoef="0" IVar="20" Cut="1.3535776138305664e+01" cType="1" res="1.0551282204687595e-02" rms="4.1292810440063477e-01" purity="5.0868242979049683e-01" nType="0">
          <Node pos="l" depth="2" NCoef="0" IVar="-1" Cut="0.0000000000000000e+00" cType="1" res="2.0592848304659128e-03" rms="4.2074772715568542e-01" purity="5.9846276044845581e-01" nType="-99"/>
          <Node pos="r" depth="2" NCoef="0" IVar="-1" Cut="0.0000000000000000e+00" cType="1" res="-9.6532510360702872e-04" rms="4.0806636214256287e-01" purity="4.6392595767974854e-01" nType="-99"/>
        </Node>
      </Node>
    </BinaryTree>
    <BinaryTree type="DecisionTree" boostWeight="1.0000000000000000e+00" itree="667">
      <Node pos="s" depth="0" NCoef="0" IVar="4" Cut="9.2457878589630127e-01" cType="1" res="2.2711993660777807e-03" rms="4.0775561332702637e-01" purity="4.9877133965492249e-01" nType="0">
        <Node pos="l" depth="1" NCoef="0" IVar="-1" Cut="0.0000000000000000e+00" cType="1" res="7.8803198412060738e-03" rms="1.0780628025531769e-01" purity="1.0000000000000000e+00" nType="-99"/>
        <Node pos="r" depth="1" NCoef="0" IVar="14" Cut="2.2456831359863281e+02" cType="1" res="-1.9638254307210445e-03" rms="4.1266632080078125e-01" purity="4.8371902108192444e-01" nType="0">
          <Node pos="l" depth="2" NCoef="0" IVar="-1" Cut="0.0000000000000000e+00" cType="1" res="-1.9298267943668179e-05" rms="4.1256496310234070e-01" purity="4.8824083805084229e-01" nType="-99"/>
          <Node pos="r" depth="2" NCoef="0" IVar="-1" Cut="0.0000000000000000e+00" cType="1" res="-4.1587455198168755e-03" rms="3.8798096776008606e-01" purity="3.0872777104377747e-01" nType="-99"/>
        </Node>
      </Node>
    </BinaryTree>
    <BinaryTree type="DecisionTree" boostWeight="1.0000000000000000e+00" itree="668">
      <Node pos="s" depth="0" NCoef="0" IVar="7" Cut="-7.6285715103149414e+00" cType="1" res="4.2257574386894703e-04" rms="4.1125711798667908e-01" purity="5.0795644521713257e-01" nType="0">
        <Node pos="l" depth="1" NCoef="0" IVar="20" Cut="1.6500179290771484e+01" cType="1" res="-1.3234120607376099e-01" rms="4.3616563081741333e-01" purity="5.6867623329162598e-01" nType="0">
          <Node pos="l" depth="2" NCoef="0" IVar="-1" Cut="0.0000000000000000e+00" cType="1" res="9.9665811285376549e-04" rms="3.5630446672439575e-01" purity="6.5683317184448242e-01" nType="-99"/>
          <Node pos="r" depth="2" NCoef="0" IVar="-1" Cut="0.0000000000000000e+00" cType="1" res="-6.5893661230802536e-03" rms="4.5913586020469666e-01" purity="5.1765406131744385e-01" nType="-99"/>
        </Node>
        <Node pos="r" depth="1" NCoef="0" IVar="18" Cut="5.1428570747375488e+00" cType="1" res="7.0723118260502815e-03" rms="4.0883752703666687e-01" purity="5.0491517782211304e-01" nType="0">
          <Node pos="l" depth="2" NCoef="0" IVar="-1" Cut="0.0000000000000000e+00" cType="1" res="7.6601147884503007e-04" rms="4.0248483419418335e-01" purity="6.9500964879989624e-01" nType="-99"/>
          <Node pos="r" depth="2" NCoef="0" IVar="-1" Cut="0.0000000000000000e+00" cType="1" res="-5.1994330715388060e-04" rms="4.1261494159698486e-01" purity="3.3075338602066040e-01" nType="-99"/>
        </Node>
      </Node>
    </BinaryTree>
    <BinaryTree type="DecisionTree" boostWeight="1.0000000000000000e+00" itree="669">
      <Node pos="s" depth="0" NCoef="0" IVar="15" Cut="1.1142857551574707e+01" cType="1" res="-6.4226016402244568e-03" rms="4.0202757716178894e-01" purity="4.9148622155189514e-01" nType="0">
        <Node pos="l" depth="1" NCoef="0" IVar="0" Cut="2.2385678291320801e+00" cType="1" res="3.1104920431971550e-02" rms="3.7074097990989685e-01" purity="6.7798143625259399e-01" nType="0">
          <Node pos="l" depth="2" NCoef="0" IVar="-1" Cut="0.0000000000000000e+00" cType="1" res="1.4963662251830101e-03" rms="3.7301462888717651e-01" purity="7.4129289388656616e-01" nType="-99"/>
          <Node pos="r" depth="2" NCoef="0" IVar="-1" Cut="0.0000000000000000e+00" cType="1" res="-4.3277749791741371e-03" rms="3.1666275858879089e-01" purity="1.3890948891639709e-01" nType="-99"/>
        </Node>
        <Node pos="r" depth="1" NCoef="0" IVar="4" Cut="2.1432127952575684e+00" cType="1" res="-3.1651373952627182e-02" rms="4.1987699270248413e-01" purity="3.6611032485961914e-01" nType="0">
          <Node pos="l" depth="2" NCoef="0" IVar="-1" Cut="0.0000000000000000e+00" cType="1" res="-1.9193192711099982e-03" rms="4.5029097795486450e-01" purity="4.5504701137542725e-01" nType="-99"/>
          <Node pos="r" depth="2" NCoef="0" IVar="-1" Cut="0.0000000000000000e+00" cType="1" res="1.1378210037946701e-03" rms="3.8476443290710449e-01" purity="2.7677756547927856e-01" nType="-99"/>
        </Node>
      </Node>
    </BinaryTree>
    <BinaryTree type="DecisionTree" boostWeight="1.0000000000000000e+00" itree="670">
      <Node pos="s" depth="0" NCoef="0" IVar="20" Cut="4.1526027679443359e+01" cType="0" res="-9.4499411061406136e-03" rms="4.1657826304435730e-01" purity="4.8847174644470215e-01" nType="0">
        <Node pos="l" depth="1" NCoef="0" IVar="17" Cut="5.5889850616455078e+01" cType="1" res="9.1026932001113892e-02" rms="3.7047153711318970e-01" purity="6.1736422777175903e-01" nType="0">
          <Node pos="l" depth="2" NCoef="0" IVar="-1" Cut="0.0000000000000000e+00" cType="1" res="7.9553667455911636e-03" rms="3.0845722556114197e-01" purity="8.9404577016830444e-01" nType="-99"/>
          <Node pos="r" depth="2" NCoef="0" IVar="-1" Cut="0.0000000000000000e+00" cType="1" res="-2.1362972911447287e-03" rms="3.7852981686592102e-01" purity="4.5590963959693909e-01" nType="-99"/>
        </Node>
        <Node pos="r" depth="1" NCoef="0" IVar="20" Cut="3.9052791595458984e+01" cType="1" res="-2.1604873239994049e-02" rms="4.2018839716911316e-01" purity="4.7287932038307190e-01" nType="0">
          <Node pos="l" depth="2" NCoef="0" IVar="-1" Cut="0.0000000000000000e+00" cType="1" res="-1.6005487123038620e-04" rms="4.1695854067802429e-01" purity="4.7666254639625549e-01" nType="-99"/>
          <Node pos="r" depth="2" NCoef="0" IVar="-1" Cut="0.0000000000000000e+00" cType="1" res="-4.3770531192421913e-03" rms="4.5343118906021118e-01" purity="3.2690441608428955e-01" nType="-99"/>
        </Node>
      </Node>
    </BinaryTree>
    <BinaryTree type="DecisionTree" boostWeight="1.0000000000000000e+00" itree="671">
      <Node pos="s" depth="0" NCoef="0" IVar="18" Cut="5.1428570747375488e+00" cType="1" res="-2.5462422054260969e-03" rms="3.9703992009162903e-01" purity="4.8531720042228699e-01" nType="0">
        <Node pos="l" depth="1" NCoef="0" IVar="0" Cut="3.9127355813980103e-01" cType="0" res="1.8993897363543510e-02" rms="4.0064743161201477e-01" purity="6.6118717193603516e-01" nType="0">
          <Node pos="l" depth="2" NCoef="0" IVar="-1" Cut="0.0000000000000000e+00" cType="1" res="6.1287783319130540e-04" rms="3.9445683360099792e-01" purity="6.6903251409530640e-01" nType="-99"/>
          <Node pos="r" depth="2" NCoef="0" IVar="-1" Cut="0.0000000000000000e+00" cType="1" res="-1.1235537240281701e-03" rms="4.5273858308792114e-01" purity="5.6734627485275269e-01" nType="-99"/>
        </Node>
        <Node pos="r" depth="1" NCoef="0" IVar="5" Cut="1.3883199691772461e+00" cType="1" res="-2.4351209402084351e-02" rms="3.9215114712715149e-01" purity="3.0728501081466675e-01" nType="0">
          <Node pos="l" depth="2" NCoef="0" IVar="-1" Cut="0.0000000000000000e+00" cType="1" res="-2.5877917651087046e-03" rms="4.3707609176635742e-01" purity="4.1110730171203613e-01" nType="-99"/>
          <Node pos="r" depth="2" NCoef="0" IVar="-1" Cut="0.0000000000000000e+00" cType="1" res="1.5407559112645686e-04" rms="3.7718340754508972e-01" purity="2.7881976962089539e-01" nType="-99"/>
        </Node>
      </Node>
    </BinaryTree>
    <BinaryTree type="DecisionTree" boostWeight="1.0000000000000000e+00" itree="672">
      <Node pos="s" depth="0" NCoef="0" IVar="5" Cut="1.3087661266326904e+00" cType="1" res="9.0370485559105873e-03" rms="4.0823343396186829e-01" purity="5.1431554555892944e-01" nType="0">
        <Node pos="l" depth="1" NCoef="0" IVar="4" Cut="2.1068246364593506e+00" cType="1" res="5.2848394960165024e-02" rms="3.6907100677490234e-01" purity="7.5069642066955566e-01" nType="0">
          <Node pos="l" depth="2" NCoef="0" IVar="-1" Cut="0.0000000000000000e+00" cType="1" res="9.6266000764444470e-04" rms="3.5980951786041260e-01" purity="7.9387009143829346e-01" nType="-99"/>
          <Node pos="r" depth="2" NCoef="0" IVar="-1" Cut="0.0000000000000000e+00" cType="1" res="-2.6569934561848640e-03" rms="4.2332246899604797e-01" purity="4.1203951835632324e-01" nType="-99"/>
        </Node>
        <Node pos="r" depth="1" NCoef="0" IVar="0" Cut="1.4326938390731812e+00" cType="0" res="-1.1195655912160873e-02" rms="4.2357632517814636e-01" purity="4.0515145659446716e-01" nType="0">
          <Node pos="l" depth="2" NCoef="0" IVar="-1" Cut="0.0000000000000000e+00" cType="1" res="5.0766346976161003e-04" rms="4.1286033391952515e-01" purity="4.1066759824752808e-01" nType="-99"/>
          <Node pos="r" depth="2" NCoef="0" IVar="-1" Cut="0.0000000000000000e+00" cType="1" res="-1.9376704003661871e-03" rms="4.4510614871978760e-01" purity="3.9165908098220825e-01" nType="-99"/>
        </Node>
      </Node>
    </BinaryTree>
    <BinaryTree type="DecisionTree" boostWeight="1.0000000000000000e+00" itree="673">
      <Node pos="s" depth="0" NCoef="0" IVar="7" Cut="3.9214291572570801e+00" cType="0" res="-9.2884907498955727e-03" rms="4.0219652652740479e-01" purity="4.8454764485359192e-01" nType="0">
        <Node pos="l" depth="1" NCoef="0" IVar="-1" Cut="0.0000000000000000e+00" cType="1" res="3.6271606222726405e-04" rms="4.3017634749412537e-01" purity="5.6604880094528198e-01" nType="-99"/>
        <Node pos="r" depth="1" NCoef="0" IVar="0" Cut="4.4257822632789612e-01" cType="1" res="-1.2223286554217339e-02" rms="4.0106454491615295e-01" purity="4.8280739784240723e-01" nType="0">
          <Node pos="l" depth="2" NCoef="0" IVar="-1" Cut="0.0000000000000000e+00" cType="1" res="-3.1994015444070101e-03" rms="4.4562578201293945e-01" purity="5.3277051448822021e-01" nType="-99"/>
          <Node pos="r" depth="2" NCoef="0" IVar="-1" Cut="0.0000000000000000e+00" cType="1" res="9.2648595455102623e-05" rms="3.9752489328384399e-01" purity="4.7974857687950134e-01" nType="-99"/>
        </Node>
      </Node>
    </BinaryTree>
    <BinaryTree type="DecisionTree" boostWeight="1.0000000000000000e+00" itree="674">
      <Node pos="s" depth="0" NCoef="0" IVar="0" Cut="2.2270151972770691e-01" cType="0" res="-1.9236173480749130e-02" rms="4.0528810024261475e-01" purity="4.8018208146095276e-01" nType="0">
        <Node pos="l" depth="1" NCoef="0" IVar="12" Cut="2.1428570747375488e+00" cType="1" res="-1.4229606837034225e-02" rms="4.0387874841690063e-01" purity="4.8295888304710388e-01" nType="0">
          <Node pos="l" depth="2" NCoef="0" IVar="-1" Cut="0.0000000000000000e+00" cType="1" res="2.2249620815273374e-04" rms="3.9706188440322876e-01" purity="4.9519026279449463e-01" nType="-99"/>
          <Node pos="r" depth="2" NCoef="0" IVar="-1" Cut="0.0000000000000000e+00" cType="1" res="-1.2065068585798144e-03" rms="4.3299746513366699e-01" purity="4.2390307784080505e-01" nType="-99"/>
        </Node>
        <Node pos="r" depth="1" NCoef="0" IVar="-1" Cut="0.0000000000000000e+00" cType="1" res="-2.3728153610136360e-04" rms="3.9940643310546875e-01" purity="3.4579181671142578e-01" nType="-99"/>
      </Node>
    </BinaryTree>
    <BinaryTree type="DecisionTree" boostWeight="1.0000000000000000e+00" itree="675">
      <Node pos="s" depth="0" NCoef="0" IVar="20" Cut="3.5821082592010498e+00" cType="0" res="-9.9147148430347443e-03" rms="4.0336212515830994e-01" purity="4.8677325248718262e-01" nType="0">
        <Node pos="l" depth="1" NCoef="0" IVar="13" Cut="8.7840890884399414e-01" cType="0" res="-8.9570379350334406e-04" rms="4.0534442663192749e-01" purity="5.0111734867095947e-01" nType="0">
          <Node pos="l" depth="2" NCoef="0" IVar="-1" Cut="0.0000000000000000e+00" cType="1" res="3.0582366511225700e-02" rms="1.1053016036748886e-01" purity="1.0000000000000000e+00" nType="-99"/>
          <Node pos="r" depth="2" NCoef="0" IVar="-1" Cut="0.0000000000000000e+00" cType="1" res="-6.9529480242636055e-05" rms="4.0941166877746582e-01" purity="4.8859903216362000e-01" nType="-99"/>
        </Node>
        <Node pos="r" depth="1" NCoef="0" IVar="14" Cut="3.1868350982666016e+01" cType="1" res="-7.6028652489185333e-02" rms="3.8207611441612244e-01" purity="3.8162377476692200e-01" nType="0">
          <Node pos="l" depth="2" NCoef="0" IVar="-1" Cut="0.0000000000000000e+00" cType="1" res="2.7766178827732801e-03" rms="3.3941087126731873e-01" purity="4.0474146604537964e-01" nType="-99"/>
          <Node pos="r" depth="2" NCoef="0" IVar="-1" Cut="0.0000000000000000e+00" cType="1" res="-4.8432140611112118e-03" rms="4.1067036986351013e-01" purity="3.5825860500335693e-01" nType="-99"/>
        </Node>
      </Node>
    </BinaryTree>
    <BinaryTree type="DecisionTree" boostWeight="1.0000000000000000e+00" itree="676">
      <Node pos="s" depth="0" NCoef="0" IVar="1" Cut="8.4285717010498047e+00" cType="0" res="-5.9295713435858488e-04" rms="4.0683770179748535e-01" purity="5.0204139947891235e-01" nType="0">
        <Node pos="l" depth="1" NCoef="0" IVar="5" Cut="1.6479293107986450e+00" cType="0" res="1.5340815484523773e-01" rms="4.3422040343284607e-01" purity="6.3651406764984131e-01" nType="0">
          <Node pos="l" depth="2" NCoef="0" IVar="-1" Cut="0.0000000000000000e+00" cType="1" res="6.2561081722378731e-03" rms="3.8103008270263672e-01" purity="6.8451184034347534e-01" nType="-99"/>
          <Node pos="r" depth="2" NCoef="0" IVar="-1" Cut="0.0000000000000000e+00" cType="1" res="-8.5081119323149323e-04" rms="4.2665690183639526e-01" purity="5.8969694375991821e-01" nType="-99"/>
        </Node>
        <Node pos="r" depth="1" NCoef="0" IVar="1" Cut="3.0476191043853760e+00" cType="1" res="-5.8879205025732517e-03" rms="4.0482291579246521e-01" purity="4.9741783738136292e-01" nType="0">
          <Node pos="l" depth="2" NCoef="0" IVar="-1" Cut="0.0000000000000000e+00" cType="1" res="3.9774286560714245e-03" rms="3.6765131354331970e-01" purity="6.2962573766708374e-01" nType="-99"/>
          <Node pos="r" depth="2" NCoef="0" IVar="-1" Cut="0.0000000000000000e+00" cType="1" res="-1.0633969213813543e-03" rms="4.1380932927131653e-01" purity="4.6027377247810364e-01" nType="-99"/>
        </Node>
      </Node>
    </BinaryTree>
    <BinaryTree type="DecisionTree" boostWeight="1.0000000000000000e+00" itree="677">
      <Node pos="s" depth="0" NCoef="0" IVar="18" Cut="1.4285714626312256e+00" cType="1" res="-2.7102669700980186e-03" rms="4.0808141231536865e-01" purity="5.0261551141738892e-01" nType="0">
        <Node pos="l" depth="1" NCoef="0" IVar="3" Cut="3.0476191043853760e+00" cType="1" res="-1.3039751350879669e-01" rms="4.2845770716667175e-01" purity="5.3774571418762207e-01" nType="0">
          <Node pos="l" depth="2" NCoef="0" IVar="-1" Cut="0.0000000000000000e+00" cType="1" res="3.2406859099864960e-04" rms="3.7738347053527832e-01" purity="6.5603196620941162e-01" nType="-99"/>
          <Node pos="r" depth="2" NCoef="0" IVar="-1" Cut="0.0000000000000000e+00" cType="1" res="-5.1516564562916756e-03" rms="4.6177887916564941e-01" purity="3.8086199760437012e-01" nType="-99"/>
        </Node>
        <Node pos="r" depth="1" NCoef="0" IVar="20" Cut="4.1526027679443359e+01" cType="0" res="5.7882838882505894e-03" rms="4.0526357293128967e-01" purity="5.0027728080749512e-01" nType="0">
          <Node pos="l" depth="2" NCoef="0" IVar="-1" Cut="0.0000000000000000e+00" cType="1" res="1.1712656123563647e-03" rms="3.9281970262527466e-01" purity="6.5771895647048950e-01" nType="-99"/>
          <Node pos="r" depth="2" NCoef="0" IVar="-1" Cut="0.0000000000000000e+00" cType="1" res="-1.2563490599859506e-04" rms="4.0548861026763916e-01" purity="4.8316034674644470e-01" nType="-99"/>
        </Node>
      </Node>
    </BinaryTree>
    <BinaryTree type="DecisionTree" boostWeight="1.0000000000000000e+00" itree="678">
      <Node pos="s" depth="0" NCoef="0" IVar="0" Cut="2.2128911316394806e-01" cType="0" res="5.7253381237387657e-03" rms="4.1510283946990967e-01" purity="5.1422339677810669e-01" nType="0">
        <Node pos="l" depth="1" NCoef="0" IVar="9" Cut="-1.2857142448425293e+01" cType="1" res="1.0632233694195747e-02" rms="4.1257017850875854e-01" purity="5.1697289943695068e-01" nType="0">
          <Node pos="l" depth="2" NCoef="0" IVar="-1" Cut="0.0000000000000000e+00" cType="1" res="5.0082863308489323e-03" rms="1.6979128122329712e-01" purity="1.0000000000000000e+00" nType="-99"/>
          <Node pos="r" depth="2" NCoef="0" IVar="-1" Cut="0.0000000000000000e+00" cType="1" res="-1.1474745406303555e-04" rms="4.1488531231880188e-01" purity="5.0756585597991943e-01" nType="-99"/>
        </Node>
        <Node pos="r" depth="1" NCoef="0" IVar="-1" Cut="0.0000000000000000e+00" cType="1" res="-4.2505969759076834e-04" rms="4.6443971991539001e-01" purity="3.7658765912055969e-01" nType="-99"/>
      </Node>
    </BinaryTree>
    <BinaryTree type="DecisionTree" boostWeight="1.0000000000000000e+00" itree="679">
      <Node pos="s" depth="0" NCoef="0" IVar="0" Cut="4.4176682829856873e-01" cType="1" res="-7.1359467692673206e-03" rms="4.0888017416000366e-01" purity="4.9416905641555786e-01" nType="0">
        <Node pos="l" depth="1" NCoef="0" IVar="17" Cut="3.3905914306640625e+01" cType="1" res="-9.0199172496795654e-02" rms="4.4399678707122803e-01" purity="5.0145900249481201e-01" nType="0">
          <Node pos="l" depth="2" NCoef="0" IVar="-1" Cut="0.0000000000000000e+00" cType="1" res="1.9238831009715796e-03" rms="4.5472335815429688e-01" purity="5.6548219919204712e-01" nType="-99"/>
          <Node pos="r" depth="2" NCoef="0" IVar="-1" Cut="0.0000000000000000e+00" cType="1" res="-9.1348299756646156e-03" rms="4.0662062168121338e-01" purity="3.8582766056060791e-01" nType="-99"/>
        </Node>
        <Node pos="r" depth="1" NCoef="0" IVar="20" Cut="2.8644519805908203e+01" cType="0" res="-8.8071939535439014e-04" rms="4.0542426705360413e-01" purity="4.9362006783485413e-01" nType="0">
          <Node pos="l" depth="2" NCoef="0" IVar="-1" Cut="0.0000000000000000e+00" cType="1" res="7.7424867777153850e-04" rms="4.1012793779373169e-01" purity="5.7953065633773804e-01" nType="-99"/>
          <Node pos="r" depth="2" NCoef="0" IVar="-1" Cut="0.0000000000000000e+00" cType="1" res="-1.8162152264267206e-04" rms="4.0321391820907593e-01" purity="4.6877652406692505e-01" nType="-99"/>
        </Node>
      </Node>
    </BinaryTree>
    <BinaryTree type="DecisionTree" boostWeight="1.0000000000000000e+00" itree="680">
      <Node pos="s" depth="0" NCoef="0" IVar="5" Cut="8.8051819801330566e-01" cType="1" res="-8.8995294645428658e-03" rms="4.0882414579391479e-01" purity="4.9105501174926758e-01" nType="0">
        <Node pos="l" depth="1" NCoef="0" IVar="12" Cut="1.1428571939468384e+00" cType="1" res="6.5729096531867981e-02" rms="3.2370492815971375e-01" purity="8.5286331176757812e-01" nType="0">
          <Node pos="l" depth="2" NCoef="0" IVar="-1" Cut="0.0000000000000000e+00" cType="1" res="7.4114883318543434e-04" rms="2.8452014923095703e-01" purity="8.7993252277374268e-01" nType="-99"/>
          <Node pos="r" depth="2" NCoef="0" IVar="-1" Cut="0.0000000000000000e+00" cType="1" res="2.0903979893773794e-03" rms="3.6467111110687256e-01" purity="8.1003606319427490e-01" nType="-99"/>
        </Node>
        <Node pos="r" depth="1" NCoef="0" IVar="21" Cut="4.2380952835083008e+00" cType="1" res="-1.6332617029547691e-02" rms="4.1561707854270935e-01" purity="4.5501852035522461e-01" nType="0">
          <Node pos="l" depth="2" NCoef="0" IVar="-1" Cut="0.0000000000000000e+00" cType="1" res="-9.1812282335013151e-04" rms="4.2271664738655090e-01" purity="5.0312519073486328e-01" nType="-99"/>
          <Node pos="r" depth="2" NCoef="0" IVar="-1" Cut="0.0000000000000000e+00" cType="1" res="7.9732364974915981e-04" rms="4.0354245901107788e-01" purity="3.8738521933555603e-01" nType="-99"/>
        </Node>
      </Node>
    </BinaryTree>
    <BinaryTree type="DecisionTree" boostWeight="1.0000000000000000e+00" itree="681">
      <Node pos="s" depth="0" NCoef="0" IVar="6" Cut="1.5445975065231323e+00" cType="1" res="3.9826994761824608e-03" rms="4.0200942754745483e-01" purity="5.0091838836669922e-01" nType="0">
        <Node pos="l" depth="1" NCoef="0" IVar="17" Cut="5.3857151031494141e+01" cType="1" res="3.5707633942365646e-02" rms="3.9073970913887024e-01" purity="7.0323204994201660e-01" nType="0">
          <Node pos="l" depth="2" NCoef="0" IVar="-1" Cut="0.0000000000000000e+00" cType="1" res="6.7231699358671904e-04" rms="3.8555800914764404e-01" purity="7.3797321319580078e-01" nType="-99"/>
          <Node pos="r" depth="2" NCoef="0" IVar="-1" Cut="0.0000000000000000e+00" cType="1" res="-6.3006579875946045e-03" rms="3.9536589384078979e-01" purity="4.9282002449035645e-01" nType="-99"/>
        </Node>
        <Node pos="r" depth="1" NCoef="0" IVar="15" Cut="5.5714287757873535e+00" cType="1" res="-1.4948217198252678e-02" rms="4.0741103887557983e-01" purity="3.8019371032714844e-01" nType="0">
          <Node pos="l" depth="2" NCoef="0" IVar="-1" Cut="0.0000000000000000e+00" cType="1" res="-5.2566369995474815e-03" rms="4.6343448758125305e-01" purity="4.0056091547012329e-01" nType="-99"/>
          <Node pos="r" depth="2" NCoef="0" IVar="-1" Cut="0.0000000000000000e+00" cType="1" res="4.5087587204761803e-04" rms="4.0007385611534119e-01" purity="3.7862423062324524e-01" nType="-99"/>
        </Node>
      </Node>
    </BinaryTree>
    <BinaryTree type="DecisionTree" boostWeight="1.0000000000000000e+00" itree="682">
      <Node pos="s" depth="0" NCoef="0" IVar="20" Cut="2.7368215560913086e+01" cType="1" res="-1.7797578126192093e-02" rms="4.1414126753807068e-01" purity="4.8332658410072327e-01" nType="0">
        <Node pos="l" depth="1" NCoef="0" IVar="20" Cut="2.3805381774902344e+01" cType="0" res="-2.8922804631292820e-03" rms="4.0569743514060974e-01" purity="4.8768368363380432e-01" nType="0">
          <Node pos="l" depth="2" NCoef="0" IVar="-1" Cut="0.0000000000000000e+00" cType="1" res="1.3323452323675156e-02" rms="3.4250244498252869e-01" purity="6.3169825077056885e-01" nType="-99"/>
          <Node pos="r" depth="2" NCoef="0" IVar="-1" Cut="0.0000000000000000e+00" cType="1" res="-3.8820831105113029e-04" rms="4.0791100263595581e-01" purity="4.7819355130195618e-01" nType="-99"/>
        </Node>
        <Node pos="r" depth="1" NCoef="0" IVar="4" Cut="2.5052244663238525e+00" cType="1" res="-5.7547912001609802e-02" rms="4.3336123228073120e-01" purity="4.7170680761337280e-01" nType="0">
          <Node pos="l" depth="2" NCoef="0" IVar="-1" Cut="0.0000000000000000e+00" cType="1" res="-1.7658052965998650e-03" rms="4.4188779592514038e-01" purity="5.1628929376602173e-01" nType="-99"/>
          <Node pos="r" depth="2" NCoef="0" IVar="-1" Cut="0.0000000000000000e+00" cType="1" res="1.7040746752172709e-03" rms="3.7295714020729065e-01" purity="2.8200209140777588e-01" nType="-99"/>
        </Node>
      </Node>
    </BinaryTree>
    <BinaryTree type="DecisionTree" boostWeight="1.0000000000000000e+00" itree="683">
      <Node pos="s" depth="0" NCoef="0" IVar="18" Cut="5.2380952835083008e+00" cType="1" res="-2.7651959098875523e-03" rms="3.9992985129356384e-01" purity="4.8913601040840149e-01" nType="0">
        <Node pos="l" depth="1" NCoef="0" IVar="0" Cut="2.4251148700714111e+00" cType="1" res="2.1827612072229385e-02" rms="3.9599034190177917e-01" purity="6.6225844621658325e-01" nType="0">
          <Node pos="l" depth="2" NCoef="0" IVar="-1" Cut="0.0000000000000000e+00" cType="1" res="9.7228109370917082e-04" rms="3.9962580800056458e-01" purity="7.1643221378326416e-01" nType="-99"/>
          <Node pos="r" depth="2" NCoef="0" IVar="-1" Cut="0.0000000000000000e+00" cType="1" res="-2.5816359557211399e-03" rms="3.4804213047027588e-01" purity="1.8696254491806030e-01" nType="-99"/>
        </Node>
        <Node pos="r" depth="1" NCoef="0" IVar="15" Cut="1.0095237731933594e+01" cType="0" res="-2.7128767222166061e-02" rms="4.0231510996818542e-01" purity="3.1762734055519104e-01" nType="0">
          <Node pos="l" depth="2" NCoef="0" IVar="-1" Cut="0.0000000000000000e+00" cType="1" res="-4.8125239118235186e-05" rms="4.0148672461509705e-01" purity="3.3240324258804321e-01" nType="-99"/>
          <Node pos="r" depth="2" NCoef="0" IVar="-1" Cut="0.0000000000000000e+00" cType="1" res="-5.6950934231281281e-03" rms="3.7174102663993835e-01" purity="1.5656392276287079e-01" nType="-99"/>
        </Node>
      </Node>
    </BinaryTree>
    <BinaryTree type="DecisionTree" boostWeight="1.0000000000000000e+00" itree="684">
      <Node pos="s" depth="0" NCoef="0" IVar="15" Cut="9.5714282989501953e+00" cType="1" res="-3.4128762781620026e-03" rms="3.9452803134918213e-01" purity="4.8096755146980286e-01" nType="0">
        <Node pos="l" depth="1" NCoef="0" IVar="5" Cut="2.3395538330078125e+00" cType="1" res="3.9341367781162262e-02" rms="3.3818754553794861e-01" purity="6.9305634498596191e-01" nType="0">
          <Node pos="l" depth="2" NCoef="0" IVar="-1" Cut="0.0000000000000000e+00" cType="1" res="1.9542151130735874e-03" rms="3.3885833621025085e-01" purity="7.8619414567947388e-01" nType="-99"/>
          <Node pos="r" depth="2" NCoef="0" IVar="-1" Cut="0.0000000000000000e+00" cType="1" res="-4.8434832133352757e-03" rms="2.8587841987609863e-01" purity="9.1507345438003540e-02" nType="-99"/>
        </Node>
        <Node pos="r" depth="1" NCoef="0" IVar="20" Cut="5.2346958160400391e+01" cType="1" res="-2.5104932487010956e-02" rms="4.1856807470321655e-01" purity="3.7336087226867676e-01" nType="0">
          <Node pos="l" depth="2" NCoef="0" IVar="-1" Cut="0.0000000000000000e+00" cType="1" res="6.5897497734113131e-06" rms="4.1832250356674194e-01" purity="3.8482379913330078e-01" nType="-99"/>
          <Node pos="r" depth="2" NCoef="0" IVar="-1" Cut="0.0000000000000000e+00" cType="1" res="-3.4662964753806591e-03" rms="4.0166357159614563e-01" purity="2.6271969079971313e-01" nType="-99"/>
        </Node>
      </Node>
    </BinaryTree>
    <BinaryTree type="DecisionTree" boostWeight="1.0000000000000000e+00" itree="685">
      <Node pos="s" depth="0" NCoef="0" IVar="21" Cut="4.2380952835083008e+00" cType="1" res="1.1954531073570251e-02" rms="3.9897257089614868e-01" purity="5.0571769475936890e-01" nType="0">
        <Node pos="l" depth="1" NCoef="0" IVar="15" Cut="1.1000000000000000e+01" cType="1" res="-2.5123204104602337e-03" rms="3.9749994874000549e-01" purity="5.7192212343215942e-01" nType="0">
          <Node pos="l" depth="2" NCoef="0" IVar="-1" Cut="0.0000000000000000e+00" cType="1" res="5.4377992637455463e-04" rms="3.7887915968894958e-01" purity="6.6153496503829956e-01" nType="-99"/>
          <Node pos="r" depth="2" NCoef="0" IVar="-1" Cut="0.0000000000000000e+00" cType="1" res="-2.6113558560609818e-03" rms="4.3544366955757141e-01" purity="3.5873639583587646e-01" nType="-99"/>
        </Node>
        <Node pos="r" depth="1" NCoef="0" IVar="18" Cut="5.2380952835083008e+00" cType="1" res="3.3406544476747513e-02" rms="4.0018469095230103e-01" purity="4.0754735469818115e-01" nType="0">
          <Node pos="l" depth="2" NCoef="0" IVar="-1" Cut="0.0000000000000000e+00" cType="1" res="3.6415306385606527e-03" rms="4.0114080905914307e-01" purity="7.4869638681411743e-01" nType="-99"/>
          <Node pos="r" depth="2" NCoef="0" IVar="-1" Cut="0.0000000000000000e+00" cType="1" res="2.0131685596425086e-04" rms="3.9582517743110657e-01" purity="3.5056009888648987e-01" nType="-99"/>
        </Node>
      </Node>
    </BinaryTree>
    <BinaryTree type="DecisionTree" boostWeight="1.0000000000000000e+00" itree="686">
      <Node pos="s" depth="0" NCoef="0" IVar="9" Cut="-7.1428570747375488e+00" cType="1" res="-3.2255752012133598e-03" rms="3.9890065789222717e-01" purity="4.9157306551933289e-01" nType="0">
        <Node pos="l" depth="1" NCoef="0" IVar="9" Cut="-1.0414285659790039e+01" cType="1" res="-7.6732806861400604e-02" rms="4.0032210946083069e-01" purity="5.4952716827392578e-01" nType="0">
          <Node pos="l" depth="2" NCoef="0" IVar="-1" Cut="0.0000000000000000e+00" cType="1" res="6.0001243837177753e-03" rms="3.7677437067031860e-01" purity="7.8803563117980957e-01" nType="-99"/>
          <Node pos="r" depth="2" NCoef="0" IVar="-1" Cut="0.0000000000000000e+00" cType="1" res="-6.6550802439451218e-03" rms="3.9303025603294373e-01" purity="3.4675452113151550e-01" nType="-99"/>
        </Node>
        <Node pos="r" depth="1" NCoef="0" IVar="8" Cut="7.1785717010498047e+00" cType="1" res="2.2147882264107466e-03" rms="3.9825639128684998e-01" purity="4.8728382587432861e-01" nType="0">
          <Node pos="l" depth="2" NCoef="0" IVar="-1" Cut="0.0000000000000000e+00" cType="1" res="1.0217628005193546e-04" rms="3.9896553754806519e-01" purity="4.9475196003913879e-01" nType="-99"/>
          <Node pos="r" depth="2" NCoef="0" IVar="-1" Cut="0.0000000000000000e+00" cType="1" res="-2.5437287986278534e-03" rms="3.4459346532821655e-01" purity="2.4418674409389496e-01" nType="-99"/>
        </Node>
      </Node>
    </BinaryTree>
    <BinaryTree type="DecisionTree" boostWeight="1.0000000000000000e+00" itree="687">
      <Node pos="s" depth="0" NCoef="0" IVar="18" Cut="1.2857142686843872e+00" cType="1" res="1.4931909972801805e-03" rms="4.0005746483802795e-01" purity="4.9749565124511719e-01" nType="0">
        <Node pos="l" depth="1" NCoef="0" IVar="9" Cut="-1.4285714626312256e+00" cType="1" res="-8.4477968513965607e-02" rms="4.4492956995964050e-01" purity="6.3740861415863037e-01" nType="0">
          <Node pos="l" depth="2" NCoef="0" IVar="-1" Cut="0.0000000000000000e+00" cType="1" res="4.5630284585058689e-03" rms="2.5681224465370178e-01" purity="9.0434998273849487e-01" nType="-99"/>
          <Node pos="r" depth="2" NCoef="0" IVar="-1" Cut="0.0000000000000000e+00" cType="1" res="-6.1737517826259136e-03" rms="4.7028851509094238e-01" purity="5.1414102315902710e-01" nType="-99"/>
        </Node>
        <Node pos="r" depth="1" NCoef="0" IVar="15" Cut="4.7142858505249023e+00" cType="1" res="6.5033175051212311e-03" rms="3.9671209454536438e-01" purity="4.8934197425842285e-01" nType="0">
          <Node pos="l" depth="2" NCoef="0" IVar="-1" Cut="0.0000000000000000e+00" cType="1" res="-2.0445415284484625e-03" rms="1.4246410131454468e-01" purity="9.4645035266876221e-01" nType="-99"/>
          <Node pos="r" depth="2" NCoef="0" IVar="-1" Cut="0.0000000000000000e+00" cType="1" res="4.3353855289751664e-05" rms="3.9892512559890747e-01" purity="4.8170074820518494e-01" nType="-99"/>
        </Node>
      </Node>
    </BinaryTree>
    <BinaryTree type="DecisionTree" boostWeight="1.0000000000000000e+00" itree="688">
      <Node pos="s" depth="0" NCoef="0" IVar="1" Cut="8.4285717010498047e+00" cType="0" res="-3.5943377297371626e-03" rms="4.0469902753829956e-01" purity="4.9526113271713257e-01" nType="0">
        <Node pos="l" depth="1" NCoef="0" IVar="15" Cut="9.8571424484252930e+00" cType="1" res="1.2619969248771667e-01" rms="4.3697589635848999e-01" purity="5.6671756505966187e-01" nType="0">
          <Node pos="l" depth="2" NCoef="0" IVar="-1" Cut="0.0000000000000000e+00" cType="1" res="4.2644795030355453e-03" rms="3.2044911384582520e-01" purity="6.1363726854324341e-01" nType="-99"/>
          <Node pos="r" depth="2" NCoef="0" IVar="-1" Cut="0.0000000000000000e+00" cType="1" res="2.8596022166311741e-03" rms="5.1060104370117188e-01" purity="5.2646338939666748e-01" nType="-99"/>
        </Node>
        <Node pos="r" depth="1" NCoef="0" IVar="2" Cut="2.2857143878936768e+00" cType="1" res="-7.9942140728235245e-03" rms="4.0282744169235229e-01" purity="4.9283882975578308e-01" nType="0">
          <Node pos="l" depth="2" NCoef="0" IVar="-1" Cut="0.0000000000000000e+00" cType="1" res="1.0089812567457557e-03" rms="3.9479190111160278e-01" purity="5.6985706090927124e-01" nType="-99"/>
          <Node pos="r" depth="2" NCoef="0" IVar="-1" Cut="0.0000000000000000e+00" cType="1" res="-1.6616759821772575e-03" rms="4.1265103220939636e-01" purity="3.8268247246742249e-01" nType="-99"/>
        </Node>
      </Node>
    </BinaryTree>
    <BinaryTree type="DecisionTree" boostWeight="1.0000000000000000e+00" itree="689">
      <Node pos="s" depth="0" NCoef="0" IVar="6" Cut="1.4597150087356567e+00" cType="1" res="-3.1374620739370584e-03" rms="4.0461337566375732e-01" purity="4.9062976241111755e-01" nType="0">
        <Node pos="l" depth="1" NCoef="0" IVar="15" Cut="1.1285714149475098e+01" cType="1" res="-3.3591672778129578e-02" rms="4.0796068310737610e-01" purity="6.2446987628936768e-01" nType="0">
          <Node pos="l" depth="2" NCoef="0" IVar="-1" Cut="0.0000000000000000e+00" cType="1" res="1.3353197136893868e-03" rms="3.6687576770782471e-01" purity="7.6069778203964233e-01" nType="-99"/>
          <Node pos="r" depth="2" NCoef="0" IVar="-1" Cut="0.0000000000000000e+00" cType="1" res="-3.1751978676766157e-03" rms="4.5777502655982971e-01" purity="4.0224203467369080e-01" nType="-99"/>
        </Node>
        <Node pos="r" depth="1" NCoef="0" IVar="21" Cut="1.0952380895614624e+00" cType="1" res="1.3792863115668297e-02" rms="4.0174326300621033e-01" purity="4.1622442007064819e-01" nType="0">
          <Node pos="l" depth="2" NCoef="0" IVar="-1" Cut="0.0000000000000000e+00" cType="1" res="8.0375425750389695e-04" rms="4.2753562331199646e-01" purity="5.2858459949493408e-01" nType="-99"/>
          <Node pos="r" depth="2" NCoef="0" IVar="-1" Cut="0.0000000000000000e+00" cType="1" res="1.2981136387679726e-04" rms="3.8909065723419189e-01" purity="3.7098923325538635e-01" nType="-99"/>
        </Node>
      </Node>
    </BinaryTree>
    <BinaryTree type="DecisionTree" boostWeight="1.0000000000000000e+00" itree="690">
      <Node pos="s" depth="0" NCoef="0" IVar="12" Cut="1.1428571939468384e+00" cType="1" res="1.5071311965584755e-02" rms="4.0646180510520935e-01" purity="5.2326750755310059e-01" nType="0">
        <Node pos="l" depth="1" NCoef="0" IVar="18" Cut="3.0476191043853760e+00" cType="1" res="-2.6124276220798492e-02" rms="3.7949222326278687e-01" purity="6.7615431547164917e-01" nType="0">
          <Node pos="l" depth="2" NCoef="0" IVar="-1" Cut="0.0000000000000000e+00" cType="1" res="2.2418692242354155e-03" rms="3.5907295346260071e-01" purity="7.2170317173004150e-01" nType="-99"/>
          <Node pos="r" depth="2" NCoef="0" IVar="-1" Cut="0.0000000000000000e+00" cType="1" res="-7.6143429614603519e-03" rms="4.6203705668449402e-01" purity="4.3085333704948425e-01" nType="-99"/>
        </Node>
        <Node pos="r" depth="1" NCoef="0" IVar="9" Cut="-1.4285714626312256e+00" cType="1" res="3.2533574849367142e-02" rms="4.1613933444023132e-01" purity="4.5846083760261536e-01" nType="0">
          <Node pos="l" depth="2" NCoef="0" IVar="-1" Cut="0.0000000000000000e+00" cType="1" res="-8.9945108629763126e-04" rms="4.5200341939926147e-01" purity="4.6369332075119019e-01" nType="-99"/>
          <Node pos="r" depth="2" NCoef="0" IVar="-1" Cut="0.0000000000000000e+00" cType="1" res="3.2443981035612524e-04" rms="4.0385788679122925e-01" purity="4.5703881978988647e-01" nType="-99"/>
        </Node>
      </Node>
    </BinaryTree>
    <BinaryTree type="DecisionTree" boostWeight="1.0000000000000000e+00" itree="691">
      <Node pos="s" depth="0" NCoef="0" IVar="20" Cut="6.4701599121093750e+01" cType="1" res="4.0105520747601986e-03" rms="4.0753701329231262e-01" purity="5.0679135322570801e-01" nType="0">
        <Node pos="l" depth="1" NCoef="0" IVar="12" Cut="2.1428570747375488e+00" cType="0" res="9.2627722769975662e-03" rms="4.0845200419425964e-01" purity="5.1459062099456787e-01" nType="0">
          <Node pos="l" depth="2" NCoef="0" IVar="-1" Cut="0.0000000000000000e+00" cType="1" res="-8.9934980496764183e-04" rms="4.3913796544075012e-01" purity="5.4591840505599976e-01" nType="-99"/>
          <Node pos="r" depth="2" NCoef="0" IVar="-1" Cut="0.0000000000000000e+00" cType="1" res="2.1053453383501619e-04" rms="4.0269407629966736e-01" purity="5.0960242748260498e-01" nType="-99"/>
        </Node>
        <Node pos="r" depth="1" NCoef="0" IVar="21" Cut="3.3333332538604736e+00" cType="1" res="-9.6996739506721497e-02" rms="3.7549290060997009e-01" purity="3.5680100321769714e-01" nType="0">
          <Node pos="l" depth="2" NCoef="0" IVar="-1" Cut="0.0000000000000000e+00" cType="1" res="1.0708395391702652e-02" rms="3.5042384266853333e-01" purity="6.7642837762832642e-01" nType="-99"/>
          <Node pos="r" depth="2" NCoef="0" IVar="-1" Cut="0.0000000000000000e+00" cType="1" res="-4.9277171492576599e-03" rms="3.6875477433204651e-01" purity="2.0475976169109344e-01" nType="-99"/>
        </Node>
      </Node>
    </BinaryTree>
    <BinaryTree type="DecisionTree" boostWeight="1.0000000000000000e+00" itree="692">
      <Node pos="s" depth="0" NCoef="0" IVar="15" Cut="1.7000000000000000e+01" cType="1" res="-2.7441300917416811e-03" rms="4.1175615787506104e-01" purity="5.0318008661270142e-01" nType="0">
        <Node pos="l" depth="1" NCoef="0" IVar="6" Cut="1.6870565414428711e+00" cType="1" res="-1.6970297321677208e-02" rms="4.2115294933319092e-01" purity="5.6737786531448364e-01" nType="0">
          <Node pos="l" depth="2" NCoef="0" IVar="-1" Cut="0.0000000000000000e+00" cType="1" res="-1.2465176405385137e-03" rms="4.1859549283981323e-01" purity="6.5254032611846924e-01" nType="-99"/>
          <Node pos="r" depth="2" NCoef="0" IVar="-1" Cut="0.0000000000000000e+00" cType="1" res="5.3183321142569184e-04" rms="4.2259746789932251e-01" purity="4.4325456023216248e-01" nType="-99"/>
        </Node>
        <Node pos="r" depth="1" NCoef="0" IVar="14" Cut="3.1483232498168945e+01" cType="1" res="2.7456458657979965e-02" rms="3.8934081792831421e-01" purity="3.6689543724060059e-01" nType="0">
          <Node pos="l" depth="2" NCoef="0" IVar="-1" Cut="0.0000000000000000e+00" cType="1" res="6.9426591508090496e-03" rms="4.1567239165306091e-01" purity="7.9170656204223633e-01" nType="-99"/>
          <Node pos="r" depth="2" NCoef="0" IVar="-1" Cut="0.0000000000000000e+00" cType="1" res="-2.9783195350319147e-04" rms="3.8302794098854065e-01" purity="3.3725374937057495e-01" nType="-99"/>
        </Node>
      </Node>
    </BinaryTree>
    <BinaryTree type="DecisionTree" boostWeight="1.0000000000000000e+00" itree="693">
      <Node pos="s" depth="0" NCoef="0" IVar="20" Cut="7.3729797363281250e+01" cType="1" res="1.5066690742969513e-02" rms="3.9175331592559814e-01" purity="5.0856691598892212e-01" nType="0">
        <Node pos="l" depth="1" NCoef="0" IVar="5" Cut="1.7450214624404907e+00" cType="1" res="1.8940454348921776e-02" rms="3.9013776183128357e-01" purity="5.1257264614105225e-01" nType="0">
          <Node pos="l" depth="2" NCoef="0" IVar="-1" Cut="0.0000000000000000e+00" cType="1" res="9.6446463430766016e-05" rms="3.7988272309303284e-01" purity="6.9974792003631592e-01" nType="-99"/>
          <Node pos="r" depth="2" NCoef="0" IVar="-1" Cut="0.0000000000000000e+00" cType="1" res="-6.0945771110709757e-05" rms="3.9915180206298828e-01" purity="3.0972847342491150e-01" nType="-99"/>
        </Node>
        <Node pos="r" depth="1" NCoef="0" IVar="-1" Cut="0.0000000000000000e+00" cType="1" res="-3.3665257506072521e-03" rms="4.2355084419250488e-01" purity="3.4776282310485840e-01" nType="-99"/>
      </Node>
    </BinaryTree>
    <BinaryTree type="DecisionTree" boostWeight="1.0000000000000000e+00" itree="694">
      <Node pos="s" depth="0" NCoef="0" IVar="20" Cut="6.4701599121093750e+01" cType="1" res="-1.3218091800808907e-02" rms="4.0408557653427124e-01" purity="4.8010548949241638e-01" nType="0">
        <Node pos="l" depth="1" NCoef="0" IVar="7" Cut="-1.1142851114273071e+00" cType="1" res="-8.1614516675472260e-03" rms="4.0441197156906128e-01" purity="4.8825249075889587e-01" nType="0">
          <Node pos="l" depth="2" NCoef="0" IVar="-1" Cut="0.0000000000000000e+00" cType="1" res="1.7074876232072711e-03" rms="3.9532199501991272e-01" purity="6.6102123260498047e-01" nType="-99"/>
          <Node pos="r" depth="2" NCoef="0" IVar="-1" Cut="0.0000000000000000e+00" cType="1" res="-3.5751893301494420e-04" rms="4.0574538707733154e-01" purity="4.5128524303436279e-01" nType="-99"/>
        </Node>
        <Node pos="r" depth="1" NCoef="0" IVar="5" Cut="1.2149174213409424e+00" cType="1" res="-1.0932218283414841e-01" rms="3.8541895151138306e-01" purity="3.2526707649230957e-01" nType="0">
          <Node pos="l" depth="2" NCoef="0" IVar="-1" Cut="0.0000000000000000e+00" cType="1" res="-3.0248602852225304e-03" rms="3.8559362292289734e-01" purity="3.4579181671142578e-01" nType="-99"/>
          <Node pos="r" depth="2" NCoef="0" IVar="-1" Cut="0.0000000000000000e+00" cType="1" res="-9.9116784986108541e-04" rms="3.6411607265472412e-01" purity="3.1144151091575623e-01" nType="-99"/>
        </Node>
      </Node>
    </BinaryTree>
    <BinaryTree type="DecisionTree" boostWeight="1.0000000000000000e+00" itree="695">
      <Node pos="s" depth="0" NCoef="0" IVar="0" Cut="8.9080607891082764e-01" cType="1" res="1.5026583336293697e-02" rms="4.0059614181518555e-01" purity="5.1564466953277588e-01" nType="0">
        <Node pos="l" depth="1" NCoef="0" IVar="17" Cut="2.8195804595947266e+01" cType="0" res="-4.0496364235877991e-02" rms="4.2695906758308411e-01" purity="5.7900637388229370e-01" nType="0">
          <Node pos="l" depth="2" NCoef="0" IVar="-1" Cut="0.0000000000000000e+00" cType="1" res="5.1867176080122590e-04" rms="3.9627283811569214e-01" purity="6.5557962656021118e-01" nType="-99"/>
          <Node pos="r" depth="2" NCoef="0" IVar="-1" Cut="0.0000000000000000e+00" cType="1" res="-1.7304483335465193e-03" rms="4.3790671229362488e-01" purity="5.3901040554046631e-01" nType="-99"/>
        </Node>
        <Node pos="r" depth="1" NCoef="0" IVar="21" Cut="6.3333334922790527e+00" cType="1" res="3.2208099961280823e-02" rms="3.9048293232917786e-01" purity="4.9603745341300964e-01" nType="0">
          <Node pos="l" depth="2" NCoef="0" IVar="-1" Cut="0.0000000000000000e+00" cType="1" res="6.6734908614307642e-04" rms="4.1841197013854980e-01" purity="5.9929609298706055e-01" nType="-99"/>
          <Node pos="r" depth="2" NCoef="0" IVar="-1" Cut="0.0000000000000000e+00" cType="1" res="-3.3301995135843754e-03" rms="2.2274877130985260e-01" purity="5.5992588400840759e-02" nType="-99"/>
        </Node>
      </Node>
    </BinaryTree>
    <BinaryTree type="DecisionTree" boostWeight="1.0000000000000000e+00" itree="696">
      <Node pos="s" depth="0" NCoef="0" IVar="20" Cut="3.5085273742675781e+01" cType="1" res="1.3722108677029610e-02" rms="3.9956909418106079e-01" purity="5.1326423883438110e-01" nType="0">
        <Node pos="l" depth="1" NCoef="0" IVar="20" Cut="1.3603543281555176e+01" cType="1" res="2.5183476507663727e-02" rms="3.9156711101531982e-01" purity="5.1397657394409180e-01" nType="0">
          <Node pos="l" depth="2" NCoef="0" IVar="-1" Cut="0.0000000000000000e+00" cType="1" res="1.3328942004591227e-03" rms="3.9289245009422302e-01" purity="6.0874199867248535e-01" nType="-99"/>
          <Node pos="r" depth="2" NCoef="0" IVar="-1" Cut="0.0000000000000000e+00" cType="1" res="-9.5503695774823427e-04" rms="3.8858154416084290e-01" purity="4.3846759200096130e-01" nType="-99"/>
        </Node>
        <Node pos="r" depth="1" NCoef="0" IVar="3" Cut="4.2857143282890320e-01" cType="0" res="-4.0017593652009964e-02" rms="4.3108531832695007e-01" purity="5.0992441177368164e-01" nType="0">
          <Node pos="l" depth="2" NCoef="0" IVar="-1" Cut="0.0000000000000000e+00" cType="1" res="-2.7756358031183481e-04" rms="4.1841661930084229e-01" purity="5.3251737356185913e-01" nType="-99"/>
          <Node pos="r" depth="2" NCoef="0" IVar="-1" Cut="0.0000000000000000e+00" cType="1" res="-2.0015337504446507e-03" rms="4.6475651860237122e-01" purity="3.7156486511230469e-01" nType="-99"/>
        </Node>
      </Node>
    </BinaryTree>
    <BinaryTree type="DecisionTree" boostWeight="1.0000000000000000e+00" itree="697">
      <Node pos="s" depth="0" NCoef="0" IVar="15" Cut="9.8571424484252930e+00" cType="1" res="1.7584105953574181e-02" rms="3.9863479137420654e-01" purity="5.1752513647079468e-01" nType="0">
        <Node pos="l" depth="1" NCoef="0" IVar="12" Cut="2.1428570747375488e+00" cType="0" res="4.5655403286218643e-02" rms="3.4372833371162415e-01" purity="7.0155382156372070e-01" nType="0">
          <Node pos="l" depth="2" NCoef="0" IVar="-1" Cut="0.0000000000000000e+00" cType="1" res="-7.4025604408234358e-04" rms="3.8140258193016052e-01" purity="7.4574393033981323e-01" nType="-99"/>
          <Node pos="r" depth="2" NCoef="0" IVar="-1" Cut="0.0000000000000000e+00" cType="1" res="8.4101455286145210e-04" rms="3.3305984735488892e-01" purity="6.9437569379806519e-01" nType="-99"/>
        </Node>
        <Node pos="r" depth="1" NCoef="0" IVar="16" Cut="1.7596715688705444e-01" cType="1" res="1.3077715411782265e-03" rms="4.2640554904937744e-01" purity="4.1082140803337097e-01" nType="0">
          <Node pos="l" depth="2" NCoef="0" IVar="-1" Cut="0.0000000000000000e+00" cType="1" res="5.7070210459642112e-05" rms="4.1972559690475464e-01" purity="4.1468444466590881e-01" nType="-99"/>
          <Node pos="r" depth="2" NCoef="0" IVar="-1" Cut="0.0000000000000000e+00" cType="1" res="-7.6868645846843719e-03" rms="5.0948977470397949e-01" purity="3.2415986061096191e-01" nType="-99"/>
        </Node>
      </Node>
    </BinaryTree>
    <BinaryTree type="DecisionTree" boostWeight="1.0000000000000000e+00" itree="698">
      <Node pos="s" depth="0" NCoef="0" IVar="20" Cut="2.2203767776489258e+01" cType="0" res="2.6225098408758640e-03" rms="4.0199032425880432e-01" purity="4.9889573454856873e-01" nType="0">
        <Node pos="l" depth="1" NCoef="0" IVar="15" Cut="7.5714287757873535e+00" cType="1" res="4.1871350258588791e-02" rms="3.9030191302299500e-01" purity="5.5306190252304077e-01" nType="0">
          <Node pos="l" depth="2" NCoef="0" IVar="-1" Cut="0.0000000000000000e+00" cType="1" res="6.1506973579525948e-03" rms="2.8714853525161743e-01" purity="8.8687014579772949e-01" nType="-99"/>
          <Node pos="r" depth="2" NCoef="0" IVar="-1" Cut="0.0000000000000000e+00" cType="1" res="6.8205394200049341e-05" rms="4.0610766410827637e-01" purity="4.8050004243850708e-01" nType="-99"/>
        </Node>
        <Node pos="r" depth="1" NCoef="0" IVar="0" Cut="1.3253004550933838e+00" cType="1" res="-1.6920860856771469e-02" rms="4.0627381205558777e-01" purity="4.7192448377609253e-01" nType="0">
          <Node pos="l" depth="2" NCoef="0" IVar="-1" Cut="0.0000000000000000e+00" cType="1" res="-2.3586752358824015e-03" rms="4.2210221290588379e-01" purity="5.4094797372817993e-01" nType="-99"/>
          <Node pos="r" depth="2" NCoef="0" IVar="-1" Cut="0.0000000000000000e+00" cType="1" res="8.8467961177229881e-04" rms="3.9125800132751465e-01" purity="4.1686958074569702e-01" nType="-99"/>
        </Node>
      </Node>
    </BinaryTree>
    <BinaryTree type="DecisionTree" boostWeight="1.0000000000000000e+00" itree="699">
      <Node pos="s" depth="0" NCoef="0" IVar="0" Cut="6.6357147693634033e-01" cType="1" res="2.9307976365089417e-04" rms="4.1049867868423462e-01" purity="5.1154661178588867e-01" nType="0">
        <Node pos="l" depth="1" NCoef="0" IVar="21" Cut="3.1904761791229248e+00" cType="0" res="-5.9312332421541214e-02" rms="4.4528007507324219e-01" purity="5.5958646535873413e-01" nType="0">
          <Node pos="l" depth="2" NCoef="0" IVar="-1" Cut="0.0000000000000000e+00" cType="1" res="1.3473455794155598e-02" rms="4.9723309278488159e-01" purity="7.0513749122619629e-01" nType="-99"/>
          <Node pos="r" depth="2" NCoef="0" IVar="-1" Cut="0.0000000000000000e+00" cType="1" res="-3.0434268992394209e-03" rms="4.3047550320625305e-01" purity="5.3821635246276855e-01" nType="-99"/>
        </Node>
        <Node pos="r" depth="1" NCoef="0" IVar="15" Cut="8.0000000000000000e+00" cType="1" res="9.8271463066339493e-03" rms="4.0384271740913391e-01" purity="5.0386250019073486e-01" nType="0">
          <Node pos="l" depth="2" NCoef="0" IVar="-1" Cut="0.0000000000000000e+00" cType="1" res="1.8535937415435910e-03" rms="3.5515975952148438e-01" purity="7.3875015974044800e-01" nType="-99"/>
          <Node pos="r" depth="2" NCoef="0" IVar="-1" Cut="0.0000000000000000e+00" cType="1" res="-3.8579918327741325e-04" rms="4.1620433330535889e-01" purity="4.3628495931625366e-01" nType="-99"/>
        </Node>
      </Node>
    </BinaryTree>
    <BinaryTree type="DecisionTree" boostWeight="1.0000000000000000e+00" itree="700">
      <Node pos="s" depth="0" NCoef="0" IVar="8" Cut="6.6857142448425293e+00" cType="1" res="1.3132491149008274e-03" rms="4.0698751807212830e-01" purity="5.0161010026931763e-01" nType="0">
        <Node pos="l" depth="1" NCoef="0" IVar="0" Cut="4.4540303945541382e-01" cType="1" res="4.9044904299080372e-03" rms="4.0639293193817139e-01" purity="5.0645232200622559e-01" nType="0">
          <Node pos="l" depth="2" NCoef="0" IVar="-1" Cut="0.0000000000000000e+00" cType="1" res="-2.9039112851023674e-03" rms="4.3465793132781982e-01" purity="5.3214108943939209e-01" nType="-99"/>
          <Node pos="r" depth="2" NCoef="0" IVar="-1" Cut="0.0000000000000000e+00" cType="1" res="8.9024797489400953e-05" rms="4.0397006273269653e-01" purity="5.0475603342056274e-01" nType="-99"/>
        </Node>
        <Node pos="r" depth="1" NCoef="0" IVar="-1" Cut="0.0000000000000000e+00" cType="1" res="-3.8234353996813297e-04" rms="4.0690147876739502e-01" purity="3.2415986061096191e-01" nType="-99"/>
      </Node>
    </BinaryTree>
    <BinaryTree type="DecisionTree" boostWeight="1.0000000000000000e+00" itree="701">
      <Node pos="s" depth="0" NCoef="0" IVar="18" Cut="1.2857142686843872e+00" cType="1" res="1.9076197640970349e-03" rms="4.0654632449150085e-01" purity="5.0453084707260132e-01" nType="0">
        <Node pos="l" depth="1" NCoef="0" IVar="9" Cut="-1.3547619581222534e+00" cType="1" res="1.2295012921094894e-01" rms="2.9697909951210022e-01" purity="8.3287173509597778e-01" nType="0">
          <Node pos="l" depth="2" NCoef="0" IVar="-1" Cut="0.0000000000000000e+00" cType="1" res="4.2507904581725597e-03" rms="1.3281704485416412e-01" purity="1.0000000000000000e+00" nType="-99"/>
          <Node pos="r" depth="2" NCoef="0" IVar="-1" Cut="0.0000000000000000e+00" cType="1" res="-6.1977044679224491e-03" rms="3.4731224179267883e-01" purity="7.3223012685775757e-01" nType="-99"/>
        </Node>
        <Node pos="r" depth="1" NCoef="0" IVar="20" Cut="4.4328433990478516e+01" cType="1" res="-3.8768697995692492e-03" rms="4.1015851497650146e-01" purity="4.8883977532386780e-01" nType="0">
          <Node pos="l" depth="2" NCoef="0" IVar="-1" Cut="0.0000000000000000e+00" cType="1" res="1.3670371845364571e-04" rms="4.0935060381889343e-01" purity="4.9500238895416260e-01" nType="-99"/>
          <Node pos="r" depth="2" NCoef="0" IVar="-1" Cut="0.0000000000000000e+00" cType="1" res="-9.5448765205219388e-04" rms="4.1108870506286621e-01" purity="4.4109681248664856e-01" nType="-99"/>
        </Node>
      </Node>
    </BinaryTree>
    <BinaryTree type="DecisionTree" boostWeight="1.0000000000000000e+00" itree="702">
      <Node pos="s" depth="0" NCoef="0" IVar="18" Cut="1.4285714626312256e+00" cType="1" res="-5.9733148664236069e-03" rms="4.0434640645980835e-01" purity="4.8516616225242615e-01" nType="0">
        <Node pos="l" depth="1" NCoef="0" IVar="12" Cut="1.1428571939468384e+00" cType="1" res="-1.0740388929843903e-01" rms="4.6842437982559204e-01" purity="6.0543638467788696e-01" nType="0">
          <Node pos="l" depth="2" NCoef="0" IVar="-1" Cut="0.0000000000000000e+00" cType="1" res="1.4372502919286489e-03" rms="3.9798456430435181e-01" purity="7.1639472246170044e-01" nType="-99"/>
          <Node pos="r" depth="2" NCoef="0" IVar="-1" Cut="0.0000000000000000e+00" cType="1" res="-6.5008178353309631e-03" rms="5.2772355079650879e-01" purity="4.2567658424377441e-01" nType="-99"/>
        </Node>
        <Node pos="r" depth="1" NCoef="0" IVar="10" Cut="2.1584119796752930e+00" cType="1" res="4.4855358282802626e-05" rms="3.9941349625587463e-01" purity="4.7803014516830444e-01" nType="0">
          <Node pos="l" depth="2" NCoef="0" IVar="-1" Cut="0.0000000000000000e+00" cType="1" res="6.5517210168763995e-04" rms="3.9497706294059753e-01" purity="6.0448557138442993e-01" nType="-99"/>
          <Node pos="r" depth="2" NCoef="0" IVar="-1" Cut="0.0000000000000000e+00" cType="1" res="-5.5167125537991524e-04" rms="4.0326514840126038e-01" purity="3.4007206559181213e-01" nType="-99"/>
        </Node>
      </Node>
    </BinaryTree>
    <BinaryTree type="DecisionTree" boostWeight="1.0000000000000000e+00" itree="703">
      <Node pos="s" depth="0" NCoef="0" IVar="9" Cut="-1.4285714626312256e+00" cType="1" res="2.4612098932266235e-03" rms="4.1102209687232971e-01" purity="5.0386708974838257e-01" nType="0">
        <Node pos="l" depth="1" NCoef="0" IVar="3" Cut="2.8571429252624512e+00" cType="1" res="-4.9011453986167908e-02" rms="4.2973393201828003e-01" purity="5.4802763462066650e-01" nType="0">
          <Node pos="l" depth="2" NCoef="0" IVar="-1" Cut="0.0000000000000000e+00" cType="1" res="3.9738076739013195e-03" rms="3.9561319351196289e-01" purity="7.3549681901931763e-01" nType="-99"/>
          <Node pos="r" depth="2" NCoef="0" IVar="-1" Cut="0.0000000000000000e+00" cType="1" res="-1.6196663491427898e-03" rms="4.3436387181282043e-01" purity="4.7928023338317871e-01" nType="-99"/>
        </Node>
        <Node pos="r" depth="1" NCoef="0" IVar="5" Cut="6.6017252206802368e-01" cType="1" res="1.7647944390773773e-02" rms="4.0408557653427124e-01" purity="4.9083769321441650e-01" nType="0">
          <Node pos="l" depth="2" NCoef="0" IVar="-1" Cut="0.0000000000000000e+00" cType="1" res="-8.6179142817854881e-03" rms="4.4683575630187988e-01" purity="6.2731963396072388e-01" nType="-99"/>
          <Node pos="r" depth="2" NCoef="0" IVar="-1" Cut="0.0000000000000000e+00" cType="1" res="8.8987275375984609e-05" rms="4.0200743079185486e-01" purity="4.8795279860496521e-01" nType="-99"/>
        </Node>
      </Node>
    </BinaryTree>
    <BinaryTree type="DecisionTree" boostWeight="1.0000000000000000e+00" itree="704">
      <Node pos="s" depth="0" NCoef="0" IVar="6" Cut="6.8153303861618042e-01" cType="1" res="1.2039986904710531e-03" rms="4.0790769457817078e-01" purity="5.1227039098739624e-01" nType="0">
        <Node pos="l" depth="1" NCoef="0" IVar="-1" Cut="0.0000000000000000e+00" cType="1" res="-7.9672684660181403e-04" rms="2.9502445459365845e-01" purity="8.4917294979095459e-01" nType="-99"/>
        <Node pos="r" depth="1" NCoef="0" IVar="9" Cut="-7.1428570747375488e+00" cType="1" res="-2.2009646054357290e-03" rms="4.0957289934158325e-01" purity="5.0434809923171997e-01" nType="0">
          <Node pos="l" depth="2" NCoef="0" IVar="-1" Cut="0.0000000000000000e+00" cType="1" res="-1.0790226515382528e-03" rms="4.2453297972679138e-01" purity="5.9055209159851074e-01" nType="-99"/>
          <Node pos="r" depth="2" NCoef="0" IVar="-1" Cut="0.0000000000000000e+00" cType="1" res="-1.6236854207818396e-05" rms="4.0807434916496277e-01" purity="4.9878367781639099e-01" nType="-99"/>
        </Node>
      </Node>
    </BinaryTree>
    <BinaryTree type="DecisionTree" boostWeight="1.0000000000000000e+00" itree="705">
      <Node pos="s" depth="0" NCoef="0" IVar="15" Cut="1.2714285850524902e+01" cType="1" res="-4.0756221860647202e-03" rms="4.1297334432601929e-01" purity="5.0557851791381836e-01" nType="0">
        <Node pos="l" depth="1" NCoef="0" IVar="15" Cut="1.1285714149475098e+01" cType="1" res="-2.6212517172098160e-02" rms="4.0734127163887024e-01" purity="6.1139351129531860e-01" nType="0">
          <Node pos="l" depth="2" NCoef="0" IVar="-1" Cut="0.0000000000000000e+00" cType="1" res="4.7989244922064245e-04" rms="3.9661726355552673e-01" purity="6.3764226436614990e-01" nType="-99"/>
          <Node pos="r" depth="2" NCoef="0" IVar="-1" Cut="0.0000000000000000e+00" cType="1" res="-5.6529273279011250e-03" rms="4.6661785244941711e-01" purity="4.1965124011039734e-01" nType="-99"/>
        </Node>
        <Node pos="r" depth="1" NCoef="0" IVar="19" Cut="1.9466765224933624e-02" cType="0" res="1.8227797001600266e-02" rms="4.1738545894622803e-01" purity="3.9896747469902039e-01" nType="0">
          <Node pos="l" depth="2" NCoef="0" IVar="-1" Cut="0.0000000000000000e+00" cType="1" res="3.0962221790105104e-03" rms="4.1571587324142456e-01" purity="5.1369011402130127e-01" nType="-99"/>
          <Node pos="r" depth="2" NCoef="0" IVar="-1" Cut="0.0000000000000000e+00" cType="1" res="-2.3450594744645059e-04" rms="4.1611516475677490e-01" purity="3.7842956185340881e-01" nType="-99"/>
        </Node>
      </Node>
    </BinaryTree>
    <BinaryTree type="DecisionTree" boostWeight="1.0000000000000000e+00" itree="706">
      <Node pos="s" depth="0" NCoef="0" IVar="8" Cut="4.8023810386657715e+00" cType="0" res="1.0837077163159847e-02" rms="4.0300947427749634e-01" purity="5.0965416431427002e-01" nType="0">
        <Node pos="l" depth="1" NCoef="0" IVar="-1" Cut="0.0000000000000000e+00" cType="1" res="1.1309710098430514e-03" rms="3.9189198613166809e-01" purity="6.9712281227111816e-01" nType="-99"/>
        <Node pos="r" depth="1" NCoef="0" IVar="9" Cut="-8.5714282989501953e+00" cType="1" res="6.0758707113564014e-03" rms="4.0220588445663452e-01" purity="5.0470060110092163e-01" nType="0">
          <Node pos="l" depth="2" NCoef="0" IVar="-1" Cut="0.0000000000000000e+00" cType="1" res="-2.6896912604570389e-03" rms="4.3557524681091309e-01" purity="5.8768749237060547e-01" nType="-99"/>
          <Node pos="r" depth="2" NCoef="0" IVar="-1" Cut="0.0000000000000000e+00" cType="1" res="-4.3483953049872071e-05" rms="3.9968246221542358e-01" purity="5.0076377391815186e-01" nType="-99"/>
        </Node>
      </Node>
    </BinaryTree>
    <BinaryTree type="DecisionTree" boostWeight="1.0000000000000000e+00" itree="707">
      <Node pos="s" depth="0" NCoef="0" IVar="4" Cut="2.2497279644012451e+00" cType="1" res="4.0243696421384811e-03" rms="4.0736502408981323e-01" purity="5.1034450531005859e-01" nType="0">
        <Node pos="l" depth="1" NCoef="0" IVar="5" Cut="1.6063776016235352e+00" cType="1" res="-9.0087167918682098e-03" rms="4.1555535793304443e-01" purity="6.1257129907608032e-01" nType="0">
          <Node pos="l" depth="2" NCoef="0" IVar="-1" Cut="0.0000000000000000e+00" cType="1" res="-1.5231576981022954e-04" rms="3.9235445857048035e-01" purity="7.1236783266067505e-01" nType="-99"/>
          <Node pos="r" depth="2" NCoef="0" IVar="-1" Cut="0.0000000000000000e+00" cType="1" res="-6.9083354901522398e-04" rms="4.4833284616470337e-01" purity="4.4787126779556274e-01" nType="-99"/>
        </Node>
        <Node pos="r" depth="1" NCoef="0" IVar="10" Cut="3.3104176521301270e+00" cType="1" res="3.1251132488250732e-02" rms="3.8829103112220764e-01" purity="2.9678764939308167e-01" nType="0">
          <Node pos="l" depth="2" NCoef="0" IVar="-1" Cut="0.0000000000000000e+00" cType="1" res="1.1073645437136292e-03" rms="4.0324711799621582e-01" purity="3.6846405267715454e-01" nType="-99"/>
          <Node pos="r" depth="2" NCoef="0" IVar="-1" Cut="0.0000000000000000e+00" cType="1" res="-1.0367823997512460e-03" rms="3.5360741615295410e-01" purity="1.7459703981876373e-01" nType="-99"/>
        </Node>
      </Node>
    </BinaryTree>
    <BinaryTree type="DecisionTree" boostWeight="1.0000000000000000e+00" itree="708">
      <Node pos="s" depth="0" NCoef="0" IVar="20" Cut="2.8644519805908203e+01" cType="0" res="-3.5902885720133781e-03" rms="4.1057196259498596e-01" purity="4.9700093269348145e-01" nType="0">
        <Node pos="l" depth="1" NCoef="0" IVar="11" Cut="2.2135379314422607e+00" cType="1" res="4.5439615845680237e-02" rms="4.0944984555244446e-01" purity="5.8021157979965210e-01" nType="0">
          <Node pos="l" depth="2" NCoef="0" IVar="-1" Cut="0.0000000000000000e+00" cType="1" res="-4.0790947969071567e-04" rms="4.0638688206672668e-01" purity="5.8503317832946777e-01" nType="-99"/>
          <Node pos="r" depth="2" NCoef="0" IVar="-1" Cut="0.0000000000000000e+00" cType="1" res="7.7095418237149715e-03" rms="3.8712754845619202e-01" purity="5.3620243072509766e-01" nType="-99"/>
        </Node>
        <Node pos="r" depth="1" NCoef="0" IVar="20" Cut="2.6784484863281250e+01" cType="1" res="-1.8008876591920853e-02" rms="4.0978664159774780e-01" purity="4.7253054380416870e-01" nType="0">
          <Node pos="l" depth="2" NCoef="0" IVar="-1" Cut="0.0000000000000000e+00" cType="1" res="2.0906631834805012e-04" rms="4.0982082486152649e-01" purity="4.8004266619682312e-01" nType="-99"/>
          <Node pos="r" depth="2" NCoef="0" IVar="-1" Cut="0.0000000000000000e+00" cType="1" res="-6.3962354324758053e-03" rms="3.8751834630966187e-01" purity="3.3070951700210571e-01" nType="-99"/>
        </Node>
      </Node>
    </BinaryTree>
    <BinaryTree type="DecisionTree" boostWeight="1.0000000000000000e+00" itree="709">
      <Node pos="s" depth="0" NCoef="0" IVar="4" Cut="3.2973644733428955e+00" cType="1" res="6.7741321399807930e-03" rms="3.9914715290069580e-01" purity="5.0088030099868774e-01" nType="0">
        <Node pos="l" depth="1" NCoef="0" IVar="20" Cut="4.4328433990478516e+01" cType="0" res="1.3740054331719875e-02" rms="4.1016787290573120e-01" purity="5.4153549671173096e-01" nType="0">
          <Node pos="l" depth="2" NCoef="0" IVar="-1" Cut="0.0000000000000000e+00" cType="1" res="-1.1469986056908965e-03" rms="3.8345390558242798e-01" purity="6.7220175266265869e-01" nType="-99"/>
          <Node pos="r" depth="2" NCoef="0" IVar="-1" Cut="0.0000000000000000e+00" cType="1" res="3.8128369487822056e-04" rms="4.1202944517135620e-01" purity="5.2885127067565918e-01" nType="-99"/>
        </Node>
        <Node pos="r" depth="1" NCoef="0" IVar="-1" Cut="0.0000000000000000e+00" cType="1" res="-3.6035790108144283e-03" rms="2.3904895782470703e-01" purity="6.3175395131111145e-02" nType="-99"/>
      </Node>
    </BinaryTree>
    <BinaryTree type="DecisionTree" boostWeight="1.0000000000000000e+00" itree="710">
      <Node pos="s" depth="0" NCoef="0" IVar="12" Cut="2.1428570747375488e+00" cType="1" res="-1.1390080675482750e-02" rms="4.1056281328201294e-01" purity="4.9199199676513672e-01" nType="0">
        <Node pos="l" depth="1" NCoef="0" IVar="14" Cut="3.8380950927734375e+01" cType="1" res="1.1242377804592252e-03" rms="4.0012091398239136e-01" purity="5.0706338882446289e-01" nType="0">
          <Node pos="l" depth="2" NCoef="0" IVar="-1" Cut="0.0000000000000000e+00" cType="1" res="2.3694837000221014e-03" rms="3.8257059454917908e-01" purity="5.9354478120803833e-01" nType="-99"/>
          <Node pos="r" depth="2" NCoef="0" IVar="-1" Cut="0.0000000000000000e+00" cType="1" res="-4.1348978993482888e-04" rms="4.0361982583999634e-01" purity="4.8276245594024658e-01" nType="-99"/>
        </Node>
        <Node pos="r" depth="1" NCoef="0" IVar="17" Cut="3.0626174926757812e+01" cType="1" res="-7.1446351706981659e-02" rms="4.5257857441902161e-01" purity="4.1966444253921509e-01" nType="0">
          <Node pos="l" depth="2" NCoef="0" IVar="-1" Cut="0.0000000000000000e+00" cType="1" res="2.9430646100081503e-04" rms="4.4935643672943115e-01" purity="4.6137639880180359e-01" nType="-99"/>
          <Node pos="r" depth="2" NCoef="0" IVar="-1" Cut="0.0000000000000000e+00" cType="1" res="-3.2458943314850330e-03" rms="4.4793879985809326e-01" purity="3.4863248467445374e-01" nType="-99"/>
        </Node>
      </Node>
    </BinaryTree>
    <BinaryTree type="DecisionTree" boostWeight="1.0000000000000000e+00" itree="711">
      <Node pos="s" depth="0" NCoef="0" IVar="20" Cut="9.3222599029541016e+00" cType="1" res="8.5500963032245636e-03" rms="4.0287205576896667e-01" purity="5.0900012254714966e-01" nType="0">
        <Node pos="l" depth="1" NCoef="0" IVar="18" Cut="1.1428571939468384e+00" cType="0" res="-3.9847802370786667e-02" rms="4.2765989899635315e-01" purity="5.1185590028762817e-01" nType="0">
          <Node pos="l" depth="2" NCoef="0" IVar="-1" Cut="0.0000000000000000e+00" cType="1" res="4.6328915050253272e-04" rms="4.1541364789009094e-01" purity="5.1369011402130127e-01" nType="-99"/>
          <Node pos="r" depth="2" NCoef="0" IVar="-1" Cut="0.0000000000000000e+00" cType="1" res="-9.6113597974181175e-03" rms="4.9826654791831970e-01" purity="4.9428015947341919e-01" nType="-99"/>
        </Node>
        <Node pos="r" depth="1" NCoef="0" IVar="15" Cut="9.8571424484252930e+00" cType="1" res="2.5118384510278702e-02" rms="3.9265993237495422e-01" purity="5.0802248716354370e-01" nType="0">
          <Node pos="l" depth="2" NCoef="0" IVar="-1" Cut="0.0000000000000000e+00" cType="1" res="2.8710258193314075e-03" rms="3.2165443897247314e-01" purity="7.6137602329254150e-01" nType="-99"/>
          <Node pos="r" depth="2" NCoef="0" IVar="-1" Cut="0.0000000000000000e+00" cType="1" res="-7.8036042395979166e-04" rms="4.1882896423339844e-01" purity="3.9236709475517273e-01" nType="-99"/>
        </Node>
      </Node>
    </BinaryTree>
    <BinaryTree type="DecisionTree" boostWeight="1.0000000000000000e+00" itree="712">
      <Node pos="s" depth="0" NCoef="0" IVar="12" Cut="1.4285714924335480e-01" cType="1" res="-5.7463408447802067e-03" rms="4.1235402226448059e-01" purity="5.0439220666885376e-01" nType="0">
        <Node pos="l" depth="1" NCoef="0" IVar="10" Cut="1.9058202505111694e+00" cType="1" res="-6.1521943658590317e-02" rms="3.7681171298027039e-01" purity="5.2807432413101196e-01" nType="0">
          <Node pos="l" depth="2" NCoef="0" IVar="-1" Cut="0.0000000000000000e+00" cType="1" res="1.4349049888551235e-03" rms="3.7333488464355469e-01" purity="7.3783266544342041e-01" nType="-99"/>
          <Node pos="r" depth="2" NCoef="0" IVar="-1" Cut="0.0000000000000000e+00" cType="1" res="-4.3533374555408955e-03" rms="3.7188178300857544e-01" purity="2.9379290342330933e-01" nType="-99"/>
        </Node>
        <Node pos="r" depth="1" NCoef="0" IVar="15" Cut="4.8571429252624512e+00" cType="1" res="9.3134175986051559e-03" rms="4.2016950249671936e-01" purity="4.9799785017967224e-01" nType="0">
          <Node pos="l" depth="2" NCoef="0" IVar="-1" Cut="0.0000000000000000e+00" cType="1" res="-4.2638126760721207e-03" rms="4.6627542376518250e-01" purity="6.0173100233078003e-01" nType="-99"/>
          <Node pos="r" depth="2" NCoef="0" IVar="-1" Cut="0.0000000000000000e+00" cType="1" res="4.7240394633263350e-04" rms="4.1588664054870605e-01" purity="4.9194160103797913e-01" nType="-99"/>
        </Node>
      </Node>
    </BinaryTree>
    <BinaryTree type="DecisionTree" boostWeight="1.0000000000000000e+00" itree="713">
      <Node pos="s" depth="0" NCoef="0" IVar="12" Cut="1.1428571939468384e+00" cType="1" res="1.5254100435413420e-04" rms="4.0621155500411987e-01" purity="4.9955615401268005e-01" nType="0">
        <Node pos="l" depth="1" NCoef="0" IVar="18" Cut="3.1428570747375488e+00" cType="1" res="-3.2541796565055847e-02" rms="3.6285632848739624e-01" purity="6.6399449110031128e-01" nType="0">
          <Node pos="l" depth="2" NCoef="0" IVar="-1" Cut="0.0000000000000000e+00" cType="1" res="2.0420621149241924e-03" rms="3.3381870388984680e-01" purity="7.2541725635528564e-01" nType="-99"/>
          <Node pos="r" depth="2" NCoef="0" IVar="-1" Cut="0.0000000000000000e+00" cType="1" res="-7.3597659356892109e-03" rms="4.4734764099121094e-01" purity="3.7836489081382751e-01" nType="-99"/>
        </Node>
        <Node pos="r" depth="1" NCoef="0" IVar="4" Cut="1.0670313835144043e+00" cType="1" res="1.3263133354485035e-02" rms="4.2163732647895813e-01" purity="4.3361553549766541e-01" nType="0">
          <Node pos="l" depth="2" NCoef="0" IVar="-1" Cut="0.0000000000000000e+00" cType="1" res="-5.2300840616226196e-03" rms="4.6019211411476135e-01" purity="4.8381027579307556e-01" nType="-99"/>
          <Node pos="r" depth="2" NCoef="0" IVar="-1" Cut="0.0000000000000000e+00" cType="1" res="3.5671438672579825e-04" rms="4.1806429624557495e-01" purity="4.3092808127403259e-01" nType="-99"/>
        </Node>
      </Node>
    </BinaryTree>
    <BinaryTree type="DecisionTree" boostWeight="1.0000000000000000e+00" itree="714">
      <Node pos="s" depth="0" NCoef="0" IVar="5" Cut="8.7342929840087891e-01" cType="1" res="-3.4224407281726599e-03" rms="4.0749761462211609e-01" purity="4.9516934156417847e-01" nType="0">
        <Node pos="l" depth="1" NCoef="0" IVar="10" Cut="1.4690845012664795e+00" cType="0" res="5.6099798530340195e-02" rms="3.3127543330192566e-01" purity="8.3405834436416626e-01" nType="0">
          <Node pos="l" depth="2" NCoef="0" IVar="-1" Cut="0.0000000000000000e+00" cType="1" res="2.8628727886825800e-03" rms="2.8771266341209412e-01" purity="9.1120958328247070e-01" nType="-99"/>
          <Node pos="r" depth="2" NCoef="0" IVar="-1" Cut="0.0000000000000000e+00" cType="1" res="2.1663353254552931e-04" rms="3.3557313680648804e-01" purity="8.0176097154617310e-01" nType="-99"/>
        </Node>
        <Node pos="r" depth="1" NCoef="0" IVar="1" Cut="8.7142858505249023e+00" cType="0" res="-9.6756704151630402e-03" rms="4.1419664025306702e-01" purity="4.5956668257713318e-01" nType="0">
          <Node pos="l" depth="2" NCoef="0" IVar="-1" Cut="0.0000000000000000e+00" cType="1" res="3.7852427922189236e-03" rms="4.6019086241722107e-01" purity="6.1665314435958862e-01" nType="-99"/>
          <Node pos="r" depth="2" NCoef="0" IVar="-1" Cut="0.0000000000000000e+00" cType="1" res="-3.4103481448255479e-04" rms="4.1190424561500549e-01" purity="4.5412036776542664e-01" nType="-99"/>
        </Node>
      </Node>
    </BinaryTree>
    <BinaryTree type="DecisionTree" boostWeight="1.0000000000000000e+00" itree="715">
      <Node pos="s" depth="0" NCoef="0" IVar="6" Cut="8.9479875564575195e-01" cType="1" res="4.0262294933199883e-03" rms="4.0743541717529297e-01" purity="5.1143103837966919e-01" nType="0">
        <Node pos="l" depth="1" NCoef="0" IVar="14" Cut="1.1667242431640625e+02" cType="1" res="-1.0694019496440887e-01" rms="4.3079712986946106e-01" purity="5.5217921733856201e-01" nType="0">
          <Node pos="l" depth="2" NCoef="0" IVar="-1" Cut="0.0000000000000000e+00" cType="1" res="3.9774965262040496e-04" rms="4.0248516201972961e-01" purity="6.1764794588088989e-01" nType="-99"/>
          <Node pos="r" depth="2" NCoef="0" IVar="-1" Cut="0.0000000000000000e+00" cType="1" res="-7.9462714493274689e-03" rms="4.4529330730438232e-01" purity="3.5266637802124023e-01" nType="-99"/>
        </Node>
        <Node pos="r" depth="1" NCoef="0" IVar="9" Cut="-1.0000000000000000e+01" cType="1" res="1.4012255705893040e-02" rms="4.0377408266067505e-01" purity="5.0776398181915283e-01" nType="0">
          <Node pos="l" depth="2" NCoef="0" IVar="-1" Cut="0.0000000000000000e+00" cType="1" res="9.2969555407762527e-03" rms="2.1715663373470306e-01" purity="9.6021616458892822e-01" nType="-99"/>
          <Node pos="r" depth="2" NCoef="0" IVar="-1" Cut="0.0000000000000000e+00" cType="1" res="-1.2612270074896514e-04" rms="4.0625238418579102e-01" purity="4.9658188223838806e-01" nType="-99"/>
        </Node>
      </Node>
    </BinaryTree>
    <BinaryTree type="DecisionTree" boostWeight="1.0000000000000000e+00" itree="716">
      <Node pos="s" depth="0" NCoef="0" IVar="0" Cut="8.9080691337585449e-01" cType="1" res="3.5343281342647970e-04" rms="4.0221232175827026e-01" purity="4.9887290596961975e-01" nType="0">
        <Node pos="l" depth="1" NCoef="0" IVar="0" Cut="4.2385077476501465e-01" cType="1" res="-4.5346461236476898e-02" rms="4.1718363761901855e-01" purity="5.5382728576660156e-01" nType="0">
          <Node pos="l" depth="2" NCoef="0" IVar="-1" Cut="0.0000000000000000e+00" cType="1" res="-7.1591837331652641e-04" rms="4.1492760181427002e-01" purity="6.7492914199829102e-01" nType="-99"/>
          <Node pos="r" depth="2" NCoef="0" IVar="-1" Cut="0.0000000000000000e+00" cType="1" res="-9.7155419643968344e-04" rms="4.1323179006576538e-01" purity="5.2043330669403076e-01" nType="-99"/>
        </Node>
        <Node pos="r" depth="1" NCoef="0" IVar="21" Cut="3.2857143878936768e+00" cType="1" res="1.4795954339206219e-02" rms="3.9626920223236084e-01" purity="4.8150572180747986e-01" nType="0">
          <Node pos="l" depth="2" NCoef="0" IVar="-1" Cut="0.0000000000000000e+00" cType="1" res="9.6867990214377642e-04" rms="3.7927508354187012e-01" purity="6.1467301845550537e-01" nType="-99"/>
          <Node pos="r" depth="2" NCoef="0" IVar="-1" Cut="0.0000000000000000e+00" cType="1" res="-5.1539659034460783e-04" rms="4.0834096074104309e-01" purity="3.6760121583938599e-01" nType="-99"/>
        </Node>
      </Node>
    </BinaryTree>
    <BinaryTree type="DecisionTree" boostWeight="1.0000000000000000e+00" itree="717">
      <Node pos="s" depth="0" NCoef="0" IVar="21" Cut="4.2380952835083008e+00" cType="1" res="5.1765926182270050e-03" rms="4.0169090032577515e-01" purity="4.9820861220359802e-01" nType="0">
        <Node pos="l" depth="1" NCoef="0" IVar="11" Cut="2.2135379314422607e+00" cType="1" res="-1.6188303008675575e-02" rms="4.0198004245758057e-01" purity="5.5836731195449829e-01" nType="0">
          <Node pos="l" depth="2" NCoef="0" IVar="-1" Cut="0.0000000000000000e+00" cType="1" res="-1.7429684521630406e-04" rms="4.0314140915870667e-01" purity="6.0654258728027344e-01" nType="-99"/>
          <Node pos="r" depth="2" NCoef="0" IVar="-1" Cut="0.0000000000000000e+00" cType="1" res="-3.1839678995311260e-03" rms="3.8716316223144531e-01" purity="2.2597904503345490e-01" nType="-99"/>
        </Node>
        <Node pos="r" depth="1" NCoef="0" IVar="15" Cut="1.8571428298950195e+01" cType="1" res="3.7910375744104385e-02" rms="3.9903470873832703e-01" purity="4.0603771805763245e-01" nType="0">
          <Node pos="l" depth="2" NCoef="0" IVar="-1" Cut="0.0000000000000000e+00" cType="1" res="1.9004462519660592e-03" rms="4.6148785948753357e-01" purity="6.0388749837875366e-01" nType="-99"/>
          <Node pos="r" depth="2" NCoef="0" IVar="-1" Cut="0.0000000000000000e+00" cType="1" res="-2.6817761827260256e-03" rms="2.5272101163864136e-01" purity="7.4656613171100616e-02" nType="-99"/>
        </Node>
      </Node>
    </BinaryTree>
    <BinaryTree type="DecisionTree" boostWeight="1.0000000000000000e+00" itree="718">
      <Node pos="s" depth="0" NCoef="0" IVar="5" Cut="8.7959969043731689e-01" cType="1" res="3.2830873969942331e-03" rms="4.0492883324623108e-01" purity="5.0143498182296753e-01" nType="0">
        <Node pos="l" depth="1" NCoef="0" IVar="12" Cut="1.1428571939468384e+00" cType="1" res="6.6488467156887054e-02" rms="3.2578176259994507e-01" purity="8.6223703622817993e-01" nType="0">
          <Node pos="l" depth="2" NCoef="0" IVar="-1" Cut="0.0000000000000000e+00" cType="1" res="1.8695819017011672e-04" rms="3.0518519878387451e-01" purity="8.6948859691619873e-01" nType="-99"/>
          <Node pos="r" depth="2" NCoef="0" IVar="-1" Cut="0.0000000000000000e+00" cType="1" res="1.9928596448153257e-03" rms="3.2702961564064026e-01" purity="8.4971147775650024e-01" nType="-99"/>
        </Node>
        <Node pos="r" depth="1" NCoef="0" IVar="0" Cut="1.1064496040344238e+00" cType="1" res="-3.3061446156352758e-03" rms="4.1174831986427307e-01" purity="4.6382093429565430e-01" nType="0">
          <Node pos="l" depth="2" NCoef="0" IVar="-1" Cut="0.0000000000000000e+00" cType="1" res="-7.7578373020514846e-04" rms="4.3189063668251038e-01" purity="5.0782060623168945e-01" nType="-99"/>
          <Node pos="r" depth="2" NCoef="0" IVar="-1" Cut="0.0000000000000000e+00" cType="1" res="4.8217276344075799e-05" rms="4.0374198555946350e-01" purity="4.4830712676048279e-01" nType="-99"/>
        </Node>
      </Node>
    </BinaryTree>
    <BinaryTree type="DecisionTree" boostWeight="1.0000000000000000e+00" itree="719">
      <Node pos="s" depth="0" NCoef="0" IVar="7" Cut="-1.7142885923385620e-01" cType="1" res="1.4573725871741772e-02" rms="4.0767633914947510e-01" purity="5.2474188804626465e-01" nType="0">
        <Node pos="l" depth="1" NCoef="0" IVar="4" Cut="1.9235056638717651e+00" cType="1" res="5.8075375854969025e-02" rms="4.0075349807739258e-01" purity="6.4048427343368530e-01" nType="0">
          <Node pos="l" depth="2" NCoef="0" IVar="-1" Cut="0.0000000000000000e+00" cType="1" res="-7.8129174653440714e-04" rms="3.8883274793624878e-01" purity="7.2083777189254761e-01" nType="-99"/>
          <Node pos="r" depth="2" NCoef="0" IVar="-1" Cut="0.0000000000000000e+00" cType="1" res="1.8452625954523683e-03" rms="4.1130030155181885e-01" purity="5.1767069101333618e-01" nType="-99"/>
        </Node>
        <Node pos="r" depth="1" NCoef="0" IVar="17" Cut="2.8441267013549805e+01" cType="0" res="-1.1146108619868755e-02" rms="4.0954679250717163e-01" purity="4.5631062984466553e-01" nType="0">
          <Node pos="l" depth="2" NCoef="0" IVar="-1" Cut="0.0000000000000000e+00" cType="1" res="1.3473057188093662e-03" rms="4.1920310258865356e-01" purity="5.6140643358230591e-01" nType="-99"/>
          <Node pos="r" depth="2" NCoef="0" IVar="-1" Cut="0.0000000000000000e+00" cType="1" res="-1.3113948516547680e-03" rms="4.0283256769180298e-01" purity="4.1539269685745239e-01" nType="-99"/>
        </Node>
      </Node>
    </BinaryTree>
    <BinaryTree type="DecisionTree" boostWeight="1.0000000000000000e+00" itree="720">
      <Node pos="s" depth="0" NCoef="0" IVar="9" Cut="-1.1428571701049805e+01" cType="1" res="4.8380112275481224e-03" rms="4.0514814853668213e-01" purity="5.0434631109237671e-01" nType="0">
        <Node pos="l" depth="1" NCoef="0" IVar="-1" Cut="0.0000000000000000e+00" cType="1" res="3.3999301958829165e-03" rms="3.0638894438743591e-01" purity="9.2641943693161011e-01" nType="-99"/>
        <Node pos="r" depth="1" NCoef="0" IVar="9" Cut="-4.8428573608398438e+00" cType="0" res="1.3620251556858420e-03" rms="4.0658506751060486e-01" purity="4.9423781037330627e-01" nType="0">
          <Node pos="l" depth="2" NCoef="0" IVar="-1" Cut="0.0000000000000000e+00" cType="1" res="8.1709491496440023e-05" rms="4.0579175949096680e-01" purity="4.9846515059471130e-01" nType="-99"/>
          <Node pos="r" depth="2" NCoef="0" IVar="-1" Cut="0.0000000000000000e+00" cType="1" res="-3.2187164761126041e-03" rms="3.9942625164985657e-01" purity="4.3861231207847595e-01" nType="-99"/>
        </Node>
      </Node>
    </BinaryTree>
    <BinaryTree type="DecisionTree" boostWeight="1.0000000000000000e+00" itree="721">
      <Node pos="s" depth="0" NCoef="0" IVar="12" Cut="1.4285714924335480e-01" cType="1" res="2.6274444535374641e-03" rms="4.0168085694313049e-01" purity="5.0229185819625854e-01" nType="0">
        <Node pos="l" depth="1" NCoef="0" IVar="9" Cut="-7.1428570747375488e+00" cType="0" res="-4.5148804783821106e-02" rms="3.8274785876274109e-01" purity="5.5353629589080811e-01" nType="0">
          <Node pos="l" depth="2" NCoef="0" IVar="-1" Cut="0.0000000000000000e+00" cType="1" res="-1.0561381932348013e-03" rms="3.7765952944755554e-01" purity="5.5859297513961792e-01" nType="-99"/>
          <Node pos="r" depth="2" NCoef="0" IVar="-1" Cut="0.0000000000000000e+00" cType="1" res="-7.1610924787819386e-03" rms="3.8795414566993713e-01" purity="5.3068685531616211e-01" nType="-99"/>
        </Node>
        <Node pos="r" depth="1" NCoef="0" IVar="0" Cut="2.6724205017089844e+00" cType="1" res="1.4707181602716446e-02" rms="4.0543746948242188e-01" purity="4.8933520913124084e-01" nType="0">
          <Node pos="l" depth="2" NCoef="0" IVar="-1" Cut="0.0000000000000000e+00" cType="1" res="4.1122085531242192e-04" rms="4.1118204593658447e-01" purity="5.3594022989273071e-01" nType="-99"/>
          <Node pos="r" depth="2" NCoef="0" IVar="-1" Cut="0.0000000000000000e+00" cType="1" res="-6.2214251374825835e-04" rms="3.5616946220397949e-01" purity="1.6783271729946136e-01" nType="-99"/>
        </Node>
      </Node>
    </BinaryTree>
    <BinaryTree type="DecisionTree" boostWeight="1.0000000000000000e+00" itree="722">
      <Node pos="s" depth="0" NCoef="0" IVar="0" Cut="1.3077951669692993e+00" cType="1" res="-9.6542937681078911e-03" rms="4.0302363038063049e-01" purity="4.9059513211250305e-01" nType="0">
        <Node pos="l" depth="1" NCoef="0" IVar="18" Cut="5.1904764175415039e+00" cType="1" res="-4.1286151856184006e-02" rms="4.0875115990638733e-01" purity="5.6037145853042603e-01" nType="0">
          <Node pos="l" depth="2" NCoef="0" IVar="-1" Cut="0.0000000000000000e+00" cType="1" res="-2.1056430705357343e-04" rms="4.0513205528259277e-01" purity="7.0117908716201782e-01" nType="-99"/>
          <Node pos="r" depth="2" NCoef="0" IVar="-1" Cut="0.0000000000000000e+00" cType="1" res="-1.1557487305253744e-03" rms="4.0930372476577759e-01" purity="3.1524798274040222e-01" nType="-99"/>
        </Node>
        <Node pos="r" depth="1" NCoef="0" IVar="14" Cut="1.9856044006347656e+02" cType="1" res="1.4051589183509350e-02" rms="3.9702865481376648e-01" purity="4.3830260634422302e-01" nType="0">
          <Node pos="l" depth="2" NCoef="0" IVar="-1" Cut="0.0000000000000000e+00" cType="1" res="4.7013611765578389e-04" rms="3.9591276645660400e-01" purity="4.5038026571273804e-01" nType="-99"/>
          <Node pos="r" depth="2" NCoef="0" IVar="-1" Cut="0.0000000000000000e+00" cType="1" res="-3.3746154513210058e-03" rms="3.8222813606262207e-01" purity="2.4871219694614410e-01" nType="-99"/>
        </Node>
      </Node>
    </BinaryTree>
    <BinaryTree type="DecisionTree" boostWeight="1.0000000000000000e+00" itree="723">
      <Node pos="s" depth="0" NCoef="0" IVar="20" Cut="5.1119487762451172e+01" cType="0" res="-2.6124799624085426e-03" rms="4.0419614315032959e-01" purity="4.9518343806266785e-01" nType="0">
        <Node pos="l" depth="1" NCoef="0" IVar="18" Cut="5.3333334922790527e+00" cType="1" res="9.0692795813083649e-02" rms="3.5976865887641907e-01" purity="5.6332045793533325e-01" nType="0">
          <Node pos="l" depth="2" NCoef="0" IVar="-1" Cut="0.0000000000000000e+00" cType="1" res="4.1467663832008839e-03" rms="3.1975993514060974e-01" purity="8.2659924030303955e-01" nType="-99"/>
          <Node pos="r" depth="2" NCoef="0" IVar="-1" Cut="0.0000000000000000e+00" cType="1" res="-3.6950493231415749e-03" rms="3.7588006258010864e-01" purity="3.4095513820648193e-01" nType="-99"/>
        </Node>
        <Node pos="r" depth="1" NCoef="0" IVar="9" Cut="-5.7142858505249023e+00" cType="1" res="-8.8370330631732941e-03" rms="4.0622562170028687e-01" purity="4.9063792824745178e-01" nType="0">
          <Node pos="l" depth="2" NCoef="0" IVar="-1" Cut="0.0000000000000000e+00" cType="1" res="-2.2879580501466990e-03" rms="3.7573710083961487e-01" purity="5.2838802337646484e-01" nType="-99"/>
          <Node pos="r" depth="2" NCoef="0" IVar="-1" Cut="0.0000000000000000e+00" cType="1" res="1.3351357483770698e-04" rms="4.0798914432525635e-01" purity="4.8733347654342651e-01" nType="-99"/>
        </Node>
      </Node>
    </BinaryTree>
    <BinaryTree type="DecisionTree" boostWeight="1.0000000000000000e+00" itree="724">
      <Node pos="s" depth="0" NCoef="0" IVar="11" Cut="2.0512211322784424e+00" cType="1" res="5.8015284594148397e-04" rms="3.9345428347587585e-01" purity="4.9389672279357910e-01" nType="0">
        <Node pos="l" depth="1" NCoef="0" IVar="8" Cut="2.4261906147003174e+00" cType="1" res="1.2575831264257431e-02" rms="3.9848959445953369e-01" purity="5.5695432424545288e-01" nType="0">
          <Node pos="l" depth="2" NCoef="0" IVar="-1" Cut="0.0000000000000000e+00" cType="1" res="3.5834303707815707e-04" rms="3.9692822098731995e-01" purity="5.7139998674392700e-01" nType="-99"/>
          <Node pos="r" depth="2" NCoef="0" IVar="-1" Cut="0.0000000000000000e+00" cType="1" res="-1.1232406832277775e-03" rms="4.0361362695693970e-01" purity="4.0371087193489075e-01" nType="-99"/>
        </Node>
        <Node pos="r" depth="1" NCoef="0" IVar="20" Cut="1.8535226821899414e+01" cType="0" res="-4.8293177038431168e-02" rms="3.6821821331977844e-01" purity="2.3698453605175018e-01" nType="0">
          <Node pos="l" depth="2" NCoef="0" IVar="-1" Cut="0.0000000000000000e+00" cType="1" res="1.8222893122583628e-03" rms="3.5706776380538940e-01" purity="2.4461504817008972e-01" nType="-99"/>
          <Node pos="r" depth="2" NCoef="0" IVar="-1" Cut="0.0000000000000000e+00" cType="1" res="-2.9392929282039404e-03" rms="3.7351429462432861e-01" purity="2.3102134466171265e-01" nType="-99"/>
        </Node>
      </Node>
    </BinaryTree>
    <BinaryTree type="DecisionTree" boostWeight="1.0000000000000000e+00" itree="725">
      <Node pos="s" depth="0" NCoef="0" IVar="7" Cut="-1.4923809051513672e+01" cType="1" res="3.5727189388126135e-03" rms="3.9997896552085876e-01" purity="4.9769961833953857e-01" nType="0">
        <Node pos="l" depth="1" NCoef="0" IVar="-1" Cut="0.0000000000000000e+00" cType="1" res="-4.9865790642797947e-03" rms="4.4117027521133423e-01" purity="6.0509359836578369e-01" nType="-99"/>
        <Node pos="r" depth="1" NCoef="0" IVar="1" Cut="8.4285717010498047e+00" cType="0" res="7.2072199545800686e-03" rms="3.9825469255447388e-01" purity="4.9584379792213440e-01" nType="0">
          <Node pos="l" depth="2" NCoef="0" IVar="-1" Cut="0.0000000000000000e+00" cType="1" res="3.6272311117500067e-03" rms="3.8346591591835022e-01" purity="4.9616673588752747e-01" nType="-99"/>
          <Node pos="r" depth="2" NCoef="0" IVar="-1" Cut="0.0000000000000000e+00" cType="1" res="-2.0745201618410647e-04" rms="3.9833033084869385e-01" purity="4.9583125114440918e-01" nType="-99"/>
        </Node>
      </Node>
    </BinaryTree>
    <BinaryTree type="DecisionTree" boostWeight="1.0000000000000000e+00" itree="726">
      <Node pos="s" depth="0" NCoef="0" IVar="3" Cut="4.8571429252624512e+00" cType="0" res="3.8503538817167282e-03" rms="3.9666694402694702e-01" purity="5.0138401985168457e-01" nType="0">
        <Node pos="l" depth="1" NCoef="0" IVar="0" Cut="1.2953571081161499e+00" cType="0" res="1.0444249212741852e-01" rms="3.8919696211814880e-01" purity="6.4831405878067017e-01" nType="0">
          <Node pos="l" depth="2" NCoef="0" IVar="-1" Cut="0.0000000000000000e+00" cType="1" res="3.9489241316914558e-03" rms="3.8599693775177002e-01" purity="6.7543041706085205e-01" nType="-99"/>
          <Node pos="r" depth="2" NCoef="0" IVar="-1" Cut="0.0000000000000000e+00" cType="1" res="-3.9421250112354755e-03" rms="3.7654078006744385e-01" purity="6.1625373363494873e-01" nType="-99"/>
        </Node>
        <Node pos="r" depth="1" NCoef="0" IVar="3" Cut="1.1428571939468384e+00" cType="0" res="-6.9686407223343849e-03" rms="3.9594280719757080e-01" purity="4.8558127880096436e-01" nType="0">
          <Node pos="l" depth="2" NCoef="0" IVar="-1" Cut="0.0000000000000000e+00" cType="1" res="-4.8243376659229398e-04" rms="4.1172808408737183e-01" purity="4.9051856994628906e-01" nType="-99"/>
          <Node pos="r" depth="2" NCoef="0" IVar="-1" Cut="0.0000000000000000e+00" cType="1" res="6.4032309455797076e-04" rms="3.5625264048576355e-01" purity="4.7466364502906799e-01" nType="-99"/>
        </Node>
      </Node>
    </BinaryTree>
    <BinaryTree type="DecisionTree" boostWeight="1.0000000000000000e+00" itree="727">
      <Node pos="s" depth="0" NCoef="0" IVar="3" Cut="4.8571429252624512e+00" cType="0" res="1.0038665495812893e-02" rms="3.9675396680831909e-01" purity="5.0360959768295288e-01" nType="0">
        <Node pos="l" depth="1" NCoef="0" IVar="20" Cut="1.2424208641052246e+01" cType="1" res="7.3952585458755493e-02" rms="4.2289903759956360e-01" purity="6.0552060604095459e-01" nType="0">
          <Node pos="l" depth="2" NCoef="0" IVar="-1" Cut="0.0000000000000000e+00" cType="1" res="5.6896978057920933e-03" rms="3.6526864767074585e-01" purity="7.2548788785934448e-01" nType="-99"/>
          <Node pos="r" depth="2" NCoef="0" IVar="-1" Cut="0.0000000000000000e+00" cType="1" res="-2.5133690796792507e-03" rms="4.5031952857971191e-01" purity="5.1043111085891724e-01" nType="-99"/>
        </Node>
        <Node pos="r" depth="1" NCoef="0" IVar="20" Cut="2.8815066814422607e+00" cType="0" res="2.0812777802348137e-03" rms="3.9264965057373047e-01" purity="4.9092146754264832e-01" nType="0">
          <Node pos="l" depth="2" NCoef="0" IVar="-1" Cut="0.0000000000000000e+00" cType="1" res="6.8982379161752760e-05" rms="3.9124831557273865e-01" purity="5.0084567070007324e-01" nType="-99"/>
          <Node pos="r" depth="2" NCoef="0" IVar="-1" Cut="0.0000000000000000e+00" cType="1" res="-2.2792287636548281e-03" rms="3.9793595671653748e-01" purity="3.7131950259208679e-01" nType="-99"/>
        </Node>
      </Node>
    </BinaryTree>
    <BinaryTree type="DecisionTree" boostWeight="1.0000000000000000e+00" itree="728">
      <Node pos="s" depth="0" NCoef="0" IVar="20" Cut="2.8815066814422607e+00" cType="0" res="-3.2054068287834525e-04" rms="4.0543043613433838e-01" purity="5.0472724437713623e-01" nType="0">
        <Node pos="l" depth="1" NCoef="0" IVar="20" Cut="1.4537000656127930e+01" cType="1" res="8.6434930562973022e-03" rms="4.0623545646667480e-01" purity="5.1942503452301025e-01" nType="0">
          <Node pos="l" depth="2" NCoef="0" IVar="-1" Cut="0.0000000000000000e+00" cType="1" res="2.6247857604175806e-03" rms="4.0991750359535217e-01" purity="6.6004073619842529e-01" nType="-99"/>
          <Node pos="r" depth="2" NCoef="0" IVar="-1" Cut="0.0000000000000000e+00" cType="1" res="-9.7035930957645178e-04" rms="4.0081614255905151e-01" purity="4.5263591408729553e-01" nType="-99"/>
        </Node>
        <Node pos="r" depth="1" NCoef="0" IVar="0" Cut="9.3280452489852905e-01" cType="0" res="-8.2603454589843750e-02" rms="3.8841727375984192e-01" purity="3.6981323361396790e-01" nType="0">
          <Node pos="l" depth="2" NCoef="0" IVar="-1" Cut="0.0000000000000000e+00" cType="1" res="-1.0466080129845068e-04" rms="3.7365245819091797e-01" purity="3.8608098030090332e-01" nType="-99"/>
          <Node pos="r" depth="2" NCoef="0" IVar="-1" Cut="0.0000000000000000e+00" cType="1" res="-7.6467352919280529e-03" rms="4.0694022178649902e-01" purity="3.1745854020118713e-01" nType="-99"/>
        </Node>
      </Node>
    </BinaryTree>
    <BinaryTree type="DecisionTree" boostWeight="1.0000000000000000e+00" itree="729">
      <Node pos="s" depth="0" NCoef="0" IVar="15" Cut="1.7000000000000000e+01" cType="1" res="-2.4702066555619240e-02" rms="4.1158246994018555e-01" purity="4.8005941510200500e-01" nType="0">
        <Node pos="l" depth="1" NCoef="0" IVar="15" Cut="7.4761905670166016e+00" cType="1" res="-4.5269429683685303e-02" rms="4.1830030083656311e-01" purity="5.3261125087738037e-01" nType="0">
          <Node pos="l" depth="2" NCoef="0" IVar="-1" Cut="0.0000000000000000e+00" cType="1" res="1.5058963326737285e-03" rms="3.9656969904899597e-01" purity="7.3373574018478394e-01" nType="-99"/>
          <Node pos="r" depth="2" NCoef="0" IVar="-1" Cut="0.0000000000000000e+00" cType="1" res="-8.3834753604605794e-04" rms="4.2594957351684570e-01" purity="4.3850827217102051e-01" nType="-99"/>
        </Node>
        <Node pos="r" depth="1" NCoef="0" IVar="20" Cut="1.3176397323608398e+01" cType="1" res="2.1641587838530540e-02" rms="3.9209350943565369e-01" purity="3.6164620518684387e-01" nType="0">
          <Node pos="l" depth="2" NCoef="0" IVar="-1" Cut="0.0000000000000000e+00" cType="1" res="6.1230375431478024e-03" rms="4.4205087423324585e-01" purity="6.2558329105377197e-01" nType="-99"/>
          <Node pos="r" depth="2" NCoef="0" IVar="-1" Cut="0.0000000000000000e+00" cType="1" res="-6.7366432631388307e-04" rms="3.7672513723373413e-01" purity="3.0656790733337402e-01" nType="-99"/>
        </Node>
      </Node>
    </BinaryTree>
    <BinaryTree type="DecisionTree" boostWeight="1.0000000000000000e+00" itree="730">
      <Node pos="s" depth="0" NCoef="0" IVar="20" Cut="5.2280361175537109e+01" cType="1" res="4.2776996269822121e-03" rms="3.9820155501365662e-01" purity="5.0369703769683838e-01" nType="0">
        <Node pos="l" depth="1" NCoef="0" IVar="20" Cut="1.8568761348724365e+00" cType="0" res="1.1074967682361603e-02" rms="3.9829364418983459e-01" purity="5.1275748014450073e-01" nType="0">
          <Node pos="l" depth="2" NCoef="0" IVar="-1" Cut="0.0000000000000000e+00" cType="1" res="3.9349027792923152e-04" rms="3.9634779095649719e-01" purity="5.1722192764282227e-01" nType="-99"/>
          <Node pos="r" depth="2" NCoef="0" IVar="-1" Cut="0.0000000000000000e+00" cType="1" res="-4.4314265251159668e-03" rms="4.2293310165405273e-01" purity="4.3557092547416687e-01" nType="-99"/>
        </Node>
        <Node pos="r" depth="1" NCoef="0" IVar="12" Cut="1.1428571939468384e+00" cType="1" res="-7.5331263244152069e-02" rms="3.8836389780044556e-01" purity="3.9758232235908508e-01" nType="0">
          <Node pos="l" depth="2" NCoef="0" IVar="-1" Cut="0.0000000000000000e+00" cType="1" res="2.6138976681977510e-03" rms="2.9506963491439819e-01" purity="7.9867970943450928e-01" nType="-99"/>
          <Node pos="r" depth="2" NCoef="0" IVar="-1" Cut="0.0000000000000000e+00" cType="1" res="-2.2956021130084991e-03" rms="4.0113562345504761e-01" purity="2.8601372241973877e-01" nType="-99"/>
        </Node>
      </Node>
    </BinaryTree>
    <BinaryTree type="DecisionTree" boostWeight="1.0000000000000000e+00" itree="731">
      <Node pos="s" depth="0" NCoef="0" IVar="20" Cut="7.1492652893066406e+01" cType="1" res="-5.1240292377769947e-03" rms="4.0517699718475342e-01" purity="4.9977234005928040e-01" nType="0">
        <Node pos="l" depth="1" NCoef="0" IVar="0" Cut="8.9080667495727539e-01" cType="1" res="-4.0841734153218567e-04" rms="4.0564259886741638e-01" purity="5.0763362646102905e-01" nType="0">
          <Node pos="l" depth="2" NCoef="0" IVar="-1" Cut="0.0000000000000000e+00" cType="1" res="-1.0581358801573515e-03" rms="4.1544139385223389e-01" purity="5.4697740077972412e-01" nType="-99"/>
          <Node pos="r" depth="2" NCoef="0" IVar="-1" Cut="0.0000000000000000e+00" cType="1" res="2.6477171923033893e-04" rms="4.0178215503692627e-01" purity="4.9510541558265686e-01" nType="-99"/>
        </Node>
        <Node pos="r" depth="1" NCoef="0" IVar="-1" Cut="0.0000000000000000e+00" cType="1" res="-1.7735578585416079e-03" rms="3.7432596087455750e-01" purity="3.0242732167243958e-01" nType="-99"/>
      </Node>
    </BinaryTree>
    <BinaryTree type="DecisionTree" boostWeight="1.0000000000000000e+00" itree="732">
      <Node pos="s" depth="0" NCoef="0" IVar="1" Cut="1.0095237731933594e+01" cType="0" res="3.3452708739787340e-03" rms="3.9901927113533020e-01" purity="4.9743586778640747e-01" nType="0">
        <Node pos="l" depth="1" NCoef="0" IVar="-1" Cut="0.0000000000000000e+00" cType="1" res="4.3655675835907459e-03" rms="4.0104371309280396e-01" purity="5.8768749237060547e-01" nType="-99"/>
        <Node pos="r" depth="1" NCoef="0" IVar="2" Cut="2.2857143878936768e+00" cType="1" res="6.5814791014418006e-04" rms="3.9844077825546265e-01" purity="4.9590864777565002e-01" nType="0">
          <Node pos="l" depth="2" NCoef="0" IVar="-1" Cut="0.0000000000000000e+00" cType="1" res="1.0921816574409604e-03" rms="3.8817644119262695e-01" purity="5.7908606529235840e-01" nType="-99"/>
          <Node pos="r" depth="2" NCoef="0" IVar="-1" Cut="0.0000000000000000e+00" cType="1" res="-1.5170279657468200e-03" rms="4.0980234742164612e-01" purity="3.8290658593177795e-01" nType="-99"/>
        </Node>
      </Node>
    </BinaryTree>
    <BinaryTree type="DecisionTree" boostWeight="1.0000000000000000e+00" itree="733">
      <Node pos="s" depth="0" NCoef="0" IVar="12" Cut="2.1428570747375488e+00" cType="1" res="3.4728995524346828e-03" rms="4.0997400879859924e-01" purity="5.1525294780731201e-01" nType="0">
        <Node pos="l" depth="1" NCoef="0" IVar="0" Cut="2.6724183559417725e+00" cType="1" res="1.4689772389829159e-02" rms="4.0143343806266785e-01" purity="5.3353053331375122e-01" nType="0">
          <Node pos="l" depth="2" NCoef="0" IVar="-1" Cut="0.0000000000000000e+00" cType="1" res="6.1091972747817636e-04" rms="4.0966379642486572e-01" purity="5.9282726049423218e-01" nType="-99"/>
          <Node pos="r" depth="2" NCoef="0" IVar="-1" Cut="0.0000000000000000e+00" cType="1" res="-2.6538833044469357e-03" rms="3.3975690603256226e-01" purity="1.5528376400470734e-01" nType="-99"/>
        </Node>
        <Node pos="r" depth="1" NCoef="0" IVar="17" Cut="3.3241298675537109e+01" cType="1" res="-4.4510096311569214e-02" rms="4.4145488739013672e-01" purity="4.3706604838371277e-01" nType="0">
          <Node pos="l" depth="2" NCoef="0" IVar="-1" Cut="0.0000000000000000e+00" cType="1" res="3.8065496482886374e-04" rms="4.4376370310783386e-01" purity="4.8723992705345154e-01" nType="-99"/>
          <Node pos="r" depth="2" NCoef="0" IVar="-1" Cut="0.0000000000000000e+00" cType="1" res="-3.7571208085864782e-03" rms="4.2316794395446777e-01" purity="3.4324008226394653e-01" nType="-99"/>
        </Node>
      </Node>
    </BinaryTree>
    <BinaryTree type="DecisionTree" boostWeight="1.0000000000000000e+00" itree="734">
      <Node pos="s" depth="0" NCoef="0" IVar="20" Cut="2.8815066814422607e+00" cType="0" res="4.4409981928765774e-03" rms="4.0587380528450012e-01" purity="5.0370997190475464e-01" nType="0">
        <Node pos="l" depth="1" NCoef="0" IVar="20" Cut="1.4537416458129883e+01" cType="1" res="9.7478562965989113e-03" rms="4.0652069449424744e-01" purity="5.1325422525405884e-01" nType="0">
          <Node pos="l" depth="2" NCoef="0" IVar="-1" Cut="0.0000000000000000e+00" cType="1" res="2.4589581880718470e-03" rms="4.0606778860092163e-01" purity="6.3493424654006958e-01" nType="-99"/>
          <Node pos="r" depth="2" NCoef="0" IVar="-1" Cut="0.0000000000000000e+00" cType="1" res="-9.3147018924355507e-04" rms="4.0508607029914856e-01" purity="4.5723694562911987e-01" nType="-99"/>
        </Node>
        <Node pos="r" depth="1" NCoef="0" IVar="17" Cut="1.8444351196289062e+01" cType="0" res="-5.0431538373231888e-02" rms="3.9496520161628723e-01" purity="4.0502342581748962e-01" nType="0">
          <Node pos="l" depth="2" NCoef="0" IVar="-1" Cut="0.0000000000000000e+00" cType="1" res="6.4070685766637325e-04" rms="3.1961941719055176e-01" purity="5.4620218276977539e-01" nType="-99"/>
          <Node pos="r" depth="2" NCoef="0" IVar="-1" Cut="0.0000000000000000e+00" cType="1" res="-3.1493701972067356e-03" rms="4.0584409236907959e-01" purity="3.3785012364387512e-01" nType="-99"/>
        </Node>
      </Node>
    </BinaryTree>
    <BinaryTree type="DecisionTree" boostWeight="1.0000000000000000e+00" itree="735">
      <Node pos="s" depth="0" NCoef="0" IVar="20" Cut="1.4080162048339844e+01" cType="1" res="-9.6432473510503769e-03" rms="4.0354770421981812e-01" purity="4.9334827065467834e-01" nType="0">
        <Node pos="l" depth="1" NCoef="0" IVar="20" Cut="1.4664627313613892e+00" cType="0" res="2.0308047533035278e-02" rms="4.0347385406494141e-01" purity="5.6435489654541016e-01" nType="0">
          <Node pos="l" depth="2" NCoef="0" IVar="-1" Cut="0.0000000000000000e+00" cType="1" res="2.3492856416851282e-03" rms="3.9833584427833557e-01" purity="5.8728575706481934e-01" nType="-99"/>
          <Node pos="r" depth="2" NCoef="0" IVar="-1" Cut="0.0000000000000000e+00" cType="1" res="-5.0692325457930565e-03" rms="4.2739969491958618e-01" purity="3.4851053357124329e-01" nType="-99"/>
        </Node>
        <Node pos="r" depth="1" NCoef="0" IVar="20" Cut="2.3866983413696289e+01" cType="0" res="-2.7469545602798462e-02" rms="4.0253514051437378e-01" purity="4.5108681917190552e-01" nType="0">
          <Node pos="l" depth="2" NCoef="0" IVar="-1" Cut="0.0000000000000000e+00" cType="1" res="6.1116478173062205e-04" rms="4.0511083602905273e-01" purity="5.3425633907318115e-01" nType="-99"/>
          <Node pos="r" depth="2" NCoef="0" IVar="-1" Cut="0.0000000000000000e+00" cType="1" res="-2.4404407013207674e-03" rms="3.9623752236366272e-01" purity="3.6971828341484070e-01" nType="-99"/>
        </Node>
      </Node>
    </BinaryTree>
    <BinaryTree type="DecisionTree" boostWeight="1.0000000000000000e+00" itree="736">
      <Node pos="s" depth="0" NCoef="0" IVar="18" Cut="2.1428570747375488e+00" cType="1" res="-9.4085149466991425e-03" rms="4.0580379962921143e-01" purity="4.9798372387886047e-01" nType="0">
        <Node pos="l" depth="1" NCoef="0" IVar="1" Cut="7.0000000000000000e+00" cType="1" res="7.3115177452564240e-02" rms="2.9763242602348328e-01" purity="8.1416916847229004e-01" nType="0">
          <Node pos="l" depth="2" NCoef="0" IVar="-1" Cut="0.0000000000000000e+00" cType="1" res="-3.0597622389905155e-04" rms="2.9494923353195190e-01" purity="8.3284604549407959e-01" nType="-99"/>
          <Node pos="r" depth="2" NCoef="0" IVar="-1" Cut="0.0000000000000000e+00" cType="1" res="-1.0027163662016392e-03" rms="3.2400226593017578e-01" purity="6.1764800548553467e-01" nType="-99"/>
        </Node>
        <Node pos="r" depth="1" NCoef="0" IVar="6" Cut="1.3349860906600952e+00" cType="1" res="-2.1883932873606682e-02" rms="4.1832360625267029e-01" purity="4.5018482208251953e-01" nType="0">
          <Node pos="l" depth="2" NCoef="0" IVar="-1" Cut="0.0000000000000000e+00" cType="1" res="-1.2698521604761481e-03" rms="4.2092400789260864e-01" purity="5.2950662374496460e-01" nType="-99"/>
          <Node pos="r" depth="2" NCoef="0" IVar="-1" Cut="0.0000000000000000e+00" cType="1" res="3.2295085838995874e-04" rms="4.1562792658805847e-01" purity="4.2040482163429260e-01" nType="-99"/>
        </Node>
      </Node>
    </BinaryTree>
    <BinaryTree type="DecisionTree" boostWeight="1.0000000000000000e+00" itree="737">
      <Node pos="s" depth="0" NCoef="0" IVar="4" Cut="1.5791915655136108e+00" cType="1" res="1.6305363969877362e-03" rms="4.1242560744285583e-01" purity="5.0953066349029541e-01" nType="0">
        <Node pos="l" depth="1" NCoef="0" IVar="18" Cut="3.4285714626312256e+00" cType="1" res="-3.6160305142402649e-02" rms="3.9903715252876282e-01" purity="6.8261665105819702e-01" nType="0">
          <Node pos="l" depth="2" NCoef="0" IVar="-1" Cut="0.0000000000000000e+00" cType="1" res="5.8232755400240421e-03" rms="3.2778972387313843e-01" purity="8.6354696750640869e-01" nType="-99"/>
          <Node pos="r" depth="2" NCoef="0" IVar="-1" Cut="0.0000000000000000e+00" cType="1" res="-2.5749194901436567e-03" rms="4.4844990968704224e-01" purity="5.2038538455963135e-01" nType="-99"/>
        </Node>
        <Node pos="r" depth="1" NCoef="0" IVar="20" Cut="2.4560720920562744e+00" cType="0" res="2.0052766427397728e-02" rms="4.1755887866020203e-01" purity="4.2515489459037781e-01" nType="0">
          <Node pos="l" depth="2" NCoef="0" IVar="-1" Cut="0.0000000000000000e+00" cType="1" res="4.2638304876163602e-04" rms="4.1581887006759644e-01" purity="4.3298393487930298e-01" nType="-99"/>
          <Node pos="r" depth="2" NCoef="0" IVar="-1" Cut="0.0000000000000000e+00" cType="1" res="-3.6324874963611364e-03" rms="4.2766281962394714e-01" purity="3.3433821797370911e-01" nType="-99"/>
        </Node>
      </Node>
    </BinaryTree>
    <BinaryTree type="DecisionTree" boostWeight="1.0000000000000000e+00" itree="738">
      <Node pos="s" depth="0" NCoef="0" IVar="0" Cut="2.6724183559417725e+00" cType="1" res="-1.6619981033727527e-03" rms="4.0527623891830444e-01" purity="4.9724429845809937e-01" nType="0">
        <Node pos="l" depth="1" NCoef="0" IVar="15" Cut="1.7000000000000000e+01" cType="1" res="6.7710080184042454e-03" rms="4.1762417554855347e-01" purity="5.5633795261383057e-01" nType="0">
          <Node pos="l" depth="2" NCoef="0" IVar="-1" Cut="0.0000000000000000e+00" cType="1" res="-3.7634730688296258e-05" rms="4.2227676510810852e-01" purity="6.0759299993515015e-01" nType="-99"/>
          <Node pos="r" depth="2" NCoef="0" IVar="-1" Cut="0.0000000000000000e+00" cType="1" res="6.1316124629229307e-04" rms="4.0333837270736694e-01" purity="4.3004605174064636e-01" nType="-99"/>
        </Node>
        <Node pos="r" depth="1" NCoef="0" IVar="5" Cut="2.7494316101074219e+00" cType="1" res="-5.4672539234161377e-02" rms="3.1163772940635681e-01" purity="1.2577694654464722e-01" nType="0">
          <Node pos="l" depth="2" NCoef="0" IVar="-1" Cut="0.0000000000000000e+00" cType="1" res="-4.0558041073381901e-03" rms="3.6970889568328857e-01" purity="1.7843922972679138e-01" nType="-99"/>
          <Node pos="r" depth="2" NCoef="0" IVar="-1" Cut="0.0000000000000000e+00" cType="1" res="-9.6179661341011524e-04" rms="2.8614252805709839e-01" purity="1.0705421119928360e-01" nType="-99"/>
        </Node>
      </Node>
    </BinaryTree>
    <BinaryTree type="DecisionTree" boostWeight="1.0000000000000000e+00" itree="739">
      <Node pos="s" depth="0" NCoef="0" IVar="0" Cut="4.4540303945541382e-01" cType="0" res="-4.8315241001546383e-03" rms="4.1197720170021057e-01" purity="5.0335824489593506e-01" nType="0">
        <Node pos="l" depth="1" NCoef="0" IVar="4" Cut="1.4187978506088257e+00" cType="1" res="4.2553199455142021e-03" rms="4.0773078799247742e-01" purity="5.0569713115692139e-01" nType="0">
          <Node pos="l" depth="2" NCoef="0" IVar="-1" Cut="0.0000000000000000e+00" cType="1" res="-1.7133058281615376e-03" rms="3.9717212319374084e-01" purity="6.9711023569107056e-01" nType="-99"/>
          <Node pos="r" depth="2" NCoef="0" IVar="-1" Cut="0.0000000000000000e+00" cType="1" res="2.8122816001996398e-04" rms="4.0963530540466309e-01" purity="4.4693642854690552e-01" nType="-99"/>
        </Node>
        <Node pos="r" depth="1" NCoef="0" IVar="20" Cut="1.7219514846801758e+01" cType="1" res="-1.1719919741153717e-01" rms="4.4622996449470520e-01" purity="4.7443616390228271e-01" nType="0">
          <Node pos="l" depth="2" NCoef="0" IVar="-1" Cut="0.0000000000000000e+00" cType="1" res="-5.5418495321646333e-04" rms="4.0769317746162415e-01" purity="6.0146480798721313e-01" nType="-99"/>
          <Node pos="r" depth="2" NCoef="0" IVar="-1" Cut="0.0000000000000000e+00" cType="1" res="-2.2735453676432371e-03" rms="4.5496129989624023e-01" purity="3.5367172956466675e-01" nType="-99"/>
        </Node>
      </Node>
    </BinaryTree>
    <BinaryTree type="DecisionTree" boostWeight="1.0000000000000000e+00" itree="740">
      <Node pos="s" depth="0" NCoef="0" IVar="4" Cut="2.2279336452484131e+00" cType="1" res="-1.4313126448541880e-03" rms="4.0320745110511780e-01" purity="4.9302631616592407e-01" nType="0">
        <Node pos="l" depth="1" NCoef="0" IVar="20" Cut="3.8160324096679688e+01" cType="0" res="-1.9144918769598007e-02" rms="4.1913712024688721e-01" purity="5.9902018308639526e-01" nType="0">
          <Node pos="l" depth="2" NCoef="0" IVar="-1" Cut="0.0000000000000000e+00" cType="1" res="2.0839059725403786e-03" rms="3.6656343936920166e-01" purity="6.5817409753799438e-01" nType="-99"/>
          <Node pos="r" depth="2" NCoef="0" IVar="-1" Cut="0.0000000000000000e+00" cType="1" res="-8.3860469749197364e-04" rms="4.2613393068313599e-01" purity="5.8954954147338867e-01" nType="-99"/>
        </Node>
        <Node pos="r" depth="1" NCoef="0" IVar="18" Cut="6.3333334922790527e+00" cType="1" res="3.2914560288190842e-02" rms="3.6795184016227722e-01" purity="2.8750908374786377e-01" nType="0">
          <Node pos="l" depth="2" NCoef="0" IVar="-1" Cut="0.0000000000000000e+00" cType="1" res="1.6270442865788937e-03" rms="4.2525833845138550e-01" purity="4.3231222033500671e-01" nType="-99"/>
          <Node pos="r" depth="2" NCoef="0" IVar="-1" Cut="0.0000000000000000e+00" cType="1" res="-2.6351711712777615e-03" rms="2.4986913800239563e-01" purity="7.2233617305755615e-02" nType="-99"/>
        </Node>
      </Node>
    </BinaryTree>
    <BinaryTree type="DecisionTree" boostWeight="1.0000000000000000e+00" itree="741">
      <Node pos="s" depth="0" NCoef="0" IVar="0" Cut="4.4540309906005859e-01" cType="1" res="-1.0319753549993038e-02" rms="4.0807223320007324e-01" purity="4.9909320473670959e-01" nType="0">
        <Node pos="l" depth="1" NCoef="0" IVar="8" Cut="2.4261906147003174e+00" cType="0" res="-1.0304179042577744e-01" rms="4.5869374275207520e-01" purity="5.0260841846466064e-01" nType="0">
          <Node pos="l" depth="2" NCoef="0" IVar="-1" Cut="0.0000000000000000e+00" cType="1" res="7.8749991953372955e-03" rms="4.7804135084152222e-01" purity="6.2731963396072388e-01" nType="-99"/>
          <Node pos="r" depth="2" NCoef="0" IVar="-1" Cut="0.0000000000000000e+00" cType="1" res="-4.6162959188222885e-03" rms="4.3716707825660706e-01" purity="4.6580505371093750e-01" nType="-99"/>
        </Node>
        <Node pos="r" depth="1" NCoef="0" IVar="9" Cut="-1.0000000000000000e+01" cType="1" res="-3.3804755657911301e-03" rms="4.0317198634147644e-01" purity="4.9883013963699341e-01" nType="0">
          <Node pos="l" depth="2" NCoef="0" IVar="-1" Cut="0.0000000000000000e+00" cType="1" res="1.2971727177500725e-02" rms="2.3658478260040283e-01" purity="9.2028880119323730e-01" nType="-99"/>
          <Node pos="r" depth="2" NCoef="0" IVar="-1" Cut="0.0000000000000000e+00" cType="1" res="-1.4734441356267780e-04" rms="4.0545910596847534e-01" purity="4.8900538682937622e-01" nType="-99"/>
        </Node>
      </Node>
    </BinaryTree>
    <BinaryTree type="DecisionTree" boostWeight="1.0000000000000000e+00" itree="742">
      <Node pos="s" depth="0" NCoef="0" IVar="18" Cut="4.2857141494750977e+00" cType="1" res="-9.8509769886732101e-03" rms="4.0212941169738770e-01" purity="4.8933690786361694e-01" nType="0">
        <Node pos="l" depth="1" NCoef="0" IVar="6" Cut="2.3386545181274414e+00" cType="1" res="2.3694241419434547e-02" rms="3.6174580454826355e-01" purity="6.9390660524368286e-01" nType="0">
          <Node pos="l" depth="2" NCoef="0" IVar="-1" Cut="0.0000000000000000e+00" cType="1" res="1.0878449538722634e-03" rms="3.6579754948616028e-01" purity="7.6946216821670532e-01" nType="-99"/>
          <Node pos="r" depth="2" NCoef="0" IVar="-1" Cut="0.0000000000000000e+00" cType="1" res="-4.5761168003082275e-03" rms="3.0533400177955627e-01" purity="1.4759628474712372e-01" nType="-99"/>
        </Node>
        <Node pos="r" depth="1" NCoef="0" IVar="19" Cut="1.6576336696743965e-02" cType="0" res="-2.8689274564385414e-02" rms="4.2195361852645874e-01" purity="3.7445482611656189e-01" nType="0">
          <Node pos="l" depth="2" NCoef="0" IVar="-1" Cut="0.0000000000000000e+00" cType="1" res="2.6308891829103231e-03" rms="4.1776660084724426e-01" purity="4.8661455512046814e-01" nType="-99"/>
          <Node pos="r" depth="2" NCoef="0" IVar="-1" Cut="0.0000000000000000e+00" cType="1" res="-8.2350010052323341e-04" rms="4.2024615406990051e-01" purity="3.4616908431053162e-01" nType="-99"/>
        </Node>
      </Node>
    </BinaryTree>
    <BinaryTree type="DecisionTree" boostWeight="1.0000000000000000e+00" itree="743">
      <Node pos="s" depth="0" NCoef="0" IVar="12" Cut="1.4285714924335480e-01" cType="1" res="1.2360254302620888e-02" rms="3.9957129955291748e-01" purity="5.1153981685638428e-01" nType="0">
        <Node pos="l" depth="1" NCoef="0" IVar="18" Cut="2.3333332538604736e+00" cType="1" res="-4.9161184579133987e-02" rms="3.8611879944801331e-01" purity="5.6357842683792114e-01" nType="0">
          <Node pos="l" depth="2" NCoef="0" IVar="-1" Cut="0.0000000000000000e+00" cType="1" res="-8.8357504864688963e-05" rms="3.3630919456481934e-01" purity="7.6095253229141235e-01" nType="-99"/>
          <Node pos="r" depth="2" NCoef="0" IVar="-1" Cut="0.0000000000000000e+00" cType="1" res="-3.3986186608672142e-03" rms="4.1239669919013977e-01" purity="4.0965259075164795e-01" nType="-99"/>
        </Node>
        <Node pos="r" depth="1" NCoef="0" IVar="15" Cut="1.1285714149475098e+01" cType="1" res="2.7359338477253914e-02" rms="4.0135565400123596e-01" purity="4.9885267019271851e-01" nType="0">
          <Node pos="l" depth="2" NCoef="0" IVar="-1" Cut="0.0000000000000000e+00" cType="1" res="2.1889950148761272e-03" rms="3.7380528450012207e-01" purity="7.3474699258804321e-01" nType="-99"/>
          <Node pos="r" depth="2" NCoef="0" IVar="-1" Cut="0.0000000000000000e+00" cType="1" res="-3.1268759630620480e-04" rms="4.1095033288002014e-01" purity="4.0117463469505310e-01" nType="-99"/>
        </Node>
      </Node>
    </BinaryTree>
    <BinaryTree type="DecisionTree" boostWeight="1.0000000000000000e+00" itree="744">
      <Node pos="s" depth="0" NCoef="0" IVar="5" Cut="6.5970087051391602e-01" cType="1" res="-8.9787738397717476e-03" rms="4.0455704927444458e-01" purity="4.8578041791915894e-01" nType="0">
        <Node pos="l" depth="1" NCoef="0" IVar="4" Cut="1.0309503078460693e+00" cType="0" res="1.2827226519584656e-01" rms="2.0966182649135590e-01" purity="9.1531783342361450e-01" nType="0">
          <Node pos="l" depth="2" NCoef="0" IVar="-1" Cut="0.0000000000000000e+00" cType="1" res="-6.1951897805556655e-04" rms="1.7260161042213440e-01" purity="9.4829219579696655e-01" nType="-99"/>
          <Node pos="r" depth="2" NCoef="0" IVar="-1" Cut="0.0000000000000000e+00" cType="1" res="3.1810479704290628e-03" rms="2.0853681862354279e-01" purity="8.9245778322219849e-01" nType="-99"/>
        </Node>
        <Node pos="r" depth="1" NCoef="0" IVar="15" Cut="1.2714285850524902e+01" cType="1" res="-1.4593875035643578e-02" rms="4.0958711504936218e-01" purity="4.6820756793022156e-01" nType="0">
          <Node pos="l" depth="2" NCoef="0" IVar="-1" Cut="0.0000000000000000e+00" cType="1" res="-9.6012739231809974e-04" rms="4.1570094227790833e-01" purity="5.7890272140502930e-01" nType="-99"/>
          <Node pos="r" depth="2" NCoef="0" IVar="-1" Cut="0.0000000000000000e+00" cType="1" res="5.2308198064565659e-04" rms="4.0296232700347900e-01" purity="3.6800658702850342e-01" nType="-99"/>
        </Node>
      </Node>
    </BinaryTree>
    <BinaryTree type="DecisionTree" boostWeight="1.0000000000000000e+00" itree="745">
      <Node pos="s" depth="0" NCoef="0" IVar="4" Cut="2.6450896263122559e+00" cType="1" res="-5.6017783208517358e-05" rms="3.9615902304649353e-01" purity="4.8674637079238892e-01" nType="0">
        <Node pos="l" depth="1" NCoef="0" IVar="7" Cut="3.5571424961090088e+00" cType="1" res="1.2332944199442863e-02" rms="4.1086459159851074e-01" purity="5.7739740610122681e-01" nType="0">
          <Node pos="l" depth="2" NCoef="0" IVar="-1" Cut="0.0000000000000000e+00" cType="1" res="3.3479125704616308e-04" rms="4.0767949819564819e-01" purity="5.8729100227355957e-01" nType="-99"/>
          <Node pos="r" depth="2" NCoef="0" IVar="-1" Cut="0.0000000000000000e+00" cType="1" res="-2.0861963275820017e-03" rms="4.6075370907783508e-01" purity="3.3283105492591858e-01" nType="-99"/>
        </Node>
        <Node pos="r" depth="1" NCoef="0" IVar="4" Cut="2.8276805877685547e+00" cType="1" res="-4.4247917830944061e-02" rms="3.3482661843299866e-01" purity="1.6339044272899628e-01" nType="0">
          <Node pos="l" depth="2" NCoef="0" IVar="-1" Cut="0.0000000000000000e+00" cType="1" res="-3.4493810962885618e-03" rms="3.6580911278724670e-01" purity="1.9195671379566193e-01" nType="-99"/>
          <Node pos="r" depth="2" NCoef="0" IVar="-1" Cut="0.0000000000000000e+00" cType="1" res="1.8951988022308797e-04" rms="3.1329059600830078e-01" purity="1.5026021003723145e-01" nType="-99"/>
        </Node>
      </Node>
    </BinaryTree>
    <BinaryTree type="DecisionTree" boostWeight="1.0000000000000000e+00" itree="746">
      <Node pos="s" depth="0" NCoef="0" IVar="9" Cut="-2.8571429252624512e+00" cType="1" res="4.1237630648538470e-04" rms="4.0435054898262024e-01" purity="5.0629091262817383e-01" nType="0">
        <Node pos="l" depth="1" NCoef="0" IVar="9" Cut="-6.7714285850524902e+00" cType="0" res="7.2368569672107697e-02" rms="3.5619819164276123e-01" purity="6.9684582948684692e-01" nType="0">
          <Node pos="l" depth="2" NCoef="0" IVar="-1" Cut="0.0000000000000000e+00" cType="1" res="2.7521683368831873e-03" rms="3.1353551149368286e-01" purity="7.5422024726867676e-01" nType="-99"/>
          <Node pos="r" depth="2" NCoef="0" IVar="-1" Cut="0.0000000000000000e+00" cType="1" res="-2.9092654585838318e-03" rms="3.8121962547302246e-01" purity="6.3964343070983887e-01" nType="-99"/>
        </Node>
        <Node pos="r" depth="1" NCoef="0" IVar="12" Cut="1.4285714924335480e-01" cType="1" res="-9.3608824536204338e-03" rms="4.0948104858398438e-01" purity="4.8040926456451416e-01" nType="0">
          <Node pos="l" depth="2" NCoef="0" IVar="-1" Cut="0.0000000000000000e+00" cType="1" res="-3.2221917062997818e-03" rms="3.9705580472946167e-01" purity="5.1660466194152832e-01" nType="-99"/>
          <Node pos="r" depth="2" NCoef="0" IVar="-1" Cut="0.0000000000000000e+00" cType="1" res="3.7818611599504948e-04" rms="4.1103217005729675e-01" purity="4.7371086478233337e-01" nType="-99"/>
        </Node>
      </Node>
    </BinaryTree>
    <BinaryTree type="DecisionTree" boostWeight="1.0000000000000000e+00" itree="747">
      <Node pos="s" depth="0" NCoef="0" IVar="5" Cut="4.3913272023200989e-01" cType="1" res="-1.1874843388795853e-02" rms="4.0476855635643005e-01" purity="4.8772776126861572e-01" nType="0">
        <Node pos="l" depth="1" NCoef="0" IVar="-1" Cut="0.0000000000000000e+00" cType="1" res="1.1629598215222359e-02" rms="2.1315306425094604e-01" purity="9.5227825641632080e-01" nType="-99"/>
        <Node pos="r" depth="1" NCoef="0" IVar="7" Cut="1.5238153934478760e-01" cType="1" res="-1.4285435900092125e-02" rms="4.0695467591285706e-01" purity="4.7946146130561829e-01" nType="0">
          <Node pos="l" depth="2" NCoef="0" IVar="-1" Cut="0.0000000000000000e+00" cType="1" res="-4.6949812713137362e-06" rms="4.0117919445037842e-01" purity="5.1375228166580200e-01" nType="-99"/>
          <Node pos="r" depth="2" NCoef="0" IVar="-1" Cut="0.0000000000000000e+00" cType="1" res="-3.8846596726216376e-04" rms="4.1750532388687134e-01" purity="4.1285961866378784e-01" nType="-99"/>
        </Node>
      </Node>
    </BinaryTree>
    <BinaryTree type="DecisionTree" boostWeight="1.0000000000000000e+00" itree="748">
      <Node pos="s" depth="0" NCoef="0" IVar="9" Cut="-1.4285714626312256e+00" cType="1" res="7.3772436007857323e-03" rms="4.0577772259712219e-01" purity="5.1046544313430786e-01" nType="0">
        <Node pos="l" depth="1" NCoef="0" IVar="20" Cut="1.2429353713989258e+01" cType="1" res="-2.6899551972746849e-02" rms="4.1469952464103699e-01" purity="5.6033807992935181e-01" nType="0">
          <Node pos="l" depth="2" NCoef="0" IVar="-1" Cut="0.0000000000000000e+00" cType="1" res="4.0678442455828190e-03" rms="4.0144896507263184e-01" purity="6.6195112466812134e-01" nType="-99"/>
          <Node pos="r" depth="2" NCoef="0" IVar="-1" Cut="0.0000000000000000e+00" cType="1" res="-1.9378422293812037e-03" rms="4.1771173477172852e-01" purity="5.1264262199401855e-01" nType="-99"/>
        </Node>
        <Node pos="r" depth="1" NCoef="0" IVar="4" Cut="2.6413447856903076e+00" cType="1" res="1.7174841836094856e-02" rms="4.0265542268753052e-01" purity="4.9620994925498962e-01" nType="0">
          <Node pos="l" depth="2" NCoef="0" IVar="-1" Cut="0.0000000000000000e+00" cType="1" res="4.2911685886792839e-04" rms="4.1351118683815002e-01" purity="5.8662641048431396e-01" nType="-99"/>
          <Node pos="r" depth="2" NCoef="0" IVar="-1" Cut="0.0000000000000000e+00" cType="1" res="-1.2998441234230995e-03" rms="3.5934615135192871e-01" purity="1.8766154348850250e-01" nType="-99"/>
        </Node>
      </Node>
    </BinaryTree>
    <BinaryTree type="DecisionTree" boostWeight="1.0000000000000000e+00" itree="749">
      <Node pos="s" depth="0" NCoef="0" IVar="0" Cut="2.6554694175720215e+00" cType="1" res="3.8125577848404646e-03" rms="4.0343764424324036e-01" purity="5.0415575504302979e-01" nType="0">
        <Node pos="l" depth="1" NCoef="0" IVar="4" Cut="8.2377016544342041e-01" cType="1" res="1.2249635532498360e-02" rms="4.1521307826042175e-01" purity="5.6025314331054688e-01" nType="0">
          <Node pos="l" depth="2" NCoef="0" IVar="-1" Cut="0.0000000000000000e+00" cType="1" res="-9.1582750901579857e-03" rms="4.6391275525093079e-01" purity="6.8473690748214722e-01" nType="-99"/>
          <Node pos="r" depth="2" NCoef="0" IVar="-1" Cut="0.0000000000000000e+00" cType="1" res="2.0325367222540081e-04" rms="4.1282963752746582e-01" purity="5.5745410919189453e-01" nType="-99"/>
        </Node>
        <Node pos="r" depth="1" NCoef="0" IVar="9" Cut="-7.8571423888206482e-02" cType="0" res="-5.1503516733646393e-02" rms="3.0989170074462891e-01" purity="1.3636408746242523e-01" nType="0">
          <Node pos="l" depth="2" NCoef="0" IVar="-1" Cut="0.0000000000000000e+00" cType="1" res="3.8790487451478839e-04" rms="3.1993716955184937e-01" purity="1.5398767590522766e-01" nType="-99"/>
          <Node pos="r" depth="2" NCoef="0" IVar="-1" Cut="0.0000000000000000e+00" cType="1" res="-4.2321821674704552e-03" rms="2.9443395137786865e-01" purity="1.1525835096836090e-01" nType="-99"/>
        </Node>
      </Node>
    </BinaryTree>
    <BinaryTree type="DecisionTree" boostWeight="1.0000000000000000e+00" itree="750">
      <Node pos="s" depth="0" NCoef="0" IVar="6" Cut="1.3254095315933228e+00" cType="1" res="1.3546722475439310e-03" rms="4.0353643894195557e-01" purity="4.9907493591308594e-01" nType="0">
        <Node pos="l" depth="1" NCoef="0" IVar="17" Cut="5.2264549255371094e+01" cType="1" res="-3.1466707587242126e-02" rms="4.0852919220924377e-01" purity="6.4033848047256470e-01" nType="0">
          <Node pos="l" depth="2" NCoef="0" IVar="-1" Cut="0.0000000000000000e+00" cType="1" res="6.8804423790425062e-04" rms="4.0836071968078613e-01" purity="6.7225497961044312e-01" nType="-99"/>
          <Node pos="r" depth="2" NCoef="0" IVar="-1" Cut="0.0000000000000000e+00" cType="1" res="-5.7588024064898491e-03" rms="3.9411738514900208e-01" purity="4.7002494335174561e-01" nType="-99"/>
        </Node>
        <Node pos="r" depth="1" NCoef="0" IVar="4" Cut="1.9527243375778198e+00" cType="1" res="1.5518629923462868e-02" rms="4.0053275227546692e-01" purity="4.3811306357383728e-01" nType="0">
          <Node pos="l" depth="2" NCoef="0" IVar="-1" Cut="0.0000000000000000e+00" cType="1" res="3.1828640203457326e-05" rms="4.0263909101486206e-01" purity="7.0494073629379272e-01" nType="-99"/>
          <Node pos="r" depth="2" NCoef="0" IVar="-1" Cut="0.0000000000000000e+00" cType="1" res="5.4236741561908275e-05" rms="3.9693936705589294e-01" purity="2.9909905791282654e-01" nType="-99"/>
        </Node>
      </Node>
    </BinaryTree>
    <BinaryTree type="DecisionTree" boostWeight="1.0000000000000000e+00" itree="751">
      <Node pos="s" depth="0" NCoef="0" IVar="9" Cut="-1.4285714626312256e+00" cType="1" res="1.6830583626870066e-04" rms="4.0406355261802673e-01" purity="5.0375658273696899e-01" nType="0">
        <Node pos="l" depth="1" NCoef="0" IVar="6" Cut="1.4931727647781372e+00" cType="1" res="-3.3061474561691284e-02" rms="4.2544636130332947e-01" purity="5.6490987539291382e-01" nType="0">
          <Node pos="l" depth="2" NCoef="0" IVar="-1" Cut="0.0000000000000000e+00" cType="1" res="-2.9357497114688158e-03" rms="4.1379922628402710e-01" purity="5.6925338506698608e-01" nType="-99"/>
          <Node pos="r" depth="2" NCoef="0" IVar="-1" Cut="0.0000000000000000e+00" cType="1" res="1.9981944933533669e-03" rms="4.2947998642921448e-01" purity="5.5924540758132935e-01" nType="-99"/>
        </Node>
        <Node pos="r" depth="1" NCoef="0" IVar="0" Cut="1.1135550737380981e+00" cType="1" res="1.0258921422064304e-02" rms="3.9679226279258728e-01" purity="4.8518660664558411e-01" nType="0">
          <Node pos="l" depth="2" NCoef="0" IVar="-1" Cut="0.0000000000000000e+00" cType="1" res="9.7056385129690170e-04" rms="3.9661034941673279e-01" purity="6.9194251298904419e-01" nType="-99"/>
          <Node pos="r" depth="2" NCoef="0" IVar="-1" Cut="0.0000000000000000e+00" cType="1" res="-2.7167992084287107e-04" rms="3.9517813920974731e-01" purity="4.2874667048454285e-01" nType="-99"/>
        </Node>
      </Node>
    </BinaryTree>
    <BinaryTree type="DecisionTree" boostWeight="1.0000000000000000e+00" itree="752">
      <Node pos="s" depth="0" NCoef="0" IVar="8" Cut="9.5547618865966797e+00" cType="1" res="1.0507463011890650e-03" rms="3.9815327525138855e-01" purity="4.9559599161148071e-01" nType="0">
        <Node pos="l" depth="1" NCoef="0" IVar="0" Cut="6.6810458898544312e-01" cType="1" res="5.0080372020602226e-03" rms="3.9519023895263672e-01" purity="4.9788597226142883e-01" nType="0">
          <Node pos="l" depth="2" NCoef="0" IVar="-1" Cut="0.0000000000000000e+00" cType="1" res="-1.9956097821705043e-04" rms="3.8035300374031067e-01" purity="7.0863109827041626e-01" nType="-99"/>
          <Node pos="r" depth="2" NCoef="0" IVar="-1" Cut="0.0000000000000000e+00" cType="1" res="-5.7403420214541256e-05" rms="3.9593493938446045e-01" purity="4.7215536236763000e-01" nType="-99"/>
        </Node>
        <Node pos="r" depth="1" NCoef="0" IVar="-1" Cut="0.0000000000000000e+00" cType="1" res="-2.4819833924993873e-04" rms="4.8742255568504333e-01" purity="3.7658765912055969e-01" nType="-99"/>
      </Node>
    </BinaryTree>
    <BinaryTree type="DecisionTree" boostWeight="1.0000000000000000e+00" itree="753">
      <Node pos="s" depth="0" NCoef="0" IVar="7" Cut="1.5238153934478760e-01" cType="1" res="4.4687753543257713e-03" rms="4.0481126308441162e-01" purity="5.0208890438079834e-01" nType="0">
        <Node pos="l" depth="1" NCoef="0" IVar="6" Cut="2.8880853652954102e+00" cType="1" res="2.4202447384595871e-02" rms="3.9459821581840515e-01" purity="5.5391907691955566e-01" nType="0">
          <Node pos="l" depth="2" NCoef="0" IVar="-1" Cut="0.0000000000000000e+00" cType="1" res="1.2204863742226735e-04" rms="4.0872973203659058e-01" purity="6.3214552402496338e-01" nType="-99"/>
          <Node pos="r" depth="2" NCoef="0" IVar="-1" Cut="0.0000000000000000e+00" cType="1" res="-1.4166388427838683e-04" rms="3.0125874280929565e-01" purity="1.3002145290374756e-01" nType="-99"/>
        </Node>
        <Node pos="r" depth="1" NCoef="0" IVar="17" Cut="5.6882534027099609e+01" cType="1" res="-3.2567769289016724e-02" rms="4.2082381248474121e-01" purity="4.0481284260749817e-01" nType="0">
          <Node pos="l" depth="2" NCoef="0" IVar="-1" Cut="0.0000000000000000e+00" cType="1" res="6.3814295572228730e-05" rms="4.1575950384140015e-01" purity="4.1665917634963989e-01" nType="-99"/>
          <Node pos="r" depth="2" NCoef="0" IVar="-1" Cut="0.0000000000000000e+00" cType="1" res="-3.6062893923372030e-03" rms="4.3994355201721191e-01" purity="3.1379860639572144e-01" nType="-99"/>
        </Node>
      </Node>
    </BinaryTree>
    <BinaryTree type="DecisionTree" boostWeight="1.0000000000000000e+00" itree="754">
      <Node pos="s" depth="0" NCoef="0" IVar="6" Cut="1.3175258636474609e+00" cType="1" res="-1.8251059576869011e-02" rms="4.0992265939712524e-01" purity="4.8079618811607361e-01" nType="0">
        <Node pos="l" depth="1" NCoef="0" IVar="11" Cut="6.6341483592987061e-01" cType="1" res="-4.2599964886903763e-02" rms="4.1375824809074402e-01" purity="6.1902230978012085e-01" nType="0">
          <Node pos="l" depth="2" NCoef="0" IVar="-1" Cut="0.0000000000000000e+00" cType="1" res="1.2766908621415496e-03" rms="3.5057076811790466e-01" purity="7.8274822235107422e-01" nType="-99"/>
          <Node pos="r" depth="2" NCoef="0" IVar="-1" Cut="0.0000000000000000e+00" cType="1" res="-1.3747034827247262e-03" rms="4.5252269506454468e-01" purity="4.8628643155097961e-01" nType="-99"/>
        </Node>
        <Node pos="r" depth="1" NCoef="0" IVar="7" Cut="-1.7142857313156128e+00" cType="1" res="-7.7094226144254208e-03" rms="4.0780016779899597e-01" purity="4.2095246911048889e-01" nType="0">
          <Node pos="l" depth="2" NCoef="0" IVar="-1" Cut="0.0000000000000000e+00" cType="1" res="2.3696634452790022e-03" rms="4.0171688795089722e-01" purity="6.4283770322799683e-01" nType="-99"/>
          <Node pos="r" depth="2" NCoef="0" IVar="-1" Cut="0.0000000000000000e+00" cType="1" res="-3.0645303195342422e-04" rms="4.0745893120765686e-01" purity="3.9314734935760498e-01" nType="-99"/>
        </Node>
      </Node>
    </BinaryTree>
    <BinaryTree type="DecisionTree" boostWeight="1.0000000000000000e+00" itree="755">
      <Node pos="s" depth="0" NCoef="0" IVar="12" Cut="2.1428570747375488e+00" cType="1" res="-2.5661839172244072e-02" rms="4.0953621268272400e-01" purity="4.7477865219116211e-01" nType="0">
        <Node pos="l" depth="1" NCoef="0" IVar="15" Cut="1.7000000000000000e+01" cType="1" res="-1.3372009620070457e-02" rms="4.0183588862419128e-01" purity="4.9064999818801880e-01" nType="0">
          <Node pos="l" depth="2" NCoef="0" IVar="-1" Cut="0.0000000000000000e+00" cType="1" res="-4.7481432557106018e-04" rms="4.0198481082916260e-01" purity="5.5839383602142334e-01" nType="-99"/>
          <Node pos="r" depth="2" NCoef="0" IVar="-1" Cut="0.0000000000000000e+00" cType="1" res="1.0399591410532594e-03" rms="3.9972859621047974e-01" purity="3.7108337879180908e-01" nType="-99"/>
        </Node>
        <Node pos="r" depth="1" NCoef="0" IVar="7" Cut="-2.6261906623840332e+00" cType="1" res="-8.5663713514804840e-02" rms="4.4032454490661621e-01" purity="3.9729091525077820e-01" nType="0">
          <Node pos="l" depth="2" NCoef="0" IVar="-1" Cut="0.0000000000000000e+00" cType="1" res="2.1830857731401920e-03" rms="3.7310013175010681e-01" purity="6.5419721603393555e-01" nType="-99"/>
          <Node pos="r" depth="2" NCoef="0" IVar="-1" Cut="0.0000000000000000e+00" cType="1" res="-1.5570110408589244e-03" rms="4.4053715467453003e-01" purity="3.5161200165748596e-01" nType="-99"/>
        </Node>
      </Node>
    </BinaryTree>
    <BinaryTree type="DecisionTree" boostWeight="1.0000000000000000e+00" itree="756">
      <Node pos="s" depth="0" NCoef="0" IVar="9" Cut="-1.1428571701049805e+01" cType="1" res="-2.6946153957396746e-03" rms="4.0562492609024048e-01" purity="5.0334483385086060e-01" nType="0">
        <Node pos="l" depth="1" NCoef="0" IVar="-1" Cut="0.0000000000000000e+00" cType="1" res="3.2291901297867298e-03" rms="3.1032389402389526e-01" purity="9.0151548385620117e-01" nType="-99"/>
        <Node pos="r" depth="1" NCoef="0" IVar="8" Cut="4.7261905670166016e+00" cType="1" res="-6.1586489900946617e-03" rms="4.0730699896812439e-01" purity="4.9268060922622681e-01" nType="0">
          <Node pos="l" depth="2" NCoef="0" IVar="-1" Cut="0.0000000000000000e+00" cType="1" res="-9.7014264611061662e-05" rms="4.0529567003250122e-01" purity="4.9873855710029602e-01" nType="-99"/>
          <Node pos="r" depth="2" NCoef="0" IVar="-1" Cut="0.0000000000000000e+00" cType="1" res="-5.1444530254229903e-04" rms="4.3983635306358337e-01" purity="3.4253266453742981e-01" nType="-99"/>
        </Node>
      </Node>
    </BinaryTree>
    <BinaryTree type="DecisionTree" boostWeight="1.0000000000000000e+00" itree="757">
      <Node pos="s" depth="0" NCoef="0" IVar="5" Cut="8.7295722961425781e-01" cType="1" res="-5.4099480621516705e-03" rms="4.0234172344207764e-01" purity="4.9391657114028931e-01" nType="0">
        <Node pos="l" depth="1" NCoef="0" IVar="10" Cut="1.7700396776199341e+00" cType="0" res="8.5837066173553467e-02" rms="2.8095871210098267e-01" purity="8.6813884973526001e-01" nType="0">
          <Node pos="l" depth="2" NCoef="0" IVar="-1" Cut="0.0000000000000000e+00" cType="1" res="2.6735756546258926e-03" rms="2.0455577969551086e-01" purity="9.1616111993789673e-01" nType="-99"/>
          <Node pos="r" depth="2" NCoef="0" IVar="-1" Cut="0.0000000000000000e+00" cType="1" res="4.5514068915508687e-04" rms="2.8602954745292664e-01" purity="8.5422211885452271e-01" nType="-99"/>
        </Node>
        <Node pos="r" depth="1" NCoef="0" IVar="11" Cut="2.0426378250122070e+00" cType="1" res="-1.4352452009916306e-02" rms="4.1123157739639282e-01" purity="4.5724156498908997e-01" nType="0">
          <Node pos="l" depth="2" NCoef="0" IVar="-1" Cut="0.0000000000000000e+00" cType="1" res="8.1500038504600525e-05" rms="4.2179027199745178e-01" purity="5.1645040512084961e-01" nType="-99"/>
          <Node pos="r" depth="2" NCoef="0" IVar="-1" Cut="0.0000000000000000e+00" cType="1" res="-9.3708687927573919e-04" rms="3.6408361792564392e-01" purity="2.2618165612220764e-01" nType="-99"/>
        </Node>
      </Node>
    </BinaryTree>
    <BinaryTree type="DecisionTree" boostWeight="1.0000000000000000e+00" itree="758">
      <Node pos="s" depth="0" NCoef="0" IVar="0" Cut="6.6386735439300537e-01" cType="1" res="5.9895906597375870e-03" rms="3.9592120051383972e-01" purity="5.0176370143890381e-01" nType="0">
        <Node pos="l" depth="1" NCoef="0" IVar="10" Cut="2.4491453170776367e-01" cType="1" res="6.0519501566886902e-02" rms="3.9336735010147095e-01" purity="6.8388742208480835e-01" nType="0">
          <Node pos="l" depth="2" NCoef="0" IVar="-1" Cut="0.0000000000000000e+00" cType="1" res="2.4876988027244806e-03" rms="1.6440698504447937e-01" purity="9.5944964885711670e-01" nType="-99"/>
          <Node pos="r" depth="2" NCoef="0" IVar="-1" Cut="0.0000000000000000e+00" cType="1" res="-7.9945975448936224e-04" rms="4.2231380939483643e-01" purity="6.2286782264709473e-01" nType="-99"/>
        </Node>
        <Node pos="r" depth="1" NCoef="0" IVar="6" Cut="1.4404479265213013e+00" cType="1" res="-1.2253889581188560e-03" rms="3.9569535851478577e-01" purity="4.7766649723052979e-01" nType="0">
          <Node pos="l" depth="2" NCoef="0" IVar="-1" Cut="0.0000000000000000e+00" cType="1" res="-1.3579042861238122e-03" rms="3.9742520451545715e-01" purity="6.2688022851943970e-01" nType="-99"/>
          <Node pos="r" depth="2" NCoef="0" IVar="-1" Cut="0.0000000000000000e+00" cType="1" res="4.0935611468739808e-04" rms="3.9413878321647644e-01" purity="4.1298407316207886e-01" nType="-99"/>
        </Node>
      </Node>
    </BinaryTree>
    <BinaryTree type="DecisionTree" boostWeight="1.0000000000000000e+00" itree="759">
      <Node pos="s" depth="0" NCoef="0" IVar="8" Cut="4.8023810386657715e+00" cType="0" res="-1.1082266457378864e-02" rms="4.0900924801826477e-01" purity="4.9056866765022278e-01" nType="0">
        <Node pos="l" depth="1" NCoef="0" IVar="-1" Cut="0.0000000000000000e+00" cType="1" res="1.3262304710224271e-03" rms="3.8605728745460510e-01" purity="5.7703447341918945e-01" nType="-99"/>
        <Node pos="r" depth="1" NCoef="0" IVar="6" Cut="1.9896932840347290e+00" cType="1" res="-1.4614087529480457e-02" rms="4.0910366177558899e-01" purity="4.8808541893959045e-01" nType="0">
          <Node pos="l" depth="2" NCoef="0" IVar="-1" Cut="0.0000000000000000e+00" cType="1" res="-4.3251606984995306e-04" rms="4.1593942046165466e-01" purity="5.7383382320404053e-01" nType="-99"/>
          <Node pos="r" depth="2" NCoef="0" IVar="-1" Cut="0.0000000000000000e+00" cType="1" res="3.1477704760618508e-04" rms="3.9278310537338257e-01" purity="3.2339262962341309e-01" nType="-99"/>
        </Node>
      </Node>
    </BinaryTree>
    <BinaryTree type="DecisionTree" boostWeight="1.0000000000000000e+00" itree="760">
      <Node pos="s" depth="0" NCoef="0" IVar="0" Cut="1.7816121578216553e+00" cType="1" res="-6.3106245361268520e-03" rms="4.1315573453903198e-01" purity="5.1102292537689209e-01" nType="0">
        <Node pos="l" depth="1" NCoef="0" IVar="9" Cut="-1.4285714626312256e+00" cType="0" res="-2.5431485846638680e-02" rms="4.1325369477272034e-01" purity="5.7030618190765381e-01" nType="0">
          <Node pos="l" depth="2" NCoef="0" IVar="-1" Cut="0.0000000000000000e+00" cType="1" res="4.6384328743442893e-04" rms="4.0756779909133911e-01" purity="5.8521610498428345e-01" nType="-99"/>
          <Node pos="r" depth="2" NCoef="0" IVar="-1" Cut="0.0000000000000000e+00" cType="1" res="-1.2562826741486788e-03" rms="4.2082214355468750e-01" purity="5.4095613956451416e-01" nType="-99"/>
        </Node>
        <Node pos="r" depth="1" NCoef="0" IVar="20" Cut="5.4407535552978516e+01" cType="1" res="3.4167282283306122e-02" rms="4.1001689434051514e-01" purity="3.8552317023277283e-01" nType="0">
          <Node pos="l" depth="2" NCoef="0" IVar="-1" Cut="0.0000000000000000e+00" cType="1" res="3.0767038697376847e-04" rms="4.0756514668464661e-01" purity="3.9265847206115723e-01" nType="-99"/>
          <Node pos="r" depth="2" NCoef="0" IVar="-1" Cut="0.0000000000000000e+00" cType="1" res="-3.1894035637378693e-03" rms="4.1700175404548645e-01" purity="2.9952535033226013e-01" nType="-99"/>
        </Node>
      </Node>
    </BinaryTree>
    <BinaryTree type="DecisionTree" boostWeight="1.0000000000000000e+00" itree="761">
      <Node pos="s" depth="0" NCoef="0" IVar="9" Cut="-1.5714285850524902e+01" cType="1" res="4.8223733901977539e-03" rms="4.0784549713134766e-01" purity="5.0755852460861206e-01" nType="0">
        <Node pos="l" depth="1" NCoef="0" IVar="-1" Cut="0.0000000000000000e+00" cType="1" res="-4.7528752475045621e-04" rms="4.7977223992347717e-01" purity="5.7087469100952148e-01" nType="-99"/>
        <Node pos="r" depth="1" NCoef="0" IVar="20" Cut="2.8644519805908203e+01" cType="0" res="9.6436189487576485e-03" rms="4.0477269887924194e-01" purity="5.0611943006515503e-01" nType="0">
          <Node pos="l" depth="2" NCoef="0" IVar="-1" Cut="0.0000000000000000e+00" cType="1" res="7.9207279486581683e-04" rms="4.1207116842269897e-01" purity="5.7792299985885620e-01" nType="-99"/>
          <Node pos="r" depth="2" NCoef="0" IVar="-1" Cut="0.0000000000000000e+00" cType="1" res="-3.1528386170975864e-04" rms="4.0218096971511841e-01" purity="4.8579874634742737e-01" nType="-99"/>
        </Node>
      </Node>
    </BinaryTree>
    <BinaryTree type="DecisionTree" boostWeight="1.0000000000000000e+00" itree="762">
      <Node pos="s" depth="0" NCoef="0" IVar="18" Cut="1.2857142686843872e+00" cType="1" res="-2.1547081414610147e-03" rms="4.0584552288055420e-01" purity="5.0301641225814819e-01" nType="0">
        <Node pos="l" depth="1" NCoef="0" IVar="7" Cut="-1.2500000000000000e+00" cType="1" res="-9.4281598925590515e-02" rms="4.5031347870826721e-01" purity="5.9587711095809937e-01" nType="0">
          <Node pos="l" depth="2" NCoef="0" IVar="-1" Cut="0.0000000000000000e+00" cType="1" res="6.6714249551296234e-03" rms="3.3409482240676880e-01" purity="8.5751175880432129e-01" nType="-99"/>
          <Node pos="r" depth="2" NCoef="0" IVar="-1" Cut="0.0000000000000000e+00" cType="1" res="-5.8032246306538582e-03" rms="4.6405467391014099e-01" purity="4.8723992705345154e-01" nType="-99"/>
        </Node>
        <Node pos="r" depth="1" NCoef="0" IVar="21" Cut="1.3809523582458496e+00" cType="1" res="3.7298945244401693e-03" rms="4.0212187170982361e-01" purity="4.9708491563796997e-01" nType="0">
          <Node pos="l" depth="2" NCoef="0" IVar="-1" Cut="0.0000000000000000e+00" cType="1" res="-1.1490401084301993e-04" rms="3.9965543150901794e-01" purity="5.8371734619140625e-01" nType="-99"/>
          <Node pos="r" depth="2" NCoef="0" IVar="-1" Cut="0.0000000000000000e+00" cType="1" res="1.1762384383473545e-04" rms="4.0167063474655151e-01" purity="4.5537039637565613e-01" nType="-99"/>
        </Node>
      </Node>
    </BinaryTree>
    <BinaryTree type="DecisionTree" boostWeight="1.0000000000000000e+00" itree="763">
      <Node pos="s" depth="0" NCoef="0" IVar="21" Cut="1.0952380895614624e+00" cType="1" res="-4.4786846265196800e-03" rms="4.1323980689048767e-01" purity="5.0430315732955933e-01" nType="0">
        <Node pos="l" depth="1" NCoef="0" IVar="4" Cut="1.7766196727752686e+00" cType="1" res="-2.9006164520978928e-02" rms="4.3073591589927673e-01" purity="5.3226888179779053e-01" nType="0">
          <Node pos="l" depth="2" NCoef="0" IVar="-1" Cut="0.0000000000000000e+00" cType="1" res="-2.6811154093593359e-03" rms="4.2762440443038940e-01" purity="6.4046984910964966e-01" nType="-99"/>
          <Node pos="r" depth="2" NCoef="0" IVar="-1" Cut="0.0000000000000000e+00" cType="1" res="1.3681483687832952e-03" rms="4.2754527926445007e-01" purity="4.0173348784446716e-01" nType="-99"/>
        </Node>
        <Node pos="r" depth="1" NCoef="0" IVar="0" Cut="6.6815799474716187e-01" cType="1" res="1.0197830386459827e-02" rms="4.0169149637222290e-01" purity="4.8756930232048035e-01" nType="0">
          <Node pos="l" depth="2" NCoef="0" IVar="-1" Cut="0.0000000000000000e+00" cType="1" res="4.9835443496704102e-03" rms="3.5511499643325806e-01" purity="7.5300437211990356e-01" nType="-99"/>
          <Node pos="r" depth="2" NCoef="0" IVar="-1" Cut="0.0000000000000000e+00" cType="1" res="-2.2218143567442894e-04" rms="4.0293878316879272e-01" purity="4.6890750527381897e-01" nType="-99"/>
        </Node>
      </Node>
    </BinaryTree>
    <BinaryTree type="DecisionTree" boostWeight="1.0000000000000000e+00" itree="764">
      <Node pos="s" depth="0" NCoef="0" IVar="5" Cut="1.3173946142196655e+00" cType="1" res="-2.6908235158771276e-03" rms="4.0206766128540039e-01" purity="4.9472734332084656e-01" nType="0">
        <Node pos="l" depth="1" NCoef="0" IVar="5" Cut="5.6443238258361816e-01" cType="0" res="3.3082764595746994e-02" rms="3.8087722659111023e-01" purity="7.3247486352920532e-01" nType="0">
          <Node pos="l" depth="2" NCoef="0" IVar="-1" Cut="0.0000000000000000e+00" cType="1" res="7.3692394653335214e-04" rms="3.7394818663597107e-01" purity="7.3812800645828247e-01" nType="-99"/>
          <Node pos="r" depth="2" NCoef="0" IVar="-1" Cut="0.0000000000000000e+00" cType="1" res="-4.0240366943180561e-03" rms="4.1137897968292236e-01" purity="6.8608033657073975e-01" nType="-99"/>
        </Node>
        <Node pos="r" depth="1" NCoef="0" IVar="8" Cut="1.4738095998764038e+00" cType="0" res="-1.9403818994760513e-02" rms="4.1052684187889099e-01" purity="3.8365453481674194e-01" nType="0">
          <Node pos="l" depth="2" NCoef="0" IVar="-1" Cut="0.0000000000000000e+00" cType="1" res="6.6802365472540259e-04" rms="4.0095964074134827e-01" purity="4.2543998360633850e-01" nType="-99"/>
          <Node pos="r" depth="2" NCoef="0" IVar="-1" Cut="0.0000000000000000e+00" cType="1" res="-3.3514175447635353e-04" rms="4.1038769483566284e-01" purity="3.7832957506179810e-01" nType="-99"/>
        </Node>
      </Node>
    </BinaryTree>
    <BinaryTree type="DecisionTree" boostWeight="1.0000000000000000e+00" itree="765">
      <Node pos="s" depth="0" NCoef="0" IVar="5" Cut="1.3193994760513306e+00" cType="1" res="-9.8398718982934952e-03" rms="3.9686676859855652e-01" purity="4.8094761371612549e-01" nType="0">
        <Node pos="l" depth="1" NCoef="0" IVar="15" Cut="1.6285715103149414e+01" cType="1" res="3.5099670290946960e-02" rms="3.6745563149452209e-01" purity="7.3476284742355347e-01" nType="0">
          <Node pos="l" depth="2" NCoef="0" IVar="-1" Cut="0.0000000000000000e+00" cType="1" res="1.6965677496045828e-03" rms="3.4200176596641541e-01" purity="8.2320058345794678e-01" nType="-99"/>
          <Node pos="r" depth="2" NCoef="0" IVar="-1" Cut="0.0000000000000000e+00" cType="1" res="-2.3298778105527163e-03" rms="4.3262386322021484e-01" purity="4.1988363862037659e-01" nType="-99"/>
        </Node>
        <Node pos="r" depth="1" NCoef="0" IVar="6" Cut="8.9479875564575195e-01" cType="1" res="-2.9642488807439804e-02" rms="4.0758654475212097e-01" purity="3.6910390853881836e-01" nType="0">
          <Node pos="l" depth="2" NCoef="0" IVar="-1" Cut="0.0000000000000000e+00" cType="1" res="-1.7323587962891906e-04" rms="3.5900124907493591e-01" purity="5.1106292009353638e-01" nType="-99"/>
          <Node pos="r" depth="2" NCoef="0" IVar="-1" Cut="0.0000000000000000e+00" cType="1" res="-2.0413030870258808e-04" rms="4.0781140327453613e-01" purity="3.6591753363609314e-01" nType="-99"/>
        </Node>
      </Node>
    </BinaryTree>
    <BinaryTree type="DecisionTree" boostWeight="1.0000000000000000e+00" itree="766">
      <Node pos="s" depth="0" NCoef="0" IVar="0" Cut="1.1135076284408569e+00" cType="1" res="1.5020474093034863e-03" rms="4.0196329355239868e-01" purity="4.9791422486305237e-01" nType="0">
        <Node pos="l" depth="1" NCoef="0" IVar="0" Cut="3.1807187199592590e-01" cType="0" res="3.3968456089496613e-02" rms="4.0147438645362854e-01" purity="6.3563567399978638e-01" nType="0">
          <Node pos="l" depth="2" NCoef="0" IVar="-1" Cut="0.0000000000000000e+00" cType="1" res="3.3807230647653341e-04" rms="3.9176717400550842e-01" purity="6.5338563919067383e-01" nType="-99"/>
          <Node pos="r" depth="2" NCoef="0" IVar="-1" Cut="0.0000000000000000e+00" cType="1" res="-3.1174928881227970e-03" rms="4.5022353529930115e-01" purity="4.9096029996871948e-01" nType="-99"/>
        </Node>
        <Node pos="r" depth="1" NCoef="0" IVar="5" Cut="1.1923489570617676e+00" cType="1" res="-1.2845299206674099e-02" rms="4.0134325623512268e-01" purity="4.3705320358276367e-01" nType="0">
          <Node pos="l" depth="2" NCoef="0" IVar="-1" Cut="0.0000000000000000e+00" cType="1" res="4.0471386164426804e-03" rms="3.1441530585289001e-01" purity="7.4984639883041382e-01" nType="-99"/>
          <Node pos="r" depth="2" NCoef="0" IVar="-1" Cut="0.0000000000000000e+00" cType="1" res="-3.6100752186030149e-04" rms="4.0958073735237122e-01" purity="3.9914289116859436e-01" nType="-99"/>
        </Node>
      </Node>
    </BinaryTree>
    <BinaryTree type="DecisionTree" boostWeight="1.0000000000000000e+00" itree="767">
      <Node pos="s" depth="0" NCoef="0" IVar="1" Cut="8.4285717010498047e+00" cType="0" res="-1.0220005642622709e-03" rms="4.0045687556266785e-01" purity="4.9502921104431152e-01" nType="0">
        <Node pos="l" depth="1" NCoef="0" IVar="18" Cut="4.0476188659667969e+00" cType="0" res="1.4845182001590729e-01" rms="4.4182005524635315e-01" purity="6.6036260128021240e-01" nType="0">
          <Node pos="l" depth="2" NCoef="0" IVar="-1" Cut="0.0000000000000000e+00" cType="1" res="9.7711235284805298e-03" rms="4.4621542096138000e-01" purity="6.7642837762832642e-01" nType="-99"/>
          <Node pos="r" depth="2" NCoef="0" IVar="-1" Cut="0.0000000000000000e+00" cType="1" res="-2.1336856298148632e-03" rms="4.2602407932281494e-01" purity="6.4526569843292236e-01" nType="-99"/>
        </Node>
        <Node pos="r" depth="1" NCoef="0" IVar="9" Cut="-1.1428571701049805e+01" cType="1" res="-6.0232463292777538e-03" rms="3.9802947640419006e-01" purity="4.8949733376502991e-01" nType="0">
          <Node pos="l" depth="2" NCoef="0" IVar="-1" Cut="0.0000000000000000e+00" cType="1" res="1.7313114367425442e-03" rms="1.8924532830715179e-01" purity="9.5227825641632080e-01" nType="-99"/>
          <Node pos="r" depth="2" NCoef="0" IVar="-1" Cut="0.0000000000000000e+00" cType="1" res="-2.1905811445321888e-04" rms="4.0023264288902283e-01" purity="4.8086208105087280e-01" nType="-99"/>
        </Node>
      </Node>
    </BinaryTree>
    <BinaryTree type="DecisionTree" boostWeight="1.0000000000000000e+00" itree="768">
      <Node pos="s" depth="0" NCoef="0" IVar="14" Cut="1.0060597991943359e+02" cType="1" res="-2.0507669541984797e-03" rms="4.0743631124496460e-01" purity="5.0679612159729004e-01" nType="0">
        <Node pos="l" depth="1" NCoef="0" IVar="14" Cut="8.8104064941406250e+01" cType="0" res="1.1776916682720184e-02" rms="3.9769193530082703e-01" purity="5.1317530870437622e-01" nType="0">
          <Node pos="l" depth="2" NCoef="0" IVar="-1" Cut="0.0000000000000000e+00" cType="1" res="2.0597756374627352e-03" rms="3.8802549242973328e-01" purity="6.9839185476303101e-01" nType="-99"/>
          <Node pos="r" depth="2" NCoef="0" IVar="-1" Cut="0.0000000000000000e+00" cType="1" res="-3.4803969901986420e-04" rms="3.9637398719787598e-01" purity="4.9926456809043884e-01" nType="-99"/>
        </Node>
        <Node pos="r" depth="1" NCoef="0" IVar="18" Cut="2.1428570747375488e+00" cType="1" res="-4.7522202134132385e-02" rms="4.3486455082893372e-01" purity="4.8581850528717041e-01" nType="0">
          <Node pos="l" depth="2" NCoef="0" IVar="-1" Cut="0.0000000000000000e+00" cType="1" res="-7.2918669320642948e-03" rms="4.5711639523506165e-01" purity="5.5358141660690308e-01" nType="-99"/>
          <Node pos="r" depth="2" NCoef="0" IVar="-1" Cut="0.0000000000000000e+00" cType="1" res="1.2348425807431340e-03" rms="4.2316499352455139e-01" purity="4.7258585691452026e-01" nType="-99"/>
        </Node>
      </Node>
    </BinaryTree>
    <BinaryTree type="DecisionTree" boostWeight="1.0000000000000000e+00" itree="769">
      <Node pos="s" depth="0" NCoef="0" IVar="20" Cut="2.2203767776489258e+01" cType="0" res="5.6907813996076584e-03" rms="4.0662148594856262e-01" purity="5.0989413261413574e-01" nType="0">
        <Node pos="l" depth="1" NCoef="0" IVar="14" Cut="1.5749673461914062e+02" cType="1" res="3.6259546875953674e-02" rms="3.9884117245674133e-01" purity="5.4717844724655151e-01" nType="0">
          <Node pos="l" depth="2" NCoef="0" IVar="-1" Cut="0.0000000000000000e+00" cType="1" res="1.4809941640123725e-03" rms="3.9110958576202393e-01" purity="5.7530486583709717e-01" nType="-99"/>
          <Node pos="r" depth="2" NCoef="0" IVar="-1" Cut="0.0000000000000000e+00" cType="1" res="-1.4761387137696147e-03" rms="4.1471049189567566e-01" purity="4.5606005191802979e-01" nType="-99"/>
        </Node>
        <Node pos="r" depth="1" NCoef="0" IVar="20" Cut="1.4522568702697754e+01" cType="1" res="-1.0397188365459442e-02" rms="4.0974205732345581e-01" purity="4.9027189612388611e-01" nType="0">
          <Node pos="l" depth="2" NCoef="0" IVar="-1" Cut="0.0000000000000000e+00" cType="1" res="1.2875137617811561e-03" rms="4.1141426563262939e-01" purity="5.6802797317504883e-01" nType="-99"/>
          <Node pos="r" depth="2" NCoef="0" IVar="-1" Cut="0.0000000000000000e+00" cType="1" res="-2.8737934771925211e-03" rms="4.0283727645874023e-01" purity="3.7024655938148499e-01" nType="-99"/>
        </Node>
      </Node>
    </BinaryTree>
    <BinaryTree type="DecisionTree" boostWeight="1.0000000000000000e+00" itree="770">
      <Node pos="s" depth="0" NCoef="0" IVar="5" Cut="1.3173944950103760e+00" cType="1" res="5.6170597672462463e-03" rms="3.9405563473701477e-01" purity="5.0278681516647339e-01" nType="0">
        <Node pos="l" depth="1" NCoef="0" IVar="0" Cut="1.5521779060363770e+00" cType="1" res="4.8973787575960159e-02" rms="3.6199492216110229e-01" purity="7.5335806608200073e-01" nType="0">
          <Node pos="l" depth="2" NCoef="0" IVar="-1" Cut="0.0000000000000000e+00" cType="1" res="5.9113977476954460e-04" rms="3.5049828886985779e-01" purity="7.6940619945526123e-01" nType="-99"/>
          <Node pos="r" depth="2" NCoef="0" IVar="-1" Cut="0.0000000000000000e+00" cType="1" res="-3.7813694216310978e-03" rms="4.5668336749076843e-01" purity="5.0689750909805298e-01" nType="-99"/>
        </Node>
        <Node pos="r" depth="1" NCoef="0" IVar="20" Cut="3.0746324539184570e+01" cType="1" res="-1.4370372518897057e-02" rms="4.0643346309661865e-01" purity="3.8727360963821411e-01" nType="0">
          <Node pos="l" depth="2" NCoef="0" IVar="-1" Cut="0.0000000000000000e+00" cType="1" res="3.5399918942857767e-06" rms="4.0126121044158936e-01" purity="3.9205005764961243e-01" nType="-99"/>
          <Node pos="r" depth="2" NCoef="0" IVar="-1" Cut="0.0000000000000000e+00" cType="1" res="-8.4218039410188794e-04" rms="4.1642591357231140e-01" purity="3.7138354778289795e-01" nType="-99"/>
        </Node>
      </Node>
    </BinaryTree>
    <BinaryTree type="DecisionTree" boostWeight="1.0000000000000000e+00" itree="771">
      <Node pos="s" depth="0" NCoef="0" IVar="15" Cut="1.1285714149475098e+01" cType="1" res="2.2152033634483814e-03" rms="4.0113368630409241e-01" purity="5.0162231922149658e-01" nType="0">
        <Node pos="l" depth="1" NCoef="0" IVar="0" Cut="2.1575345993041992e+00" cType="1" res="3.2673720270395279e-02" rms="3.6788162589073181e-01" purity="6.6434764862060547e-01" nType="0">
          <Node pos="l" depth="2" NCoef="0" IVar="-1" Cut="0.0000000000000000e+00" cType="1" res="1.2763240374624729e-03" rms="3.7002015113830566e-01" purity="7.3413467407226562e-01" nType="-99"/>
          <Node pos="r" depth="2" NCoef="0" IVar="-1" Cut="0.0000000000000000e+00" cType="1" res="-3.5155098885297775e-03" rms="3.3528876304626465e-01" purity="1.6989363729953766e-01" nType="-99"/>
        </Node>
        <Node pos="r" depth="1" NCoef="0" IVar="4" Cut="2.3562653064727783e+00" cType="1" res="-2.0161408931016922e-02" rms="4.2250698804855347e-01" purity="3.8207471370697021e-01" nType="0">
          <Node pos="l" depth="2" NCoef="0" IVar="-1" Cut="0.0000000000000000e+00" cType="1" res="-1.6378072323277593e-03" rms="4.4021403789520264e-01" purity="4.4107672572135925e-01" nType="-99"/>
          <Node pos="r" depth="2" NCoef="0" IVar="-1" Cut="0.0000000000000000e+00" cType="1" res="1.9243693677708507e-03" rms="3.8545408844947815e-01" purity="2.7789655327796936e-01" nType="-99"/>
        </Node>
      </Node>
    </BinaryTree>
    <BinaryTree type="DecisionTree" boostWeight="1.0000000000000000e+00" itree="772">
      <Node pos="s" depth="0" NCoef="0" IVar="6" Cut="6.6838037967681885e-01" cType="1" res="-6.0606603510677814e-03" rms="4.0748786926269531e-01" purity="4.9550181627273560e-01" nType="0">
        <Node pos="l" depth="1" NCoef="0" IVar="15" Cut="6.5714287757873535e+00" cType="0" res="-1.4939858019351959e-01" rms="4.6353831887245178e-01" purity="5.1344245672225952e-01" nType="0">
          <Node pos="l" depth="2" NCoef="0" IVar="-1" Cut="0.0000000000000000e+00" cType="1" res="1.5538977459073067e-02" rms="4.5441079139709473e-01" purity="5.7087475061416626e-01" nType="-99"/>
          <Node pos="r" depth="2" NCoef="0" IVar="-1" Cut="0.0000000000000000e+00" cType="1" res="-1.5642436221241951e-02" rms="4.3972530961036682e-01" purity="4.6097657084465027e-01" nType="-99"/>
        </Node>
        <Node pos="r" depth="1" NCoef="0" IVar="9" Cut="-1.4285714626312256e+00" cType="1" res="-1.2028542114421725e-03" rms="4.0456381440162659e-01" purity="4.9489381909370422e-01" nType="0">
          <Node pos="l" depth="2" NCoef="0" IVar="-1" Cut="0.0000000000000000e+00" cType="1" res="-1.0543997632339597e-04" rms="4.1354173421859741e-01" purity="5.4226535558700562e-01" nType="-99"/>
          <Node pos="r" depth="2" NCoef="0" IVar="-1" Cut="0.0000000000000000e+00" cType="1" res="-1.5899826394161209e-05" rms="4.0136626362800598e-01" purity="4.8063856363296509e-01" nType="-99"/>
        </Node>
      </Node>
    </BinaryTree>
    <BinaryTree type="DecisionTree" boostWeight="1.0000000000000000e+00" itree="773">
      <Node pos="s" depth="0" NCoef="0" IVar="20" Cut="3.2029724121093750e+01" cType="1" res="2.6068012230098248e-03" rms="3.9928561449050903e-01" purity="4.9817946553230286e-01" nType="0">
        <Node pos="l" depth="1" NCoef="0" IVar="20" Cut="2.1999721527099609e+01" cType="0" res="2.0406795665621758e-02" rms="3.9289581775665283e-01" purity="5.0746554136276245e-01" nType="0">
          <Node pos="l" depth="2" NCoef="0" IVar="-1" Cut="0.0000000000000000e+00" cType="1" res="3.6085057072341442e-03" rms="3.7211844325065613e-01" purity="5.4303967952728271e-01" nType="-99"/>
          <Node pos="r" depth="2" NCoef="0" IVar="-1" Cut="0.0000000000000000e+00" cType="1" res="-6.2548066489398479e-04" rms="3.9661511778831482e-01" purity="4.9908712506294250e-01" nType="-99"/>
        </Node>
        <Node pos="r" depth="1" NCoef="0" IVar="6" Cut="1.0130789279937744e+00" cType="1" res="-6.0144655406475067e-02" rms="4.1499304771423340e-01" purity="4.6544277667999268e-01" nType="0">
          <Node pos="l" depth="2" NCoef="0" IVar="-1" Cut="0.0000000000000000e+00" cType="1" res="4.1029714047908783e-03" rms="3.2896623015403748e-01" purity="7.8143221139907837e-01" nType="-99"/>
          <Node pos="r" depth="2" NCoef="0" IVar="-1" Cut="0.0000000000000000e+00" cType="1" res="-1.3483429793268442e-03" rms="4.2273157835006714e-01" purity="4.1452962160110474e-01" nType="-99"/>
        </Node>
      </Node>
    </BinaryTree>
    <BinaryTree type="DecisionTree" boostWeight="1.0000000000000000e+00" itree="774">
      <Node pos="s" depth="0" NCoef="0" IVar="7" Cut="-7.6285715103149414e+00" cType="1" res="6.6423709504306316e-03" rms="4.0774431824684143e-01" purity="5.0804257392883301e-01" nType="0">
        <Node pos="l" depth="1" NCoef="0" IVar="15" Cut="6.0000000000000000e+00" cType="0" res="-9.3233920633792877e-02" rms="4.1483032703399658e-01" purity="5.9903329610824585e-01" nType="0">
          <Node pos="l" depth="2" NCoef="0" IVar="-1" Cut="0.0000000000000000e+00" cType="1" res="-1.1792328441515565e-03" rms="4.1584548354148865e-01" purity="5.1851946115493774e-01" nType="-99"/>
          <Node pos="r" depth="2" NCoef="0" IVar="-1" Cut="0.0000000000000000e+00" cType="1" res="-6.4105936326086521e-03" rms="4.1105505824089050e-01" purity="6.5647751092910767e-01" nType="-99"/>
        </Node>
        <Node pos="r" depth="1" NCoef="0" IVar="15" Cut="8.0000000000000000e+00" cType="1" res="1.0742902755737305e-02" rms="4.0692722797393799e-01" purity="5.0430691242218018e-01" nType="0">
          <Node pos="l" depth="2" NCoef="0" IVar="-1" Cut="0.0000000000000000e+00" cType="1" res="8.0384005559608340e-04" rms="3.7108224630355835e-01" purity="7.1893656253814697e-01" nType="-99"/>
          <Node pos="r" depth="2" NCoef="0" IVar="-1" Cut="0.0000000000000000e+00" cType="1" res="-1.3072576257400215e-04" rms="4.1721516847610474e-01" purity="4.3623465299606323e-01" nType="-99"/>
        </Node>
      </Node>
    </BinaryTree>
    <BinaryTree type="DecisionTree" boostWeight="1.0000000000000000e+00" itree="775">
      <Node pos="s" depth="0" NCoef="0" IVar="15" Cut="1.7000000000000000e+01" cType="1" res="4.3509844690561295e-03" rms="4.0897732973098755e-01" purity="5.1553237438201904e-01" nType="0">
        <Node pos="l" depth="1" NCoef="0" IVar="0" Cut="1.7095495462417603e+00" cType="1" res="-1.3316963799297810e-02" rms="4.1301095485687256e-01" purity="5.6888747215270996e-01" nType="0">
          <Node pos="l" depth="2" NCoef="0" IVar="-1" Cut="0.0000000000000000e+00" cType="1" res="-6.0690130339935422e-04" rms="4.0864756703376770e-01" purity="6.0459363460540771e-01" nType="-99"/>
          <Node pos="r" depth="2" NCoef="0" IVar="-1" Cut="0.0000000000000000e+00" cType="1" res="3.6398967495188117e-04" rms="4.1875144839286804e-01" purity="4.7386494278907776e-01" nType="-99"/>
        </Node>
        <Node pos="r" depth="1" NCoef="0" IVar="20" Cut="1.5155019760131836e+01" cType="1" res="4.4337734580039978e-02" rms="3.9680358767509460e-01" purity="3.9477714896202087e-01" nType="0">
          <Node pos="l" depth="2" NCoef="0" IVar="-1" Cut="0.0000000000000000e+00" cType="1" res="5.4561314173042774e-03" rms="3.9777550101280212e-01" purity="5.7037419080734253e-01" nType="-99"/>
          <Node pos="r" depth="2" NCoef="0" IVar="-1" Cut="0.0000000000000000e+00" cType="1" res="-1.0575662599876523e-03" rms="3.9300781488418579e-01" purity="3.4220808744430542e-01" nType="-99"/>
        </Node>
      </Node>
    </BinaryTree>
    <BinaryTree type="DecisionTree" boostWeight="1.0000000000000000e+00" itree="776">
      <Node pos="s" depth="0" NCoef="0" IVar="6" Cut="1.3175258636474609e+00" cType="1" res="2.3981970734894276e-03" rms="4.0827247500419617e-01" purity="5.0760042667388916e-01" nType="0">
        <Node pos="l" depth="1" NCoef="0" IVar="2" Cut="4.0952382087707520e+00" cType="1" res="-2.8901433572173119e-02" rms="4.1464611887931824e-01" purity="6.4592796564102173e-01" nType="0">
          <Node pos="l" depth="2" NCoef="0" IVar="-1" Cut="0.0000000000000000e+00" cType="1" res="-1.0936713078990579e-03" rms="4.1233125329017639e-01" purity="6.4596855640411377e-01" nType="-99"/>
          <Node pos="r" depth="2" NCoef="0" IVar="-1" Cut="0.0000000000000000e+00" cType="1" res="6.0699870809912682e-03" rms="4.1806402802467346e-01" purity="6.4526569843292236e-01" nType="-99"/>
        </Node>
        <Node pos="r" depth="1" NCoef="0" IVar="20" Cut="6.4736434936523438e+01" cType="1" res="1.6017185524106026e-02" rms="4.0471282601356506e-01" purity="4.4741180539131165e-01" nType="0">
          <Node pos="l" depth="2" NCoef="0" IVar="-1" Cut="0.0000000000000000e+00" cType="1" res="1.8082043970935047e-04" rms="4.0478742122650146e-01" purity="4.5606005191802979e-01" nType="-99"/>
          <Node pos="r" depth="2" NCoef="0" IVar="-1" Cut="0.0000000000000000e+00" cType="1" res="-2.7965020854026079e-03" rms="3.7968164682388306e-01" purity="2.6371166110038757e-01" nType="-99"/>
        </Node>
      </Node>
    </BinaryTree>
    <BinaryTree type="DecisionTree" boostWeight="1.0000000000000000e+00" itree="777">
      <Node pos="s" depth="0" NCoef="0" IVar="20" Cut="1.7164216995239258e+01" cType="1" res="7.3841051198542118e-03" rms="4.0626034140586853e-01" purity="5.1169639825820923e-01" nType="0">
        <Node pos="l" depth="1" NCoef="0" IVar="6" Cut="1.0417526960372925e+00" cType="1" res="-1.8702942878007889e-02" rms="4.1804835200309753e-01" purity="5.1414453983306885e-01" nType="0">
          <Node pos="l" depth="2" NCoef="0" IVar="-1" Cut="0.0000000000000000e+00" cType="1" res="1.0574252810329199e-03" rms="3.7555488944053650e-01" purity="7.5158560276031494e-01" nType="-99"/>
          <Node pos="r" depth="2" NCoef="0" IVar="-1" Cut="0.0000000000000000e+00" cType="1" res="-4.9192656297236681e-04" rms="4.2450445890426636e-01" purity="4.6658354997634888e-01" nType="-99"/>
        </Node>
        <Node pos="r" depth="1" NCoef="0" IVar="6" Cut="1.5528830289840698e+00" cType="1" res="3.4965317696332932e-02" rms="3.9152738451957703e-01" purity="5.0910800695419312e-01" nType="0">
          <Node pos="l" depth="2" NCoef="0" IVar="-1" Cut="0.0000000000000000e+00" cType="1" res="2.1787583827972412e-03" rms="3.6746370792388916e-01" purity="7.4813735485076904e-01" nType="-99"/>
          <Node pos="r" depth="2" NCoef="0" IVar="-1" Cut="0.0000000000000000e+00" cType="1" res="-6.4797094091773033e-04" rms="4.0163606405258179e-01" purity="3.8150316476821899e-01" nType="-99"/>
        </Node>
      </Node>
    </BinaryTree>
    <BinaryTree type="DecisionTree" boostWeight="1.0000000000000000e+00" itree="778">
      <Node pos="s" depth="0" NCoef="0" IVar="20" Cut="2.8815066814422607e+00" cType="0" res="1.0755390394479036e-03" rms="4.0569376945495605e-01" purity="5.0345146656036377e-01" nType="0">
        <Node pos="l" depth="1" NCoef="0" IVar="20" Cut="7.2811126708984375e+01" cType="1" res="8.2480981945991516e-03" rms="4.0502235293388367e-01" purity="5.1573574542999268e-01" nType="0">
          <Node pos="l" depth="2" NCoef="0" IVar="-1" Cut="0.0000000000000000e+00" cType="1" res="2.6955371140502393e-04" rms="4.0571948885917664e-01" purity="5.2514308691024780e-01" nType="-99"/>
          <Node pos="r" depth="2" NCoef="0" IVar="-1" Cut="0.0000000000000000e+00" cType="1" res="-4.1209398768842220e-03" rms="3.4855952858924866e-01" purity="2.5714358687400818e-01" nType="-99"/>
        </Node>
        <Node pos="r" depth="1" NCoef="0" IVar="17" Cut="1.8444351196289062e+01" cType="0" res="-6.8700082600116730e-02" rms="4.0560269355773926e-01" purity="3.8394775986671448e-01" nType="0">
          <Node pos="l" depth="2" NCoef="0" IVar="-1" Cut="0.0000000000000000e+00" cType="1" res="6.7128409864380956e-04" rms="3.4764477610588074e-01" purity="5.0837570428848267e-01" nType="-99"/>
          <Node pos="r" depth="2" NCoef="0" IVar="-1" Cut="0.0000000000000000e+00" cType="1" res="-2.9369248077273369e-03" rms="4.1381448507308960e-01" purity="3.2718566060066223e-01" nType="-99"/>
        </Node>
      </Node>
    </BinaryTree>
    <BinaryTree type="DecisionTree" boostWeight="1.0000000000000000e+00" itree="779">
      <Node pos="s" depth="0" NCoef="0" IVar="20" Cut="1.5763013839721680e+01" cType="1" res="9.4689903780817986e-03" rms="4.1210910677909851e-01" purity="5.2919709682464600e-01" nType="0">
        <Node pos="l" depth="1" NCoef="0" IVar="21" Cut="2.3333332538604736e+00" cType="1" res="-2.0185256376862526e-02" rms="4.3217235803604126e-01" purity="5.3424751758575439e-01" nType="0">
          <Node pos="l" depth="2" NCoef="0" IVar="-1" Cut="0.0000000000000000e+00" cType="1" res="3.6308867856860161e-04" rms="4.2389383912086487e-01" purity="6.0207843780517578e-01" nType="-99"/>
          <Node pos="r" depth="2" NCoef="0" IVar="-1" Cut="0.0000000000000000e+00" cType="1" res="-1.2576289009302855e-03" rms="4.3884176015853882e-01" purity="4.3087017536163330e-01" nType="-99"/>
        </Node>
        <Node pos="r" depth="1" NCoef="0" IVar="0" Cut="4.4540303945541382e-01" cType="0" res="3.5582896322011948e-02" rms="3.9174079895019531e-01" purity="5.2474963665008545e-01" nType="0">
          <Node pos="l" depth="2" NCoef="0" IVar="-1" Cut="0.0000000000000000e+00" cType="1" res="1.9669567700475454e-04" rms="3.8669586181640625e-01" purity="5.3042805194854736e-01" nType="-99"/>
          <Node pos="r" depth="2" NCoef="0" IVar="-1" Cut="0.0000000000000000e+00" cType="1" res="-1.5381822595372796e-03" rms="4.2910447716712952e-01" purity="4.5426800847053528e-01" nType="-99"/>
        </Node>
      </Node>
    </BinaryTree>
    <BinaryTree type="DecisionTree" boostWeight="1.0000000000000000e+00" itree="780">
      <Node pos="s" depth="0" NCoef="0" IVar="5" Cut="1.0301665067672729e+00" cType="1" res="-1.0124189779162407e-02" rms="4.0660291910171509e-01" purity="4.8480942845344543e-01" nType="0">
        <Node pos="l" depth="1" NCoef="0" IVar="11" Cut="1.3577926158905029e-01" cType="1" res="-7.5988821685314178e-02" rms="4.2021739482879639e-01" purity="6.2991893291473389e-01" nType="0">
          <Node pos="l" depth="2" NCoef="0" IVar="-1" Cut="0.0000000000000000e+00" cType="1" res="2.3418248165398836e-03" rms="3.8923257589340210e-01" purity="7.1750497817993164e-01" nType="-99"/>
          <Node pos="r" depth="2" NCoef="0" IVar="-1" Cut="0.0000000000000000e+00" cType="1" res="-3.6047610919922590e-03" rms="4.5005470514297485e-01" purity="4.9263358116149902e-01" nType="-99"/>
        </Node>
        <Node pos="r" depth="1" NCoef="0" IVar="12" Cut="1.4285714924335480e-01" cType="0" res="9.2836152762174606e-03" rms="4.0044230222702026e-01" purity="4.4205114245414734e-01" nType="0">
          <Node pos="l" depth="2" NCoef="0" IVar="-1" Cut="0.0000000000000000e+00" cType="1" res="4.6320556430146098e-04" rms="4.0335434675216675e-01" purity="4.5003968477249146e-01" nType="-99"/>
          <Node pos="r" depth="2" NCoef="0" IVar="-1" Cut="0.0000000000000000e+00" cType="1" res="-2.9528976883739233e-03" rms="3.7716725468635559e-01" purity="3.9576306939125061e-01" nType="-99"/>
        </Node>
      </Node>
    </BinaryTree>
    <BinaryTree type="DecisionTree" boostWeight="1.0000000000000000e+00" itree="781">
      <Node pos="s" depth="0" NCoef="0" IVar="7" Cut="1.5238153934478760e-01" cType="1" res="-5.4741767235100269e-03" rms="4.0095201134681702e-01" purity="4.9255883693695068e-01" nType="0">
        <Node pos="l" depth="1" NCoef="0" IVar="20" Cut="1.4912144660949707e+01" cType="1" res="1.1092928238213062e-02" rms="3.9733782410621643e-01" purity="5.4588145017623901e-01" nType="0">
          <Node pos="l" depth="2" NCoef="0" IVar="-1" Cut="0.0000000000000000e+00" cType="1" res="1.4858572976663709e-03" rms="3.9196863770484924e-01" purity="6.2400722503662109e-01" nType="-99"/>
          <Node pos="r" depth="2" NCoef="0" IVar="-1" Cut="0.0000000000000000e+00" cType="1" res="-7.8683148603886366e-04" rms="3.9972579479217529e-01" purity="4.9272060394287109e-01" nType="-99"/>
        </Node>
        <Node pos="r" depth="1" NCoef="0" IVar="20" Cut="2.8644519805908203e+01" cType="0" res="-3.6213796585798264e-02" rms="4.0578523278236389e-01" purity="3.9362075924873352e-01" nType="0">
          <Node pos="l" depth="2" NCoef="0" IVar="-1" Cut="0.0000000000000000e+00" cType="1" res="3.6671345587819815e-03" rms="4.1064849495887756e-01" purity="5.7710188627243042e-01" nType="-99"/>
          <Node pos="r" depth="2" NCoef="0" IVar="-1" Cut="0.0000000000000000e+00" cType="1" res="-1.4281765324994922e-03" rms="3.9854642748832703e-01" purity="3.4563663601875305e-01" nType="-99"/>
        </Node>
      </Node>
    </BinaryTree>
    <BinaryTree type="DecisionTree" boostWeight="1.0000000000000000e+00" itree="782">
      <Node pos="s" depth="0" NCoef="0" IVar="18" Cut="5.1428570747375488e+00" cType="1" res="3.9693349972367287e-03" rms="4.0056100487709045e-01" purity="5.0437128543853760e-01" nType="0">
        <Node pos="l" depth="1" NCoef="0" IVar="3" Cut="5.8571429252624512e+00" cType="1" res="2.8548829257488251e-02" rms="3.9444848895072937e-01" purity="6.7715215682983398e-01" nType="0">
          <Node pos="l" depth="2" NCoef="0" IVar="-1" Cut="0.0000000000000000e+00" cType="1" res="5.8975280262529850e-04" rms="3.9021155238151550e-01" purity="6.9957721233367920e-01" nType="-99"/>
          <Node pos="r" depth="2" NCoef="0" IVar="-1" Cut="0.0000000000000000e+00" cType="1" res="-1.3128658756613731e-03" rms="4.0740537643432617e-01" purity="4.2634743452072144e-01" nType="-99"/>
        </Node>
        <Node pos="r" depth="1" NCoef="0" IVar="12" Cut="2.1428570747375488e+00" cType="1" res="-2.0991932600736618e-02" rms="4.0515124797821045e-01" purity="3.2890671491622925e-01" nType="0">
          <Node pos="l" depth="2" NCoef="0" IVar="-1" Cut="0.0000000000000000e+00" cType="1" res="2.2762623848393559e-04" rms="4.1144168376922607e-01" purity="3.5070443153381348e-01" nType="-99"/>
          <Node pos="r" depth="2" NCoef="0" IVar="-1" Cut="0.0000000000000000e+00" cType="1" res="-6.0918764211237431e-03" rms="3.2695603370666504e-01" purity="1.3393314182758331e-01" nType="-99"/>
        </Node>
      </Node>
    </BinaryTree>
    <BinaryTree type="DecisionTree" boostWeight="1.0000000000000000e+00" itree="783">
      <Node pos="s" depth="0" NCoef="0" IVar="4" Cut="2.2321753501892090e+00" cType="1" res="-6.4428672194480896e-03" rms="4.0836244821548462e-01" purity="5.0550067424774170e-01" nType="0">
        <Node pos="l" depth="1" NCoef="0" IVar="15" Cut="9.8571424484252930e+00" cType="1" res="-2.4388827383518219e-02" rms="4.1186204552650452e-01" purity="5.9614956378936768e-01" nType="0">
          <Node pos="l" depth="2" NCoef="0" IVar="-1" Cut="0.0000000000000000e+00" cType="1" res="1.8879605922847986e-03" rms="3.5607469081878662e-01" purity="7.7202165126800537e-01" nType="-99"/>
          <Node pos="r" depth="2" NCoef="0" IVar="-1" Cut="0.0000000000000000e+00" cType="1" res="-1.5118001028895378e-03" rms="4.4899016618728638e-01" purity="4.5314332842826843e-01" nType="-99"/>
        </Node>
        <Node pos="r" depth="1" NCoef="0" IVar="5" Cut="1.6518458127975464e+00" cType="1" res="3.1487006694078445e-02" rms="3.9821308851242065e-01" purity="3.1390869617462158e-01" nType="0">
          <Node pos="l" depth="2" NCoef="0" IVar="-1" Cut="0.0000000000000000e+00" cType="1" res="4.1882749646902084e-03" rms="4.3122553825378418e-01" purity="6.5625083446502686e-01" nType="-99"/>
          <Node pos="r" depth="2" NCoef="0" IVar="-1" Cut="0.0000000000000000e+00" cType="1" res="1.5170627739280462e-04" rms="3.9278888702392578e-01" purity="2.8151795268058777e-01" nType="-99"/>
        </Node>
      </Node>
    </BinaryTree>
    <BinaryTree type="DecisionTree" boostWeight="1.0000000000000000e+00" itree="784">
      <Node pos="s" depth="0" NCoef="0" IVar="9" Cut="-1.4285714149475098e+01" cType="1" res="-8.4213335067033768e-03" rms="4.0358352661132812e-01" purity="4.8795959353446960e-01" nType="0">
        <Node pos="l" depth="1" NCoef="0" IVar="-1" Cut="0.0000000000000000e+00" cType="1" res="-7.9981860471889377e-04" rms="4.6906012296676636e-01" purity="6.1638087034225464e-01" nType="-99"/>
        <Node pos="r" depth="1" NCoef="0" IVar="18" Cut="3.4285714626312256e+00" cType="1" res="-5.0054048188030720e-03" rms="4.0125668048858643e-01" purity="4.8486512899398804e-01" nType="0">
          <Node pos="l" depth="2" NCoef="0" IVar="-1" Cut="0.0000000000000000e+00" cType="1" res="1.2889256468042731e-03" rms="3.0663752555847168e-01" purity="7.2028934955596924e-01" nType="-99"/>
          <Node pos="r" depth="2" NCoef="0" IVar="-1" Cut="0.0000000000000000e+00" cType="1" res="-2.9511516913771629e-04" rms="4.2625871300697327e-01" purity="4.1037848591804504e-01" nType="-99"/>
        </Node>
      </Node>
    </BinaryTree>
    <BinaryTree type="DecisionTree" boostWeight="1.0000000000000000e+00" itree="785">
      <Node pos="s" depth="0" NCoef="0" IVar="6" Cut="8.7547183036804199e-01" cType="1" res="3.1706248410046101e-03" rms="4.0291798114776611e-01" purity="5.0610256195068359e-01" nType="0">
        <Node pos="l" depth="1" NCoef="0" IVar="20" Cut="1.4016984939575195e+01" cType="1" res="-1.0703056305646896e-01" rms="4.3390759825706482e-01" purity="5.5512088537216187e-01" nType="0">
          <Node pos="l" depth="2" NCoef="0" IVar="-1" Cut="0.0000000000000000e+00" cType="1" res="1.1100645177066326e-02" rms="3.0643692612648010e-01" purity="7.5727689266204834e-01" nType="-99"/>
          <Node pos="r" depth="2" NCoef="0" IVar="-1" Cut="0.0000000000000000e+00" cType="1" res="-7.1093225851655006e-03" rms="4.5442825555801392e-01" purity="4.7279059886932373e-01" nType="-99"/>
        </Node>
        <Node pos="r" depth="1" NCoef="0" IVar="3" Cut="5.8571429252624512e+00" cType="0" res="1.1995491571724415e-02" rms="3.9901855587959290e-01" purity="5.0217717885971069e-01" nType="0">
          <Node pos="l" depth="2" NCoef="0" IVar="-1" Cut="0.0000000000000000e+00" cType="1" res="9.9548744037747383e-04" rms="3.6779209971427917e-01" purity="6.6349530220031738e-01" nType="-99"/>
          <Node pos="r" depth="2" NCoef="0" IVar="-1" Cut="0.0000000000000000e+00" cType="1" res="-4.2858911911025643e-05" rms="3.9963009953498840e-01" purity="4.9465066194534302e-01" nType="-99"/>
        </Node>
      </Node>
    </BinaryTree>
    <BinaryTree type="DecisionTree" boostWeight="1.0000000000000000e+00" itree="786">
      <Node pos="s" depth="0" NCoef="0" IVar="18" Cut="5.1428570747375488e+00" cType="1" res="1.5379318967461586e-02" rms="3.9782193303108215e-01" purity="5.1471364498138428e-01" nType="0">
        <Node pos="l" depth="1" NCoef="0" IVar="20" Cut="3.0746324539184570e+01" cType="1" res="4.6093728393316269e-02" rms="3.8536527752876282e-01" purity="6.9912534952163696e-01" nType="0">
          <Node pos="l" depth="2" NCoef="0" IVar="-1" Cut="0.0000000000000000e+00" cType="1" res="9.8452134989202023e-04" rms="3.7284180521965027e-01" purity="7.0949184894561768e-01" nType="-99"/>
          <Node pos="r" depth="2" NCoef="0" IVar="-1" Cut="0.0000000000000000e+00" cType="1" res="-1.3480563648045063e-03" rms="4.1634532809257507e-01" purity="6.6857337951660156e-01" nType="-99"/>
        </Node>
        <Node pos="r" depth="1" NCoef="0" IVar="16" Cut="9.1626234352588654e-02" cType="1" res="-1.4562753029167652e-02" rms="4.0737780928611755e-01" purity="3.3493918180465698e-01" nType="0">
          <Node pos="l" depth="2" NCoef="0" IVar="-1" Cut="0.0000000000000000e+00" cType="1" res="4.5444257557392120e-04" rms="4.0308395028114319e-01" purity="3.4472715854644775e-01" nType="-99"/>
          <Node pos="r" depth="2" NCoef="0" IVar="-1" Cut="0.0000000000000000e+00" cType="1" res="-4.9032657407224178e-03" rms="4.2008197307586670e-01" purity="2.7541059255599976e-01" nType="-99"/>
        </Node>
      </Node>
    </BinaryTree>
    <BinaryTree type="DecisionTree" boostWeight="1.0000000000000000e+00" itree="787">
      <Node pos="s" depth="0" NCoef="0" IVar="21" Cut="4.2380952835083008e+00" cType="1" res="7.1419342420995235e-03" rms="3.9630278944969177e-01" purity="5.0480276346206665e-01" nType="0">
        <Node pos="l" depth="1" NCoef="0" IVar="4" Cut="1.3133398294448853e+00" cType="1" res="-1.2374871410429478e-02" rms="3.9245471358299255e-01" purity="5.5490070581436157e-01" nType="0">
          <Node pos="l" depth="2" NCoef="0" IVar="-1" Cut="0.0000000000000000e+00" cType="1" res="1.2205989332869649e-03" rms="3.0654075741767883e-01" purity="8.3922088146209717e-01" nType="-99"/>
          <Node pos="r" depth="2" NCoef="0" IVar="-1" Cut="0.0000000000000000e+00" cType="1" res="-9.9782156758010387e-04" rms="4.1551861166954041e-01" purity="4.5847254991531372e-01" nType="-99"/>
        </Node>
        <Node pos="r" depth="1" NCoef="0" IVar="15" Cut="1.8571428298950195e+01" cType="1" res="3.7826560437679291e-02" rms="4.0035921335220337e-01" purity="4.2603802680969238e-01" nType="0">
          <Node pos="l" depth="2" NCoef="0" IVar="-1" Cut="0.0000000000000000e+00" cType="1" res="1.8579213647171855e-03" rms="4.5165157318115234e-01" purity="5.9367322921752930e-01" nType="-99"/>
          <Node pos="r" depth="2" NCoef="0" IVar="-1" Cut="0.0000000000000000e+00" cType="1" res="-2.6223310269415379e-03" rms="2.4732443690299988e-01" purity="7.1255385875701904e-02" nType="-99"/>
        </Node>
      </Node>
    </BinaryTree>
    <BinaryTree type="DecisionTree" boostWeight="1.0000000000000000e+00" itree="788">
      <Node pos="s" depth="0" NCoef="0" IVar="9" Cut="-5.7142858505249023e+00" cType="1" res="-5.7868696749210358e-03" rms="4.0097770094871521e-01" purity="4.9137708544731140e-01" nType="0">
        <Node pos="l" depth="1" NCoef="0" IVar="3" Cut="2.7142856121063232e+00" cType="0" res="8.9252255856990814e-02" rms="3.4117555618286133e-01" purity="7.6429879665374756e-01" nType="0">
          <Node pos="l" depth="2" NCoef="0" IVar="-1" Cut="0.0000000000000000e+00" cType="1" res="-1.9667150918394327e-03" rms="2.9260849952697754e-01" purity="8.0849277973175049e-01" nType="-99"/>
          <Node pos="r" depth="2" NCoef="0" IVar="-1" Cut="0.0000000000000000e+00" cType="1" res="-4.4995037023909390e-04" rms="3.8194358348846436e-01" purity="7.1273910999298096e-01" nType="-99"/>
        </Node>
        <Node pos="r" depth="1" NCoef="0" IVar="0" Cut="6.6364800930023193e-01" cType="1" res="-1.1538898572325706e-02" rms="4.0359571576118469e-01" purity="4.7485917806625366e-01" nType="0">
          <Node pos="l" depth="2" NCoef="0" IVar="-1" Cut="0.0000000000000000e+00" cType="1" res="-3.1509689870290458e-04" rms="4.4119650125503540e-01" purity="5.4665160179138184e-01" nType="-99"/>
          <Node pos="r" depth="2" NCoef="0" IVar="-1" Cut="0.0000000000000000e+00" cType="1" res="6.7568849772214890e-05" rms="3.9803069829940796e-01" purity="4.6561568975448608e-01" nType="-99"/>
        </Node>
      </Node>
    </BinaryTree>
    <BinaryTree type="DecisionTree" boostWeight="1.0000000000000000e+00" itree="789">
      <Node pos="s" depth="0" NCoef="0" IVar="4" Cut="1.7935950756072998e+00" cType="1" res="-1.6273236542474478e-04" rms="4.0056902170181274e-01" purity="4.9502259492874146e-01" nType="0">
        <Node pos="l" depth="1" NCoef="0" IVar="2" Cut="4.2857141494750977e+00" cType="0" res="3.4528832882642746e-02" rms="3.7951520085334778e-01" purity="7.5281846523284912e-01" nType="0">
          <Node pos="l" depth="2" NCoef="0" IVar="-1" Cut="0.0000000000000000e+00" cType="1" res="2.1563677117228508e-02" rms="2.5607234239578247e-01" purity="9.0605765581130981e-01" nType="-99"/>
          <Node pos="r" depth="2" NCoef="0" IVar="-1" Cut="0.0000000000000000e+00" cType="1" res="-4.8250117106363177e-04" rms="3.8096180558204651e-01" purity="7.4560141563415527e-01" nType="-99"/>
        </Node>
        <Node pos="r" depth="1" NCoef="0" IVar="4" Cut="1.9281375408172607e+00" cType="1" res="-2.2697143256664276e-02" rms="4.1210955381393433e-01" purity="3.2756757736206055e-01" nType="0">
          <Node pos="l" depth="2" NCoef="0" IVar="-1" Cut="0.0000000000000000e+00" cType="1" res="-2.9195575043559074e-03" rms="4.5087093114852905e-01" purity="3.8542914390563965e-01" nType="-99"/>
          <Node pos="r" depth="2" NCoef="0" IVar="-1" Cut="0.0000000000000000e+00" cType="1" res="2.7266907272860408e-04" rms="4.0021505951881409e-01" purity="3.1498339772224426e-01" nType="-99"/>
        </Node>
      </Node>
    </BinaryTree>
    <BinaryTree type="DecisionTree" boostWeight="1.0000000000000000e+00" itree="790">
      <Node pos="s" depth="0" NCoef="0" IVar="0" Cut="2.2088341414928436e-01" cType="0" res="2.6371756102889776e-03" rms="4.0110832452774048e-01" purity="5.0429624319076538e-01" nType="0">
        <Node pos="l" depth="1" NCoef="0" IVar="15" Cut="1.1285714149475098e+01" cType="1" res="6.5821856260299683e-03" rms="3.9873984456062317e-01" purity="5.0577646493911743e-01" nType="0">
          <Node pos="l" depth="2" NCoef="0" IVar="-1" Cut="0.0000000000000000e+00" cType="1" res="5.2190560381859541e-04" rms="3.6108955740928650e-01" purity="6.7584592103958130e-01" nType="-99"/>
          <Node pos="r" depth="2" NCoef="0" IVar="-1" Cut="0.0000000000000000e+00" cType="1" res="-3.7554118898697197e-04" rms="4.2192101478576660e-01" purity="3.8629275560379028e-01" nType="-99"/>
        </Node>
        <Node pos="r" depth="1" NCoef="0" IVar="-1" Cut="0.0000000000000000e+00" cType="1" res="-8.2068036135751754e-05" rms="4.6485179662704468e-01" purity="4.2950847744941711e-01" nType="-99"/>
      </Node>
    </BinaryTree>
    <BinaryTree type="DecisionTree" boostWeight="1.0000000000000000e+00" itree="791">
      <Node pos="s" depth="0" NCoef="0" IVar="0" Cut="8.8476192951202393e-01" cType="1" res="-6.1991959810256958e-03" rms="4.0180754661560059e-01" purity="4.9379524588584900e-01" nType="0">
        <Node pos="l" depth="1" NCoef="0" IVar="7" Cut="-3.0499992370605469e+00" cType="1" res="-5.6006059050559998e-02" rms="4.2454490065574646e-01" purity="5.4215234518051147e-01" nType="0">
          <Node pos="l" depth="2" NCoef="0" IVar="-1" Cut="0.0000000000000000e+00" cType="1" res="2.4429019540548325e-03" rms="3.5355746746063232e-01" purity="7.4706792831420898e-01" nType="-99"/>
          <Node pos="r" depth="2" NCoef="0" IVar="-1" Cut="0.0000000000000000e+00" cType="1" res="-1.3881354825571179e-03" rms="4.3476420640945435e-01" purity="5.0104373693466187e-01" nType="-99"/>
        </Node>
        <Node pos="r" depth="1" NCoef="0" IVar="4" Cut="3.2398438453674316e+00" cType="1" res="9.4220871105790138e-03" rms="3.9310848712921143e-01" purity="4.7862866520881653e-01" nType="0">
          <Node pos="l" depth="2" NCoef="0" IVar="-1" Cut="0.0000000000000000e+00" cType="1" res="4.9272098112851381e-04" rms="4.0472704172134399e-01" purity="5.2645778656005859e-01" nType="-99"/>
          <Node pos="r" depth="2" NCoef="0" IVar="-1" Cut="0.0000000000000000e+00" cType="1" res="-3.2759231980890036e-03" rms="2.6354384422302246e-01" purity="7.7785342931747437e-02" nType="-99"/>
        </Node>
      </Node>
    </BinaryTree>
    <BinaryTree type="DecisionTree" boostWeight="1.0000000000000000e+00" itree="792">
      <Node pos="s" depth="0" NCoef="0" IVar="18" Cut="1.4285714626312256e+00" cType="1" res="4.2073405347764492e-03" rms="4.0775984525680542e-01" purity="5.0993055105209351e-01" nType="0">
        <Node pos="l" depth="1" NCoef="0" IVar="12" Cut="1.1428571939468384e+00" cType="1" res="-1.0543742775917053e-01" rms="4.5155858993530273e-01" purity="5.8528035879135132e-01" nType="0">
          <Node pos="l" depth="2" NCoef="0" IVar="-1" Cut="0.0000000000000000e+00" cType="1" res="1.3711909996345639e-03" rms="3.7220036983489990e-01" purity="6.8840408325195312e-01" nType="-99"/>
          <Node pos="r" depth="2" NCoef="0" IVar="-1" Cut="0.0000000000000000e+00" cType="1" res="-6.4124963246285915e-03" rms="5.1476800441741943e-01" purity="4.3593764305114746e-01" nType="-99"/>
        </Node>
        <Node pos="r" depth="1" NCoef="0" IVar="20" Cut="3.5821082592010498e+00" cType="0" res="1.0794268921017647e-02" rms="4.0403145551681519e-01" purity="5.0540387630462646e-01" nType="0">
          <Node pos="l" depth="2" NCoef="0" IVar="-1" Cut="0.0000000000000000e+00" cType="1" res="1.7047370783984661e-04" rms="4.0532365441322327e-01" purity="5.1826560497283936e-01" nType="-99"/>
          <Node pos="r" depth="2" NCoef="0" IVar="-1" Cut="0.0000000000000000e+00" cType="1" res="-1.1229007504880428e-03" rms="3.8836929202079773e-01" purity="4.0457740426063538e-01" nType="-99"/>
        </Node>
      </Node>
    </BinaryTree>
    <BinaryTree type="DecisionTree" boostWeight="1.0000000000000000e+00" itree="793">
      <Node pos="s" depth="0" NCoef="0" IVar="21" Cut="1.3809523582458496e+00" cType="1" res="-9.2991217970848083e-03" rms="4.0925568342208862e-01" purity="4.9265742301940918e-01" nType="0">
        <Node pos="l" depth="1" NCoef="0" IVar="5" Cut="1.7666615247726440e+00" cType="1" res="-4.2240191251039505e-02" rms="4.3362298607826233e-01" purity="5.1694315671920776e-01" nType="0">
          <Node pos="l" depth="2" NCoef="0" IVar="-1" Cut="0.0000000000000000e+00" cType="1" res="-1.6353783430531621e-03" rms="4.3302768468856812e-01" purity="5.9132641553878784e-01" nType="-99"/>
          <Node pos="r" depth="2" NCoef="0" IVar="-1" Cut="0.0000000000000000e+00" cType="1" res="1.2647493276745081e-03" rms="4.2784944176673889e-01" purity="3.5790541768074036e-01" nType="-99"/>
        </Node>
        <Node pos="r" depth="1" NCoef="0" IVar="4" Cut="2.0338366031646729e+00" cType="1" res="1.1800823733210564e-02" rms="3.9140027761459351e-01" purity="4.7710150480270386e-01" nType="0">
          <Node pos="l" depth="2" NCoef="0" IVar="-1" Cut="0.0000000000000000e+00" cType="1" res="1.7915400676429272e-03" rms="3.9711171388626099e-01" purity="6.8813848495483398e-01" nType="-99"/>
          <Node pos="r" depth="2" NCoef="0" IVar="-1" Cut="0.0000000000000000e+00" cType="1" res="-1.0569385485723615e-03" rms="3.8390931487083435e-01" purity="2.7468156814575195e-01" nType="-99"/>
        </Node>
      </Node>
    </BinaryTree>
    <BinaryTree type="DecisionTree" boostWeight="1.0000000000000000e+00" itree="794">
      <Node pos="s" depth="0" NCoef="0" IVar="4" Cut="2.6305978298187256e+00" cType="1" res="6.2069529667496681e-03" rms="3.9755609631538391e-01" purity="5.0413173437118530e-01" nType="0">
        <Node pos="l" depth="1" NCoef="0" IVar="4" Cut="2.1400833129882812e+00" cType="1" res="1.6893360763788223e-02" rms="4.1298249363899231e-01" purity="5.9637862443923950e-01" nType="0">
          <Node pos="l" depth="2" NCoef="0" IVar="-1" Cut="0.0000000000000000e+00" cType="1" res="-5.6417996529489756e-04" rms="4.0812703967094421e-01" purity="6.3481259346008301e-01" nType="-99"/>
          <Node pos="r" depth="2" NCoef="0" IVar="-1" Cut="0.0000000000000000e+00" cType="1" res="1.9732266664505005e-03" rms="4.2710876464843750e-01" purity="4.4540786743164062e-01" nType="-99"/>
        </Node>
        <Node pos="r" depth="1" NCoef="0" IVar="21" Cut="1.0952380895614624e+00" cType="1" res="-3.2427888363599777e-02" rms="3.3307713270187378e-01" purity="1.7062948644161224e-01" nType="0">
          <Node pos="l" depth="2" NCoef="0" IVar="-1" Cut="0.0000000000000000e+00" cType="1" res="2.4561947211623192e-03" rms="4.2025271058082581e-01" purity="3.5531011223793030e-01" nType="-99"/>
          <Node pos="r" depth="2" NCoef="0" IVar="-1" Cut="0.0000000000000000e+00" cType="1" res="-1.5710837906226516e-03" rms="3.1286028027534485e-01" purity="1.4511984586715698e-01" nType="-99"/>
        </Node>
      </Node>
    </BinaryTree>
    <BinaryTree type="DecisionTree" boostWeight="1.0000000000000000e+00" itree="795">
      <Node pos="s" depth="0" NCoef="0" IVar="15" Cut="1.1285714149475098e+01" cType="1" res="-2.9351711273193359e-03" rms="4.0140721201896667e-01" purity="4.9836483597755432e-01" nType="0">
        <Node pos="l" depth="1" NCoef="0" IVar="20" Cut="3.8160324096679688e+01" cType="0" res="3.1041108071804047e-02" rms="3.6612305045127869e-01" purity="6.7889660596847534e-01" nType="0">
          <Node pos="l" depth="2" NCoef="0" IVar="-1" Cut="0.0000000000000000e+00" cType="1" res="5.4044015705585480e-03" rms="2.9696744680404663e-01" purity="8.8417226076126099e-01" nType="-99"/>
          <Node pos="r" depth="2" NCoef="0" IVar="-1" Cut="0.0000000000000000e+00" cType="1" res="-7.1193586336448789e-05" rms="3.7212854623794556e-01" purity="6.5439677238464355e-01" nType="-99"/>
        </Node>
        <Node pos="r" depth="1" NCoef="0" IVar="15" Cut="1.2714285850524902e+01" cType="0" res="-2.6777418330311775e-02" rms="4.2279225587844849e-01" purity="3.7167990207672119e-01" nType="0">
          <Node pos="l" depth="2" NCoef="0" IVar="-1" Cut="0.0000000000000000e+00" cType="1" res="2.8832093812525272e-04" rms="4.1581472754478455e-01" purity="3.7262973189353943e-01" nType="-99"/>
          <Node pos="r" depth="2" NCoef="0" IVar="-1" Cut="0.0000000000000000e+00" cType="1" res="-5.2563231438398361e-03" rms="4.5563980937004089e-01" purity="3.6391526460647583e-01" nType="-99"/>
        </Node>
      </Node>
    </BinaryTree>
    <BinaryTree type="DecisionTree" boostWeight="1.0000000000000000e+00" itree="796">
      <Node pos="s" depth="0" NCoef="0" IVar="0" Cut="2.2270151972770691e-01" cType="0" res="-6.0577942058444023e-03" rms="4.1309186816215515e-01" purity="5.0281602144241333e-01" nType="0">
        <Node pos="l" depth="1" NCoef="0" IVar="0" Cut="6.4781498908996582e-01" cType="1" res="-2.8964895755052567e-03" rms="4.1129663586616516e-01" purity="5.0392419099807739e-01" nType="0">
          <Node pos="l" depth="2" NCoef="0" IVar="-1" Cut="0.0000000000000000e+00" cType="1" res="-1.7254428530577570e-04" rms="4.0618458390235901e-01" purity="6.9800329208374023e-01" nType="-99"/>
          <Node pos="r" depth="2" NCoef="0" IVar="-1" Cut="0.0000000000000000e+00" cType="1" res="-6.0037815273972228e-05" rms="4.1114377975463867e-01" purity="4.8263508081436157e-01" nType="-99"/>
        </Node>
        <Node pos="r" depth="1" NCoef="0" IVar="-1" Cut="0.0000000000000000e+00" cType="1" res="2.2540011559613049e-04" rms="4.6943745017051697e-01" purity="4.4437554478645325e-01" nType="-99"/>
      </Node>
    </BinaryTree>
    <BinaryTree type="DecisionTree" boostWeight="1.0000000000000000e+00" itree="797">
      <Node pos="s" depth="0" NCoef="0" IVar="15" Cut="4.1428570747375488e+00" cType="1" res="1.0069513693451881e-02" rms="4.0598216652870178e-01" purity="5.1221388578414917e-01" nType="0">
        <Node pos="l" depth="1" NCoef="0" IVar="12" Cut="1.1428571939468384e+00" cType="1" res="-9.2544853687286377e-02" rms="4.4099622964859009e-01" purity="6.1222922801971436e-01" nType="0">
          <Node pos="l" depth="2" NCoef="0" IVar="-1" Cut="0.0000000000000000e+00" cType="1" res="5.8596220333129168e-04" rms="3.6333310604095459e-01" purity="7.3531144857406616e-01" nType="-99"/>
          <Node pos="r" depth="2" NCoef="0" IVar="-1" Cut="0.0000000000000000e+00" cType="1" res="-6.8929637782275677e-03" rms="5.0843816995620728e-01" purity="3.9474755525588989e-01" nType="-99"/>
        </Node>
        <Node pos="r" depth="1" NCoef="0" IVar="18" Cut="5.3333334922790527e+00" cType="1" res="1.9714592024683952e-02" rms="4.0118733048439026e-01" purity="5.0281310081481934e-01" nType="0">
          <Node pos="l" depth="2" NCoef="0" IVar="-1" Cut="0.0000000000000000e+00" cType="1" res="8.0710113979876041e-04" rms="3.9760529994964600e-01" purity="7.0227175951004028e-01" nType="-99"/>
          <Node pos="r" depth="2" NCoef="0" IVar="-1" Cut="0.0000000000000000e+00" cType="1" res="-4.4575429637916386e-04" rms="4.0248116850852966e-01" purity="3.3192348480224609e-01" nType="-99"/>
        </Node>
      </Node>
    </BinaryTree>
    <BinaryTree type="DecisionTree" boostWeight="1.0000000000000000e+00" itree="798">
      <Node pos="s" depth="0" NCoef="0" IVar="5" Cut="1.0861605405807495e+00" cType="1" res="-6.5407045185565948e-03" rms="4.0739080309867859e-01" purity="4.8930007219314575e-01" nType="0">
        <Node pos="l" depth="1" NCoef="0" IVar="15" Cut="1.1142857551574707e+01" cType="1" res="-5.6661128997802734e-02" rms="4.1814199090003967e-01" purity="6.4793670177459717e-01" nType="0">
          <Node pos="l" depth="2" NCoef="0" IVar="-1" Cut="0.0000000000000000e+00" cType="1" res="3.1567486003041267e-03" rms="3.8132360577583313e-01" purity="7.7401882410049438e-01" nType="-99"/>
          <Node pos="r" depth="2" NCoef="0" IVar="-1" Cut="0.0000000000000000e+00" cType="1" res="-3.1198174692690372e-03" rms="4.6797272562980652e-01" purity="4.1716033220291138e-01" nType="-99"/>
        </Node>
        <Node pos="r" depth="1" NCoef="0" IVar="20" Cut="4.1526027679443359e+01" cType="0" res="1.0131789371371269e-02" rms="4.0236955881118774e-01" purity="4.3652984499931335e-01" nType="0">
          <Node pos="l" depth="2" NCoef="0" IVar="-1" Cut="0.0000000000000000e+00" cType="1" res="2.7320261579006910e-03" rms="3.9288383722305298e-01" purity="5.5830907821655273e-01" nType="-99"/>
          <Node pos="r" depth="2" NCoef="0" IVar="-1" Cut="0.0000000000000000e+00" cType="1" res="-3.8284301990643144e-04" rms="4.0280860662460327e-01" purity="4.2185255885124207e-01" nType="-99"/>
        </Node>
      </Node>
    </BinaryTree>
    <BinaryTree type="DecisionTree" boostWeight="1.0000000000000000e+00" itree="799">
      <Node pos="s" depth="0" NCoef="0" IVar="0" Cut="1.7695238590240479e+00" cType="1" res="-2.6109904050827026e-02" rms="4.1165834665298462e-01" purity="4.7760149836540222e-01" nType="0">
        <Node pos="l" depth="1" NCoef="0" IVar="6" Cut="7.5626325607299805e-01" cType="1" res="-4.0760274976491928e-02" rms="4.1754749417304993e-01" purity="5.5565690994262695e-01" nType="0">
          <Node pos="l" depth="2" NCoef="0" IVar="-1" Cut="0.0000000000000000e+00" cType="1" res="3.7119491025805473e-03" rms="3.4833899140357971e-01" purity="8.4100770950317383e-01" nType="-99"/>
          <Node pos="r" depth="2" NCoef="0" IVar="-1" Cut="0.0000000000000000e+00" cType="1" res="-3.5299232695251703e-04" rms="4.1953769326210022e-01" purity="5.4155182838439941e-01" nType="-99"/>
        </Node>
        <Node pos="r" depth="1" NCoef="0" IVar="9" Cut="-1.0714285373687744e+00" cType="1" res="7.2904390981420875e-04" rms="3.9925312995910645e-01" purity="3.3460682630538940e-01" nType="0">
          <Node pos="l" depth="2" NCoef="0" IVar="-1" Cut="0.0000000000000000e+00" cType="1" res="1.4227049425244331e-02" rms="3.8491678237915039e-01" purity="5.8565831184387207e-01" nType="-99"/>
          <Node pos="r" depth="2" NCoef="0" IVar="-1" Cut="0.0000000000000000e+00" cType="1" res="-4.7311550588347018e-04" rms="3.9753478765487671e-01" purity="3.2301130890846252e-01" nType="-99"/>
        </Node>
      </Node>
    </BinaryTree>
    <BinaryTree type="DecisionTree" boostWeight="1.0000000000000000e+00" itree="800">
      <Node pos="s" depth="0" NCoef="0" IVar="8" Cut="2.4261906147003174e+00" cType="0" res="-8.1417746841907501e-03" rms="4.0726405382156372e-01" purity="4.8970165848731995e-01" nType="0">
        <Node pos="l" depth="1" NCoef="0" IVar="12" Cut="2.1428570747375488e+00" cType="1" res="5.2831701934337616e-02" rms="4.1018810868263245e-01" purity="5.1888632774353027e-01" nType="0">
          <Node pos="l" depth="2" NCoef="0" IVar="-1" Cut="0.0000000000000000e+00" cType="1" res="1.6052010469138622e-03" rms="3.9126789569854736e-01" purity="6.3169825077056885e-01" nType="-99"/>
          <Node pos="r" depth="2" NCoef="0" IVar="-1" Cut="0.0000000000000000e+00" cType="1" res="-3.6849607713520527e-03" rms="4.1128736734390259e-01" purity="3.0644989013671875e-01" nType="-99"/>
        </Node>
        <Node pos="r" depth="1" NCoef="0" IVar="8" Cut="2.7380952239036560e-01" cType="1" res="-1.2731923721730709e-02" rms="4.0667322278022766e-01" purity="4.8750466108322144e-01" nType="0">
          <Node pos="l" depth="2" NCoef="0" IVar="-1" Cut="0.0000000000000000e+00" cType="1" res="3.0898733530193567e-04" rms="4.0526261925697327e-01" purity="5.1916778087615967e-01" nType="-99"/>
          <Node pos="r" depth="2" NCoef="0" IVar="-1" Cut="0.0000000000000000e+00" cType="1" res="-5.7210121303796768e-04" rms="4.0786108374595642e-01" purity="4.3635231256484985e-01" nType="-99"/>
        </Node>
      </Node>
    </BinaryTree>
    <BinaryTree type="DecisionTree" boostWeight="1.0000000000000000e+00" itree="801">
      <Node pos="s" depth="0" NCoef="0" IVar="8" Cut="4.7261905670166016e+00" cType="0" res="9.8721208050847054e-03" rms="4.0744778513908386e-01" purity="5.2602225542068481e-01" nType="0">
        <Node pos="l" depth="1" NCoef="0" IVar="-1" Cut="0.0000000000000000e+00" cType="1" res="6.8485212977975607e-04" rms="3.8812962174415588e-01" purity="7.1284794807434082e-01" nType="-99"/>
        <Node pos="r" depth="1" NCoef="0" IVar="7" Cut="-3.5619044303894043e+00" cType="1" res="5.5987387895584106e-03" rms="4.0703791379928589e-01" purity="5.2122068405151367e-01" nType="0">
          <Node pos="l" depth="2" NCoef="0" IVar="-1" Cut="0.0000000000000000e+00" cType="1" res="1.6639478271827102e-03" rms="3.1765165925025940e-01" purity="8.3849370479583740e-01" nType="-99"/>
          <Node pos="r" depth="2" NCoef="0" IVar="-1" Cut="0.0000000000000000e+00" cType="1" res="-2.0952659542672336e-04" rms="4.1144138574600220e-01" purity="4.9994975328445435e-01" nType="-99"/>
        </Node>
      </Node>
    </BinaryTree>
    <BinaryTree type="DecisionTree" boostWeight="1.0000000000000000e+00" itree="802">
      <Node pos="s" depth="0" NCoef="0" IVar="6" Cut="1.4597150087356567e+00" cType="1" res="-5.1470929756760597e-03" rms="4.0201315283775330e-01" purity="4.9012678861618042e-01" nType="0">
        <Node pos="l" depth="1" NCoef="0" IVar="12" Cut="2.1428570747375488e+00" cType="1" res="-3.7845283746719360e-02" rms="4.1300639510154724e-01" purity="6.2603503465652466e-01" nType="0">
          <Node pos="l" depth="2" NCoef="0" IVar="-1" Cut="0.0000000000000000e+00" cType="1" res="-4.6106331865303218e-04" rms="3.9440813660621643e-01" purity="6.6661208868026733e-01" nType="-99"/>
          <Node pos="r" depth="2" NCoef="0" IVar="-1" Cut="0.0000000000000000e+00" cType="1" res="-2.3748672101646662e-03" rms="4.7586399316787720e-01" purity="4.4481968879699707e-01" nType="-99"/>
        </Node>
        <Node pos="r" depth="1" NCoef="0" IVar="7" Cut="-1.7142857313156128e+00" cType="1" res="1.3365448452532291e-02" rms="3.9445388317108154e-01" purity="4.1318041086196899e-01" nType="0">
          <Node pos="l" depth="2" NCoef="0" IVar="-1" Cut="0.0000000000000000e+00" cType="1" res="3.2011321745812893e-03" rms="3.6977666616439819e-01" purity="6.6403245925903320e-01" nType="-99"/>
          <Node pos="r" depth="2" NCoef="0" IVar="-1" Cut="0.0000000000000000e+00" cType="1" res="-1.0399950406281278e-04" rms="3.9558443427085876e-01" purity="3.8003730773925781e-01" nType="-99"/>
        </Node>
      </Node>
    </BinaryTree>
    <BinaryTree type="DecisionTree" boostWeight="1.0000000000000000e+00" itree="803">
      <Node pos="s" depth="0" NCoef="0" IVar="9" Cut="-7.1428570747375488e+00" cType="1" res="-1.2710918672382832e-02" rms="4.0692928433418274e-01" purity="4.9285587668418884e-01" nType="0">
        <Node pos="l" depth="1" NCoef="0" IVar="0" Cut="1.1830159425735474e+00" cType="1" res="-1.2905487418174744e-01" rms="4.2493090033531189e-01" purity="5.0626170635223389e-01" nType="0">
          <Node pos="l" depth="2" NCoef="0" IVar="-1" Cut="0.0000000000000000e+00" cType="1" res="4.8987340414896607e-04" rms="4.1551190614700317e-01" purity="6.2857234477996826e-01" nType="-99"/>
          <Node pos="r" depth="2" NCoef="0" IVar="-1" Cut="0.0000000000000000e+00" cType="1" res="-7.5926734134554863e-03" rms="4.0314543247222900e-01" purity="2.7991783618927002e-01" nType="-99"/>
        </Node>
        <Node pos="r" depth="1" NCoef="0" IVar="6" Cut="1.5500853061676025e+00" cType="1" res="-3.7246781866997480e-03" rms="4.0411454439163208e-01" purity="4.9182042479515076e-01" nType="0">
          <Node pos="l" depth="2" NCoef="0" IVar="-1" Cut="0.0000000000000000e+00" cType="1" res="2.2244089632295072e-04" rms="3.7006545066833496e-01" purity="6.7769503593444824e-01" nType="-99"/>
          <Node pos="r" depth="2" NCoef="0" IVar="-1" Cut="0.0000000000000000e+00" cType="1" res="-1.9039589460589923e-05" rms="4.2112866044044495e-01" purity="3.8453060388565063e-01" nType="-99"/>
        </Node>
      </Node>
    </BinaryTree>
    <BinaryTree type="DecisionTree" boostWeight="1.0000000000000000e+00" itree="804">
      <Node pos="s" depth="0" NCoef="0" IVar="0" Cut="4.3178543448448181e-01" cType="0" res="-1.0922303190454841e-03" rms="4.0089905261993408e-01" purity="4.9790173768997192e-01" nType="0">
        <Node pos="l" depth="1" NCoef="0" IVar="0" Cut="6.2820243835449219e-01" cType="1" res="6.7695705220103264e-03" rms="3.9518463611602783e-01" purity="4.9822407960891724e-01" nType="0">
          <Node pos="l" depth="2" NCoef="0" IVar="-1" Cut="0.0000000000000000e+00" cType="1" res="1.8391425255686045e-03" rms="3.1909692287445068e-01" purity="7.8162121772766113e-01" nType="-99"/>
          <Node pos="r" depth="2" NCoef="0" IVar="-1" Cut="0.0000000000000000e+00" cType="1" res="-1.1421493400121108e-04" rms="3.9770504832267761e-01" purity="4.8332390189170837e-01" nType="-99"/>
        </Node>
        <Node pos="r" depth="1" NCoef="0" IVar="1" Cut="4.0000000000000000e+00" cType="1" res="-1.1062581837177277e-01" rms="4.5961064100265503e-01" purity="4.9341070652008057e-01" nType="0">
          <Node pos="l" depth="2" NCoef="0" IVar="-1" Cut="0.0000000000000000e+00" cType="1" res="6.6096102818846703e-04" rms="4.4826018810272217e-01" purity="6.0896581411361694e-01" nType="-99"/>
          <Node pos="r" depth="2" NCoef="0" IVar="-1" Cut="0.0000000000000000e+00" cType="1" res="-2.5946411769837141e-03" rms="4.6745413541793823e-01" purity="3.3186838030815125e-01" nType="-99"/>
        </Node>
      </Node>
    </BinaryTree>
    <BinaryTree type="DecisionTree" boostWeight="1.0000000000000000e+00" itree="805">
      <Node pos="s" depth="0" NCoef="0" IVar="9" Cut="-1.0000000000000000e+01" cType="1" res="-2.7426362503319979e-03" rms="4.0257391333580017e-01" purity="4.9610140919685364e-01" nType="0">
        <Node pos="l" depth="1" NCoef="0" IVar="-1" Cut="0.0000000000000000e+00" cType="1" res="2.4421664420515299e-03" rms="3.3175477385520935e-01" purity="8.8656520843505859e-01" nType="-99"/>
        <Node pos="r" depth="1" NCoef="0" IVar="7" Cut="3.4690470695495605e+00" cType="1" res="-6.3399146310985088e-03" rms="4.0398284792900085e-01" purity="4.8426640033721924e-01" nType="0">
          <Node pos="l" depth="2" NCoef="0" IVar="-1" Cut="0.0000000000000000e+00" cType="1" res="-3.7789413909194991e-06" rms="4.0034636855125427e-01" purity="4.8880481719970703e-01" nType="-99"/>
          <Node pos="r" depth="2" NCoef="0" IVar="-1" Cut="0.0000000000000000e+00" cType="1" res="-2.5482529308646917e-03" rms="4.7528696060180664e-01" purity="3.6453765630722046e-01" nType="-99"/>
        </Node>
      </Node>
    </BinaryTree>
    <BinaryTree type="DecisionTree" boostWeight="1.0000000000000000e+00" itree="806">
      <Node pos="s" depth="0" NCoef="0" IVar="8" Cut="7.1785717010498047e+00" cType="0" res="4.1890377178788185e-03" rms="4.0006858110427856e-01" purity="5.0097209215164185e-01" nType="0">
        <Node pos="l" depth="1" NCoef="0" IVar="-1" Cut="0.0000000000000000e+00" cType="1" res="-3.4993435838259757e-04" rms="3.9240065217018127e-01" purity="6.8451184034347534e-01" nType="-99"/>
        <Node pos="r" depth="1" NCoef="0" IVar="7" Cut="-3.5000000000000000e+00" cType="1" res="1.6037569148465991e-03" rms="3.9968535304069519e-01" purity="4.9791342020034790e-01" nType="0">
          <Node pos="l" depth="2" NCoef="0" IVar="-1" Cut="0.0000000000000000e+00" cType="1" res="9.1376353520900011e-04" rms="3.4224724769592285e-01" purity="7.4777519702911377e-01" nType="-99"/>
          <Node pos="r" depth="2" NCoef="0" IVar="-1" Cut="0.0000000000000000e+00" cType="1" res="-1.2418781989254057e-04" rms="4.0307202935218811e-01" purity="4.7925648093223572e-01" nType="-99"/>
        </Node>
      </Node>
    </BinaryTree>
    <BinaryTree type="DecisionTree" boostWeight="1.0000000000000000e+00" itree="807">
      <Node pos="s" depth="0" NCoef="0" IVar="15" Cut="1.1285714149475098e+01" cType="1" res="9.3182986602187157e-03" rms="3.9344963431358337e-01" purity="5.0010538101196289e-01" nType="0">
        <Node pos="l" depth="1" NCoef="0" IVar="18" Cut="5.3333334922790527e+00" cType="1" res="4.2977888137102127e-02" rms="3.6232289671897888e-01" purity="6.8601751327514648e-01" nType="0">
          <Node pos="l" depth="2" NCoef="0" IVar="-1" Cut="0.0000000000000000e+00" cType="1" res="1.0623773559927940e-03" rms="3.5681495070457458e-01" purity="7.3291301727294922e-01" nType="-99"/>
          <Node pos="r" depth="2" NCoef="0" IVar="-1" Cut="0.0000000000000000e+00" cType="1" res="-4.3098763562738895e-03" rms="3.9245805144309998e-01" purity="2.2687587141990662e-01" nType="-99"/>
        </Node>
        <Node pos="r" depth="1" NCoef="0" IVar="15" Cut="1.2714285850524902e+01" cType="0" res="-1.3641549274325371e-02" rms="4.1176366806030273e-01" purity="3.7329113483428955e-01" nType="0">
          <Node pos="l" depth="2" NCoef="0" IVar="-1" Cut="0.0000000000000000e+00" cType="1" res="3.0778520158492029e-04" rms="4.0618225932121277e-01" purity="3.7497067451477051e-01" nType="-99"/>
          <Node pos="r" depth="2" NCoef="0" IVar="-1" Cut="0.0000000000000000e+00" cType="1" res="-5.0744810141623020e-03" rms="4.3299847841262817e-01" purity="3.6001476645469666e-01" nType="-99"/>
        </Node>
      </Node>
    </BinaryTree>
    <BinaryTree type="DecisionTree" boostWeight="1.0000000000000000e+00" itree="808">
      <Node pos="s" depth="0" NCoef="0" IVar="6" Cut="1.3325879573822021e+00" cType="1" res="-7.1881366893649101e-03" rms="4.0993541479110718e-01" purity="4.9815812706947327e-01" nType="0">
        <Node pos="l" depth="1" NCoef="0" IVar="5" Cut="2.0086758136749268e+00" cType="1" res="-4.6290069818496704e-02" rms="4.0878394246101379e-01" purity="6.1148482561111450e-01" nType="0">
          <Node pos="l" depth="2" NCoef="0" IVar="-1" Cut="0.0000000000000000e+00" cType="1" res="-6.2884454382583499e-04" rms="4.0337568521499634e-01" purity="6.1932438611984253e-01" nType="-99"/>
          <Node pos="r" depth="2" NCoef="0" IVar="-1" Cut="0.0000000000000000e+00" cType="1" res="1.8430621130391955e-03" rms="4.5950660109519958e-01" purity="4.6644228696823120e-01" nType="-99"/>
        </Node>
        <Node pos="r" depth="1" NCoef="0" IVar="9" Cut="-1.3547619581222534e+00" cType="1" res="1.0495402850210667e-02" rms="4.0923002362251282e-01" purity="4.4690701365470886e-01" nType="0">
          <Node pos="l" depth="2" NCoef="0" IVar="-1" Cut="0.0000000000000000e+00" cType="1" res="6.8634992931038141e-04" rms="3.9947137236595154e-01" purity="6.3024240732192993e-01" nType="-99"/>
          <Node pos="r" depth="2" NCoef="0" IVar="-1" Cut="0.0000000000000000e+00" cType="1" res="-1.3287365436553955e-04" rms="4.0929856896400452e-01" purity="4.1182333230972290e-01" nType="-99"/>
        </Node>
      </Node>
    </BinaryTree>
    <BinaryTree type="DecisionTree" boostWeight="1.0000000000000000e+00" itree="809">
      <Node pos="s" depth="0" NCoef="0" IVar="20" Cut="2.2203767776489258e+01" cType="0" res="-1.1259720660746098e-02" rms="4.0502065420150757e-01" purity="4.8779895901679993e-01" nType="0">
        <Node pos="l" depth="1" NCoef="0" IVar="0" Cut="8.0782800912857056e-01" cType="1" res="1.6879906877875328e-02" rms="4.0040209889411926e-01" purity="5.2720141410827637e-01" nType="0">
          <Node pos="l" depth="2" NCoef="0" IVar="-1" Cut="0.0000000000000000e+00" cType="1" res="8.3716176450252533e-03" rms="3.7307542562484741e-01" purity="8.1282347440719604e-01" nType="-99"/>
          <Node pos="r" depth="2" NCoef="0" IVar="-1" Cut="0.0000000000000000e+00" cType="1" res="-2.2546277614310384e-04" rms="4.0136730670928955e-01" purity="4.8494625091552734e-01" nType="-99"/>
        </Node>
        <Node pos="r" depth="1" NCoef="0" IVar="20" Cut="2.0651763916015625e+01" cType="1" res="-2.5738783180713654e-02" rms="4.0661862492561340e-01" purity="4.6752467751502991e-01" nType="0">
          <Node pos="l" depth="2" NCoef="0" IVar="-1" Cut="0.0000000000000000e+00" cType="1" res="-1.5085718769114465e-04" rms="3.9861080050468445e-01" purity="4.7317376732826233e-01" nType="-99"/>
          <Node pos="r" depth="2" NCoef="0" IVar="-1" Cut="0.0000000000000000e+00" cType="1" res="-4.2939819395542145e-03" rms="4.8486590385437012e-01" purity="3.8888978958129883e-01" nType="-99"/>
        </Node>
      </Node>
    </BinaryTree>
    <BinaryTree type="DecisionTree" boostWeight="1.0000000000000000e+00" itree="810">
      <Node pos="s" depth="0" NCoef="0" IVar="7" Cut="-8.7571420669555664e+00" cType="1" res="-2.3035714402794838e-03" rms="4.0203428268432617e-01" purity="4.9580475687980652e-01" nType="0">
        <Node pos="l" depth="1" NCoef="0" IVar="20" Cut="1.8738149642944336e+01" cType="1" res="-1.2668280303478241e-01" rms="4.2980468273162842e-01" purity="6.0509359836578369e-01" nType="0">
          <Node pos="l" depth="2" NCoef="0" IVar="-1" Cut="0.0000000000000000e+00" cType="1" res="1.1119780130684376e-02" rms="3.4833377599716187e-01" purity="6.8608033657073975e-01" nType="-99"/>
          <Node pos="r" depth="2" NCoef="0" IVar="-1" Cut="0.0000000000000000e+00" cType="1" res="-8.9703723788261414e-03" rms="4.6779984235763550e-01" purity="5.3277051448822021e-01" nType="-99"/>
        </Node>
        <Node pos="r" depth="1" NCoef="0" IVar="20" Cut="3.5821082592010498e+00" cType="0" res="2.1730607841163874e-03" rms="4.0027904510498047e-01" purity="4.9187123775482178e-01" nType="0">
          <Node pos="l" depth="2" NCoef="0" IVar="-1" Cut="0.0000000000000000e+00" cType="1" res="1.9597251957748085e-04" rms="4.0026441216468811e-01" purity="5.0335592031478882e-01" nType="-99"/>
          <Node pos="r" depth="2" NCoef="0" IVar="-1" Cut="0.0000000000000000e+00" cType="1" res="-1.9366346532478929e-03" rms="3.9404198527336121e-01" purity="4.0468388795852661e-01" nType="-99"/>
        </Node>
      </Node>
    </BinaryTree>
    <BinaryTree type="DecisionTree" boostWeight="1.0000000000000000e+00" itree="811">
      <Node pos="s" depth="0" NCoef="0" IVar="20" Cut="1.7164216995239258e+01" cType="1" res="2.9138436075299978e-03" rms="4.0070372819900513e-01" purity="4.9874538183212280e-01" nType="0">
        <Node pos="l" depth="1" NCoef="0" IVar="3" Cut="4.2857141494750977e+00" cType="0" res="-1.9242608919739723e-02" rms="4.1589057445526123e-01" purity="5.0691902637481689e-01" nType="0">
          <Node pos="l" depth="2" NCoef="0" IVar="-1" Cut="0.0000000000000000e+00" cType="1" res="7.4985867831856012e-04" rms="4.2475578188896179e-01" purity="6.7034691572189331e-01" nType="-99"/>
          <Node pos="r" depth="2" NCoef="0" IVar="-1" Cut="0.0000000000000000e+00" cType="1" res="-4.7116616042330861e-04" rms="4.1248095035552979e-01" purity="4.8301029205322266e-01" nType="-99"/>
        </Node>
        <Node pos="r" depth="1" NCoef="0" IVar="0" Cut="1.7829431295394897e+00" cType="1" res="2.5659361854195595e-02" rms="3.8315916061401367e-01" purity="4.9035444855690002e-01" nType="0">
          <Node pos="l" depth="2" NCoef="0" IVar="-1" Cut="0.0000000000000000e+00" cType="1" res="1.1152500519528985e-03" rms="3.8044843077659607e-01" purity="6.2689530849456787e-01" nType="-99"/>
          <Node pos="r" depth="2" NCoef="0" IVar="-1" Cut="0.0000000000000000e+00" cType="1" res="-1.0771458037197590e-03" rms="3.8282710313796997e-01" purity="2.8781720995903015e-01" nType="-99"/>
        </Node>
      </Node>
    </BinaryTree>
    <BinaryTree type="DecisionTree" boostWeight="1.0000000000000000e+00" itree="812">
      <Node pos="s" depth="0" NCoef="0" IVar="15" Cut="5.5714287757873535e+00" cType="1" res="7.1558975614607334e-03" rms="4.0481132268905640e-01" purity="5.0645256042480469e-01" nType="0">
        <Node pos="l" depth="1" NCoef="0" IVar="0" Cut="9.3405336141586304e-01" cType="0" res="-4.6408485621213913e-02" rms="4.1590908169746399e-01" purity="6.9562536478042603e-01" nType="0">
          <Node pos="l" depth="2" NCoef="0" IVar="-1" Cut="0.0000000000000000e+00" cType="1" res="3.3986780326813459e-03" rms="3.5338607430458069e-01" purity="7.4217754602432251e-01" nType="-99"/>
          <Node pos="r" depth="2" NCoef="0" IVar="-1" Cut="0.0000000000000000e+00" cType="1" res="-7.2266939096152782e-03" rms="4.5488020777702332e-01" purity="6.4627224206924438e-01" nType="-99"/>
        </Node>
        <Node pos="r" depth="1" NCoef="0" IVar="21" Cut="6.3333334922790527e+00" cType="1" res="1.3880034908652306e-02" rms="4.0289384126663208e-01" purity="4.8270502686500549e-01" nType="0">
          <Node pos="l" depth="2" NCoef="0" IVar="-1" Cut="0.0000000000000000e+00" cType="1" res="3.6726400139741600e-04" rms="4.2871510982513428e-01" purity="5.6981158256530762e-01" nType="-99"/>
          <Node pos="r" depth="2" NCoef="0" IVar="-1" Cut="0.0000000000000000e+00" cType="1" res="-2.5631440803408623e-03" rms="2.3938471078872681e-01" purity="6.7152962088584900e-02" nType="-99"/>
        </Node>
      </Node>
    </BinaryTree>
    <BinaryTree type="DecisionTree" boostWeight="1.0000000000000000e+00" itree="813">
      <Node pos="s" depth="0" NCoef="0" IVar="7" Cut="-7.3857140541076660e+00" cType="1" res="9.7321392968297005e-04" rms="3.9880988001823425e-01" purity="4.9741193652153015e-01" nType="0">
        <Node pos="l" depth="1" NCoef="0" IVar="10" Cut="1.7774164676666260e+00" cType="1" res="-9.0726651251316071e-02" rms="3.9464971423149109e-01" purity="5.8339214324951172e-01" nType="0">
          <Node pos="l" depth="2" NCoef="0" IVar="-1" Cut="0.0000000000000000e+00" cType="1" res="-7.1386750787496567e-03" rms="3.6152726411819458e-01" purity="8.1046372652053833e-01" nType="-99"/>
          <Node pos="r" depth="2" NCoef="0" IVar="-1" Cut="0.0000000000000000e+00" cType="1" res="1.2255784822627902e-03" rms="4.0250533819198608e-01" purity="3.8781255483627319e-01" nType="-99"/>
        </Node>
        <Node pos="r" depth="1" NCoef="0" IVar="1" Cut="8.4285717010498047e+00" cType="0" res="4.7126822173595428e-03" rms="3.9853110909461975e-01" purity="4.9390569329261780e-01" nType="0">
          <Node pos="l" depth="2" NCoef="0" IVar="-1" Cut="0.0000000000000000e+00" cType="1" res="5.0787087529897690e-03" rms="4.0640944242477417e-01" purity="6.0778248310089111e-01" nType="-99"/>
          <Node pos="r" depth="2" NCoef="0" IVar="-1" Cut="0.0000000000000000e+00" cType="1" res="-1.7489152378402650e-04" rms="3.9756613969802856e-01" purity="4.9042764306068420e-01" nType="-99"/>
        </Node>
      </Node>
    </BinaryTree>
    <BinaryTree type="DecisionTree" boostWeight="1.0000000000000000e+00" itree="814">
      <Node pos="s" depth="0" NCoef="0" IVar="18" Cut="1.2857142686843872e+00" cType="1" res="9.2605478130280972e-04" rms="4.0714013576507568e-01" purity="5.1438689231872559e-01" nType="0">
        <Node pos="l" depth="1" NCoef="0" IVar="3" Cut="3.3333332538604736e+00" cType="1" res="-1.1724021285772324e-01" rms="4.6074309945106506e-01" purity="5.8653038740158081e-01" nType="0">
          <Node pos="l" depth="2" NCoef="0" IVar="-1" Cut="0.0000000000000000e+00" cType="1" res="5.3196056978777051e-04" rms="3.7506172060966492e-01" purity="7.0601117610931396e-01" nType="-99"/>
          <Node pos="r" depth="2" NCoef="0" IVar="-1" Cut="0.0000000000000000e+00" cType="1" res="-5.0819730386137962e-03" rms="5.1529473066329956e-01" purity="4.3900352716445923e-01" nType="-99"/>
        </Node>
        <Node pos="r" depth="1" NCoef="0" IVar="18" Cut="5.3333334922790527e+00" cType="1" res="8.5438750684261322e-03" rms="4.0225094556808472e-01" purity="5.0973606109619141e-01" nType="0">
          <Node pos="l" depth="2" NCoef="0" IVar="-1" Cut="0.0000000000000000e+00" cType="1" res="6.3697621226310730e-04" rms="3.8616195321083069e-01" purity="6.8161785602569580e-01" nType="-99"/>
          <Node pos="r" depth="2" NCoef="0" IVar="-1" Cut="0.0000000000000000e+00" cType="1" res="-4.0564482333138585e-04" rms="4.1582071781158447e-01" purity="3.4035015106201172e-01" nType="-99"/>
        </Node>
      </Node>
    </BinaryTree>
    <BinaryTree type="DecisionTree" boostWeight="1.0000000000000000e+00" itree="815">
      <Node pos="s" depth="0" NCoef="0" IVar="9" Cut="-1.2857142448425293e+01" cType="1" res="4.5916410163044930e-03" rms="4.0036407113075256e-01" purity="5.0485724210739136e-01" nType="0">
        <Node pos="l" depth="1" NCoef="0" IVar="-1" Cut="0.0000000000000000e+00" cType="1" res="2.5945478118956089e-03" rms="2.7844327688217163e-01" purity="9.1375637054443359e-01" nType="-99"/>
        <Node pos="r" depth="1" NCoef="0" IVar="20" Cut="2.8815066814422607e+00" cType="0" res="2.1096884738653898e-03" rms="4.0205079317092896e-01" purity="4.9662759900093079e-01" nType="0">
          <Node pos="l" depth="2" NCoef="0" IVar="-1" Cut="0.0000000000000000e+00" cType="1" res="9.0985398855991662e-05" rms="4.0346023440361023e-01" purity="5.0995117425918579e-01" nType="-99"/>
          <Node pos="r" depth="2" NCoef="0" IVar="-1" Cut="0.0000000000000000e+00" cType="1" res="-1.7960112309083343e-03" rms="3.8437208533287048e-01" purity="3.6705645918846130e-01" nType="-99"/>
        </Node>
      </Node>
    </BinaryTree>
    <BinaryTree type="DecisionTree" boostWeight="1.0000000000000000e+00" itree="816">
      <Node pos="s" depth="0" NCoef="0" IVar="7" Cut="-7.3857140541076660e+00" cType="1" res="1.1463327100500464e-03" rms="4.0530815720558167e-01" purity="5.0454354286193848e-01" nType="0">
        <Node pos="l" depth="1" NCoef="0" IVar="7" Cut="-1.0628571510314941e+01" cType="1" res="-1.0241946578025818e-01" rms="4.1035389900207520e-01" purity="5.6666755676269531e-01" nType="0">
          <Node pos="l" depth="2" NCoef="0" IVar="-1" Cut="0.0000000000000000e+00" cType="1" res="8.9702231343835592e-04" rms="3.9126074314117432e-01" purity="8.1215530633926392e-01" nType="-99"/>
          <Node pos="r" depth="2" NCoef="0" IVar="-1" Cut="0.0000000000000000e+00" cType="1" res="-4.3887291103601456e-03" rms="4.1528201103210449e-01" purity="3.7425139546394348e-01" nType="-99"/>
        </Node>
        <Node pos="r" depth="1" NCoef="0" IVar="4" Cut="2.0299973487854004e+00" cType="1" res="5.6841592304408550e-03" rms="4.0447968244552612e-01" purity="5.0182151794433594e-01" nType="0">
          <Node pos="l" depth="2" NCoef="0" IVar="-1" Cut="0.0000000000000000e+00" cType="1" res="3.2446795376017690e-04" rms="4.0635728836059570e-01" purity="6.8426722288131714e-01" nType="-99"/>
          <Node pos="r" depth="2" NCoef="0" IVar="-1" Cut="0.0000000000000000e+00" cType="1" res="-2.5178131181746721e-04" rms="4.0068784356117249e-01" purity="2.9149278998374939e-01" nType="-99"/>
        </Node>
      </Node>
    </BinaryTree>
    <BinaryTree type="DecisionTree" boostWeight="1.0000000000000000e+00" itree="817">
      <Node pos="s" depth="0" NCoef="0" IVar="12" Cut="1.4285714924335480e-01" cType="1" res="-6.1719049699604511e-03" rms="4.0080350637435913e-01" purity="4.8830431699752808e-01" nType="0">
        <Node pos="l" depth="1" NCoef="0" IVar="9" Cut="-2.8571429252624512e+00" cType="1" res="-6.9131314754486084e-02" rms="3.9091092348098755e-01" purity="5.3898400068283081e-01" nType="0">
          <Node pos="l" depth="2" NCoef="0" IVar="-1" Cut="0.0000000000000000e+00" cType="1" res="2.2059713955968618e-03" rms="3.3403652906417847e-01" purity="7.7889013290405273e-01" nType="-99"/>
          <Node pos="r" depth="2" NCoef="0" IVar="-1" Cut="0.0000000000000000e+00" cType="1" res="-3.1680928077548742e-03" rms="4.0332910418510437e-01" purity="4.5441818237304688e-01" nType="-99"/>
        </Node>
        <Node pos="r" depth="1" NCoef="0" IVar="18" Cut="3.4285714626312256e+00" cType="1" res="9.9758552387356758e-03" rms="4.0171483159065247e-01" purity="4.7530606389045715e-01" nType="0">
          <Node pos="l" depth="2" NCoef="0" IVar="-1" Cut="0.0000000000000000e+00" cType="1" res="7.5263245962560177e-03" rms="2.4129477143287659e-01" purity="9.1297191381454468e-01" nType="-99"/>
          <Node pos="r" depth="2" NCoef="0" IVar="-1" Cut="0.0000000000000000e+00" cType="1" res="-1.1983574222540483e-04" rms="4.1768422722816467e-01" purity="4.1488397121429443e-01" nType="-99"/>
        </Node>
      </Node>
    </BinaryTree>
    <BinaryTree type="DecisionTree" boostWeight="1.0000000000000000e+00" itree="818">
      <Node pos="s" depth="0" NCoef="0" IVar="5" Cut="1.5268937349319458e+00" cType="1" res="-2.2738678380846977e-03" rms="4.0647503733634949e-01" purity="5.0301641225814819e-01" nType="0">
        <Node pos="l" depth="1" NCoef="0" IVar="10" Cut="1.1129137277603149e+00" cType="1" res="-2.8287919238209724e-02" rms="4.0721297264099121e-01" purity="6.4468938112258911e-01" nType="0">
          <Node pos="l" depth="2" NCoef="0" IVar="-1" Cut="0.0000000000000000e+00" cType="1" res="3.4568526316434145e-03" rms="3.1828576326370239e-01" purity="7.9482316970825195e-01" nType="-99"/>
          <Node pos="r" depth="2" NCoef="0" IVar="-1" Cut="0.0000000000000000e+00" cType="1" res="-1.6962310764938593e-03" rms="4.4863137602806091e-01" purity="5.4792618751525879e-01" nType="-99"/>
        </Node>
        <Node pos="r" depth="1" NCoef="0" IVar="7" Cut="1.7142859697341919e+00" cType="0" res="1.8788261339068413e-02" rms="4.0465325117111206e-01" purity="3.8831168413162231e-01" nType="0">
          <Node pos="l" depth="2" NCoef="0" IVar="-1" Cut="0.0000000000000000e+00" cType="1" res="5.0716516561806202e-03" rms="4.1790330410003662e-01" purity="4.4160169363021851e-01" nType="-99"/>
          <Node pos="r" depth="2" NCoef="0" IVar="-1" Cut="0.0000000000000000e+00" cType="1" res="-4.4386749505065382e-04" rms="4.0222084522247314e-01" purity="3.8342127203941345e-01" nType="-99"/>
        </Node>
      </Node>
    </BinaryTree>
    <BinaryTree type="DecisionTree" boostWeight="1.0000000000000000e+00" itree="819">
      <Node pos="s" depth="0" NCoef="0" IVar="21" Cut="4.2380952835083008e+00" cType="1" res="4.3958788737654686e-03" rms="4.0653645992279053e-01" purity="5.0963133573532104e-01" nType="0">
        <Node pos="l" depth="1" NCoef="0" IVar="14" Cut="9.7284156799316406e+01" cType="1" res="-1.4994070865213871e-02" rms="4.0424227714538574e-01" purity="5.6898111104965210e-01" nType="0">
          <Node pos="l" depth="2" NCoef="0" IVar="-1" Cut="0.0000000000000000e+00" cType="1" res="-8.4577582310885191e-04" rms="3.9464169740676880e-01" purity="5.7773101329803467e-01" nType="-99"/>
          <Node pos="r" depth="2" NCoef="0" IVar="-1" Cut="0.0000000000000000e+00" cType="1" res="-6.4205385569948703e-05" rms="4.2701807618141174e-01" purity="5.4134446382522583e-01" nType="-99"/>
        </Node>
        <Node pos="r" depth="1" NCoef="0" IVar="5" Cut="1.1798149347305298e+00" cType="1" res="3.4298472106456757e-02" rms="4.0824800729751587e-01" purity="4.1810393333435059e-01" nType="0">
          <Node pos="l" depth="2" NCoef="0" IVar="-1" Cut="0.0000000000000000e+00" cType="1" res="2.1394624491222203e-04" rms="3.4105208516120911e-01" purity="7.4323064088821411e-01" nType="-99"/>
          <Node pos="r" depth="2" NCoef="0" IVar="-1" Cut="0.0000000000000000e+00" cType="1" res="8.2372996257618070e-04" rms="4.1200742125511169e-01" purity="3.7655562162399292e-01" nType="-99"/>
        </Node>
      </Node>
    </BinaryTree>
    <BinaryTree type="DecisionTree" boostWeight="1.0000000000000000e+00" itree="820">
      <Node pos="s" depth="0" NCoef="0" IVar="9" Cut="-5.7142858505249023e+00" cType="1" res="4.0190858999267220e-04" rms="3.9541554450988770e-01" purity="4.9074479937553406e-01" nType="0">
        <Node pos="l" depth="1" NCoef="0" IVar="6" Cut="1.3943156003952026e+00" cType="1" res="-7.0100009441375732e-02" rms="4.1465565562248230e-01" purity="5.6883037090301514e-01" nType="0">
          <Node pos="l" depth="2" NCoef="0" IVar="-1" Cut="0.0000000000000000e+00" cType="1" res="-4.1256425902247429e-03" rms="4.2308846116065979e-01" purity="5.9124630689620972e-01" nType="-99"/>
          <Node pos="r" depth="2" NCoef="0" IVar="-1" Cut="0.0000000000000000e+00" cType="1" res="1.0177303338423371e-03" rms="3.8270407915115356e-01" purity="5.2485984563827515e-01" nType="-99"/>
        </Node>
        <Node pos="r" depth="1" NCoef="0" IVar="0" Cut="2.6724183559417725e+00" cType="1" res="6.6593852825462818e-03" rms="3.9305192232131958e-01" purity="4.8381426930427551e-01" nType="0">
          <Node pos="l" depth="2" NCoef="0" IVar="-1" Cut="0.0000000000000000e+00" cType="1" res="3.0276912730187178e-04" rms="4.0520945191383362e-01" purity="5.4397743940353394e-01" nType="-99"/>
          <Node pos="r" depth="2" NCoef="0" IVar="-1" Cut="0.0000000000000000e+00" cType="1" res="-1.8067578785121441e-03" rms="3.0484712123870850e-01" purity="1.2397781759500504e-01" nType="-99"/>
        </Node>
      </Node>
    </BinaryTree>
    <BinaryTree type="DecisionTree" boostWeight="1.0000000000000000e+00" itree="821">
      <Node pos="s" depth="0" NCoef="0" IVar="21" Cut="2.1428570747375488e+00" cType="1" res="6.7842146381735802e-03" rms="3.9354822039604187e-01" purity="4.9730843305587769e-01" nType="0">
        <Node pos="l" depth="1" NCoef="0" IVar="20" Cut="9.2463502883911133e+00" cType="1" res="-2.5002099573612213e-02" rms="4.0637499094009399e-01" purity="5.3239709138870239e-01" nType="0">
          <Node pos="l" depth="2" NCoef="0" IVar="-1" Cut="0.0000000000000000e+00" cType="1" res="8.6586439283564687e-04" rms="3.8609978556632996e-01" purity="5.5395978689193726e-01" nType="-99"/>
          <Node pos="r" depth="2" NCoef="0" IVar="-1" Cut="0.0000000000000000e+00" cType="1" res="-1.1942161945626140e-03" rms="4.1413128376007080e-01" purity="5.1934307813644409e-01" nType="-99"/>
        </Node>
        <Node pos="r" depth="1" NCoef="0" IVar="18" Cut="6.3333334922790527e+00" cType="1" res="3.8754735141992569e-02" rms="3.7752082943916321e-01" purity="4.6201640367507935e-01" nType="0">
          <Node pos="l" depth="2" NCoef="0" IVar="-1" Cut="0.0000000000000000e+00" cType="1" res="8.7164348224177957e-04" rms="4.1866594552993774e-01" purity="6.2413036823272705e-01" nType="-99"/>
          <Node pos="r" depth="2" NCoef="0" IVar="-1" Cut="0.0000000000000000e+00" cType="1" res="-2.5976067408919334e-03" rms="2.3374694585800171e-01" purity="6.2889471650123596e-02" nType="-99"/>
        </Node>
      </Node>
    </BinaryTree>
    <BinaryTree type="DecisionTree" boostWeight="1.0000000000000000e+00" itree="822">
      <Node pos="s" depth="0" NCoef="0" IVar="4" Cut="2.0318200588226318e+00" cType="1" res="1.0422077029943466e-02" rms="3.9862957596778870e-01" purity="5.1391059160232544e-01" nType="0">
        <Node pos="l" depth="1" NCoef="0" IVar="20" Cut="4.4328433990478516e+01" cType="0" res="2.9120404273271561e-02" rms="3.9199835062026978e-01" purity="6.8438112735748291e-01" nType="0">
          <Node pos="l" depth="2" NCoef="0" IVar="-1" Cut="0.0000000000000000e+00" cType="1" res="6.0696732252836227e-03" rms="2.5728380680084229e-01" purity="8.5464155673980713e-01" nType="-99"/>
          <Node pos="r" depth="2" NCoef="0" IVar="-1" Cut="0.0000000000000000e+00" cType="1" res="-4.7009609988890588e-04" rms="3.9966276288032532e-01" purity="6.6861855983734131e-01" nType="-99"/>
        </Node>
        <Node pos="r" depth="1" NCoef="0" IVar="14" Cut="1.3325746154785156e+02" cType="0" res="-1.2703847140073776e-02" rms="4.0549057722091675e-01" purity="3.0307418107986450e-01" nType="0">
          <Node pos="l" depth="2" NCoef="0" IVar="-1" Cut="0.0000000000000000e+00" cType="1" res="-3.9420151151716709e-03" rms="4.7676625847816467e-01" purity="3.1621369719505310e-01" nType="-99"/>
          <Node pos="r" depth="2" NCoef="0" IVar="-1" Cut="0.0000000000000000e+00" cType="1" res="3.5485185799188912e-04" rms="3.9221009612083435e-01" purity="3.0119174718856812e-01" nType="-99"/>
        </Node>
      </Node>
    </BinaryTree>
    <BinaryTree type="DecisionTree" boostWeight="1.0000000000000000e+00" itree="823">
      <Node pos="s" depth="0" NCoef="0" IVar="4" Cut="1.4379591941833496e+00" cType="1" res="7.6563660986721516e-03" rms="4.0583214163780212e-01" purity="5.1287674903869629e-01" nType="0">
        <Node pos="l" depth="1" NCoef="0" IVar="4" Cut="8.9132016897201538e-01" cType="1" res="-2.8265310451388359e-02" rms="3.9031675457954407e-01" purity="7.2092121839523315e-01" nType="0">
          <Node pos="l" depth="2" NCoef="0" IVar="-1" Cut="0.0000000000000000e+00" cType="1" res="2.9919331427663565e-03" rms="1.0251246392726898e-01" purity="1.0000000000000000e+00" nType="-99"/>
          <Node pos="r" depth="2" NCoef="0" IVar="-1" Cut="0.0000000000000000e+00" cType="1" res="-2.0178887061774731e-03" rms="4.0395724773406982e-01" purity="6.9418901205062866e-01" nType="-99"/>
        </Node>
        <Node pos="r" depth="1" NCoef="0" IVar="0" Cut="1.1135076284408569e+00" cType="1" res="2.0115885883569717e-02" rms="4.1034308075904846e-01" purity="4.4071602821350098e-01" nType="0">
          <Node pos="l" depth="2" NCoef="0" IVar="-1" Cut="0.0000000000000000e+00" cType="1" res="2.0931952167302370e-03" rms="3.9850446581840515e-01" purity="5.2924185991287231e-01" nType="-99"/>
          <Node pos="r" depth="2" NCoef="0" IVar="-1" Cut="0.0000000000000000e+00" cType="1" res="-1.7540813132654876e-04" rms="4.1221454739570618e-01" purity="4.1920766234397888e-01" nType="-99"/>
        </Node>
      </Node>
    </BinaryTree>
    <BinaryTree type="DecisionTree" boostWeight="1.0000000000000000e+00" itree="824">
      <Node pos="s" depth="0" NCoef="0" IVar="0" Cut="1.5589107275009155e+00" cType="1" res="1.2845373712480068e-02" rms="4.0355452895164490e-01" purity="5.1510030031204224e-01" nType="0">
        <Node pos="l" depth="1" NCoef="0" IVar="15" Cut="1.1285714149475098e+01" cType="1" res="-5.4592113010585308e-03" rms="4.0721935033798218e-01" purity="5.9892052412033081e-01" nType="0">
          <Node pos="l" depth="2" NCoef="0" IVar="-1" Cut="0.0000000000000000e+00" cType="1" res="1.4135811943560839e-03" rms="3.6815518140792847e-01" purity="7.4620908498764038e-01" nType="-99"/>
          <Node pos="r" depth="2" NCoef="0" IVar="-1" Cut="0.0000000000000000e+00" cType="1" res="-1.4289941173046827e-03" rms="4.4360274076461792e-01" purity="4.2804074287414551e-01" nType="-99"/>
        </Node>
        <Node pos="r" depth="1" NCoef="0" IVar="17" Cut="1.3492024421691895e+01" cType="1" res="3.5643331706523895e-02" rms="3.9776685833930969e-01" purity="4.1070398688316345e-01" nType="0">
          <Node pos="l" depth="2" NCoef="0" IVar="-1" Cut="0.0000000000000000e+00" cType="1" res="4.2306268587708473e-03" rms="4.1929173469543457e-01" purity="6.3015842437744141e-01" nType="-99"/>
          <Node pos="r" depth="2" NCoef="0" IVar="-1" Cut="0.0000000000000000e+00" cType="1" res="-6.8881822517141700e-04" rms="3.9172875881195068e-01" purity="3.7106046080589294e-01" nType="-99"/>
        </Node>
      </Node>
    </BinaryTree>
    <BinaryTree type="DecisionTree" boostWeight="1.0000000000000000e+00" itree="825">
      <Node pos="s" depth="0" NCoef="0" IVar="3" Cut="6.2857141494750977e+00" cType="1" res="4.1160308755934238e-03" rms="4.0875265002250671e-01" purity="5.0986862182617188e-01" nType="0">
        <Node pos="l" depth="1" NCoef="0" IVar="9" Cut="-2.8571429252624512e+00" cType="1" res="7.5226025655865669e-03" rms="4.0819275379180908e-01" purity="5.1331180334091187e-01" nType="0">
          <Node pos="l" depth="2" NCoef="0" IVar="-1" Cut="0.0000000000000000e+00" cType="1" res="1.7992734501603991e-04" rms="3.7944680452346802e-01" purity="7.1377146244049072e-01" nType="-99"/>
          <Node pos="r" depth="2" NCoef="0" IVar="-1" Cut="0.0000000000000000e+00" cType="1" res="-7.5944124546367675e-05" rms="4.1120830178260803e-01" purity="4.8757866024971008e-01" nType="-99"/>
        </Node>
        <Node pos="r" depth="1" NCoef="0" IVar="-1" Cut="0.0000000000000000e+00" cType="1" res="-1.0611877078190446e-03" rms="4.0953981876373291e-01" purity="3.8277322053909302e-01" nType="-99"/>
      </Node>
    </BinaryTree>
    <BinaryTree type="DecisionTree" boostWeight="1.0000000000000000e+00" itree="826">
      <Node pos="s" depth="0" NCoef="0" IVar="7" Cut="-9.5238095521926880e-01" cType="1" res="1.0372769087553024e-02" rms="4.0754452347755432e-01" purity="5.2580499649047852e-01" nType="0">
        <Node pos="l" depth="1" NCoef="0" IVar="21" Cut="2.3333332538604736e+00" cType="1" res="-3.2287705689668655e-02" rms="4.2154330015182495e-01" purity="5.8985066413879395e-01" nType="0">
          <Node pos="l" depth="2" NCoef="0" IVar="-1" Cut="0.0000000000000000e+00" cType="1" res="1.6373324906453490e-03" rms="4.1232508420944214e-01" purity="6.9366288185119629e-01" nType="-99"/>
          <Node pos="r" depth="2" NCoef="0" IVar="-1" Cut="0.0000000000000000e+00" cType="1" res="-2.6567650493234396e-03" rms="4.2986208200454712e-01" purity="4.3079933524131775e-01" nType="-99"/>
        </Node>
        <Node pos="r" depth="1" NCoef="0" IVar="3" Cut="5.8571429252624512e+00" cType="0" res="2.2651316598057747e-02" rms="4.0258842706680298e-01" purity="5.0737130641937256e-01" nType="0">
          <Node pos="l" depth="2" NCoef="0" IVar="-1" Cut="0.0000000000000000e+00" cType="1" res="2.9206238687038422e-03" rms="3.7951004505157471e-01" purity="6.8490552902221680e-01" nType="-99"/>
          <Node pos="r" depth="2" NCoef="0" IVar="-1" Cut="0.0000000000000000e+00" cType="1" res="-9.8445438197813928e-05" rms="4.0244942903518677e-01" purity="5.0210320949554443e-01" nType="-99"/>
        </Node>
      </Node>
    </BinaryTree>
    <BinaryTree type="DecisionTree" boostWeight="1.0000000000000000e+00" itree="827">
      <Node pos="s" depth="0" NCoef="0" IVar="1" Cut="8.4285717010498047e+00" cType="0" res="6.8753156810998917e-03" rms="3.9439636468887329e-01" purity="4.9282652139663696e-01" nType="0">
        <Node pos="l" depth="1" NCoef="0" IVar="-1" Cut="0.0000000000000000e+00" cType="1" res="2.6839408092200756e-03" rms="3.9084613323211670e-01" purity="6.3303190469741821e-01" nType="1"/>
        <Node pos="r" depth="1" NCoef="0" IVar="9" Cut="-2.1428571701049805e+01" cType="1" res="1.6710588242858648e-03" rms="3.9334481954574585e-01" purity="4.8854267597198486e-01" nType="0">
          <Node pos="l" depth="2" NCoef="0" IVar="-1" Cut="0.0000000000000000e+00" cType="1" res="-3.4304179716855288e-03" rms="4.1678965091705322e-01" purity="4.9462708830833435e-01" nType="-99"/>
          <Node pos="r" depth="2" NCoef="0" IVar="-1" Cut="0.0000000000000000e+00" cType="1" res="-1.7557859246153384e-04" rms="3.9216092228889465e-01" purity="4.8843702673912048e-01" nType="-99"/>
        </Node>
      </Node>
    </BinaryTree>
    <BinaryTree type="DecisionTree" boostWeight="1.0000000000000000e+00" itree="828">
      <Node pos="s" depth="0" NCoef="0" IVar="9" Cut="-5.7142858505249023e+00" cType="1" res="-4.8141488805413246e-03" rms="3.9787462353706360e-01" purity="4.8687526583671570e-01" nType="0">
        <Node pos="l" depth="1" NCoef="0" IVar="20" Cut="9.5043258666992188e+00" cType="1" res="-7.3735281825065613e-02" rms="4.1404473781585693e-01" purity="5.6542223691940308e-01" nType="0">
          <Node pos="l" depth="2" NCoef="0" IVar="-1" Cut="0.0000000000000000e+00" cType="1" res="1.1925060534849763e-03" rms="3.7399852275848389e-01" purity="7.5252032279968262e-01" nType="-99"/>
          <Node pos="r" depth="2" NCoef="0" IVar="-1" Cut="0.0000000000000000e+00" cType="1" res="-2.7258619666099548e-03" rms="4.2054751515388489e-01" purity="4.9616676568984985e-01" nType="-99"/>
        </Node>
        <Node pos="r" depth="1" NCoef="0" IVar="20" Cut="3.0746324539184570e+01" cType="0" res="7.4455619323998690e-04" rms="3.9601933956146240e-01" purity="4.8054015636444092e-01" nType="0">
          <Node pos="l" depth="2" NCoef="0" IVar="-1" Cut="0.0000000000000000e+00" cType="1" res="-5.2305095596238971e-04" rms="4.1077622771263123e-01" purity="4.8434090614318848e-01" nType="-99"/>
          <Node pos="r" depth="2" NCoef="0" IVar="-1" Cut="0.0000000000000000e+00" cType="1" res="1.8962468311656266e-04" rms="3.9104592800140381e-01" purity="4.7942680120468140e-01" nType="-99"/>
        </Node>
      </Node>
    </BinaryTree>
    <BinaryTree type="DecisionTree" boostWeight="1.0000000000000000e+00" itree="829">
      <Node pos="s" depth="0" NCoef="0" IVar="20" Cut="2.2203767776489258e+01" cType="0" res="-4.8668337985873222e-03" rms="4.0756863355636597e-01" purity="5.0186955928802490e-01" nType="0">
        <Node pos="l" depth="1" NCoef="0" IVar="21" Cut="1.3809523582458496e+00" cType="1" res="2.9375251382589340e-02" rms="4.0815979242324829e-01" purity="5.6732457876205444e-01" nType="0">
          <Node pos="l" depth="2" NCoef="0" IVar="-1" Cut="0.0000000000000000e+00" cType="1" res="-1.6597309149801731e-03" rms="4.4585010409355164e-01" purity="5.8021157979965210e-01" nType="-99"/>
          <Node pos="r" depth="2" NCoef="0" IVar="-1" Cut="0.0000000000000000e+00" cType="1" res="1.3775932602584362e-03" rms="3.8935008645057678e-01" purity="5.6239885091781616e-01" nType="-99"/>
        </Node>
        <Node pos="r" depth="1" NCoef="0" IVar="20" Cut="1.4517951965332031e+01" cType="1" res="-2.1436305716633797e-02" rms="4.0624734759330750e-01" purity="4.7019633650779724e-01" nType="0">
          <Node pos="l" depth="2" NCoef="0" IVar="-1" Cut="0.0000000000000000e+00" cType="1" res="1.2133318232372403e-03" rms="4.0802869200706482e-01" purity="5.6496155261993408e-01" nType="-99"/>
          <Node pos="r" depth="2" NCoef="0" IVar="-1" Cut="0.0000000000000000e+00" cType="1" res="-2.6921161916106939e-03" rms="3.9722687005996704e-01" purity="3.3391633629798889e-01" nType="-99"/>
        </Node>
      </Node>
    </BinaryTree>
    <BinaryTree type="DecisionTree" boostWeight="1.0000000000000000e+00" itree="830">
      <Node pos="s" depth="0" NCoef="0" IVar="0" Cut="6.6810458898544312e-01" cType="1" res="3.1475075520575047e-03" rms="4.0098688006401062e-01" purity="5.0482803583145142e-01" nType="0">
        <Node pos="l" depth="1" NCoef="0" IVar="15" Cut="1.4000000000000000e+01" cType="0" res="7.5676329433917999e-02" rms="4.0370881557464600e-01" purity="7.2560292482376099e-01" nType="0">
          <Node pos="l" depth="2" NCoef="0" IVar="-1" Cut="0.0000000000000000e+00" cType="1" res="1.1267693713307381e-02" rms="3.6395856738090515e-01" purity="7.7971661090850830e-01" nType="-99"/>
          <Node pos="r" depth="2" NCoef="0" IVar="-1" Cut="0.0000000000000000e+00" cType="1" res="-2.4970748927444220e-03" rms="4.0045946836471558e-01" purity="7.1662056446075439e-01" nType="-99"/>
        </Node>
        <Node pos="r" depth="1" NCoef="0" IVar="8" Cut="2.2500000000000000e+00" cType="1" res="-5.6647234596312046e-03" rms="3.9975938200950623e-01" purity="4.7800397872924805e-01" nType="0">
          <Node pos="l" depth="2" NCoef="0" IVar="-1" Cut="0.0000000000000000e+00" cType="1" res="7.3326955316588283e-05" rms="3.9796364307403564e-01" purity="4.8788738250732422e-01" nType="-99"/>
          <Node pos="r" depth="2" NCoef="0" IVar="-1" Cut="0.0000000000000000e+00" cType="1" res="-1.1322014033794403e-03" rms="4.1531723737716675e-01" purity="3.4280377626419067e-01" nType="-99"/>
        </Node>
      </Node>
    </BinaryTree>
    <BinaryTree type="DecisionTree" boostWeight="1.0000000000000000e+00" itree="831">
      <Node pos="s" depth="0" NCoef="0" IVar="21" Cut="4.2380952835083008e+00" cType="1" res="-1.1077274102717638e-03" rms="4.0797990560531616e-01" purity="5.0178045034408569e-01" nType="0">
        <Node pos="l" depth="1" NCoef="0" IVar="21" Cut="3.0476191043853760e+00" cType="1" res="-2.1685039624571800e-02" rms="4.0679639577865601e-01" purity="5.5187982320785522e-01" nType="0">
          <Node pos="l" depth="2" NCoef="0" IVar="-1" Cut="0.0000000000000000e+00" cType="1" res="-1.1914231436094269e-04" rms="3.9532408118247986e-01" purity="5.6952917575836182e-01" nType="-99"/>
          <Node pos="r" depth="2" NCoef="0" IVar="-1" Cut="0.0000000000000000e+00" cType="1" res="-4.9541010521352291e-03" rms="4.8213383555412292e-01" purity="3.7746566534042358e-01" nType="-99"/>
        </Node>
        <Node pos="r" depth="1" NCoef="0" IVar="13" Cut="2.0598042011260986e-01" cType="1" res="3.2312348484992981e-02" rms="4.0768754482269287e-01" purity="4.2041292786598206e-01" nType="0">
          <Node pos="l" depth="2" NCoef="0" IVar="-1" Cut="0.0000000000000000e+00" cType="1" res="1.3656001538038254e-03" rms="4.0415757894515991e-01" purity="4.2940810322761536e-01" nType="-99"/>
          <Node pos="r" depth="2" NCoef="0" IVar="-1" Cut="0.0000000000000000e+00" cType="1" res="-5.5986326187849045e-03" rms="4.1630187630653381e-01" purity="3.1857508420944214e-01" nType="-99"/>
        </Node>
      </Node>
    </BinaryTree>
    <BinaryTree type="DecisionTree" boostWeight="1.0000000000000000e+00" itree="832">
      <Node pos="s" depth="0" NCoef="0" IVar="8" Cut="4.6452379226684570e+00" cType="0" res="-9.3380017206072807e-03" rms="4.0513044595718384e-01" purity="4.9082529544830322e-01" nType="0">
        <Node pos="l" depth="1" NCoef="0" IVar="12" Cut="1.4285714924335480e-01" cType="0" res="7.9908020794391632e-02" rms="3.7118804454803467e-01" purity="5.2159148454666138e-01" nType="0">
          <Node pos="l" depth="2" NCoef="0" IVar="-1" Cut="0.0000000000000000e+00" cType="1" res="3.6560986191034317e-03" rms="3.6815592646598816e-01" purity="5.9365755319595337e-01" nType="-99"/>
          <Node pos="r" depth="2" NCoef="0" IVar="-1" Cut="0.0000000000000000e+00" cType="1" res="-3.6422058474272490e-03" rms="3.5021400451660156e-01" purity="4.5074656605720520e-01" nType="-99"/>
        </Node>
        <Node pos="r" depth="1" NCoef="0" IVar="0" Cut="4.4540303945541382e-01" cType="1" res="-1.2440081685781479e-02" rms="4.0590652823448181e-01" purity="4.8975592851638794e-01" nType="0">
          <Node pos="l" depth="2" NCoef="0" IVar="-1" Cut="0.0000000000000000e+00" cType="1" res="-3.9068693295121193e-03" rms="4.3363901972770691e-01" purity="5.2181291580200195e-01" nType="-99"/>
          <Node pos="r" depth="2" NCoef="0" IVar="-1" Cut="0.0000000000000000e+00" cType="1" res="1.2599516776390374e-04" rms="4.0381550788879395e-01" purity="4.8782765865325928e-01" nType="-99"/>
        </Node>
      </Node>
    </BinaryTree>
    <BinaryTree type="DecisionTree" boostWeight="1.0000000000000000e+00" itree="833">
      <Node pos="s" depth="0" NCoef="0" IVar="9" Cut="-4.2857141494750977e+00" cType="1" res="5.7234512642025948e-03" rms="4.0271130204200745e-01" purity="5.0352114439010620e-01" nType="0">
        <Node pos="l" depth="1" NCoef="0" IVar="15" Cut="8.4285717010498047e+00" cType="1" res="8.7270826101303101e-02" rms="3.5736918449401855e-01" purity="7.6613825559616089e-01" nType="0">
          <Node pos="l" depth="2" NCoef="0" IVar="-1" Cut="0.0000000000000000e+00" cType="1" res="2.4601689074188471e-03" rms="2.5181716680526733e-01" purity="9.1239231824874878e-01" nType="-99"/>
          <Node pos="r" depth="2" NCoef="0" IVar="-1" Cut="0.0000000000000000e+00" cType="1" res="-2.4024336598813534e-03" rms="4.7544294595718384e-01" purity="5.1106286048889160e-01" nType="-99"/>
        </Node>
        <Node pos="r" depth="1" NCoef="0" IVar="12" Cut="2.1428570747375488e+00" cType="1" res="-1.1306842789053917e-03" rms="4.0554553270339966e-01" purity="4.8144793510437012e-01" nType="0">
          <Node pos="l" depth="2" NCoef="0" IVar="-1" Cut="0.0000000000000000e+00" cType="1" res="8.8673688878770918e-05" rms="3.9672535657882690e-01" purity="4.9669718742370605e-01" nType="-99"/>
          <Node pos="r" depth="2" NCoef="0" IVar="-1" Cut="0.0000000000000000e+00" cType="1" res="-6.8186526186764240e-04" rms="4.4240143895149231e-01" purity="4.0728691220283508e-01" nType="-99"/>
        </Node>
      </Node>
    </BinaryTree>
    <BinaryTree type="DecisionTree" boostWeight="1.0000000000000000e+00" itree="834">
      <Node pos="s" depth="0" NCoef="0" IVar="14" Cut="3.8380950927734375e+01" cType="1" res="1.7606221139431000e-02" rms="3.9923986792564392e-01" purity="5.1362711191177368e-01" nType="0">
        <Node pos="l" depth="1" NCoef="0" IVar="21" Cut="2.3333332538604736e+00" cType="1" res="6.2248885631561279e-02" rms="3.9609751105308533e-01" purity="6.4674919843673706e-01" nType="0">
          <Node pos="l" depth="2" NCoef="0" IVar="-1" Cut="0.0000000000000000e+00" cType="1" res="4.8123183660209179e-03" rms="3.6448368430137634e-01" purity="7.3450338840484619e-01" nType="-99"/>
          <Node pos="r" depth="2" NCoef="0" IVar="-1" Cut="0.0000000000000000e+00" cType="1" res="-1.3956672046333551e-03" rms="4.2309927940368652e-01" purity="5.4311174154281616e-01" nType="-99"/>
        </Node>
        <Node pos="r" depth="1" NCoef="0" IVar="18" Cut="1.3809523582458496e+00" cType="1" res="5.7431180030107498e-03" rms="3.9923211932182312e-01" purity="4.7825193405151367e-01" nType="0">
          <Node pos="l" depth="2" NCoef="0" IVar="-1" Cut="0.0000000000000000e+00" cType="1" res="-1.7009250586852431e-03" rms="3.2161536812782288e-01" purity="8.4259313344955444e-01" nType="-99"/>
          <Node pos="r" depth="2" NCoef="0" IVar="-1" Cut="0.0000000000000000e+00" cType="1" res="-4.1333521949127316e-04" rms="4.0162646770477295e-01" purity="4.6243494749069214e-01" nType="-99"/>
        </Node>
      </Node>
    </BinaryTree>
    <BinaryTree type="DecisionTree" boostWeight="1.0000000000000000e+00" itree="835">
      <Node pos="s" depth="0" NCoef="0" IVar="21" Cut="6.1428570747375488e+00" cType="1" res="1.4501669444143772e-02" rms="3.9330512285232544e-01" purity="5.0710177421569824e-01" nType="0">
        <Node pos="l" depth="1" NCoef="0" IVar="21" Cut="4.3333334922790527e+00" cType="1" res="2.4042891338467598e-02" rms="4.1436836123466492e-01" purity="5.8551961183547974e-01" nType="0">
          <Node pos="l" depth="2" NCoef="0" IVar="-1" Cut="0.0000000000000000e+00" cType="1" res="-6.4586690859869123e-04" rms="3.9626100659370422e-01" purity="5.8792400360107422e-01" nType="-99"/>
          <Node pos="r" depth="2" NCoef="0" IVar="-1" Cut="0.0000000000000000e+00" cType="1" res="1.7632481176406145e-03" rms="4.5014309883117676e-01" purity="5.8012562990188599e-01" nType="-99"/>
        </Node>
        <Node pos="r" depth="1" NCoef="0" IVar="16" Cut="3.7915050983428955e-02" cType="0" res="-3.9841942489147186e-02" rms="2.3306918144226074e-01" purity="6.0460329055786133e-02" nType="0">
          <Node pos="l" depth="2" NCoef="0" IVar="-1" Cut="0.0000000000000000e+00" cType="1" res="-8.2514405949041247e-04" rms="2.7133706212043762e-01" purity="8.6777165532112122e-02" nType="-99"/>
          <Node pos="r" depth="2" NCoef="0" IVar="-1" Cut="0.0000000000000000e+00" cType="1" res="-4.2291600257158279e-03" rms="1.8146778643131256e-01" purity="3.3298827707767487e-02" nType="-99"/>
        </Node>
      </Node>
    </BinaryTree>
    <BinaryTree type="DecisionTree" boostWeight="1.0000000000000000e+00" itree="836">
      <Node pos="s" depth="0" NCoef="0" IVar="21" Cut="4.2380952835083008e+00" cType="1" res="-9.2423669993877411e-03" rms="4.0535277128219604e-01" purity="4.9131646752357483e-01" nType="0">
        <Node pos="l" depth="1" NCoef="0" IVar="15" Cut="1.2000000000000000e+01" cType="1" res="-2.9316818341612816e-02" rms="4.0548980236053467e-01" purity="5.4471755027770996e-01" nType="0">
          <Node pos="l" depth="2" NCoef="0" IVar="-1" Cut="0.0000000000000000e+00" cType="1" res="-5.5932492250576615e-04" rms="4.0567910671234131e-01" purity="6.2650346755981445e-01" nType="-99"/>
          <Node pos="r" depth="2" NCoef="0" IVar="-1" Cut="0.0000000000000000e+00" cType="1" res="-8.0458086449652910e-04" rms="4.0214490890502930e-01" purity="2.6293131709098816e-01" nType="-99"/>
        </Node>
        <Node pos="r" depth="1" NCoef="0" IVar="15" Cut="1.7285715103149414e+01" cType="1" res="2.2907812148332596e-02" rms="4.0305569767951965e-01" purity="4.0579202771186829e-01" nType="0">
          <Node pos="l" depth="2" NCoef="0" IVar="-1" Cut="0.0000000000000000e+00" cType="1" res="3.2910320442169905e-03" rms="4.1960525512695312e-01" purity="7.4217754602432251e-01" nType="-99"/>
          <Node pos="r" depth="2" NCoef="0" IVar="-1" Cut="0.0000000000000000e+00" cType="1" res="2.0211203081998974e-04" rms="3.9637145400047302e-01" purity="3.4942534565925598e-01" nType="-99"/>
        </Node>
      </Node>
    </BinaryTree>
    <BinaryTree type="DecisionTree" boostWeight="1.0000000000000000e+00" itree="837">
      <Node pos="s" depth="0" NCoef="0" IVar="3" Cut="5.8571429252624512e+00" cType="0" res="1.6064038500189781e-02" rms="4.0046712756156921e-01" purity="5.2145498991012573e-01" nType="0">
        <Node pos="l" depth="1" NCoef="0" IVar="20" Cut="2.1022703170776367e+01" cType="1" res="1.3591212034225464e-01" rms="3.8377952575683594e-01" purity="6.7774945497512817e-01" nType="0">
          <Node pos="l" depth="2" NCoef="0" IVar="-1" Cut="0.0000000000000000e+00" cType="1" res="2.9430729337036610e-03" rms="3.0204528570175171e-01" purity="8.1956297159194946e-01" nType="-99"/>
          <Node pos="r" depth="2" NCoef="0" IVar="-1" Cut="0.0000000000000000e+00" cType="1" res="-3.2941347453743219e-03" rms="4.3589970469474792e-01" purity="4.6913379430770874e-01" nType="-99"/>
        </Node>
        <Node pos="r" depth="1" NCoef="0" IVar="3" Cut="3.0952382087707520e+00" cType="1" res="1.0877515189349651e-02" rms="4.0036454796791077e-01" purity="5.1469123363494873e-01" nType="0">
          <Node pos="l" depth="2" NCoef="0" IVar="-1" Cut="0.0000000000000000e+00" cType="1" res="3.5311610554344952e-04" rms="3.8672429323196411e-01" purity="5.2437806129455566e-01" nType="-99"/>
          <Node pos="r" depth="2" NCoef="0" IVar="-1" Cut="0.0000000000000000e+00" cType="1" res="-1.4699875609949231e-03" rms="4.3714630603790283e-01" purity="4.8361837863922119e-01" nType="-99"/>
        </Node>
      </Node>
    </BinaryTree>
    <BinaryTree type="DecisionTree" boostWeight="1.0000000000000000e+00" itree="838">
      <Node pos="s" depth="0" NCoef="0" IVar="15" Cut="7.0000000000000000e+00" cType="1" res="-2.8526990208774805e-03" rms="4.0811824798583984e-01" purity="4.9513489007949829e-01" nType="0">
        <Node pos="l" depth="1" NCoef="0" IVar="6" Cut="8.7302315235137939e-01" cType="0" res="-4.7612294554710388e-02" rms="4.1313469409942627e-01" purity="6.6274487972259521e-01" nType="0">
          <Node pos="l" depth="2" NCoef="0" IVar="-1" Cut="0.0000000000000000e+00" cType="1" res="3.0194667633622885e-03" rms="3.9775657653808594e-01" purity="6.7731875181198120e-01" nType="-99"/>
          <Node pos="r" depth="2" NCoef="0" IVar="-1" Cut="0.0000000000000000e+00" cType="1" res="-1.0471762157976627e-02" rms="4.5999816060066223e-01" purity="5.8597999811172485e-01" nType="-99"/>
        </Node>
        <Node pos="r" depth="1" NCoef="0" IVar="7" Cut="-5.2000002861022949e+00" cType="0" res="1.1694140732288361e-02" rms="4.0541198849678040e-01" purity="4.4066172838211060e-01" nType="0">
          <Node pos="l" depth="2" NCoef="0" IVar="-1" Cut="0.0000000000000000e+00" cType="1" res="-1.2062580208294094e-04" rms="4.0388062596321106e-01" purity="4.4206428527832031e-01" nType="-99"/>
          <Node pos="r" depth="2" NCoef="0" IVar="-1" Cut="0.0000000000000000e+00" cType="1" res="-4.9010985530912876e-03" rms="4.2848485708236694e-01" purity="3.9514291286468506e-01" nType="-99"/>
        </Node>
      </Node>
    </BinaryTree>
    <BinaryTree type="DecisionTree" boostWeight="1.0000000000000000e+00" itree="839">
      <Node pos="s" depth="0" NCoef="0" IVar="8" Cut="4.8023810386657715e+00" cType="0" res="-1.1947517283260822e-02" rms="4.0609511733055115e-01" purity="4.8671725392341614e-01" nType="0">
        <Node pos="l" depth="1" NCoef="0" IVar="-1" Cut="0.0000000000000000e+00" cType="1" res="1.2260014191269875e-03" rms="4.1099038720130920e-01" purity="6.4895391464233398e-01" nType="-99"/>
        <Node pos="r" depth="1" NCoef="0" IVar="0" Cut="1.3077951669692993e+00" cType="1" res="-1.5489785000681877e-02" rms="4.0536627173423767e-01" purity="4.8241072893142700e-01" nType="0">
          <Node pos="l" depth="2" NCoef="0" IVar="-1" Cut="0.0000000000000000e+00" cType="1" res="-6.6534767393022776e-04" rms="4.1331708431243896e-01" purity="5.5391961336135864e-01" nType="-99"/>
          <Node pos="r" depth="2" NCoef="0" IVar="-1" Cut="0.0000000000000000e+00" cType="1" res="1.9955338211730123e-04" rms="3.9838340878486633e-01" purity="4.3069547414779663e-01" nType="-99"/>
        </Node>
      </Node>
    </BinaryTree>
    <BinaryTree type="DecisionTree" boostWeight="1.0000000000000000e+00" itree="840">
      <Node pos="s" depth="0" NCoef="0" IVar="6" Cut="1.2954748868942261e+00" cType="1" res="-5.6426255032420158e-03" rms="3.9931994676589966e-01" purity="4.9336028099060059e-01" nType="0">
        <Node pos="l" depth="1" NCoef="0" IVar="11" Cut="1.5398539304733276e+00" cType="1" res="2.8106003999710083e-02" rms="3.7891620397567749e-01" purity="7.1248435974121094e-01" nType="0">
          <Node pos="l" depth="2" NCoef="0" IVar="-1" Cut="0.0000000000000000e+00" cType="1" res="-8.0343533772975206e-04" rms="3.7191060185432434e-01" purity="7.2959220409393311e-01" nType="-99"/>
          <Node pos="r" depth="2" NCoef="0" IVar="-1" Cut="0.0000000000000000e+00" cType="1" res="2.1090651862323284e-03" rms="3.9223361015319824e-01" purity="6.1687469482421875e-01" nType="-99"/>
        </Node>
        <Node pos="r" depth="1" NCoef="0" IVar="6" Cut="1.4494296312332153e+00" cType="1" res="-1.7452372238039970e-02" rms="4.0555509924888611e-01" purity="4.1668164730072021e-01" nType="0">
          <Node pos="l" depth="2" NCoef="0" IVar="-1" Cut="0.0000000000000000e+00" cType="1" res="-3.4047099761664867e-03" rms="4.1731777787208557e-01" purity="5.1556432247161865e-01" nType="-99"/>
          <Node pos="r" depth="2" NCoef="0" IVar="-1" Cut="0.0000000000000000e+00" cType="1" res="2.6886357227340341e-04" rms="4.0253743529319763e-01" purity="4.0362027287483215e-01" nType="-99"/>
        </Node>
      </Node>
    </BinaryTree>
    <BinaryTree type="DecisionTree" boostWeight="1.0000000000000000e+00" itree="841">
      <Node pos="s" depth="0" NCoef="0" IVar="12" Cut="2.1428570747375488e+00" cType="1" res="-1.7302984371781349e-02" rms="4.0060633420944214e-01" purity="4.7728809714317322e-01" nType="0">
        <Node pos="l" depth="1" NCoef="0" IVar="20" Cut="3.7920417785644531e+01" cType="0" res="-3.9772391319274902e-03" rms="3.8971403241157532e-01" purity="4.9413341283798218e-01" nType="0">
          <Node pos="l" depth="2" NCoef="0" IVar="-1" Cut="0.0000000000000000e+00" cType="1" res="8.8784476974979043e-04" rms="3.6529517173767090e-01" purity="6.1368137598037720e-01" nType="-99"/>
          <Node pos="r" depth="2" NCoef="0" IVar="-1" Cut="0.0000000000000000e+00" cType="1" res="4.2218267481075600e-05" rms="3.9217433333396912e-01" purity="4.7764641046524048e-01" nType="-99"/>
        </Node>
        <Node pos="r" depth="1" NCoef="0" IVar="5" Cut="1.8631120920181274e+00" cType="1" res="-7.7624186873435974e-02" rms="4.4159969687461853e-01" purity="4.0103498101234436e-01" nType="0">
          <Node pos="l" depth="2" NCoef="0" IVar="-1" Cut="0.0000000000000000e+00" cType="1" res="-1.3627473963424563e-03" rms="4.4207599759101868e-01" purity="4.3829894065856934e-01" nType="-99"/>
          <Node pos="r" depth="2" NCoef="0" IVar="-1" Cut="0.0000000000000000e+00" cType="1" res="-1.1509365140227601e-04" rms="4.3335285782814026e-01" purity="3.1522497534751892e-01" nType="-99"/>
        </Node>
      </Node>
    </BinaryTree>
    <BinaryTree type="DecisionTree" boostWeight="1.0000000000000000e+00" itree="842">
      <Node pos="s" depth="0" NCoef="0" IVar="4" Cut="1.7968528270721436e+00" cType="1" res="-5.4228333756327629e-03" rms="4.0084111690521240e-01" purity="4.9248650670051575e-01" nType="0">
        <Node pos="l" depth="1" NCoef="0" IVar="0" Cut="1.6159868240356445e+00" cType="0" res="2.3970451205968857e-02" rms="3.8175940513610840e-01" purity="7.3237091302871704e-01" nType="0">
          <Node pos="l" depth="2" NCoef="0" IVar="-1" Cut="0.0000000000000000e+00" cType="1" res="8.0646405695006251e-04" rms="2.8715032339096069e-01" purity="8.6490452289581299e-01" nType="-99"/>
          <Node pos="r" depth="2" NCoef="0" IVar="-1" Cut="0.0000000000000000e+00" cType="1" res="5.7804508833214641e-04" rms="3.9041814208030701e-01" purity="7.1380794048309326e-01" nType="-99"/>
        </Node>
        <Node pos="r" depth="1" NCoef="0" IVar="4" Cut="2.2011237144470215e+00" cType="1" res="-2.5210710242390633e-02" rms="4.1201177239418030e-01" purity="3.3099374175071716e-01" nType="0">
          <Node pos="l" depth="2" NCoef="0" IVar="-1" Cut="0.0000000000000000e+00" cType="1" res="-1.7516638617962599e-03" rms="4.5720160007476807e-01" purity="4.1157752275466919e-01" nType="-99"/>
          <Node pos="r" depth="2" NCoef="0" IVar="-1" Cut="0.0000000000000000e+00" cType="1" res="6.7751866299659014e-04" rms="3.7587881088256836e-01" purity="2.7701640129089355e-01" nType="-99"/>
        </Node>
      </Node>
    </BinaryTree>
    <BinaryTree type="DecisionTree" boostWeight="1.0000000000000000e+00" itree="843">
      <Node pos="s" depth="0" NCoef="0" IVar="0" Cut="8.8515645265579224e-01" cType="1" res="-5.6605380959808826e-03" rms="3.9839324355125427e-01" purity="4.9045142531394958e-01" nType="0">
        <Node pos="l" depth="1" NCoef="0" IVar="0" Cut="7.5803774595260620e-01" cType="1" res="-4.0440876036882401e-02" rms="4.0738812088966370e-01" purity="5.3873682022094727e-01" nType="0">
          <Node pos="l" depth="2" NCoef="0" IVar="-1" Cut="0.0000000000000000e+00" cType="1" res="3.3734028693288565e-04" rms="4.0112450718879700e-01" purity="5.7255470752716064e-01" nType="-99"/>
          <Node pos="r" depth="2" NCoef="0" IVar="-1" Cut="0.0000000000000000e+00" cType="1" res="-3.8014419842511415e-03" rms="4.1387322545051575e-01" purity="4.5782086253166199e-01" nType="-99"/>
        </Node>
        <Node pos="r" depth="1" NCoef="0" IVar="20" Cut="3.5085273742675781e+01" cType="0" res="4.8850220628082752e-03" rms="3.9502102136611938e-01" purity="4.7581109404563904e-01" nType="0">
          <Node pos="l" depth="2" NCoef="0" IVar="-1" Cut="0.0000000000000000e+00" cType="1" res="-5.4699002066627145e-04" rms="4.1073378920555115e-01" purity="4.8004627227783203e-01" nType="-99"/>
          <Node pos="r" depth="2" NCoef="0" IVar="-1" Cut="0.0000000000000000e+00" cType="1" res="2.9998610261827707e-04" rms="3.9058721065521240e-01" purity="4.7493404150009155e-01" nType="-99"/>
        </Node>
      </Node>
    </BinaryTree>
    <BinaryTree type="DecisionTree" boostWeight="1.0000000000000000e+00" itree="844">
      <Node pos="s" depth="0" NCoef="0" IVar="21" Cut="1.3809523582458496e+00" cType="1" res="-2.3782458156347275e-03" rms="4.0269613265991211e-01" purity="4.9730625748634338e-01" nType="0">
        <Node pos="l" depth="1" NCoef="0" IVar="20" Cut="1.5661799430847168e+01" cType="1" res="-3.6078080534934998e-02" rms="4.2043921351432800e-01" purity="5.2426457405090332e-01" nType="0">
          <Node pos="l" depth="2" NCoef="0" IVar="-1" Cut="0.0000000000000000e+00" cType="1" res="9.9987525027245283e-04" rms="4.0933266282081604e-01" purity="5.5263257026672363e-01" nType="-99"/>
          <Node pos="r" depth="2" NCoef="0" IVar="-1" Cut="0.0000000000000000e+00" cType="1" res="-2.4225546512752771e-03" rms="4.3184772133827209e-01" purity="4.7877451777458191e-01" nType="-99"/>
        </Node>
        <Node pos="r" depth="1" NCoef="0" IVar="0" Cut="4.4540303945541382e-01" cType="1" res="1.9037259742617607e-02" rms="3.8949033617973328e-01" purity="4.8017477989196777e-01" nType="0">
          <Node pos="l" depth="2" NCoef="0" IVar="-1" Cut="0.0000000000000000e+00" cType="1" res="4.3750517070293427e-03" rms="3.6212331056594849e-01" purity="7.8312134742736816e-01" nType="-99"/>
          <Node pos="r" depth="2" NCoef="0" IVar="-1" Cut="0.0000000000000000e+00" cType="1" res="-1.2308635177760152e-07" rms="3.8936614990234375e-01" purity="4.7233361005783081e-01" nType="-99"/>
        </Node>
      </Node>
    </BinaryTree>
    <BinaryTree type="DecisionTree" boostWeight="1.0000000000000000e+00" itree="845">
      <Node pos="s" depth="0" NCoef="0" IVar="3" Cut="3.9047617912292480e+00" cType="1" res="7.9460674896836281e-03" rms="3.9700686931610107e-01" purity="5.0509876012802124e-01" nType="0">
        <Node pos="l" depth="1" NCoef="0" IVar="4" Cut="2.4498367309570312e+00" cType="1" res="2.1219154819846153e-02" rms="3.8368859887123108e-01" purity="5.0999158620834351e-01" nType="0">
          <Node pos="l" depth="2" NCoef="0" IVar="-1" Cut="0.0000000000000000e+00" cType="1" res="8.4995460929349065e-04" rms="3.9737519621849060e-01" purity="6.5732854604721069e-01" nType="-99"/>
          <Node pos="r" depth="2" NCoef="0" IVar="-1" Cut="0.0000000000000000e+00" cType="1" res="-6.7107391078025103e-04" rms="3.4584963321685791e-01" purity="1.9251528382301331e-01" nType="-99"/>
        </Node>
        <Node pos="r" depth="1" NCoef="0" IVar="20" Cut="1.2799036979675293e+01" cType="1" res="-2.8399439528584480e-02" rms="4.2928132414817810e-01" purity="4.9170097708702087e-01" nType="0">
          <Node pos="l" depth="2" NCoef="0" IVar="-1" Cut="0.0000000000000000e+00" cType="1" res="1.9642179831862450e-03" rms="4.2770260572433472e-01" purity="5.9636962413787842e-01" nType="-99"/>
          <Node pos="r" depth="2" NCoef="0" IVar="-1" Cut="0.0000000000000000e+00" cType="1" res="-2.6616768445819616e-03" rms="4.2541337013244629e-01" purity="4.2223688960075378e-01" nType="-99"/>
        </Node>
      </Node>
    </BinaryTree>
    <BinaryTree type="DecisionTree" boostWeight="1.0000000000000000e+00" itree="846">
      <Node pos="s" depth="0" NCoef="0" IVar="3" Cut="1.7619047164916992e+00" cType="0" res="-1.0156516218557954e-03" rms="4.0012574195861816e-01" purity="4.9494996666908264e-01" nType="0">
        <Node pos="l" depth="1" NCoef="0" IVar="9" Cut="-1.2857142448425293e+01" cType="1" res="-1.6385028138756752e-02" rms="4.1281691193580627e-01" purity="4.9496737122535706e-01" nType="0">
          <Node pos="l" depth="2" NCoef="0" IVar="-1" Cut="0.0000000000000000e+00" cType="1" res="2.1227624267339706e-02" rms="3.2102957367897034e-01" purity="9.0212613344192505e-01" nType="-99"/>
          <Node pos="r" depth="2" NCoef="0" IVar="-1" Cut="0.0000000000000000e+00" cType="1" res="-5.1323790103197098e-04" rms="4.1399329900741577e-01" purity="4.8538884520530701e-01" nType="-99"/>
        </Node>
        <Node pos="r" depth="1" NCoef="0" IVar="18" Cut="5.1428570747375488e+00" cType="1" res="4.0312066674232483e-02" rms="3.6057579517364502e-01" purity="4.9490302801132202e-01" nType="0">
          <Node pos="l" depth="2" NCoef="0" IVar="-1" Cut="0.0000000000000000e+00" cType="1" res="3.6912076757289469e-04" rms="3.5243159532546997e-01" purity="7.4687296152114868e-01" nType="-99"/>
          <Node pos="r" depth="2" NCoef="0" IVar="-1" Cut="0.0000000000000000e+00" cType="1" res="9.5202057855203748e-04" rms="3.6293849349021912e-01" purity="2.7502062916755676e-01" nType="-99"/>
        </Node>
      </Node>
    </BinaryTree>
    <BinaryTree type="DecisionTree" boostWeight="1.0000000000000000e+00" itree="847">
      <Node pos="s" depth="0" NCoef="0" IVar="3" Cut="3.9047617912292480e+00" cType="1" res="4.5572863891720772e-03" rms="3.9884904026985168e-01" purity="5.0399702787399292e-01" nType="0">
        <Node pos="l" depth="1" NCoef="0" IVar="15" Cut="1.5571428298950195e+01" cType="1" res="2.3900393396615982e-02" rms="3.8192752003669739e-01" purity="5.1305425167083740e-01" nType="0">
          <Node pos="l" depth="2" NCoef="0" IVar="-1" Cut="0.0000000000000000e+00" cType="1" res="5.3277547704055905e-04" rms="3.7653577327728271e-01" purity="6.5091389417648315e-01" nType="-99"/>
          <Node pos="r" depth="2" NCoef="0" IVar="-1" Cut="0.0000000000000000e+00" cType="1" res="5.5016716942191124e-05" rms="3.8632881641387939e-01" purity="3.0896052718162537e-01" nType="-99"/>
        </Node>
        <Node pos="r" depth="1" NCoef="0" IVar="10" Cut="1.8383325338363647e+00" cType="1" res="-4.6642594039440155e-02" rms="4.3639412522315979e-01" purity="4.8002323508262634e-01" nType="0">
          <Node pos="l" depth="2" NCoef="0" IVar="-1" Cut="0.0000000000000000e+00" cType="1" res="-4.2106513865292072e-03" rms="4.4598805904388428e-01" purity="4.9078437685966492e-01" nType="-99"/>
          <Node pos="r" depth="2" NCoef="0" IVar="-1" Cut="0.0000000000000000e+00" cType="1" res="2.8322052094154060e-04" rms="4.2415595054626465e-01" purity="4.7431573271751404e-01" nType="-99"/>
        </Node>
      </Node>
    </BinaryTree>
    <BinaryTree type="DecisionTree" boostWeight="1.0000000000000000e+00" itree="848">
      <Node pos="s" depth="0" NCoef="0" IVar="21" Cut="1.0952380895614624e+00" cType="1" res="-7.8254872933030128e-03" rms="4.0440204739570618e-01" purity="4.9283039569854736e-01" nType="0">
        <Node pos="l" depth="1" NCoef="0" IVar="6" Cut="2.5947339534759521e+00" cType="1" res="-3.2538782805204391e-02" rms="4.2358770966529846e-01" purity="5.1842159032821655e-01" nType="0">
          <Node pos="l" depth="2" NCoef="0" IVar="-1" Cut="0.0000000000000000e+00" cType="1" res="-5.9207645244896412e-04" rms="4.2263489961624146e-01" purity="5.2954155206680298e-01" nType="-99"/>
          <Node pos="r" depth="2" NCoef="0" IVar="-1" Cut="0.0000000000000000e+00" cType="1" res="1.7263946356251836e-03" rms="4.1319006681442261e-01" purity="3.3865422010421753e-01" nType="-99"/>
        </Node>
        <Node pos="r" depth="1" NCoef="0" IVar="15" Cut="9.4285717010498047e+00" cType="1" res="7.8723542392253876e-03" rms="3.9091712236404419e-01" purity="4.7657492756843567e-01" nType="0">
          <Node pos="l" depth="2" NCoef="0" IVar="-1" Cut="0.0000000000000000e+00" cType="1" res="4.2952694930136204e-03" rms="2.5648698210716248e-01" purity="7.9990071058273315e-01" nType="-99"/>
          <Node pos="r" depth="2" NCoef="0" IVar="-1" Cut="0.0000000000000000e+00" cType="1" res="-4.7494363388977945e-04" rms="4.1509458422660828e-01" purity="3.9723515510559082e-01" nType="-99"/>
        </Node>
      </Node>
    </BinaryTree>
    <BinaryTree type="DecisionTree" boostWeight="1.0000000000000000e+00" itree="849">
      <Node pos="s" depth="0" NCoef="0" IVar="0" Cut="4.4540777802467346e-01" cType="1" res="-1.0437720455229282e-02" rms="3.9894384145736694e-01" purity="4.8139032721519470e-01" nType="0">
        <Node pos="l" depth="1" NCoef="0" IVar="1" Cut="3.2857143878936768e+00" cType="1" res="-9.5977082848548889e-02" rms="4.3649318814277649e-01" purity="4.8994126915931702e-01" nType="0">
          <Node pos="l" depth="2" NCoef="0" IVar="-1" Cut="0.0000000000000000e+00" cType="1" res="1.1943492572754622e-03" rms="4.0437594056129456e-01" purity="8.1768745183944702e-01" nType="-99"/>
          <Node pos="r" depth="2" NCoef="0" IVar="-1" Cut="0.0000000000000000e+00" cType="1" res="-2.3212847299873829e-03" rms="4.3322253227233887e-01" purity="3.4672042727470398e-01" nType="-99"/>
        </Node>
        <Node pos="r" depth="1" NCoef="0" IVar="11" Cut="2.2135379314422607e+00" cType="1" res="-3.6363259423524141e-03" rms="3.9501118659973145e-01" purity="4.8071038722991943e-01" nType="0">
          <Node pos="l" depth="2" NCoef="0" IVar="-1" Cut="0.0000000000000000e+00" cType="1" res="1.9405895727686584e-04" rms="3.9946344494819641e-01" purity="5.2749121189117432e-01" nType="-99"/>
          <Node pos="r" depth="2" NCoef="0" IVar="-1" Cut="0.0000000000000000e+00" cType="1" res="-8.3506567170843482e-04" rms="3.6701452732086182e-01" purity="2.2520175576210022e-01" nType="-99"/>
        </Node>
      </Node>
    </BinaryTree>
    <BinaryTree type="DecisionTree" boostWeight="1.0000000000000000e+00" itree="850">
      <Node pos="s" depth="0" NCoef="0" IVar="6" Cut="4.6005788445472717e-01" cType="0" res="-1.2820526026189327e-02" rms="4.0940892696380615e-01" purity="4.9540781974792480e-01" nType="0">
        <Node pos="l" depth="1" NCoef="0" IVar="3" Cut="2.2380952835083008e+00" cType="1" res="-7.9418597742915154e-03" rms="4.0576779842376709e-01" purity="4.9655869603157043e-01" nType="0">
          <Node pos="l" depth="2" NCoef="0" IVar="-1" Cut="0.0000000000000000e+00" cType="1" res="7.2778573667164892e-05" rms="3.9177352190017700e-01" purity="5.0857067108154297e-01" nType="-99"/>
          <Node pos="r" depth="2" NCoef="0" IVar="-1" Cut="0.0000000000000000e+00" cType="1" res="-1.1394478497095406e-04" rms="4.1818031668663025e-01" purity="4.8475429415702820e-01" nType="-99"/>
        </Node>
        <Node pos="r" depth="1" NCoef="0" IVar="-1" Cut="0.0000000000000000e+00" cType="1" res="-3.3630374819040298e-03" rms="5.0756406784057617e-01" purity="4.3187755346298218e-01" nType="-99"/>
      </Node>
    </BinaryTree>
    <BinaryTree type="DecisionTree" boostWeight="1.0000000000000000e+00" itree="851">
      <Node pos="s" depth="0" NCoef="0" IVar="9" Cut="-1.2857142448425293e+01" cType="1" res="-7.0170611143112183e-03" rms="4.0439820289611816e-01" purity="4.9550020694732666e-01" nType="0">
        <Node pos="l" depth="1" NCoef="0" IVar="-1" Cut="0.0000000000000000e+00" cType="1" res="1.8774673808366060e-03" rms="1.7789702117443085e-01" purity="9.5312845706939697e-01" nType="-99"/>
        <Node pos="r" depth="1" NCoef="0" IVar="7" Cut="-6.9452381134033203e+00" cType="0" res="-1.0236911475658417e-02" rms="4.0655884146690369e-01" purity="4.8736175894737244e-01" nType="0">
          <Node pos="l" depth="2" NCoef="0" IVar="-1" Cut="0.0000000000000000e+00" cType="1" res="1.2631369463633746e-04" rms="4.0484446287155151e-01" purity="4.8749175667762756e-01" nType="-99"/>
          <Node pos="r" depth="2" NCoef="0" IVar="-1" Cut="0.0000000000000000e+00" cType="1" res="-5.9181172400712967e-03" rms="4.2810621857643127e-01" purity="4.8346477746963501e-01" nType="-99"/>
        </Node>
      </Node>
    </BinaryTree>
    <BinaryTree type="DecisionTree" boostWeight="1.0000000000000000e+00" itree="852">
      <Node pos="s" depth="0" NCoef="0" IVar="10" Cut="2.3571369647979736e+00" cType="1" res="-5.9298919513821602e-03" rms="4.0276032686233521e-01" purity="4.9683672189712524e-01" nType="0">
        <Node pos="l" depth="1" NCoef="0" IVar="10" Cut="1.3467900753021240e+00" cType="1" res="1.0435575619339943e-02" rms="4.0505781769752502e-01" purity="6.1590355634689331e-01" nType="0">
          <Node pos="l" depth="2" NCoef="0" IVar="-1" Cut="0.0000000000000000e+00" cType="1" res="2.0597323309630156e-03" rms="3.6537712812423706e-01" purity="7.4539613723754883e-01" nType="-99"/>
          <Node pos="r" depth="2" NCoef="0" IVar="-1" Cut="0.0000000000000000e+00" cType="1" res="-8.6019921582192183e-05" rms="4.3154522776603699e-01" purity="5.1491641998291016e-01" nType="-99"/>
        </Node>
        <Node pos="r" depth="1" NCoef="0" IVar="8" Cut="1.9976190328598022e+00" cType="0" res="-2.9099229723215103e-02" rms="3.9833697676658630e-01" purity="3.2826831936836243e-01" nType="0">
          <Node pos="l" depth="2" NCoef="0" IVar="-1" Cut="0.0000000000000000e+00" cType="1" res="-1.1484567075967789e-03" rms="4.1909188032150269e-01" purity="4.2931017279624939e-01" nType="-99"/>
          <Node pos="r" depth="2" NCoef="0" IVar="-1" Cut="0.0000000000000000e+00" cType="1" res="-8.7537046056240797e-04" rms="3.9478674530982971e-01" purity="3.1899341940879822e-01" nType="-99"/>
        </Node>
      </Node>
    </BinaryTree>
    <BinaryTree type="DecisionTree" boostWeight="1.0000000000000000e+00" itree="853">
      <Node pos="s" depth="0" NCoef="0" IVar="0" Cut="2.6542856693267822e+00" cType="1" res="1.0595105588436127e-02" rms="3.9127358794212341e-01" purity="5.0310635566711426e-01" nType="0">
        <Node pos="l" depth="1" NCoef="0" IVar="20" Cut="2.2203767776489258e+01" cType="0" res="2.0234411582350731e-02" rms="4.0013411641120911e-01" purity="5.5865275859832764e-01" nType="0">
          <Node pos="l" depth="2" NCoef="0" IVar="-1" Cut="0.0000000000000000e+00" cType="1" res="1.1272458359599113e-03" rms="3.9850375056266785e-01" purity="6.2441712617874146e-01" nType="-99"/>
          <Node pos="r" depth="2" NCoef="0" IVar="-1" Cut="0.0000000000000000e+00" cType="1" res="-3.4619131474755704e-04" rms="3.9980402588844299e-01" purity="5.2655428647994995e-01" nType="-99"/>
        </Node>
        <Node pos="r" depth="1" NCoef="0" IVar="4" Cut="2.8801929950714111e+00" cType="1" res="-5.3754407912492752e-02" rms="3.1862446665763855e-01" purity="1.3229262828826904e-01" nType="0">
          <Node pos="l" depth="2" NCoef="0" IVar="-1" Cut="0.0000000000000000e+00" cType="1" res="-4.4127358123660088e-03" rms="3.5889700055122375e-01" purity="1.5475794672966003e-01" nType="-99"/>
          <Node pos="r" depth="2" NCoef="0" IVar="-1" Cut="0.0000000000000000e+00" cType="1" res="-1.9946253814850934e-05" rms="2.9002013802528381e-01" purity="1.2200476974248886e-01" nType="-99"/>
        </Node>
      </Node>
    </BinaryTree>
    <BinaryTree type="DecisionTree" boostWeight="1.0000000000000000e+00" itree="854">
      <Node pos="s" depth="0" NCoef="0" IVar="0" Cut="1.3362091779708862e+00" cType="1" res="-6.7777275107800961e-03" rms="4.0637671947479248e-01" purity="4.9981844425201416e-01" nType="0">
        <Node pos="l" depth="1" NCoef="0" IVar="3" Cut="4.2857141494750977e+00" cType="1" res="-3.8950577378273010e-02" rms="4.1838115453720093e-01" purity="5.6475740671157837e-01" nType="0">
          <Node pos="l" depth="2" NCoef="0" IVar="-1" Cut="0.0000000000000000e+00" cType="1" res="4.6487082727253437e-05" rms="4.1301867365837097e-01" purity="5.8356660604476929e-01" nType="-99"/>
          <Node pos="r" depth="2" NCoef="0" IVar="-1" Cut="0.0000000000000000e+00" cType="1" res="-3.6945266183465719e-03" rms="4.3733176589012146e-01" purity="4.4645458459854126e-01" nType="-99"/>
        </Node>
        <Node pos="r" depth="1" NCoef="0" IVar="3" Cut="4.5714287757873535e+00" cType="0" res="2.0464835688471794e-02" rms="3.9387801289558411e-01" purity="4.4483095407485962e-01" nType="0">
          <Node pos="l" depth="2" NCoef="0" IVar="-1" Cut="0.0000000000000000e+00" cType="1" res="3.8206754252314568e-03" rms="3.7769278883934021e-01" purity="6.4078402519226074e-01" nType="-99"/>
          <Node pos="r" depth="2" NCoef="0" IVar="-1" Cut="0.0000000000000000e+00" cType="1" res="-2.2528384579345584e-04" rms="3.9339891076087952e-01" purity="4.2401024699211121e-01" nType="-99"/>
        </Node>
      </Node>
    </BinaryTree>
    <BinaryTree type="DecisionTree" boostWeight="1.0000000000000000e+00" itree="855">
      <Node pos="s" depth="0" NCoef="0" IVar="9" Cut="-1.4285714626312256e+00" cType="1" res="5.5163875222206116e-03" rms="4.0093395113945007e-01" purity="5.0718694925308228e-01" nType="0">
        <Node pos="l" depth="1" NCoef="0" IVar="7" Cut="4.2857143282890320e-01" cType="1" res="4.8450514674186707e-02" rms="3.7727296352386475e-01" purity="6.3550359010696411e-01" nType="0">
          <Node pos="l" depth="2" NCoef="0" IVar="-1" Cut="0.0000000000000000e+00" cType="1" res="6.3091138144955039e-04" rms="3.6244148015975952e-01" purity="7.0238322019577026e-01" nType="-99"/>
          <Node pos="r" depth="2" NCoef="0" IVar="-1" Cut="0.0000000000000000e+00" cType="1" res="-2.8939538169652224e-03" rms="4.0665429830551147e-01" purity="4.2733117938041687e-01" nType="-99"/>
        </Node>
        <Node pos="r" depth="1" NCoef="0" IVar="18" Cut="4.2857141494750977e+00" cType="1" res="-5.8966516517102718e-03" rms="4.0622958540916443e-01" purity="4.7307687997817993e-01" nType="0">
          <Node pos="l" depth="2" NCoef="0" IVar="-1" Cut="0.0000000000000000e+00" cType="1" res="-1.3071333523839712e-03" rms="3.9955657720565796e-01" purity="6.1360484361648560e-01" nType="-99"/>
          <Node pos="r" depth="2" NCoef="0" IVar="-1" Cut="0.0000000000000000e+00" cType="1" res="4.6894120168872178e-04" rms="4.0819486975669861e-01" purity="3.9667627215385437e-01" nType="-99"/>
        </Node>
      </Node>
    </BinaryTree>
    <BinaryTree type="DecisionTree" boostWeight="1.0000000000000000e+00" itree="856">
      <Node pos="s" depth="0" NCoef="0" IVar="15" Cut="4.8571429252624512e+00" cType="1" res="-5.4813135648146272e-04" rms="3.9924666285514832e-01" purity="4.9895325303077698e-01" nType="0">
        <Node pos="l" depth="1" NCoef="0" IVar="1" Cut="7.0000000000000000e+00" cType="1" res="-5.9711996465921402e-02" rms="4.1572105884552002e-01" purity="6.4084595441818237e-01" nType="0">
          <Node pos="l" depth="2" NCoef="0" IVar="-1" Cut="0.0000000000000000e+00" cType="1" res="-1.9423711346462369e-03" rms="4.1479691863059998e-01" purity="6.7366039752960205e-01" nType="-99"/>
          <Node pos="r" depth="2" NCoef="0" IVar="-1" Cut="0.0000000000000000e+00" cType="1" res="-3.2999017275869846e-03" rms="4.1991993784904480e-01" purity="3.8440203666687012e-01" nType="-99"/>
        </Node>
        <Node pos="r" depth="1" NCoef="0" IVar="12" Cut="1.4285714924335480e-01" cType="1" res="4.9161799252033234e-03" rms="3.9724645018577576e-01" purity="4.8584818840026855e-01" nType="0">
          <Node pos="l" depth="2" NCoef="0" IVar="-1" Cut="0.0000000000000000e+00" cType="1" res="-2.3535636719316244e-03" rms="3.7916752696037292e-01" purity="5.5562728643417358e-01" nType="-99"/>
          <Node pos="r" depth="2" NCoef="0" IVar="-1" Cut="0.0000000000000000e+00" cType="1" res="4.6379934065043926e-04" rms="4.0017572045326233e-01" purity="4.7155314683914185e-01" nType="-99"/>
        </Node>
      </Node>
    </BinaryTree>
    <BinaryTree type="DecisionTree" boostWeight="1.0000000000000000e+00" itree="857">
      <Node pos="s" depth="0" NCoef="0" IVar="20" Cut="3.5821082592010498e+00" cType="0" res="7.4877933366224170e-04" rms="3.9620509743690491e-01" purity="4.8933050036430359e-01" nType="0">
        <Node pos="l" depth="1" NCoef="0" IVar="4" Cut="1.1438689231872559e+00" cType="1" res="1.1773422360420227e-02" rms="3.9273780584335327e-01" purity="5.0250053405761719e-01" nType="0">
          <Node pos="l" depth="2" NCoef="0" IVar="-1" Cut="0.0000000000000000e+00" cType="1" res="-6.4562336774542928e-04" rms="2.8744930028915405e-01" purity="8.7137567996978760e-01" nType="-99"/>
          <Node pos="r" depth="2" NCoef="0" IVar="-1" Cut="0.0000000000000000e+00" cType="1" res="1.8861898570321500e-04" rms="4.0457379817962646e-01" purity="4.4922214746475220e-01" nType="-99"/>
        </Node>
        <Node pos="r" depth="1" NCoef="0" IVar="15" Cut="5.0000000000000000e+00" cType="0" res="-8.0902904272079468e-02" rms="4.1191145777702332e-01" purity="3.9178943634033203e-01" nType="0">
          <Node pos="l" depth="2" NCoef="0" IVar="-1" Cut="0.0000000000000000e+00" cType="1" res="-7.3204166255891323e-04" rms="3.7832692265510559e-01" purity="3.6421263217926025e-01" nType="-99"/>
          <Node pos="r" depth="2" NCoef="0" IVar="-1" Cut="0.0000000000000000e+00" cType="1" res="-5.4922611452639103e-03" rms="4.8095265030860901e-01" purity="4.8879668116569519e-01" nType="-99"/>
        </Node>
      </Node>
    </BinaryTree>
    <BinaryTree type="DecisionTree" boostWeight="1.0000000000000000e+00" itree="858">
      <Node pos="s" depth="0" NCoef="0" IVar="20" Cut="7.3729797363281250e+01" cType="1" res="5.7653030380606651e-03" rms="4.0097701549530029e-01" purity="5.0585228204727173e-01" nType="0">
        <Node pos="l" depth="1" NCoef="0" IVar="7" Cut="-7.3857140541076660e+00" cType="1" res="9.7733708098530769e-03" rms="4.0138038992881775e-01" purity="5.1287508010864258e-01" nType="0">
          <Node pos="l" depth="2" NCoef="0" IVar="-1" Cut="0.0000000000000000e+00" cType="1" res="-3.0269443523138762e-03" rms="4.1180735826492310e-01" purity="6.1994934082031250e-01" nType="-99"/>
          <Node pos="r" depth="2" NCoef="0" IVar="-1" Cut="0.0000000000000000e+00" cType="1" res="1.2249140127096325e-04" rms="4.0037879347801208e-01" purity="5.0829130411148071e-01" nType="-99"/>
        </Node>
        <Node pos="r" depth="1" NCoef="0" IVar="-1" Cut="0.0000000000000000e+00" cType="1" res="-2.8656870126724243e-03" rms="3.5768973827362061e-01" purity="2.5400915741920471e-01" nType="-99"/>
      </Node>
    </BinaryTree>
    <BinaryTree type="DecisionTree" boostWeight="1.0000000000000000e+00" itree="859">
      <Node pos="s" depth="0" NCoef="0" IVar="15" Cut="8.4285717010498047e+00" cType="1" res="-7.7799530699849129e-03" rms="4.0072637796401978e-01" purity="4.8369854688644409e-01" nType="0">
        <Node pos="l" depth="1" NCoef="0" IVar="6" Cut="9.3126797676086426e-01" cType="0" res="2.7580350637435913e-02" rms="3.8544782996177673e-01" purity="7.2787052392959595e-01" nType="0">
          <Node pos="l" depth="2" NCoef="0" IVar="-1" Cut="0.0000000000000000e+00" cType="1" res="1.1191541561856866e-03" rms="3.7275153398513794e-01" purity="7.4423795938491821e-01" nType="-99"/>
          <Node pos="r" depth="2" NCoef="0" IVar="-1" Cut="0.0000000000000000e+00" cType="1" res="-4.7517749480903149e-03" rms="4.1173124313354492e-01" purity="6.6187351942062378e-01" nType="-99"/>
        </Node>
        <Node pos="r" depth="1" NCoef="0" IVar="6" Cut="8.8117319345474243e-01" cType="1" res="-1.9483294337987900e-02" rms="4.0497696399688721e-01" purity="4.0288394689559937e-01" nType="0">
          <Node pos="l" depth="2" NCoef="0" IVar="-1" Cut="0.0000000000000000e+00" cType="1" res="7.5389835983514786e-03" rms="3.5757815837860107e-01" purity="6.8228948116302490e-01" nType="-99"/>
          <Node pos="r" depth="2" NCoef="0" IVar="-1" Cut="0.0000000000000000e+00" cType="1" res="-3.5049373400397599e-04" rms="4.0586635470390320e-01" purity="3.9275041222572327e-01" nType="-99"/>
        </Node>
      </Node>
    </BinaryTree>
    <BinaryTree type="DecisionTree" boostWeight="1.0000000000000000e+00" itree="860">
      <Node pos="s" depth="0" NCoef="0" IVar="8" Cut="8.8500003814697266e+00" cType="1" res="4.9207215197384357e-03" rms="3.9947244524955750e-01" purity="5.0487267971038818e-01" nType="0">
        <Node pos="l" depth="1" NCoef="0" IVar="20" Cut="3.0746324539184570e+01" cType="0" res="8.9844577014446259e-03" rms="3.9675998687744141e-01" purity="5.0784289836883545e-01" nType="0">
          <Node pos="l" depth="2" NCoef="0" IVar="-1" Cut="0.0000000000000000e+00" cType="1" res="-6.3449935987591743e-04" rms="3.8864767551422119e-01" purity="6.0185217857360840e-01" nType="-99"/>
          <Node pos="r" depth="2" NCoef="0" IVar="-1" Cut="0.0000000000000000e+00" cType="1" res="1.0908216063398868e-04" rms="3.9801031351089478e-01" purity="4.8554769158363342e-01" nType="-99"/>
        </Node>
        <Node pos="r" depth="1" NCoef="0" IVar="-1" Cut="0.0000000000000000e+00" cType="1" res="1.1765781528083608e-04" rms="4.7405850887298584e-01" purity="3.6053326725959778e-01" nType="-99"/>
      </Node>
    </BinaryTree>
    <BinaryTree type="DecisionTree" boostWeight="1.0000000000000000e+00" itree="861">
      <Node pos="s" depth="0" NCoef="0" IVar="4" Cut="2.0151226520538330e+00" cType="1" res="9.4723580405116081e-03" rms="3.9593857526779175e-01" purity="5.0859361886978149e-01" nType="0">
        <Node pos="l" depth="1" NCoef="0" IVar="4" Cut="1.9217454195022583e+00" cType="0" res="3.4026566892862320e-02" rms="3.9993894100189209e-01" purity="7.0275366306304932e-01" nType="0">
          <Node pos="l" depth="2" NCoef="0" IVar="-1" Cut="0.0000000000000000e+00" cType="1" res="4.2961686849594116e-03" rms="3.9656808972358704e-01" purity="7.2580718994140625e-01" nType="-99"/>
          <Node pos="r" depth="2" NCoef="0" IVar="-1" Cut="0.0000000000000000e+00" cType="1" res="-4.7941744560375810e-04" rms="3.9672726392745972e-01" purity="7.0068114995956421e-01" nType="-99"/>
        </Node>
        <Node pos="r" depth="1" NCoef="0" IVar="20" Cut="4.7966781616210938e+01" cType="1" res="-1.9275730475783348e-02" rms="3.8923954963684082e-01" purity="2.8127083182334900e-01" nType="0">
          <Node pos="l" depth="2" NCoef="0" IVar="-1" Cut="0.0000000000000000e+00" cType="1" res="4.5910920016467571e-04" rms="3.8521704077720642e-01" purity="2.8562188148498535e-01" nType="-99"/>
          <Node pos="r" depth="2" NCoef="0" IVar="-1" Cut="0.0000000000000000e+00" cType="1" res="-5.2228886634111404e-03" rms="4.1546484827995300e-01" purity="2.3958782851696014e-01" nType="-99"/>
        </Node>
      </Node>
    </BinaryTree>
    <BinaryTree type="DecisionTree" boostWeight="1.0000000000000000e+00" itree="862">
      <Node pos="s" depth="0" NCoef="0" IVar="12" Cut="1.1428571939468384e+00" cType="1" res="-6.5171211026608944e-03" rms="4.0526384115219116e-01" purity="4.9250021576881409e-01" nType="0">
        <Node pos="l" depth="1" NCoef="0" IVar="11" Cut="8.7808454036712646e-01" cType="1" res="-4.4578768312931061e-02" rms="3.7270447611808777e-01" purity="6.4515179395675659e-01" nType="0">
          <Node pos="l" depth="2" NCoef="0" IVar="-1" Cut="0.0000000000000000e+00" cType="1" res="2.1336264908313751e-03" rms="3.3999156951904297e-01" purity="7.7713048458099365e-01" nType="-99"/>
          <Node pos="r" depth="2" NCoef="0" IVar="-1" Cut="0.0000000000000000e+00" cType="1" res="-3.5025435499846935e-03" rms="4.1052320599555969e-01" purity="4.3843236565589905e-01" nType="-99"/>
        </Node>
        <Node pos="r" depth="1" NCoef="0" IVar="18" Cut="5.1428570747375488e+00" cType="1" res="8.8392188772559166e-03" rms="4.1669914126396179e-01" purity="4.3091145157814026e-01" nType="0">
          <Node pos="l" depth="2" NCoef="0" IVar="-1" Cut="0.0000000000000000e+00" cType="1" res="8.0539111513644457e-04" rms="4.4575837254524231e-01" purity="6.4723551273345947e-01" nType="-99"/>
          <Node pos="r" depth="2" NCoef="0" IVar="-1" Cut="0.0000000000000000e+00" cType="1" res="-1.6372042591683567e-04" rms="4.0083703398704529e-01" purity="3.3008655905723572e-01" nType="-99"/>
        </Node>
      </Node>
    </BinaryTree>
    <BinaryTree type="DecisionTree" boostWeight="1.0000000000000000e+00" itree="863">
      <Node pos="s" depth="0" NCoef="0" IVar="0" Cut="1.1059523820877075e+00" cType="1" res="1.2378056533634663e-02" rms="3.9755159616470337e-01" purity="5.1449286937713623e-01" nType="0">
        <Node pos="l" depth="1" NCoef="0" IVar="5" Cut="1.7964230775833130e+00" cType="1" res="5.9153761714696884e-02" rms="3.7005919218063354e-01" purity="6.7809337377548218e-01" nType="0">
          <Node pos="l" depth="2" NCoef="0" IVar="-1" Cut="0.0000000000000000e+00" cType="1" res="-2.1354135242290795e-04" rms="3.5557192564010620e-01" purity="7.6956391334533691e-01" nType="-99"/>
          <Node pos="r" depth="2" NCoef="0" IVar="-1" Cut="0.0000000000000000e+00" cType="1" res="1.9034753495361656e-04" rms="4.1317823529243469e-01" purity="2.8954216837882996e-01" nType="-99"/>
        </Node>
        <Node pos="r" depth="1" NCoef="0" IVar="9" Cut="-1.4047619104385376e+00" cType="1" res="-6.6065471619367599e-03" rms="4.0664970874786377e-01" purity="4.4809317588806152e-01" nType="0">
          <Node pos="l" depth="2" NCoef="0" IVar="-1" Cut="0.0000000000000000e+00" cType="1" res="1.2246430851519108e-03" rms="4.1612708568572998e-01" purity="6.5603196620941162e-01" nType="-99"/>
          <Node pos="r" depth="2" NCoef="0" IVar="-1" Cut="0.0000000000000000e+00" cType="1" res="-1.8138108134735376e-04" rms="4.0472450852394104e-01" purity="4.2514386773109436e-01" nType="-99"/>
        </Node>
      </Node>
    </BinaryTree>
    <BinaryTree type="DecisionTree" boostWeight="1.0000000000000000e+00" itree="864">
      <Node pos="s" depth="0" NCoef="0" IVar="9" Cut="-1.4285714626312256e+00" cType="1" res="-2.0907139405608177e-03" rms="4.0004366636276245e-01" purity="4.9567177891731262e-01" nType="0">
        <Node pos="l" depth="1" NCoef="0" IVar="20" Cut="3.5241859436035156e+01" cType="0" res="4.9740057438611984e-02" rms="3.8058325648307800e-01" purity="6.4716237783432007e-01" nType="0">
          <Node pos="l" depth="2" NCoef="0" IVar="-1" Cut="0.0000000000000000e+00" cType="1" res="-2.8932520654052496e-03" rms="3.0341380834579468e-01" purity="7.6655000448226929e-01" nType="-99"/>
          <Node pos="r" depth="2" NCoef="0" IVar="-1" Cut="0.0000000000000000e+00" cType="1" res="4.1386185330338776e-04" rms="3.8868543505668640e-01" purity="6.2473082542419434e-01" nType="-99"/>
        </Node>
        <Node pos="r" depth="1" NCoef="0" IVar="15" Cut="4.1428570747375488e+00" cType="1" res="-1.5117825008928776e-02" rms="4.0374276041984558e-01" purity="4.5759627223014832e-01" nType="0">
          <Node pos="l" depth="2" NCoef="0" IVar="-1" Cut="0.0000000000000000e+00" cType="1" res="-5.8330241590738297e-03" rms="4.5384445786476135e-01" purity="5.4732400178909302e-01" nType="-99"/>
          <Node pos="r" depth="2" NCoef="0" IVar="-1" Cut="0.0000000000000000e+00" cType="1" res="2.9946723952889442e-04" rms="3.9799237251281738e-01" purity="4.5124942064285278e-01" nType="-99"/>
        </Node>
      </Node>
    </BinaryTree>
    <BinaryTree type="DecisionTree" boostWeight="1.0000000000000000e+00" itree="865">
      <Node pos="s" depth="0" NCoef="0" IVar="6" Cut="1.3338165283203125e+00" cType="1" res="-3.5112227778881788e-03" rms="4.0526393055915833e-01" purity="5.0116938352584839e-01" nType="0">
        <Node pos="l" depth="1" NCoef="0" IVar="17" Cut="6.0512565612792969e+01" cType="1" res="-4.0419556200504303e-02" rms="4.0221190452575684e-01" purity="6.0626006126403809e-01" nType="0">
          <Node pos="l" depth="2" NCoef="0" IVar="-1" Cut="0.0000000000000000e+00" cType="1" res="7.0009211776778102e-04" rms="3.9819118380546570e-01" purity="6.3791161775588989e-01" nType="-99"/>
          <Node pos="r" depth="2" NCoef="0" IVar="-1" Cut="0.0000000000000000e+00" cType="1" res="-7.0962891913950443e-03" rms="3.9132636785507202e-01" purity="3.5755902528762817e-01" nType="-99"/>
        </Node>
        <Node pos="r" depth="1" NCoef="0" IVar="7" Cut="-1.7142857313156128e+00" cType="1" res="1.4149995520710945e-02" rms="4.0552973747253418e-01" purity="4.5088183879852295e-01" nType="0">
          <Node pos="l" depth="2" NCoef="0" IVar="-1" Cut="0.0000000000000000e+00" cType="1" res="2.4029158521443605e-03" rms="3.9452546834945679e-01" purity="6.6046178340911865e-01" nType="-99"/>
          <Node pos="r" depth="2" NCoef="0" IVar="-1" Cut="0.0000000000000000e+00" cType="1" res="-2.9591115890070796e-04" rms="4.0627890825271606e-01" purity="4.2118161916732788e-01" nType="-99"/>
        </Node>
      </Node>
    </BinaryTree>
    <BinaryTree type="DecisionTree" boostWeight="1.0000000000000000e+00" itree="866">
      <Node pos="s" depth="0" NCoef="0" IVar="20" Cut="2.8815066814422607e+00" cType="0" res="1.3306418433785439e-02" rms="3.9923128485679626e-01" purity="5.1566654443740845e-01" nType="0">
        <Node pos="l" depth="1" NCoef="0" IVar="8" Cut="2.4261906147003174e+00" cType="0" res="2.0610265433788300e-02" rms="3.9834091067314148e-01" purity="5.2949208021163940e-01" nType="0">
          <Node pos="l" depth="2" NCoef="0" IVar="-1" Cut="0.0000000000000000e+00" cType="1" res="-1.5911797527223825e-04" rms="4.2422661185264587e-01" purity="5.9334099292755127e-01" nType="-99"/>
          <Node pos="r" depth="2" NCoef="0" IVar="-1" Cut="0.0000000000000000e+00" cType="1" res="1.4913617633283138e-04" rms="3.9546799659729004e-01" purity="5.2452588081359863e-01" nType="-99"/>
        </Node>
        <Node pos="r" depth="1" NCoef="0" IVar="0" Cut="1.1947382688522339e+00" cType="1" res="-5.4147504270076752e-02" rms="4.0112513303756714e-01" purity="3.8798207044601440e-01" nType="0">
          <Node pos="l" depth="2" NCoef="0" IVar="-1" Cut="0.0000000000000000e+00" cType="1" res="-4.1691334918141365e-03" rms="4.0855360031127930e-01" purity="3.8828697800636292e-01" nType="-99"/>
          <Node pos="r" depth="2" NCoef="0" IVar="-1" Cut="0.0000000000000000e+00" cType="1" res="-2.8839751030318439e-04" rms="3.8826480507850647e-01" purity="3.8781255483627319e-01" nType="-99"/>
        </Node>
      </Node>
    </BinaryTree>
    <BinaryTree type="DecisionTree" boostWeight="1.0000000000000000e+00" itree="867">
      <Node pos="s" depth="0" NCoef="0" IVar="15" Cut="9.8571424484252930e+00" cType="1" res="2.3154816590249538e-03" rms="4.0272948145866394e-01" purity="4.9981588125228882e-01" nType="0">
        <Node pos="l" depth="1" NCoef="0" IVar="0" Cut="3.6687520146369934e-01" cType="0" res="3.0739927664399147e-02" rms="3.5929372906684875e-01" purity="6.9966322183609009e-01" nType="0">
          <Node pos="l" depth="2" NCoef="0" IVar="-1" Cut="0.0000000000000000e+00" cType="1" res="5.0983438268303871e-04" rms="3.4907874464988708e-01" purity="7.1468609571456909e-01" nType="-99"/>
          <Node pos="r" depth="2" NCoef="0" IVar="-1" Cut="0.0000000000000000e+00" cType="1" res="-1.8306644633412361e-03" rms="4.3679377436637878e-01" purity="5.3406339883804321e-01" nType="-99"/>
        </Node>
        <Node pos="r" depth="1" NCoef="0" IVar="7" Cut="-1.6428647935390472e-01" cType="1" res="-1.2872426770627499e-02" rms="4.2333713173866272e-01" purity="3.9303222298622131e-01" nType="0">
          <Node pos="l" depth="2" NCoef="0" IVar="-1" Cut="0.0000000000000000e+00" cType="1" res="3.5738752922043204e-04" rms="4.1886928677558899e-01" purity="4.8184236884117126e-01" nType="-99"/>
          <Node pos="r" depth="2" NCoef="0" IVar="-1" Cut="0.0000000000000000e+00" cType="1" res="-5.0012243445962667e-04" rms="4.2342850565910339e-01" purity="3.4260696172714233e-01" nType="-99"/>
        </Node>
      </Node>
    </BinaryTree>
    <BinaryTree type="DecisionTree" boostWeight="1.0000000000000000e+00" itree="868">
      <Node pos="s" depth="0" NCoef="0" IVar="9" Cut="-7.1428570747375488e+00" cType="1" res="-2.1811824291944504e-02" rms="4.0874865651130676e-01" purity="4.7976607084274292e-01" nType="0">
        <Node pos="l" depth="1" NCoef="0" IVar="9" Cut="-9.3261909484863281e+00" cType="1" res="-1.0846769809722900e-01" rms="4.4425246119499207e-01" purity="5.5870187282562256e-01" nType="0">
          <Node pos="l" depth="2" NCoef="0" IVar="-1" Cut="0.0000000000000000e+00" cType="1" res="1.4734576689079404e-03" rms="3.8141477108001709e-01" purity="7.8606063127517700e-01" nType="-99"/>
          <Node pos="r" depth="2" NCoef="0" IVar="-1" Cut="0.0000000000000000e+00" cType="1" res="-5.7307360693812370e-03" rms="4.5615568757057190e-01" purity="2.8525304794311523e-01" nType="-99"/>
        </Node>
        <Node pos="r" depth="1" NCoef="0" IVar="5" Cut="8.7342929840087891e-01" cType="1" res="-1.6031822189688683e-02" rms="4.0561211109161377e-01" purity="4.7450101375579834e-01" nType="0">
          <Node pos="l" depth="2" NCoef="0" IVar="-1" Cut="0.0000000000000000e+00" cType="1" res="6.5163272665813565e-04" rms="2.8954753279685974e-01" purity="8.2113468647003174e-01" nType="-99"/>
          <Node pos="r" depth="2" NCoef="0" IVar="-1" Cut="0.0000000000000000e+00" cType="1" res="3.7509758840315044e-05" rms="4.1309583187103271e-01" purity="4.4540360569953918e-01" nType="-99"/>
        </Node>
      </Node>
    </BinaryTree>
    <BinaryTree type="DecisionTree" boostWeight="1.0000000000000000e+00" itree="869">
      <Node pos="s" depth="0" NCoef="0" IVar="9" Cut="-1.1428571701049805e+01" cType="1" res="-2.4785599671304226e-03" rms="4.0242263674736023e-01" purity="4.9267002940177917e-01" nType="0">
        <Node pos="l" depth="1" NCoef="0" IVar="9" Cut="-1.6821428298950195e+01" cType="1" res="-1.3455396890640259e-01" rms="4.6793308854103088e-01" purity="6.4864951372146606e-01" nType="0">
          <Node pos="l" depth="2" NCoef="0" IVar="-1" Cut="0.0000000000000000e+00" cType="1" res="3.8885369431227446e-03" rms="4.0940451622009277e-01" purity="7.9963797330856323e-01" nType="-99"/>
          <Node pos="r" depth="2" NCoef="0" IVar="-1" Cut="0.0000000000000000e+00" cType="1" res="1.1931409826502204e-03" rms="4.7593626379966736e-01" purity="4.9704238772392273e-01" nType="-99"/>
        </Node>
        <Node pos="r" depth="1" NCoef="0" IVar="8" Cut="8.0309524536132812e+00" cType="1" res="2.0483969710767269e-03" rms="3.9921331405639648e-01" purity="4.8732376098632812e-01" nType="0">
          <Node pos="l" depth="2" NCoef="0" IVar="-1" Cut="0.0000000000000000e+00" cType="1" res="-9.8768199677579105e-05" rms="3.9757066965103149e-01" purity="4.8993477225303650e-01" nType="-99"/>
          <Node pos="r" depth="2" NCoef="0" IVar="-1" Cut="0.0000000000000000e+00" cType="1" res="9.7211514366790652e-04" rms="4.5219844579696655e-01" purity="3.6053326725959778e-01" nType="-99"/>
        </Node>
      </Node>
    </BinaryTree>
    <BinaryTree type="DecisionTree" boostWeight="1.0000000000000000e+00" itree="870">
      <Node pos="s" depth="0" NCoef="0" IVar="12" Cut="1.4285714924335480e-01" cType="1" res="-5.7588280178606510e-03" rms="4.0442192554473877e-01" purity="5.0205504894256592e-01" nType="0">
        <Node pos="l" depth="1" NCoef="0" IVar="18" Cut="2.3333332538604736e+00" cType="1" res="-4.6511568129062653e-02" rms="3.8908338546752930e-01" purity="5.7497453689575195e-01" nType="0">
          <Node pos="l" depth="2" NCoef="0" IVar="-1" Cut="0.0000000000000000e+00" cType="1" res="2.4462898727506399e-04" rms="3.4014055132865906e-01" purity="7.0455902814865112e-01" nType="-99"/>
          <Node pos="r" depth="2" NCoef="0" IVar="-1" Cut="0.0000000000000000e+00" cType="1" res="-3.0996147543191910e-03" rms="4.2375287413597107e-01" purity="4.5557948946952820e-01" nType="-99"/>
        </Node>
        <Node pos="r" depth="1" NCoef="0" IVar="20" Cut="6.7289039611816406e+01" cType="1" res="3.6078821867704391e-03" rms="4.0728992223739624e-01" purity="4.8529511690139771e-01" nType="0">
          <Node pos="l" depth="2" NCoef="0" IVar="-1" Cut="0.0000000000000000e+00" cType="1" res="3.9024918805807829e-04" rms="4.0760111808776855e-01" purity="4.9198770523071289e-01" nType="-99"/>
          <Node pos="r" depth="2" NCoef="0" IVar="-1" Cut="0.0000000000000000e+00" cType="1" res="-2.2811014205217361e-03" rms="3.8466116786003113e-01" purity="3.2708832621574402e-01" nType="-99"/>
        </Node>
      </Node>
    </BinaryTree>
    <BinaryTree type="DecisionTree" boostWeight="1.0000000000000000e+00" itree="871">
      <Node pos="s" depth="0" NCoef="0" IVar="7" Cut="8.3571463823318481e-01" cType="1" res="-8.5371742025017738e-03" rms="4.0359869599342346e-01" purity="4.8723995685577393e-01" nType="0">
        <Node pos="l" depth="1" NCoef="0" IVar="7" Cut="-6.6666662693023682e-01" cType="1" res="4.8943688161671162e-03" rms="3.9997592568397522e-01" purity="5.1799440383911133e-01" nType="0">
          <Node pos="l" depth="2" NCoef="0" IVar="-1" Cut="0.0000000000000000e+00" cType="1" res="-5.1060254918411374e-04" rms="4.1051986813545227e-01" purity="5.4707330465316772e-01" nType="-99"/>
          <Node pos="r" depth="2" NCoef="0" IVar="-1" Cut="0.0000000000000000e+00" cType="1" res="2.3596710525453091e-04" rms="3.9344042539596558e-01" purity="5.0385951995849609e-01" nType="-99"/>
        </Node>
        <Node pos="r" depth="1" NCoef="0" IVar="4" Cut="1.5237528085708618e+00" cType="1" res="-6.7204006016254425e-02" rms="4.1397777199745178e-01" purity="3.5290932655334473e-01" nType="0">
          <Node pos="l" depth="2" NCoef="0" IVar="-1" Cut="0.0000000000000000e+00" cType="1" res="-4.1808933019638062e-03" rms="4.4906544685363770e-01" purity="4.6242573857307434e-01" nType="-99"/>
          <Node pos="r" depth="2" NCoef="0" IVar="-1" Cut="0.0000000000000000e+00" cType="1" res="1.2956694699823856e-03" rms="3.8761407136917114e-01" purity="3.0086770653724670e-01" nType="-99"/>
        </Node>
      </Node>
    </BinaryTree>
    <BinaryTree type="DecisionTree" boostWeight="1.0000000000000000e+00" itree="872">
      <Node pos="s" depth="0" NCoef="0" IVar="4" Cut="1.7794172763824463e+00" cType="1" res="-2.4193378631025553e-03" rms="4.0418648719787598e-01" purity="5.0587642192840576e-01" nType="0">
        <Node pos="l" depth="1" NCoef="0" IVar="8" Cut="2.4261906147003174e+00" cType="1" res="1.6781652346253395e-02" rms="3.8401931524276733e-01" purity="7.3032408952713013e-01" nType="0">
          <Node pos="l" depth="2" NCoef="0" IVar="-1" Cut="0.0000000000000000e+00" cType="1" res="8.4670376963913441e-04" rms="3.7494856119155884e-01" purity="7.8322291374206543e-01" nType="-99"/>
          <Node pos="r" depth="2" NCoef="0" IVar="-1" Cut="0.0000000000000000e+00" cType="1" res="-2.1916292607784271e-03" rms="4.1294533014297485e-01" purity="4.1773244738578796e-01" nType="-99"/>
        </Node>
        <Node pos="r" depth="1" NCoef="0" IVar="8" Cut="1.8285715579986572e+00" cType="0" res="-1.5803284943103790e-02" rms="4.1714593768119812e-01" purity="3.4942638874053955e-01" nType="0">
          <Node pos="l" depth="2" NCoef="0" IVar="-1" Cut="0.0000000000000000e+00" cType="1" res="1.7126529710367322e-03" rms="4.1033583879470825e-01" purity="3.8542917370796204e-01" nType="-99"/>
          <Node pos="r" depth="2" NCoef="0" IVar="-1" Cut="0.0000000000000000e+00" cType="1" res="-3.5457513877190650e-04" rms="4.1630813479423523e-01" purity="3.4614050388336182e-01" nType="-99"/>
        </Node>
      </Node>
    </BinaryTree>
    <BinaryTree type="DecisionTree" boostWeight="1.0000000000000000e+00" itree="873">
      <Node pos="s" depth="0" NCoef="0" IVar="7" Cut="-7.6285715103149414e+00" cType="1" res="-6.9889561273157597e-03" rms="3.9936810731887817e-01" purity="4.8499158024787903e-01" nType="0">
        <Node pos="l" depth="1" NCoef="0" IVar="1" Cut="4.9523811340332031e+00" cType="1" res="-1.3239331543445587e-01" rms="4.0861079096794128e-01" purity="5.9945720434188843e-01" nType="0">
          <Node pos="l" depth="2" NCoef="0" IVar="-1" Cut="0.0000000000000000e+00" cType="1" res="2.3807438556104898e-03" rms="2.9075482487678528e-01" purity="9.0391331911087036e-01" nType="-99"/>
          <Node pos="r" depth="2" NCoef="0" IVar="-1" Cut="0.0000000000000000e+00" cType="1" res="-5.2961418405175209e-03" rms="4.3472242355346680e-01" purity="3.8181909918785095e-01" nType="-99"/>
        </Node>
        <Node pos="r" depth="1" NCoef="0" IVar="20" Cut="2.8815066814422607e+00" cType="0" res="-1.6078078188002110e-03" rms="3.9808374643325806e-01" purity="4.8007982969284058e-01" nType="0">
          <Node pos="l" depth="2" NCoef="0" IVar="-1" Cut="0.0000000000000000e+00" cType="1" res="2.6228139176964760e-04" rms="3.9688751101493835e-01" purity="4.9157625436782837e-01" nType="-99"/>
          <Node pos="r" depth="2" NCoef="0" IVar="-1" Cut="0.0000000000000000e+00" cType="1" res="-1.9290081690996885e-03" rms="4.0092453360557556e-01" purity="3.6705645918846130e-01" nType="-99"/>
        </Node>
      </Node>
    </BinaryTree>
    <BinaryTree type="DecisionTree" boostWeight="1.0000000000000000e+00" itree="874">
      <Node pos="s" depth="0" NCoef="0" IVar="3" Cut="5.8571429252624512e+00" cType="0" res="7.6474188826978207e-03" rms="3.9663901925086975e-01" purity="5.0272989273071289e-01" nType="0">
        <Node pos="l" depth="1" NCoef="0" IVar="5" Cut="1.4870955944061279e+00" cType="0" res="1.5059955418109894e-01" rms="3.7871101498603821e-01" purity="7.1780842542648315e-01" nType="0">
          <Node pos="l" depth="2" NCoef="0" IVar="-1" Cut="0.0000000000000000e+00" cType="1" res="4.9665854312479496e-03" rms="3.2235452532768250e-01" purity="7.4158161878585815e-01" nType="-99"/>
          <Node pos="r" depth="2" NCoef="0" IVar="-1" Cut="0.0000000000000000e+00" cType="1" res="-2.9836820904165506e-03" rms="3.9256656169891357e-01" purity="7.0059353113174438e-01" nType="-99"/>
        </Node>
        <Node pos="r" depth="1" NCoef="0" IVar="3" Cut="4.0476188659667969e+00" cType="0" res="1.8213565926998854e-03" rms="3.9626029133796692e-01" purity="4.9396431446075439e-01" nType="0">
          <Node pos="l" depth="2" NCoef="0" IVar="-1" Cut="0.0000000000000000e+00" cType="1" res="5.0663584261201322e-05" rms="3.8701272010803223e-01" purity="6.2590014934539795e-01" nType="-99"/>
          <Node pos="r" depth="2" NCoef="0" IVar="-1" Cut="0.0000000000000000e+00" cType="1" res="-1.0303575982106850e-04" rms="3.9572641253471375e-01" purity="4.8460870981216431e-01" nType="-99"/>
        </Node>
      </Node>
    </BinaryTree>
    <BinaryTree type="DecisionTree" boostWeight="1.0000000000000000e+00" itree="875">
      <Node pos="s" depth="0" NCoef="0" IVar="20" Cut="7.3729797363281250e+01" cType="1" res="-1.9334902986884117e-02" rms="4.0288645029067993e-01" purity="4.7369152307510376e-01" nType="0">
        <Node pos="l" depth="1" NCoef="0" IVar="20" Cut="2.1812252044677734e+01" cType="0" res="-1.5514228492975235e-02" rms="4.0343511104583740e-01" purity="4.8010033369064331e-01" nType="0">
          <Node pos="l" depth="2" NCoef="0" IVar="-1" Cut="0.0000000000000000e+00" cType="1" res="1.4133963268250227e-03" rms="4.0531083941459656e-01" purity="5.3774261474609375e-01" nType="-99"/>
          <Node pos="r" depth="2" NCoef="0" IVar="-1" Cut="0.0000000000000000e+00" cType="1" res="-6.5966357942670584e-04" rms="4.0138602256774902e-01" purity="4.4941022992134094e-01" nType="-99"/>
        </Node>
        <Node pos="r" depth="1" NCoef="0" IVar="-1" Cut="0.0000000000000000e+00" cType="1" res="-2.5831426028162241e-03" rms="3.5450872778892517e-01" purity="2.3761627078056335e-01" nType="-99"/>
      </Node>
    </BinaryTree>
    <BinaryTree type="DecisionTree" boostWeight="1.0000000000000000e+00" itree="876">
      <Node pos="s" depth="0" NCoef="0" IVar="6" Cut="4.4393610954284668e-01" cType="1" res="1.6696220263838768e-03" rms="3.9970466494560242e-01" purity="4.9145665764808655e-01" nType="0">
        <Node pos="l" depth="1" NCoef="0" IVar="-1" Cut="0.0000000000000000e+00" cType="1" res="-4.6735662035644054e-03" rms="5.0303226709365845e-01" purity="5.0596219301223755e-01" nType="-99"/>
        <Node pos="r" depth="1" NCoef="0" IVar="9" Cut="-1.4285714626312256e+00" cType="1" res="4.2527928017079830e-03" rms="3.9736315608024597e-01" purity="4.9123555421829224e-01" nType="0">
          <Node pos="l" depth="2" NCoef="0" IVar="-1" Cut="0.0000000000000000e+00" cType="1" res="9.0154419012833387e-05" rms="3.8513946533203125e-01" purity="6.4920043945312500e-01" nType="-99"/>
          <Node pos="r" depth="2" NCoef="0" IVar="-1" Cut="0.0000000000000000e+00" cType="1" res="-1.0219752766715828e-05" rms="3.9938667416572571e-01" purity="4.5282447338104248e-01" nType="-99"/>
        </Node>
      </Node>
    </BinaryTree>
    <BinaryTree type="DecisionTree" boostWeight="1.0000000000000000e+00" itree="877">
      <Node pos="s" depth="0" NCoef="0" IVar="8" Cut="2.4261906147003174e+00" cType="1" res="7.8635700047016144e-03" rms="4.0036877989768982e-01" purity="5.0846785306930542e-01" nType="0">
        <Node pos="l" depth="1" NCoef="0" IVar="15" Cut="8.4285717010498047e+00" cType="1" res="1.5315752476453781e-02" rms="3.9530658721923828e-01" purity="5.2047157287597656e-01" nType="0">
          <Node pos="l" depth="2" NCoef="0" IVar="-1" Cut="0.0000000000000000e+00" cType="1" res="8.1071630120277405e-04" rms="3.5356757044792175e-01" purity="7.9727494716644287e-01" nType="-99"/>
          <Node pos="r" depth="2" NCoef="0" IVar="-1" Cut="0.0000000000000000e+00" cType="1" res="-1.9861749024130404e-04" rms="4.0599307417869568e-01" purity="4.3737554550170898e-01" nType="-99"/>
        </Node>
        <Node pos="r" depth="1" NCoef="0" IVar="6" Cut="1.6156176328659058e+00" cType="0" res="-5.8902807533740997e-02" rms="4.3752321600914001e-01" purity="4.0092256665229797e-01" nType="0">
          <Node pos="l" depth="2" NCoef="0" IVar="-1" Cut="0.0000000000000000e+00" cType="1" res="3.3198166638612747e-03" rms="4.0142005681991577e-01" purity="4.3886810541152954e-01" nType="-99"/>
          <Node pos="r" depth="2" NCoef="0" IVar="-1" Cut="0.0000000000000000e+00" cType="1" res="-1.3740755384787917e-03" rms="4.3204084038734436e-01" purity="3.9153838157653809e-01" nType="-99"/>
        </Node>
      </Node>
    </BinaryTree>
    <BinaryTree type="DecisionTree" boostWeight="1.0000000000000000e+00" itree="878">
      <Node pos="s" depth="0" NCoef="0" IVar="3" Cut="5.8571429252624512e+00" cType="0" res="1.2942351168021560e-04" rms="4.0334069728851318e-01" purity="5.0898176431655884e-01" nType="0">
        <Node pos="l" depth="1" NCoef="0" IVar="4" Cut="1.6856359243392944e+00" cType="0" res="1.1551598459482193e-01" rms="4.1202038526535034e-01" purity="6.8794202804565430e-01" nType="0">
          <Node pos="l" depth="2" NCoef="0" IVar="-1" Cut="0.0000000000000000e+00" cType="1" res="1.8156250007450581e-03" rms="3.8056376576423645e-01" purity="7.2140008211135864e-01" nType="-99"/>
          <Node pos="r" depth="2" NCoef="0" IVar="-1" Cut="0.0000000000000000e+00" cType="1" res="-2.0262429025024176e-03" rms="4.0424108505249023e-01" purity="6.3829874992370605e-01" nType="-99"/>
        </Node>
        <Node pos="r" depth="1" NCoef="0" IVar="20" Cut="2.2203767776489258e+01" cType="0" res="-4.8548290506005287e-03" rms="4.0221643447875977e-01" purity="5.0125133991241455e-01" nType="0">
          <Node pos="l" depth="2" NCoef="0" IVar="-1" Cut="0.0000000000000000e+00" cType="1" res="8.9702685363590717e-04" rms="3.9057603478431702e-01" purity="5.4363697767257690e-01" nType="-99"/>
          <Node pos="r" depth="2" NCoef="0" IVar="-1" Cut="0.0000000000000000e+00" cType="1" res="-6.1759533127769828e-04" rms="4.0744790434837341e-01" purity="4.7817885875701904e-01" nType="-99"/>
        </Node>
      </Node>
    </BinaryTree>
    <BinaryTree type="DecisionTree" boostWeight="1.0000000000000000e+00" itree="879">
      <Node pos="s" depth="0" NCoef="0" IVar="9" Cut="-1.4285714149475098e+01" cType="1" res="-7.2048506699502468e-03" rms="4.0659031271934509e-01" purity="4.8635190725326538e-01" nType="0">
        <Node pos="l" depth="1" NCoef="0" IVar="-1" Cut="0.0000000000000000e+00" cType="1" res="-1.5328092267736793e-03" rms="4.8437947034835815e-01" purity="5.6264364719390869e-01" nType="-99"/>
        <Node pos="r" depth="1" NCoef="0" IVar="15" Cut="1.5857142448425293e+01" cType="1" res="-2.0670429803431034e-03" rms="4.0310534834861755e-01" purity="4.8442575335502625e-01" nType="0">
          <Node pos="l" depth="2" NCoef="0" IVar="-1" Cut="0.0000000000000000e+00" cType="1" res="-1.1619083670666441e-04" rms="4.1745790839195251e-01" purity="5.6167197227478027e-01" nType="-99"/>
          <Node pos="r" depth="2" NCoef="0" IVar="-1" Cut="0.0000000000000000e+00" cType="1" res="1.3049007975496352e-04" rms="3.7283667922019958e-01" purity="3.4027758240699768e-01" nType="-99"/>
        </Node>
      </Node>
    </BinaryTree>
    <BinaryTree type="DecisionTree" boostWeight="1.0000000000000000e+00" itree="880">
      <Node pos="s" depth="0" NCoef="0" IVar="0" Cut="4.4540309906005859e-01" cType="1" res="5.8537200093269348e-03" rms="4.0273773670196533e-01" purity="5.0672060251235962e-01" nType="0">
        <Node pos="l" depth="1" NCoef="0" IVar="10" Cut="1.0378988981246948e+00" cType="1" res="7.3939055204391479e-02" rms="3.7735286355018616e-01" purity="6.5777522325515747e-01" nType="0">
          <Node pos="l" depth="2" NCoef="0" IVar="-1" Cut="0.0000000000000000e+00" cType="1" res="-2.4380777031183243e-03" rms="2.2205619513988495e-01" purity="9.5782458782196045e-01" nType="-99"/>
          <Node pos="r" depth="2" NCoef="0" IVar="-1" Cut="0.0000000000000000e+00" cType="1" res="-1.9800807058345526e-04" rms="4.2670267820358276e-01" purity="4.8243656754493713e-01" nType="-99"/>
        </Node>
        <Node pos="r" depth="1" NCoef="0" IVar="15" Cut="4.1428570747375488e+00" cType="1" res="1.8428192706778646e-03" rms="4.0382555127143860e-01" purity="4.9782198667526245e-01" nType="0">
          <Node pos="l" depth="2" NCoef="0" IVar="-1" Cut="0.0000000000000000e+00" cType="1" res="-2.6894800830632448e-03" rms="4.0334039926528931e-01" purity="6.4354926347732544e-01" nType="-99"/>
          <Node pos="r" depth="2" NCoef="0" IVar="-1" Cut="0.0000000000000000e+00" cType="1" res="1.8834207730833441e-04" rms="4.0358027815818787e-01" purity="4.8695206642150879e-01" nType="-99"/>
        </Node>
      </Node>
    </BinaryTree>
    <BinaryTree type="DecisionTree" boostWeight="1.0000000000000000e+00" itree="881">
      <Node pos="s" depth="0" NCoef="0" IVar="6" Cut="6.7065101861953735e-01" cType="1" res="-1.4313637278974056e-02" rms="4.0161836147308350e-01" purity="4.7866490483283997e-01" nType="0">
        <Node pos="l" depth="1" NCoef="0" IVar="-1" Cut="0.0000000000000000e+00" cType="1" res="-8.1220746506005526e-04" rms="4.6384927630424500e-01" purity="5.0291180610656738e-01" nType="-99"/>
        <Node pos="r" depth="1" NCoef="0" IVar="20" Cut="1.5763013839721680e+01" cType="1" res="-1.0631693527102470e-02" rms="3.9905643463134766e-01" purity="4.7795638442039490e-01" nType="0">
          <Node pos="l" depth="2" NCoef="0" IVar="-1" Cut="0.0000000000000000e+00" cType="1" res="-3.1251585460267961e-04" rms="4.0047720074653625e-01" purity="5.3445595502853394e-01" nType="-99"/>
          <Node pos="r" depth="2" NCoef="0" IVar="-1" Cut="0.0000000000000000e+00" cType="1" res="2.1764988196082413e-04" rms="3.9744323492050171e-01" purity="4.3574562668800354e-01" nType="-99"/>
        </Node>
      </Node>
    </BinaryTree>
    <BinaryTree type="DecisionTree" boostWeight="1.0000000000000000e+00" itree="882">
      <Node pos="s" depth="0" NCoef="0" IVar="15" Cut="8.0000000000000000e+00" cType="1" res="7.4829645454883575e-03" rms="4.0072971582412720e-01" purity="5.0074946880340576e-01" nType="0">
        <Node pos="l" depth="1" NCoef="0" IVar="15" Cut="7.4761905670166016e+00" cType="1" res="3.8357481360435486e-02" rms="3.7293788790702820e-01" purity="7.3903524875640869e-01" nType="0">
          <Node pos="l" depth="2" NCoef="0" IVar="-1" Cut="0.0000000000000000e+00" cType="1" res="1.4626129996031523e-03" rms="3.4791734814643860e-01" purity="7.9583013057708740e-01" nType="-99"/>
          <Node pos="r" depth="2" NCoef="0" IVar="-1" Cut="0.0000000000000000e+00" cType="1" res="-2.7204649522900581e-03" rms="4.5559245347976685e-01" purity="4.7297394275665283e-01" nType="-99"/>
        </Node>
        <Node pos="r" depth="1" NCoef="0" IVar="9" Cut="-1.4285714626312256e+00" cType="0" res="-2.6822544168680906e-03" rms="4.0895769000053406e-01" purity="4.2229554057121277e-01" nType="0">
          <Node pos="l" depth="2" NCoef="0" IVar="-1" Cut="0.0000000000000000e+00" cType="1" res="3.0167214572429657e-04" rms="4.0197315812110901e-01" purity="4.2513751983642578e-01" nType="-99"/>
          <Node pos="r" depth="2" NCoef="0" IVar="-1" Cut="0.0000000000000000e+00" cType="1" res="-2.1227824036031961e-03" rms="4.3353289365768433e-01" purity="4.0898877382278442e-01" nType="-99"/>
        </Node>
      </Node>
    </BinaryTree>
    <BinaryTree type="DecisionTree" boostWeight="1.0000000000000000e+00" itree="883">
      <Node pos="s" depth="0" NCoef="0" IVar="7" Cut="-3.6166660785675049e+00" cType="1" res="-9.6015650779008865e-03" rms="4.0312606096267700e-01" purity="4.9189198017120361e-01" nType="0">
        <Node pos="l" depth="1" NCoef="0" IVar="20" Cut="3.6381740570068359e+01" cType="1" res="7.2189413011074066e-02" rms="3.4562659263610840e-01" purity="7.4086230993270874e-01" nType="0">
          <Node pos="l" depth="2" NCoef="0" IVar="-1" Cut="0.0000000000000000e+00" cType="1" res="7.3805125430226326e-04" rms="2.9882481694221497e-01" purity="7.7886795997619629e-01" nType="-99"/>
          <Node pos="r" depth="2" NCoef="0" IVar="-1" Cut="0.0000000000000000e+00" cType="1" res="-1.9293808145448565e-03" rms="4.3951004743576050e-01" purity="6.1764794588088989e-01" nType="-99"/>
        </Node>
        <Node pos="r" depth="1" NCoef="0" IVar="20" Cut="3.0746324539184570e+01" cType="0" res="-1.6108108684420586e-02" rms="4.0664604306221008e-01" purity="4.7208616137504578e-01" nType="0">
          <Node pos="l" depth="2" NCoef="0" IVar="-1" Cut="0.0000000000000000e+00" cType="1" res="-7.2608405025675893e-04" rms="4.1776973009109497e-01" purity="4.8065662384033203e-01" nType="-99"/>
          <Node pos="r" depth="2" NCoef="0" IVar="-1" Cut="0.0000000000000000e+00" cType="1" res="1.2444051390048116e-04" rms="4.0310078859329224e-01" purity="4.6977666020393372e-01" nType="-99"/>
        </Node>
      </Node>
    </BinaryTree>
    <BinaryTree type="DecisionTree" boostWeight="1.0000000000000000e+00" itree="884">
      <Node pos="s" depth="0" NCoef="0" IVar="7" Cut="3.9214291572570801e+00" cType="0" res="1.8104512244462967e-02" rms="4.0061497688293457e-01" purity="5.2232372760772705e-01" nType="0">
        <Node pos="l" depth="1" NCoef="0" IVar="-1" Cut="0.0000000000000000e+00" cType="1" res="9.3083688989281654e-04" rms="4.1043943166732788e-01" purity="5.5606377124786377e-01" nType="-99"/>
        <Node pos="r" depth="1" NCoef="0" IVar="20" Cut="2.8644519805908203e+01" cType="0" res="1.4711447060108185e-02" rms="3.9973556995391846e-01" purity="5.2156770229339600e-01" nType="0">
          <Node pos="l" depth="2" NCoef="0" IVar="-1" Cut="0.0000000000000000e+00" cType="1" res="4.8060933477245271e-04" rms="3.9502662420272827e-01" purity="5.8467411994934082e-01" nType="-99"/>
          <Node pos="r" depth="2" NCoef="0" IVar="-1" Cut="0.0000000000000000e+00" cType="1" res="-2.3043148394208401e-04" rms="4.0057632327079773e-01" purity="5.0216269493103027e-01" nType="-99"/>
        </Node>
      </Node>
    </BinaryTree>
    <BinaryTree type="DecisionTree" boostWeight="1.0000000000000000e+00" itree="885">
      <Node pos="s" depth="0" NCoef="0" IVar="0" Cut="6.6265022754669189e-01" cType="1" res="2.9509277082979679e-03" rms="4.0150600671768188e-01" purity="5.0743287801742554e-01" nType="0">
        <Node pos="l" depth="1" NCoef="0" IVar="20" Cut="2.1248643875122070e+01" cType="0" res="6.2005739659070969e-02" rms="3.7988096475601196e-01" purity="6.7330330610275269e-01" nType="0">
          <Node pos="l" depth="2" NCoef="0" IVar="-1" Cut="0.0000000000000000e+00" cType="1" res="6.1411843635141850e-03" rms="2.8604111075401306e-01" purity="8.5112881660461426e-01" nType="-99"/>
          <Node pos="r" depth="2" NCoef="0" IVar="-1" Cut="0.0000000000000000e+00" cType="1" res="-2.4100134614855051e-03" rms="4.0024620294570923e-01" purity="5.9975010156631470e-01" nType="-99"/>
        </Node>
        <Node pos="r" depth="1" NCoef="0" IVar="0" Cut="8.5241281986236572e-01" cType="1" res="-4.8723556101322174e-03" rms="4.0363642573356628e-01" purity="4.8545923829078674e-01" nType="0">
          <Node pos="l" depth="2" NCoef="0" IVar="-1" Cut="0.0000000000000000e+00" cType="1" res="-1.2743129627779126e-03" rms="4.1688793897628784e-01" purity="5.2382624149322510e-01" nType="-99"/>
          <Node pos="r" depth="2" NCoef="0" IVar="-1" Cut="0.0000000000000000e+00" cType="1" res="1.3710981875192374e-04" rms="4.0157130360603333e-01" purity="4.8095670342445374e-01" nType="-99"/>
        </Node>
      </Node>
    </BinaryTree>
    <BinaryTree type="DecisionTree" boostWeight="1.0000000000000000e+00" itree="886">
      <Node pos="s" depth="0" NCoef="0" IVar="0" Cut="4.4540309906005859e-01" cType="1" res="4.4029094278812408e-03" rms="4.0253511071205139e-01" purity="5.0946635007858276e-01" nType="0">
        <Node pos="l" depth="1" NCoef="0" IVar="8" Cut="2.4261906147003174e+00" cType="0" res="-6.9979339838027954e-02" rms="4.5005232095718384e-01" purity="5.3440243005752563e-01" nType="0">
          <Node pos="l" depth="2" NCoef="0" IVar="-1" Cut="0.0000000000000000e+00" cType="1" res="8.0235805362462997e-03" rms="4.3159684538841248e-01" purity="6.6616404056549072e-01" nType="-99"/>
          <Node pos="r" depth="2" NCoef="0" IVar="-1" Cut="0.0000000000000000e+00" cType="1" res="-4.2805173434317112e-03" rms="4.3747448921203613e-01" purity="4.9719256162643433e-01" nType="-99"/>
        </Node>
        <Node pos="r" depth="1" NCoef="0" IVar="5" Cut="8.9799594879150391e-01" cType="1" res="1.0011390782892704e-02" rms="3.9815980195999146e-01" purity="5.0758618116378784e-01" nType="0">
          <Node pos="l" depth="2" NCoef="0" IVar="-1" Cut="0.0000000000000000e+00" cType="1" res="-7.8023067908361554e-04" rms="3.0160218477249146e-01" purity="8.4464019536972046e-01" nType="-99"/>
          <Node pos="r" depth="2" NCoef="0" IVar="-1" Cut="0.0000000000000000e+00" cType="1" res="7.7343524026218802e-05" rms="4.0533140301704407e-01" purity="4.7697770595550537e-01" nType="-99"/>
        </Node>
      </Node>
    </BinaryTree>
    <BinaryTree type="DecisionTree" boostWeight="1.0000000000000000e+00" itree="887">
      <Node pos="s" depth="0" NCoef="0" IVar="3" Cut="4.4761905670166016e+00" cType="0" res="-2.9854339081794024e-03" rms="4.0742358565330505e-01" purity="5.0516802072525024e-01" nType="0">
        <Node pos="l" depth="1" NCoef="0" IVar="20" Cut="3.2826766967773438e+01" cType="1" res="5.5962610989809036e-02" rms="4.0845409035682678e-01" purity="6.0967087745666504e-01" nType="0">
          <Node pos="l" depth="2" NCoef="0" IVar="-1" Cut="0.0000000000000000e+00" cType="1" res="1.0861353948712349e-03" rms="3.7622734904289246e-01" purity="6.6078364849090576e-01" nType="-99"/>
          <Node pos="r" depth="2" NCoef="0" IVar="-1" Cut="0.0000000000000000e+00" cType="1" res="-3.7898349110037088e-03" rms="4.6370723843574524e-01" purity="3.8440203666687012e-01" nType="-99"/>
        </Node>
        <Node pos="r" depth="1" NCoef="0" IVar="10" Cut="9.1916626691818237e-01" cType="1" res="-9.8290033638477325e-03" rms="4.0675067901611328e-01" purity="4.9303579330444336e-01" nType="0">
          <Node pos="l" depth="2" NCoef="0" IVar="-1" Cut="0.0000000000000000e+00" cType="1" res="3.8667672779411077e-03" rms="3.3683776855468750e-01" purity="7.6162934303283691e-01" nType="-99"/>
          <Node pos="r" depth="2" NCoef="0" IVar="-1" Cut="0.0000000000000000e+00" cType="1" res="-5.5344554129987955e-04" rms="4.1785264015197754e-01" purity="4.4247534871101379e-01" nType="-99"/>
        </Node>
      </Node>
    </BinaryTree>
    <BinaryTree type="DecisionTree" boostWeight="1.0000000000000000e+00" itree="888">
      <Node pos="s" depth="0" NCoef="0" IVar="4" Cut="1.5864782333374023e+00" cType="1" res="1.9337453413754702e-03" rms="3.9932796359062195e-01" purity="4.9034401774406433e-01" nType="0">
        <Node pos="l" depth="1" NCoef="0" IVar="15" Cut="8.4285717010498047e+00" cType="1" res="-3.5197477787733078e-02" rms="3.9989277720451355e-01" purity="6.8196940422058105e-01" nType="0">
          <Node pos="l" depth="2" NCoef="0" IVar="-1" Cut="0.0000000000000000e+00" cType="1" res="3.5068732686340809e-03" rms="3.3815002441406250e-01" purity="8.4065109491348267e-01" nType="-99"/>
          <Node pos="r" depth="2" NCoef="0" IVar="-1" Cut="0.0000000000000000e+00" cType="1" res="-2.3506104480475187e-03" rms="4.3481314182281494e-01" purity="5.5263257026672363e-01" nType="-99"/>
        </Node>
        <Node pos="r" depth="1" NCoef="0" IVar="0" Cut="2.6724183559417725e+00" cType="1" res="1.9448053091764450e-02" rms="3.9786028861999512e-01" purity="3.9995679259300232e-01" nType="0">
          <Node pos="l" depth="2" NCoef="0" IVar="-1" Cut="0.0000000000000000e+00" cType="1" res="4.5300109195522964e-04" rms="4.1890776157379150e-01" purity="4.7495105862617493e-01" nType="-99"/>
          <Node pos="r" depth="2" NCoef="0" IVar="-1" Cut="0.0000000000000000e+00" cType="1" res="-1.7165001481771469e-03" rms="2.9836663603782654e-01" purity="1.2107340246438980e-01" nType="-99"/>
        </Node>
      </Node>
    </BinaryTree>
    <BinaryTree type="DecisionTree" boostWeight="1.0000000000000000e+00" itree="889">
      <Node pos="s" depth="0" NCoef="0" IVar="20" Cut="5.1119487762451172e+01" cType="1" res="9.9327936768531799e-03" rms="4.0726494789123535e-01" purity="5.1354199647903442e-01" nType="0">
        <Node pos="l" depth="1" NCoef="0" IVar="20" Cut="1.0367192268371582e+01" cType="1" res="1.7498245462775230e-02" rms="4.0724015235900879e-01" purity="5.2302324771881104e-01" nType="0">
          <Node pos="l" depth="2" NCoef="0" IVar="-1" Cut="0.0000000000000000e+00" cType="1" res="7.3115086706820875e-05" rms="4.0153837203979492e-01" purity="5.9399765729904175e-01" nType="-99"/>
          <Node pos="r" depth="2" NCoef="0" IVar="-1" Cut="0.0000000000000000e+00" cType="1" res="-5.1368686399655417e-05" rms="4.0900689363479614e-01" purity="4.9410182237625122e-01" nType="-99"/>
        </Node>
        <Node pos="r" depth="1" NCoef="0" IVar="11" Cut="8.4517538547515869e-01" cType="1" res="-7.1997910737991333e-02" rms="3.9843568205833435e-01" purity="4.1086396574974060e-01" nType="0">
          <Node pos="l" depth="2" NCoef="0" IVar="-1" Cut="0.0000000000000000e+00" cType="1" res="3.2898320350795984e-03" rms="3.7633347511291504e-01" purity="5.5452626943588257e-01" nType="-99"/>
          <Node pos="r" depth="2" NCoef="0" IVar="-1" Cut="0.0000000000000000e+00" cType="1" res="-2.7847478631883860e-03" rms="4.0359514951705933e-01" purity="2.8227412700653076e-01" nType="-99"/>
        </Node>
      </Node>
    </BinaryTree>
    <BinaryTree type="DecisionTree" boostWeight="1.0000000000000000e+00" itree="890">
      <Node pos="s" depth="0" NCoef="0" IVar="20" Cut="2.8815066814422607e+00" cType="0" res="6.3627385534346104e-03" rms="4.0577360987663269e-01" purity="5.1456260681152344e-01" nType="0">
        <Node pos="l" depth="1" NCoef="0" IVar="20" Cut="6.1156745910644531e+01" cType="1" res="1.5824563801288605e-02" rms="4.0737831592559814e-01" purity="5.3364539146423340e-01" nType="0">
          <Node pos="l" depth="2" NCoef="0" IVar="-1" Cut="0.0000000000000000e+00" cType="1" res="1.7022527754306793e-04" rms="4.0756633877754211e-01" purity="5.4291719198226929e-01" nType="-99"/>
          <Node pos="r" depth="2" NCoef="0" IVar="-1" Cut="0.0000000000000000e+00" cType="1" res="-9.0192060451954603e-04" rms="3.9550855755805969e-01" purity="3.8781255483627319e-01" nType="-99"/>
        </Node>
        <Node pos="r" depth="1" NCoef="0" IVar="20" Cut="1.6532281637191772e+00" cType="0" res="-7.1752436459064484e-02" rms="3.8345566391944885e-01" purity="3.5701853036880493e-01" nType="0">
          <Node pos="l" depth="2" NCoef="0" IVar="-1" Cut="0.0000000000000000e+00" cType="1" res="7.8541465336456895e-04" rms="3.6131584644317627e-01" purity="4.2146691679954529e-01" nType="-99"/>
          <Node pos="r" depth="2" NCoef="0" IVar="-1" Cut="0.0000000000000000e+00" cType="1" res="-3.5554310306906700e-03" rms="3.9031633734703064e-01" purity="2.9703652858734131e-01" nType="-99"/>
        </Node>
      </Node>
    </BinaryTree>
    <BinaryTree type="DecisionTree" boostWeight="1.0000000000000000e+00" itree="891">
      <Node pos="s" depth="0" NCoef="0" IVar="6" Cut="1.5624176263809204e+00" cType="1" res="8.4611661732196808e-03" rms="4.0923127532005310e-01" purity="5.2120041847229004e-01" nType="0">
        <Node pos="l" depth="1" NCoef="0" IVar="9" Cut="-7.1428570747375488e+00" cType="0" res="3.3994313329458237e-02" rms="3.8792043924331665e-01" purity="7.1173989772796631e-01" nType="0">
          <Node pos="l" depth="2" NCoef="0" IVar="-1" Cut="0.0000000000000000e+00" cType="1" res="3.0560736195184290e-04" rms="3.7498089671134949e-01" purity="7.2002309560775757e-01" nType="-99"/>
          <Node pos="r" depth="2" NCoef="0" IVar="-1" Cut="0.0000000000000000e+00" cType="1" res="-4.3313452042639256e-03" rms="4.6041360497474670e-01" purity="6.4425802230834961e-01" nType="-99"/>
        </Node>
        <Node pos="r" depth="1" NCoef="0" IVar="4" Cut="2.2919831275939941e+00" cType="1" res="-7.5998418033123016e-03" rms="4.2129331827163696e-01" purity="4.0134623646736145e-01" nType="0">
          <Node pos="l" depth="2" NCoef="0" IVar="-1" Cut="0.0000000000000000e+00" cType="1" res="-5.2764918655157089e-04" rms="4.4840008020401001e-01" purity="5.0645118951797485e-01" nType="-99"/>
          <Node pos="r" depth="2" NCoef="0" IVar="-1" Cut="0.0000000000000000e+00" cType="1" res="5.1038159290328622e-04" rms="3.8711676001548767e-01" purity="2.8660234808921814e-01" nType="-99"/>
        </Node>
      </Node>
    </BinaryTree>
    <BinaryTree type="DecisionTree" boostWeight="1.0000000000000000e+00" itree="892">
      <Node pos="s" depth="0" NCoef="0" IVar="20" Cut="5.2280361175537109e+01" cType="1" res="1.2511922977864742e-03" rms="3.9739915728569031e-01" purity="5.0122213363647461e-01" nType="0">
        <Node pos="l" depth="1" NCoef="0" IVar="12" Cut="2.1428570747375488e+00" cType="1" res="7.7221100218594074e-03" rms="3.9835608005523682e-01" purity="5.1335412263870239e-01" nType="0">
          <Node pos="l" depth="2" NCoef="0" IVar="-1" Cut="0.0000000000000000e+00" cType="1" res="2.3926359426695853e-04" rms="3.8900211453437805e-01" purity="5.2721273899078369e-01" nType="-99"/>
          <Node pos="r" depth="2" NCoef="0" IVar="-1" Cut="0.0000000000000000e+00" cType="1" res="-6.0417474014684558e-04" rms="4.3796634674072266e-01" purity="4.4447332620620728e-01" nType="-99"/>
        </Node>
        <Node pos="r" depth="1" NCoef="0" IVar="20" Cut="5.8852638244628906e+01" cType="0" res="-7.1070209145545959e-02" rms="3.7910065054893494e-01" purity="3.6563074588775635e-01" nType="0">
          <Node pos="l" depth="2" NCoef="0" IVar="-1" Cut="0.0000000000000000e+00" cType="1" res="2.8418927104212344e-04" rms="3.6439642310142517e-01" purity="3.7090080976486206e-01" nType="-99"/>
          <Node pos="r" depth="2" NCoef="0" IVar="-1" Cut="0.0000000000000000e+00" cType="1" res="-5.1066237501800060e-03" rms="3.9276027679443359e-01" purity="3.5157147049903870e-01" nType="-99"/>
        </Node>
      </Node>
    </BinaryTree>
    <BinaryTree type="DecisionTree" boostWeight="1.0000000000000000e+00" itree="893">
      <Node pos="s" depth="0" NCoef="0" IVar="21" Cut="6.1428570747375488e+00" cType="1" res="2.4177065119147301e-02" rms="3.9363721013069153e-01" purity="5.2350544929504395e-01" nType="0">
        <Node pos="l" depth="1" NCoef="0" IVar="21" Cut="4.3333334922790527e+00" cType="0" res="3.2739978283643723e-02" rms="4.1324532032012939e-01" purity="6.0108399391174316e-01" nType="0">
          <Node pos="l" depth="2" NCoef="0" IVar="-1" Cut="0.0000000000000000e+00" cType="1" res="1.6634276835247874e-03" rms="4.5291805267333984e-01" purity="6.0798770189285278e-01" nType="-99"/>
          <Node pos="r" depth="2" NCoef="0" IVar="-1" Cut="0.0000000000000000e+00" cType="1" res="-5.4990249918773770e-04" rms="3.9372226595878601e-01" purity="5.9814584255218506e-01" nType="-99"/>
        </Node>
        <Node pos="r" depth="1" NCoef="0" IVar="14" Cut="5.6236610412597656e+01" cType="1" res="-2.6087678968906403e-02" rms="2.4314756691455841e-01" purity="6.8115718662738800e-02" nType="0">
          <Node pos="l" depth="2" NCoef="0" IVar="-1" Cut="0.0000000000000000e+00" cType="1" res="-3.1106665846891701e-04" rms="3.0818372964859009e-01" purity="1.1767217516899109e-01" nType="-99"/>
          <Node pos="r" depth="2" NCoef="0" IVar="-1" Cut="0.0000000000000000e+00" cType="1" res="-3.9254096336662769e-03" rms="1.8861573934555054e-01" purity="3.6973595619201660e-02" nType="-99"/>
        </Node>
      </Node>
    </BinaryTree>
    <BinaryTree type="DecisionTree" boostWeight="1.0000000000000000e+00" itree="894">
      <Node pos="s" depth="0" NCoef="0" IVar="5" Cut="1.0906383991241455e+00" cType="1" res="6.7480932921171188e-04" rms="4.0766921639442444e-01" purity="5.0488048791885376e-01" nType="0">
        <Node pos="l" depth="1" NCoef="0" IVar="15" Cut="1.1857142448425293e+01" cType="1" res="-4.3590515851974487e-02" rms="4.0553426742553711e-01" purity="6.5579664707183838e-01" nType="0">
          <Node pos="l" depth="2" NCoef="0" IVar="-1" Cut="0.0000000000000000e+00" cType="1" res="3.0450078193098307e-03" rms="3.7617218494415283e-01" purity="7.9744923114776611e-01" nType="-99"/>
          <Node pos="r" depth="2" NCoef="0" IVar="-1" Cut="0.0000000000000000e+00" cType="1" res="-2.8975948225706816e-03" rms="4.4042146205902100e-01" purity="4.0924468636512756e-01" nType="-99"/>
        </Node>
        <Node pos="r" depth="1" NCoef="0" IVar="9" Cut="-4.2857141494750977e+00" cType="1" res="1.5314312651753426e-02" rms="4.0731567144393921e-01" purity="4.5496925711631775e-01" nType="0">
          <Node pos="l" depth="2" NCoef="0" IVar="-1" Cut="0.0000000000000000e+00" cType="1" res="1.0317303240299225e-03" rms="3.6152109503746033e-01" purity="6.4354926347732544e-01" nType="-99"/>
          <Node pos="r" depth="2" NCoef="0" IVar="-1" Cut="0.0000000000000000e+00" cType="1" res="-8.1422564107924700e-05" rms="4.0814679861068726e-01" purity="4.4803148508071899e-01" nType="-99"/>
        </Node>
      </Node>
    </BinaryTree>
    <BinaryTree type="DecisionTree" boostWeight="1.0000000000000000e+00" itree="895">
      <Node pos="s" depth="0" NCoef="0" IVar="9" Cut="-1.5714285850524902e+01" cType="1" res="-1.3589105568826199e-02" rms="4.0186089277267456e-01" purity="4.8320117592811584e-01" nType="0">
        <Node pos="l" depth="1" NCoef="0" IVar="-1" Cut="0.0000000000000000e+00" cType="1" res="-1.1995597742497921e-03" rms="4.5176571607589722e-01" purity="5.6941157579421997e-01" nType="-99"/>
        <Node pos="r" depth="1" NCoef="0" IVar="7" Cut="4.9000010490417480e+00" cType="0" res="-9.4278603792190552e-03" rms="3.9966133236885071e-01" purity="4.8111996054649353e-01" nType="0">
          <Node pos="l" depth="2" NCoef="0" IVar="-1" Cut="0.0000000000000000e+00" cType="1" res="3.0940619762986898e-03" rms="4.2083898186683655e-01" purity="6.6078364849090576e-01" nType="-99"/>
          <Node pos="r" depth="2" NCoef="0" IVar="-1" Cut="0.0000000000000000e+00" cType="1" res="-9.4004572019912302e-05" rms="3.9834427833557129e-01" purity="4.7832432389259338e-01" nType="-99"/>
        </Node>
      </Node>
    </BinaryTree>
    <BinaryTree type="DecisionTree" boostWeight="1.0000000000000000e+00" itree="896">
      <Node pos="s" depth="0" NCoef="0" IVar="18" Cut="5.1428570747375488e+00" cType="1" res="1.1044929269701242e-03" rms="3.9464050531387329e-01" purity="4.9777409434318542e-01" nType="0">
        <Node pos="l" depth="1" NCoef="0" IVar="15" Cut="1.2428571701049805e+01" cType="0" res="2.0553417503833771e-02" rms="3.9085865020751953e-01" purity="6.7253595590591431e-01" nType="0">
          <Node pos="l" depth="2" NCoef="0" IVar="-1" Cut="0.0000000000000000e+00" cType="1" res="2.5647331494837999e-03" rms="4.3063715100288391e-01" purity="7.3014217615127563e-01" nType="-99"/>
          <Node pos="r" depth="2" NCoef="0" IVar="-1" Cut="0.0000000000000000e+00" cType="1" res="4.8985243665811140e-06" rms="3.8257965445518494e-01" purity="6.6476631164550781e-01" nType="-99"/>
        </Node>
        <Node pos="r" depth="1" NCoef="0" IVar="12" Cut="2.1428570747375488e+00" cType="1" res="-1.8219005316495895e-02" rms="3.9742094278335571e-01" purity="3.2413935661315918e-01" nType="0">
          <Node pos="l" depth="2" NCoef="0" IVar="-1" Cut="0.0000000000000000e+00" cType="1" res="2.8527938411571085e-04" rms="4.0279901027679443e-01" purity="3.4387445449829102e-01" nType="-99"/>
          <Node pos="r" depth="2" NCoef="0" IVar="-1" Cut="0.0000000000000000e+00" cType="1" res="-5.9334193356335163e-03" rms="3.2668003439903259e-01" purity="1.3077722489833832e-01" nType="-99"/>
        </Node>
      </Node>
    </BinaryTree>
    <BinaryTree type="DecisionTree" boostWeight="1.0000000000000000e+00" itree="897">
      <Node pos="s" depth="0" NCoef="0" IVar="12" Cut="1.4285714924335480e-01" cType="1" res="-3.6243363283574581e-03" rms="4.0589052438735962e-01" purity="4.9672275781631470e-01" nType="0">
        <Node pos="l" depth="1" NCoef="0" IVar="7" Cut="-8.2142858505249023e+00" cType="1" res="-4.4840808957815170e-02" rms="3.9855456352233887e-01" purity="5.7239097356796265e-01" nType="0">
          <Node pos="l" depth="2" NCoef="0" IVar="-1" Cut="0.0000000000000000e+00" cType="1" res="-8.9881224557757378e-03" rms="4.5023027062416077e-01" purity="5.9247738122940063e-01" nType="-99"/>
          <Node pos="r" depth="2" NCoef="0" IVar="-1" Cut="0.0000000000000000e+00" cType="1" res="-1.0327449999749660e-03" rms="3.8632154464721680e-01" purity="5.6980508565902710e-01" nType="-99"/>
        </Node>
        <Node pos="r" depth="1" NCoef="0" IVar="3" Cut="5.2380952835083008e+00" cType="0" res="5.6982724927365780e-03" rms="4.0695303678512573e-01" purity="4.7960767149925232e-01" nType="0">
          <Node pos="l" depth="2" NCoef="0" IVar="-1" Cut="0.0000000000000000e+00" cType="1" res="3.7072969134896994e-03" rms="4.1930136084556580e-01" purity="7.0947885513305664e-01" nType="-99"/>
          <Node pos="r" depth="2" NCoef="0" IVar="-1" Cut="0.0000000000000000e+00" cType="1" res="1.1043680569855496e-04" rms="4.0586882829666138e-01" purity="4.7097709774971008e-01" nType="-99"/>
        </Node>
      </Node>
    </BinaryTree>
    <BinaryTree type="DecisionTree" boostWeight="1.0000000000000000e+00" itree="898">
      <Node pos="s" depth="0" NCoef="0" IVar="4" Cut="1.1341917514801025e+00" cType="1" res="-3.9757406339049339e-03" rms="4.0231472253799438e-01" purity="4.9008965492248535e-01" nType="0">
        <Node pos="l" depth="1" NCoef="0" IVar="3" Cut="3.8571429252624512e+00" cType="1" res="-6.8253085017204285e-02" rms="3.9387899637222290e-01" purity="7.0276981592178345e-01" nType="0">
          <Node pos="l" depth="2" NCoef="0" IVar="-1" Cut="0.0000000000000000e+00" cType="1" res="1.7737568123266101e-03" rms="3.6842623353004456e-01" purity="7.6346570253372192e-01" nType="-99"/>
          <Node pos="r" depth="2" NCoef="0" IVar="-1" Cut="0.0000000000000000e+00" cType="1" res="-7.9670995473861694e-03" rms="4.3770179152488708e-01" purity="5.0647705793380737e-01" nType="-99"/>
        </Node>
        <Node pos="r" depth="1" NCoef="0" IVar="5" Cut="2.6067852973937988e+00" cType="1" res="6.6050859168171883e-03" rms="4.0270420908927917e-01" purity="4.5507997274398804e-01" nType="0">
          <Node pos="l" depth="2" NCoef="0" IVar="-1" Cut="0.0000000000000000e+00" cType="1" res="2.7669584960676730e-04" rms="4.2195507884025574e-01" purity="5.3835064172744751e-01" nType="-99"/>
          <Node pos="r" depth="2" NCoef="0" IVar="-1" Cut="0.0000000000000000e+00" cType="1" res="-7.6194916618987918e-04" rms="3.1358063220977783e-01" purity="1.3442873954772949e-01" nType="-99"/>
        </Node>
      </Node>
    </BinaryTree>
    <BinaryTree type="DecisionTree" boostWeight="1.0000000000000000e+00" itree="899">
      <Node pos="s" depth="0" NCoef="0" IVar="20" Cut="7.3729797363281250e+01" cType="1" res="-5.6711635552346706e-03" rms="4.1347560286521912e-01" purity="5.0498092174530029e-01" nType="0">
        <Node pos="l" depth="1" NCoef="0" IVar="5" Cut="1.5396670103073120e+00" cType="1" res="-2.0132239442318678e-03" rms="4.1478309035301208e-01" purity="5.1230561733245850e-01" nType="0">
          <Node pos="l" depth="2" NCoef="0" IVar="-1" Cut="0.0000000000000000e+00" cType="1" res="-3.0363369660335593e-05" rms="4.1576719284057617e-01" purity="6.4565950632095337e-01" nType="-99"/>
          <Node pos="r" depth="2" NCoef="0" IVar="-1" Cut="0.0000000000000000e+00" cType="1" res="5.1901548431487754e-05" rms="4.1266885399818420e-01" purity="3.9964517951011658e-01" nType="-99"/>
        </Node>
        <Node pos="r" depth="1" NCoef="0" IVar="-1" Cut="0.0000000000000000e+00" cType="1" res="-2.5569314602762461e-03" rms="3.4035989642143250e-01" purity="2.4734000861644745e-01" nType="-99"/>
      </Node>
    </BinaryTree>
    <BinaryTree type="DecisionTree" boostWeight="1.0000000000000000e+00" itree="900">
      <Node pos="s" depth="0" NCoef="0" IVar="15" Cut="1.5571428298950195e+01" cType="1" res="-5.8644791133701801e-03" rms="4.0216660499572754e-01" purity="4.8780348896980286e-01" nType="0">
        <Node pos="l" depth="1" NCoef="0" IVar="7" Cut="-7.3857140541076660e+00" cType="0" res="1.4667271636426449e-02" rms="4.0817850828170776e-01" purity="6.0514360666275024e-01" nType="0">
          <Node pos="l" depth="2" NCoef="0" IVar="-1" Cut="0.0000000000000000e+00" cType="1" res="-7.3160073952749372e-05" rms="4.0717363357543945e-01" purity="6.0732400417327881e-01" nType="-99"/>
          <Node pos="r" depth="2" NCoef="0" IVar="-1" Cut="0.0000000000000000e+00" cType="1" res="-2.6017203927040100e-03" rms="4.0374037623405457e-01" purity="5.7418203353881836e-01" nType="-99"/>
        </Node>
        <Node pos="r" depth="1" NCoef="0" IVar="4" Cut="1.4760129451751709e+00" cType="1" res="-3.9263591170310974e-02" rms="3.8988703489303589e-01" purity="2.9692551493644714e-01" nType="0">
          <Node pos="l" depth="2" NCoef="0" IVar="-1" Cut="0.0000000000000000e+00" cType="1" res="-4.3113506399095058e-03" rms="4.5771780610084534e-01" purity="3.8912868499755859e-01" nType="-99"/>
          <Node pos="r" depth="2" NCoef="0" IVar="-1" Cut="0.0000000000000000e+00" cType="1" res="8.1696093548089266e-04" rms="3.7993949651718140e-01" purity="2.8714400529861450e-01" nType="-99"/>
        </Node>
      </Node>
    </BinaryTree>
    <BinaryTree type="DecisionTree" boostWeight="1.0000000000000000e+00" itree="901">
      <Node pos="s" depth="0" NCoef="0" IVar="20" Cut="2.2203767776489258e+01" cType="0" res="1.6917841276153922e-03" rms="3.9754250645637512e-01" purity="5.0037646293640137e-01" nType="0">
        <Node pos="l" depth="1" NCoef="0" IVar="20" Cut="2.7112834930419922e+01" cType="1" res="2.6108874008059502e-02" rms="4.0713292360305786e-01" purity="5.5998843908309937e-01" nType="0">
          <Node pos="l" depth="2" NCoef="0" IVar="-1" Cut="0.0000000000000000e+00" cType="1" res="6.9455765187740326e-03" rms="3.6327362060546875e-01" purity="6.0323256254196167e-01" nType="-99"/>
          <Node pos="r" depth="2" NCoef="0" IVar="-1" Cut="0.0000000000000000e+00" cType="1" res="-8.4488611901178956e-04" rms="4.1632109880447388e-01" purity="5.4836606979370117e-01" nType="-99"/>
        </Node>
        <Node pos="r" depth="1" NCoef="0" IVar="15" Cut="4.8571429252624512e+00" cType="1" res="-1.0933576151728630e-02" rms="3.9189544320106506e-01" purity="4.6955290436744690e-01" nType="0">
          <Node pos="l" depth="2" NCoef="0" IVar="-1" Cut="0.0000000000000000e+00" cType="1" res="-4.1661621071398258e-03" rms="4.1151294112205505e-01" purity="5.3746432065963745e-01" nType="-99"/>
          <Node pos="r" depth="2" NCoef="0" IVar="-1" Cut="0.0000000000000000e+00" cType="1" res="-9.4232156698126346e-05" rms="3.8838285207748413e-01" purity="4.6228116750717163e-01" nType="-99"/>
        </Node>
      </Node>
    </BinaryTree>
    <BinaryTree type="DecisionTree" boostWeight="1.0000000000000000e+00" itree="902">
      <Node pos="s" depth="0" NCoef="0" IVar="18" Cut="5.1428570747375488e+00" cType="1" res="-5.6132110767066479e-03" rms="4.0149667859077454e-01" purity="4.9235334992408752e-01" nType="0">
        <Node pos="l" depth="1" NCoef="0" IVar="8" Cut="4.4738097190856934e+00" cType="0" res="1.9959950819611549e-02" rms="4.0246036648750305e-01" purity="6.7581808567047119e-01" nType="0">
          <Node pos="l" depth="2" NCoef="0" IVar="-1" Cut="0.0000000000000000e+00" cType="1" res="4.2136525735259056e-03" rms="3.0332764983177185e-01" purity="8.5286337137222290e-01" nType="-99"/>
          <Node pos="r" depth="2" NCoef="0" IVar="-1" Cut="0.0000000000000000e+00" cType="1" res="2.1994883718434721e-04" rms="4.0323293209075928e-01" purity="6.6963911056518555e-01" nType="-99"/>
        </Node>
        <Node pos="r" depth="1" NCoef="0" IVar="3" Cut="4.5714287757873535e+00" cType="0" res="-3.0367359519004822e-02" rms="3.9900353550910950e-01" purity="3.1476426124572754e-01" nType="0">
          <Node pos="l" depth="2" NCoef="0" IVar="-1" Cut="0.0000000000000000e+00" cType="1" res="3.5388991236686707e-03" rms="4.3539306521415710e-01" purity="5.1624941825866699e-01" nType="-99"/>
          <Node pos="r" depth="2" NCoef="0" IVar="-1" Cut="0.0000000000000000e+00" cType="1" res="-8.2338112406432629e-04" rms="3.9370673894882202e-01" purity="2.9579418897628784e-01" nType="-99"/>
        </Node>
      </Node>
    </BinaryTree>
    <BinaryTree type="DecisionTree" boostWeight="1.0000000000000000e+00" itree="903">
      <Node pos="s" depth="0" NCoef="0" IVar="0" Cut="1.3362091779708862e+00" cType="1" res="-2.6373844593763351e-03" rms="4.0585795044898987e-01" purity="4.9933400750160217e-01" nType="0">
        <Node pos="l" depth="1" NCoef="0" IVar="3" Cut="1.8095238208770752e+00" cType="1" res="-3.3286906778812408e-02" rms="4.2230194807052612e-01" purity="5.8026069402694702e-01" nType="0">
          <Node pos="l" depth="2" NCoef="0" IVar="-1" Cut="0.0000000000000000e+00" cType="1" res="1.9921066705137491e-03" rms="3.8639298081398010e-01" purity="6.7523962259292603e-01" nType="-99"/>
          <Node pos="r" depth="2" NCoef="0" IVar="-1" Cut="0.0000000000000000e+00" cType="1" res="-1.1918313102796674e-03" rms="4.3007346987724304e-01" purity="5.4857522249221802e-01" nType="-99"/>
        </Node>
        <Node pos="r" depth="1" NCoef="0" IVar="18" Cut="4.2857141494750977e+00" cType="1" res="2.1246345713734627e-02" rms="3.9090424776077271e-01" purity="4.3627157807350159e-01" nType="0">
          <Node pos="l" depth="2" NCoef="0" IVar="-1" Cut="0.0000000000000000e+00" cType="1" res="1.6722444343031384e-05" rms="3.2215896248817444e-01" purity="6.6652262210845947e-01" nType="-99"/>
          <Node pos="r" depth="2" NCoef="0" IVar="-1" Cut="0.0000000000000000e+00" cType="1" res="2.6419846108183265e-04" rms="4.1104862093925476e-01" purity="3.5253992676734924e-01" nType="-99"/>
        </Node>
      </Node>
    </BinaryTree>
    <BinaryTree type="DecisionTree" boostWeight="1.0000000000000000e+00" itree="904">
      <Node pos="s" depth="0" NCoef="0" IVar="5" Cut="4.3810054659843445e-01" cType="1" res="-4.3697291985154152e-03" rms="4.0319406986236572e-01" purity="4.9679303169250488e-01" nType="0">
        <Node pos="l" depth="1" NCoef="0" IVar="-1" Cut="0.0000000000000000e+00" cType="1" res="1.0815219953656197e-02" rms="1.5726496279239655e-01" purity="9.4904327392578125e-01" nType="-99"/>
        <Node pos="r" depth="1" NCoef="0" IVar="0" Cut="8.9080607891082764e-01" cType="1" res="-6.9082598201930523e-03" rms="4.0557315945625305e-01" purity="4.8919934034347534e-01" nType="0">
          <Node pos="l" depth="2" NCoef="0" IVar="-1" Cut="0.0000000000000000e+00" cType="1" res="-9.2138000763952732e-04" rms="4.1724467277526855e-01" purity="5.2809542417526245e-01" nType="-99"/>
          <Node pos="r" depth="2" NCoef="0" IVar="-1" Cut="0.0000000000000000e+00" cType="1" res="1.0124115215148777e-04" rms="4.0159636735916138e-01" purity="4.7826784849166870e-01" nType="-99"/>
        </Node>
      </Node>
    </BinaryTree>
    <BinaryTree type="DecisionTree" boostWeight="1.0000000000000000e+00" itree="905">
      <Node pos="s" depth="0" NCoef="0" IVar="0" Cut="4.4257822632789612e-01" cType="1" res="7.9428954049944878e-03" rms="3.9822611212730408e-01" purity="5.0565886497497559e-01" nType="0">
        <Node pos="l" depth="1" NCoef="0" IVar="4" Cut="1.0061298608779907e+00" cType="1" res="9.4575643539428711e-02" rms="3.8898822665214539e-01" purity="6.8701398372650146e-01" nType="0">
          <Node pos="l" depth="2" NCoef="0" IVar="-1" Cut="0.0000000000000000e+00" cType="1" res="-5.5518602021038532e-03" rms="1.2447673827409744e-01" purity="1.0000000000000000e+00" nType="-99"/>
          <Node pos="r" depth="2" NCoef="0" IVar="-1" Cut="0.0000000000000000e+00" cType="1" res="2.7840799884870648e-04" rms="4.4759646058082581e-01" purity="5.5263251066207886e-01" nType="-99"/>
        </Node>
        <Node pos="r" depth="1" NCoef="0" IVar="8" Cut="4.3928570747375488e+00" cType="1" res="2.9345501679927111e-03" rms="3.9817771315574646e-01" purity="4.9517449736595154e-01" nType="0">
          <Node pos="l" depth="2" NCoef="0" IVar="-1" Cut="0.0000000000000000e+00" cType="1" res="1.8060820002574474e-04" rms="3.9672583341598511e-01" purity="5.0211572647094727e-01" nType="-99"/>
          <Node pos="r" depth="2" NCoef="0" IVar="-1" Cut="0.0000000000000000e+00" cType="1" res="-3.2854541204869747e-03" rms="4.0891665220260620e-01" purity="3.1419789791107178e-01" nType="-99"/>
        </Node>
      </Node>
    </BinaryTree>
    <BinaryTree type="DecisionTree" boostWeight="1.0000000000000000e+00" itree="906">
      <Node pos="s" depth="0" NCoef="0" IVar="9" Cut="-1.0000000000000000e+01" cType="1" res="-4.1797347366809845e-03" rms="4.0336978435516357e-01" purity="4.9469569325447083e-01" nType="0">
        <Node pos="l" depth="1" NCoef="0" IVar="-1" Cut="0.0000000000000000e+00" cType="1" res="2.5598709471523762e-03" rms="3.1643125414848328e-01" purity="9.1682374477386475e-01" nType="1"/>
        <Node pos="r" depth="1" NCoef="0" IVar="5" Cut="1.3173946142196655e+00" cType="1" res="-7.7829896472394466e-03" rms="4.0526053309440613e-01" purity="4.8149436712265015e-01" nType="0">
          <Node pos="l" depth="2" NCoef="0" IVar="-1" Cut="0.0000000000000000e+00" cType="1" res="6.0073868371546268e-04" rms="3.8606780767440796e-01" purity="7.0786601305007935e-01" nType="-99"/>
          <Node pos="r" depth="2" NCoef="0" IVar="-1" Cut="0.0000000000000000e+00" cType="1" res="-3.0922322184778750e-04" rms="4.1276422142982483e-01" purity="3.8320699334144592e-01" nType="-99"/>
        </Node>
      </Node>
    </BinaryTree>
    <BinaryTree type="DecisionTree" boostWeight="1.0000000000000000e+00" itree="907">
      <Node pos="s" depth="0" NCoef="0" IVar="4" Cut="1.7982245683670044e+00" cType="1" res="2.0827341359108686e-03" rms="3.9579385519027710e-01" purity="5.0277316570281982e-01" nType="0">
        <Node pos="l" depth="1" NCoef="0" IVar="8" Cut="2.2619047164916992e+00" cType="1" res="3.1583204865455627e-02" rms="3.6416190862655640e-01" purity="7.3016935586929321e-01" nType="0">
          <Node pos="l" depth="2" NCoef="0" IVar="-1" Cut="0.0000000000000000e+00" cType="1" res="9.5036445418372750e-04" rms="3.5155120491981506e-01" purity="7.7349370718002319e-01" nType="-99"/>
          <Node pos="r" depth="2" NCoef="0" IVar="-1" Cut="0.0000000000000000e+00" cType="1" res="-1.4170926297083497e-03" rms="4.1926822066307068e-01" purity="4.7786715626716614e-01" nType="-99"/>
        </Node>
        <Node pos="r" depth="1" NCoef="0" IVar="0" Cut="6.6810548305511475e-01" cType="1" res="-1.9274707883596420e-02" rms="4.1589659452438354e-01" purity="3.3814525604248047e-01" nType="0">
          <Node pos="l" depth="2" NCoef="0" IVar="-1" Cut="0.0000000000000000e+00" cType="1" res="5.9603329282253981e-04" rms="4.0370935201644897e-01" purity="5.2143877744674683e-01" nType="-99"/>
          <Node pos="r" depth="2" NCoef="0" IVar="-1" Cut="0.0000000000000000e+00" cType="1" res="-3.3312625600956380e-04" rms="4.1460087895393372e-01" purity="3.2936877012252808e-01" nType="-99"/>
        </Node>
      </Node>
    </BinaryTree>
    <BinaryTree type="DecisionTree" boostWeight="1.0000000000000000e+00" itree="908">
      <Node pos="s" depth="0" NCoef="0" IVar="20" Cut="9.3222599029541016e+00" cType="0" res="-9.4041386619210243e-03" rms="3.9901593327522278e-01" purity="4.8621171712875366e-01" nType="0">
        <Node pos="l" depth="1" NCoef="0" IVar="18" Cut="5.1904764175415039e+00" cType="1" res="8.1598218530416489e-03" rms="3.9213562011718750e-01" purity="4.9207949638366699e-01" nType="0">
          <Node pos="l" depth="2" NCoef="0" IVar="-1" Cut="0.0000000000000000e+00" cType="1" res="8.9185906108468771e-04" rms="3.8319650292396545e-01" purity="6.7980378866195679e-01" nType="-99"/>
          <Node pos="r" depth="2" NCoef="0" IVar="-1" Cut="0.0000000000000000e+00" cType="1" res="-5.6908838450908661e-04" rms="3.9906463027000427e-01" purity="3.0916687846183777e-01" nType="-99"/>
        </Node>
        <Node pos="r" depth="1" NCoef="0" IVar="9" Cut="-2.8571429252624512e+00" cType="1" res="-5.4370582103729248e-02" rms="4.1271996498107910e-01" purity="4.7118914127349854e-01" nType="0">
          <Node pos="l" depth="2" NCoef="0" IVar="-1" Cut="0.0000000000000000e+00" cType="1" res="6.8329758942127228e-03" rms="3.2918870449066162e-01" purity="8.3168369531631470e-01" nType="-99"/>
          <Node pos="r" depth="2" NCoef="0" IVar="-1" Cut="0.0000000000000000e+00" cType="1" res="-1.1754063889384270e-03" rms="4.1500109434127808e-01" purity="4.2979058623313904e-01" nType="-99"/>
        </Node>
      </Node>
    </BinaryTree>
    <BinaryTree type="DecisionTree" boostWeight="1.0000000000000000e+00" itree="909">
      <Node pos="s" depth="0" NCoef="0" IVar="1" Cut="1.0095237731933594e+01" cType="0" res="-9.6980156376957893e-03" rms="4.0576568245887756e-01" purity="4.9047634005546570e-01" nType="0">
        <Node pos="l" depth="1" NCoef="0" IVar="-1" Cut="0.0000000000000000e+00" cType="1" res="3.8424327503889799e-03" rms="4.5560777187347412e-01" purity="6.6078364849090576e-01" nType="-99"/>
        <Node pos="r" depth="1" NCoef="0" IVar="11" Cut="7.4498015642166138e-01" cType="1" res="-1.2686130590736866e-02" rms="4.0422427654266357e-01" purity="4.8790529370307922e-01" nType="0">
          <Node pos="l" depth="2" NCoef="0" IVar="-1" Cut="0.0000000000000000e+00" cType="1" res="5.4421933600679040e-04" rms="3.8830232620239258e-01" purity="6.0186797380447388e-01" nType="-99"/>
          <Node pos="r" depth="2" NCoef="0" IVar="-1" Cut="0.0000000000000000e+00" cType="1" res="-5.9981911908835173e-04" rms="4.1487750411033630e-01" purity="3.9539837837219238e-01" nType="-99"/>
        </Node>
      </Node>
    </BinaryTree>
    <BinaryTree type="DecisionTree" boostWeight="1.0000000000000000e+00" itree="910">
      <Node pos="s" depth="0" NCoef="0" IVar="7" Cut="-4.7833328247070312e+00" cType="1" res="6.1972076073288918e-03" rms="3.9995113015174866e-01" purity="5.0256508588790894e-01" nType="0">
        <Node pos="l" depth="1" NCoef="0" IVar="4" Cut="1.7886008024215698e+00" cType="1" res="-6.4035765826702118e-02" rms="3.5441064834594727e-01" purity="5.6032860279083252e-01" nType="0">
          <Node pos="l" depth="2" NCoef="0" IVar="-1" Cut="0.0000000000000000e+00" cType="1" res="-1.0287517216056585e-03" rms="3.3019825816154480e-01" purity="7.6119911670684814e-01" nType="-99"/>
          <Node pos="r" depth="2" NCoef="0" IVar="-1" Cut="0.0000000000000000e+00" cType="1" res="-3.7364398594945669e-03" rms="3.6285677552223206e-01" purity="2.6440015435218811e-01" nType="-99"/>
        </Node>
        <Node pos="r" depth="1" NCoef="0" IVar="5" Cut="1.0982490777969360e+00" cType="1" res="1.1167730204761028e-02" rms="4.0251511335372925e-01" purity="4.9847704172134399e-01" nType="0">
          <Node pos="l" depth="2" NCoef="0" IVar="-1" Cut="0.0000000000000000e+00" cType="1" res="8.6492364061996341e-04" rms="3.6164584755897522e-01" purity="7.5143790245056152e-01" nType="-99"/>
          <Node pos="r" depth="2" NCoef="0" IVar="-1" Cut="0.0000000000000000e+00" cType="1" res="-5.1223811169620603e-05" rms="4.1166037321090698e-01" purity="4.3570092320442200e-01" nType="-99"/>
        </Node>
      </Node>
    </BinaryTree>
    <BinaryTree type="DecisionTree" boostWeight="1.0000000000000000e+00" itree="911">
      <Node pos="s" depth="0" NCoef="0" IVar="0" Cut="1.4720133543014526e+00" cType="1" res="2.2006551735103130e-03" rms="4.0241730213165283e-01" purity="5.0186026096343994e-01" nType="0">
        <Node pos="l" depth="1" NCoef="0" IVar="5" Cut="1.4608546495437622e+00" cType="1" res="-1.5688270330429077e-02" rms="4.0454143285751343e-01" purity="5.7680457830429077e-01" nType="0">
          <Node pos="l" depth="2" NCoef="0" IVar="-1" Cut="0.0000000000000000e+00" cType="1" res="3.8470996514661238e-05" rms="3.9196592569351196e-01" purity="6.9846642017364502e-01" nType="-99"/>
          <Node pos="r" depth="2" NCoef="0" IVar="-1" Cut="0.0000000000000000e+00" cType="1" res="-1.4219137374311686e-03" rms="4.2272359132766724e-01" purity="3.3947902917861938e-01" nType="-99"/>
        </Node>
        <Node pos="r" depth="1" NCoef="0" IVar="1" Cut="8.5714282989501953e+00" cType="0" res="2.1260784938931465e-02" rms="3.9926069974899292e-01" purity="4.2200922966003418e-01" nType="0">
          <Node pos="l" depth="2" NCoef="0" IVar="-1" Cut="0.0000000000000000e+00" cType="1" res="6.1022494919598103e-03" rms="4.3511694669723511e-01" purity="6.8608033657073975e-01" nType="-99"/>
          <Node pos="r" depth="2" NCoef="0" IVar="-1" Cut="0.0000000000000000e+00" cType="1" res="1.6483025683555752e-04" rms="3.9653751254081726e-01" purity="4.1291987895965576e-01" nType="-99"/>
        </Node>
      </Node>
    </BinaryTree>
    <BinaryTree type="DecisionTree" boostWeight="1.0000000000000000e+00" itree="912">
      <Node pos="s" depth="0" NCoef="0" IVar="8" Cut="4.8023810386657715e+00" cType="0" res="3.9288518019020557e-03" rms="3.9438468217849731e-01" purity="4.9488219618797302e-01" nType="0">
        <Node pos="l" depth="1" NCoef="0" IVar="-1" Cut="0.0000000000000000e+00" cType="1" res="1.3659875839948654e-03" rms="3.5853433609008789e-01" purity="6.9018775224685669e-01" nType="-99"/>
        <Node pos="r" depth="1" NCoef="0" IVar="8" Cut="3.4428572654724121e+00" cType="1" res="-8.9146610116586089e-04" rms="3.9404138922691345e-01" purity="4.8997768759727478e-01" nType="0">
          <Node pos="l" depth="2" NCoef="0" IVar="-1" Cut="0.0000000000000000e+00" cType="1" res="9.7564981842879206e-05" rms="3.9303654432296753e-01" purity="4.9441409111022949e-01" nType="-99"/>
          <Node pos="r" depth="2" NCoef="0" IVar="-1" Cut="0.0000000000000000e+00" cType="1" res="-5.6250924244523048e-03" rms="4.0968158841133118e-01" purity="3.1989619135856628e-01" nType="-99"/>
        </Node>
      </Node>
    </BinaryTree>
    <BinaryTree type="DecisionTree" boostWeight="1.0000000000000000e+00" itree="913">
      <Node pos="s" depth="0" NCoef="0" IVar="4" Cut="2.2321753501892090e+00" cType="1" res="-8.4960013628005981e-03" rms="4.0336310863494873e-01" purity="4.9134323000907898e-01" nType="0">
        <Node pos="l" depth="1" NCoef="0" IVar="20" Cut="4.4328433990478516e+01" cType="0" res="-2.1659778431057930e-02" rms="4.1400212049484253e-01" purity="5.9210461378097534e-01" nType="0">
          <Node pos="l" depth="2" NCoef="0" IVar="-1" Cut="0.0000000000000000e+00" cType="1" res="2.8075908776372671e-03" rms="3.6001300811767578e-01" purity="7.4312353134155273e-01" nType="-99"/>
          <Node pos="r" depth="2" NCoef="0" IVar="-1" Cut="0.0000000000000000e+00" cType="1" res="-7.8187300823628902e-04" rms="4.1731730103492737e-01" purity="5.7739365100860596e-01" nType="-99"/>
        </Node>
        <Node pos="r" depth="1" NCoef="0" IVar="4" Cut="2.5742726325988770e+00" cType="1" res="1.7612343654036522e-02" rms="3.8003864884376526e-01" purity="2.9149833321571350e-01" nType="0">
          <Node pos="l" depth="2" NCoef="0" IVar="-1" Cut="0.0000000000000000e+00" cType="1" res="2.4993089027702808e-03" rms="4.1630363464355469e-01" purity="4.6364742517471313e-01" nType="-99"/>
          <Node pos="r" depth="2" NCoef="0" IVar="-1" Cut="0.0000000000000000e+00" cType="1" res="-6.4883066806942225e-04" rms="3.5504174232482910e-01" purity="2.0389112830162048e-01" nType="-99"/>
        </Node>
      </Node>
    </BinaryTree>
    <BinaryTree type="DecisionTree" boostWeight="1.0000000000000000e+00" itree="914">
      <Node pos="s" depth="0" NCoef="0" IVar="8" Cut="4.8023810386657715e+00" cType="0" res="1.5263721579685807e-03" rms="3.9503094553947449e-01" purity="5.0056594610214233e-01" nType="0">
        <Node pos="l" depth="1" NCoef="0" IVar="-1" Cut="0.0000000000000000e+00" cType="1" res="1.3285420136526227e-03" rms="4.2293438315391541e-01" purity="6.7531919479370117e-01" nType="-99"/>
        <Node pos="r" depth="1" NCoef="0" IVar="7" Cut="-1.7142841219902039e-01" cType="1" res="-1.5246489783748984e-03" rms="3.9383211731910706e-01" purity="4.9635231494903564e-01" nType="0">
          <Node pos="l" depth="2" NCoef="0" IVar="-1" Cut="0.0000000000000000e+00" cType="1" res="7.0203887298703194e-04" rms="3.8257718086242676e-01" purity="5.7312947511672974e-01" nType="-99"/>
          <Node pos="r" depth="2" NCoef="0" IVar="-1" Cut="0.0000000000000000e+00" cType="1" res="-5.7412870228290558e-04" rms="3.9992257952690125e-01" purity="4.4658336043357849e-01" nType="-99"/>
        </Node>
      </Node>
    </BinaryTree>
    <BinaryTree type="DecisionTree" boostWeight="1.0000000000000000e+00" itree="915">
      <Node pos="s" depth="0" NCoef="0" IVar="6" Cut="6.7528986930847168e-01" cType="1" res="-7.1867625229060650e-03" rms="4.0273061394691467e-01" purity="4.9191164970397949e-01" nType="0">
        <Node pos="l" depth="1" NCoef="0" IVar="-1" Cut="0.0000000000000000e+00" cType="1" res="-9.9945964757353067e-04" rms="3.3026090264320374e-01" purity="8.6710804700851440e-01" nType="-99"/>
        <Node pos="r" depth="1" NCoef="0" IVar="6" Cut="8.6605876684188843e-01" cType="1" res="-9.8781026899814606e-03" rms="4.0348684787750244e-01" purity="4.8483970761299133e-01" nType="0">
          <Node pos="l" depth="2" NCoef="0" IVar="-1" Cut="0.0000000000000000e+00" cType="1" res="-3.7782624713145196e-04" rms="4.4543987512588501e-01" purity="5.7253473997116089e-01" nType="-99"/>
          <Node pos="r" depth="2" NCoef="0" IVar="-1" Cut="0.0000000000000000e+00" cType="1" res="-1.8238884877064265e-05" rms="4.0076011419296265e-01" purity="4.8108878731727600e-01" nType="-99"/>
        </Node>
      </Node>
    </BinaryTree>
    <BinaryTree type="DecisionTree" boostWeight="1.0000000000000000e+00" itree="916">
      <Node pos="s" depth="0" NCoef="0" IVar="18" Cut="4.2857141494750977e+00" cType="1" res="-1.7069663852453232e-02" rms="4.0686833858489990e-01" purity="4.7586762905120850e-01" nType="0">
        <Node pos="l" depth="1" NCoef="0" IVar="12" Cut="1.1428571939468384e+00" cType="0" res="1.4798091724514961e-02" rms="3.6648073792457581e-01" purity="6.7840600013732910e-01" nType="0">
          <Node pos="l" depth="2" NCoef="0" IVar="-1" Cut="0.0000000000000000e+00" cType="1" res="-5.8858207194134593e-04" rms="4.1093829274177551e-01" purity="7.0213121175765991e-01" nType="-99"/>
          <Node pos="r" depth="2" NCoef="0" IVar="-1" Cut="0.0000000000000000e+00" cType="1" res="4.8793663154356182e-04" rms="3.4725290536880493e-01" purity="6.7095214128494263e-01" nType="-99"/>
        </Node>
        <Node pos="r" depth="1" NCoef="0" IVar="4" Cut="2.3905451297760010e+00" cType="1" res="-3.4725807607173920e-02" rms="4.2658209800720215e-01" purity="3.6365240812301636e-01" nType="0">
          <Node pos="l" depth="2" NCoef="0" IVar="-1" Cut="0.0000000000000000e+00" cType="1" res="-8.2657649181783199e-04" rms="4.4816195964813232e-01" purity="4.2110854387283325e-01" nType="-99"/>
          <Node pos="r" depth="2" NCoef="0" IVar="-1" Cut="0.0000000000000000e+00" cType="1" res="1.3239758554846048e-03" rms="3.7495848536491394e-01" purity="2.5659236311912537e-01" nType="-99"/>
        </Node>
      </Node>
    </BinaryTree>
    <BinaryTree type="DecisionTree" boostWeight="1.0000000000000000e+00" itree="917">
      <Node pos="s" depth="0" NCoef="0" IVar="0" Cut="2.2270152568817139e+00" cType="1" res="1.8882590811699629e-03" rms="4.0303796529769897e-01" purity="5.0553828477859497e-01" nType="0">
        <Node pos="l" depth="1" NCoef="0" IVar="4" Cut="2.5905754566192627e+00" cType="1" res="-8.5627594962716103e-03" rms="4.0599328279495239e-01" purity="5.5112022161483765e-01" nType="0">
          <Node pos="l" depth="2" NCoef="0" IVar="-1" Cut="0.0000000000000000e+00" cType="1" res="1.9175547640770674e-04" rms="4.1104227304458618e-01" purity="5.9201383590698242e-01" nType="-99"/>
          <Node pos="r" depth="2" NCoef="0" IVar="-1" Cut="0.0000000000000000e+00" cType="1" res="-2.3608333431184292e-03" rms="3.5121336579322815e-01" purity="1.8229743838310242e-01" nType="-99"/>
        </Node>
        <Node pos="r" depth="1" NCoef="0" IVar="15" Cut="1.9000000000000000e+01" cType="1" res="4.8729270696640015e-02" rms="3.8605687022209167e-01" purity="3.0124220252037048e-01" nType="0">
          <Node pos="l" depth="2" NCoef="0" IVar="-1" Cut="0.0000000000000000e+00" cType="1" res="1.1472463374957442e-03" rms="4.3795832991600037e-01" purity="4.1630768775939941e-01" nType="-99"/>
          <Node pos="r" depth="2" NCoef="0" IVar="-1" Cut="0.0000000000000000e+00" cType="1" res="-3.5170849878340960e-03" rms="2.2194182872772217e-01" purity="5.3406696766614914e-02" nType="-99"/>
        </Node>
      </Node>
    </BinaryTree>
    <BinaryTree type="DecisionTree" boostWeight="1.0000000000000000e+00" itree="918">
      <Node pos="s" depth="0" NCoef="0" IVar="15" Cut="8.4285717010498047e+00" cType="1" res="6.1428255867213011e-04" rms="4.0439581871032715e-01" purity="5.0896698236465454e-01" nType="0">
        <Node pos="l" depth="1" NCoef="0" IVar="20" Cut="3.5821082592010498e+00" cType="1" res="4.5681644231081009e-02" rms="3.6521741747856140e-01" purity="7.5620591640472412e-01" nType="0">
          <Node pos="l" depth="2" NCoef="0" IVar="-1" Cut="0.0000000000000000e+00" cType="1" res="1.3067986583337188e-04" rms="3.4216499328613281e-01" purity="8.5388475656509399e-01" nType="-99"/>
          <Node pos="r" depth="2" NCoef="0" IVar="-1" Cut="0.0000000000000000e+00" cType="1" res="3.6318704951554537e-04" rms="3.6596795916557312e-01" purity="7.3990511894226074e-01" nType="-99"/>
        </Node>
        <Node pos="r" depth="1" NCoef="0" IVar="15" Cut="1.2428571701049805e+01" cType="1" res="-1.4335938729345798e-02" rms="4.1550105810165405e-01" purity="4.2695024609565735e-01" nType="0">
          <Node pos="l" depth="2" NCoef="0" IVar="-1" Cut="0.0000000000000000e+00" cType="1" res="-1.2288306606933475e-03" rms="4.2096817493438721e-01" purity="5.1174008846282959e-01" nType="-99"/>
          <Node pos="r" depth="2" NCoef="0" IVar="-1" Cut="0.0000000000000000e+00" cType="1" res="2.8359628049656749e-04" rms="4.1136404871940613e-01" purity="3.8758289813995361e-01" nType="-99"/>
        </Node>
      </Node>
    </BinaryTree>
    <BinaryTree type="DecisionTree" boostWeight="1.0000000000000000e+00" itree="919">
      <Node pos="s" depth="0" NCoef="0" IVar="6" Cut="6.7182022333145142e-01" cType="1" res="-4.0344977751374245e-03" rms="4.0525844693183899e-01" purity="5.0678932666778564e-01" nType="0">
        <Node pos="l" depth="1" NCoef="0" IVar="-1" Cut="0.0000000000000000e+00" cType="1" res="-1.0336821433156729e-03" rms="4.6735671162605286e-01" purity="5.2143877744674683e-01" nType="-99"/>
        <Node pos="r" depth="1" NCoef="0" IVar="9" Cut="-1.0000000000000000e+01" cType="1" res="3.7342219729907811e-04" rms="4.0248835086822510e-01" purity="5.0637567043304443e-01" nType="0">
          <Node pos="l" depth="2" NCoef="0" IVar="-1" Cut="0.0000000000000000e+00" cType="1" res="6.1286403797566891e-03" rms="2.8174039721488953e-01" purity="9.3504798412322998e-01" nType="-99"/>
          <Node pos="r" depth="2" NCoef="0" IVar="-1" Cut="0.0000000000000000e+00" cType="1" res="-1.2133456766605377e-04" rms="4.0458256006240845e-01" purity="4.9414658546447754e-01" nType="-99"/>
        </Node>
      </Node>
    </BinaryTree>
    <BinaryTree type="DecisionTree" boostWeight="1.0000000000000000e+00" itree="920">
      <Node pos="s" depth="0" NCoef="0" IVar="9" Cut="-7.1428570747375488e+00" cType="1" res="-1.1792179197072983e-02" rms="4.0755879878997803e-01" purity="4.9429172277450562e-01" nType="0">
        <Node pos="l" depth="1" NCoef="0" IVar="9" Cut="-1.0414285659790039e+01" cType="1" res="-1.1452887207269669e-01" rms="4.2725527286529541e-01" purity="5.3580135107040405e-01" nType="0">
          <Node pos="l" depth="2" NCoef="0" IVar="-1" Cut="0.0000000000000000e+00" cType="1" res="4.8705106601119041e-03" rms="4.0908834338188171e-01" purity="7.5696551799774170e-01" nType="-99"/>
          <Node pos="r" depth="2" NCoef="0" IVar="-1" Cut="0.0000000000000000e+00" cType="1" res="-5.4710647091269493e-03" rms="4.2717579007148743e-01" purity="3.0963468551635742e-01" nType="-99"/>
        </Node>
        <Node pos="r" depth="1" NCoef="0" IVar="4" Cut="9.5036894083023071e-01" cType="1" res="-5.0445278175175190e-03" rms="4.0532141923904419e-01" purity="4.9156540632247925e-01" nType="0">
          <Node pos="l" depth="2" NCoef="0" IVar="-1" Cut="0.0000000000000000e+00" cType="1" res="1.1323132552206516e-02" rms="1.7847099900245667e-01" purity="9.4841891527175903e-01" nType="-99"/>
          <Node pos="r" depth="2" NCoef="0" IVar="-1" Cut="0.0000000000000000e+00" cType="1" res="-8.5790023149456829e-05" rms="4.1060075163841248e-01" purity="4.7510886192321777e-01" nType="-99"/>
        </Node>
      </Node>
    </BinaryTree>
    <BinaryTree type="DecisionTree" boostWeight="1.0000000000000000e+00" itree="921">
      <Node pos="s" depth="0" NCoef="0" IVar="6" Cut="8.7109071016311646e-01" cType="1" res="7.4276077793911099e-04" rms="4.0424641966819763e-01" purity="5.0194233655929565e-01" nType="0">
        <Node pos="l" depth="1" NCoef="0" IVar="2" Cut="2.3333332538604736e+00" cType="1" res="-8.3021752536296844e-02" rms="4.2862817645072937e-01" purity="6.0323250293731689e-01" nType="0">
          <Node pos="l" depth="2" NCoef="0" IVar="-1" Cut="0.0000000000000000e+00" cType="1" res="5.1839337684214115e-03" rms="3.5469159483909607e-01" purity="7.9261869192123413e-01" nType="-99"/>
          <Node pos="r" depth="2" NCoef="0" IVar="-1" Cut="0.0000000000000000e+00" cType="1" res="-4.9231159500777721e-03" rms="4.8153808712959290e-01" purity="3.6659809947013855e-01" nType="-99"/>
        </Node>
        <Node pos="r" depth="1" NCoef="0" IVar="0" Cut="2.6724205017089844e+00" cType="1" res="6.7558418959379196e-03" rms="4.0176805853843689e-01" purity="4.9467119574546814e-01" nType="0">
          <Node pos="l" depth="2" NCoef="0" IVar="-1" Cut="0.0000000000000000e+00" cType="1" res="2.7431600028648973e-04" rms="4.1230255365371704e-01" purity="5.4930442571640015e-01" nType="-99"/>
          <Node pos="r" depth="2" NCoef="0" IVar="-1" Cut="0.0000000000000000e+00" cType="1" res="-1.7538429237902164e-03" rms="3.1861096620559692e-01" purity="1.3404580950737000e-01" nType="-99"/>
        </Node>
      </Node>
    </BinaryTree>
    <BinaryTree type="DecisionTree" boostWeight="1.0000000000000000e+00" itree="922">
      <Node pos="s" depth="0" NCoef="0" IVar="9" Cut="-8.5714282989501953e+00" cType="1" res="-6.7901443690061569e-03" rms="4.0387853980064392e-01" purity="4.8886504769325256e-01" nType="0">
        <Node pos="l" depth="1" NCoef="0" IVar="20" Cut="1.2855079650878906e+01" cType="1" res="-1.0410763323307037e-01" rms="4.4036737084388733e-01" purity="5.9323072433471680e-01" nType="0">
          <Node pos="l" depth="2" NCoef="0" IVar="-1" Cut="0.0000000000000000e+00" cType="1" res="6.4899618737399578e-03" rms="3.8599672913551331e-01" purity="7.4897843599319458e-01" nType="-99"/>
          <Node pos="r" depth="2" NCoef="0" IVar="-1" Cut="0.0000000000000000e+00" cType="1" res="-4.0164468809962273e-03" rms="4.5094743371009827e-01" purity="5.0852578878402710e-01" nType="-99"/>
        </Node>
        <Node pos="r" depth="1" NCoef="0" IVar="18" Cut="2.1428570747375488e+00" cType="1" res="-1.9748827908188105e-03" rms="4.0137493610382080e-01" purity="4.8370102047920227e-01" nType="0">
          <Node pos="l" depth="2" NCoef="0" IVar="-1" Cut="0.0000000000000000e+00" cType="1" res="1.1748241377063096e-04" rms="3.0418828129768372e-01" purity="8.0062210559844971e-01" nType="-99"/>
          <Node pos="r" depth="2" NCoef="0" IVar="-1" Cut="0.0000000000000000e+00" cType="1" res="-6.1028349591651931e-05" rms="4.1176596283912659e-01" purity="4.4109541177749634e-01" nType="-99"/>
        </Node>
      </Node>
    </BinaryTree>
    <BinaryTree type="DecisionTree" boostWeight="1.0000000000000000e+00" itree="923">
      <Node pos="s" depth="0" NCoef="0" IVar="4" Cut="1.3726066350936890e+00" cType="1" res="-2.9708992224186659e-03" rms="4.0371346473693848e-01" purity="4.9961841106414795e-01" nType="0">
        <Node pos="l" depth="1" NCoef="0" IVar="0" Cut="4.6443110704421997e-01" cType="0" res="-4.7071948647499084e-02" rms="3.9655071496963501e-01" purity="7.1319097280502319e-01" nType="0">
          <Node pos="l" depth="2" NCoef="0" IVar="-1" Cut="0.0000000000000000e+00" cType="1" res="-8.2934420788660645e-06" rms="3.7269484996795654e-01" purity="7.5448119640350342e-01" nType="-99"/>
          <Node pos="r" depth="2" NCoef="0" IVar="-1" Cut="0.0000000000000000e+00" cType="1" res="-1.8970626406371593e-03" rms="4.6502205729484558e-01" purity="5.4374289512634277e-01" nType="-99"/>
        </Node>
        <Node pos="r" depth="1" NCoef="0" IVar="15" Cut="8.4285717010498047e+00" cType="1" res="1.0233813896775246e-02" rms="4.0490016341209412e-01" purity="4.3567064404487610e-01" nType="0">
          <Node pos="l" depth="2" NCoef="0" IVar="-1" Cut="0.0000000000000000e+00" cType="1" res="-3.3815077040344477e-04" rms="3.8763383030891418e-01" purity="6.7178624868392944e-01" nType="-99"/>
          <Node pos="r" depth="2" NCoef="0" IVar="-1" Cut="0.0000000000000000e+00" cType="1" res="7.6153795816935599e-05" rms="4.0718811750411987e-01" purity="3.8734361529350281e-01" nType="-99"/>
        </Node>
      </Node>
    </BinaryTree>
    <BinaryTree type="DecisionTree" boostWeight="1.0000000000000000e+00" itree="924">
      <Node pos="s" depth="0" NCoef="0" IVar="6" Cut="1.1043329238891602e+00" cType="1" res="-2.0329754333943129e-03" rms="4.0709599852561951e-01" purity="5.1600289344787598e-01" nType="0">
        <Node pos="l" depth="1" NCoef="0" IVar="10" Cut="1.7095781564712524e+00" cType="1" res="5.1102187484502792e-02" rms="3.5758730769157410e-01" purity="7.6269650459289551e-01" nType="0">
          <Node pos="l" depth="2" NCoef="0" IVar="-1" Cut="0.0000000000000000e+00" cType="1" res="-2.1134531125426292e-03" rms="3.5734987258911133e-01" purity="7.6350086927413940e-01" nType="-99"/>
          <Node pos="r" depth="2" NCoef="0" IVar="-1" Cut="0.0000000000000000e+00" cType="1" res="4.5907543972134590e-03" rms="3.2937794923782349e-01" purity="7.6004409790039062e-01" nType="-99"/>
        </Node>
        <Node pos="r" depth="1" NCoef="0" IVar="0" Cut="1.5589107275009155e+00" cType="1" res="-1.3919497840106487e-02" rms="4.1644129157066345e-01" purity="4.6081662178039551e-01" nType="0">
          <Node pos="l" depth="2" NCoef="0" IVar="-1" Cut="0.0000000000000000e+00" cType="1" res="-2.1936390839982778e-04" rms="4.2187330126762390e-01" purity="5.3133553266525269e-01" nType="-99"/>
          <Node pos="r" depth="2" NCoef="0" IVar="-1" Cut="0.0000000000000000e+00" cType="1" res="1.2815030459023546e-05" rms="4.1127377748489380e-01" purity="4.0291878581047058e-01" nType="-99"/>
        </Node>
      </Node>
    </BinaryTree>
    <BinaryTree type="DecisionTree" boostWeight="1.0000000000000000e+00" itree="925">
      <Node pos="s" depth="0" NCoef="0" IVar="9" Cut="-1.4285714149475098e+01" cType="1" res="-4.8609469085931778e-03" rms="4.0665012598037720e-01" purity="4.9730843305587769e-01" nType="0">
        <Node pos="l" depth="1" NCoef="0" IVar="-1" Cut="0.0000000000000000e+00" cType="1" res="-1.8600287148728967e-03" rms="4.9065622687339783e-01" purity="6.3105267286300659e-01" nType="-99"/>
        <Node pos="r" depth="1" NCoef="0" IVar="6" Cut="2.1635346412658691e+00" cType="1" res="-8.0108497058972716e-04" rms="4.0358367562294006e-01" purity="4.9417939782142639e-01" nType="0">
          <Node pos="l" depth="2" NCoef="0" IVar="-1" Cut="0.0000000000000000e+00" cType="1" res="-1.6100396169349551e-04" rms="4.1239061951637268e-01" purity="6.0981863737106323e-01" nType="-99"/>
          <Node pos="r" depth="2" NCoef="0" IVar="-1" Cut="0.0000000000000000e+00" cType="1" res="2.4822802515700459e-04" rms="3.8292151689529419e-01" purity="2.5186261534690857e-01" nType="-99"/>
        </Node>
      </Node>
    </BinaryTree>
    <BinaryTree type="DecisionTree" boostWeight="1.0000000000000000e+00" itree="926">
      <Node pos="s" depth="0" NCoef="0" IVar="15" Cut="8.0000000000000000e+00" cType="1" res="-2.4097715504467487e-03" rms="4.0683165192604065e-01" purity="4.9953573942184448e-01" nType="0">
        <Node pos="l" depth="1" NCoef="0" IVar="18" Cut="5.1428570747375488e+00" cType="1" res="2.0644549280405045e-02" rms="3.8158112764358521e-01" purity="7.1364700794219971e-01" nType="0">
          <Node pos="l" depth="2" NCoef="0" IVar="-1" Cut="0.0000000000000000e+00" cType="1" res="1.5621555503457785e-03" rms="3.6992660164833069e-01" purity="7.5614655017852783e-01" nType="-99"/>
          <Node pos="r" depth="2" NCoef="0" IVar="-1" Cut="0.0000000000000000e+00" cType="1" res="-7.3095960542559624e-03" rms="4.5350542664527893e-01" purity="2.9718637466430664e-01" nType="-99"/>
        </Node>
        <Node pos="r" depth="1" NCoef="0" IVar="4" Cut="1.3134663105010986e+00" cType="1" res="-1.0557128116488457e-02" rms="4.1508212685585022e-01" purity="4.2386922240257263e-01" nType="0">
          <Node pos="l" depth="2" NCoef="0" IVar="-1" Cut="0.0000000000000000e+00" cType="1" res="-2.7243315707892179e-03" rms="4.1776689887046814e-01" purity="5.9102565050125122e-01" nType="-99"/>
          <Node pos="r" depth="2" NCoef="0" IVar="-1" Cut="0.0000000000000000e+00" cType="1" res="1.7318346363026649e-04" rms="4.1382059454917908e-01" purity="3.9778846502304077e-01" nType="-99"/>
        </Node>
      </Node>
    </BinaryTree>
    <BinaryTree type="DecisionTree" boostWeight="1.0000000000000000e+00" itree="927">
      <Node pos="s" depth="0" NCoef="0" IVar="12" Cut="1.4285714924335480e-01" cType="1" res="4.8070433549582958e-03" rms="4.0022143721580505e-01" purity="5.0571668148040771e-01" nType="0">
        <Node pos="l" depth="1" NCoef="0" IVar="0" Cut="5.8690321445465088e-01" cType="1" res="-3.9295047521591187e-02" rms="3.8617259263992310e-01" purity="5.8842045068740845e-01" nType="0">
          <Node pos="l" depth="2" NCoef="0" IVar="-1" Cut="0.0000000000000000e+00" cType="1" res="9.8149536643177271e-04" rms="3.2496824860572815e-01" purity="8.4863066673278809e-01" nType="-99"/>
          <Node pos="r" depth="2" NCoef="0" IVar="-1" Cut="0.0000000000000000e+00" cType="1" res="-2.2869643289595842e-03" rms="3.9291521906852722e-01" purity="5.2920180559158325e-01" nType="-99"/>
        </Node>
        <Node pos="r" depth="1" NCoef="0" IVar="14" Cut="5.7889823913574219e+01" cType="1" res="1.4910372905433178e-02" rms="4.0269157290458679e-01" purity="4.8677009344100952e-01" nType="0">
          <Node pos="l" depth="2" NCoef="0" IVar="-1" Cut="0.0000000000000000e+00" cType="1" res="1.0878135217353702e-03" rms="3.9400020241737366e-01" purity="5.3028041124343872e-01" nType="-99"/>
          <Node pos="r" depth="2" NCoef="0" IVar="-1" Cut="0.0000000000000000e+00" cType="1" res="-3.6622278275899589e-04" rms="4.0890446305274963e-01" purity="4.4992974400520325e-01" nType="-99"/>
        </Node>
      </Node>
    </BinaryTree>
    <BinaryTree type="DecisionTree" boostWeight="1.0000000000000000e+00" itree="928">
      <Node pos="s" depth="0" NCoef="0" IVar="18" Cut="1.2857142686843872e+00" cType="1" res="-3.2550678588449955e-03" rms="4.0277424454689026e-01" purity="4.9853309988975525e-01" nType="0">
        <Node pos="l" depth="1" NCoef="0" IVar="5" Cut="1.3670370578765869e+00" cType="1" res="-7.9102113842964172e-02" rms="4.2010378837585449e-01" purity="5.8768749237060547e-01" nType="0">
          <Node pos="l" depth="2" NCoef="0" IVar="-1" Cut="0.0000000000000000e+00" cType="1" res="5.7857891079038382e-04" rms="3.5183903574943542e-01" purity="8.6139035224914551e-01" nType="-99"/>
          <Node pos="r" depth="2" NCoef="0" IVar="-1" Cut="0.0000000000000000e+00" cType="1" res="-4.6158810146152973e-03" rms="4.3311119079589844e-01" purity="2.9952535033226013e-01" nType="-99"/>
        </Node>
        <Node pos="r" depth="1" NCoef="0" IVar="6" Cut="6.6406840085983276e-01" cType="0" res="1.6379869775846601e-03" rms="4.0113848447799683e-01" purity="4.9278151988983154e-01" nType="0">
          <Node pos="l" depth="2" NCoef="0" IVar="-1" Cut="0.0000000000000000e+00" cType="1" res="7.6044590969104320e-05" rms="3.9976793527603149e-01" purity="4.9278318881988525e-01" nType="-99"/>
          <Node pos="r" depth="2" NCoef="0" IVar="-1" Cut="0.0000000000000000e+00" cType="1" res="-1.5134640270844102e-03" rms="4.2027199268341064e-01" purity="4.9273240566253662e-01" nType="-99"/>
        </Node>
      </Node>
    </BinaryTree>
    <BinaryTree type="DecisionTree" boostWeight="1.0000000000000000e+00" itree="929">
      <Node pos="s" depth="0" NCoef="0" IVar="6" Cut="1.1043329238891602e+00" cType="1" res="-7.2090071626007557e-03" rms="4.0147197246551514e-01" purity="4.8885715007781982e-01" nType="0">
        <Node pos="l" depth="1" NCoef="0" IVar="14" Cut="2.9242275238037109e+01" cType="1" res="-3.9877574890851974e-02" rms="4.0098696947097778e-01" purity="6.2518131732940674e-01" nType="0">
          <Node pos="l" depth="2" NCoef="0" IVar="-1" Cut="0.0000000000000000e+00" cType="1" res="3.9429880678653717e-02" rms="2.5987002253532410e-01" purity="8.5637736320495605e-01" nType="-99"/>
          <Node pos="r" depth="2" NCoef="0" IVar="-1" Cut="0.0000000000000000e+00" cType="1" res="-2.2098715417087078e-03" rms="4.0740182995796204e-01" purity="5.9629881381988525e-01" nType="-99"/>
        </Node>
        <Node pos="r" depth="1" NCoef="0" IVar="4" Cut="1.2721178531646729e+00" cType="1" res="1.3757288688793778e-03" rms="4.0115815401077271e-01" purity="4.5303350687026978e-01" nType="0">
          <Node pos="l" depth="2" NCoef="0" IVar="-1" Cut="0.0000000000000000e+00" cType="1" res="1.8638013862073421e-03" rms="2.6606100797653198e-01" purity="8.8374578952789307e-01" nType="-99"/>
          <Node pos="r" depth="2" NCoef="0" IVar="-1" Cut="0.0000000000000000e+00" cType="1" res="-1.4286590158008039e-04" rms="4.0563517808914185e-01" purity="4.3270686268806458e-01" nType="-99"/>
        </Node>
      </Node>
    </BinaryTree>
    <BinaryTree type="DecisionTree" boostWeight="1.0000000000000000e+00" itree="930">
      <Node pos="s" depth="0" NCoef="0" IVar="12" Cut="1.4285714924335480e-01" cType="1" res="-8.6278300732374191e-03" rms="4.1021245718002319e-01" purity="5.0145202875137329e-01" nType="0">
        <Node pos="l" depth="1" NCoef="0" IVar="5" Cut="9.7567862272262573e-01" cType="1" res="-6.4016744494438171e-02" rms="3.7320828437805176e-01" purity="5.3571528196334839e-01" nType="0">
          <Node pos="l" depth="2" NCoef="0" IVar="-1" Cut="0.0000000000000000e+00" cType="1" res="1.9375092815607786e-03" rms="2.3936221003532410e-01" purity="9.0521156787872314e-01" nType="-99"/>
          <Node pos="r" depth="2" NCoef="0" IVar="-1" Cut="0.0000000000000000e+00" cType="1" res="-2.4171392433345318e-03" rms="4.0042826533317566e-01" purity="3.9209893345832825e-01" nType="-99"/>
        </Node>
        <Node pos="r" depth="1" NCoef="0" IVar="8" Cut="4.4023809432983398e+00" cType="0" res="4.8530455678701401e-03" rms="4.1761413216590881e-01" purity="4.9311277270317078e-01" nType="0">
          <Node pos="l" depth="2" NCoef="0" IVar="-1" Cut="0.0000000000000000e+00" cType="1" res="3.5219702403992414e-03" rms="4.0091347694396973e-01" purity="6.6965705156326294e-01" nType="-99"/>
          <Node pos="r" depth="2" NCoef="0" IVar="-1" Cut="0.0000000000000000e+00" cType="1" res="1.5410837659146637e-04" rms="4.1687557101249695e-01" purity="4.8959314823150635e-01" nType="-99"/>
        </Node>
      </Node>
    </BinaryTree>
    <BinaryTree type="DecisionTree" boostWeight="1.0000000000000000e+00" itree="931">
      <Node pos="s" depth="0" NCoef="0" IVar="4" Cut="1.5763410329818726e+00" cType="1" res="-1.3001533225178719e-02" rms="4.0689924359321594e-01" purity="4.8613536357879639e-01" nType="0">
        <Node pos="l" depth="1" NCoef="0" IVar="18" Cut="4.2857141494750977e+00" cType="1" res="-4.7286175191402435e-02" rms="4.0191197395324707e-01" purity="6.6921043395996094e-01" nType="0">
          <Node pos="l" depth="2" NCoef="0" IVar="-1" Cut="0.0000000000000000e+00" cType="1" res="2.9407185502350330e-03" rms="3.5239610075950623e-01" purity="8.0103790760040283e-01" nType="-99"/>
          <Node pos="r" depth="2" NCoef="0" IVar="-1" Cut="0.0000000000000000e+00" cType="1" res="-2.6702650357037783e-03" rms="4.6218925714492798e-01" purity="4.5705470442771912e-01" nType="-99"/>
        </Node>
        <Node pos="r" depth="1" NCoef="0" IVar="4" Cut="1.8662449121475220e+00" cType="1" res="2.7462164871394634e-03" rms="4.0820568799972534e-01" purity="4.0204459428787231e-01" nType="0">
          <Node pos="l" depth="2" NCoef="0" IVar="-1" Cut="0.0000000000000000e+00" cType="1" res="1.1468743905425072e-03" rms="4.0394935011863708e-01" purity="6.6929280757904053e-01" nType="-99"/>
          <Node pos="r" depth="2" NCoef="0" IVar="-1" Cut="0.0000000000000000e+00" cType="1" res="-2.1270227443892509e-04" rms="4.0793582797050476e-01" purity="3.3049219846725464e-01" nType="-99"/>
        </Node>
      </Node>
    </BinaryTree>
    <BinaryTree type="DecisionTree" boostWeight="1.0000000000000000e+00" itree="932">
      <Node pos="s" depth="0" NCoef="0" IVar="7" Cut="-1.6761896610260010e+00" cType="1" res="-7.9715397441759706e-04" rms="3.9769497513771057e-01" purity="4.9077272415161133e-01" nType="0">
        <Node pos="l" depth="1" NCoef="0" IVar="20" Cut="9.2463502883911133e+00" cType="1" res="4.6677265316247940e-02" rms="3.8668528199195862e-01" purity="6.9294977188110352e-01" nType="0">
          <Node pos="l" depth="2" NCoef="0" IVar="-1" Cut="0.0000000000000000e+00" cType="1" res="5.3526810370385647e-03" rms="3.4746494889259338e-01" purity="8.5245078802108765e-01" nType="-99"/>
          <Node pos="r" depth="2" NCoef="0" IVar="-1" Cut="0.0000000000000000e+00" cType="1" res="-5.5498688016086817e-04" rms="3.9115044474601746e-01" purity="6.4880532026290894e-01" nType="-99"/>
        </Node>
        <Node pos="r" depth="1" NCoef="0" IVar="20" Cut="4.4328433990478516e+01" cType="0" res="-8.0039966851472855e-03" rms="3.9884606003761292e-01" purity="4.6008127927780151e-01" nType="0">
          <Node pos="l" depth="2" NCoef="0" IVar="-1" Cut="0.0000000000000000e+00" cType="1" res="2.1990042296238244e-04" rms="3.7431579828262329e-01" purity="5.9449636936187744e-01" nType="-99"/>
          <Node pos="r" depth="2" NCoef="0" IVar="-1" Cut="0.0000000000000000e+00" cType="1" res="-2.1634530276060104e-04" rms="4.0019637346267700e-01" purity="4.4778448343276978e-01" nType="-99"/>
        </Node>
      </Node>
    </BinaryTree>
    <BinaryTree type="DecisionTree" boostWeight="1.0000000000000000e+00" itree="933">
      <Node pos="s" depth="0" NCoef="0" IVar="12" Cut="1.4285714924335480e-01" cType="1" res="1.2721014209091663e-02" rms="4.0015330910682678e-01" purity="5.1066404581069946e-01" nType="0">
        <Node pos="l" depth="1" NCoef="0" IVar="9" Cut="-8.5714282989501953e+00" cType="0" res="-6.2742054462432861e-02" rms="3.9064201712608337e-01" purity="5.3312480449676514e-01" nType="0">
          <Node pos="l" depth="2" NCoef="0" IVar="-1" Cut="0.0000000000000000e+00" cType="1" res="-1.3959143543615937e-03" rms="3.6642417311668396e-01" purity="5.3361564874649048e-01" nType="-99"/>
          <Node pos="r" depth="2" NCoef="0" IVar="-1" Cut="0.0000000000000000e+00" cType="1" res="-5.1581375300884247e-03" rms="4.5541176199913025e-01" purity="5.3057664632797241e-01" nType="-99"/>
        </Node>
        <Node pos="r" depth="1" NCoef="0" IVar="18" Cut="6.4285712242126465e+00" cType="1" res="3.3406160771846771e-02" rms="4.0024432539939880e-01" purity="5.0450730323791504e-01" nType="0">
          <Node pos="l" depth="2" NCoef="0" IVar="-1" Cut="0.0000000000000000e+00" cType="1" res="6.3750770641490817e-04" rms="4.2729198932647705e-01" purity="6.2136733531951904e-01" nType="-99"/>
          <Node pos="r" depth="2" NCoef="0" IVar="-1" Cut="0.0000000000000000e+00" cType="1" res="-1.4917136868461967e-03" rms="2.7839013934135437e-01" purity="9.0228408575057983e-02" nType="-99"/>
        </Node>
      </Node>
    </BinaryTree>
    <BinaryTree type="DecisionTree" boostWeight="1.0000000000000000e+00" itree="934">
      <Node pos="s" depth="0" NCoef="0" IVar="7" Cut="4.2857143282890320e-01" cType="1" res="-1.2393969518598169e-04" rms="3.9375099539756775e-01" purity="4.8659646511077881e-01" nType="0">
        <Node pos="l" depth="1" NCoef="0" IVar="18" Cut="5.1428570747375488e+00" cType="1" res="2.1231314167380333e-02" rms="3.8491621613502502e-01" purity="5.2928739786148071e-01" nType="0">
          <Node pos="l" depth="2" NCoef="0" IVar="-1" Cut="0.0000000000000000e+00" cType="1" res="5.8022968005388975e-04" rms="3.7538814544677734e-01" purity="7.3635822534561157e-01" nType="-99"/>
          <Node pos="r" depth="2" NCoef="0" IVar="-1" Cut="0.0000000000000000e+00" cType="1" res="-4.8249232349917293e-04" rms="3.9183267951011658e-01" purity="3.3004766702651978e-01" nType="-99"/>
        </Node>
        <Node pos="r" depth="1" NCoef="0" IVar="15" Cut="7.5714287757873535e+00" cType="1" res="-6.3177764415740967e-02" rms="4.1234648227691650e-01" purity="3.6054649949073792e-01" nType="0">
          <Node pos="l" depth="2" NCoef="0" IVar="-1" Cut="0.0000000000000000e+00" cType="1" res="-2.6421279180794954e-03" rms="4.4547289609909058e-01" purity="4.3112850189208984e-01" nType="-99"/>
          <Node pos="r" depth="2" NCoef="0" IVar="-1" Cut="0.0000000000000000e+00" cType="1" res="4.8873393097892404e-04" rms="3.9496621489524841e-01" purity="3.3884781599044800e-01" nType="-99"/>
        </Node>
      </Node>
    </BinaryTree>
    <BinaryTree type="DecisionTree" boostWeight="1.0000000000000000e+00" itree="935">
      <Node pos="s" depth="0" NCoef="0" IVar="8" Cut="2.4261906147003174e+00" cType="1" res="-1.8319636583328247e-02" rms="4.0263131260871887e-01" purity="4.8445796966552734e-01" nType="0">
        <Node pos="l" depth="1" NCoef="0" IVar="20" Cut="1.5763013839721680e+01" cType="1" res="-1.2461985461413860e-02" rms="4.0236973762512207e-01" purity="4.9720230698585510e-01" nType="0">
          <Node pos="l" depth="2" NCoef="0" IVar="-1" Cut="0.0000000000000000e+00" cType="1" res="-8.3193794125691056e-05" rms="4.0055406093597412e-01" purity="5.5909562110900879e-01" nType="-99"/>
          <Node pos="r" depth="2" NCoef="0" IVar="-1" Cut="0.0000000000000000e+00" cType="1" res="-1.6627462173346430e-05" rms="4.0244156122207642e-01" purity="4.5090842247009277e-01" nType="-99"/>
        </Node>
        <Node pos="r" depth="1" NCoef="0" IVar="20" Cut="1.7655624389648438e+01" cType="0" res="-7.3125749826431274e-02" rms="4.0094545483589172e-01" purity="3.6521825194358826e-01" nType="0">
          <Node pos="l" depth="2" NCoef="0" IVar="-1" Cut="0.0000000000000000e+00" cType="1" res="2.5433304253965616e-03" rms="3.8705357909202576e-01" purity="4.2283159494400024e-01" nType="-99"/>
          <Node pos="r" depth="2" NCoef="0" IVar="-1" Cut="0.0000000000000000e+00" cType="1" res="-2.7607404626905918e-03" rms="3.9955636858940125e-01" purity="3.1472951173782349e-01" nType="-99"/>
        </Node>
      </Node>
    </BinaryTree>
    <BinaryTree type="DecisionTree" boostWeight="1.0000000000000000e+00" itree="936">
      <Node pos="s" depth="0" NCoef="0" IVar="9" Cut="-1.4285714626312256e+00" cType="1" res="1.4612982980906963e-02" rms="3.9234325289726257e-01" purity="5.0398451089859009e-01" nType="0">
        <Node pos="l" depth="1" NCoef="0" IVar="5" Cut="4.9542820453643799e-01" cType="1" res="-2.9751887544989586e-02" rms="4.0064018964767456e-01" purity="5.4577052593231201e-01" nType="0">
          <Node pos="l" depth="2" NCoef="0" IVar="-1" Cut="0.0000000000000000e+00" cType="1" res="4.1923709213733673e-03" rms="1.5691059827804565e-01" purity="9.4357943534851074e-01" nType="-99"/>
          <Node pos="r" depth="2" NCoef="0" IVar="-1" Cut="0.0000000000000000e+00" cType="1" res="-4.4839319889433682e-04" rms="4.1038441658020020e-01" purity="5.1741552352905273e-01" nType="-99"/>
        </Node>
        <Node pos="r" depth="1" NCoef="0" IVar="18" Cut="6.1904764175415039e+00" cType="1" res="2.7909414842724800e-02" rms="3.8883757591247559e-01" purity="4.9146097898483276e-01" nType="0">
          <Node pos="l" depth="2" NCoef="0" IVar="-1" Cut="0.0000000000000000e+00" cType="1" res="4.9142289208248258e-04" rms="4.1633164882659912e-01" purity="6.0792350769042969e-01" nType="-99"/>
          <Node pos="r" depth="2" NCoef="0" IVar="-1" Cut="0.0000000000000000e+00" cType="1" res="-2.3911218158900738e-03" rms="2.6715928316116333e-01" purity="8.4142625331878662e-02" nType="-99"/>
        </Node>
      </Node>
    </BinaryTree>
    <BinaryTree type="DecisionTree" boostWeight="1.0000000000000000e+00" itree="937">
      <Node pos="s" depth="0" NCoef="0" IVar="8" Cut="7.1785717010498047e+00" cType="1" res="-8.1811286509037018e-03" rms="4.0920841693878174e-01" purity="4.9299445748329163e-01" nType="0">
        <Node pos="l" depth="1" NCoef="0" IVar="15" Cut="5.5714287757873535e+00" cType="1" res="-4.4112228788435459e-03" rms="4.0744090080261230e-01" purity="4.9594512581825256e-01" nType="0">
          <Node pos="l" depth="2" NCoef="0" IVar="-1" Cut="0.0000000000000000e+00" cType="1" res="-1.2600198388099670e-03" rms="3.2252359390258789e-01" purity="7.8383415937423706e-01" nType="-99"/>
          <Node pos="r" depth="2" NCoef="0" IVar="-1" Cut="0.0000000000000000e+00" cType="1" res="4.1875933675328270e-05" rms="4.1522809863090515e-01" purity="4.6402138471603394e-01" nType="-99"/>
        </Node>
        <Node pos="r" depth="1" NCoef="0" IVar="-1" Cut="0.0000000000000000e+00" cType="1" res="-3.8096014759503305e-04" rms="4.5020213723182678e-01" purity="3.6537250876426697e-01" nType="-99"/>
      </Node>
    </BinaryTree>
    <BinaryTree type="DecisionTree" boostWeight="1.0000000000000000e+00" itree="938">
      <Node pos="s" depth="0" NCoef="0" IVar="7" Cut="-7.3857140541076660e+00" cType="1" res="-2.8591388836503029e-03" rms="4.0075033903121948e-01" purity="4.9113553762435913e-01" nType="0">
        <Node pos="l" depth="1" NCoef="0" IVar="12" Cut="1.4285714924335480e-01" cType="0" res="-1.2832099199295044e-01" rms="4.1601145267486572e-01" purity="5.2874696254730225e-01" nType="0">
          <Node pos="l" depth="2" NCoef="0" IVar="-1" Cut="0.0000000000000000e+00" cType="1" res="5.9536960907280445e-03" rms="4.3073320388793945e-01" purity="5.6295412778854370e-01" nType="-99"/>
          <Node pos="r" depth="2" NCoef="0" IVar="-1" Cut="0.0000000000000000e+00" cType="1" res="-7.5253425166010857e-03" rms="3.9441123604774475e-01" purity="5.0837570428848267e-01" nType="-99"/>
        </Node>
        <Node pos="r" depth="1" NCoef="0" IVar="7" Cut="-1.9690474271774292e+00" cType="1" res="3.1834128312766552e-03" rms="3.9900612831115723e-01" purity="4.8932409286499023e-01" nType="0">
          <Node pos="l" depth="2" NCoef="0" IVar="-1" Cut="0.0000000000000000e+00" cType="1" res="1.6726366011425853e-03" rms="3.8332390785217285e-01" purity="6.8263787031173706e-01" nType="-99"/>
          <Node pos="r" depth="2" NCoef="0" IVar="-1" Cut="0.0000000000000000e+00" cType="1" res="-1.5926445485092700e-04" rms="3.9988750219345093e-01" purity="4.7002491354942322e-01" nType="-99"/>
        </Node>
      </Node>
    </BinaryTree>
    <BinaryTree type="DecisionTree" boostWeight="1.0000000000000000e+00" itree="939">
      <Node pos="s" depth="0" NCoef="0" IVar="20" Cut="3.5821082592010498e+00" cType="0" res="8.6440164595842361e-03" rms="3.9693427085876465e-01" purity="5.0627392530441284e-01" nType="0">
        <Node pos="l" depth="1" NCoef="0" IVar="15" Cut="6.8571429252624512e+00" cType="1" res="1.9336940720677376e-02" rms="3.9463761448860168e-01" purity="5.2044880390167236e-01" nType="0">
          <Node pos="l" depth="2" NCoef="0" IVar="-1" Cut="0.0000000000000000e+00" cType="1" res="-7.6447904575616121e-05" rms="2.7985513210296631e-01" purity="8.5141825675964355e-01" nType="-99"/>
          <Node pos="r" depth="2" NCoef="0" IVar="-1" Cut="0.0000000000000000e+00" cType="1" res="1.1050001194234937e-04" rms="4.1042032837867737e-01" purity="4.6121349930763245e-01" nType="-99"/>
        </Node>
        <Node pos="r" depth="1" NCoef="0" IVar="9" Cut="-1.3976190090179443e+00" cType="1" res="-7.2253502905368805e-02" rms="4.0484723448753357e-01" purity="3.9903408288955688e-01" nType="0">
          <Node pos="l" depth="2" NCoef="0" IVar="-1" Cut="0.0000000000000000e+00" cType="1" res="5.9573207981884480e-03" rms="3.6685609817504883e-01" purity="7.0844411849975586e-01" nType="-99"/>
          <Node pos="r" depth="2" NCoef="0" IVar="-1" Cut="0.0000000000000000e+00" cType="1" res="-2.6936498470604420e-03" rms="4.0164446830749512e-01" purity="3.3197256922721863e-01" nType="-99"/>
        </Node>
      </Node>
    </BinaryTree>
    <BinaryTree type="DecisionTree" boostWeight="1.0000000000000000e+00" itree="940">
      <Node pos="s" depth="0" NCoef="0" IVar="5" Cut="8.7960070371627808e-01" cType="1" res="-1.0669350624084473e-02" rms="3.9819064736366272e-01" purity="4.8240989446640015e-01" nType="0">
        <Node pos="l" depth="1" NCoef="0" IVar="20" Cut="3.6362220764160156e+01" cType="1" res="5.0932917743921280e-02" rms="3.2388058304786682e-01" purity="8.4298449754714966e-01" nType="0">
          <Node pos="l" depth="2" NCoef="0" IVar="-1" Cut="0.0000000000000000e+00" cType="1" res="2.1826142910867929e-03" rms="2.8420600295066833e-01" purity="9.0016603469848633e-01" nType="-99"/>
          <Node pos="r" depth="2" NCoef="0" IVar="-1" Cut="0.0000000000000000e+00" cType="1" res="-3.9428481832146645e-03" rms="3.9837899804115295e-01" purity="6.3248431682586670e-01" nType="-99"/>
        </Node>
        <Node pos="r" depth="1" NCoef="0" IVar="8" Cut="6.6857142448425293e+00" cType="0" res="-1.6996923834085464e-02" rms="4.0452125668525696e-01" purity="4.4537293910980225e-01" nType="0">
          <Node pos="l" depth="2" NCoef="0" IVar="-1" Cut="0.0000000000000000e+00" cType="1" res="2.4672152358107269e-04" rms="4.0326607227325439e-01" purity="6.3651406764984131e-01" nType="-99"/>
          <Node pos="r" depth="2" NCoef="0" IVar="-1" Cut="0.0000000000000000e+00" cType="1" res="-1.2996818986721337e-04" rms="4.0398609638214111e-01" purity="4.4201683998107910e-01" nType="-99"/>
        </Node>
      </Node>
    </BinaryTree>
    <BinaryTree type="DecisionTree" boostWeight="1.0000000000000000e+00" itree="941">
      <Node pos="s" depth="0" NCoef="0" IVar="0" Cut="8.8515645265579224e-01" cType="1" res="4.2563839815557003e-03" rms="4.0206241607666016e-01" purity="5.0866842269897461e-01" nType="0">
        <Node pos="l" depth="1" NCoef="0" IVar="14" Cut="6.5852912902832031e+01" cType="0" res="-3.3180948346853256e-02" rms="4.2381498217582703e-01" purity="5.8419662714004517e-01" nType="0">
          <Node pos="l" depth="2" NCoef="0" IVar="-1" Cut="0.0000000000000000e+00" cType="1" res="2.9781966004520655e-03" rms="3.9187464118003845e-01" purity="6.4704829454421997e-01" nType="-99"/>
          <Node pos="r" depth="2" NCoef="0" IVar="-1" Cut="0.0000000000000000e+00" cType="1" res="-3.1065708026289940e-03" rms="4.4012558460235596e-01" purity="5.3653800487518311e-01" nType="-99"/>
        </Node>
        <Node pos="r" depth="1" NCoef="0" IVar="4" Cut="1.8317128419876099e+00" cType="1" res="1.5525677241384983e-02" rms="3.9458528161048889e-01" purity="4.8593312501907349e-01" nType="0">
          <Node pos="l" depth="2" NCoef="0" IVar="-1" Cut="0.0000000000000000e+00" cType="1" res="1.2961702886968851e-03" rms="3.6669307947158813e-01" purity="7.7606314420700073e-01" nType="-99"/>
          <Node pos="r" depth="2" NCoef="0" IVar="-1" Cut="0.0000000000000000e+00" cType="1" res="-2.6158386026509106e-04" rms="4.0684577822685242e-01" purity="3.3690616488456726e-01" nType="-99"/>
        </Node>
      </Node>
    </BinaryTree>
    <BinaryTree type="DecisionTree" boostWeight="1.0000000000000000e+00" itree="942">
      <Node pos="s" depth="0" NCoef="0" IVar="8" Cut="2.2428572177886963e+00" cType="0" res="1.2384088477119803e-03" rms="3.9920380711555481e-01" purity="5.0068783760070801e-01" nType="0">
        <Node pos="l" depth="1" NCoef="0" IVar="18" Cut="5.3333334922790527e+00" cType="1" res="8.0209992825984955e-02" rms="4.1101753711700439e-01" purity="5.4605388641357422e-01" nType="0">
          <Node pos="l" depth="2" NCoef="0" IVar="-1" Cut="0.0000000000000000e+00" cType="1" res="1.0242036296403967e-05" rms="3.8956999778747559e-01" purity="6.8949276208877563e-01" nType="-99"/>
          <Node pos="r" depth="2" NCoef="0" IVar="-1" Cut="0.0000000000000000e+00" cType="1" res="-1.7868200666271150e-04" rms="4.3171599507331848e-01" purity="3.0045658349990845e-01" nType="-99"/>
        </Node>
        <Node pos="r" depth="1" NCoef="0" IVar="18" Cut="3.4285714626312256e+00" cType="1" res="-5.7283919304609299e-03" rms="3.9739218354225159e-01" purity="4.9668568372726440e-01" nType="0">
          <Node pos="l" depth="2" NCoef="0" IVar="-1" Cut="0.0000000000000000e+00" cType="1" res="3.8843590300530195e-04" rms="3.0845788121223450e-01" purity="7.6774179935455322e-01" nType="-99"/>
          <Node pos="r" depth="2" NCoef="0" IVar="-1" Cut="0.0000000000000000e+00" cType="1" res="-1.3593641051556915e-04" rms="4.2079350352287292e-01" purity="4.1153833270072937e-01" nType="-99"/>
        </Node>
      </Node>
    </BinaryTree>
    <BinaryTree type="DecisionTree" boostWeight="1.0000000000000000e+00" itree="943">
      <Node pos="s" depth="0" NCoef="0" IVar="9" Cut="-4.2857141494750977e+00" cType="1" res="1.4845905825495720e-02" rms="3.9544457197189331e-01" purity="5.0938808917999268e-01" nType="0">
        <Node pos="l" depth="1" NCoef="0" IVar="12" Cut="1.1428571939468384e+00" cType="1" res="8.9721269905567169e-02" rms="3.4604540467262268e-01" purity="7.3815244436264038e-01" nType="0">
          <Node pos="l" depth="2" NCoef="0" IVar="-1" Cut="0.0000000000000000e+00" cType="1" res="-1.2570914113894105e-03" rms="3.2223293185234070e-01" purity="7.6172578334808350e-01" nType="-99"/>
          <Node pos="r" depth="2" NCoef="0" IVar="-1" Cut="0.0000000000000000e+00" cType="1" res="1.0220789117738605e-03" rms="3.5972231626510620e-01" purity="6.9605362415313721e-01" nType="-99"/>
        </Node>
        <Node pos="r" depth="1" NCoef="0" IVar="9" Cut="-1.4166666269302368e+00" cType="1" res="8.2830181345343590e-03" rms="3.9881387352943420e-01" purity="4.8933669924736023e-01" nType="0">
          <Node pos="l" depth="2" NCoef="0" IVar="-1" Cut="0.0000000000000000e+00" cType="1" res="-4.8355272156186402e-04" rms="4.1706821322441101e-01" purity="4.9927157163619995e-01" nType="-99"/>
          <Node pos="r" depth="2" NCoef="0" IVar="-1" Cut="0.0000000000000000e+00" cType="1" res="4.8282508942065760e-06" rms="3.9503303170204163e-01" purity="4.8772719502449036e-01" nType="-99"/>
        </Node>
      </Node>
    </BinaryTree>
    <BinaryTree type="DecisionTree" boostWeight="1.0000000000000000e+00" itree="944">
      <Node pos="s" depth="0" NCoef="0" IVar="3" Cut="5.8571429252624512e+00" cType="0" res="-1.7848784336820245e-03" rms="4.0230312943458557e-01" purity="4.9703431129455566e-01" nType="0">
        <Node pos="l" depth="1" NCoef="0" IVar="20" Cut="1.2755418777465820e+01" cType="1" res="1.1299618333578110e-01" rms="4.1859960556030273e-01" purity="7.1186518669128418e-01" nType="0">
          <Node pos="l" depth="2" NCoef="0" IVar="-1" Cut="0.0000000000000000e+00" cType="1" res="4.1293306276202202e-03" rms="3.5857442021369934e-01" purity="9.0074139833450317e-01" nType="-99"/>
          <Node pos="r" depth="2" NCoef="0" IVar="-1" Cut="0.0000000000000000e+00" cType="1" res="-1.8854439258575439e-03" rms="4.3112814426422119e-01" purity="5.5944275856018066e-01" nType="-99"/>
        </Node>
        <Node pos="r" depth="1" NCoef="0" IVar="10" Cut="3.3104176521301270e+00" cType="1" res="-6.3123558647930622e-03" rms="4.0097376704216003e-01" purity="4.8856046795845032e-01" nType="0">
          <Node pos="l" depth="2" NCoef="0" IVar="-1" Cut="0.0000000000000000e+00" cType="1" res="3.7060762406326830e-04" rms="4.0291896462440491e-01" purity="5.4319024085998535e-01" nType="-99"/>
          <Node pos="r" depth="2" NCoef="0" IVar="-1" Cut="0.0000000000000000e+00" cType="1" res="-2.1963147446513176e-03" rms="3.8416826725006104e-01" purity="2.1324191987514496e-01" nType="-99"/>
        </Node>
      </Node>
    </BinaryTree>
    <BinaryTree type="DecisionTree" boostWeight="1.0000000000000000e+00" itree="945">
      <Node pos="s" depth="0" NCoef="0" IVar="0" Cut="1.5589107275009155e+00" cType="1" res="6.6979196853935719e-03" rms="4.0338537096977234e-01" purity="5.1838737726211548e-01" nType="0">
        <Node pos="l" depth="1" NCoef="0" IVar="20" Cut="2.8583145141601562e+01" cType="1" res="2.9391156509518623e-02" rms="3.9951103925704956e-01" purity="6.4276498556137085e-01" nType="0">
          <Node pos="l" depth="2" NCoef="0" IVar="-1" Cut="0.0000000000000000e+00" cType="1" res="-5.9269467601552606e-04" rms="3.8684669137001038e-01" purity="6.5293824672698975e-01" nType="-99"/>
          <Node pos="r" depth="2" NCoef="0" IVar="-1" Cut="0.0000000000000000e+00" cType="1" res="1.4774611918255687e-03" rms="4.2705529928207397e-01" purity="6.1471283435821533e-01" nType="-99"/>
        </Node>
        <Node pos="r" depth="1" NCoef="0" IVar="15" Cut="3.2857143878936768e+00" cType="1" res="-1.8258538097143173e-02" rms="4.0614223480224609e-01" purity="3.8160538673400879e-01" nType="0">
          <Node pos="l" depth="2" NCoef="0" IVar="-1" Cut="0.0000000000000000e+00" cType="1" res="-6.4269453287124634e-03" rms="4.9623951315879822e-01" purity="3.9945742487907410e-01" nType="-99"/>
          <Node pos="r" depth="2" NCoef="0" IVar="-1" Cut="0.0000000000000000e+00" cType="1" res="2.2301191347651184e-04" rms="4.0000104904174805e-01" purity="3.8087373971939087e-01" nType="-99"/>
        </Node>
      </Node>
    </BinaryTree>
    <BinaryTree type="DecisionTree" boostWeight="1.0000000000000000e+00" itree="946">
      <Node pos="s" depth="0" NCoef="0" IVar="3" Cut="5.8571429252624512e+00" cType="0" res="1.8458600388839841e-03" rms="3.9986902475357056e-01" purity="4.9917533993721008e-01" nType="0">
        <Node pos="l" depth="1" NCoef="0" IVar="15" Cut="9.8571424484252930e+00" cType="0" res="1.0957019031047821e-01" rms="3.9573687314987183e-01" purity="6.7817455530166626e-01" nType="0">
          <Node pos="l" depth="2" NCoef="0" IVar="-1" Cut="0.0000000000000000e+00" cType="1" res="3.4239806700497866e-03" rms="3.5276412963867188e-01" purity="7.0611780881881714e-01" nType="-99"/>
          <Node pos="r" depth="2" NCoef="0" IVar="-1" Cut="0.0000000000000000e+00" cType="1" res="-2.9665213078260422e-03" rms="4.0325239300727844e-01" purity="6.5522706508636475e-01" nType="-99"/>
        </Node>
        <Node pos="r" depth="1" NCoef="0" IVar="3" Cut="2.1428570747375488e+00" cType="0" res="-3.1491741538047791e-03" rms="3.9935529232025146e-01" purity="4.9087542295455933e-01" nType="0">
          <Node pos="l" depth="2" NCoef="0" IVar="-1" Cut="0.0000000000000000e+00" cType="1" res="-1.8213898874819279e-04" rms="4.0162688493728638e-01" purity="5.3712135553359985e-01" nType="-99"/>
          <Node pos="r" depth="2" NCoef="0" IVar="-1" Cut="0.0000000000000000e+00" cType="1" res="-1.1525265108502936e-05" rms="3.9652413129806519e-01" purity="4.5724925398826599e-01" nType="-99"/>
        </Node>
      </Node>
    </BinaryTree>
    <BinaryTree type="DecisionTree" boostWeight="1.0000000000000000e+00" itree="947">
      <Node pos="s" depth="0" NCoef="0" IVar="15" Cut="4.8571429252624512e+00" cType="1" res="-5.3901853971183300e-04" rms="4.0114262700080872e-01" purity="4.9602442979812622e-01" nType="0">
        <Node pos="l" depth="1" NCoef="0" IVar="9" Cut="-4.2857141494750977e+00" cType="1" res="-6.4622499048709869e-02" rms="4.1891589760780334e-01" purity="6.2952458858489990e-01" nType="0">
          <Node pos="l" depth="2" NCoef="0" IVar="-1" Cut="0.0000000000000000e+00" cType="1" res="6.0996883548796177e-03" rms="3.0457609891891479e-01" purity="8.4935289621353149e-01" nType="-99"/>
          <Node pos="r" depth="2" NCoef="0" IVar="-1" Cut="0.0000000000000000e+00" cType="1" res="-4.1068061254918575e-03" rms="4.3410265445709229e-01" purity="5.6860494613647461e-01" nType="-99"/>
        </Node>
        <Node pos="r" depth="1" NCoef="0" IVar="9" Cut="-1.1428571701049805e+01" cType="1" res="4.8039089888334274e-03" rms="3.9916068315505981e-01" purity="4.8489394783973694e-01" nType="0">
          <Node pos="l" depth="2" NCoef="0" IVar="-1" Cut="0.0000000000000000e+00" cType="1" res="3.5550508182495832e-03" rms="4.6041560173034668e-01" purity="6.5747141838073730e-01" nType="-99"/>
          <Node pos="r" depth="2" NCoef="0" IVar="-1" Cut="0.0000000000000000e+00" cType="1" res="2.3439162760041654e-05" rms="3.9670816063880920e-01" purity="4.8019197583198547e-01" nType="-99"/>
        </Node>
      </Node>
    </BinaryTree>
    <BinaryTree type="DecisionTree" boostWeight="1.0000000000000000e+00" itree="948">
      <Node pos="s" depth="0" NCoef="0" IVar="9" Cut="-1.0000000000000000e+01" cType="1" res="3.2309556845575571e-03" rms="4.0158408880233765e-01" purity="5.0290942192077637e-01" nType="0">
        <Node pos="l" depth="1" NCoef="0" IVar="-1" Cut="0.0000000000000000e+00" cType="1" res="1.8043613526970148e-03" rms="3.0058243870735168e-01" purity="9.4121575355529785e-01" nType="-99"/>
        <Node pos="r" depth="1" NCoef="0" IVar="20" Cut="1.7164216995239258e+01" cType="1" res="-9.5437862910330296e-04" rms="4.0341326594352722e-01" purity="4.9001955986022949e-01" nType="0">
          <Node pos="l" depth="2" NCoef="0" IVar="-1" Cut="0.0000000000000000e+00" cType="1" res="-4.4465655810199678e-04" rms="4.2066091299057007e-01" purity="4.9443155527114868e-01" nType="-99"/>
          <Node pos="r" depth="2" NCoef="0" IVar="-1" Cut="0.0000000000000000e+00" cType="1" res="2.7302559465169907e-04" rms="3.8293105363845825e-01" purity="4.8543685674667358e-01" nType="-99"/>
        </Node>
      </Node>
    </BinaryTree>
    <BinaryTree type="DecisionTree" boostWeight="1.0000000000000000e+00" itree="949">
      <Node pos="s" depth="0" NCoef="0" IVar="3" Cut="3.9047617912292480e+00" cType="1" res="-6.1577712185680866e-03" rms="4.0206009149551392e-01" purity="4.9769860506057739e-01" nType="0">
        <Node pos="l" depth="1" NCoef="0" IVar="6" Cut="4.5088443160057068e-01" cType="0" res="9.5814000815153122e-03" rms="3.9259988069534302e-01" purity="5.0860685110092163e-01" nType="0">
          <Node pos="l" depth="2" NCoef="0" IVar="-1" Cut="0.0000000000000000e+00" cType="1" res="3.8999959360808134e-04" rms="3.8969844579696655e-01" purity="5.1071929931640625e-01" nType="-99"/>
          <Node pos="r" depth="2" NCoef="0" IVar="-1" Cut="0.0000000000000000e+00" cType="1" res="-4.0114829316735268e-03" rms="4.5693978667259216e-01" purity="4.2671948671340942e-01" nType="-99"/>
        </Node>
        <Node pos="r" depth="1" NCoef="0" IVar="20" Cut="1.5661799430847168e+01" cType="1" res="-4.7304522246122360e-02" rms="4.2304250597953796e-01" purity="4.6918132901191711e-01" nType="0">
          <Node pos="l" depth="2" NCoef="0" IVar="-1" Cut="0.0000000000000000e+00" cType="1" res="2.0662259776145220e-03" rms="4.2085078358650208e-01" purity="5.4796582460403442e-01" nType="-99"/>
          <Node pos="r" depth="2" NCoef="0" IVar="-1" Cut="0.0000000000000000e+00" cType="1" res="-3.2932525500655174e-03" rms="4.1898155212402344e-01" purity="3.9457172155380249e-01" nType="-99"/>
        </Node>
      </Node>
    </BinaryTree>
    <BinaryTree type="DecisionTree" boostWeight="1.0000000000000000e+00" itree="950">
      <Node pos="s" depth="0" NCoef="0" IVar="6" Cut="1.7647298574447632e+00" cType="1" res="-6.0274736024439335e-03" rms="3.9414238929748535e-01" purity="4.8740133643150330e-01" nType="0">
        <Node pos="l" depth="1" NCoef="0" IVar="20" Cut="4.0111274719238281e+01" cType="0" res="1.5778871253132820e-02" rms="3.9458966255187988e-01" purity="6.7018377780914307e-01" nType="0">
          <Node pos="l" depth="2" NCoef="0" IVar="-1" Cut="0.0000000000000000e+00" cType="1" res="4.5954729430377483e-03" rms="2.8706690669059753e-01" purity="7.7667808532714844e-01" nType="-99"/>
          <Node pos="r" depth="2" NCoef="0" IVar="-1" Cut="0.0000000000000000e+00" cType="1" res="-4.9851206131279469e-04" rms="4.0462160110473633e-01" purity="6.5612834692001343e-01" nType="-99"/>
        </Node>
        <Node pos="r" depth="1" NCoef="0" IVar="14" Cut="1.9856044006347656e+02" cType="1" res="-2.5920242071151733e-02" rms="3.9267912507057190e-01" purity="3.2065862417221069e-01" nType="0">
          <Node pos="l" depth="2" NCoef="0" IVar="-1" Cut="0.0000000000000000e+00" cType="1" res="-3.7070945836603642e-05" rms="3.9329034090042114e-01" purity="3.2914441823959351e-01" nType="-99"/>
          <Node pos="r" depth="2" NCoef="0" IVar="-1" Cut="0.0000000000000000e+00" cType="1" res="-1.9296584650874138e-03" rms="3.6633700132369995e-01" purity="1.8894341588020325e-01" nType="-99"/>
        </Node>
      </Node>
    </BinaryTree>
    <BinaryTree type="DecisionTree" boostWeight="1.0000000000000000e+00" itree="951">
      <Node pos="s" depth="0" NCoef="0" IVar="5" Cut="1.3193994760513306e+00" cType="1" res="-7.9740956425666809e-03" rms="4.0238177776336670e-01" purity="4.8860856890678406e-01" nType="0">
        <Node pos="l" depth="1" NCoef="0" IVar="5" Cut="1.0679446458816528e+00" cType="0" res="2.4544233456254005e-02" rms="3.8000425696372986e-01" purity="7.2778439521789551e-01" nType="0">
          <Node pos="l" depth="2" NCoef="0" IVar="-1" Cut="0.0000000000000000e+00" cType="1" res="1.3845316134393215e-03" rms="3.4401866793632507e-01" purity="7.5943470001220703e-01" nType="-99"/>
          <Node pos="r" depth="2" NCoef="0" IVar="-1" Cut="0.0000000000000000e+00" cType="1" res="-2.7549103833734989e-04" rms="3.9085149765014648e-01" purity="7.1443712711334229e-01" nType="-99"/>
        </Node>
        <Node pos="r" depth="1" NCoef="0" IVar="3" Cut="4.5714287757873535e+00" cType="0" res="-2.2761942818760872e-02" rms="4.1130682826042175e-01" purity="3.7984234094619751e-01" nType="0">
          <Node pos="l" depth="2" NCoef="0" IVar="-1" Cut="0.0000000000000000e+00" cType="1" res="6.0303480131551623e-04" rms="4.2667755484580994e-01" purity="5.4381781816482544e-01" nType="-99"/>
          <Node pos="r" depth="2" NCoef="0" IVar="-1" Cut="0.0000000000000000e+00" cType="1" res="-2.6498181978240609e-04" rms="4.0845310688018799e-01" purity="3.6422854661941528e-01" nType="-99"/>
        </Node>
      </Node>
    </BinaryTree>
    <BinaryTree type="DecisionTree" boostWeight="1.0000000000000000e+00" itree="952">
      <Node pos="s" depth="0" NCoef="0" IVar="20" Cut="2.8815066814422607e+00" cType="0" res="-2.0602045115083456e-03" rms="3.9863324165344238e-01" purity="4.9661663174629211e-01" nType="0">
        <Node pos="l" depth="1" NCoef="0" IVar="5" Cut="8.7826299667358398e-01" cType="1" res="8.8437329977750778e-03" rms="3.9881598949432373e-01" purity="5.1452285051345825e-01" nType="0">
          <Node pos="l" depth="2" NCoef="0" IVar="-1" Cut="0.0000000000000000e+00" cType="1" res="1.0921742068603635e-03" rms="3.2910314202308655e-01" purity="8.6545264720916748e-01" nType="-99"/>
          <Node pos="r" depth="2" NCoef="0" IVar="-1" Cut="0.0000000000000000e+00" cType="1" res="2.9635348255396821e-05" rms="4.0473887324333191e-01" purity="4.7935670614242554e-01" nType="-99"/>
        </Node>
        <Node pos="r" depth="1" NCoef="0" IVar="6" Cut="1.6562966108322144e+00" cType="1" res="-9.1632716357707977e-02" rms="3.8563111424446106e-01" purity="3.4952256083488464e-01" nType="0">
          <Node pos="l" depth="2" NCoef="0" IVar="-1" Cut="0.0000000000000000e+00" cType="1" res="2.8806147165596485e-03" rms="3.5907879471778870e-01" purity="6.6387921571731567e-01" nType="-99"/>
          <Node pos="r" depth="2" NCoef="0" IVar="-1" Cut="0.0000000000000000e+00" cType="1" res="-2.8945829253643751e-03" rms="3.8418558239936829e-01" purity="1.9985580444335938e-01" nType="-99"/>
        </Node>
      </Node>
    </BinaryTree>
    <BinaryTree type="DecisionTree" boostWeight="1.0000000000000000e+00" itree="953">
      <Node pos="s" depth="0" NCoef="0" IVar="12" Cut="1.4285714924335480e-01" cType="1" res="5.1230809185653925e-04" rms="3.9635547995567322e-01" purity="4.9833184480667114e-01" nType="0">
        <Node pos="l" depth="1" NCoef="0" IVar="11" Cut="8.6477524042129517e-01" cType="1" res="-3.2958395779132843e-02" rms="3.7463173270225525e-01" purity="5.6386357545852661e-01" nType="0">
          <Node pos="l" depth="2" NCoef="0" IVar="-1" Cut="0.0000000000000000e+00" cType="1" res="1.7441156087443233e-03" rms="3.5379156470298767e-01" purity="7.4413293600082397e-01" nType="-99"/>
          <Node pos="r" depth="2" NCoef="0" IVar="-1" Cut="0.0000000000000000e+00" cType="1" res="-4.2617027647793293e-03" rms="3.9244678616523743e-01" purity="3.5150527954101562e-01" nType="-99"/>
        </Node>
        <Node pos="r" depth="1" NCoef="0" IVar="6" Cut="8.8651251792907715e-01" cType="1" res="8.9351274073123932e-03" rms="4.0119770169258118e-01" purity="4.8184093832969666e-01" nType="0">
          <Node pos="l" depth="2" NCoef="0" IVar="-1" Cut="0.0000000000000000e+00" cType="1" res="3.6441097036004066e-03" rms="2.9729646444320679e-01" purity="8.8244724273681641e-01" nType="-99"/>
          <Node pos="r" depth="2" NCoef="0" IVar="-1" Cut="0.0000000000000000e+00" cType="1" res="1.3166468124836683e-04" rms="4.0280976891517639e-01" purity="4.6691957116127014e-01" nType="-99"/>
        </Node>
      </Node>
    </BinaryTree>
    <BinaryTree type="DecisionTree" boostWeight="1.0000000000000000e+00" itree="954">
      <Node pos="s" depth="0" NCoef="0" IVar="20" Cut="1.0373162269592285e+01" cType="0" res="-1.1919970624148846e-02" rms="4.0325975418090820e-01" purity="4.8987796902656555e-01" nType="0">
        <Node pos="l" depth="1" NCoef="0" IVar="18" Cut="5.1904764175415039e+00" cType="1" res="1.8376834923401475e-03" rms="3.9562118053436279e-01" purity="4.9096029996871948e-01" nType="0">
          <Node pos="l" depth="2" NCoef="0" IVar="-1" Cut="0.0000000000000000e+00" cType="1" res="7.9454830847680569e-04" rms="3.9907670021057129e-01" purity="6.8394440412521362e-01" nType="-99"/>
          <Node pos="r" depth="2" NCoef="0" IVar="-1" Cut="0.0000000000000000e+00" cType="1" res="-7.8442873200401664e-04" rms="3.9061143994331360e-01" purity="3.0491247773170471e-01" nType="-99"/>
        </Node>
        <Node pos="r" depth="1" NCoef="0" IVar="21" Cut="2.3333332538604736e+00" cType="1" res="-4.3717216700315475e-02" rms="4.1865718364715576e-01" purity="4.8737642168998718e-01" nType="0">
          <Node pos="l" depth="2" NCoef="0" IVar="-1" Cut="0.0000000000000000e+00" cType="1" res="1.2607148382812738e-03" rms="4.0413758158683777e-01" purity="5.1976990699768066e-01" nType="-99"/>
          <Node pos="r" depth="2" NCoef="0" IVar="-1" Cut="0.0000000000000000e+00" cType="1" res="-3.0817303340882063e-03" rms="4.4410631060600281e-01" purity="4.0511533617973328e-01" nType="-99"/>
        </Node>
      </Node>
    </BinaryTree>
    <BinaryTree type="DecisionTree" boostWeight="1.0000000000000000e+00" itree="955">
      <Node pos="s" depth="0" NCoef="0" IVar="7" Cut="3.9214291572570801e+00" cType="0" res="-3.8471743464469910e-03" rms="4.0309265255928040e-01" purity="4.9713021516799927e-01" nType="0">
        <Node pos="l" depth="1" NCoef="0" IVar="-1" Cut="0.0000000000000000e+00" cType="1" res="8.6470844689756632e-04" rms="4.7741422057151794e-01" purity="6.2108963727951050e-01" nType="-99"/>
        <Node pos="r" depth="1" NCoef="0" IVar="0" Cut="4.4257825613021851e-01" cType="1" res="-6.5118302591145039e-03" rms="4.0113118290901184e-01" purity="4.9490472674369812e-01" nType="0">
          <Node pos="l" depth="2" NCoef="0" IVar="-1" Cut="0.0000000000000000e+00" cType="1" res="-2.6839885395020247e-03" rms="4.5367535948753357e-01" purity="5.4131054878234863e-01" nType="-99"/>
          <Node pos="r" depth="2" NCoef="0" IVar="-1" Cut="0.0000000000000000e+00" cType="1" res="6.1074664699845016e-05" rms="3.9721599221229553e-01" purity="4.9207526445388794e-01" nType="-99"/>
        </Node>
      </Node>
    </BinaryTree>
    <BinaryTree type="DecisionTree" boostWeight="1.0000000000000000e+00" itree="956">
      <Node pos="s" depth="0" NCoef="0" IVar="18" Cut="1.2857142686843872e+00" cType="1" res="-1.4654978178441525e-02" rms="4.1003984212875366e-01" purity="4.8314312100410461e-01" nType="0">
        <Node pos="l" depth="1" NCoef="0" IVar="20" Cut="7.4432244300842285e+00" cType="0" res="-1.0722443461418152e-01" rms="4.4523921608924866e-01" purity="5.7403284311294556e-01" nType="0">
          <Node pos="l" depth="2" NCoef="0" IVar="-1" Cut="0.0000000000000000e+00" cType="1" res="2.4442968424409628e-03" rms="4.0217047929763794e-01" purity="7.0553046464920044e-01" nType="-99"/>
          <Node pos="r" depth="2" NCoef="0" IVar="-1" Cut="0.0000000000000000e+00" cType="1" res="-8.3269560709595680e-03" rms="4.5626756548881531e-01" purity="3.6513543128967285e-01" nType="-99"/>
        </Node>
        <Node pos="r" depth="1" NCoef="0" IVar="6" Cut="1.1085247993469238e+00" cType="1" res="-8.3400523290038109e-03" rms="4.0676099061965942e-01" purity="4.7694277763366699e-01" nType="0">
          <Node pos="l" depth="2" NCoef="0" IVar="-1" Cut="0.0000000000000000e+00" cType="1" res="-2.5559900677762926e-05" rms="3.8302174210548401e-01" purity="7.1766287088394165e-01" nType="-99"/>
          <Node pos="r" depth="2" NCoef="0" IVar="-1" Cut="0.0000000000000000e+00" cType="1" res="3.8806108932476491e-05" rms="4.1120573878288269e-01" purity="4.2600268125534058e-01" nType="-99"/>
        </Node>
      </Node>
    </BinaryTree>
    <BinaryTree type="DecisionTree" boostWeight="1.0000000000000000e+00" itree="957">
      <Node pos="s" depth="0" NCoef="0" IVar="15" Cut="4.8571429252624512e+00" cType="1" res="-5.6946938857436180e-03" rms="4.0099352598190308e-01" purity="4.9312412738800049e-01" nType="0">
        <Node pos="l" depth="1" NCoef="0" IVar="14" Cut="6.8420372009277344e+01" cType="0" res="-1.0034532845020294e-01" rms="4.1904485225677490e-01" purity="5.8137935400009155e-01" nType="0">
          <Node pos="l" depth="2" NCoef="0" IVar="-1" Cut="0.0000000000000000e+00" cType="1" res="4.6113673597574234e-03" rms="3.6016520857810974e-01" purity="7.2282683849334717e-01" nType="-99"/>
          <Node pos="r" depth="2" NCoef="0" IVar="-1" Cut="0.0000000000000000e+00" cType="1" res="-4.6946057118475437e-03" rms="4.3610540032386780e-01" purity="5.0570434331893921e-01" nType="-99"/>
        </Node>
        <Node pos="r" depth="1" NCoef="0" IVar="6" Cut="1.0572654008865356e+00" cType="1" res="2.4499578867107630e-03" rms="3.9835262298583984e-01" purity="4.8552981019020081e-01" nType="0">
          <Node pos="l" depth="2" NCoef="0" IVar="-1" Cut="0.0000000000000000e+00" cType="1" res="-8.9441717136651278e-04" rms="4.0117368102073669e-01" purity="6.0835945606231689e-01" nType="-99"/>
          <Node pos="r" depth="2" NCoef="0" IVar="-1" Cut="0.0000000000000000e+00" cType="1" res="2.0471935567911714e-04" rms="3.9715862274169922e-01" purity="4.6040669083595276e-01" nType="-99"/>
        </Node>
      </Node>
    </BinaryTree>
    <BinaryTree type="DecisionTree" boostWeight="1.0000000000000000e+00" itree="958">
      <Node pos="s" depth="0" NCoef="0" IVar="20" Cut="6.0848285675048828e+01" cType="0" res="2.0282822661101818e-03" rms="4.0233215689659119e-01" purity="5.0040465593338013e-01" nType="0">
        <Node pos="l" depth="1" NCoef="0" IVar="11" Cut="1.5804889798164368e-01" cType="1" res="1.1241298913955688e-01" rms="3.2987666130065918e-01" purity="5.7944911718368530e-01" nType="0">
          <Node pos="l" depth="2" NCoef="0" IVar="-1" Cut="0.0000000000000000e+00" cType="1" res="9.9521991796791553e-04" rms="3.0344960093498230e-01" purity="8.3078157901763916e-01" nType="-99"/>
          <Node pos="r" depth="2" NCoef="0" IVar="-1" Cut="0.0000000000000000e+00" cType="1" res="-2.3057428188621998e-03" rms="3.3207333087921143e-01" purity="4.0173348784446716e-01" nType="-99"/>
        </Node>
        <Node pos="r" depth="1" NCoef="0" IVar="20" Cut="3.0273120880126953e+01" cType="0" res="-2.1374537609517574e-03" rms="4.0422281622886658e-01" purity="4.9742165207862854e-01" nType="0">
          <Node pos="l" depth="2" NCoef="0" IVar="-1" Cut="0.0000000000000000e+00" cType="1" res="-2.6088158483617008e-04" rms="4.3320950865745544e-01" purity="5.3277051448822021e-01" nType="-99"/>
          <Node pos="r" depth="2" NCoef="0" IVar="-1" Cut="0.0000000000000000e+00" cType="1" res="5.4603064199909568e-05" rms="3.9692005515098572e-01" purity="4.8950120806694031e-01" nType="-99"/>
        </Node>
      </Node>
    </BinaryTree>
    <BinaryTree type="DecisionTree" boostWeight="1.0000000000000000e+00" itree="959">
      <Node pos="s" depth="0" NCoef="0" IVar="12" Cut="1.4285714924335480e-01" cType="1" res="1.4331012032926083e-02" rms="3.9908495545387268e-01" purity="5.1688814163208008e-01" nType="0">
        <Node pos="l" depth="1" NCoef="0" IVar="14" Cut="1.0676190185546875e+02" cType="1" res="-2.2314213216304779e-02" rms="3.6885613203048706e-01" purity="5.6926172971725464e-01" nType="0">
          <Node pos="l" depth="2" NCoef="0" IVar="-1" Cut="0.0000000000000000e+00" cType="1" res="-3.6545534385368228e-04" rms="3.4901499748229980e-01" purity="5.8860850334167480e-01" nType="-99"/>
          <Node pos="r" depth="2" NCoef="0" IVar="-1" Cut="0.0000000000000000e+00" cType="1" res="-5.8712749741971493e-03" rms="4.0348491072654724e-01" purity="5.1187288761138916e-01" nType="-99"/>
        </Node>
        <Node pos="r" depth="1" NCoef="0" IVar="10" Cut="2.3571369647979736e+00" cType="1" res="2.3462807759642601e-02" rms="4.0575307607650757e-01" purity="5.0383692979812622e-01" nType="0">
          <Node pos="l" depth="2" NCoef="0" IVar="-1" Cut="0.0000000000000000e+00" cType="1" res="6.4423913136124611e-04" rms="4.0220570564270020e-01" purity="6.1319196224212646e-01" nType="-99"/>
          <Node pos="r" depth="2" NCoef="0" IVar="-1" Cut="0.0000000000000000e+00" cType="1" res="-2.4440695415250957e-04" rms="4.0880703926086426e-01" purity="3.5252720117568970e-01" nType="-99"/>
        </Node>
      </Node>
    </BinaryTree>
    <BinaryTree type="DecisionTree" boostWeight="1.0000000000000000e+00" itree="960">
      <Node pos="s" depth="0" NCoef="0" IVar="18" Cut="4.2857141494750977e+00" cType="1" res="4.5643728226423264e-03" rms="3.9660498499870300e-01" purity="5.0868171453475952e-01" nType="0">
        <Node pos="l" depth="1" NCoef="0" IVar="20" Cut="1.9950260162353516e+01" cType="0" res="3.7310484796762466e-02" rms="3.4900358319282532e-01" purity="7.2499018907546997e-01" nType="0">
          <Node pos="l" depth="2" NCoef="0" IVar="-1" Cut="0.0000000000000000e+00" cType="1" res="8.7272992823272943e-04" rms="2.9185554385185242e-01" purity="8.0102694034576416e-01" nType="-99"/>
          <Node pos="r" depth="2" NCoef="0" IVar="-1" Cut="0.0000000000000000e+00" cType="1" res="-4.7929750871844590e-04" rms="3.7527942657470703e-01" purity="6.7830640077590942e-01" nType="-99"/>
        </Node>
        <Node pos="r" depth="1" NCoef="0" IVar="10" Cut="3.7249007821083069e-01" cType="1" res="-1.3086804188787937e-02" rms="4.1897162795066833e-01" purity="3.9208465814590454e-01" nType="0">
          <Node pos="l" depth="2" NCoef="0" IVar="-1" Cut="0.0000000000000000e+00" cType="1" res="1.7364289611577988e-02" rms="2.8922313451766968e-01" purity="7.2395777702331543e-01" nType="-99"/>
          <Node pos="r" depth="2" NCoef="0" IVar="-1" Cut="0.0000000000000000e+00" cType="1" res="-3.8939199293963611e-04" rms="4.2022177577018738e-01" purity="3.8370290398597717e-01" nType="-99"/>
        </Node>
      </Node>
    </BinaryTree>
    <BinaryTree type="DecisionTree" boostWeight="1.0000000000000000e+00" itree="961">
      <Node pos="s" depth="0" NCoef="0" IVar="8" Cut="2.4261906147003174e+00" cType="1" res="-8.5366191342473030e-03" rms="4.0167903900146484e-01" purity="4.9732500314712524e-01" nType="0">
        <Node pos="l" depth="1" NCoef="0" IVar="8" Cut="1.8404762744903564e+00" cType="0" res="-3.2045198604464531e-03" rms="3.9944657683372498e-01" purity="5.0805902481079102e-01" nType="0">
          <Node pos="l" depth="2" NCoef="0" IVar="-1" Cut="0.0000000000000000e+00" cType="1" res="3.0727551784366369e-03" rms="4.3853461742401123e-01" purity="7.1671283245086670e-01" nType="-99"/>
          <Node pos="r" depth="2" NCoef="0" IVar="-1" Cut="0.0000000000000000e+00" cType="1" res="-1.4086157898418605e-04" rms="3.9773696660995483e-01" purity="5.0238764286041260e-01" nType="-99"/>
        </Node>
        <Node pos="r" depth="1" NCoef="0" IVar="17" Cut="2.1268795013427734e+01" cType="0" res="-5.7395607233047485e-02" rms="4.1843342781066895e-01" purity="3.9896747469902039e-01" nType="0">
          <Node pos="l" depth="2" NCoef="0" IVar="-1" Cut="0.0000000000000000e+00" cType="1" res="2.4459080304950476e-03" rms="4.0721574425697327e-01" purity="4.2901015281677246e-01" nType="-99"/>
          <Node pos="r" depth="2" NCoef="0" IVar="-1" Cut="0.0000000000000000e+00" cType="1" res="-4.3236557394266129e-03" rms="4.2966294288635254e-01" purity="3.4399825334548950e-01" nType="-99"/>
        </Node>
      </Node>
    </BinaryTree>
    <BinaryTree type="DecisionTree" boostWeight="1.0000000000000000e+00" itree="962">
      <Node pos="s" depth="0" NCoef="0" IVar="20" Cut="1.4332000732421875e+01" cType="1" res="3.2326590735465288e-03" rms="3.9929524064064026e-01" purity="5.0356090068817139e-01" nType="0">
        <Node pos="l" depth="1" NCoef="0" IVar="21" Cut="5.1904764175415039e+00" cType="0" res="2.7840202674269676e-02" rms="3.9438030123710632e-01" purity="5.6899166107177734e-01" nType="0">
          <Node pos="l" depth="2" NCoef="0" IVar="-1" Cut="0.0000000000000000e+00" cType="1" res="4.6199006028473377e-03" rms="3.8787728548049927e-01" purity="6.5414798259735107e-01" nType="-99"/>
          <Node pos="r" depth="2" NCoef="0" IVar="-1" Cut="0.0000000000000000e+00" cType="1" res="1.5974623966030777e-04" rms="3.8980111479759216e-01" purity="5.5586916208267212e-01" nType="-99"/>
        </Node>
        <Node pos="r" depth="1" NCoef="0" IVar="3" Cut="3.9047617912292480e+00" cType="1" res="-1.2538339942693710e-02" rms="4.0162163972854614e-01" purity="4.6162623167037964e-01" nType="0">
          <Node pos="l" depth="2" NCoef="0" IVar="-1" Cut="0.0000000000000000e+00" cType="1" res="4.2656355071812868e-04" rms="3.9888447523117065e-01" purity="4.7715994715690613e-01" nType="-99"/>
          <Node pos="r" depth="2" NCoef="0" IVar="-1" Cut="0.0000000000000000e+00" cType="1" res="-3.3068170305341482e-03" rms="4.0670189261436462e-01" purity="4.1518118977546692e-01" nType="-99"/>
        </Node>
      </Node>
    </BinaryTree>
    <BinaryTree type="DecisionTree" boostWeight="1.0000000000000000e+00" itree="963">
      <Node pos="s" depth="0" NCoef="0" IVar="9" Cut="-1.5714285850524902e+01" cType="1" res="5.2290633320808411e-03" rms="3.9595684409141541e-01" purity="5.0089102983474731e-01" nType="0">
        <Node pos="l" depth="1" NCoef="0" IVar="-1" Cut="0.0000000000000000e+00" cType="1" res="-1.7301654443144798e-03" rms="4.8958432674407959e-01" purity="6.1057358980178833e-01" nType="-99"/>
        <Node pos="r" depth="1" NCoef="0" IVar="18" Cut="5.1428570747375488e+00" cType="1" res="9.1224974021315575e-03" rms="3.9275035262107849e-01" purity="4.9847644567489624e-01" nType="0">
          <Node pos="l" depth="2" NCoef="0" IVar="-1" Cut="0.0000000000000000e+00" cType="1" res="4.3670402374118567e-04" rms="3.9257091283798218e-01" purity="6.8406087160110474e-01" nType="-99"/>
          <Node pos="r" depth="2" NCoef="0" IVar="-1" Cut="0.0000000000000000e+00" cType="1" res="-4.1113220504485071e-04" rms="3.9139741659164429e-01" purity="3.1739494204521179e-01" nType="-99"/>
        </Node>
      </Node>
    </BinaryTree>
    <BinaryTree type="DecisionTree" boostWeight="1.0000000000000000e+00" itree="964">
      <Node pos="s" depth="0" NCoef="0" IVar="6" Cut="4.5001229643821716e-01" cType="0" res="5.1613571122288704e-03" rms="4.0086171030998230e-01" purity="5.0582516193389893e-01" nType="0">
        <Node pos="l" depth="1" NCoef="0" IVar="4" Cut="1.0543533563613892e+00" cType="1" res="7.9668927937746048e-03" rms="3.9966061711311340e-01" purity="5.0661462545394897e-01" nType="0">
          <Node pos="l" depth="2" NCoef="0" IVar="-1" Cut="0.0000000000000000e+00" cType="1" res="-2.3244058247655630e-03" rms="3.8092273473739624e-01" purity="7.0375418663024902e-01" nType="-99"/>
          <Node pos="r" depth="2" NCoef="0" IVar="-1" Cut="0.0000000000000000e+00" cType="1" res="1.4609773643314838e-04" rms="4.0113699436187744e-01" purity="4.8136094212532043e-01" nType="-99"/>
        </Node>
        <Node pos="r" depth="1" NCoef="0" IVar="-1" Cut="0.0000000000000000e+00" cType="1" res="-3.8850447162985802e-03" rms="4.3527397513389587e-01" purity="4.6097657084465027e-01" nType="-99"/>
      </Node>
    </BinaryTree>
    <BinaryTree type="DecisionTree" boostWeight="1.0000000000000000e+00" itree="965">
      <Node pos="s" depth="0" NCoef="0" IVar="0" Cut="6.6386735439300537e-01" cType="1" res="-7.0841889828443527e-03" rms="4.0565869212150574e-01" purity="4.9969643354415894e-01" nType="0">
        <Node pos="l" depth="1" NCoef="0" IVar="21" Cut="3.3333332538604736e+00" cType="0" res="-6.2854163348674774e-02" rms="4.4780769944190979e-01" purity="5.6277072429656982e-01" nType="0">
          <Node pos="l" depth="2" NCoef="0" IVar="-1" Cut="0.0000000000000000e+00" cType="1" res="1.2337110936641693e-02" rms="4.4166475534439087e-01" purity="6.3105261325836182e-01" nType="-99"/>
          <Node pos="r" depth="2" NCoef="0" IVar="-1" Cut="0.0000000000000000e+00" cType="1" res="-2.6096005458384752e-03" rms="4.4278553128242493e-01" purity="5.5131709575653076e-01" nType="-99"/>
        </Node>
        <Node pos="r" depth="1" NCoef="0" IVar="20" Cut="5.8508396148681641e+01" cType="0" res="1.0864844080060720e-03" rms="3.9845487475395203e-01" purity="4.9045562744140625e-01" nType="0">
          <Node pos="l" depth="2" NCoef="0" IVar="-1" Cut="0.0000000000000000e+00" cType="1" res="7.4389908695593476e-04" rms="3.5067993402481079e-01" purity="5.1759988069534302e-01" nType="-99"/>
          <Node pos="r" depth="2" NCoef="0" IVar="-1" Cut="0.0000000000000000e+00" cType="1" res="-5.2257928473409265e-05" rms="4.0019088983535767e-01" purity="4.8907843232154846e-01" nType="-99"/>
        </Node>
      </Node>
    </BinaryTree>
    <BinaryTree type="DecisionTree" boostWeight="1.0000000000000000e+00" itree="966">
      <Node pos="s" depth="0" NCoef="0" IVar="7" Cut="-1.7142885923385620e-01" cType="1" res="2.1268329583108425e-03" rms="3.9287880063056946e-01" purity="4.9372082948684692e-01" nType="0">
        <Node pos="l" depth="1" NCoef="0" IVar="4" Cut="2.7225074768066406e+00" cType="1" res="4.2288649827241898e-02" rms="3.7986457347869873e-01" purity="5.9483945369720459e-01" nType="0">
          <Node pos="l" depth="2" NCoef="0" IVar="-1" Cut="0.0000000000000000e+00" cType="1" res="1.2112739495933056e-03" rms="3.8933998346328735e-01" purity="6.7968410253524780e-01" nType="-99"/>
          <Node pos="r" depth="2" NCoef="0" IVar="-1" Cut="0.0000000000000000e+00" cType="1" res="-2.5701746344566345e-03" rms="3.0555868148803711e-01" purity="1.4628635346889496e-01" nType="-99"/>
        </Node>
        <Node pos="r" depth="1" NCoef="0" IVar="15" Cut="4.1428570747375488e+00" cType="1" res="-2.1809928119182587e-02" rms="3.9851382374763489e-01" purity="4.3345338106155396e-01" nType="0">
          <Node pos="l" depth="2" NCoef="0" IVar="-1" Cut="0.0000000000000000e+00" cType="1" res="-2.8321947902441025e-03" rms="4.7515258193016052e-01" purity="5.3110504150390625e-01" nType="-99"/>
          <Node pos="r" depth="2" NCoef="0" IVar="-1" Cut="0.0000000000000000e+00" cType="1" res="-2.8778429259546101e-04" rms="3.9071333408355713e-01" purity="4.2601945996284485e-01" nType="-99"/>
        </Node>
      </Node>
    </BinaryTree>
    <BinaryTree type="DecisionTree" boostWeight="1.0000000000000000e+00" itree="967">
      <Node pos="s" depth="0" NCoef="0" IVar="0" Cut="4.4257822632789612e-01" cType="1" res="-1.5625621890649199e-03" rms="4.0307563543319702e-01" purity="5.0182032585144043e-01" nType="0">
        <Node pos="l" depth="1" NCoef="0" IVar="21" Cut="1.2857142686843872e+00" cType="0" res="-5.8719698339700699e-02" rms="4.6413397789001465e-01" purity="5.5748707056045532e-01" nType="0">
          <Node pos="l" depth="2" NCoef="0" IVar="-1" Cut="0.0000000000000000e+00" cType="1" res="3.9478256367146969e-03" rms="4.4693174958229065e-01" purity="6.9891089200973511e-01" nType="-99"/>
          <Node pos="r" depth="2" NCoef="0" IVar="-1" Cut="0.0000000000000000e+00" cType="1" res="-3.7919552996754646e-03" rms="4.5496687293052673e-01" purity="4.8723992705345154e-01" nType="-99"/>
        </Node>
        <Node pos="r" depth="1" NCoef="0" IVar="9" Cut="-1.0000000000000000e+01" cType="1" res="2.0245010964572430e-03" rms="3.9865902066230774e-01" purity="4.9832683801651001e-01" nType="0">
          <Node pos="l" depth="2" NCoef="0" IVar="-1" Cut="0.0000000000000000e+00" cType="1" res="1.1409022845327854e-02" rms="2.1919149160385132e-01" purity="9.2402911186218262e-01" nType="-99"/>
          <Node pos="r" depth="2" NCoef="0" IVar="-1" Cut="0.0000000000000000e+00" cType="1" res="-1.0397245205240324e-04" rms="4.0132749080657959e-01" purity="4.8804461956024170e-01" nType="-99"/>
        </Node>
      </Node>
    </BinaryTree>
    <BinaryTree type="DecisionTree" boostWeight="1.0000000000000000e+00" itree="968">
      <Node pos="s" depth="0" NCoef="0" IVar="12" Cut="1.1428571939468384e+00" cType="1" res="1.6545124351978302e-02" rms="3.9952984452247620e-01" purity="5.2429932355880737e-01" nType="0">
        <Node pos="l" depth="1" NCoef="0" IVar="17" Cut="5.3857151031494141e+01" cType="1" res="-1.9662827253341675e-02" rms="3.5495752096176147e-01" purity="6.5684592723846436e-01" nType="0">
          <Node pos="l" depth="2" NCoef="0" IVar="-1" Cut="0.0000000000000000e+00" cType="1" res="4.1537245124345645e-05" rms="3.4651646018028259e-01" purity="6.8137520551681519e-01" nType="-99"/>
          <Node pos="r" depth="2" NCoef="0" IVar="-1" Cut="0.0000000000000000e+00" cType="1" res="-5.8985543437302113e-03" rms="3.8118535280227661e-01" purity="4.9239259958267212e-01" nType="-99"/>
        </Node>
        <Node pos="r" depth="1" NCoef="0" IVar="4" Cut="1.7300584316253662e+00" cType="1" res="3.3378794789314270e-02" rms="4.1757157444953918e-01" purity="4.6267622709274292e-01" nType="0">
          <Node pos="l" depth="2" NCoef="0" IVar="-1" Cut="0.0000000000000000e+00" cType="1" res="-4.0247512515634298e-04" rms="4.0432763099670410e-01" purity="7.2009646892547607e-01" nType="-99"/>
          <Node pos="r" depth="2" NCoef="0" IVar="-1" Cut="0.0000000000000000e+00" cType="1" res="2.6692639221437275e-04" rms="4.1977167129516602e-01" purity="3.7858656048774719e-01" nType="-99"/>
        </Node>
      </Node>
    </BinaryTree>
    <BinaryTree type="DecisionTree" boostWeight="1.0000000000000000e+00" itree="969">
      <Node pos="s" depth="0" NCoef="0" IVar="18" Cut="4.2857141494750977e+00" cType="1" res="3.5859390627592802e-03" rms="4.1003379225730896e-01" purity="5.1300919055938721e-01" nType="0">
        <Node pos="l" depth="1" NCoef="0" IVar="15" Cut="9.1428575515747070e+00" cType="1" res="-3.2805100083351135e-02" rms="3.9183557033538818e-01" purity="6.2671571969985962e-01" nType="0">
          <Node pos="l" depth="2" NCoef="0" IVar="-1" Cut="0.0000000000000000e+00" cType="1" res="1.4078583335503936e-03" rms="3.7007296085357666e-01" purity="6.7995452880859375e-01" nType="-99"/>
          <Node pos="r" depth="2" NCoef="0" IVar="-1" Cut="0.0000000000000000e+00" cType="1" res="-3.3984715119004250e-03" rms="4.6102946996688843e-01" purity="3.9413839578628540e-01" nType="-99"/>
        </Node>
        <Node pos="r" depth="1" NCoef="0" IVar="19" Cut="3.1102161854505539e-02" cType="1" res="2.8063548728823662e-02" rms="4.2006325721740723e-01" purity="4.3652710318565369e-01" nType="0">
          <Node pos="l" depth="2" NCoef="0" IVar="-1" Cut="0.0000000000000000e+00" cType="1" res="-1.4356558676809072e-04" rms="4.1664642095565796e-01" purity="4.3849277496337891e-01" nType="-99"/>
          <Node pos="r" depth="2" NCoef="0" IVar="-1" Cut="0.0000000000000000e+00" cType="1" res="7.0083315949887037e-04" rms="4.5436170697212219e-01" purity="4.0511530637741089e-01" nType="-99"/>
        </Node>
      </Node>
    </BinaryTree>
    <BinaryTree type="DecisionTree" boostWeight="1.0000000000000000e+00" itree="970">
      <Node pos="s" depth="0" NCoef="0" IVar="8" Cut="2.4261906147003174e+00" cType="1" res="4.9322750419378281e-04" rms="3.9677530527114868e-01" purity="4.9905931949615479e-01" nType="0">
        <Node pos="l" depth="1" NCoef="0" IVar="7" Cut="-2.2285714149475098e+00" cType="1" res="7.3815826326608658e-03" rms="3.9378497004508972e-01" purity="5.0999706983566284e-01" nType="0">
          <Node pos="l" depth="2" NCoef="0" IVar="-1" Cut="0.0000000000000000e+00" cType="1" res="9.3090912560001016e-04" rms="3.3912777900695801e-01" purity="7.8058916330337524e-01" nType="-99"/>
          <Node pos="r" depth="2" NCoef="0" IVar="-1" Cut="0.0000000000000000e+00" cType="1" res="-1.4179063146002591e-04" rms="3.9865660667419434e-01" purity="4.7840231657028198e-01" nType="-99"/>
        </Node>
        <Node pos="r" depth="1" NCoef="0" IVar="15" Cut="1.4142857551574707e+01" cType="0" res="-6.5387673676013947e-02" rms="4.1862455010414124e-01" purity="3.9444932341575623e-01" nType="0">
          <Node pos="l" depth="2" NCoef="0" IVar="-1" Cut="0.0000000000000000e+00" cType="1" res="4.6984418295323849e-03" rms="4.0668028593063354e-01" purity="4.6347478032112122e-01" nType="-99"/>
          <Node pos="r" depth="2" NCoef="0" IVar="-1" Cut="0.0000000000000000e+00" cType="1" res="-1.5375369694083929e-03" rms="4.1205200552940369e-01" purity="3.7930458784103394e-01" nType="-99"/>
        </Node>
      </Node>
    </BinaryTree>
    <BinaryTree type="DecisionTree" boostWeight="1.0000000000000000e+00" itree="971">
      <Node pos="s" depth="0" NCoef="0" IVar="12" Cut="1.4285714924335480e-01" cType="1" res="5.5003003217279911e-03" rms="3.9435118436813354e-01" purity="5.0264614820480347e-01" nType="0">
        <Node pos="l" depth="1" NCoef="0" IVar="15" Cut="7.0000000000000000e+00" cType="1" res="-4.7105871140956879e-02" rms="3.7854996323585510e-01" purity="5.4791533946990967e-01" nType="0">
          <Node pos="l" depth="2" NCoef="0" IVar="-1" Cut="0.0000000000000000e+00" cType="1" res="-7.5418662163428962e-05" rms="3.7214368581771851e-01" purity="6.9796532392501831e-01" nType="-99"/>
          <Node pos="r" depth="2" NCoef="0" IVar="-1" Cut="0.0000000000000000e+00" cType="1" res="-3.5174826625734568e-03" rms="3.7643581628799438e-01" purity="2.8169092535972595e-01" nType="-99"/>
        </Node>
        <Node pos="r" depth="1" NCoef="0" IVar="15" Cut="1.1142857551574707e+01" cType="1" res="1.8988274037837982e-02" rms="3.9718094468116760e-01" purity="4.9103933572769165e-01" nType="0">
          <Node pos="l" depth="2" NCoef="0" IVar="-1" Cut="0.0000000000000000e+00" cType="1" res="1.7732230480760336e-03" rms="3.5847640037536621e-01" purity="7.6544791460037231e-01" nType="-99"/>
          <Node pos="r" depth="2" NCoef="0" IVar="-1" Cut="0.0000000000000000e+00" cType="1" res="-2.7304084505885839e-04" rms="4.0938809514045715e-01" purity="3.8029870390892029e-01" nType="-99"/>
        </Node>
      </Node>
    </BinaryTree>
    <BinaryTree type="DecisionTree" boostWeight="1.0000000000000000e+00" itree="972">
      <Node pos="s" depth="0" NCoef="0" IVar="0" Cut="4.4540303945541382e-01" cType="1" res="9.1186612844467163e-03" rms="4.0448731184005737e-01" purity="5.2147912979125977e-01" nType="0">
        <Node pos="l" depth="1" NCoef="0" IVar="10" Cut="1.6222012042999268e+00" cType="0" res="-8.5115328431129456e-02" rms="4.6060448884963989e-01" purity="5.3277051448822021e-01" nType="0">
          <Node pos="l" depth="2" NCoef="0" IVar="-1" Cut="0.0000000000000000e+00" cType="1" res="5.6083942763507366e-03" rms="4.0778195858001709e-01" purity="6.5031731128692627e-01" nType="-99"/>
          <Node pos="r" depth="2" NCoef="0" IVar="-1" Cut="0.0000000000000000e+00" cType="1" res="-4.6747508458793163e-03" rms="4.5098230242729187e-01" purity="4.9151158332824707e-01" nType="-99"/>
        </Node>
        <Node pos="r" depth="1" NCoef="0" IVar="9" Cut="-4.2857141494750977e+00" cType="1" res="1.6024246811866760e-02" rms="3.9919167757034302e-01" purity="5.2065169811248779e-01" nType="0">
          <Node pos="l" depth="2" NCoef="0" IVar="-1" Cut="0.0000000000000000e+00" cType="1" res="1.4099059626460075e-03" rms="3.4635332226753235e-01" purity="7.5023615360260010e-01" nType="-99"/>
          <Node pos="r" depth="2" NCoef="0" IVar="-1" Cut="0.0000000000000000e+00" cType="1" res="-9.1419940872583538e-05" rms="4.0217140316963196e-01" purity="5.0375723838806152e-01" nType="-99"/>
        </Node>
      </Node>
    </BinaryTree>
    <BinaryTree type="DecisionTree" boostWeight="1.0000000000000000e+00" itree="973">
      <Node pos="s" depth="0" NCoef="0" IVar="20" Cut="7.1492652893066406e+01" cType="1" res="3.9727051625959575e-04" rms="4.0138387680053711e-01" purity="5.0268572568893433e-01" nType="0">
        <Node pos="l" depth="1" NCoef="0" IVar="20" Cut="4.0437465667724609e+01" cType="0" res="4.0163989178836346e-03" rms="4.0328940749168396e-01" purity="5.1150870323181152e-01" nType="0">
          <Node pos="l" depth="2" NCoef="0" IVar="-1" Cut="0.0000000000000000e+00" cType="1" res="2.9183623846620321e-03" rms="4.0093603730201721e-01" purity="6.5338563919067383e-01" nType="-99"/>
          <Node pos="r" depth="2" NCoef="0" IVar="-1" Cut="0.0000000000000000e+00" cType="1" res="-2.8380256844684482e-04" rms="4.0292334556579590e-01" purity="4.9694126844406128e-01" nType="-99"/>
        </Node>
        <Node pos="r" depth="1" NCoef="0" IVar="-1" Cut="0.0000000000000000e+00" cType="1" res="-1.2395420344546437e-03" rms="3.3831393718719482e-01" purity="2.8289160132408142e-01" nType="-99"/>
      </Node>
    </BinaryTree>
    <BinaryTree type="DecisionTree" boostWeight="1.0000000000000000e+00" itree="974">
      <Node pos="s" depth="0" NCoef="0" IVar="4" Cut="2.6586015224456787e+00" cType="1" res="1.1440987698733807e-02" rms="3.9170736074447632e-01" purity="5.0048887729644775e-01" nType="0">
        <Node pos="l" depth="1" NCoef="0" IVar="4" Cut="2.4099168777465820e+00" cType="1" res="2.2383052855730057e-02" rms="4.0866479277610779e-01" purity="5.9560930728912354e-01" nType="0">
          <Node pos="l" depth="2" NCoef="0" IVar="-1" Cut="0.0000000000000000e+00" cType="1" res="-3.1499587930738926e-04" rms="4.0711903572082520e-01" purity="6.1273884773254395e-01" nType="-99"/>
          <Node pos="r" depth="2" NCoef="0" IVar="-1" Cut="0.0000000000000000e+00" cType="1" res="2.4636839516460896e-03" rms="4.1456699371337891e-01" purity="4.3062296509742737e-01" nType="-99"/>
        </Node>
        <Node pos="r" depth="1" NCoef="0" IVar="21" Cut="2.1428570747375488e+00" cType="1" res="-2.7334760874509811e-02" rms="3.2157486677169800e-01" purity="1.6340747475624084e-01" nType="0">
          <Node pos="l" depth="2" NCoef="0" IVar="-1" Cut="0.0000000000000000e+00" cType="1" res="3.8710101507604122e-03" rms="3.7344706058502197e-01" purity="2.3734000325202942e-01" nType="-99"/>
          <Node pos="r" depth="2" NCoef="0" IVar="-1" Cut="0.0000000000000000e+00" cType="1" res="-1.5970959793776274e-03" rms="3.0481836199760437e-01" purity="1.4456050097942352e-01" nType="-99"/>
        </Node>
      </Node>
    </BinaryTree>
    <BinaryTree type="DecisionTree" boostWeight="1.0000000000000000e+00" itree="975">
      <Node pos="s" depth="0" NCoef="0" IVar="5" Cut="4.3979990482330322e-01" cType="1" res="-1.4773891307413578e-02" rms="4.0151917934417725e-01" purity="4.8301512002944946e-01" nType="0">
        <Node pos="l" depth="1" NCoef="0" IVar="-1" Cut="0.0000000000000000e+00" cType="1" res="9.5699578523635864e-03" rms="1.2472438067197800e-01" purity="1.0000000000000000e+00" nType="-99"/>
        <Node pos="r" depth="1" NCoef="0" IVar="0" Cut="1.1064455509185791e+00" cType="1" res="-1.7829576507210732e-02" rms="4.0409249067306519e-01" purity="4.7377082705497742e-01" nType="0">
          <Node pos="l" depth="2" NCoef="0" IVar="-1" Cut="0.0000000000000000e+00" cType="1" res="-3.0077522387728095e-04" rms="4.0847012400627136e-01" purity="5.2332675457000732e-01" nType="-99"/>
          <Node pos="r" depth="2" NCoef="0" IVar="-1" Cut="0.0000000000000000e+00" cType="1" res="-2.6549900212557986e-05" rms="4.0104073286056519e-01" purity="4.4992142915725708e-01" nType="-99"/>
        </Node>
      </Node>
    </BinaryTree>
    <BinaryTree type="DecisionTree" boostWeight="1.0000000000000000e+00" itree="976">
      <Node pos="s" depth="0" NCoef="0" IVar="12" Cut="1.4285714924335480e-01" cType="1" res="9.4285188242793083e-03" rms="4.0297558903694153e-01" purity="5.1564323902130127e-01" nType="0">
        <Node pos="l" depth="1" NCoef="0" IVar="15" Cut="9.0000000000000000e+00" cType="1" res="-2.9170110821723938e-02" rms="3.6721983551979065e-01" purity="5.7524842023849487e-01" nType="0">
          <Node pos="l" depth="2" NCoef="0" IVar="-1" Cut="0.0000000000000000e+00" cType="1" res="-1.1519500985741615e-03" rms="3.6806416511535645e-01" purity="6.2126004695892334e-01" nType="-99"/>
          <Node pos="r" depth="2" NCoef="0" IVar="-1" Cut="0.0000000000000000e+00" cType="1" res="-3.7815326359122992e-03" rms="3.2214474678039551e-01" purity="1.3046222925186157e-01" nType="-99"/>
        </Node>
        <Node pos="r" depth="1" NCoef="0" IVar="7" Cut="-6.8833336830139160e+00" cType="0" res="1.9066717475652695e-02" rms="4.1085392236709595e-01" purity="5.0075960159301758e-01" nType="0">
          <Node pos="l" depth="2" NCoef="0" IVar="-1" Cut="0.0000000000000000e+00" cType="1" res="2.2973614977672696e-04" rms="4.0969949960708618e-01" purity="5.0191885232925415e-01" nType="-99"/>
          <Node pos="r" depth="2" NCoef="0" IVar="-1" Cut="0.0000000000000000e+00" cType="1" res="-6.0598447453230619e-04" rms="4.2953085899353027e-01" purity="4.5669537782669067e-01" nType="-99"/>
        </Node>
      </Node>
    </BinaryTree>
    <BinaryTree type="DecisionTree" boostWeight="1.0000000000000000e+00" itree="977">
      <Node pos="s" depth="0" NCoef="0" IVar="5" Cut="8.7959963083267212e-01" cType="1" res="-8.1737097352743149e-03" rms="3.9383149147033691e-01" purity="4.7793084383010864e-01" nType="0">
        <Node pos="l" depth="1" NCoef="0" IVar="20" Cut="3.4908149719238281e+01" cType="1" res="6.8180449306964874e-02" rms="2.9093351960182190e-01" purity="8.3555954694747925e-01" nType="0">
          <Node pos="l" depth="2" NCoef="0" IVar="-1" Cut="0.0000000000000000e+00" cType="1" res="1.6835393616929650e-03" rms="2.6688143610954285e-01" purity="8.7024843692779541e-01" nType="-99"/>
          <Node pos="r" depth="2" NCoef="0" IVar="-1" Cut="0.0000000000000000e+00" cType="1" res="-2.5367876514792442e-03" rms="3.4657678008079529e-01" purity="6.9642937183380127e-01" nType="-99"/>
        </Node>
        <Node pos="r" depth="1" NCoef="0" IVar="9" Cut="-1.0000000000000000e+01" cType="1" res="-1.5803281217813492e-02" rms="4.0187457203865051e-01" purity="4.4219529628753662e-01" nType="0">
          <Node pos="l" depth="2" NCoef="0" IVar="-1" Cut="0.0000000000000000e+00" cType="1" res="2.5345522444695234e-03" rms="2.3640397191047668e-01" purity="9.5024782419204712e-01" nType="-99"/>
          <Node pos="r" depth="2" NCoef="0" IVar="-1" Cut="0.0000000000000000e+00" cType="1" res="-1.4000698865856975e-04" rms="4.0300041437149048e-01" purity="4.3320789933204651e-01" nType="-99"/>
        </Node>
      </Node>
    </BinaryTree>
    <BinaryTree type="DecisionTree" boostWeight="1.0000000000000000e+00" itree="978">
      <Node pos="s" depth="0" NCoef="0" IVar="5" Cut="8.7826311588287354e-01" cType="1" res="-5.8641913346946239e-03" rms="4.0228438377380371e-01" purity="4.9692964553833008e-01" nType="0">
        <Node pos="l" depth="1" NCoef="0" IVar="0" Cut="7.8688287734985352e-01" cType="1" res="-6.1626981943845749e-02" rms="3.9850440621376038e-01" purity="6.9603222608566284e-01" nType="0">
          <Node pos="l" depth="2" NCoef="0" IVar="-1" Cut="0.0000000000000000e+00" cType="1" res="2.5588844437152147e-03" rms="3.4519809484481812e-01" purity="7.6854664087295532e-01" nType="-99"/>
          <Node pos="r" depth="2" NCoef="0" IVar="-1" Cut="0.0000000000000000e+00" cType="1" res="-2.3144220467656851e-03" rms="4.3857684731483459e-01" purity="5.9729140996932983e-01" nType="-99"/>
        </Node>
        <Node pos="r" depth="1" NCoef="0" IVar="18" Cut="3.4285714626312256e+00" cType="1" res="1.2866188772022724e-03" rms="4.0220767259597778e-01" purity="4.7139745950698853e-01" nType="0">
          <Node pos="l" depth="2" NCoef="0" IVar="-1" Cut="0.0000000000000000e+00" cType="1" res="8.0609455471858382e-04" rms="3.7386304140090942e-01" purity="6.4273345470428467e-01" nType="-99"/>
          <Node pos="r" depth="2" NCoef="0" IVar="-1" Cut="0.0000000000000000e+00" cType="1" res="-2.5037044542841613e-04" rms="4.0997198224067688e-01" purity="4.1822528839111328e-01" nType="-99"/>
        </Node>
      </Node>
    </BinaryTree>
    <BinaryTree type="DecisionTree" boostWeight="1.0000000000000000e+00" itree="979">
      <Node pos="s" depth="0" NCoef="0" IVar="20" Cut="3.5821082592010498e+00" cType="0" res="7.5555061921477318e-03" rms="3.9585593342781067e-01" purity="5.0924694538116455e-01" nType="0">
        <Node pos="l" depth="1" NCoef="0" IVar="17" Cut="8.0580924987792969e+01" cType="0" res="1.5599125996232033e-02" rms="3.9780527353286743e-01" purity="5.2465355396270752e-01" nType="0">
          <Node pos="l" depth="2" NCoef="0" IVar="-1" Cut="0.0000000000000000e+00" cType="1" res="4.9557788297533989e-03" rms="3.4848281741142273e-01" purity="6.6616404056549072e-01" nType="-99"/>
          <Node pos="r" depth="2" NCoef="0" IVar="-1" Cut="0.0000000000000000e+00" cType="1" res="-7.7635459092562087e-06" rms="3.9809152483940125e-01" purity="5.2209460735321045e-01" nType="-99"/>
        </Node>
        <Node pos="r" depth="1" NCoef="0" IVar="6" Cut="1.4515950679779053e+00" cType="1" res="-5.0833150744438171e-02" rms="3.7628790736198425e-01" purity="3.9741057157516479e-01" nType="0">
          <Node pos="l" depth="2" NCoef="0" IVar="-1" Cut="0.0000000000000000e+00" cType="1" res="8.2506751641631126e-03" rms="3.2595634460449219e-01" purity="7.6755261421203613e-01" nType="-99"/>
          <Node pos="r" depth="2" NCoef="0" IVar="-1" Cut="0.0000000000000000e+00" cType="1" res="-2.9165789019316435e-03" rms="3.8054764270782471e-01" purity="2.7606648206710815e-01" nType="-99"/>
        </Node>
      </Node>
    </BinaryTree>
    <BinaryTree type="DecisionTree" boostWeight="1.0000000000000000e+00" itree="980">
      <Node pos="s" depth="0" NCoef="0" IVar="20" Cut="7.3729797363281250e+01" cType="1" res="-1.9478184403851628e-03" rms="3.9361253380775452e-01" purity="4.9092814326286316e-01" nType="0">
        <Node pos="l" depth="1" NCoef="0" IVar="8" Cut="2.4261906147003174e+00" cType="1" res="1.4340198831632733e-03" rms="3.9368146657943726e-01" purity="4.9598085880279541e-01" nType="0">
          <Node pos="l" depth="2" NCoef="0" IVar="-1" Cut="0.0000000000000000e+00" cType="1" res="4.1672516090329736e-05" rms="3.8991308212280273e-01" purity="5.0491172075271606e-01" nType="-99"/>
          <Node pos="r" depth="2" NCoef="0" IVar="-1" Cut="0.0000000000000000e+00" cType="1" res="-2.0657849381677806e-04" rms="4.2751145362854004e-01" purity="3.9829349517822266e-01" nType="-99"/>
        </Node>
        <Node pos="r" depth="1" NCoef="0" IVar="-1" Cut="0.0000000000000000e+00" cType="1" res="-2.5198878720402718e-03" rms="3.6986503005027771e-01" purity="3.0373844504356384e-01" nType="-99"/>
      </Node>
    </BinaryTree>
    <BinaryTree type="DecisionTree" boostWeight="1.0000000000000000e+00" itree="981">
      <Node pos="s" depth="0" NCoef="0" IVar="20" Cut="7.1492652893066406e+01" cType="1" res="-2.9198154807090759e-03" rms="4.0116736292839050e-01" purity="4.9358481168746948e-01" nType="0">
        <Node pos="l" depth="1" NCoef="0" IVar="20" Cut="4.0437465667724609e+01" cType="0" res="3.3184097264893353e-04" rms="4.0169194340705872e-01" purity="5.0069350004196167e-01" nType="0">
          <Node pos="l" depth="2" NCoef="0" IVar="-1" Cut="0.0000000000000000e+00" cType="1" res="2.8238703962415457e-03" rms="3.8962906599044800e-01" purity="6.4322263002395630e-01" nType="-99"/>
          <Node pos="r" depth="2" NCoef="0" IVar="-1" Cut="0.0000000000000000e+00" cType="1" res="-2.7524301549419761e-04" rms="4.0223374962806702e-01" purity="4.8634105920791626e-01" nType="-99"/>
        </Node>
        <Node pos="r" depth="1" NCoef="0" IVar="-1" Cut="0.0000000000000000e+00" cType="1" res="-1.1781969806179404e-03" rms="3.7570631504058838e-01" purity="2.9872056841850281e-01" nType="-99"/>
      </Node>
    </BinaryTree>
    <BinaryTree type="DecisionTree" boostWeight="1.0000000000000000e+00" itree="982">
      <Node pos="s" depth="0" NCoef="0" IVar="4" Cut="1.7935950756072998e+00" cType="1" res="-9.6690859645605087e-03" rms="4.0028613805770874e-01" purity="4.8472526669502258e-01" nType="0">
        <Node pos="l" depth="1" NCoef="0" IVar="5" Cut="9.3931037187576294e-01" cType="0" res="1.6777355223894119e-02" rms="3.8751125335693359e-01" purity="7.3628526926040649e-01" nType="0">
          <Node pos="l" depth="2" NCoef="0" IVar="-1" Cut="0.0000000000000000e+00" cType="1" res="1.5463905874639750e-03" rms="3.7926533818244934e-01" purity="7.5122022628784180e-01" nType="-99"/>
          <Node pos="r" depth="2" NCoef="0" IVar="-1" Cut="0.0000000000000000e+00" cType="1" res="-3.3197335433214903e-03" rms="3.9210277795791626e-01" purity="7.0175516605377197e-01" nType="-99"/>
        </Node>
        <Node pos="r" depth="1" NCoef="0" IVar="4" Cut="1.9281375408172607e+00" cType="1" res="-2.6453915983438492e-02" rms="4.0729683637619019e-01" purity="3.2506701350212097e-01" nType="0">
          <Node pos="l" depth="2" NCoef="0" IVar="-1" Cut="0.0000000000000000e+00" cType="1" res="-2.8355924878269434e-03" rms="4.3317794799804688e-01" purity="3.8334655761718750e-01" nType="-99"/>
          <Node pos="r" depth="2" NCoef="0" IVar="-1" Cut="0.0000000000000000e+00" cType="1" res="3.1431423849426210e-04" rms="3.9944362640380859e-01" purity="3.1199958920478821e-01" nType="-99"/>
        </Node>
      </Node>
    </BinaryTree>
    <BinaryTree type="DecisionTree" boostWeight="1.0000000000000000e+00" itree="983">
      <Node pos="s" depth="0" NCoef="0" IVar="4" Cut="2.2281031608581543e+00" cType="1" res="-1.2068719603121281e-02" rms="4.0069174766540527e-01" purity="4.7855448722839355e-01" nType="0">
        <Node pos="l" depth="1" NCoef="0" IVar="15" Cut="1.1285714149475098e+01" cType="1" res="-2.3904105648398399e-02" rms="4.1826295852661133e-01" purity="5.9654742479324341e-01" nType="0">
          <Node pos="l" depth="2" NCoef="0" IVar="-1" Cut="0.0000000000000000e+00" cType="1" res="1.1737425811588764e-03" rms="3.9383533596992493e-01" purity="7.2965675592422485e-01" nType="-99"/>
          <Node pos="r" depth="2" NCoef="0" IVar="-1" Cut="0.0000000000000000e+00" cType="1" res="-1.5405463054776192e-03" rms="4.4169297814369202e-01" purity="4.5346617698669434e-01" nType="-99"/>
        </Node>
        <Node pos="r" depth="1" NCoef="0" IVar="4" Cut="3.2539551258087158e+00" cType="1" res="9.7472192719578743e-03" rms="3.6509567499160767e-01" purity="2.6106041669845581e-01" nType="0">
          <Node pos="l" depth="2" NCoef="0" IVar="-1" Cut="0.0000000000000000e+00" cType="1" res="1.4543832512572408e-03" rms="4.0279844403266907e-01" purity="3.3758419752120972e-01" nType="-99"/>
          <Node pos="r" depth="2" NCoef="0" IVar="-1" Cut="0.0000000000000000e+00" cType="1" res="-3.1301707495003939e-03" rms="2.3344175517559052e-01" purity="6.5592736005783081e-02" nType="-99"/>
        </Node>
      </Node>
    </BinaryTree>
    <BinaryTree type="DecisionTree" boostWeight="1.0000000000000000e+00" itree="984">
      <Node pos="s" depth="0" NCoef="0" IVar="9" Cut="-1.4285714626312256e+00" cType="1" res="5.0972594181075692e-04" rms="3.9715504646301270e-01" purity="4.9442645907402039e-01" nType="0">
        <Node pos="l" depth="1" NCoef="0" IVar="18" Cut="3.4285714626312256e+00" cType="1" res="-3.9277024567127228e-02" rms="4.0711295604705811e-01" purity="5.3710556030273438e-01" nType="0">
          <Node pos="l" depth="2" NCoef="0" IVar="-1" Cut="0.0000000000000000e+00" cType="1" res="3.0936591792851686e-03" rms="3.4963905811309814e-01" purity="7.9595762491226196e-01" nType="-99"/>
          <Node pos="r" depth="2" NCoef="0" IVar="-1" Cut="0.0000000000000000e+00" cType="1" res="-1.2073746183887124e-03" rms="4.2966067790985107e-01" purity="4.0568038821220398e-01" nType="-99"/>
        </Node>
        <Node pos="r" depth="1" NCoef="0" IVar="0" Cut="1.1064929962158203e+00" cType="1" res="1.2783059850335121e-02" rms="3.9322084188461304e-01" purity="4.8126089572906494e-01" nType="0">
          <Node pos="l" depth="2" NCoef="0" IVar="-1" Cut="0.0000000000000000e+00" cType="1" res="7.8281713649630547e-04" rms="3.8778775930404663e-01" purity="6.8482679128646851e-01" nType="-99"/>
          <Node pos="r" depth="2" NCoef="0" IVar="-1" Cut="0.0000000000000000e+00" cType="1" res="-1.7009848670568317e-04" rms="3.9305040240287781e-01" purity="4.2637228965759277e-01" nType="-99"/>
        </Node>
      </Node>
    </BinaryTree>
    <BinaryTree type="DecisionTree" boostWeight="1.0000000000000000e+00" itree="985">
      <Node pos="s" depth="0" NCoef="0" IVar="21" Cut="1.0952380895614624e+00" cType="1" res="1.0885773226618767e-02" rms="3.9791646599769592e-01" purity="5.1271086931228638e-01" nType="0">
        <Node pos="l" depth="1" NCoef="0" IVar="12" Cut="1.4285714924335480e-01" cType="1" res="4.8643585294485092e-02" rms="3.9317530393600464e-01" purity="6.0609537363052368e-01" nType="0">
          <Node pos="l" depth="2" NCoef="0" IVar="-1" Cut="0.0000000000000000e+00" cType="1" res="-2.6600940618664026e-03" rms="3.8039633631706238e-01" purity="6.3740861415863037e-01" nType="-99"/>
          <Node pos="r" depth="2" NCoef="0" IVar="-1" Cut="0.0000000000000000e+00" cType="1" res="3.0621260521002114e-04" rms="3.9503440260887146e-01" purity="5.9343236684799194e-01" nType="-99"/>
        </Node>
        <Node pos="r" depth="1" NCoef="0" IVar="4" Cut="2.0384924411773682e+00" cType="1" res="-9.9774505943059921e-03" rms="3.9898237586021423e-01" purity="4.6111088991165161e-01" nType="0">
          <Node pos="l" depth="2" NCoef="0" IVar="-1" Cut="0.0000000000000000e+00" cType="1" res="1.4647998614236712e-03" rms="4.1288870573043823e-01" purity="6.7256921529769897e-01" nType="-99"/>
          <Node pos="r" depth="2" NCoef="0" IVar="-1" Cut="0.0000000000000000e+00" cType="1" res="-8.9149153791368008e-04" rms="3.8406732678413391e-01" purity="2.6550474762916565e-01" nType="-99"/>
        </Node>
      </Node>
    </BinaryTree>
    <BinaryTree type="DecisionTree" boostWeight="1.0000000000000000e+00" itree="986">
      <Node pos="s" depth="0" NCoef="0" IVar="7" Cut="3.9214291572570801e+00" cType="0" res="-1.9236771389842033e-02" rms="4.0301874279975891e-01" purity="4.8147997260093689e-01" nType="0">
        <Node pos="l" depth="1" NCoef="0" IVar="-1" Cut="0.0000000000000000e+00" cType="1" res="9.2377257533371449e-04" rms="3.9336898922920227e-01" purity="5.6604880094528198e-01" nType="-99"/>
        <Node pos="r" depth="1" NCoef="0" IVar="18" Cut="5.1428570747375488e+00" cType="1" res="-2.2835448384284973e-02" rms="4.0244206786155701e-01" purity="4.7969540953636169e-01" nType="0">
          <Node pos="l" depth="2" NCoef="0" IVar="-1" Cut="0.0000000000000000e+00" cType="1" res="2.7592462720349431e-04" rms="3.9989423751831055e-01" purity="6.4854669570922852e-01" nType="-99"/>
          <Node pos="r" depth="2" NCoef="0" IVar="-1" Cut="0.0000000000000000e+00" cType="1" res="-3.6750241997651756e-04" rms="4.0382888913154602e-01" purity="3.0937582254409790e-01" nType="-99"/>
        </Node>
      </Node>
    </BinaryTree>
    <BinaryTree type="DecisionTree" boostWeight="1.0000000000000000e+00" itree="987">
      <Node pos="s" depth="0" NCoef="0" IVar="15" Cut="1.7000000000000000e+01" cType="1" res="-1.4795674011111259e-02" rms="4.0815392136573792e-01" purity="4.9257889389991760e-01" nType="0">
        <Node pos="l" depth="1" NCoef="0" IVar="1" Cut="7.3809523582458496e+00" cType="0" res="-2.8448374941945076e-02" rms="4.1174149513244629e-01" purity="5.5037462711334229e-01" nType="0">
          <Node pos="l" depth="2" NCoef="0" IVar="-1" Cut="0.0000000000000000e+00" cType="1" res="-6.5426618675701320e-05" rms="4.2067065834999084e-01" purity="5.6537455320358276e-01" nType="-99"/>
          <Node pos="r" depth="2" NCoef="0" IVar="-1" Cut="0.0000000000000000e+00" cType="1" res="-3.0950136715546250e-04" rms="4.0981349349021912e-01" purity="5.4902726411819458e-01" nType="-99"/>
        </Node>
        <Node pos="r" depth="1" NCoef="0" IVar="4" Cut="1.2938330173492432e+00" cType="1" res="1.4535220339894295e-02" rms="3.9876011013984680e-01" purity="3.6841312050819397e-01" nType="0">
          <Node pos="l" depth="2" NCoef="0" IVar="-1" Cut="0.0000000000000000e+00" cType="1" res="-5.7681687176227570e-03" rms="4.1342204809188843e-01" purity="3.9030149579048157e-01" nType="-99"/>
          <Node pos="r" depth="2" NCoef="0" IVar="-1" Cut="0.0000000000000000e+00" cType="1" res="9.5287052681669593e-04" rms="3.9504200220108032e-01" purity="3.6643978953361511e-01" nType="-99"/>
        </Node>
      </Node>
    </BinaryTree>
    <BinaryTree type="DecisionTree" boostWeight="1.0000000000000000e+00" itree="988">
      <Node pos="s" depth="0" NCoef="0" IVar="5" Cut="1.9764069318771362e+00" cType="1" res="-9.3263294547796249e-04" rms="4.1046121716499329e-01" purity="5.0483983755111694e-01" nType="0">
        <Node pos="l" depth="1" NCoef="0" IVar="0" Cut="1.7373014688491821e+00" cType="1" res="-1.8074436113238335e-02" rms="4.2021214962005615e-01" purity="6.0886657238006592e-01" nType="0">
          <Node pos="l" depth="2" NCoef="0" IVar="-1" Cut="0.0000000000000000e+00" cType="1" res="-5.6963093811646104e-05" rms="4.0961241722106934e-01" purity="6.4031481742858887e-01" nType="-99"/>
          <Node pos="r" depth="2" NCoef="0" IVar="-1" Cut="0.0000000000000000e+00" cType="1" res="-9.7929185722023249e-04" rms="4.5932698249816895e-01" purity="4.6895521879196167e-01" nType="-99"/>
        </Node>
        <Node pos="r" depth="1" NCoef="0" IVar="20" Cut="4.7966781616210938e+01" cType="1" res="3.3097695559263229e-02" rms="3.8814562559127808e-01" purity="2.9832342267036438e-01" nType="0">
          <Node pos="l" depth="2" NCoef="0" IVar="-1" Cut="0.0000000000000000e+00" cType="1" res="8.2850351464003325e-04" rms="3.8250428438186646e-01" purity="3.0370414257049561e-01" nType="-99"/>
          <Node pos="r" depth="2" NCoef="0" IVar="-1" Cut="0.0000000000000000e+00" cType="1" res="-4.5702653005719185e-03" rms="4.1942411661148071e-01" purity="2.4766030907630920e-01" nType="-99"/>
        </Node>
      </Node>
    </BinaryTree>
    <BinaryTree type="DecisionTree" boostWeight="1.0000000000000000e+00" itree="989">
      <Node pos="s" depth="0" NCoef="0" IVar="12" Cut="1.1428571939468384e+00" cType="1" res="-9.4909258186817169e-03" rms="4.0458238124847412e-01" purity="4.9003225564956665e-01" nType="0">
        <Node pos="l" depth="1" NCoef="0" IVar="18" Cut="3.3333332538604736e+00" cType="1" res="-4.0948104113340378e-02" rms="3.7680977582931519e-01" purity="6.4185667037963867e-01" nType="0">
          <Node pos="l" depth="2" NCoef="0" IVar="-1" Cut="0.0000000000000000e+00" cType="1" res="1.8532596295699477e-03" rms="3.5445293784141541e-01" purity="6.8825674057006836e-01" nType="-99"/>
          <Node pos="r" depth="2" NCoef="0" IVar="-1" Cut="0.0000000000000000e+00" cType="1" res="-6.4579532481729984e-03" rms="4.6313962340354919e-01" purity="4.0334865450859070e-01" nType="-99"/>
        </Node>
        <Node pos="r" depth="1" NCoef="0" IVar="20" Cut="1.2848010063171387e+01" cType="1" res="3.9370185695588589e-03" rms="4.1514778137207031e-01" purity="4.2522391676902771e-01" nType="0">
          <Node pos="l" depth="2" NCoef="0" IVar="-1" Cut="0.0000000000000000e+00" cType="1" res="1.2154971482232213e-03" rms="4.2845433950424194e-01" purity="5.5843448638916016e-01" nType="-99"/>
          <Node pos="r" depth="2" NCoef="0" IVar="-1" Cut="0.0000000000000000e+00" cType="1" res="-3.9967929478734732e-04" rms="4.0715840458869934e-01" purity="3.6942270398139954e-01" nType="-99"/>
        </Node>
      </Node>
    </BinaryTree>
    <BinaryTree type="DecisionTree" boostWeight="1.0000000000000000e+00" itree="990">
      <Node pos="s" depth="0" NCoef="0" IVar="20" Cut="3.5821082592010498e+00" cType="0" res="1.4191165566444397e-02" rms="3.9532682299613953e-01" purity="5.0708711147308350e-01" nType="0">
        <Node pos="l" depth="1" NCoef="0" IVar="3" Cut="5.8571429252624512e+00" cType="0" res="2.1954080089926720e-02" rms="3.9552655816078186e-01" purity="5.2109116315841675e-01" nType="0">
          <Node pos="l" depth="2" NCoef="0" IVar="-1" Cut="0.0000000000000000e+00" cType="1" res="2.9135867953300476e-04" rms="3.5543912649154663e-01" purity="7.1575641632080078e-01" nType="-99"/>
          <Node pos="r" depth="2" NCoef="0" IVar="-1" Cut="0.0000000000000000e+00" cType="1" res="7.7415475971065462e-05" rms="3.9589744806289673e-01" purity="5.1426041126251221e-01" nType="-99"/>
        </Node>
        <Node pos="r" depth="1" NCoef="0" IVar="0" Cut="7.8812617063522339e-01" cType="0" res="-4.7406181693077087e-02" rms="3.8827517628669739e-01" purity="3.9596688747406006e-01" nType="0">
          <Node pos="l" depth="2" NCoef="0" IVar="-1" Cut="0.0000000000000000e+00" cType="1" res="6.3784705707803369e-04" rms="3.4647968411445618e-01" purity="4.0901285409927368e-01" nType="-99"/>
          <Node pos="r" depth="2" NCoef="0" IVar="-1" Cut="0.0000000000000000e+00" cType="1" res="-8.0340029671788216e-03" rms="4.4041723012924194e-01" purity="3.5070443153381348e-01" nType="-99"/>
        </Node>
      </Node>
    </BinaryTree>
    <BinaryTree type="DecisionTree" boostWeight="1.0000000000000000e+00" itree="991">
      <Node pos="s" depth="0" NCoef="0" IVar="20" Cut="3.0746324539184570e+01" cType="0" res="6.9292997941374779e-03" rms="4.0442976355552673e-01" purity="5.0699716806411743e-01" nType="0">
        <Node pos="l" depth="1" NCoef="0" IVar="3" Cut="3.3333332538604736e+00" cType="1" res="-3.2437998801469803e-02" rms="4.3338170647621155e-01" purity="5.1703453063964844e-01" nType="0">
          <Node pos="l" depth="2" NCoef="0" IVar="-1" Cut="0.0000000000000000e+00" cType="1" res="1.7782943323254585e-03" rms="4.1763365268707275e-01" purity="5.4423689842224121e-01" nType="-99"/>
          <Node pos="r" depth="2" NCoef="0" IVar="-1" Cut="0.0000000000000000e+00" cType="1" res="-5.6712483055889606e-03" rms="4.6888250112533569e-01" purity="4.2641317844390869e-01" nType="-99"/>
        </Node>
        <Node pos="r" depth="1" NCoef="0" IVar="11" Cut="6.2868171930313110e-01" cType="1" res="1.8192270770668983e-02" rms="3.9503607153892517e-01" purity="5.0412547588348389e-01" nType="0">
          <Node pos="l" depth="2" NCoef="0" IVar="-1" Cut="0.0000000000000000e+00" cType="1" res="9.2739664250984788e-04" rms="3.6295184493064880e-01" purity="6.0809165239334106e-01" nType="-99"/>
          <Node pos="r" depth="2" NCoef="0" IVar="-1" Cut="0.0000000000000000e+00" cType="1" res="-4.8689328832551837e-04" rms="4.1593375802040100e-01" purity="4.2770254611968994e-01" nType="-99"/>
        </Node>
      </Node>
    </BinaryTree>
    <BinaryTree type="DecisionTree" boostWeight="1.0000000000000000e+00" itree="992">
      <Node pos="s" depth="0" NCoef="0" IVar="20" Cut="2.8815066814422607e+00" cType="0" res="-1.5442922012880445e-03" rms="4.0563088655471802e-01" purity="5.0637924671173096e-01" nType="0">
        <Node pos="l" depth="1" NCoef="0" IVar="20" Cut="1.4537000656127930e+01" cType="1" res="4.3598120100796223e-03" rms="4.0802174806594849e-01" purity="5.2203243970870972e-01" nType="0">
          <Node pos="l" depth="2" NCoef="0" IVar="-1" Cut="0.0000000000000000e+00" cType="1" res="2.0210188813507557e-03" rms="4.1998499631881714e-01" purity="6.3449060916900635e-01" nType="-99"/>
          <Node pos="r" depth="2" NCoef="0" IVar="-1" Cut="0.0000000000000000e+00" cType="1" res="-7.8635488171130419e-04" rms="4.0104091167449951e-01" purity="4.6838289499282837e-01" nType="-99"/>
        </Node>
        <Node pos="r" depth="1" NCoef="0" IVar="17" Cut="1.1737759590148926e+01" cType="1" res="-5.8100234717130661e-02" rms="3.7731891870498657e-01" purity="3.5643652081489563e-01" nType="0">
          <Node pos="l" depth="2" NCoef="0" IVar="-1" Cut="0.0000000000000000e+00" cType="1" res="6.4508039504289627e-03" rms="3.3959758281707764e-01" purity="5.7087475061416626e-01" nType="-99"/>
          <Node pos="r" depth="2" NCoef="0" IVar="-1" Cut="0.0000000000000000e+00" cType="1" res="-3.7281780969351530e-03" rms="3.6817866563796997e-01" purity="2.8222724795341492e-01" nType="-99"/>
        </Node>
      </Node>
    </BinaryTree>
    <BinaryTree type="DecisionTree" boostWeight="1.0000000000000000e+00" itree="993">
      <Node pos="s" depth="0" NCoef="0" IVar="6" Cut="2.1974256038665771e+00" cType="1" res="-6.3054729253053665e-03" rms="4.0359970927238464e-01" purity="4.8941570520401001e-01" nType="0">
        <Node pos="l" depth="1" NCoef="0" IVar="15" Cut="1.1285714149475098e+01" cType="1" res="-2.2002167999744415e-02" rms="4.1599828004837036e-01" purity="5.6986284255981445e-01" nType="0">
          <Node pos="l" depth="2" NCoef="0" IVar="-1" Cut="0.0000000000000000e+00" cType="1" res="1.1808788403868675e-03" rms="3.8667061924934387e-01" purity="7.2458600997924805e-01" nType="-99"/>
          <Node pos="r" depth="2" NCoef="0" IVar="-1" Cut="0.0000000000000000e+00" cType="1" res="-1.4335819287225604e-03" rms="4.3949401378631592e-01" purity="4.1915863752365112e-01" nType="-99"/>
        </Node>
        <Node pos="r" depth="1" NCoef="0" IVar="18" Cut="3.2857143878936768e+00" cType="0" res="3.2690055668354034e-02" rms="3.6812326312065125e-01" purity="2.8955975174903870e-01" nType="0">
          <Node pos="l" depth="2" NCoef="0" IVar="-1" Cut="0.0000000000000000e+00" cType="1" res="1.5343771083280444e-03" rms="3.7988534569740295e-01" purity="3.2075408101081848e-01" nType="-99"/>
          <Node pos="r" depth="2" NCoef="0" IVar="-1" Cut="0.0000000000000000e+00" cType="1" res="-4.4523216784000397e-03" rms="2.5702813267707825e-01" purity="1.1078364402055740e-01" nType="-99"/>
        </Node>
      </Node>
    </BinaryTree>
    <BinaryTree type="DecisionTree" boostWeight="1.0000000000000000e+00" itree="994">
      <Node pos="s" depth="0" NCoef="0" IVar="15" Cut="4.8571429252624512e+00" cType="1" res="-7.4536395259201527e-03" rms="4.0647083520889282e-01" purity="4.9095249176025391e-01" nType="0">
        <Node pos="l" depth="1" NCoef="0" IVar="0" Cut="8.3112299442291260e-01" cType="0" res="-8.3443120121955872e-02" rms="4.1977688670158386e-01" purity="5.7370448112487793e-01" nType="0">
          <Node pos="l" depth="2" NCoef="0" IVar="-1" Cut="0.0000000000000000e+00" cType="1" res="5.7877838116837665e-05" rms="3.7590193748474121e-01" purity="5.9358489513397217e-01" nType="-99"/>
          <Node pos="r" depth="2" NCoef="0" IVar="-1" Cut="0.0000000000000000e+00" cType="1" res="-6.5480805933475494e-03" rms="4.6721071004867554e-01" purity="5.3534919023513794e-01" nType="-99"/>
        </Node>
        <Node pos="r" depth="1" NCoef="0" IVar="12" Cut="1.4285714924335480e-01" cType="1" res="-6.8728008773177862e-04" rms="4.0457341074943542e-01" purity="4.8358392715454102e-01" nType="0">
          <Node pos="l" depth="2" NCoef="0" IVar="-1" Cut="0.0000000000000000e+00" cType="1" res="-1.9875129219144583e-03" rms="3.7366187572479248e-01" purity="5.4449093341827393e-01" nType="-99"/>
          <Node pos="r" depth="2" NCoef="0" IVar="-1" Cut="0.0000000000000000e+00" cType="1" res="3.7973353755660355e-04" rms="4.1018712520599365e-01" purity="4.7106111049652100e-01" nType="-99"/>
        </Node>
      </Node>
    </BinaryTree>
    <BinaryTree type="DecisionTree" boostWeight="1.0000000000000000e+00" itree="995">
      <Node pos="s" depth="0" NCoef="0" IVar="4" Cut="1.3590869903564453e+00" cType="1" res="-4.6786526218056679e-03" rms="4.1272208094596863e-01" purity="5.0734144449234009e-01" nType="0">
        <Node pos="l" depth="1" NCoef="0" IVar="7" Cut="-1.7142885923385620e-01" cType="0" res="-4.7795150429010391e-02" rms="4.0686243772506714e-01" purity="7.1196764707565308e-01" nType="0">
          <Node pos="l" depth="2" NCoef="0" IVar="-1" Cut="0.0000000000000000e+00" cType="1" res="2.7689617127180099e-03" rms="3.8134640455245972e-01" purity="7.7310127019882202e-01" nType="-99"/>
          <Node pos="r" depth="2" NCoef="0" IVar="-1" Cut="0.0000000000000000e+00" cType="1" res="-3.2423313241451979e-03" rms="4.1900655627250671e-01" purity="6.5955191850662231e-01" nType="-99"/>
        </Node>
        <Node pos="r" depth="1" NCoef="0" IVar="7" Cut="-1.1142851114273071e+00" cType="1" res="8.2184784114360809e-03" rms="4.1358628869056702e-01" purity="4.4613304734230042e-01" nType="0">
          <Node pos="l" depth="2" NCoef="0" IVar="-1" Cut="0.0000000000000000e+00" cType="1" res="2.0855434704571962e-03" rms="3.9825534820556641e-01" purity="6.0404676198959351e-01" nType="-99"/>
          <Node pos="r" depth="2" NCoef="0" IVar="-1" Cut="0.0000000000000000e+00" cType="1" res="-3.8357343873940408e-04" rms="4.1548946499824524e-01" purity="4.1707277297973633e-01" nType="-99"/>
        </Node>
      </Node>
    </BinaryTree>
    <BinaryTree type="DecisionTree" boostWeight="1.0000000000000000e+00" itree="996">
      <Node pos="s" depth="0" NCoef="0" IVar="18" Cut="3.4285714626312256e+00" cType="1" res="-7.0646610110998154e-03" rms="3.9965158700942993e-01" purity="4.9062800407409668e-01" nType="0">
        <Node pos="l" depth="1" NCoef="0" IVar="7" Cut="-8.2142858505249023e+00" cType="0" res="2.8896367177367210e-02" rms="3.2125961780548096e-01" purity="7.4376291036605835e-01" nType="0">
          <Node pos="l" depth="2" NCoef="0" IVar="-1" Cut="0.0000000000000000e+00" cType="1" res="1.3267800677567720e-03" rms="3.0783247947692871e-01" purity="7.5680953264236450e-01" nType="-99"/>
          <Node pos="r" depth="2" NCoef="0" IVar="-1" Cut="0.0000000000000000e+00" cType="1" res="-8.1666233018040657e-03" rms="3.9346301555633545e-01" purity="6.2749087810516357e-01" nType="-99"/>
        </Node>
        <Node pos="r" depth="1" NCoef="0" IVar="16" Cut="1.7596715688705444e-01" cType="1" res="-1.8747832626104355e-02" rms="4.2133733630180359e-01" purity="4.0838849544525146e-01" nType="0">
          <Node pos="l" depth="2" NCoef="0" IVar="-1" Cut="0.0000000000000000e+00" cType="1" res="2.3124509607441723e-04" rms="4.1828715801239014e-01" purity="4.1250979900360107e-01" nType="-99"/>
          <Node pos="r" depth="2" NCoef="0" IVar="-1" Cut="0.0000000000000000e+00" cType="1" res="-8.3407694473862648e-03" rms="4.6404880285263062e-01" purity="3.1883645057678223e-01" nType="-99"/>
        </Node>
      </Node>
    </BinaryTree>
    <BinaryTree type="DecisionTree" boostWeight="1.0000000000000000e+00" itree="997">
      <Node pos="s" depth="0" NCoef="0" IVar="0" Cut="4.4540303945541382e-01" cType="1" res="3.6298711784183979e-03" rms="3.9703151583671570e-01" purity="4.9978160858154297e-01" nType="0">
        <Node pos="l" depth="1" NCoef="0" IVar="10" Cut="1.7031260728836060e+00" cType="1" res="-9.1678202152252197e-02" rms="4.5683649182319641e-01" purity="5.0432258844375610e-01" nType="0">
          <Node pos="l" depth="2" NCoef="0" IVar="-1" Cut="0.0000000000000000e+00" cType="1" res="-4.0275887586176395e-03" rms="4.5839020609855652e-01" purity="5.0647705793380737e-01" nType="-99"/>
          <Node pos="r" depth="2" NCoef="0" IVar="-1" Cut="0.0000000000000000e+00" cType="1" res="5.0445911474525928e-03" rms="4.0822914242744446e-01" purity="4.9835011363029480e-01" nType="-99"/>
        </Node>
        <Node pos="r" depth="1" NCoef="0" IVar="4" Cut="3.1620497703552246e+00" cType="1" res="1.0910617187619209e-02" rms="3.9113438129425049e-01" purity="4.9943473935127258e-01" nType="0">
          <Node pos="l" depth="2" NCoef="0" IVar="-1" Cut="0.0000000000000000e+00" cType="1" res="2.2395014821086079e-04" rms="4.0639749169349670e-01" purity="5.6130540370941162e-01" nType="-99"/>
          <Node pos="r" depth="2" NCoef="0" IVar="-1" Cut="0.0000000000000000e+00" cType="1" res="-2.3205694742500782e-03" rms="2.5013947486877441e-01" purity="7.1551695466041565e-02" nType="-99"/>
        </Node>
      </Node>
    </BinaryTree>
    <BinaryTree type="DecisionTree" boostWeight="1.0000000000000000e+00" itree="998">
      <Node pos="s" depth="0" NCoef="0" IVar="5" Cut="8.7870955467224121e-01" cType="1" res="-5.0803320482373238e-03" rms="3.9862251281738281e-01" purity="4.9181309342384338e-01" nType="0">
        <Node pos="l" depth="1" NCoef="0" IVar="11" Cut="7.7211000025272369e-02" cType="1" res="6.1821471899747849e-02" rms="3.0031359195709229e-01" purity="8.4785830974578857e-01" nType="0">
          <Node pos="l" depth="2" NCoef="0" IVar="-1" Cut="0.0000000000000000e+00" cType="1" res="2.8098528273403645e-03" rms="2.5199311971664429e-01" purity="9.0434998273849487e-01" nType="-99"/>
          <Node pos="r" depth="2" NCoef="0" IVar="-1" Cut="0.0000000000000000e+00" cType="1" res="-3.1520121265202761e-03" rms="3.9630067348480225e-01" purity="6.7971098423004150e-01" nType="-99"/>
        </Node>
        <Node pos="r" depth="1" NCoef="0" IVar="12" Cut="2.1428570747375488e+00" cType="1" res="-1.2060893699526787e-02" rms="4.0688273310661316e-01" purity="4.5466318726539612e-01" nType="0">
          <Node pos="l" depth="2" NCoef="0" IVar="-1" Cut="0.0000000000000000e+00" cType="1" res="2.3995542142074555e-04" rms="4.0014675259590149e-01" purity="4.6825847029685974e-01" nType="-99"/>
          <Node pos="r" depth="2" NCoef="0" IVar="-1" Cut="0.0000000000000000e+00" cType="1" res="-1.5327753499150276e-03" rms="4.3602389097213745e-01" purity="3.8628405332565308e-01" nType="-99"/>
        </Node>
      </Node>
    </BinaryTree>
    <BinaryTree type="DecisionTree" boostWeight="1.0000000000000000e+00" itree="999">
      <Node pos="s" depth="0" NCoef="0" IVar="18" Cut="3.4285714626312256e+00" cType="1" res="-1.8564751371741295e-03" rms="3.9987778663635254e-01" purity="4.9931403994560242e-01" nType="0">
        <Node pos="l" depth="1" NCoef="0" IVar="12" Cut="1.4285714924335480e-01" cType="0" res="3.9518401026725769e-02" rms="3.2212036848068237e-01" purity="7.6340264081954956e-01" nType="0">
          <Node pos="l" depth="2" NCoef="0" IVar="-1" Cut="0.0000000000000000e+00" cType="1" res="6.3184029422700405e-03" rms="2.2871631383895874e-01" purity="9.4033497571945190e-01" nType="-99"/>
          <Node pos="r" depth="2" NCoef="0" IVar="-1" Cut="0.0000000000000000e+00" cType="1" res="-1.8473921809345484e-03" rms="3.6514735221862793e-01" purity="6.4135873317718506e-01" nType="-99"/>
        </Node>
        <Node pos="r" depth="1" NCoef="0" IVar="4" Cut="1.2225509881973267e+00" cType="1" res="-1.5143487602472305e-02" rms="4.2095702886581421e-01" purity="4.1450533270835876e-01" nType="0">
          <Node pos="l" depth="2" NCoef="0" IVar="-1" Cut="0.0000000000000000e+00" cType="1" res="-3.1430635135620832e-03" rms="4.4657295942306519e-01" purity="4.8219403624534607e-01" nType="-99"/>
          <Node pos="r" depth="2" NCoef="0" IVar="-1" Cut="0.0000000000000000e+00" cType="1" res="9.1902169515378773e-05" rms="4.1633376479148865e-01" purity="4.0722560882568359e-01" nType="-99"/>
        </Node>
      </Node>
    </BinaryTree>
  </Weights>
</MethodSetup>
