<?xml version="1.0"?>
<MethodSetup Method="BDT::GBDTDPi_2015">
  <GeneralInfo>
    <Info name="TMVA Release" value="4.2.1 [262657]"/>
    <Info name="ROOT Release" value="6.04/02 [394242]"/>
    <Info name="Creator" value="mstahl"/>
    <Info name="Date" value="Sat Mar 16 11:14:35 2019"/>
    <Info name="Host" value="Linux p01001533x71310.cern.ch 2.6.32-504.el6.x86_64 #1 SMP Tue Oct 14 19:40:41 CEST 2014 x86_64 x86_64 x86_64 GNU/Linux"/>
    <Info name="Dir" value="/auto/sigma0/mstahl/stuff/DfromBBDTs"/>
    <Info name="Training events" value="453320"/>
    <Info name="TrainingTime" value="5.26995027e+03"/>
    <Info name="AnalysisType" value="Classification"/>
  </GeneralInfo>
  <Options>
    <Option name="V" modified="Yes">False</Option>
    <Option name="VerbosityLevel" modified="No">Default</Option>
    <Option name="VarTransform" modified="No">None</Option>
    <Option name="H" modified="Yes">False</Option>
    <Option name="CreateMVAPdfs" modified="No">False</Option>
    <Option name="IgnoreNegWeightsInTraining" modified="No">False</Option>
    <Option name="NTrees" modified="Yes">1600</Option>
    <Option name="MaxDepth" modified="Yes">2</Option>
    <Option name="MinNodeSize" modified="Yes">2.0%</Option>
    <Option name="nCuts" modified="Yes">80</Option>
    <Option name="BoostType" modified="Yes">Grad</Option>
    <Option name="AdaBoostR2Loss" modified="No">quadratic</Option>
    <Option name="UseBaggedBoost" modified="Yes">True</Option>
    <Option name="Shrinkage" modified="Yes">5.000000e-02</Option>
    <Option name="AdaBoostBeta" modified="No">5.000000e-01</Option>
    <Option name="UseRandomisedTrees" modified="No">False</Option>
    <Option name="UseNvars" modified="No">8</Option>
    <Option name="UsePoissonNvars" modified="No">True</Option>
    <Option name="BaggedSampleFraction" modified="No">6.000000e-01</Option>
    <Option name="UseYesNoLeaf" modified="No">True</Option>
    <Option name="NegWeightTreatment" modified="Yes">pray</Option>
    <Option name="Css" modified="No">1.000000e+00</Option>
    <Option name="Cts_sb" modified="No">1.000000e+00</Option>
    <Option name="Ctb_ss" modified="No">1.000000e+00</Option>
    <Option name="Cbb" modified="No">1.000000e+00</Option>
    <Option name="NodePurityLimit" modified="No">5.000000e-01</Option>
    <Option name="SeparationType" modified="No">giniindex</Option>
    <Option name="DoBoostMonitor" modified="No">False</Option>
    <Option name="UseFisherCuts" modified="No">False</Option>
    <Option name="MinLinCorrForFisher" modified="No">8.000000e-01</Option>
    <Option name="UseExclusiveVars" modified="No">False</Option>
    <Option name="DoPreselection" modified="No">False</Option>
    <Option name="SigToBkgFraction" modified="No">1.000000e+00</Option>
    <Option name="PruneMethod" modified="No">nopruning</Option>
    <Option name="PruneStrength" modified="No">0.000000e+00</Option>
    <Option name="PruningValFraction" modified="No">5.000000e-01</Option>
    <Option name="nEventsMin" modified="No">0</Option>
    <Option name="UseBaggedGrad" modified="No">False</Option>
    <Option name="GradBaggingFraction" modified="No">6.000000e-01</Option>
    <Option name="UseNTrainEvents" modified="No">0</Option>
    <Option name="NNodesMax" modified="No">0</Option>
  </Options>
  <Variables NVar="66">
    <Variable VarIndex="0" Expression="D_log_ENDVERTEX_CHI2" Label="D_log_ENDVERTEX_CHI2" Title="D_log_ENDVERTEX_CHI2" Unit=" " Internal="D_log_ENDVERTEX_CHI2" Type="F" Min="-4.32754517e+00" Max="1.47710526e+00"/>
    <Variable VarIndex="1" Expression="D_log_FDCHI2_OWNPV" Label="D_log_FDCHI2_OWNPV" Title="D_log_FDCHI2_OWNPV" Unit=" " Internal="D_log_FDCHI2_OWNPV" Type="F" Min="1.55504596e+00" Max="6.76189184e+00"/>
    <Variable VarIndex="2" Expression="D_log_IPCHI2_OWNPV" Label="D_log_IPCHI2_OWNPV" Title="D_log_IPCHI2_OWNPV" Unit=" " Internal="D_log_IPCHI2_OWNPV" Type="F" Min="-3.65747261e+00" Max="5.09661865e+00"/>
    <Variable VarIndex="3" Expression="D_log_P" Label="D_log_P" Title="D_log_P" Unit=" " Internal="D_log_P" Type="F" Min="3.91723108e+00" Max="6.60807896e+00"/>
    <Variable VarIndex="4" Expression="D_log_PT" Label="D_log_PT" Title="D_log_PT" Unit=" " Internal="D_log_PT" Type="F" Min="2.68044949e+00" Max="5.14070654e+00"/>
    <Variable VarIndex="5" Expression="D_K_log_IPCHI2_OWNPV" Label="D_K_log_IPCHI2_OWNPV" Title="D_K_log_IPCHI2_OWNPV" Unit=" " Internal="D_K_log_IPCHI2_OWNPV" Type="F" Min="4.57589090e-01" Max="5.03289604e+00"/>
    <Variable VarIndex="6" Expression="D_K_atan_MuonLLbg" Label="D_K_atan_MuonLLbg" Title="D_K_atan_MuonLLbg" Unit=" " Internal="D_K_atan_MuonLLbg" Type="F" Min="-1.57069635e+00" Max="2.28959974e-02"/>
    <Variable VarIndex="7" Expression="D_K_atan_MuonLLmu" Label="D_K_atan_MuonLLmu" Title="D_K_atan_MuonLLmu" Unit=" " Internal="D_K_atan_MuonLLmu" Type="F" Min="-1.57069635e+00" Max="0.00000000e+00"/>
    <Variable VarIndex="8" Expression="D_K_MuonNShared" Label="D_K_MuonNShared" Title="D_K_MuonNShared" Unit=" " Internal="D_K_MuonNShared" Type="F" Min="-1.00000000e+00" Max="2.50000000e+01"/>
    <Variable VarIndex="9" Expression="D_K_log_PT" Label="D_K_log_PT" Title="D_K_log_PT" Unit=" " Internal="D_K_log_PT" Type="F" Min="2.00024939e+00" Max="5.10848188e+00"/>
    <Variable VarIndex="10" Expression="D_K_RichAboveKaThres" Label="D_K_RichAboveKaThres" Title="D_K_RichAboveKaThres" Unit=" " Internal="D_K_RichAboveKaThres" Type="F" Min="0.00000000e+00" Max="1.00000000e+00"/>
    <Variable VarIndex="11" Expression="D_K_RichAbovePrThres" Label="D_K_RichAbovePrThres" Title="D_K_RichAbovePrThres" Unit=" " Internal="D_K_RichAbovePrThres" Type="F" Min="0.00000000e+00" Max="1.00000000e+00"/>
    <Variable VarIndex="12" Expression="D_K_atan_RichDLLbt" Label="D_K_atan_RichDLLbt" Title="D_K_atan_RichDLLbt" Unit=" " Internal="D_K_atan_RichDLLbt" Type="F" Min="-1.56979632e+00" Max="1.55546701e+00"/>
    <Variable VarIndex="13" Expression="D_K_atan_RichDLLe" Label="D_K_atan_RichDLLe" Title="D_K_atan_RichDLLe" Unit=" " Internal="D_K_atan_RichDLLe" Type="F" Min="-1.56979632e+00" Max="1.56206810e+00"/>
    <Variable VarIndex="14" Expression="D_K_atan_RichDLLk" Label="D_K_atan_RichDLLk" Title="D_K_atan_RichDLLk" Unit=" " Internal="D_K_atan_RichDLLk" Type="F" Min="-1.56979632e+00" Max="1.56450307e+00"/>
    <Variable VarIndex="15" Expression="D_K_atan_RichDLLmu" Label="D_K_atan_RichDLLmu" Title="D_K_atan_RichDLLmu" Unit=" " Internal="D_K_atan_RichDLLmu" Type="F" Min="-1.56979632e+00" Max="1.55767524e+00"/>
    <Variable VarIndex="16" Expression="D_K_atan_RichDLLp" Label="D_K_atan_RichDLLp" Title="D_K_atan_RichDLLp" Unit=" " Internal="D_K_atan_RichDLLp" Type="F" Min="-1.56979632e+00" Max="1.56111586e+00"/>
    <Variable VarIndex="17" Expression="D_K_log_TRACK_GhostProb" Label="D_K_log_TRACK_GhostProb" Title="D_K_log_TRACK_GhostProb" Unit=" " Internal="D_K_log_TRACK_GhostProb" Type="F" Min="-2.80968595e+00" Max="-3.97965819e-01"/>
    <Variable VarIndex="18" Expression="D_K_log_TRACK_MatchCHI2" Label="D_K_log_TRACK_MatchCHI2" Title="D_K_log_TRACK_MatchCHI2" Unit=" " Internal="D_K_log_TRACK_MatchCHI2" Type="F" Min="-1.55957532e+00" Max="2.14204240e+00"/>
    <Variable VarIndex="19" Expression="D_K_log_TRACK_TCHI2NDOF" Label="D_K_log_TRACK_TCHI2NDOF" Title="D_K_log_TRACK_TCHI2NDOF" Unit=" " Internal="D_K_log_TRACK_TCHI2NDOF" Type="F" Min="-2.46228409e+00" Max="1.21472585e+00"/>
    <Variable VarIndex="20" Expression="D_K_log_TRACK_VeloCHI2NDOF" Label="D_K_log_TRACK_VeloCHI2NDOF" Title="D_K_log_TRACK_VeloCHI2NDOF" Unit=" " Internal="D_K_log_TRACK_VeloCHI2NDOF" Type="F" Min="-4.22421217e+00" Max="1.59510231e+00"/>
    <Variable VarIndex="21" Expression="D_K_UsedRich1Gas" Label="D_K_UsedRich1Gas" Title="D_K_UsedRich1Gas" Unit=" " Internal="D_K_UsedRich1Gas" Type="F" Min="0.00000000e+00" Max="1.00000000e+00"/>
    <Variable VarIndex="22" Expression="D_K_UsedRich2Gas" Label="D_K_UsedRich2Gas" Title="D_K_UsedRich2Gas" Unit=" " Internal="D_K_UsedRich2Gas" Type="F" Min="0.00000000e+00" Max="1.00000000e+00"/>
    <Variable VarIndex="23" Expression="D_K_VeloCharge" Label="D_K_VeloCharge" Title="D_K_VeloCharge" Unit=" " Internal="D_K_VeloCharge" Type="F" Min="5.80524325e-01" Max="3.68378806e+00"/>
    <Variable VarIndex="24" Expression="D_K_isMuon" Label="D_K_isMuon" Title="D_K_isMuon" Unit=" " Internal="D_K_isMuon" Type="F" Min="0.00000000e+00" Max="1.00000000e+00"/>
    <Variable VarIndex="25" Expression="D_pi1_log_IPCHI2_OWNPV" Label="D_pi1_log_IPCHI2_OWNPV" Title="D_pi1_log_IPCHI2_OWNPV" Unit=" " Internal="D_pi1_log_IPCHI2_OWNPV" Type="F" Min="4.04498756e-01" Max="5.23640633e+00"/>
    <Variable VarIndex="26" Expression="D_pi1_atan_MuonLLbg" Label="D_pi1_atan_MuonLLbg" Title="D_pi1_atan_MuonLLbg" Unit=" " Internal="D_pi1_atan_MuonLLbg" Type="F" Min="-1.57069635e+00" Max="2.47949176e-02"/>
    <Variable VarIndex="27" Expression="D_pi1_atan_MuonLLmu" Label="D_pi1_atan_MuonLLmu" Title="D_pi1_atan_MuonLLmu" Unit=" " Internal="D_pi1_atan_MuonLLmu" Type="F" Min="-1.57069635e+00" Max="0.00000000e+00"/>
    <Variable VarIndex="28" Expression="D_pi1_MuonNShared" Label="D_pi1_MuonNShared" Title="D_pi1_MuonNShared" Unit=" " Internal="D_pi1_MuonNShared" Type="F" Min="-1.00000000e+00" Max="2.50000000e+01"/>
    <Variable VarIndex="29" Expression="D_pi1_log_PT" Label="D_pi1_log_PT" Title="D_pi1_log_PT" Unit=" " Internal="D_pi1_log_PT" Type="F" Min="2.00002360e+00" Max="4.74002361e+00"/>
    <Variable VarIndex="30" Expression="D_pi1_RichAboveKaThres" Label="D_pi1_RichAboveKaThres" Title="D_pi1_RichAboveKaThres" Unit=" " Internal="D_pi1_RichAboveKaThres" Type="F" Min="0.00000000e+00" Max="1.00000000e+00"/>
    <Variable VarIndex="31" Expression="D_pi1_RichAbovePrThres" Label="D_pi1_RichAbovePrThres" Title="D_pi1_RichAbovePrThres" Unit=" " Internal="D_pi1_RichAbovePrThres" Type="F" Min="0.00000000e+00" Max="1.00000000e+00"/>
    <Variable VarIndex="32" Expression="D_pi1_atan_RichDLLbt" Label="D_pi1_atan_RichDLLbt" Title="D_pi1_atan_RichDLLbt" Unit=" " Internal="D_pi1_atan_RichDLLbt" Type="F" Min="-1.56979632e+00" Max="1.55632734e+00"/>
    <Variable VarIndex="33" Expression="D_pi1_atan_RichDLLe" Label="D_pi1_atan_RichDLLe" Title="D_pi1_atan_RichDLLe" Unit=" " Internal="D_pi1_atan_RichDLLe" Type="F" Min="-1.56979632e+00" Max="1.56345212e+00"/>
    <Variable VarIndex="34" Expression="D_pi1_atan_RichDLLk" Label="D_pi1_atan_RichDLLk" Title="D_pi1_atan_RichDLLk" Unit=" " Internal="D_pi1_atan_RichDLLk" Type="F" Min="-1.56979632e+00" Max="1.56412005e+00"/>
    <Variable VarIndex="35" Expression="D_pi1_atan_RichDLLmu" Label="D_pi1_atan_RichDLLmu" Title="D_pi1_atan_RichDLLmu" Unit=" " Internal="D_pi1_atan_RichDLLmu" Type="F" Min="-1.56979632e+00" Max="1.56164789e+00"/>
    <Variable VarIndex="36" Expression="D_pi1_atan_RichDLLp" Label="D_pi1_atan_RichDLLp" Title="D_pi1_atan_RichDLLp" Unit=" " Internal="D_pi1_atan_RichDLLp" Type="F" Min="-1.56979632e+00" Max="1.56318498e+00"/>
    <Variable VarIndex="37" Expression="D_pi1_log_TRACK_GhostProb" Label="D_pi1_log_TRACK_GhostProb" Title="D_pi1_log_TRACK_GhostProb" Unit=" " Internal="D_pi1_log_TRACK_GhostProb" Type="F" Min="-2.80641937e+00" Max="-3.97951633e-01"/>
    <Variable VarIndex="38" Expression="D_pi1_log_TRACK_MatchCHI2" Label="D_pi1_log_TRACK_MatchCHI2" Title="D_pi1_log_TRACK_MatchCHI2" Unit=" " Internal="D_pi1_log_TRACK_MatchCHI2" Type="F" Min="-2.34209228e+00" Max="2.12634969e+00"/>
    <Variable VarIndex="39" Expression="D_pi1_log_TRACK_TCHI2NDOF" Label="D_pi1_log_TRACK_TCHI2NDOF" Title="D_pi1_log_TRACK_TCHI2NDOF" Unit=" " Internal="D_pi1_log_TRACK_TCHI2NDOF" Type="F" Min="-2.39492798e+00" Max="1.30073690e+00"/>
    <Variable VarIndex="40" Expression="D_pi1_log_TRACK_VeloCHI2NDOF" Label="D_pi1_log_TRACK_VeloCHI2NDOF" Title="D_pi1_log_TRACK_VeloCHI2NDOF" Unit=" " Internal="D_pi1_log_TRACK_VeloCHI2NDOF" Type="F" Min="-3.94337130e+00" Max="1.65793157e+00"/>
    <Variable VarIndex="41" Expression="D_pi1_UsedRich1Gas" Label="D_pi1_UsedRich1Gas" Title="D_pi1_UsedRich1Gas" Unit=" " Internal="D_pi1_UsedRich1Gas" Type="F" Min="0.00000000e+00" Max="1.00000000e+00"/>
    <Variable VarIndex="42" Expression="D_pi1_UsedRich2Gas" Label="D_pi1_UsedRich2Gas" Title="D_pi1_UsedRich2Gas" Unit=" " Internal="D_pi1_UsedRich2Gas" Type="F" Min="0.00000000e+00" Max="1.00000000e+00"/>
    <Variable VarIndex="43" Expression="D_pi1_VeloCharge" Label="D_pi1_VeloCharge" Title="D_pi1_VeloCharge" Unit=" " Internal="D_pi1_VeloCharge" Type="F" Min="3.87640446e-01" Max="3.56340289e+00"/>
    <Variable VarIndex="44" Expression="D_pi1_isMuon" Label="D_pi1_isMuon" Title="D_pi1_isMuon" Unit=" " Internal="D_pi1_isMuon" Type="F" Min="0.00000000e+00" Max="1.00000000e+00"/>
    <Variable VarIndex="45" Expression="D_pi2_log_IPCHI2_OWNPV" Label="D_pi2_log_IPCHI2_OWNPV" Title="D_pi2_log_IPCHI2_OWNPV" Unit=" " Internal="D_pi2_log_IPCHI2_OWNPV" Type="F" Min="4.24294174e-01" Max="5.36901665e+00"/>
    <Variable VarIndex="46" Expression="D_pi2_atan_MuonLLbg" Label="D_pi2_atan_MuonLLbg" Title="D_pi2_atan_MuonLLbg" Unit=" " Internal="D_pi2_atan_MuonLLbg" Type="F" Min="-1.57069635e+00" Max="1.57986861e-02"/>
    <Variable VarIndex="47" Expression="D_pi2_atan_MuonLLmu" Label="D_pi2_atan_MuonLLmu" Title="D_pi2_atan_MuonLLmu" Unit=" " Internal="D_pi2_atan_MuonLLmu" Type="F" Min="-1.57069635e+00" Max="0.00000000e+00"/>
    <Variable VarIndex="48" Expression="D_pi2_MuonNShared" Label="D_pi2_MuonNShared" Title="D_pi2_MuonNShared" Unit=" " Internal="D_pi2_MuonNShared" Type="F" Min="-1.00000000e+00" Max="2.40000000e+01"/>
    <Variable VarIndex="49" Expression="D_pi2_log_PT" Label="D_pi2_log_PT" Title="D_pi2_log_PT" Unit=" " Internal="D_pi2_log_PT" Type="F" Min="2.00002122e+00" Max="4.90477514e+00"/>
    <Variable VarIndex="50" Expression="D_pi2_RichAboveKaThres" Label="D_pi2_RichAboveKaThres" Title="D_pi2_RichAboveKaThres" Unit=" " Internal="D_pi2_RichAboveKaThres" Type="F" Min="0.00000000e+00" Max="1.00000000e+00"/>
    <Variable VarIndex="51" Expression="D_pi2_RichAbovePrThres" Label="D_pi2_RichAbovePrThres" Title="D_pi2_RichAbovePrThres" Unit=" " Internal="D_pi2_RichAbovePrThres" Type="F" Min="0.00000000e+00" Max="1.00000000e+00"/>
    <Variable VarIndex="52" Expression="D_pi2_atan_RichDLLbt" Label="D_pi2_atan_RichDLLbt" Title="D_pi2_atan_RichDLLbt" Unit=" " Internal="D_pi2_atan_RichDLLbt" Type="F" Min="-1.56979632e+00" Max="1.55633831e+00"/>
    <Variable VarIndex="53" Expression="D_pi2_atan_RichDLLe" Label="D_pi2_atan_RichDLLe" Title="D_pi2_atan_RichDLLe" Unit=" " Internal="D_pi2_atan_RichDLLe" Type="F" Min="-1.56979632e+00" Max="1.56305683e+00"/>
    <Variable VarIndex="54" Expression="D_pi2_atan_RichDLLk" Label="D_pi2_atan_RichDLLk" Title="D_pi2_atan_RichDLLk" Unit=" " Internal="D_pi2_atan_RichDLLk" Type="F" Min="-1.56979632e+00" Max="1.56400692e+00"/>
    <Variable VarIndex="55" Expression="D_pi2_atan_RichDLLmu" Label="D_pi2_atan_RichDLLmu" Title="D_pi2_atan_RichDLLmu" Unit=" " Internal="D_pi2_atan_RichDLLmu" Type="F" Min="-1.56979632e+00" Max="1.55775070e+00"/>
    <Variable VarIndex="56" Expression="D_pi2_atan_RichDLLp" Label="D_pi2_atan_RichDLLp" Title="D_pi2_atan_RichDLLp" Unit=" " Internal="D_pi2_atan_RichDLLp" Type="F" Min="-1.56979632e+00" Max="1.56276727e+00"/>
    <Variable VarIndex="57" Expression="D_pi2_log_TRACK_GhostProb" Label="D_pi2_log_TRACK_GhostProb" Title="D_pi2_log_TRACK_GhostProb" Unit=" " Internal="D_pi2_log_TRACK_GhostProb" Type="F" Min="-2.84653449e+00" Max="-3.97950917e-01"/>
    <Variable VarIndex="58" Expression="D_pi2_log_TRACK_MatchCHI2" Label="D_pi2_log_TRACK_MatchCHI2" Title="D_pi2_log_TRACK_MatchCHI2" Unit=" " Internal="D_pi2_log_TRACK_MatchCHI2" Type="F" Min="-2.00060582e+00" Max="2.10336494e+00"/>
    <Variable VarIndex="59" Expression="D_pi2_log_TRACK_TCHI2NDOF" Label="D_pi2_log_TRACK_TCHI2NDOF" Title="D_pi2_log_TRACK_TCHI2NDOF" Unit=" " Internal="D_pi2_log_TRACK_TCHI2NDOF" Type="F" Min="-2.88860416e+00" Max="1.24362791e+00"/>
    <Variable VarIndex="60" Expression="D_pi2_log_TRACK_VeloCHI2NDOF" Label="D_pi2_log_TRACK_VeloCHI2NDOF" Title="D_pi2_log_TRACK_VeloCHI2NDOF" Unit=" " Internal="D_pi2_log_TRACK_VeloCHI2NDOF" Type="F" Min="-3.37079382e+00" Max="1.62031174e+00"/>
    <Variable VarIndex="61" Expression="D_pi2_UsedRich1Gas" Label="D_pi2_UsedRich1Gas" Title="D_pi2_UsedRich1Gas" Unit=" " Internal="D_pi2_UsedRich1Gas" Type="F" Min="0.00000000e+00" Max="1.00000000e+00"/>
    <Variable VarIndex="62" Expression="D_pi2_UsedRich2Gas" Label="D_pi2_UsedRich2Gas" Title="D_pi2_UsedRich2Gas" Unit=" " Internal="D_pi2_UsedRich2Gas" Type="F" Min="0.00000000e+00" Max="1.00000000e+00"/>
    <Variable VarIndex="63" Expression="D_pi2_VeloCharge" Label="D_pi2_VeloCharge" Title="D_pi2_VeloCharge" Unit=" " Internal="D_pi2_VeloCharge" Type="F" Min="5.44943810e-01" Max="3.64606738e+00"/>
    <Variable VarIndex="64" Expression="D_pi2_isMuon" Label="D_pi2_isMuon" Title="D_pi2_isMuon" Unit=" " Internal="D_pi2_isMuon" Type="F" Min="0.00000000e+00" Max="1.00000000e+00"/>
    <Variable VarIndex="65" Expression="D_beta" Label="D_beta" Title="D_beta" Unit=" " Internal="D_beta" Type="F" Min="-9.50195253e-01" Max="8.63961995e-01"/>
  </Variables>
  <Spectators NSpec="0"/>
  <Classes NClass="2">
    <Class Name="Signal" Index="0"/>
    <Class Name="Background" Index="1"/>
  </Classes>
  <Transformations NTransformations="0"/>
  <MVAPdfs/>
  <Weights NTrees="1600" AnalysisType="1">
    <BinaryTree type="DecisionTree" boostWeight="1.0000000000000000e+00" itree="0">
      <Node pos="s" depth="0" NCoef="0" IVar="14" Cut="5.5843168497085571e-01" cType="1" res="-6.1747280415147543e-04" rms="4.9999961256980896e-01" purity="4.9938252568244934e-01" nType="0">
        <Node pos="l" depth="1" NCoef="0" IVar="14" Cut="-1.3070758581161499e+00" cType="1" res="-4.2844453454017639e-01" rms="2.5775045156478882e-01" purity="7.1555472910404205e-02" nType="0">
          <Node pos="l" depth="2" NCoef="0" IVar="-1" Cut="0.0000000000000000e+00" cType="1" res="-1.7411766573786736e-02" rms="4.8733416944742203e-02" purity="2.3806132376194000e-03" nType="-99"/>
          <Node pos="r" depth="2" NCoef="0" IVar="-1" Cut="0.0000000000000000e+00" cType="1" res="-7.9047158360481262e-03" rms="4.3616741895675659e-01" purity="2.5554552674293518e-01" nType="-99"/>
        </Node>
        <Node pos="r" depth="1" NCoef="0" IVar="1" Cut="2.5547635555267334e+00" cType="1" res="1.9499553740024567e-01" rms="4.6040931344032288e-01" purity="6.9499552249908447e-01" nType="0">
          <Node pos="l" depth="2" NCoef="0" IVar="-1" Cut="0.0000000000000000e+00" cType="1" res="-6.4425864256918430e-03" rms="4.5651552081108093e-01" purity="2.9605492949485779e-01" nType="-99"/>
          <Node pos="r" depth="2" NCoef="0" IVar="-1" Cut="0.0000000000000000e+00" cType="1" res="8.3098374307155609e-03" rms="3.9941537380218506e-01" purity="8.0077797174453735e-01" nType="-99"/>
        </Node>
      </Node>
    </BinaryTree>
    <BinaryTree type="DecisionTree" boostWeight="1.0000000000000000e+00" itree="1">
      <Node pos="s" depth="0" NCoef="0" IVar="14" Cut="7.5190693140029907e-01" cType="1" res="-1.8434235826134682e-03" rms="4.9634826183319092e-01" purity="4.9760228395462036e-01" nType="0">
        <Node pos="l" depth="1" NCoef="0" IVar="14" Cut="-1.3118449449539185e+00" cType="1" res="-4.0805667638778687e-01" rms="2.7733701467514038e-01" purity="8.4767185151576996e-02" nType="0">
          <Node pos="l" depth="2" NCoef="0" IVar="-1" Cut="0.0000000000000000e+00" cType="1" res="-1.7096579074859619e-02" rms="5.6628067046403885e-02" purity="3.2170871272683144e-03" nType="-99"/>
          <Node pos="r" depth="2" NCoef="0" IVar="-1" Cut="0.0000000000000000e+00" cType="1" res="-6.9512194022536278e-03" rms="4.4864651560783386e-01" purity="2.7985894680023193e-01" nType="-99"/>
        </Node>
        <Node pos="r" depth="1" NCoef="0" IVar="1" Cut="2.7907812595367432e+00" cType="1" res="1.9352841377258301e-01" rms="4.5861232280731201e-01" purity="6.9615894556045532e-01" nType="0">
          <Node pos="l" depth="2" NCoef="0" IVar="-1" Cut="0.0000000000000000e+00" cType="1" res="-3.4821119625121355e-03" rms="4.8603862524032593e-01" purity="3.8634982705116272e-01" nType="-99"/>
          <Node pos="r" depth="2" NCoef="0" IVar="-1" Cut="0.0000000000000000e+00" cType="1" res="8.9431256055831909e-03" rms="3.7509149312973022e-01" purity="8.3061510324478149e-01" nType="-99"/>
        </Node>
      </Node>
    </BinaryTree>
    <BinaryTree type="DecisionTree" boostWeight="1.0000000000000000e+00" itree="2">
      <Node pos="s" depth="0" NCoef="0" IVar="14" Cut="7.5190693140029907e-01" cType="1" res="-2.3946110159158707e-03" rms="4.9275448918342590e-01" purity="4.9662050604820251e-01" nType="0">
        <Node pos="l" depth="1" NCoef="0" IVar="14" Cut="-1.3118449449539185e+00" cType="1" res="-4.1267469525337219e-01" rms="2.5796884298324585e-01" purity="7.3017261922359467e-02" nType="0">
          <Node pos="l" depth="2" NCoef="0" IVar="-1" Cut="0.0000000000000000e+00" cType="1" res="-1.6916913911700249e-02" rms="0.0000000000000000e+00" purity="-2.3475380148738623e-03" nType="-99"/>
          <Node pos="r" depth="2" NCoef="0" IVar="-1" Cut="0.0000000000000000e+00" cType="1" res="-7.4648787267506123e-03" rms="4.3828108906745911e-01" purity="2.5979861617088318e-01" nType="-99"/>
        </Node>
        <Node pos="r" depth="1" NCoef="0" IVar="1" Cut="2.6174001693725586e+00" cType="1" res="1.9012670218944550e-01" rms="4.5767161250114441e-01" purity="6.9539362192153931e-01" nType="0">
          <Node pos="l" depth="2" NCoef="0" IVar="-1" Cut="0.0000000000000000e+00" cType="1" res="-5.6818877346813679e-03" rms="4.6403831243515015e-01" purity="3.1468307971954346e-01" nType="-99"/>
          <Node pos="r" depth="2" NCoef="0" IVar="-1" Cut="0.0000000000000000e+00" cType="1" res="8.2615520805120468e-03" rms="3.9417791366577148e-01" purity="8.0722135305404663e-01" nType="-99"/>
        </Node>
      </Node>
    </BinaryTree>
    <BinaryTree type="DecisionTree" boostWeight="1.0000000000000000e+00" itree="3">
      <Node pos="s" depth="0" NCoef="0" IVar="14" Cut="8.2929706573486328e-01" cType="1" res="8.1336620496585965e-04" rms="4.8940965533256531e-01" purity="4.9919858574867249e-01" nType="0">
        <Node pos="l" depth="1" NCoef="0" IVar="1" Cut="3.1526401042938232e+00" cType="1" res="-3.9163488149642944e-01" rms="2.7905482053756714e-01" purity="8.7383419275283813e-02" nType="0">
          <Node pos="l" depth="2" NCoef="0" IVar="-1" Cut="0.0000000000000000e+00" cType="1" res="-1.5823239460587502e-02" rms="1.4172942936420441e-01" purity="2.1566152572631836e-02" nType="-99"/>
          <Node pos="r" depth="2" NCoef="0" IVar="-1" Cut="0.0000000000000000e+00" cType="1" res="-5.8793849311769009e-03" rms="4.5497468113899231e-01" purity="3.0148521065711975e-01" nType="-99"/>
        </Node>
        <Node pos="r" depth="1" NCoef="0" IVar="1" Cut="2.7658410072326660e+00" cType="1" res="1.9126060605049133e-01" rms="4.5492479205131531e-01" purity="6.9904416799545288e-01" nType="0">
          <Node pos="l" depth="2" NCoef="0" IVar="-1" Cut="0.0000000000000000e+00" cType="1" res="-3.4289027098566294e-03" rms="4.8512485623359680e-01" purity="3.8466981053352356e-01" nType="-99"/>
          <Node pos="r" depth="2" NCoef="0" IVar="-1" Cut="0.0000000000000000e+00" cType="1" res="8.6496248841285706e-03" rms="3.7861239910125732e-01" purity="8.2651728391647339e-01" nType="-99"/>
        </Node>
      </Node>
    </BinaryTree>
    <BinaryTree type="DecisionTree" boostWeight="1.0000000000000000e+00" itree="4">
      <Node pos="s" depth="0" NCoef="0" IVar="14" Cut="9.8407727479934692e-01" cType="1" res="3.6823810660280287e-04" rms="4.8603072762489319e-01" purity="4.9829179048538208e-01" nType="0">
        <Node pos="l" depth="1" NCoef="0" IVar="14" Cut="-1.2860387563705444e+00" cType="1" res="-3.7979602813720703e-01" rms="2.8585568070411682e-01" purity="9.3401588499546051e-02" nType="0">
          <Node pos="l" depth="2" NCoef="0" IVar="-1" Cut="0.0000000000000000e+00" cType="1" res="-1.6225801780819893e-02" rms="7.4293740093708038e-02" purity="5.8119273744523525e-03" nType="-99"/>
          <Node pos="r" depth="2" NCoef="0" IVar="-1" Cut="0.0000000000000000e+00" cType="1" res="-6.2886625528335571e-03" rms="4.5099627971649170e-01" purity="2.8926485776901245e-01" nType="-99"/>
        </Node>
        <Node pos="r" depth="1" NCoef="0" IVar="1" Cut="2.6172149181365967e+00" cType="1" res="1.9249109923839569e-01" rms="4.5206418633460999e-01" purity="7.0291024446487427e-01" nType="0">
          <Node pos="l" depth="2" NCoef="0" IVar="-1" Cut="0.0000000000000000e+00" cType="1" res="-5.0210291519761086e-03" rms="4.7000151872634888e-01" purity="3.3037319779396057e-01" nType="-99"/>
          <Node pos="r" depth="2" NCoef="0" IVar="-1" Cut="0.0000000000000000e+00" cType="1" res="8.1701287999749184e-03" rms="3.9036142826080322e-01" purity="8.1177496910095215e-01" nType="-99"/>
        </Node>
      </Node>
    </BinaryTree>
    <BinaryTree type="DecisionTree" boostWeight="1.0000000000000000e+00" itree="5">
      <Node pos="s" depth="0" NCoef="0" IVar="14" Cut="7.9060196876525879e-01" cType="1" res="2.0746698137372732e-03" rms="4.8279646039009094e-01" purity="4.9967139959335327e-01" nType="0">
        <Node pos="l" depth="1" NCoef="0" IVar="14" Cut="-1.3075497150421143e+00" cType="1" res="-3.8263395428657532e-01" rms="2.7061441540718079e-01" purity="8.2749105989933014e-02" nType="0">
          <Node pos="l" depth="2" NCoef="0" IVar="-1" Cut="0.0000000000000000e+00" cType="1" res="-1.5996495261788368e-02" rms="6.7120216786861420e-02" purity="4.7270855866372585e-03" nType="-99"/>
          <Node pos="r" depth="2" NCoef="0" IVar="-1" Cut="0.0000000000000000e+00" cType="1" res="-6.6542970016598701e-03" rms="4.4335711002349854e-01" purity="2.7144429087638855e-01" nType="-99"/>
        </Node>
        <Node pos="r" depth="1" NCoef="0" IVar="1" Cut="2.5929059982299805e+00" cType="1" res="1.8497142195701599e-01" rms="4.5307773351669312e-01" purity="6.9788300991058350e-01" nType="0">
          <Node pos="l" depth="2" NCoef="0" IVar="-1" Cut="0.0000000000000000e+00" cType="1" res="-5.4899924434721470e-03" rms="4.6360540390014648e-01" purity="3.1329673528671265e-01" nType="-99"/>
          <Node pos="r" depth="2" NCoef="0" IVar="-1" Cut="0.0000000000000000e+00" cType="1" res="7.8916922211647034e-03" rms="3.9603453874588013e-01" purity="8.0424088239669800e-01" nType="-99"/>
        </Node>
      </Node>
    </BinaryTree>
    <BinaryTree type="DecisionTree" boostWeight="1.0000000000000000e+00" itree="6">
      <Node pos="s" depth="0" NCoef="0" IVar="14" Cut="1.0227723121643066e+00" cType="1" res="5.3546107374131680e-03" rms="4.7957485914230347e-01" purity="5.0252884626388550e-01" nType="0">
        <Node pos="l" depth="1" NCoef="0" IVar="1" Cut="3.3988013267517090e+00" cType="1" res="-3.6270111799240112e-01" rms="2.8974172472953796e-01" purity="9.8136916756629944e-02" nType="0">
          <Node pos="l" depth="2" NCoef="0" IVar="-1" Cut="0.0000000000000000e+00" cType="1" res="-1.4374565333127975e-02" rms="1.9449196755886078e-01" purity="4.2251821607351303e-02" nType="-99"/>
          <Node pos="r" depth="2" NCoef="0" IVar="-1" Cut="0.0000000000000000e+00" cType="1" res="-2.5368079077452421e-03" rms="4.7956752777099609e-01" purity="3.9093154668807983e-01" nType="-99"/>
        </Node>
        <Node pos="r" depth="1" NCoef="0" IVar="1" Cut="2.7907812595367432e+00" cType="1" res="1.9230826199054718e-01" rms="4.4767490029335022e-01" purity="7.0793938636779785e-01" nType="0">
          <Node pos="l" depth="2" NCoef="0" IVar="-1" Cut="0.0000000000000000e+00" cType="1" res="-2.7220682241022587e-03" rms="4.8793298006057739e-01" purity="4.0442022681236267e-01" nType="-99"/>
          <Node pos="r" depth="2" NCoef="0" IVar="-1" Cut="0.0000000000000000e+00" cType="1" res="8.5288127884268761e-03" rms="3.7160450220108032e-01" purity="8.3452963829040527e-01" nType="-99"/>
        </Node>
      </Node>
    </BinaryTree>
    <BinaryTree type="DecisionTree" boostWeight="1.0000000000000000e+00" itree="7">
      <Node pos="s" depth="0" NCoef="0" IVar="14" Cut="8.6799210309982300e-01" cType="1" res="5.6070596911013126e-03" rms="4.7619420289993286e-01" purity="5.0248163938522339e-01" nType="0">
        <Node pos="l" depth="1" NCoef="0" IVar="14" Cut="-1.2989312410354614e+00" cType="1" res="-3.7026914954185486e-01" rms="2.6842883229255676e-01" purity="8.2976870238780975e-02" nType="0">
          <Node pos="l" depth="2" NCoef="0" IVar="-1" Cut="0.0000000000000000e+00" cType="1" res="-1.5798455104231834e-02" rms="0.0000000000000000e+00" purity="-2.4784242268651724e-03" nType="-99"/>
          <Node pos="r" depth="2" NCoef="0" IVar="-1" Cut="0.0000000000000000e+00" cType="1" res="-6.1721415258944035e-03" rms="4.4624546170234680e-01" purity="2.7973863482475281e-01" nType="-99"/>
        </Node>
        <Node pos="r" depth="1" NCoef="0" IVar="1" Cut="2.6802976131439209e+00" cType="1" res="1.8757712841033936e-01" rms="4.4737753272056580e-01" purity="7.0557320117950439e-01" nType="0">
          <Node pos="l" depth="2" NCoef="0" IVar="-1" Cut="0.0000000000000000e+00" cType="1" res="-4.1607148014008999e-03" rms="4.7650808095932007e-01" purity="3.5356602072715759e-01" nType="-99"/>
          <Node pos="r" depth="2" NCoef="0" IVar="-1" Cut="0.0000000000000000e+00" cType="1" res="8.1419618800282478e-03" rms="3.8123872876167297e-01" purity="8.2278996706008911e-01" nType="-99"/>
        </Node>
      </Node>
    </BinaryTree>
    <BinaryTree type="DecisionTree" boostWeight="1.0000000000000000e+00" itree="8">
      <Node pos="s" depth="0" NCoef="0" IVar="14" Cut="5.9712672233581543e-01" cType="1" res="3.2388132531195879e-03" rms="4.7314843535423279e-01" purity="4.9938672780990601e-01" nType="0">
        <Node pos="l" depth="1" NCoef="0" IVar="1" Cut="3.1627259254455566e+00" cType="1" res="-3.7307214736938477e-01" rms="2.5170022249221802e-01" purity="7.2408065199851990e-02" nType="0">
          <Node pos="l" depth="2" NCoef="0" IVar="-1" Cut="0.0000000000000000e+00" cType="1" res="-1.5202672220766544e-02" rms="8.7491750717163086e-02" purity="9.2988573014736176e-03" nType="-99"/>
          <Node pos="r" depth="2" NCoef="0" IVar="-1" Cut="0.0000000000000000e+00" cType="1" res="-5.6994766928255558e-03" rms="4.4363018870353699e-01" purity="2.8349944949150085e-01" nType="-99"/>
        </Node>
        <Node pos="r" depth="1" NCoef="0" IVar="1" Cut="2.5933225154876709e+00" cType="1" res="1.7759156227111816e-01" rms="4.4970029592514038e-01" purity="6.9721490144729614e-01" nType="0">
          <Node pos="l" depth="2" NCoef="0" IVar="-1" Cut="0.0000000000000000e+00" cType="1" res="-5.1962905563414097e-03" rms="4.6440243721008301e-01" purity="3.1589090824127197e-01" nType="-99"/>
          <Node pos="r" depth="2" NCoef="0" IVar="-1" Cut="0.0000000000000000e+00" cType="1" res="7.6513234525918961e-03" rms="3.9388525485992432e-01" purity="8.0605375766754150e-01" nType="-99"/>
        </Node>
      </Node>
    </BinaryTree>
    <BinaryTree type="DecisionTree" boostWeight="1.0000000000000000e+00" itree="9">
      <Node pos="s" depth="0" NCoef="0" IVar="14" Cut="9.8402249813079834e-01" cType="1" res="4.9724723212420940e-03" rms="4.7009599208831787e-01" purity="5.0108218193054199e-01" nType="0">
        <Node pos="l" depth="1" NCoef="0" IVar="14" Cut="-1.3175703287124634e+00" cType="1" res="-3.5303184390068054e-01" rms="2.7416890859603882e-01" purity="8.9012295007705688e-02" nType="0">
          <Node pos="l" depth="2" NCoef="0" IVar="-1" Cut="0.0000000000000000e+00" cType="1" res="-1.5517071820795536e-02" rms="0.0000000000000000e+00" purity="-4.6559642069041729e-03" nType="-99"/>
          <Node pos="r" depth="2" NCoef="0" IVar="-1" Cut="0.0000000000000000e+00" cType="1" res="-5.8673759922385216e-03" rms="4.4558179378509521e-01" purity="2.8313121199607849e-01" nType="-99"/>
        </Node>
        <Node pos="r" depth="1" NCoef="0" IVar="1" Cut="2.4966180324554443e+00" cType="1" res="1.8374665081501007e-01" rms="4.4479891657829285e-01" purity="7.0685476064682007e-01" nType="0">
          <Node pos="l" depth="2" NCoef="0" IVar="-1" Cut="0.0000000000000000e+00" cType="1" res="-6.2272152863442898e-03" rms="4.5025163888931274e-01" purity="2.8260365128517151e-01" nType="-99"/>
          <Node pos="r" depth="2" NCoef="0" IVar="-1" Cut="0.0000000000000000e+00" cType="1" res="7.4606090784072876e-03" rms="3.9724323153495789e-01" purity="8.0049556493759155e-01" nType="-99"/>
        </Node>
      </Node>
    </BinaryTree>
    <BinaryTree type="DecisionTree" boostWeight="1.0000000000000000e+00" itree="10">
      <Node pos="s" depth="0" NCoef="0" IVar="14" Cut="3.6495637893676758e-01" cType="1" res="6.9884769618511200e-03" rms="4.6716105937957764e-01" purity="5.0271970033645630e-01" nType="0">
        <Node pos="l" depth="1" NCoef="0" IVar="1" Cut="3.0271019935607910e+00" cType="1" res="-3.6909845471382141e-01" rms="2.3438084125518799e-01" purity="6.3123933970928192e-02" nType="0">
          <Node pos="l" depth="2" NCoef="0" IVar="-1" Cut="0.0000000000000000e+00" cType="1" res="-1.5174467116594315e-02" rms="0.0000000000000000e+00" purity="-1.7272027907893062e-03" nType="-99"/>
          <Node pos="r" depth="2" NCoef="0" IVar="-1" Cut="0.0000000000000000e+00" cType="1" res="-7.2506200522184372e-03" rms="4.1035413742065430e-01" purity="2.2631941735744476e-01" nType="-99"/>
        </Node>
        <Node pos="r" depth="1" NCoef="0" IVar="1" Cut="2.8234860897064209e+00" cType="1" res="1.7119280993938446e-01" rms="4.4813206791877747e-01" purity="6.9465273618698120e-01" nType="0">
          <Node pos="l" depth="2" NCoef="0" IVar="-1" Cut="0.0000000000000000e+00" cType="1" res="-2.9510594904422760e-03" rms="4.8254868388175964e-01" purity="3.9380791783332825e-01" nType="-99"/>
          <Node pos="r" depth="2" NCoef="0" IVar="-1" Cut="0.0000000000000000e+00" cType="1" res="8.1777069717645645e-03" rms="3.7050235271453857e-01" purity="8.3477085828781128e-01" nType="-99"/>
        </Node>
      </Node>
    </BinaryTree>
    <BinaryTree type="DecisionTree" boostWeight="1.0000000000000000e+00" itree="11">
      <Node pos="s" depth="0" NCoef="0" IVar="14" Cut="1.1388574838638306e+00" cType="1" res="3.7124552763998508e-03" rms="4.6436199545860291e-01" purity="4.9902877211570740e-01" nType="0">
        <Node pos="l" depth="1" NCoef="0" IVar="14" Cut="-1.3022825717926025e+00" cType="1" res="-3.2515820860862732e-01" rms="2.9522684216499329e-01" purity="1.0856830328702927e-01" nType="0">
          <Node pos="l" depth="2" NCoef="0" IVar="-1" Cut="0.0000000000000000e+00" cType="1" res="-1.5021623112261295e-02" rms="0.0000000000000000e+00" purity="3.5001728974748403e-05" nType="-99"/>
          <Node pos="r" depth="2" NCoef="0" IVar="-1" Cut="0.0000000000000000e+00" cType="1" res="-4.8633073456585407e-03" rms="4.5515280961990356e-01" purity="3.1347879767417908e-01" nType="-99"/>
        </Node>
        <Node pos="r" depth="1" NCoef="0" IVar="1" Cut="2.5929059982299805e+00" cType="1" res="1.8044857680797577e-01" rms="4.4194450974464417e-01" purity="7.0886337757110596e-01" nType="0">
          <Node pos="l" depth="2" NCoef="0" IVar="-1" Cut="0.0000000000000000e+00" cType="1" res="-4.9336650408804417e-03" rms="4.6520021557807922e-01" purity="3.1843107938766479e-01" nType="-99"/>
          <Node pos="r" depth="2" NCoef="0" IVar="-1" Cut="0.0000000000000000e+00" cType="1" res="7.5061484239995480e-03" rms="3.8919544219970703e-01" purity="8.1213986873626709e-01" nType="-99"/>
        </Node>
      </Node>
    </BinaryTree>
    <BinaryTree type="DecisionTree" boostWeight="1.0000000000000000e+00" itree="12">
      <Node pos="s" depth="0" NCoef="0" IVar="14" Cut="1.2936377525329590e+00" cType="1" res="4.8039825633168221e-03" rms="4.6172744035720825e-01" purity="4.9948811531066895e-01" nType="0">
        <Node pos="l" depth="1" NCoef="0" IVar="1" Cut="2.9683022499084473e+00" cType="1" res="-3.0378800630569458e-01" rms="3.1605532765388489e-01" purity="1.3048276305198669e-01" nType="0">
          <Node pos="l" depth="2" NCoef="0" IVar="-1" Cut="0.0000000000000000e+00" cType="1" res="-1.4022361487150192e-02" rms="1.4968447387218475e-01" purity="2.7560532093048096e-02" nType="-99"/>
          <Node pos="r" depth="2" NCoef="0" IVar="-1" Cut="0.0000000000000000e+00" cType="1" res="-3.9518889971077442e-03" rms="4.4988641142845154e-01" purity="3.3361336588859558e-01" nType="-99"/>
        </Node>
        <Node pos="r" depth="1" NCoef="0" IVar="54" Cut="1.2544955015182495e+00" cType="1" res="1.8964576721191406e-01" rms="4.3571865558624268e-01" purity="7.2051662206649780e-01" nType="0">
          <Node pos="l" depth="2" NCoef="0" IVar="-1" Cut="0.0000000000000000e+00" cType="1" res="6.8695424124598503e-03" rms="4.0225237607955933e-01" purity="7.7922755479812622e-01" nType="-99"/>
          <Node pos="r" depth="2" NCoef="0" IVar="-1" Cut="0.0000000000000000e+00" cType="1" res="-1.0030197910964489e-02" rms="4.0972182154655457e-01" purity="2.2862708568572998e-01" nType="-99"/>
        </Node>
      </Node>
    </BinaryTree>
    <BinaryTree type="DecisionTree" boostWeight="1.0000000000000000e+00" itree="13">
      <Node pos="s" depth="0" NCoef="0" IVar="14" Cut="1.2936377525329590e+00" cType="1" res="6.5273828804492950e-03" rms="4.5934337377548218e-01" purity="5.0125408172607422e-01" nType="0">
        <Node pos="l" depth="1" NCoef="0" IVar="1" Cut="2.9054131507873535e+00" cType="1" res="-2.9609209299087524e-01" rms="3.1787881255149841e-01" purity="1.3347953557968140e-01" nType="0">
          <Node pos="l" depth="2" NCoef="0" IVar="-1" Cut="0.0000000000000000e+00" cType="1" res="-1.4075591228902340e-02" rms="1.2278684228658676e-01" purity="1.9788930192589760e-02" nType="-99"/>
          <Node pos="r" depth="2" NCoef="0" IVar="-1" Cut="0.0000000000000000e+00" cType="1" res="-3.9830761961638927e-03" rms="4.4915422797203064e-01" purity="3.3022615313529968e-01" nType="-99"/>
        </Node>
        <Node pos="r" depth="1" NCoef="0" IVar="1" Cut="2.4189109802246094e+00" cType="1" res="1.8663299083709717e-01" rms="4.3530654907226562e-01" purity="7.2013705968856812e-01" nType="0">
          <Node pos="l" depth="2" NCoef="0" IVar="-1" Cut="0.0000000000000000e+00" cType="1" res="-6.4336163923144341e-03" rms="4.4363310933113098e-01" purity="2.7106779813766479e-01" nType="-99"/>
          <Node pos="r" depth="2" NCoef="0" IVar="-1" Cut="0.0000000000000000e+00" cType="1" res="7.1205459535121918e-03" rms="3.9617592096328735e-01" purity="7.9886406660079956e-01" nType="-99"/>
        </Node>
      </Node>
    </BinaryTree>
    <BinaryTree type="DecisionTree" boostWeight="1.0000000000000000e+00" itree="14">
      <Node pos="s" depth="0" NCoef="0" IVar="14" Cut="1.2936377525329590e+00" cType="1" res="5.0777816213667393e-03" rms="4.5649579167366028e-01" purity="4.9898463487625122e-01" nType="0">
        <Node pos="l" depth="1" NCoef="0" IVar="14" Cut="-1.2516410350799561e+00" cType="1" res="-2.9406791925430298e-01" rms="3.1362348794937134e-01" purity="1.3001297414302826e-01" nType="0">
          <Node pos="l" depth="2" NCoef="0" IVar="-1" Cut="0.0000000000000000e+00" cType="1" res="-1.4263778924942017e-02" rms="8.0107294023036957e-02" purity="7.9598547890782356e-03" nType="-99"/>
          <Node pos="r" depth="2" NCoef="0" IVar="-1" Cut="0.0000000000000000e+00" cType="1" res="-4.1520227678120136e-03" rms="4.5803347229957581e-01" purity="3.3517357707023621e-01" nType="-99"/>
        </Node>
        <Node pos="r" depth="1" NCoef="0" IVar="1" Cut="2.7081961631774902e+00" cType="1" res="1.8461772799491882e-01" rms="4.3414488434791565e-01" purity="7.2043240070343018e-01" nType="0">
          <Node pos="l" depth="2" NCoef="0" IVar="-1" Cut="0.0000000000000000e+00" cType="1" res="-2.8218773659318686e-03" rms="4.8287042975425720e-01" purity="3.9104992151260376e-01" nType="-99"/>
          <Node pos="r" depth="2" NCoef="0" IVar="-1" Cut="0.0000000000000000e+00" cType="1" res="7.7384151518344879e-03" rms="3.7235456705093384e-01" purity="8.3211541175842285e-01" nType="-99"/>
        </Node>
      </Node>
    </BinaryTree>
    <BinaryTree type="DecisionTree" boostWeight="1.0000000000000000e+00" itree="15">
      <Node pos="s" depth="0" NCoef="0" IVar="14" Cut="1.2162475585937500e+00" cType="1" res="3.9249211549758911e-03" rms="4.5330628752708435e-01" purity="4.9772411584854126e-01" nType="0">
        <Node pos="l" depth="1" NCoef="0" IVar="14" Cut="-1.2946338653564453e+00" cType="1" res="-3.0268660187721252e-01" rms="2.9467815160751343e-01" purity="1.1304799467325211e-01" nType="0">
          <Node pos="l" depth="2" NCoef="0" IVar="-1" Cut="0.0000000000000000e+00" cType="1" res="-1.4487284235656261e-02" rms="0.0000000000000000e+00" purity="-2.8436826542019844e-03" nType="-99"/>
          <Node pos="r" depth="2" NCoef="0" IVar="-1" Cut="0.0000000000000000e+00" cType="1" res="-4.5043523423373699e-03" rms="4.5285540819168091e-01" purity="3.1691205501556396e-01" nType="-99"/>
        </Node>
        <Node pos="r" depth="1" NCoef="0" IVar="1" Cut="2.5352611541748047e+00" cType="1" res="1.7690555751323700e-01" rms="4.3527671694755554e-01" purity="7.1474635601043701e-01" nType="0">
          <Node pos="l" depth="2" NCoef="0" IVar="-1" Cut="0.0000000000000000e+00" cType="1" res="-5.2425283938646317e-03" rms="4.5831206440925598e-01" purity="3.0438318848609924e-01" nType="-99"/>
          <Node pos="r" depth="2" NCoef="0" IVar="-1" Cut="0.0000000000000000e+00" cType="1" res="7.1892626583576202e-03" rms="3.8805094361305237e-01" purity="8.1090533733367920e-01" nType="-99"/>
        </Node>
      </Node>
    </BinaryTree>
    <BinaryTree type="DecisionTree" boostWeight="1.0000000000000000e+00" itree="16">
      <Node pos="s" depth="0" NCoef="0" IVar="14" Cut="7.5190693140029907e-01" cType="1" res="6.7777214571833611e-03" rms="4.5080217719078064e-01" purity="5.0055098533630371e-01" nType="0">
        <Node pos="l" depth="1" NCoef="0" IVar="1" Cut="3.2609324455261230e+00" cType="1" res="-3.2380574941635132e-01" rms="2.5115433335304260e-01" purity="7.6440684497356415e-02" nType="0">
          <Node pos="l" depth="2" NCoef="0" IVar="-1" Cut="0.0000000000000000e+00" cType="1" res="-1.3453179039061069e-02" rms="1.3124194741249084e-01" purity="2.1091837435960770e-02" nType="-99"/>
          <Node pos="r" depth="2" NCoef="0" IVar="-1" Cut="0.0000000000000000e+00" cType="1" res="-4.2225075885653496e-03" rms="4.4624951481819153e-01" purity="2.9937559366226196e-01" nType="-99"/>
        </Node>
        <Node pos="r" depth="1" NCoef="0" IVar="1" Cut="2.6794760227203369e+00" cType="1" res="1.6232588887214661e-01" rms="4.3993997573852539e-01" purity="7.0010596513748169e-01" nType="0">
          <Node pos="l" depth="2" NCoef="0" IVar="-1" Cut="0.0000000000000000e+00" cType="1" res="-4.0840702131390572e-03" rms="4.6952852606773376e-01" purity="3.4535884857177734e-01" nType="-99"/>
          <Node pos="r" depth="2" NCoef="0" IVar="-1" Cut="0.0000000000000000e+00" cType="1" res="7.2862589731812477e-03" rms="3.8200697302818298e-01" purity="8.1961941719055176e-01" nType="-99"/>
        </Node>
      </Node>
    </BinaryTree>
    <BinaryTree type="DecisionTree" boostWeight="1.0000000000000000e+00" itree="17">
      <Node pos="s" depth="0" NCoef="0" IVar="14" Cut="8.2924556732177734e-01" cType="1" res="4.6261637471616268e-03" rms="4.4846922159194946e-01" purity="4.9777632951736450e-01" nType="0">
        <Node pos="l" depth="1" NCoef="0" IVar="14" Cut="-1.3624866008758545e+00" cType="1" res="-3.1699562072753906e-01" rms="2.5294622778892517e-01" purity="7.8609548509120941e-02" nType="0">
          <Node pos="l" depth="2" NCoef="0" IVar="-1" Cut="0.0000000000000000e+00" cType="1" res="-1.4421582221984863e-02" rms="0.0000000000000000e+00" purity="-7.9055251553654671e-03" nType="-99"/>
          <Node pos="r" depth="2" NCoef="0" IVar="-1" Cut="0.0000000000000000e+00" cType="1" res="-5.6337476707994938e-03" rms="4.2809012532234192e-01" purity="2.5689768791198730e-01" nType="-99"/>
        </Node>
        <Node pos="r" depth="1" NCoef="0" IVar="1" Cut="2.4966180324554443e+00" cType="1" res="1.5950959920883179e-01" rms="4.3973377346992493e-01" purity="6.9963461160659790e-01" nType="0">
          <Node pos="l" depth="2" NCoef="0" IVar="-1" Cut="0.0000000000000000e+00" cType="1" res="-5.9142615646123886e-03" rms="4.4562202692031860e-01" purity="2.7711284160614014e-01" nType="-99"/>
          <Node pos="r" depth="2" NCoef="0" IVar="-1" Cut="0.0000000000000000e+00" cType="1" res="6.6765937954187393e-03" rms="3.9898958802223206e-01" purity="7.9461842775344849e-01" nType="-99"/>
        </Node>
      </Node>
    </BinaryTree>
    <BinaryTree type="DecisionTree" boostWeight="1.0000000000000000e+00" itree="18">
      <Node pos="s" depth="0" NCoef="0" IVar="14" Cut="5.5843168497085571e-01" cType="1" res="7.5631276704370975e-03" rms="4.4590336084365845e-01" purity="5.0062894821166992e-01" nType="0">
        <Node pos="l" depth="1" NCoef="0" IVar="1" Cut="3.2755320072174072e+00" cType="1" res="-3.1675687432289124e-01" rms="2.4206304550170898e-01" purity="7.0959068834781647e-02" nType="0">
          <Node pos="l" depth="2" NCoef="0" IVar="-1" Cut="0.0000000000000000e+00" cType="1" res="-1.3200241141021252e-02" rms="1.2876830995082855e-01" purity="2.0353738218545914e-02" nType="-99"/>
          <Node pos="r" depth="2" NCoef="0" IVar="-1" Cut="0.0000000000000000e+00" cType="1" res="-4.2469557374715805e-03" rms="4.4255584478378296e-01" purity="2.9036641120910645e-01" nType="-99"/>
        </Node>
        <Node pos="r" depth="1" NCoef="0" IVar="1" Cut="2.8043849468231201e+00" cType="1" res="1.5551555156707764e-01" rms="4.3923828005790710e-01" purity="6.9664126634597778e-01" nType="0">
          <Node pos="l" depth="2" NCoef="0" IVar="-1" Cut="0.0000000000000000e+00" cType="1" res="-3.0252968426793814e-03" rms="4.7576183080673218e-01" purity="3.8577800989151001e-01" nType="-99"/>
          <Node pos="r" depth="2" NCoef="0" IVar="-1" Cut="0.0000000000000000e+00" cType="1" res="7.4404790066182613e-03" rms="3.7205979228019714e-01" purity="8.3171880245208740e-01" nType="-99"/>
        </Node>
      </Node>
    </BinaryTree>
    <BinaryTree type="DecisionTree" boostWeight="1.0000000000000000e+00" itree="19">
      <Node pos="s" depth="0" NCoef="0" IVar="14" Cut="3.2626134157180786e-01" cType="1" res="6.5981564112007618e-03" rms="4.4404000043869019e-01" purity="4.9934083223342896e-01" nType="0">
        <Node pos="l" depth="1" NCoef="0" IVar="1" Cut="3.3549432754516602e+00" cType="1" res="-3.1937524676322937e-01" rms="2.2572070360183716e-01" purity="6.1667505651712418e-02" nType="0">
          <Node pos="l" depth="2" NCoef="0" IVar="-1" Cut="0.0000000000000000e+00" cType="1" res="-1.3078996911644936e-02" rms="1.2192735075950623e-01" purity="1.8172414973378181e-02" nType="-99"/>
          <Node pos="r" depth="2" NCoef="0" IVar="-1" Cut="0.0000000000000000e+00" cType="1" res="-4.3822410516440868e-03" rms="4.3986383080482483e-01" purity="2.8555962443351746e-01" nType="-99"/>
        </Node>
        <Node pos="r" depth="1" NCoef="0" IVar="1" Cut="2.9375169277191162e+00" cType="1" res="1.4897635579109192e-01" rms="4.4085708260536194e-01" purity="6.9050711393356323e-01" nType="0">
          <Node pos="l" depth="2" NCoef="0" IVar="-1" Cut="0.0000000000000000e+00" cType="1" res="-1.8652530852705240e-03" rms="4.8081952333450317e-01" purity="4.3436354398727417e-01" nType="-99"/>
          <Node pos="r" depth="2" NCoef="0" IVar="-1" Cut="0.0000000000000000e+00" cType="1" res="7.6437327079474926e-03" rms="3.6214292049407959e-01" purity="8.4200859069824219e-01" nType="-99"/>
        </Node>
      </Node>
    </BinaryTree>
    <BinaryTree type="DecisionTree" boostWeight="1.0000000000000000e+00" itree="20">
      <Node pos="s" depth="0" NCoef="0" IVar="14" Cut="1.2548820972442627e+00" cType="1" res="6.4689447171986103e-03" rms="4.4190770387649536e-01" purity="4.9848729372024536e-01" nType="0">
        <Node pos="l" depth="1" NCoef="0" IVar="1" Cut="3.3217248916625977e+00" cType="1" res="-2.6788428425788879e-01" rms="3.0323064327239990e-01" purity="1.2611548602581024e-01" nType="0">
          <Node pos="l" depth="2" NCoef="0" IVar="-1" Cut="0.0000000000000000e+00" cType="1" res="-1.1838457547128201e-02" rms="2.1179886162281036e-01" purity="5.7338118553161621e-02" nType="-99"/>
          <Node pos="r" depth="2" NCoef="0" IVar="-1" Cut="0.0000000000000000e+00" cType="1" res="-8.9785829186439514e-04" rms="4.6634462475776672e-01" purity="4.1395926475524902e-01" nType="-99"/>
        </Node>
        <Node pos="r" depth="1" NCoef="0" IVar="36" Cut="1.2533007860183716e+00" cType="1" res="1.6644719243049622e-01" rms="4.3133944272994995e-01" purity="7.1562123298645020e-01" nType="0">
          <Node pos="l" depth="2" NCoef="0" IVar="-1" Cut="0.0000000000000000e+00" cType="1" res="6.2044747173786163e-03" rms="4.0082052350044250e-01" purity="7.7103435993194580e-01" nType="-99"/>
          <Node pos="r" depth="2" NCoef="0" IVar="-1" Cut="0.0000000000000000e+00" cType="1" res="-1.0434673167765141e-02" rms="4.0666067600250244e-01" purity="2.2996331751346588e-01" nType="-99"/>
        </Node>
      </Node>
    </BinaryTree>
    <BinaryTree type="DecisionTree" boostWeight="1.0000000000000000e+00" itree="21">
      <Node pos="s" depth="0" NCoef="0" IVar="14" Cut="7.5185710191726685e-01" cType="1" res="8.0887852236628532e-03" rms="4.3914648890495300e-01" purity="4.9962180852890015e-01" nType="0">
        <Node pos="l" depth="1" NCoef="0" IVar="14" Cut="-1.2831903696060181e+00" cType="1" res="-2.9368886351585388e-01" rms="2.5442910194396973e-01" purity="8.0290667712688446e-02" nType="0">
          <Node pos="l" depth="2" NCoef="0" IVar="-1" Cut="0.0000000000000000e+00" cType="1" res="-1.3405359350144863e-02" rms="6.2855146825313568e-02" purity="5.7662180624902248e-03" nType="-99"/>
          <Node pos="r" depth="2" NCoef="0" IVar="-1" Cut="0.0000000000000000e+00" cType="1" res="-4.7682644799351692e-03" rms="4.3587750196456909e-01" purity="2.7214631438255310e-01" nType="-99"/>
        </Node>
        <Node pos="r" depth="1" NCoef="0" IVar="1" Cut="2.8811311721801758e+00" cType="1" res="1.5245963633060455e-01" rms="4.3557941913604736e-01" purity="7.0023041963577271e-01" nType="0">
          <Node pos="l" depth="2" NCoef="0" IVar="-1" Cut="0.0000000000000000e+00" cType="1" res="-2.1091201342642307e-03" rms="4.8032686114311218e-01" purity="4.2259082198143005e-01" nType="-99"/>
          <Node pos="r" depth="2" NCoef="0" IVar="-1" Cut="0.0000000000000000e+00" cType="1" res="7.4520423077046871e-03" rms="3.6197665333747864e-01" purity="8.4207653999328613e-01" nType="-99"/>
        </Node>
      </Node>
    </BinaryTree>
    <BinaryTree type="DecisionTree" boostWeight="1.0000000000000000e+00" itree="22">
      <Node pos="s" depth="0" NCoef="0" IVar="14" Cut="1.2549426555633545e+00" cType="1" res="8.5650011897087097e-03" rms="4.3706515431404114e-01" purity="5.0025254487991333e-01" nType="0">
        <Node pos="l" depth="1" NCoef="0" IVar="1" Cut="2.9692509174346924e+00" cType="1" res="-2.6059284806251526e-01" rms="2.9867115616798401e-01" purity="1.2471007555723190e-01" nType="0">
          <Node pos="l" depth="2" NCoef="0" IVar="-1" Cut="0.0000000000000000e+00" cType="1" res="-1.2767843902111053e-02" rms="1.3329540193080902e-01" purity="2.4487700313329697e-02" nType="-99"/>
          <Node pos="r" depth="2" NCoef="0" IVar="-1" Cut="0.0000000000000000e+00" cType="1" res="-3.1585672404617071e-03" rms="4.3902620673179626e-01" purity="3.2760572433471680e-01" nType="-99"/>
        </Node>
        <Node pos="r" depth="1" NCoef="0" IVar="54" Cut="8.6760622262954712e-01" cType="1" res="1.6467300057411194e-01" rms="4.2859500646591187e-01" purity="7.1806222200393677e-01" nType="0">
          <Node pos="l" depth="2" NCoef="0" IVar="-1" Cut="0.0000000000000000e+00" cType="1" res="6.3878651708364487e-03" rms="3.9243119955062866e-01" purity="7.8285294771194458e-01" nType="-99"/>
          <Node pos="r" depth="2" NCoef="0" IVar="-1" Cut="0.0000000000000000e+00" cType="1" res="-8.1064691767096519e-03" rms="4.3724954128265381e-01" purity="2.9166296124458313e-01" nType="-99"/>
        </Node>
      </Node>
    </BinaryTree>
    <BinaryTree type="DecisionTree" boostWeight="1.0000000000000000e+00" itree="23">
      <Node pos="s" depth="0" NCoef="0" IVar="14" Cut="1.2548820972442627e+00" cType="1" res="6.2322192825376987e-03" rms="4.3417578935623169e-01" purity="4.9768462777137756e-01" nType="0">
        <Node pos="l" depth="1" NCoef="0" IVar="14" Cut="-1.2559453248977661e+00" cType="1" res="-2.6193943619728088e-01" rms="2.9122200608253479e-01" purity="1.1868189275264740e-01" nType="0">
          <Node pos="l" depth="2" NCoef="0" IVar="-1" Cut="0.0000000000000000e+00" cType="1" res="-1.3308196328580379e-02" rms="0.0000000000000000e+00" purity="1.3465426163747907e-03" nType="-99"/>
          <Node pos="r" depth="2" NCoef="0" IVar="-1" Cut="0.0000000000000000e+00" cType="1" res="-3.6151795648038387e-03" rms="4.4926294684410095e-01" purity="3.2768285274505615e-01" nType="-99"/>
        </Node>
        <Node pos="r" depth="1" NCoef="0" IVar="54" Cut="6.7305988073348999e-01" cType="1" res="1.6108261048793793e-01" rms="4.2764711380004883e-01" purity="7.1653223037719727e-01" nType="0">
          <Node pos="l" depth="2" NCoef="0" IVar="-1" Cut="0.0000000000000000e+00" cType="1" res="6.3363024964928627e-03" rms="3.9056175947189331e-01" purity="7.8481638431549072e-01" nType="-99"/>
          <Node pos="r" depth="2" NCoef="0" IVar="-1" Cut="0.0000000000000000e+00" cType="1" res="-7.5280838645994663e-03" rms="4.4024044275283813e-01" purity="3.0121693015098572e-01" nType="-99"/>
        </Node>
      </Node>
    </BinaryTree>
    <BinaryTree type="DecisionTree" boostWeight="1.0000000000000000e+00" itree="24">
      <Node pos="s" depth="0" NCoef="0" IVar="14" Cut="1.3323327302932739e+00" cType="1" res="9.0604620054364204e-03" rms="4.3250966072082520e-01" purity="5.0033968687057495e-01" nType="0">
        <Node pos="l" depth="1" NCoef="0" IVar="14" Cut="-1.3190004825592041e+00" cType="1" res="-2.4290287494659424e-01" rms="3.1032752990722656e-01" purity="1.4054809510707855e-01" nType="0">
          <Node pos="l" depth="2" NCoef="0" IVar="-1" Cut="0.0000000000000000e+00" cType="1" res="-1.3391031883656979e-02" rms="0.0000000000000000e+00" purity="-3.9549223147332668e-03" nType="-99"/>
          <Node pos="r" depth="2" NCoef="0" IVar="-1" Cut="0.0000000000000000e+00" cType="1" res="-3.2376328017562628e-03" rms="4.5265072584152222e-01" purity="3.4398797154426575e-01" nType="-99"/>
        </Node>
        <Node pos="r" depth="1" NCoef="0" IVar="36" Cut="1.2537547349929810e+00" cType="1" res="1.6637952625751495e-01" rms="4.2349222302436829e-01" purity="7.2498375177383423e-01" nType="0">
          <Node pos="l" depth="2" NCoef="0" IVar="-1" Cut="0.0000000000000000e+00" cType="1" res="6.1893519014120102e-03" rms="3.9214956760406494e-01" purity="7.8057670593261719e-01" nType="-99"/>
          <Node pos="r" depth="2" NCoef="0" IVar="-1" Cut="0.0000000000000000e+00" cType="1" res="-1.0514444671571255e-02" rms="4.0325468778610229e-01" purity="2.2902871668338776e-01" nType="-99"/>
        </Node>
      </Node>
    </BinaryTree>
    <BinaryTree type="DecisionTree" boostWeight="1.0000000000000000e+00" itree="25">
      <Node pos="s" depth="0" NCoef="0" IVar="14" Cut="1.3704112768173218e+00" cType="1" res="5.6830225512385368e-03" rms="4.3020781874656677e-01" purity="4.9635192751884460e-01" nType="0">
        <Node pos="l" depth="1" NCoef="0" IVar="1" Cut="3.1620972156524658e+00" cType="1" res="-2.3506385087966919e-01" rms="3.1572785973548889e-01" purity="1.4941354095935822e-01" nType="0">
          <Node pos="l" depth="2" NCoef="0" IVar="-1" Cut="0.0000000000000000e+00" cType="1" res="-1.1532851494848728e-02" rms="2.0031318068504333e-01" purity="5.4544214159250259e-02" nType="-99"/>
          <Node pos="r" depth="2" NCoef="0" IVar="-1" Cut="0.0000000000000000e+00" cType="1" res="-9.0709317009896040e-04" rms="4.5410731434822083e-01" purity="4.1223508119583130e-01" nType="-99"/>
        </Node>
        <Node pos="r" depth="1" NCoef="0" IVar="56" Cut="1.3307255506515503e+00" cType="1" res="1.6507509350776672e-01" rms="4.2170763015747070e-01" purity="7.2605055570602417e-01" nType="0">
          <Node pos="l" depth="2" NCoef="0" IVar="-1" Cut="0.0000000000000000e+00" cType="1" res="6.0967747122049332e-03" rms="3.9272901415824890e-01" purity="7.7942538261413574e-01" nType="-99"/>
          <Node pos="r" depth="2" NCoef="0" IVar="-1" Cut="0.0000000000000000e+00" cType="1" res="-1.1467688716948032e-02" rms="3.7828010320663452e-01" purity="1.9440127909183502e-01" nType="-99"/>
        </Node>
      </Node>
    </BinaryTree>
    <BinaryTree type="DecisionTree" boostWeight="1.0000000000000000e+00" itree="26">
      <Node pos="s" depth="0" NCoef="0" IVar="14" Cut="5.5395957082509995e-02" cType="1" res="7.1279793046414852e-03" rms="4.2831853032112122e-01" purity="4.9796268343925476e-01" nType="0">
        <Node pos="l" depth="1" NCoef="0" IVar="1" Cut="3.3956885337829590e+00" cType="1" res="-2.9316413402557373e-01" rms="2.0509640872478485e-01" purity="5.2972994744777679e-02" nType="0">
          <Node pos="l" depth="2" NCoef="0" IVar="-1" Cut="0.0000000000000000e+00" cType="1" res="-1.2529341503977776e-02" rms="1.0229525715112686e-01" purity="1.4372627250850201e-02" nType="-99"/>
          <Node pos="r" depth="2" NCoef="0" IVar="-1" Cut="0.0000000000000000e+00" cType="1" res="-3.9305393584072590e-03" rms="4.3694466352462769e-01" purity="2.8096488118171692e-01" nType="-99"/>
        </Node>
        <Node pos="r" depth="1" NCoef="0" IVar="1" Cut="2.9296426773071289e+00" cType="1" res="1.3350737094879150e-01" rms="4.3478715419769287e-01" purity="6.8523877859115601e-01" nType="0">
          <Node pos="l" depth="2" NCoef="0" IVar="-1" Cut="0.0000000000000000e+00" cType="1" res="-2.3330559488385916e-03" rms="4.7269836068153381e-01" purity="4.1875165700912476e-01" nType="-99"/>
          <Node pos="r" depth="2" NCoef="0" IVar="-1" Cut="0.0000000000000000e+00" cType="1" res="7.2370376437902451e-03" rms="3.5911858081817627e-01" purity="8.4004551172256470e-01" nType="-99"/>
        </Node>
      </Node>
    </BinaryTree>
    <BinaryTree type="DecisionTree" boostWeight="1.0000000000000000e+00" itree="27">
      <Node pos="s" depth="0" NCoef="0" IVar="14" Cut="5.5395957082509995e-02" cType="1" res="7.5321085751056671e-03" rms="4.2654657363891602e-01" purity="4.9772375822067261e-01" nType="0">
        <Node pos="l" depth="1" NCoef="0" IVar="1" Cut="3.3337805271148682e+00" cType="1" res="-2.8112649917602539e-01" rms="2.1828971803188324e-01" purity="5.9951122850179672e-02" nType="0">
          <Node pos="l" depth="2" NCoef="0" IVar="-1" Cut="0.0000000000000000e+00" cType="1" res="-1.2317346408963203e-02" rms="1.0928353667259216e-01" purity="1.5608244575560093e-02" nType="-99"/>
          <Node pos="r" depth="2" NCoef="0" IVar="-1" Cut="0.0000000000000000e+00" cType="1" res="-3.7725870497524738e-03" rms="4.3713724613189697e-01" purity="2.8245851397514343e-01" nType="-99"/>
        </Node>
        <Node pos="r" depth="1" NCoef="0" IVar="1" Cut="2.5547635555267334e+00" cType="1" res="1.3086891174316406e-01" rms="4.3417426943778992e-01" purity="6.8477332592010498e-01" nType="0">
          <Node pos="l" depth="2" NCoef="0" IVar="-1" Cut="0.0000000000000000e+00" cType="1" res="-5.6290985085070133e-03" rms="4.4115114212036133e-01" purity="2.8181612491607666e-01" nType="-99"/>
          <Node pos="r" depth="2" NCoef="0" IVar="-1" Cut="0.0000000000000000e+00" cType="1" res="6.0929735191166401e-03" rms="3.9390486478805542e-01" purity="7.9231595993041992e-01" nType="-99"/>
        </Node>
      </Node>
    </BinaryTree>
    <BinaryTree type="DecisionTree" boostWeight="1.0000000000000000e+00" itree="28">
      <Node pos="s" depth="0" NCoef="0" IVar="14" Cut="1.2549426555633545e+00" cType="1" res="7.7394135296344757e-03" rms="4.2363533377647400e-01" purity="4.9739140272140503e-01" nType="0">
        <Node pos="l" depth="1" NCoef="0" IVar="1" Cut="2.9291114807128906e+00" cType="1" res="-2.3872959613800049e-01" rms="2.9030340909957886e-01" purity="1.2123803049325943e-01" nType="0">
          <Node pos="l" depth="2" NCoef="0" IVar="-1" Cut="0.0000000000000000e+00" cType="1" res="-1.2376083992421627e-02" rms="1.0747181624174118e-01" purity="1.7209295183420181e-02" nType="-99"/>
          <Node pos="r" depth="2" NCoef="0" IVar="-1" Cut="0.0000000000000000e+00" cType="1" res="-3.0677020549774170e-03" rms="4.2984968423843384e-01" purity="3.1362885236740112e-01" nType="-99"/>
        </Node>
        <Node pos="r" depth="1" NCoef="0" IVar="34" Cut="1.0211263895034790e+00" cType="1" res="1.5240597724914551e-01" rms="4.2279490828514099e-01" purity="7.1817708015441895e-01" nType="0">
          <Node pos="l" depth="2" NCoef="0" IVar="-1" Cut="0.0000000000000000e+00" cType="1" res="5.9601403772830963e-03" rms="3.8974669575691223e-01" purity="7.7884912490844727e-01" nType="-99"/>
          <Node pos="r" depth="2" NCoef="0" IVar="-1" Cut="0.0000000000000000e+00" cType="1" res="-8.6321579292416573e-03" rms="4.2806357145309448e-01" purity="2.8427320718765259e-01" nType="-99"/>
        </Node>
      </Node>
    </BinaryTree>
    <BinaryTree type="DecisionTree" boostWeight="1.0000000000000000e+00" itree="29">
      <Node pos="s" depth="0" NCoef="0" IVar="14" Cut="1.3323327302932739e+00" cType="1" res="1.0463395155966282e-02" rms="4.2183002829551697e-01" purity="5.0122869014739990e-01" nType="0">
        <Node pos="l" depth="1" NCoef="0" IVar="1" Cut="3.2906613349914551e+00" cType="1" res="-2.2730699181556702e-01" rms="3.0094233155250549e-01" purity="1.3663662970066071e-01" nType="0">
          <Node pos="l" depth="2" NCoef="0" IVar="-1" Cut="0.0000000000000000e+00" cType="1" res="-1.0906655341386795e-02" rms="2.0594233274459839e-01" purity="5.9050980955362320e-02" nType="-99"/>
          <Node pos="r" depth="2" NCoef="0" IVar="-1" Cut="0.0000000000000000e+00" cType="1" res="-1.2381038686726242e-04" rms="4.5916873216629028e-01" purity="4.3204054236412048e-01" nType="-99"/>
        </Node>
        <Node pos="r" depth="1" NCoef="0" IVar="36" Cut="1.5932284295558929e-02" cType="1" res="1.5671117603778839e-01" rms="4.1895219683647156e-01" purity="7.2548186779022217e-01" nType="0">
          <Node pos="l" depth="2" NCoef="0" IVar="-1" Cut="0.0000000000000000e+00" cType="1" res="6.1496580019593239e-03" rms="3.8344141840934753e-01" purity="7.8980612754821777e-01" nType="-99"/>
          <Node pos="r" depth="2" NCoef="0" IVar="-1" Cut="0.0000000000000000e+00" cType="1" res="-7.6365908607840538e-03" rms="4.3740761280059814e-01" purity="3.0788522958755493e-01" nType="-99"/>
        </Node>
      </Node>
    </BinaryTree>
    <BinaryTree type="DecisionTree" boostWeight="1.0000000000000000e+00" itree="30">
      <Node pos="s" depth="0" NCoef="0" IVar="14" Cut="1.2936377525329590e+00" cType="1" res="1.2825505807995796e-02" rms="4.1967499256134033e-01" purity="5.0284230709075928e-01" nType="0">
        <Node pos="l" depth="1" NCoef="0" IVar="1" Cut="2.9692509174346924e+00" cType="1" res="-2.2597400844097137e-01" rms="2.9655790328979492e-01" purity="1.3010461628437042e-01" nType="0">
          <Node pos="l" depth="2" NCoef="0" IVar="-1" Cut="0.0000000000000000e+00" cType="1" res="-1.1881223879754543e-02" rms="1.3740852475166321e-01" purity="2.6288013905286789e-02" nType="-99"/>
          <Node pos="r" depth="2" NCoef="0" IVar="-1" Cut="0.0000000000000000e+00" cType="1" res="-2.5300153065472841e-03" rms="4.3567901849746704e-01" purity="3.3514735102653503e-01" nType="-99"/>
        </Node>
        <Node pos="r" depth="1" NCoef="0" IVar="54" Cut="7.8938168287277222e-01" cType="1" res="1.5575295686721802e-01" rms="4.1754767298698425e-01" purity="7.2593504190444946e-01" nType="0">
          <Node pos="l" depth="2" NCoef="0" IVar="-1" Cut="0.0000000000000000e+00" cType="1" res="6.1168358661234379e-03" rms="3.8135218620300293e-01" purity="7.9180157184600830e-01" nType="-99"/>
          <Node pos="r" depth="2" NCoef="0" IVar="-1" Cut="0.0000000000000000e+00" cType="1" res="-7.7018132433295250e-03" rms="4.3741217255592346e-01" purity="3.0250638723373413e-01" nType="-99"/>
        </Node>
      </Node>
    </BinaryTree>
    <BinaryTree type="DecisionTree" boostWeight="1.0000000000000000e+00" itree="31">
      <Node pos="s" depth="0" NCoef="0" IVar="14" Cut="5.5395957082509995e-02" cType="1" res="1.0673056356608868e-02" rms="4.1876941919326782e-01" purity="5.0090330839157104e-01" nType="0">
        <Node pos="l" depth="1" NCoef="0" IVar="14" Cut="-1.3491253852844238e+00" cType="1" res="-2.6605945825576782e-01" rms="2.1251052618026733e-01" purity="5.8426104485988617e-02" nType="0">
          <Node pos="l" depth="2" NCoef="0" IVar="-1" Cut="0.0000000000000000e+00" cType="1" res="-1.2947166338562965e-02" rms="0.0000000000000000e+00" purity="-5.7635572738945484e-03" nType="-99"/>
          <Node pos="r" depth="2" NCoef="0" IVar="-1" Cut="0.0000000000000000e+00" cType="1" res="-4.4895336031913757e-03" rms="4.1259562969207764e-01" purity="2.4142430722713470e-01" nType="-99"/>
        </Node>
        <Node pos="r" depth="1" NCoef="0" IVar="1" Cut="2.3672037124633789e+00" cType="1" res="1.2716376781463623e-01" rms="4.2938530445098877e-01" purity="6.8716436624526978e-01" nType="0">
          <Node pos="l" depth="2" NCoef="0" IVar="-1" Cut="0.0000000000000000e+00" cType="1" res="-7.9315248876810074e-03" rms="3.9536312222480774e-01" purity="2.0715884864330292e-01" nType="-99"/>
          <Node pos="r" depth="2" NCoef="0" IVar="-1" Cut="0.0000000000000000e+00" cType="1" res="5.5690603330731392e-03" rms="4.0159305930137634e-01" purity="7.7067434787750244e-01" nType="-99"/>
        </Node>
      </Node>
    </BinaryTree>
    <BinaryTree type="DecisionTree" boostWeight="1.0000000000000000e+00" itree="32">
      <Node pos="s" depth="0" NCoef="0" IVar="14" Cut="1.4097228050231934e+00" cType="1" res="9.4684166833758354e-03" rms="4.1667714715003967e-01" purity="4.9846264719963074e-01" nType="0">
        <Node pos="l" depth="1" NCoef="0" IVar="1" Cut="3.2728371620178223e+00" cType="1" res="-1.9822269678115845e-01" rms="3.2358160614967346e-01" purity="1.7018979787826538e-01" nType="0">
          <Node pos="l" depth="2" NCoef="0" IVar="-1" Cut="0.0000000000000000e+00" cType="1" res="-1.0170614346861839e-02" rms="2.3762251436710358e-01" purity="8.1411860883235931e-02" nType="-99"/>
          <Node pos="r" depth="2" NCoef="0" IVar="-1" Cut="0.0000000000000000e+00" cType="1" res="7.8994676005095243e-04" rms="4.5569777488708496e-01" purity="4.7720324993133545e-01" nType="-99"/>
        </Node>
        <Node pos="r" depth="1" NCoef="0" IVar="36" Cut="1.4082792997360229e+00" cType="1" res="1.5900088846683502e-01" rms="4.1209253668785095e-01" purity="7.3481088876724243e-01" nType="0">
          <Node pos="l" depth="2" NCoef="0" IVar="-1" Cut="0.0000000000000000e+00" cType="1" res="5.8970181271433830e-03" rms="3.8371655344963074e-01" purity="7.8594285249710083e-01" nType="-99"/>
          <Node pos="r" depth="2" NCoef="0" IVar="-1" Cut="0.0000000000000000e+00" cType="1" res="-1.3214160688221455e-02" rms="3.5097339749336243e-01" purity="1.6150073707103729e-01" nType="-99"/>
        </Node>
      </Node>
    </BinaryTree>
    <BinaryTree type="DecisionTree" boostWeight="1.0000000000000000e+00" itree="33">
      <Node pos="s" depth="0" NCoef="0" IVar="14" Cut="5.5099010467529297e-02" cType="1" res="1.1739226989448071e-02" rms="4.1440442204475403e-01" purity="5.0187945365905762e-01" nType="0">
        <Node pos="l" depth="1" NCoef="0" IVar="14" Cut="-1.4093281030654907e+00" cType="1" res="-2.5879427790641785e-01" rms="2.1012067794799805e-01" purity="5.7632043957710266e-02" nType="0">
          <Node pos="l" depth="2" NCoef="0" IVar="-1" Cut="0.0000000000000000e+00" cType="1" res="-1.2944645248353481e-02" rms="0.0000000000000000e+00" purity="-9.7473775967955589e-03" nType="-99"/>
          <Node pos="r" depth="2" NCoef="0" IVar="-1" Cut="0.0000000000000000e+00" cType="1" res="-5.2677323110401630e-03" rms="3.8809278607368469e-01" purity="2.0791564881801605e-01" nType="-99"/>
        </Node>
        <Node pos="r" depth="1" NCoef="0" IVar="1" Cut="2.6427545547485352e+00" cType="1" res="1.2533628940582275e-01" rms="4.2622286081314087e-01" purity="6.8841898441314697e-01" nType="0">
          <Node pos="l" depth="2" NCoef="0" IVar="-1" Cut="0.0000000000000000e+00" cType="1" res="-4.7080973163247108e-03" rms="4.4671815633773804e-01" purity="3.1415468454360962e-01" nType="-99"/>
          <Node pos="r" depth="2" NCoef="0" IVar="-1" Cut="0.0000000000000000e+00" cType="1" res="6.1381603591144085e-03" rms="3.8002488017082214e-01" purity="8.0841827392578125e-01" nType="-99"/>
        </Node>
      </Node>
    </BinaryTree>
    <BinaryTree type="DecisionTree" boostWeight="1.0000000000000000e+00" itree="34">
      <Node pos="s" depth="0" NCoef="0" IVar="14" Cut="1.3710278272628784e+00" cType="1" res="1.3855095952749252e-02" rms="4.1372528672218323e-01" purity="5.0333368778228760e-01" nType="0">
        <Node pos="l" depth="1" NCoef="0" IVar="1" Cut="3.3663141727447510e+00" cType="1" res="-1.9800136983394623e-01" rms="3.1339529156684875e-01" purity="1.5495300292968750e-01" nType="0">
          <Node pos="l" depth="2" NCoef="0" IVar="-1" Cut="0.0000000000000000e+00" cType="1" res="-9.7840772941708565e-03" rms="2.3994958400726318e-01" purity="8.1794202327728271e-02" nType="-99"/>
          <Node pos="r" depth="2" NCoef="0" IVar="-1" Cut="0.0000000000000000e+00" cType="1" res="8.8241923367604613e-04" rms="4.5863953232765198e-01" purity="4.6932205557823181e-01" nType="-99"/>
        </Node>
        <Node pos="r" depth="1" NCoef="0" IVar="56" Cut="1.2920519113540649e+00" cType="1" res="1.5216572582721710e-01" rms="4.1275116801261902e-01" purity="7.3077416419982910e-01" nType="0">
          <Node pos="l" depth="2" NCoef="0" IVar="-1" Cut="0.0000000000000000e+00" cType="1" res="5.7692248374223709e-03" rms="3.8450476527214050e-01" purity="7.8372937440872192e-01" nType="-99"/>
          <Node pos="r" depth="2" NCoef="0" IVar="-1" Cut="0.0000000000000000e+00" cType="1" res="-1.0404355823993683e-02" rms="3.9776271581649780e-01" purity="2.2731299698352814e-01" nType="-99"/>
        </Node>
      </Node>
    </BinaryTree>
    <BinaryTree type="DecisionTree" boostWeight="1.0000000000000000e+00" itree="35">
      <Node pos="s" depth="0" NCoef="0" IVar="14" Cut="2.8756627440452576e-01" cType="1" res="1.0437657125294209e-02" rms="4.1124841570854187e-01" purity="4.9939137697219849e-01" nType="0">
        <Node pos="l" depth="1" NCoef="0" IVar="14" Cut="-1.3634293079376221e+00" cType="1" res="-2.4715067446231842e-01" rms="2.1910892426967621e-01" purity="6.2842376530170441e-02" nType="0">
          <Node pos="l" depth="2" NCoef="0" IVar="-1" Cut="0.0000000000000000e+00" cType="1" res="-1.2554521672427654e-02" rms="0.0000000000000000e+00" purity="-3.9573060348629951e-03" nType="-99"/>
          <Node pos="r" depth="2" NCoef="0" IVar="-1" Cut="0.0000000000000000e+00" cType="1" res="-4.5092566870152950e-03" rms="4.0596148371696472e-01" purity="2.3154719173908234e-01" nType="-99"/>
        </Node>
        <Node pos="r" depth="1" NCoef="0" IVar="1" Cut="2.9919233322143555e+00" cType="1" res="1.2299478799104691e-01" rms="4.2471927404403687e-01" purity="6.9014811515808105e-01" nType="0">
          <Node pos="l" depth="2" NCoef="0" IVar="-1" Cut="0.0000000000000000e+00" cType="1" res="-1.8150378018617630e-03" rms="4.6670228242874146e-01" purity="4.4696116447448730e-01" nType="-99"/>
          <Node pos="r" depth="2" NCoef="0" IVar="-1" Cut="0.0000000000000000e+00" cType="1" res="7.0453160442411900e-03" rms="3.4430208802223206e-01" purity="8.5270816087722778e-01" nType="-99"/>
        </Node>
      </Node>
    </BinaryTree>
    <BinaryTree type="DecisionTree" boostWeight="1.0000000000000000e+00" itree="36">
      <Node pos="s" depth="0" NCoef="0" IVar="14" Cut="1.3323327302932739e+00" cType="1" res="1.3144662603735924e-02" rms="4.0947434306144714e-01" purity="5.0202983617782593e-01" nType="0">
        <Node pos="l" depth="1" NCoef="0" IVar="1" Cut="3.3666992187500000e+00" cType="1" res="-2.0031501352787018e-01" rms="2.9963606595993042e-01" purity="1.4043785631656647e-01" nType="0">
          <Node pos="l" depth="2" NCoef="0" IVar="-1" Cut="0.0000000000000000e+00" cType="1" res="-9.8926583305001259e-03" rms="2.2415459156036377e-01" purity="7.0574007928371429e-02" nType="-99"/>
          <Node pos="r" depth="2" NCoef="0" IVar="-1" Cut="0.0000000000000000e+00" cType="1" res="6.0023984406143427e-04" rms="4.5546549558639526e-01" purity="4.5177480578422546e-01" nType="-99"/>
        </Node>
        <Node pos="r" depth="1" NCoef="0" IVar="36" Cut="1.3697910308837891e+00" cType="1" res="1.4610759913921356e-01" rms="4.1246038675308228e-01" purity="7.2726362943649292e-01" nType="0">
          <Node pos="l" depth="2" NCoef="0" IVar="-1" Cut="0.0000000000000000e+00" cType="1" res="5.5855540558695793e-03" rms="3.8511404395103455e-01" purity="7.7967840433120728e-01" nType="-99"/>
          <Node pos="r" depth="2" NCoef="0" IVar="-1" Cut="0.0000000000000000e+00" cType="1" res="-1.1713993735611439e-02" rms="3.7895154953002930e-01" purity="1.9293719530105591e-01" nType="-99"/>
        </Node>
      </Node>
    </BinaryTree>
    <BinaryTree type="DecisionTree" boostWeight="1.0000000000000000e+00" itree="37">
      <Node pos="s" depth="0" NCoef="0" IVar="14" Cut="1.3704904317855835e+00" cType="1" res="1.0125265456736088e-02" rms="4.0758657455444336e-01" purity="4.9847459793090820e-01" nType="0">
        <Node pos="l" depth="1" NCoef="0" IVar="1" Cut="2.9291114807128906e+00" cType="1" res="-1.9439055025577545e-01" rms="3.0395394563674927e-01" purity="1.4886143803596497e-01" nType="0">
          <Node pos="l" depth="2" NCoef="0" IVar="-1" Cut="0.0000000000000000e+00" cType="1" res="-1.1223408393561840e-02" rms="1.4555272459983826e-01" purity="3.1866967678070068e-02" nType="-99"/>
          <Node pos="r" depth="2" NCoef="0" IVar="-1" Cut="0.0000000000000000e+00" cType="1" res="-1.8748248694464564e-03" rms="4.3146359920501709e-01" purity="3.5338798165321350e-01" nType="-99"/>
        </Node>
        <Node pos="r" depth="1" NCoef="0" IVar="54" Cut="8.6673176288604736e-01" cType="1" res="1.4496730268001556e-01" rms="4.1107764840126038e-01" purity="7.2898268699645996e-01" nType="0">
          <Node pos="l" depth="2" NCoef="0" IVar="-1" Cut="0.0000000000000000e+00" cType="1" res="5.8495039120316505e-03" rms="3.7567928433418274e-01" purity="7.9483985900878906e-01" nType="-99"/>
          <Node pos="r" depth="2" NCoef="0" IVar="-1" Cut="0.0000000000000000e+00" cType="1" res="-8.1083578988909721e-03" rms="4.3037998676300049e-01" purity="2.9401063919067383e-01" nType="-99"/>
        </Node>
      </Node>
    </BinaryTree>
    <BinaryTree type="DecisionTree" boostWeight="1.0000000000000000e+00" itree="38">
      <Node pos="s" depth="0" NCoef="0" IVar="14" Cut="3.2626134157180786e-01" cType="1" res="1.0923109948635101e-02" rms="4.0631347894668579e-01" purity="4.9900266528129578e-01" nType="0">
        <Node pos="l" depth="1" NCoef="0" IVar="14" Cut="-1.3123255968093872e+00" cType="1" res="-2.3411749303340912e-01" rms="2.2244708240032196e-01" purity="6.5259404480457306e-02" nType="0">
          <Node pos="l" depth="2" NCoef="0" IVar="-1" Cut="0.0000000000000000e+00" cType="1" res="-1.2049982324242592e-02" rms="2.7194987982511520e-02" purity="3.3515912946313620e-03" nType="-99"/>
          <Node pos="r" depth="2" NCoef="0" IVar="-1" Cut="0.0000000000000000e+00" cType="1" res="-3.9363768883049488e-03" rms="4.1360041499137878e-01" purity="2.4548009037971497e-01" nType="-99"/>
        </Node>
        <Node pos="r" depth="1" NCoef="0" IVar="1" Cut="2.7419304847717285e+00" cType="1" res="1.1967191845178604e-01" rms="4.2180943489074707e-01" purity="6.9149762392044067e-01" nType="0">
          <Node pos="l" depth="2" NCoef="0" IVar="-1" Cut="0.0000000000000000e+00" cType="1" res="-3.4785012248903513e-03" rms="4.5768660306930542e-01" purity="3.6244806647300720e-01" nType="-99"/>
          <Node pos="r" depth="2" NCoef="0" IVar="-1" Cut="0.0000000000000000e+00" cType="1" res="6.1221071518957615e-03" rms="3.6972314119338989e-01" purity="8.2038646936416626e-01" nType="-99"/>
        </Node>
      </Node>
    </BinaryTree>
    <BinaryTree type="DecisionTree" boostWeight="1.0000000000000000e+00" itree="39">
      <Node pos="s" depth="0" NCoef="0" IVar="14" Cut="1.4097228050231934e+00" cType="1" res="9.4511201605200768e-03" rms="4.0403801202774048e-01" purity="4.9750116467475891e-01" nType="0">
        <Node pos="l" depth="1" NCoef="0" IVar="1" Cut="3.1620972156524658e+00" cType="1" res="-1.8280841410160065e-01" rms="3.1080606579780579e-01" purity="1.6435028612613678e-01" nType="0">
          <Node pos="l" depth="2" NCoef="0" IVar="-1" Cut="0.0000000000000000e+00" cType="1" res="-1.0118608362972736e-02" rms="2.0771880447864532e-01" purity="6.4495146274566650e-02" nType="-99"/>
          <Node pos="r" depth="2" NCoef="0" IVar="-1" Cut="0.0000000000000000e+00" cType="1" res="-6.6904198320116848e-05" rms="4.4403651356697083e-01" purity="4.3575513362884521e-01" nType="-99"/>
        </Node>
        <Node pos="r" depth="1" NCoef="0" IVar="36" Cut="1.2922211885452271e+00" cType="1" res="1.4655496180057526e-01" rms="4.0695998072624207e-01" purity="7.3507720232009888e-01" nType="0">
          <Node pos="l" depth="2" NCoef="0" IVar="-1" Cut="0.0000000000000000e+00" cType="1" res="5.6400061585009098e-03" rms="3.7838271260261536e-01" purity="7.8894138336181641e-01" nType="-99"/>
          <Node pos="r" depth="2" NCoef="0" IVar="-1" Cut="0.0000000000000000e+00" cType="1" res="-1.0397976264357567e-02" rms="3.9764094352722168e-01" purity="2.2653920948505402e-01" nType="-99"/>
        </Node>
      </Node>
    </BinaryTree>
    <BinaryTree type="DecisionTree" boostWeight="1.0000000000000000e+00" itree="40">
      <Node pos="s" depth="0" NCoef="0" IVar="14" Cut="2.8722691535949707e-01" cType="1" res="1.2467006221413612e-02" rms="4.0234157443046570e-01" purity="5.0088065862655640e-01" nType="0">
        <Node pos="l" depth="1" NCoef="0" IVar="14" Cut="-1.3634803295135498e+00" cType="1" res="-2.3056738078594208e-01" rms="2.1286018192768097e-01" purity="6.1612620949745178e-02" nType="0">
          <Node pos="l" depth="2" NCoef="0" IVar="-1" Cut="0.0000000000000000e+00" cType="1" res="-1.2445449829101562e-02" rms="0.0000000000000000e+00" purity="-8.3901118487119675e-03" nType="-99"/>
          <Node pos="r" depth="2" NCoef="0" IVar="-1" Cut="0.0000000000000000e+00" cType="1" res="-3.9710677228868008e-03" rms="4.0471336245536804e-01" purity="2.3545750975608826e-01" nType="-99"/>
        </Node>
        <Node pos="r" depth="1" NCoef="0" IVar="1" Cut="2.3201200962066650e+00" cType="1" res="1.1909637600183487e-01" rms="4.1921135783195496e-01" purity="6.9360595941543579e-01" nType="0">
          <Node pos="l" depth="2" NCoef="0" IVar="-1" Cut="0.0000000000000000e+00" cType="1" res="-8.0176973715424538e-03" rms="3.8420510292053223e-01" purity="1.9656373560428619e-01" nType="-99"/>
          <Node pos="r" depth="2" NCoef="0" IVar="-1" Cut="0.0000000000000000e+00" cType="1" res="5.1435339264571667e-03" rms="3.9603015780448914e-01" purity="7.6896947622299194e-01" nType="-99"/>
        </Node>
      </Node>
    </BinaryTree>
    <BinaryTree type="DecisionTree" boostWeight="1.0000000000000000e+00" itree="41">
      <Node pos="s" depth="0" NCoef="0" IVar="1" Cut="2.9696114063262939e+00" cType="1" res="1.0784835554659367e-02" rms="4.0000116825103760e-01" purity="4.9932715296745300e-01" nType="0">
        <Node pos="l" depth="1" NCoef="0" IVar="14" Cut="1.4476122856140137e+00" cType="1" res="-1.5766562521457672e-01" rms="3.5361146926879883e-01" purity="2.3979833722114563e-01" nType="0">
          <Node pos="l" depth="2" NCoef="0" IVar="-1" Cut="0.0000000000000000e+00" cType="1" res="-1.0483619756996632e-02" rms="1.8540732562541962e-01" purity="5.3533364087343216e-02" nType="-99"/>
          <Node pos="r" depth="2" NCoef="0" IVar="-1" Cut="0.0000000000000000e+00" cType="1" res="-5.6414934806525707e-04" rms="4.7136366367340088e-01" purity="5.0686579942703247e-01" nType="-99"/>
        </Node>
        <Node pos="r" depth="1" NCoef="0" IVar="14" Cut="-1.4150160551071167e+00" cType="1" res="1.6572090983390808e-01" rms="3.7689763307571411e-01" purity="7.3803466558456421e-01" nType="0">
          <Node pos="l" depth="2" NCoef="0" IVar="-1" Cut="0.0000000000000000e+00" cType="1" res="-1.0462600737810135e-02" rms="2.1653799712657928e-01" purity="5.0449479371309280e-02" nType="-99"/>
          <Node pos="r" depth="2" NCoef="0" IVar="-1" Cut="0.0000000000000000e+00" cType="1" res="6.3620251603424549e-03" rms="3.5981795191764832e-01" purity="8.1909090280532837e-01" nType="-99"/>
        </Node>
      </Node>
    </BinaryTree>
    <BinaryTree type="DecisionTree" boostWeight="1.0000000000000000e+00" itree="42">
      <Node pos="s" depth="0" NCoef="0" IVar="1" Cut="2.9291114807128906e+00" cType="1" res="1.1938008479773998e-02" rms="3.9921951293945312e-01" purity="4.9958562850952148e-01" nType="0">
        <Node pos="l" depth="1" NCoef="0" IVar="14" Cut="1.4476122856140137e+00" cType="1" res="-1.5803803503513336e-01" rms="3.5104942321777344e-01" purity="2.3251877725124359e-01" nType="0">
          <Node pos="l" depth="2" NCoef="0" IVar="-1" Cut="0.0000000000000000e+00" cType="1" res="-1.0516480542719364e-02" rms="1.7991507053375244e-01" purity="5.0375834107398987e-02" nType="-99"/>
          <Node pos="r" depth="2" NCoef="0" IVar="-1" Cut="0.0000000000000000e+00" cType="1" res="-5.9124705148860812e-04" rms="4.7362950444221497e-01" purity="4.9989390373229980e-01" nType="-99"/>
        </Node>
        <Node pos="r" depth="1" NCoef="0" IVar="14" Cut="-1.2989310026168823e+00" cType="1" res="1.5770719945430756e-01" rms="3.7992620468139648e-01" purity="7.2861862182617188e-01" nType="0">
          <Node pos="l" depth="2" NCoef="0" IVar="-1" Cut="0.0000000000000000e+00" cType="1" res="-9.0136807411909103e-03" rms="2.7376493811607361e-01" purity="8.5095040500164032e-02" nType="-99"/>
          <Node pos="r" depth="2" NCoef="0" IVar="-1" Cut="0.0000000000000000e+00" cType="1" res="6.2797497957944870e-03" rms="3.6138641834259033e-01" purity="8.2228547334671021e-01" nType="-99"/>
        </Node>
      </Node>
    </BinaryTree>
    <BinaryTree type="DecisionTree" boostWeight="1.0000000000000000e+00" itree="43">
      <Node pos="s" depth="0" NCoef="0" IVar="1" Cut="2.9291114807128906e+00" cType="1" res="1.1740242131054401e-02" rms="3.9857858419418335e-01" purity="4.9909394979476929e-01" nType="0">
        <Node pos="l" depth="1" NCoef="0" IVar="14" Cut="1.4862970113754272e+00" cType="1" res="-1.5310271084308624e-01" rms="3.5315904021263123e-01" purity="2.3465172946453094e-01" nType="0">
          <Node pos="l" depth="2" NCoef="0" IVar="-1" Cut="0.0000000000000000e+00" cType="1" res="-9.6053909510374069e-03" rms="2.2820112109184265e-01" purity="7.9661935567855835e-02" nType="-99"/>
          <Node pos="r" depth="2" NCoef="0" IVar="-1" Cut="0.0000000000000000e+00" cType="1" res="-1.2699315266218036e-04" rms="4.7207802534103394e-01" purity="5.1727557182312012e-01" nType="-99"/>
        </Node>
        <Node pos="r" depth="1" NCoef="0" IVar="14" Cut="-1.4150444269180298e+00" cType="1" res="1.5396042168140411e-01" rms="3.8033154606819153e-01" purity="7.2724443674087524e-01" nType="0">
          <Node pos="l" depth="2" NCoef="0" IVar="-1" Cut="0.0000000000000000e+00" cType="1" res="-9.9917184561491013e-03" rms="2.3257634043693542e-01" purity="5.8855265378952026e-02" nType="-99"/>
          <Node pos="r" depth="2" NCoef="0" IVar="-1" Cut="0.0000000000000000e+00" cType="1" res="6.0268915258347988e-03" rms="3.6638203263282776e-01" purity="8.1037086248397827e-01" nType="-99"/>
        </Node>
      </Node>
    </BinaryTree>
    <BinaryTree type="DecisionTree" boostWeight="1.0000000000000000e+00" itree="44">
      <Node pos="s" depth="0" NCoef="0" IVar="1" Cut="2.8666541576385498e+00" cType="1" res="1.0632483288645744e-02" rms="3.9579445123672485e-01" purity="4.9785736203193665e-01" nType="0">
        <Node pos="l" depth="1" NCoef="0" IVar="1" Cut="2.2513236999511719e+00" cType="1" res="-1.6426740586757660e-01" rms="3.4150609374046326e-01" purity="2.1309287846088409e-01" nType="0">
          <Node pos="l" depth="2" NCoef="0" IVar="-1" Cut="0.0000000000000000e+00" cType="1" res="-1.1416493915021420e-02" rms="1.6538378596305847e-01" purity="4.4668968766927719e-02" nType="-99"/>
          <Node pos="r" depth="2" NCoef="0" IVar="-1" Cut="0.0000000000000000e+00" cType="1" res="-2.6408890262246132e-03" rms="4.0236285328865051e-01" purity="3.3397912979125977e-01" nType="-99"/>
        </Node>
        <Node pos="r" depth="1" NCoef="0" IVar="14" Cut="-1.2989310026168823e+00" cType="1" res="1.4379112422466278e-01" rms="3.8223907351493835e-01" purity="7.1466058492660522e-01" nType="0">
          <Node pos="l" depth="2" NCoef="0" IVar="-1" Cut="0.0000000000000000e+00" cType="1" res="-9.1276708990335464e-03" rms="2.5880050659179688e-01" purity="7.6362773776054382e-02" nType="-99"/>
          <Node pos="r" depth="2" NCoef="0" IVar="-1" Cut="0.0000000000000000e+00" cType="1" res="5.9202136471867561e-03" rms="3.6779773235321045e-01" purity="8.1194287538528442e-01" nType="-99"/>
        </Node>
      </Node>
    </BinaryTree>
    <BinaryTree type="DecisionTree" boostWeight="1.0000000000000000e+00" itree="45">
      <Node pos="s" depth="0" NCoef="0" IVar="1" Cut="3.0297482013702393e+00" cType="1" res="1.2347416952252388e-02" rms="3.9473348855972290e-01" purity="4.9998229742050171e-01" nType="0">
        <Node pos="l" depth="1" NCoef="0" IVar="14" Cut="1.4862970113754272e+00" cType="1" res="-1.3480603694915771e-01" rms="3.6062902212142944e-01" purity="2.6130595803260803e-01" nType="0">
          <Node pos="l" depth="2" NCoef="0" IVar="-1" Cut="0.0000000000000000e+00" cType="1" res="-8.9533161371946335e-03" rms="2.4357418715953827e-01" purity="9.6867375075817108e-02" nType="-99"/>
          <Node pos="r" depth="2" NCoef="0" IVar="-1" Cut="0.0000000000000000e+00" cType="1" res="2.8215846396051347e-04" rms="4.6781772375106812e-01" purity="5.4411625862121582e-01" nType="-99"/>
        </Node>
        <Node pos="r" depth="1" NCoef="0" IVar="14" Cut="-1.2989310026168823e+00" cType="1" res="1.6542977094650269e-01" rms="3.6966595053672791e-01" purity="7.4827498197555542e-01" nType="0">
          <Node pos="l" depth="2" NCoef="0" IVar="-1" Cut="0.0000000000000000e+00" cType="1" res="-8.6501156911253929e-03" rms="2.8410211205482483e-01" purity="9.1863431036472321e-02" nType="-99"/>
          <Node pos="r" depth="2" NCoef="0" IVar="-1" Cut="0.0000000000000000e+00" cType="1" res="6.3618272542953491e-03" rms="3.5095366835594177e-01" purity="8.3431839942932129e-01" nType="-99"/>
        </Node>
      </Node>
    </BinaryTree>
    <BinaryTree type="DecisionTree" boostWeight="1.0000000000000000e+00" itree="46">
      <Node pos="s" depth="0" NCoef="0" IVar="14" Cut="5.5395957082509995e-02" cType="1" res="1.2451712042093277e-02" rms="3.9375981688499451e-01" purity="5.0046366453170776e-01" nType="0">
        <Node pos="l" depth="1" NCoef="0" IVar="14" Cut="-1.3692233562469482e+00" cType="1" res="-2.1442084014415741e-01" rms="2.0062667131423950e-01" purity="5.6522078812122345e-02" nType="0">
          <Node pos="l" depth="2" NCoef="0" IVar="-1" Cut="0.0000000000000000e+00" cType="1" res="-1.1914673261344433e-02" rms="0.0000000000000000e+00" purity="-4.5413533225655556e-03" nType="-99"/>
          <Node pos="r" depth="2" NCoef="0" IVar="-1" Cut="0.0000000000000000e+00" cType="1" res="-4.0621599182486534e-03" rms="3.9080902934074402e-01" purity="2.2212505340576172e-01" nType="-99"/>
        </Node>
        <Node pos="r" depth="1" NCoef="0" IVar="56" Cut="1.2530211210250854e+00" cType="1" res="1.0793697088956833e-01" rms="4.1542887687683105e-01" purity="6.8730807304382324e-01" nType="0">
          <Node pos="l" depth="2" NCoef="0" IVar="-1" Cut="0.0000000000000000e+00" cType="1" res="4.6431012451648712e-03" rms="3.9248430728912354e-01" purity="7.4222779273986816e-01" nType="-99"/>
          <Node pos="r" depth="2" NCoef="0" IVar="-1" Cut="0.0000000000000000e+00" cType="1" res="-1.0893108323216438e-02" rms="3.7727013230323792e-01" purity="2.0648846030235291e-01" nType="-99"/>
        </Node>
      </Node>
    </BinaryTree>
    <BinaryTree type="DecisionTree" boostWeight="1.0000000000000000e+00" itree="47">
      <Node pos="s" depth="0" NCoef="0" IVar="1" Cut="2.9051542282104492e+00" cType="1" res="1.2473144568502903e-02" rms="3.9256444573402405e-01" purity="5.0073033571243286e-01" nType="0">
        <Node pos="l" depth="1" NCoef="0" IVar="14" Cut="1.4861534833908081e+00" cType="1" res="-1.4975188672542572e-01" rms="3.4713640809059143e-01" purity="2.2745954990386963e-01" nType="0">
          <Node pos="l" depth="2" NCoef="0" IVar="-1" Cut="0.0000000000000000e+00" cType="1" res="-9.4918953254818916e-03" rms="2.1730430424213409e-01" purity="7.4115708470344543e-02" nType="-99"/>
          <Node pos="r" depth="2" NCoef="0" IVar="-1" Cut="0.0000000000000000e+00" cType="1" res="-2.9911982710473239e-04" rms="4.7238385677337646e-01" purity="5.0579130649566650e-01" nType="-99"/>
        </Node>
        <Node pos="r" depth="1" NCoef="0" IVar="14" Cut="-1.2990103960037231e+00" cType="1" res="1.4461597800254822e-01" rms="3.7759789824485779e-01" purity="7.2332715988159180e-01" nType="0">
          <Node pos="l" depth="2" NCoef="0" IVar="-1" Cut="0.0000000000000000e+00" cType="1" res="-9.0518388897180557e-03" rms="2.5392076373100281e-01" purity="7.2571136057376862e-02" nType="-99"/>
          <Node pos="r" depth="2" NCoef="0" IVar="-1" Cut="0.0000000000000000e+00" cType="1" res="5.8545661158859730e-03" rms="3.6487939953804016e-01" purity="8.1601774692535400e-01" nType="-99"/>
        </Node>
      </Node>
    </BinaryTree>
    <BinaryTree type="DecisionTree" boostWeight="1.0000000000000000e+00" itree="48">
      <Node pos="s" depth="0" NCoef="0" IVar="1" Cut="3.0540266036987305e+00" cType="1" res="1.4742818661034107e-02" rms="3.9201030135154724e-01" purity="5.0283128023147583e-01" nType="0">
        <Node pos="l" depth="1" NCoef="0" IVar="56" Cut="-1.4924490451812744e+00" cType="1" res="-1.2198531627655029e-01" rms="3.6471727490425110e-01" purity="2.7349478006362915e-01" nType="0">
          <Node pos="l" depth="2" NCoef="0" IVar="-1" Cut="0.0000000000000000e+00" cType="1" res="-6.6788867115974426e-04" rms="3.9918729662895203e-01" purity="4.0136545896530151e-01" nType="-99"/>
          <Node pos="r" depth="2" NCoef="0" IVar="-1" Cut="0.0000000000000000e+00" cType="1" res="-9.0343104675412178e-03" rms="2.8561708331108093e-01" purity="1.3679125905036926e-01" nType="-99"/>
        </Node>
        <Node pos="r" depth="1" NCoef="0" IVar="14" Cut="-1.4150160551071167e+00" cType="1" res="1.6422840952873230e-01" rms="3.6533230543136597e-01" purity="7.5356602668762207e-01" nType="0">
          <Node pos="l" depth="2" NCoef="0" IVar="-1" Cut="0.0000000000000000e+00" cType="1" res="-9.9298479035496712e-03" rms="2.2501952946186066e-01" purity="5.4898001253604889e-02" nType="-99"/>
          <Node pos="r" depth="2" NCoef="0" IVar="-1" Cut="0.0000000000000000e+00" cType="1" res="6.2544005922973156e-03" rms="3.5114973783493042e-01" purity="8.3083444833755493e-01" nType="-99"/>
        </Node>
      </Node>
    </BinaryTree>
    <BinaryTree type="DecisionTree" boostWeight="1.0000000000000000e+00" itree="49">
      <Node pos="s" depth="0" NCoef="0" IVar="1" Cut="2.7765963077545166e+00" cType="1" res="1.1336916126310825e-02" rms="3.8947027921676636e-01" purity="4.9887797236442566e-01" nType="0">
        <Node pos="l" depth="1" NCoef="0" IVar="14" Cut="1.4862970113754272e+00" cType="1" res="-1.6669699549674988e-01" rms="3.2826298475265503e-01" purity="1.9005569815635681e-01" nType="0">
          <Node pos="l" depth="2" NCoef="0" IVar="-1" Cut="0.0000000000000000e+00" cType="1" res="-1.0026845149695873e-02" rms="1.9047561287879944e-01" purity="5.6467399001121521e-02" nType="-99"/>
          <Node pos="r" depth="2" NCoef="0" IVar="-1" Cut="0.0000000000000000e+00" cType="1" res="-1.0384831111878157e-03" rms="4.7439408302307129e-01" purity="4.5860615372657776e-01" nType="-99"/>
        </Node>
        <Node pos="r" depth="1" NCoef="0" IVar="14" Cut="-1.2989310026168823e+00" cType="1" res="1.2661258876323700e-01" rms="3.8251838088035583e-01" purity="6.9883829355239868e-01" nType="0">
          <Node pos="l" depth="2" NCoef="0" IVar="-1" Cut="0.0000000000000000e+00" cType="1" res="-8.8550066575407982e-03" rms="2.4373377859592438e-01" purity="6.7885473370552063e-02" nType="-99"/>
          <Node pos="r" depth="2" NCoef="0" IVar="-1" Cut="0.0000000000000000e+00" cType="1" res="5.3825578652322292e-03" rms="3.7467643618583679e-01" purity="7.9857242107391357e-01" nType="-99"/>
        </Node>
      </Node>
    </BinaryTree>
    <BinaryTree type="DecisionTree" boostWeight="1.0000000000000000e+00" itree="50">
      <Node pos="s" depth="0" NCoef="0" IVar="1" Cut="2.8666541576385498e+00" cType="1" res="1.2991413474082947e-02" rms="3.8943246006965637e-01" purity="4.9934944510459900e-01" nType="0">
        <Node pos="l" depth="1" NCoef="0" IVar="1" Cut="2.2513177394866943e+00" cType="1" res="-1.4772023260593414e-01" rms="3.4168669581413269e-01" purity="2.1628898382186890e-01" nType="0">
          <Node pos="l" depth="2" NCoef="0" IVar="-1" Cut="0.0000000000000000e+00" cType="1" res="-1.0826109908521175e-02" rms="1.7641761898994446e-01" purity="5.0005991011857986e-02" nType="-99"/>
          <Node pos="r" depth="2" NCoef="0" IVar="-1" Cut="0.0000000000000000e+00" cType="1" res="-2.2475321311503649e-03" rms="4.0166825056076050e-01" purity="3.3607080578804016e-01" nType="-99"/>
        </Node>
        <Node pos="r" depth="1" NCoef="0" IVar="14" Cut="-1.4150528907775879e+00" cType="1" res="1.3514141738414764e-01" rms="3.7899610400199890e-01" purity="7.1449148654937744e-01" nType="0">
          <Node pos="l" depth="2" NCoef="0" IVar="-1" Cut="0.0000000000000000e+00" cType="1" res="-9.0842749923467636e-03" rms="2.4395328760147095e-01" purity="6.4866915345191956e-02" nType="-99"/>
          <Node pos="r" depth="2" NCoef="0" IVar="-1" Cut="0.0000000000000000e+00" cType="1" res="5.4690265096724033e-03" rms="3.7104123830795288e-01" purity="8.0123311281204224e-01" nType="-99"/>
        </Node>
      </Node>
    </BinaryTree>
    <BinaryTree type="DecisionTree" boostWeight="1.0000000000000000e+00" itree="51">
      <Node pos="s" depth="0" NCoef="0" IVar="14" Cut="1.3710278272628784e+00" cType="1" res="1.2686870992183685e-02" rms="3.8727381825447083e-01" purity="4.9957445263862610e-01" nType="0">
        <Node pos="l" depth="1" NCoef="0" IVar="1" Cut="3.4440762996673584e+00" cType="1" res="-1.5833257138729095e-01" rms="2.9254692792892456e-01" purity="1.5037594735622406e-01" nType="0">
          <Node pos="l" depth="2" NCoef="0" IVar="-1" Cut="0.0000000000000000e+00" cType="1" res="-8.5245026275515556e-03" rms="2.3730461299419403e-01" purity="8.6928866803646088e-02" nType="-99"/>
          <Node pos="r" depth="2" NCoef="0" IVar="-1" Cut="0.0000000000000000e+00" cType="1" res="1.2808245373889804e-03" rms="4.3747642636299133e-01" purity="4.7946324944496155e-01" nType="-99"/>
        </Node>
        <Node pos="r" depth="1" NCoef="0" IVar="34" Cut="1.2145180702209473e+00" cType="1" res="1.2571536004543304e-01" rms="4.0054506063461304e-01" purity="7.3036330938339233e-01" nType="0">
          <Node pos="l" depth="2" NCoef="0" IVar="-1" Cut="0.0000000000000000e+00" cType="1" res="5.2195354364812374e-03" rms="3.7087738513946533e-01" purity="7.8674781322479248e-01" nType="-99"/>
          <Node pos="r" depth="2" NCoef="0" IVar="-1" Cut="0.0000000000000000e+00" cType="1" res="-1.0132179595530033e-02" rms="4.0538668632507324e-01" purity="2.5278821587562561e-01" nType="-99"/>
        </Node>
      </Node>
    </BinaryTree>
    <BinaryTree type="DecisionTree" boostWeight="1.0000000000000000e+00" itree="52">
      <Node pos="s" depth="0" NCoef="0" IVar="1" Cut="2.9051542282104492e+00" cType="1" res="1.5149002894759178e-02" rms="3.8616931438446045e-01" purity="5.0323855876922607e-01" nType="0">
        <Node pos="l" depth="1" NCoef="0" IVar="14" Cut="1.4862970113754272e+00" cType="1" res="-1.3978427648544312e-01" rms="3.4392562508583069e-01" purity="2.2682392597198486e-01" nType="0">
          <Node pos="l" depth="2" NCoef="0" IVar="-1" Cut="0.0000000000000000e+00" cType="1" res="-9.1510713100433350e-03" rms="2.1971778571605682e-01" purity="7.6441049575805664e-02" nType="-99"/>
          <Node pos="r" depth="2" NCoef="0" IVar="-1" Cut="0.0000000000000000e+00" cType="1" res="-2.2516150784213096e-04" rms="4.6998193860054016e-01" purity="5.0518572330474854e-01" nType="-99"/>
        </Node>
        <Node pos="r" depth="1" NCoef="0" IVar="14" Cut="-1.4150193929672241e+00" cType="1" res="1.4039590954780579e-01" rms="3.7278330326080322e-01" purity="7.2669017314910889e-01" nType="0">
          <Node pos="l" depth="2" NCoef="0" IVar="-1" Cut="0.0000000000000000e+00" cType="1" res="-9.0933134779334068e-03" rms="2.3812550306320190e-01" purity="6.2608823180198669e-02" nType="-99"/>
          <Node pos="r" depth="2" NCoef="0" IVar="-1" Cut="0.0000000000000000e+00" cType="1" res="5.5858399718999863e-03" rms="3.6426979303359985e-01" purity="8.0985677242279053e-01" nType="-99"/>
        </Node>
      </Node>
    </BinaryTree>
    <BinaryTree type="DecisionTree" boostWeight="1.0000000000000000e+00" itree="53">
      <Node pos="s" depth="0" NCoef="0" IVar="1" Cut="2.9068562984466553e+00" cType="1" res="1.3632556423544884e-02" rms="3.8527044653892517e-01" purity="5.0151789188385010e-01" nType="0">
        <Node pos="l" depth="1" NCoef="0" IVar="36" Cut="-1.4924387931823730e+00" cType="1" res="-1.3675718009471893e-01" rms="3.4432354569435120e-01" purity="2.2744026780128479e-01" nType="0">
          <Node pos="l" depth="2" NCoef="0" IVar="-1" Cut="0.0000000000000000e+00" cType="1" res="-1.4707423979416490e-03" rms="3.8769313693046570e-01" purity="3.4469136595726013e-01" nType="-99"/>
          <Node pos="r" depth="2" NCoef="0" IVar="-1" Cut="0.0000000000000000e+00" cType="1" res="-9.3714576214551926e-03" rms="2.6074823737144470e-01" purity="1.0893517732620239e-01" nType="-99"/>
        </Node>
        <Node pos="r" depth="1" NCoef="0" IVar="34" Cut="1.2145180702209473e+00" cType="1" res="1.3576820492744446e-01" rms="3.7337681651115417e-01" purity="7.2410398721694946e-01" nType="0">
          <Node pos="l" depth="2" NCoef="0" IVar="-1" Cut="0.0000000000000000e+00" cType="1" res="5.4865777492523193e-03" rms="3.4581148624420166e-01" purity="7.7157491445541382e-01" nType="-99"/>
          <Node pos="r" depth="2" NCoef="0" IVar="-1" Cut="0.0000000000000000e+00" cType="1" res="-8.8735455647110939e-03" rms="4.1507512331008911e-01" purity="2.7990677952766418e-01" nType="-99"/>
        </Node>
      </Node>
    </BinaryTree>
    <BinaryTree type="DecisionTree" boostWeight="1.0000000000000000e+00" itree="54">
      <Node pos="s" depth="0" NCoef="0" IVar="14" Cut="5.5395957082509995e-02" cType="1" res="1.3459197245538235e-02" rms="3.8403412699699402e-01" purity="5.0001436471939087e-01" nType="0">
        <Node pos="l" depth="1" NCoef="0" IVar="14" Cut="-1.3691741228103638e+00" cType="1" res="-1.9355165958404541e-01" rms="1.9953146576881409e-01" purity="5.7887714356184006e-02" nType="0">
          <Node pos="l" depth="2" NCoef="0" IVar="-1" Cut="0.0000000000000000e+00" cType="1" res="-1.1595061048865318e-02" rms="0.0000000000000000e+00" purity="-4.0434352122247219e-03" nType="-99"/>
          <Node pos="r" depth="2" NCoef="0" IVar="-1" Cut="0.0000000000000000e+00" cType="1" res="-3.6248401738703251e-03" rms="3.9024189114570618e-01" purity="2.2567696869373322e-01" nType="-99"/>
        </Node>
        <Node pos="r" depth="1" NCoef="0" IVar="54" Cut="6.7322325706481934e-01" cType="1" res="1.0138297080993652e-01" rms="4.0899989008903503e-01" purity="6.8779897689819336e-01" nType="0">
          <Node pos="l" depth="2" NCoef="0" IVar="-1" Cut="0.0000000000000000e+00" cType="1" res="4.7442894428968430e-03" rms="3.8120731711387634e-01" purity="7.5470447540283203e-01" nType="-99"/>
          <Node pos="r" depth="2" NCoef="0" IVar="-1" Cut="0.0000000000000000e+00" cType="1" res="-8.1322556361556053e-03" rms="4.1219264268875122e-01" purity="2.8339114785194397e-01" nType="-99"/>
        </Node>
      </Node>
    </BinaryTree>
    <BinaryTree type="DecisionTree" boostWeight="1.0000000000000000e+00" itree="55">
      <Node pos="s" depth="0" NCoef="0" IVar="1" Cut="3.0338873863220215e+00" cType="1" res="1.2193871662020683e-02" rms="3.8111397624015808e-01" purity="5.0027281045913696e-01" nType="0">
        <Node pos="l" depth="1" NCoef="0" IVar="14" Cut="1.4474706649780273e+00" cType="1" res="-1.1903474479913712e-01" rms="3.5205429792404175e-01" purity="2.6188448071479797e-01" nType="0">
          <Node pos="l" depth="2" NCoef="0" IVar="-1" Cut="0.0000000000000000e+00" cType="1" res="-9.1751972213387489e-03" rms="1.9984662532806396e-01" purity="6.5587744116783142e-02" nType="-99"/>
          <Node pos="r" depth="2" NCoef="0" IVar="-1" Cut="0.0000000000000000e+00" cType="1" res="-8.3790873759426177e-06" rms="4.6269652247428894e-01" purity="5.2965354919433594e-01" nType="-99"/>
        </Node>
        <Node pos="r" depth="1" NCoef="0" IVar="14" Cut="-1.2989804744720459e+00" cType="1" res="1.5047653019428253e-01" rms="3.6115097999572754e-01" purity="7.5147551298141479e-01" nType="0">
          <Node pos="l" depth="2" NCoef="0" IVar="-1" Cut="0.0000000000000000e+00" cType="1" res="-8.3014862611889839e-03" rms="2.6713287830352783e-01" purity="8.1685245037078857e-02" nType="-99"/>
          <Node pos="r" depth="2" NCoef="0" IVar="-1" Cut="0.0000000000000000e+00" cType="1" res="5.9122308157384396e-03" rms="3.4837773442268372e-01" purity="8.3622097969055176e-01" nType="-99"/>
        </Node>
      </Node>
    </BinaryTree>
    <BinaryTree type="DecisionTree" boostWeight="1.0000000000000000e+00" itree="56">
      <Node pos="s" depth="0" NCoef="0" IVar="1" Cut="2.8666541576385498e+00" cType="1" res="1.1964249424636364e-02" rms="3.8119256496429443e-01" purity="4.9842736124992371e-01" nType="0">
        <Node pos="l" depth="1" NCoef="0" IVar="1" Cut="2.2513177394866943e+00" cType="1" res="-1.3950569927692413e-01" rms="3.3647915720939636e-01" purity="2.1446098387241364e-01" nType="0">
          <Node pos="l" depth="2" NCoef="0" IVar="-1" Cut="0.0000000000000000e+00" cType="1" res="-1.0686173103749752e-02" rms="1.6674543917179108e-01" purity="4.5519027858972549e-02" nType="-99"/>
          <Node pos="r" depth="2" NCoef="0" IVar="-1" Cut="0.0000000000000000e+00" cType="1" res="-2.1590958349406719e-03" rms="3.9663061499595642e-01" purity="3.3227100968360901e-01" nType="-99"/>
        </Node>
        <Node pos="r" depth="1" NCoef="0" IVar="54" Cut="1.3318288326263428e+00" cType="1" res="1.2806718051433563e-01" rms="3.7261062860488892e-01" purity="7.1608984470367432e-01" nType="0">
          <Node pos="l" depth="2" NCoef="0" IVar="-1" Cut="0.0000000000000000e+00" cType="1" res="5.1779886707663536e-03" rms="3.4951943159103394e-01" purity="7.6028352975845337e-01" nType="-99"/>
          <Node pos="r" depth="2" NCoef="0" IVar="-1" Cut="0.0000000000000000e+00" cType="1" res="-9.6785826608538628e-03" rms="3.9700043201446533e-01" purity="2.4015346169471741e-01" nType="-99"/>
        </Node>
      </Node>
    </BinaryTree>
    <BinaryTree type="DecisionTree" boostWeight="1.0000000000000000e+00" itree="57">
      <Node pos="s" depth="0" NCoef="0" IVar="1" Cut="2.8410596847534180e+00" cType="1" res="1.3857029378414154e-02" rms="3.8085779547691345e-01" purity="5.0115561485290527e-01" nType="0">
        <Node pos="l" depth="1" NCoef="0" IVar="52" Cut="-1.4926501512527466e+00" cType="1" res="-1.3833926618099213e-01" rms="3.3430668711662292e-01" purity="2.1008847653865814e-01" nType="0">
          <Node pos="l" depth="2" NCoef="0" IVar="-1" Cut="0.0000000000000000e+00" cType="1" res="-1.6684444854035974e-03" rms="3.8517904281616211e-01" purity="3.2503303885459900e-01" nType="-99"/>
          <Node pos="r" depth="2" NCoef="0" IVar="-1" Cut="0.0000000000000000e+00" cType="1" res="-9.4038508832454681e-03" rms="2.4390651285648346e-01" purity="9.7712606191635132e-02" nType="-99"/>
        </Node>
        <Node pos="r" depth="1" NCoef="0" IVar="54" Cut="1.2544522285461426e+00" cType="1" res="1.2338363379240036e-01" rms="3.7462657690048218e-01" purity="7.1061927080154419e-01" nType="0">
          <Node pos="l" depth="2" NCoef="0" IVar="-1" Cut="0.0000000000000000e+00" cType="1" res="5.1249973475933075e-03" rms="3.5024440288543701e-01" purity="7.5865632295608521e-01" nType="-99"/>
          <Node pos="r" depth="2" NCoef="0" IVar="-1" Cut="0.0000000000000000e+00" cType="1" res="-9.0639963746070862e-03" rms="4.0374302864074707e-01" purity="2.5402769446372986e-01" nType="-99"/>
        </Node>
      </Node>
    </BinaryTree>
    <BinaryTree type="DecisionTree" boostWeight="1.0000000000000000e+00" itree="58">
      <Node pos="s" depth="0" NCoef="0" IVar="14" Cut="5.5361095815896988e-02" cType="1" res="9.5220040529966354e-03" rms="3.7900409102439880e-01" purity="4.9612039327621460e-01" nType="0">
        <Node pos="l" depth="1" NCoef="0" IVar="2" Cut="2.0092139244079590e+00" cType="1" res="-1.9102738797664642e-01" rms="1.8549671769142151e-01" purity="5.2629504352807999e-02" nType="0">
          <Node pos="l" depth="2" NCoef="0" IVar="-1" Cut="0.0000000000000000e+00" cType="1" res="-1.1980800889432430e-02" rms="0.0000000000000000e+00" purity="-1.6805142164230347e-02" nType="-99"/>
          <Node pos="r" depth="2" NCoef="0" IVar="-1" Cut="0.0000000000000000e+00" cType="1" res="-6.0199354775249958e-03" rms="3.0871239304542542e-01" purity="1.3413642346858978e-01" nType="-99"/>
        </Node>
        <Node pos="r" depth="1" NCoef="0" IVar="34" Cut="1.0218554735183716e+00" cType="1" res="9.4484135508537292e-02" rms="4.0701782703399658e-01" purity="6.8400394916534424e-01" nType="0">
          <Node pos="l" depth="2" NCoef="0" IVar="-1" Cut="0.0000000000000000e+00" cType="1" res="4.4602183625102043e-03" rms="3.8221397995948792e-01" purity="7.4582338333129883e-01" nType="-99"/>
          <Node pos="r" depth="2" NCoef="0" IVar="-1" Cut="0.0000000000000000e+00" cType="1" res="-9.0225897729396820e-03" rms="4.0061619877815247e-01" purity="2.6403772830963135e-01" nType="-99"/>
        </Node>
      </Node>
    </BinaryTree>
    <BinaryTree type="DecisionTree" boostWeight="1.0000000000000000e+00" itree="59">
      <Node pos="s" depth="0" NCoef="0" IVar="14" Cut="1.4484179019927979e+00" cType="1" res="1.2936148792505264e-02" rms="3.7733703851699829e-01" purity="4.9869951605796814e-01" nType="0">
        <Node pos="l" depth="1" NCoef="0" IVar="1" Cut="3.2761268615722656e+00" cType="1" res="-1.3263717293739319e-01" rms="3.0627876520156860e-01" purity="1.9098879396915436e-01" nType="0">
          <Node pos="l" depth="2" NCoef="0" IVar="-1" Cut="0.0000000000000000e+00" cType="1" res="-8.1290053203701973e-03" rms="2.3899550735950470e-01" purity="9.7423560917377472e-02" nType="-99"/>
          <Node pos="r" depth="2" NCoef="0" IVar="-1" Cut="0.0000000000000000e+00" cType="1" res="1.0349228978157043e-03" rms="4.2524820566177368e-01" purity="5.0128358602523804e-01" nType="-99"/>
        </Node>
        <Node pos="r" depth="1" NCoef="0" IVar="56" Cut="1.4080727100372314e+00" cType="1" res="1.2993653118610382e-01" rms="3.8820615410804749e-01" purity="7.4601316452026367e-01" nType="0">
          <Node pos="l" depth="2" NCoef="0" IVar="-1" Cut="0.0000000000000000e+00" cType="1" res="5.1995767280459404e-03" rms="3.6236009001731873e-01" purity="7.9567837715148926e-01" nType="-99"/>
          <Node pos="r" depth="2" NCoef="0" IVar="-1" Cut="0.0000000000000000e+00" cType="1" res="-1.2605700641870499e-02" rms="3.5760453343391418e-01" purity="1.7518460750579834e-01" nType="-99"/>
        </Node>
      </Node>
    </BinaryTree>
    <BinaryTree type="DecisionTree" boostWeight="1.0000000000000000e+00" itree="60">
      <Node pos="s" depth="0" NCoef="0" IVar="1" Cut="2.6478407382965088e+00" cType="1" res="1.2065834365785122e-02" rms="3.7638044357299805e-01" purity="4.9884691834449768e-01" nType="0">
        <Node pos="l" depth="1" NCoef="0" IVar="56" Cut="-1.4924588203430176e+00" cType="1" res="-1.6667626798152924e-01" rms="2.9685595631599426e-01" purity="1.5276223421096802e-01" nType="0">
          <Node pos="l" depth="2" NCoef="0" IVar="-1" Cut="0.0000000000000000e+00" cType="1" res="-3.1198190990835428e-03" rms="3.6339735984802246e-01" purity="2.5803726911544800e-01" nType="-99"/>
          <Node pos="r" depth="2" NCoef="0" IVar="-1" Cut="0.0000000000000000e+00" cType="1" res="-1.0363804176449776e-02" rms="1.9426792860031128e-01" purity="6.0081019997596741e-02" nType="-99"/>
        </Node>
        <Node pos="r" depth="1" NCoef="0" IVar="14" Cut="-1.2602359056472778e+00" cType="1" res="1.0200461000204086e-01" rms="3.8004848361015320e-01" purity="6.7298847436904907e-01" nType="0">
          <Node pos="l" depth="2" NCoef="0" IVar="-1" Cut="0.0000000000000000e+00" cType="1" res="-8.1536490470170975e-03" rms="2.4698537588119507e-01" purity="7.2203569114208221e-02" nType="-99"/>
          <Node pos="r" depth="2" NCoef="0" IVar="-1" Cut="0.0000000000000000e+00" cType="1" res="4.6998583711683750e-03" rms="3.7882089614868164e-01" purity="7.8169918060302734e-01" nType="-99"/>
        </Node>
      </Node>
    </BinaryTree>
    <BinaryTree type="DecisionTree" boostWeight="1.0000000000000000e+00" itree="61">
      <Node pos="s" depth="0" NCoef="0" IVar="1" Cut="3.0544486045837402e+00" cType="1" res="1.4162180013954639e-02" rms="3.7454631924629211e-01" purity="5.0122791528701782e-01" nType="0">
        <Node pos="l" depth="1" NCoef="0" IVar="36" Cut="-1.4924511909484863e+00" cType="1" res="-1.0646832734346390e-01" rms="3.5178154706954956e-01" purity="2.6897197961807251e-01" nType="0">
          <Node pos="l" depth="2" NCoef="0" IVar="-1" Cut="0.0000000000000000e+00" cType="1" res="-4.8819574294611812e-04" rms="3.8535362482070923e-01" purity="3.9162203669548035e-01" nType="-99"/>
          <Node pos="r" depth="2" NCoef="0" IVar="-1" Cut="0.0000000000000000e+00" cType="1" res="-8.4719005972146988e-03" rms="2.7853420376777649e-01" purity="1.3634015619754791e-01" nType="-99"/>
        </Node>
        <Node pos="r" depth="1" NCoef="0" IVar="34" Cut="1.2142609357833862e+00" cType="1" res="1.4659690856933594e-01" rms="3.5344448685646057e-01" purity="7.5621122121810913e-01" nType="0">
          <Node pos="l" depth="2" NCoef="0" IVar="-1" Cut="0.0000000000000000e+00" cType="1" res="5.7902764528989792e-03" rms="3.2466241717338562e-01" purity="8.0115234851837158e-01" nType="-99"/>
          <Node pos="r" depth="2" NCoef="0" IVar="-1" Cut="0.0000000000000000e+00" cType="1" res="-8.4264334291219711e-03" rms="4.1547092795372009e-01" purity="2.9620280861854553e-01" nType="-99"/>
        </Node>
      </Node>
    </BinaryTree>
    <BinaryTree type="DecisionTree" boostWeight="1.0000000000000000e+00" itree="62">
      <Node pos="s" depth="0" NCoef="0" IVar="14" Cut="1.4484179019927979e+00" cType="1" res="1.5103061683475971e-02" rms="3.7431579828262329e-01" purity="5.0320357084274292e-01" nType="0">
        <Node pos="l" depth="1" NCoef="0" IVar="1" Cut="3.3954937458038330e+00" cType="1" res="-1.2368430942296982e-01" rms="3.0896085500717163e-01" purity="1.9708828628063202e-01" nType="0">
          <Node pos="l" depth="2" NCoef="0" IVar="-1" Cut="0.0000000000000000e+00" cType="1" res="-7.4648000299930573e-03" rms="2.5646948814392090e-01" purity="1.1437217891216278e-01" nType="-99"/>
          <Node pos="r" depth="2" NCoef="0" IVar="-1" Cut="0.0000000000000000e+00" cType="1" res="1.9666075240820646e-03" rms="4.2311659455299377e-01" purity="5.4477339982986450e-01" nType="-99"/>
        </Node>
        <Node pos="r" depth="1" NCoef="0" IVar="36" Cut="1.4084697961807251e+00" cType="1" res="1.2528666853904724e-01" rms="3.8487908244132996e-01" purity="7.4622917175292969e-01" nType="0">
          <Node pos="l" depth="2" NCoef="0" IVar="-1" Cut="0.0000000000000000e+00" cType="1" res="5.0660748966038227e-03" rms="3.5990142822265625e-01" purity="7.9512745141983032e-01" nType="-99"/>
          <Node pos="r" depth="2" NCoef="0" IVar="-1" Cut="0.0000000000000000e+00" cType="1" res="-1.2430523522198200e-02" rms="3.5873633623123169e-01" purity="1.7699083685874939e-01" nType="-99"/>
        </Node>
      </Node>
    </BinaryTree>
    <BinaryTree type="DecisionTree" boostWeight="1.0000000000000000e+00" itree="63">
      <Node pos="s" depth="0" NCoef="0" IVar="1" Cut="2.7419304847717285e+00" cType="1" res="1.2756862677633762e-02" rms="3.7252837419509888e-01" purity="4.9902161955833435e-01" nType="0">
        <Node pos="l" depth="1" NCoef="0" IVar="52" Cut="-1.5312063694000244e+00" cType="1" res="-1.4762136340141296e-01" rms="3.0964478850364685e-01" purity="1.7641074955463409e-01" nType="0">
          <Node pos="l" depth="2" NCoef="0" IVar="-1" Cut="0.0000000000000000e+00" cType="1" res="-5.5608578259125352e-04" rms="3.8800337910652161e-01" purity="3.4697166085243225e-01" nType="-99"/>
          <Node pos="r" depth="2" NCoef="0" IVar="-1" Cut="0.0000000000000000e+00" cType="1" res="-8.4305321797728539e-03" rms="2.5376391410827637e-01" purity="1.0853685438632965e-01" nType="-99"/>
        </Node>
        <Node pos="r" depth="1" NCoef="0" IVar="54" Cut="1.2534822225570679e+00" cType="1" res="1.0901749134063721e-01" rms="3.7392604351043701e-01" purity="6.9265586137771606e-01" nType="0">
          <Node pos="l" depth="2" NCoef="0" IVar="-1" Cut="0.0000000000000000e+00" cType="1" res="4.7534108161926270e-03" rms="3.5158047080039978e-01" purity="7.4195498228073120e-01" nType="-99"/>
          <Node pos="r" depth="2" NCoef="0" IVar="-1" Cut="0.0000000000000000e+00" cType="1" res="-8.8740969076752663e-03" rms="3.9633971452713013e-01" purity="2.4866938591003418e-01" nType="-99"/>
        </Node>
      </Node>
    </BinaryTree>
    <BinaryTree type="DecisionTree" boostWeight="1.0000000000000000e+00" itree="64">
      <Node pos="s" depth="0" NCoef="0" IVar="1" Cut="2.8957457542419434e+00" cType="1" res="1.2937513180077076e-02" rms="3.7164109945297241e-01" purity="5.0018692016601562e-01" nType="0">
        <Node pos="l" depth="1" NCoef="0" IVar="14" Cut="1.4861534833908081e+00" cType="1" res="-1.2538602948188782e-01" rms="3.3059051632881165e-01" purity="2.1914868056774139e-01" nType="0">
          <Node pos="l" depth="2" NCoef="0" IVar="-1" Cut="0.0000000000000000e+00" cType="1" res="-8.8454792276024818e-03" rms="1.9976590573787689e-01" purity="6.7368820309638977e-02" nType="-99"/>
          <Node pos="r" depth="2" NCoef="0" IVar="-1" Cut="0.0000000000000000e+00" cType="1" res="-1.1560097482288256e-04" rms="4.6345978975296021e-01" purity="4.9978473782539368e-01" nType="-99"/>
        </Node>
        <Node pos="r" depth="1" NCoef="0" IVar="36" Cut="1.4072674512863159e+00" cType="1" res="1.2287054955959320e-01" rms="3.6569914221763611e-01" purity="7.2354274988174438e-01" nType="0">
          <Node pos="l" depth="2" NCoef="0" IVar="-1" Cut="0.0000000000000000e+00" cType="1" res="4.9331584013998508e-03" rms="3.4511247277259827e-01" purity="7.6034396886825562e-01" nType="-99"/>
          <Node pos="r" depth="2" NCoef="0" IVar="-1" Cut="0.0000000000000000e+00" cType="1" res="-1.0719949379563332e-02" rms="3.9547902345657349e-01" purity="2.2452859580516815e-01" nType="-99"/>
        </Node>
      </Node>
    </BinaryTree>
    <BinaryTree type="DecisionTree" boostWeight="1.0000000000000000e+00" itree="65">
      <Node pos="s" depth="0" NCoef="0" IVar="14" Cut="3.6495637893676758e-01" cType="1" res="1.2806889601051807e-02" rms="3.7170583009719849e-01" purity="5.0100928544998169e-01" nType="0">
        <Node pos="l" depth="1" NCoef="0" IVar="14" Cut="-1.4264860153198242e+00" cType="1" res="-1.7018388211727142e-01" rms="2.0397317409515381e-01" purity="6.5870024263858795e-02" nType="0">
          <Node pos="l" depth="2" NCoef="0" IVar="-1" Cut="0.0000000000000000e+00" cType="1" res="-1.1676908470690250e-02" rms="0.0000000000000000e+00" purity="-1.1467650532722473e-02" nType="-99"/>
          <Node pos="r" depth="2" NCoef="0" IVar="-1" Cut="0.0000000000000000e+00" cType="1" res="-3.4947849344462156e-03" rms="3.6813303828239441e-01" purity="2.1033114194869995e-01" nType="-99"/>
        </Node>
        <Node pos="r" depth="1" NCoef="0" IVar="34" Cut="9.8249185085296631e-01" cType="1" res="9.2633247375488281e-02" rms="3.9913415908813477e-01" purity="6.9083088636398315e-01" nType="0">
          <Node pos="l" depth="2" NCoef="0" IVar="-1" Cut="0.0000000000000000e+00" cType="1" res="4.4063762761652470e-03" rms="3.7476330995559692e-01" purity="7.5329971313476562e-01" nType="-99"/>
          <Node pos="r" depth="2" NCoef="0" IVar="-1" Cut="0.0000000000000000e+00" cType="1" res="-8.4190275520086288e-03" rms="4.0276300907135010e-01" purity="2.7172586321830750e-01" nType="-99"/>
        </Node>
      </Node>
    </BinaryTree>
    <BinaryTree type="DecisionTree" boostWeight="1.0000000000000000e+00" itree="66">
      <Node pos="s" depth="0" NCoef="0" IVar="1" Cut="3.0777130126953125e+00" cType="1" res="1.4073688536882401e-02" rms="3.6856678128242493e-01" purity="5.0219804048538208e-01" nType="0">
        <Node pos="l" depth="1" NCoef="0" IVar="56" Cut="-1.4924490451812744e+00" cType="1" res="-9.9291682243347168e-02" rms="3.4846436977386475e-01" purity="2.7378895878791809e-01" nType="0">
          <Node pos="l" depth="2" NCoef="0" IVar="-1" Cut="0.0000000000000000e+00" cType="1" res="-3.1116005266085267e-04" rms="3.8112023472785950e-01" purity="4.0117931365966797e-01" nType="-99"/>
          <Node pos="r" depth="2" NCoef="0" IVar="-1" Cut="0.0000000000000000e+00" cType="1" res="-8.2597313448786736e-03" rms="2.7884101867675781e-01" purity="1.3754138350486755e-01" nType="-99"/>
        </Node>
        <Node pos="r" depth="1" NCoef="0" IVar="14" Cut="-1.3763252496719360e+00" cType="1" res="1.4271093904972076e-01" rms="3.4794649481773376e-01" purity="7.6137703657150269e-01" nType="0">
          <Node pos="l" depth="2" NCoef="0" IVar="-1" Cut="0.0000000000000000e+00" cType="1" res="-8.4930192679166794e-03" rms="2.5720006227493286e-01" purity="7.4258089065551758e-02" nType="-99"/>
          <Node pos="r" depth="2" NCoef="0" IVar="-1" Cut="0.0000000000000000e+00" cType="1" res="5.6954687461256981e-03" rms="3.3670839667320251e-01" purity="8.4043920040130615e-01" nType="-99"/>
        </Node>
      </Node>
    </BinaryTree>
    <BinaryTree type="DecisionTree" boostWeight="1.0000000000000000e+00" itree="67">
      <Node pos="s" depth="0" NCoef="0" IVar="14" Cut="1.4097228050231934e+00" cType="1" res="1.1459265835583210e-02" rms="3.6882689595222473e-01" purity="4.9833184480667114e-01" nType="0">
        <Node pos="l" depth="1" NCoef="0" IVar="14" Cut="-1.3490912914276123e+00" cType="1" res="-1.2963230907917023e-01" rms="2.8753307461738586e-01" purity="1.6818732023239136e-01" nType="0">
          <Node pos="l" depth="2" NCoef="0" IVar="-1" Cut="0.0000000000000000e+00" cType="1" res="-1.1484137736260891e-02" rms="0.0000000000000000e+00" purity="-9.5899067819118500e-03" nType="-99"/>
          <Node pos="r" depth="2" NCoef="0" IVar="-1" Cut="0.0000000000000000e+00" cType="1" res="-1.5052265953272581e-03" rms="4.1789469122886658e-01" purity="3.6617147922515869e-01" nType="-99"/>
        </Node>
        <Node pos="r" depth="1" NCoef="0" IVar="56" Cut="1.4467463493347168e+00" cType="1" res="1.1193088442087173e-01" rms="3.8698756694793701e-01" purity="7.3342847824096680e-01" nType="0">
          <Node pos="l" depth="2" NCoef="0" IVar="-1" Cut="0.0000000000000000e+00" cType="1" res="4.6543041244149208e-03" rms="3.6537557840347290e-01" purity="7.7949953079223633e-01" nType="-99"/>
          <Node pos="r" depth="2" NCoef="0" IVar="-1" Cut="0.0000000000000000e+00" cType="1" res="-1.4297555200755596e-02" rms="3.1985870003700256e-01" purity="1.2904591858386993e-01" nType="-99"/>
        </Node>
      </Node>
    </BinaryTree>
    <BinaryTree type="DecisionTree" boostWeight="1.0000000000000000e+00" itree="68">
      <Node pos="s" depth="0" NCoef="0" IVar="14" Cut="1.4097228050231934e+00" cType="1" res="1.4257865957915783e-02" rms="3.6863487958908081e-01" purity="5.0045365095138550e-01" nType="0">
        <Node pos="l" depth="1" NCoef="0" IVar="1" Cut="3.3951160907745361e+00" cType="1" res="-1.2320310622453690e-01" rms="2.9415556788444519e-01" purity="1.7059394717216492e-01" nType="0">
          <Node pos="l" depth="2" NCoef="0" IVar="-1" Cut="0.0000000000000000e+00" cType="1" res="-7.5361542403697968e-03" rms="2.4102772772312164e-01" purity="9.6765510737895966e-02" nType="-99"/>
          <Node pos="r" depth="2" NCoef="0" IVar="-1" Cut="0.0000000000000000e+00" cType="1" res="1.2348385062068701e-03" rms="4.2636719346046448e-01" purity="4.9854305386543274e-01" nType="-99"/>
        </Node>
        <Node pos="r" depth="1" NCoef="0" IVar="54" Cut="1.0214319229125977e+00" cType="1" res="1.1258970201015472e-01" rms="3.8473120331764221e-01" purity="7.3641675710678101e-01" nType="0">
          <Node pos="l" depth="2" NCoef="0" IVar="-1" Cut="0.0000000000000000e+00" cType="1" res="5.0338464789092541e-03" rms="3.5434427857398987e-01" purity="7.9941672086715698e-01" nType="-99"/>
          <Node pos="r" depth="2" NCoef="0" IVar="-1" Cut="0.0000000000000000e+00" cType="1" res="-8.6730839684605598e-03" rms="4.0825539827346802e-01" purity="2.7678856253623962e-01" nType="-99"/>
        </Node>
      </Node>
    </BinaryTree>
    <BinaryTree type="DecisionTree" boostWeight="1.0000000000000000e+00" itree="69">
      <Node pos="s" depth="0" NCoef="0" IVar="1" Cut="2.4921126365661621e+00" cType="1" res="1.3137875124812126e-02" rms="3.6671459674835205e-01" purity="4.9962905049324036e-01" nType="0">
        <Node pos="l" depth="1" NCoef="0" IVar="32" Cut="-1.5312232971191406e+00" cType="1" res="-1.8256847560405731e-01" rms="2.4838219583034515e-01" purity="1.0604087263345718e-01" nType="0">
          <Node pos="l" depth="2" NCoef="0" IVar="-1" Cut="0.0000000000000000e+00" cType="1" res="-2.5152368471026421e-03" rms="3.5848098993301392e-01" purity="2.5408411026000977e-01" nType="-99"/>
          <Node pos="r" depth="2" NCoef="0" IVar="-1" Cut="0.0000000000000000e+00" cType="1" res="-1.0116365738213062e-02" rms="1.7805132269859314e-01" purity="5.4160490632057190e-02" nType="-99"/>
        </Node>
        <Node pos="r" depth="1" NCoef="0" IVar="34" Cut="1.0985049009323120e+00" cType="1" res="8.5581399500370026e-02" rms="3.7682437896728516e-01" purity="6.4532136917114258e-01" nType="0">
          <Node pos="l" depth="2" NCoef="0" IVar="-1" Cut="0.0000000000000000e+00" cType="1" res="4.1744653135538101e-03" rms="3.5843238234519958e-01" purity="7.0018810033798218e-01" nType="-99"/>
          <Node pos="r" depth="2" NCoef="0" IVar="-1" Cut="0.0000000000000000e+00" cType="1" res="-8.1400210037827492e-03" rms="3.7602996826171875e-01" purity="2.4467512965202332e-01" nType="-99"/>
        </Node>
      </Node>
    </BinaryTree>
    <BinaryTree type="DecisionTree" boostWeight="1.0000000000000000e+00" itree="70">
      <Node pos="s" depth="0" NCoef="0" IVar="14" Cut="5.9708023071289062e-01" cType="1" res="1.4623568393290043e-02" rms="3.6407732963562012e-01" purity="5.0183314085006714e-01" nType="0">
        <Node pos="l" depth="1" NCoef="0" IVar="3" Cut="5.1214394569396973e+00" cType="1" res="-1.5909716486930847e-01" rms="2.0620392262935638e-01" purity="7.0192970335483551e-02" nType="0">
          <Node pos="l" depth="2" NCoef="0" IVar="-1" Cut="0.0000000000000000e+00" cType="1" res="-9.8870657384395599e-03" rms="1.2068612873554230e-01" purity="2.7066897600889206e-02" nType="-99"/>
          <Node pos="r" depth="2" NCoef="0" IVar="-1" Cut="0.0000000000000000e+00" cType="1" res="-1.8109137890860438e-03" rms="3.6877444386482239e-01" purity="2.4049709737300873e-01" nType="-99"/>
        </Node>
        <Node pos="r" depth="1" NCoef="0" IVar="36" Cut="-9.5093584060668945e-01" cType="1" res="9.4145320355892181e-02" rms="3.9195260405540466e-01" purity="6.9941914081573486e-01" nType="0">
          <Node pos="l" depth="2" NCoef="0" IVar="-1" Cut="0.0000000000000000e+00" cType="1" res="4.8108049668371677e-03" rms="3.5949471592903137e-01" purity="7.7740198373794556e-01" nType="-99"/>
          <Node pos="r" depth="2" NCoef="0" IVar="-1" Cut="0.0000000000000000e+00" cType="1" res="-5.8986702933907509e-03" rms="4.1894418001174927e-01" purity="3.5757195949554443e-01" nType="-99"/>
        </Node>
      </Node>
    </BinaryTree>
    <BinaryTree type="DecisionTree" boostWeight="1.0000000000000000e+00" itree="71">
      <Node pos="s" depth="0" NCoef="0" IVar="14" Cut="1.6700902953743935e-02" cType="1" res="1.4414910227060318e-02" rms="3.6385217308998108e-01" purity="5.0105899572372437e-01" nType="0">
        <Node pos="l" depth="1" NCoef="0" IVar="14" Cut="-1.4326918125152588e+00" cType="1" res="-1.6324670612812042e-01" rms="1.8425922095775604e-01" purity="5.5660236626863480e-02" nType="0">
          <Node pos="l" depth="2" NCoef="0" IVar="-1" Cut="0.0000000000000000e+00" cType="1" res="-1.1858316138386726e-02" rms="0.0000000000000000e+00" purity="-1.7019806429743767e-02" nType="-99"/>
          <Node pos="r" depth="2" NCoef="0" IVar="-1" Cut="0.0000000000000000e+00" cType="1" res="-3.3080645371228456e-03" rms="3.6129960417747498e-01" purity="2.0282572507858276e-01" nType="-99"/>
        </Node>
        <Node pos="r" depth="1" NCoef="0" IVar="36" Cut="-9.5093584060668945e-01" cType="1" res="8.8872514665126801e-02" rms="3.9353641867637634e-01" purity="6.8772459030151367e-01" nType="0">
          <Node pos="l" depth="2" NCoef="0" IVar="-1" Cut="0.0000000000000000e+00" cType="1" res="4.6406290493905544e-03" rms="3.6359292268753052e-01" purity="7.6648306846618652e-01" nType="-99"/>
          <Node pos="r" depth="2" NCoef="0" IVar="-1" Cut="0.0000000000000000e+00" cType="1" res="-5.8428090997040272e-03" rms="4.1550359129905701e-01" purity="3.4791862964630127e-01" nType="-99"/>
        </Node>
      </Node>
    </BinaryTree>
    <BinaryTree type="DecisionTree" boostWeight="1.0000000000000000e+00" itree="72">
      <Node pos="s" depth="0" NCoef="0" IVar="1" Cut="3.2267153263092041e+00" cType="1" res="1.2628533877432346e-02" rms="3.6480373144149780e-01" purity="5.0002247095108032e-01" nType="0">
        <Node pos="l" depth="1" NCoef="0" IVar="36" Cut="-1.4924436807632446e+00" cType="1" res="-7.8030459582805634e-02" rms="3.5408186912536621e-01" purity="3.1482255458831787e-01" nType="0">
          <Node pos="l" depth="2" NCoef="0" IVar="-1" Cut="0.0000000000000000e+00" cType="1" res="3.3854669891297817e-04" rms="3.7501952052116394e-01" purity="4.4186517596244812e-01" nType="-99"/>
          <Node pos="r" depth="2" NCoef="0" IVar="-1" Cut="0.0000000000000000e+00" cType="1" res="-7.5114378705620766e-03" rms="2.9806864261627197e-01" purity="1.6833551228046417e-01" nType="-99"/>
        </Node>
        <Node pos="r" depth="1" NCoef="0" IVar="54" Cut="1.3705172538757324e+00" cType="1" res="1.5119656920433044e-01" rms="3.3630231022834778e-01" purity="7.8309196233749390e-01" nType="0">
          <Node pos="l" depth="2" NCoef="0" IVar="-1" Cut="0.0000000000000000e+00" cType="1" res="5.8086756616830826e-03" rms="3.1316930055618286e-01" purity="8.1760352849960327e-01" nType="-99"/>
          <Node pos="r" depth="2" NCoef="0" IVar="-1" Cut="0.0000000000000000e+00" cType="1" res="-8.7647829204797745e-03" rms="4.1597285866737366e-01" purity="2.7906110882759094e-01" nType="-99"/>
        </Node>
      </Node>
    </BinaryTree>
    <BinaryTree type="DecisionTree" boostWeight="1.0000000000000000e+00" itree="73">
      <Node pos="s" depth="0" NCoef="0" IVar="1" Cut="2.6478407382965088e+00" cType="1" res="1.1529539711773396e-02" rms="3.6268162727355957e-01" purity="4.9852094054222107e-01" nType="0">
        <Node pos="l" depth="1" NCoef="0" IVar="32" Cut="-1.5312349796295166e+00" cType="1" res="-1.4920336008071899e-01" rms="2.8751480579376221e-01" purity="1.5213720500469208e-01" nType="0">
          <Node pos="l" depth="2" NCoef="0" IVar="-1" Cut="0.0000000000000000e+00" cType="1" res="-1.0553100146353245e-03" rms="3.7684839963912964e-01" purity="3.1317654252052307e-01" nType="-99"/>
          <Node pos="r" depth="2" NCoef="0" IVar="-1" Cut="0.0000000000000000e+00" cType="1" res="-8.7071070447564125e-03" rms="2.2637552022933960e-01" purity="8.8785402476787567e-02" nType="-99"/>
        </Node>
        <Node pos="r" depth="1" NCoef="0" IVar="54" Cut="1.3318288326263428e+00" cType="1" res="9.2217348515987396e-02" rms="3.6958429217338562e-01" purity="6.7240530252456665e-01" nType="0">
          <Node pos="l" depth="2" NCoef="0" IVar="-1" Cut="0.0000000000000000e+00" cType="1" res="4.2323805391788483e-03" rms="3.5131913423538208e-01" purity="7.2014564275741577e-01" nType="-99"/>
          <Node pos="r" depth="2" NCoef="0" IVar="-1" Cut="0.0000000000000000e+00" cType="1" res="-9.6249440684914589e-03" rms="3.7498545646667480e-01" purity="2.1075583994388580e-01" nType="-99"/>
        </Node>
      </Node>
    </BinaryTree>
    <BinaryTree type="DecisionTree" boostWeight="1.0000000000000000e+00" itree="74">
      <Node pos="s" depth="0" NCoef="0" IVar="14" Cut="1.2936377525329590e+00" cType="1" res="1.3545538298785686e-02" rms="3.6221858859062195e-01" purity="5.0215572118759155e-01" nType="0">
        <Node pos="l" depth="1" NCoef="0" IVar="25" Cut="2.0070786476135254e+00" cType="1" res="-1.3242708146572113e-01" rms="2.6137790083885193e-01" purity="1.2766553461551666e-01" nType="0">
          <Node pos="l" depth="2" NCoef="0" IVar="-1" Cut="0.0000000000000000e+00" cType="1" res="-1.0206115432083607e-02" rms="7.6540514826774597e-02" purity="2.1035311743617058e-02" nType="-99"/>
          <Node pos="r" depth="2" NCoef="0" IVar="-1" Cut="0.0000000000000000e+00" cType="1" res="-2.1585209760814905e-03" rms="3.7328070402145386e-01" purity="2.6814132928848267e-01" nType="-99"/>
        </Node>
        <Node pos="r" depth="1" NCoef="0" IVar="56" Cut="1.2533782720565796e+00" cType="1" res="9.9254235625267029e-02" rms="3.8505563139915466e-01" purity="7.2203993797302246e-01" nType="0">
          <Node pos="l" depth="2" NCoef="0" IVar="-1" Cut="0.0000000000000000e+00" cType="1" res="4.4444100931286812e-03" rms="3.6255756020545959e-01" purity="7.7682262659072876e-01" nType="-99"/>
          <Node pos="r" depth="2" NCoef="0" IVar="-1" Cut="0.0000000000000000e+00" cType="1" res="-9.7901243716478348e-03" rms="3.8354650139808655e-01" purity="2.3036974668502808e-01" nType="-99"/>
        </Node>
      </Node>
    </BinaryTree>
    <BinaryTree type="DecisionTree" boostWeight="1.0000000000000000e+00" itree="75">
      <Node pos="s" depth="0" NCoef="0" IVar="14" Cut="1.3710278272628784e+00" cType="1" res="1.3582851737737656e-02" rms="3.6214038729667664e-01" purity="5.0092858076095581e-01" nType="0">
        <Node pos="l" depth="1" NCoef="0" IVar="14" Cut="-1.3519579172134399e+00" cType="1" res="-1.2234485894441605e-01" rms="2.7634367346763611e-01" purity="1.4971728622913361e-01" nType="0">
          <Node pos="l" depth="2" NCoef="0" IVar="-1" Cut="0.0000000000000000e+00" cType="1" res="-1.0900411754846573e-02" rms="0.0000000000000000e+00" purity="-1.6263255383819342e-03" nType="-99"/>
          <Node pos="r" depth="2" NCoef="0" IVar="-1" Cut="0.0000000000000000e+00" cType="1" res="-1.5982906334102154e-03" rms="4.0951719880104065e-01" purity="3.4033408761024475e-01" nType="-99"/>
        </Node>
        <Node pos="r" depth="1" NCoef="0" IVar="56" Cut="1.4467463493347168e+00" cType="1" res="1.0185185074806213e-01" rms="3.8331329822540283e-01" purity="7.2899883985519409e-01" nType="0">
          <Node pos="l" depth="2" NCoef="0" IVar="-1" Cut="0.0000000000000000e+00" cType="1" res="4.3434784747660160e-03" rms="3.6457175016403198e-01" purity="7.7445447444915771e-01" nType="-99"/>
          <Node pos="r" depth="2" NCoef="0" IVar="-1" Cut="0.0000000000000000e+00" cType="1" res="-1.3235020451247692e-02" rms="3.2537004351615906e-01" purity="1.3247749209403992e-01" nType="-99"/>
        </Node>
      </Node>
    </BinaryTree>
    <BinaryTree type="DecisionTree" boostWeight="1.0000000000000000e+00" itree="76">
      <Node pos="s" depth="0" NCoef="0" IVar="1" Cut="2.4919087886810303e+00" cType="1" res="1.2342610396444798e-02" rms="3.5912966728210449e-01" purity="5.0002717971801758e-01" nType="0">
        <Node pos="l" depth="1" NCoef="0" IVar="1" Cut="2.0292534828186035e+00" cType="1" res="-1.6905215382575989e-01" rms="2.5063225626945496e-01" purity="1.1172471195459366e-01" nType="0">
          <Node pos="l" depth="2" NCoef="0" IVar="-1" Cut="0.0000000000000000e+00" cType="1" res="-1.2268589809536934e-02" rms="0.0000000000000000e+00" purity="-8.3073748101014644e-05" nType="-99"/>
          <Node pos="r" depth="2" NCoef="0" IVar="-1" Cut="0.0000000000000000e+00" cType="1" res="-4.6319034881889820e-03" rms="3.2262969017028809e-01" purity="1.8830390274524689e-01" nType="-99"/>
        </Node>
        <Node pos="r" depth="1" NCoef="0" IVar="14" Cut="-1.1828458309173584e+00" cType="1" res="7.9092651605606079e-02" rms="3.6980435252189636e-01" purity="6.4291554689407349e-01" nType="0">
          <Node pos="l" depth="2" NCoef="0" IVar="-1" Cut="0.0000000000000000e+00" cType="1" res="-8.2585467025637627e-03" rms="2.0997455716133118e-01" purity="5.6431427597999573e-02" nType="-99"/>
          <Node pos="r" depth="2" NCoef="0" IVar="-1" Cut="0.0000000000000000e+00" cType="1" res="4.1226320900022984e-03" rms="3.7651214003562927e-01" purity="7.6371139287948608e-01" nType="-99"/>
        </Node>
      </Node>
    </BinaryTree>
    <BinaryTree type="DecisionTree" boostWeight="1.0000000000000000e+00" itree="77">
      <Node pos="s" depth="0" NCoef="0" IVar="1" Cut="3.2267153263092041e+00" cType="1" res="1.2100048363208771e-02" rms="3.5895287990570068e-01" purity="4.9818858504295349e-01" nType="0">
        <Node pos="l" depth="1" NCoef="0" IVar="32" Cut="-1.5312049388885498e+00" cType="1" res="-7.5206108391284943e-02" rms="3.4865567088127136e-01" purity="3.1384742259979248e-01" nType="0">
          <Node pos="l" depth="2" NCoef="0" IVar="-1" Cut="0.0000000000000000e+00" cType="1" res="1.8057317938655615e-03" rms="3.7813514471054077e-01" purity="5.0547975301742554e-01" nType="-99"/>
          <Node pos="r" depth="2" NCoef="0" IVar="-1" Cut="0.0000000000000000e+00" cType="1" res="-5.8464622125029564e-03" rms="3.1340131163597107e-01" purity="2.1538111567497253e-01" nType="-99"/>
        </Node>
        <Node pos="r" depth="1" NCoef="0" IVar="34" Cut="1.4093587398529053e+00" cType="1" res="1.4732982218265533e-01" rms="3.3172231912612915e-01" purity="7.8371727466583252e-01" nType="0">
          <Node pos="l" depth="2" NCoef="0" IVar="-1" Cut="0.0000000000000000e+00" cType="1" res="5.7094255462288857e-03" rms="3.0913785099983215e-01" purity="8.1703245639801025e-01" nType="-99"/>
          <Node pos="r" depth="2" NCoef="0" IVar="-1" Cut="0.0000000000000000e+00" cType="1" res="-1.0232485830783844e-02" rms="4.0300014615058899e-01" purity="2.4806128442287445e-01" nType="-99"/>
        </Node>
      </Node>
    </BinaryTree>
    <BinaryTree type="DecisionTree" boostWeight="1.0000000000000000e+00" itree="78">
      <Node pos="s" depth="0" NCoef="0" IVar="1" Cut="2.4137454032897949e+00" cType="1" res="1.3818826526403427e-02" rms="3.5902667045593262e-01" purity="5.0121301412582397e-01" nType="0">
        <Node pos="l" depth="1" NCoef="0" IVar="52" Cut="-1.5312243700027466e+00" cType="1" res="-1.7709383368492126e-01" rms="2.3208144307136536e-01" purity="9.1939263045787811e-02" nType="0">
          <Node pos="l" depth="2" NCoef="0" IVar="-1" Cut="0.0000000000000000e+00" cType="1" res="-3.0339933000504971e-03" rms="3.4597420692443848e-01" purity="2.2731944918632507e-01" nType="-99"/>
          <Node pos="r" depth="2" NCoef="0" IVar="-1" Cut="0.0000000000000000e+00" cType="1" res="-1.0034709237515926e-02" rms="1.6340090334415436e-01" purity="4.6029847115278244e-02" nType="-99"/>
        </Node>
        <Node pos="r" depth="1" NCoef="0" IVar="34" Cut="1.3319780826568604e+00" cType="1" res="7.3730185627937317e-02" rms="3.7070357799530029e-01" purity="6.2964940071105957e-01" nType="0">
          <Node pos="l" depth="2" NCoef="0" IVar="-1" Cut="0.0000000000000000e+00" cType="1" res="3.7093155551701784e-03" rms="3.5709732770919800e-01" purity="6.7864060401916504e-01" nType="-99"/>
          <Node pos="r" depth="2" NCoef="0" IVar="-1" Cut="0.0000000000000000e+00" cType="1" res="-1.0268187150359154e-02" rms="3.3713534474372864e-01" purity="1.7595686018466949e-01" nType="-99"/>
        </Node>
      </Node>
    </BinaryTree>
    <BinaryTree type="DecisionTree" boostWeight="1.0000000000000000e+00" itree="79">
      <Node pos="s" depth="0" NCoef="0" IVar="14" Cut="5.5361095815896988e-02" cType="1" res="1.4441074803471565e-02" rms="3.5737630724906921e-01" purity="5.0375467538833618e-01" nType="0">
        <Node pos="l" depth="1" NCoef="0" IVar="14" Cut="-1.2488204240798950e+00" cType="1" res="-1.5511150658130646e-01" rms="1.7617949843406677e-01" purity="5.2269216626882553e-02" nType="0">
          <Node pos="l" depth="2" NCoef="0" IVar="-1" Cut="0.0000000000000000e+00" cType="1" res="-1.0623762384057045e-02" rms="0.0000000000000000e+00" purity="2.7411838527768850e-03" nType="-99"/>
          <Node pos="r" depth="2" NCoef="0" IVar="-1" Cut="0.0000000000000000e+00" cType="1" res="-2.5847270153462887e-03" rms="3.8774156570434570e-01" purity="2.4105271697044373e-01" nType="-99"/>
        </Node>
        <Node pos="r" depth="1" NCoef="0" IVar="54" Cut="8.6670792102813721e-01" cType="1" res="8.4178186953067780e-02" rms="3.8832259178161621e-01" purity="6.8945103883743286e-01" nType="0">
          <Node pos="l" depth="2" NCoef="0" IVar="-1" Cut="0.0000000000000000e+00" cType="1" res="4.2091179639101028e-03" rms="3.6518847942352295e-01" purity="7.5420975685119629e-01" nType="-99"/>
          <Node pos="r" depth="2" NCoef="0" IVar="-1" Cut="0.0000000000000000e+00" cType="1" res="-7.8776804730296135e-03" rms="3.9853784441947937e-01" purity="2.7307373285293579e-01" nType="-99"/>
        </Node>
      </Node>
    </BinaryTree>
    <BinaryTree type="DecisionTree" boostWeight="1.0000000000000000e+00" itree="80">
      <Node pos="s" depth="0" NCoef="0" IVar="14" Cut="2.8756627440452576e-01" cType="1" res="1.5341226011514664e-02" rms="3.5596972703933716e-01" purity="5.0257480144500732e-01" nType="0">
        <Node pos="l" depth="1" NCoef="0" IVar="3" Cut="5.2158451080322266e+00" cType="1" res="-1.4444559812545776e-01" rms="1.9599010050296783e-01" purity="6.4033970236778259e-02" nType="0">
          <Node pos="l" depth="2" NCoef="0" IVar="-1" Cut="0.0000000000000000e+00" cType="1" res="-9.2874579131603241e-03" rms="1.3199111819267273e-01" purity="3.1957186758518219e-02" nType="-99"/>
          <Node pos="r" depth="2" NCoef="0" IVar="-1" Cut="0.0000000000000000e+00" cType="1" res="-2.3475932539440691e-04" rms="3.9091452956199646e-01" purity="2.7289152145385742e-01" nType="-99"/>
        </Node>
        <Node pos="r" depth="1" NCoef="0" IVar="34" Cut="9.8317408561706543e-01" cType="1" res="8.5250064730644226e-02" rms="3.8638079166412354e-01" purity="6.9444221258163452e-01" nType="0">
          <Node pos="l" depth="2" NCoef="0" IVar="-1" Cut="0.0000000000000000e+00" cType="1" res="4.2108935303986073e-03" rms="3.6282879114151001e-01" purity="7.5735241174697876e-01" nType="-99"/>
          <Node pos="r" depth="2" NCoef="0" IVar="-1" Cut="0.0000000000000000e+00" cType="1" res="-8.0996593460440636e-03" rms="3.9776962995529175e-01" purity="2.7241411805152893e-01" nType="-99"/>
        </Node>
      </Node>
    </BinaryTree>
    <BinaryTree type="DecisionTree" boostWeight="1.0000000000000000e+00" itree="81">
      <Node pos="s" depth="0" NCoef="0" IVar="1" Cut="3.1620972156524658e+00" cType="1" res="1.1754230596125126e-02" rms="3.5484904050827026e-01" purity="4.9846920371055603e-01" nType="0">
        <Node pos="l" depth="1" NCoef="0" IVar="56" Cut="-1.4924588203430176e+00" cType="1" res="-7.9402603209018707e-02" rms="3.4061959385871887e-01" purity="2.9687711596488953e-01" nType="0">
          <Node pos="l" depth="2" NCoef="0" IVar="-1" Cut="0.0000000000000000e+00" cType="1" res="2.0702558686025441e-04" rms="3.7028479576110840e-01" purity="4.2794835567474365e-01" nType="-99"/>
          <Node pos="r" depth="2" NCoef="0" IVar="-1" Cut="0.0000000000000000e+00" cType="1" res="-7.6041813008487225e-03" rms="2.7627223730087280e-01" purity="1.5327495336532593e-01" nType="-99"/>
        </Node>
        <Node pos="r" depth="1" NCoef="0" IVar="36" Cut="1.4081915616989136e+00" cType="1" res="1.3475900888442993e-01" rms="3.3604839444160461e-01" purity="7.7049255371093750e-01" nType="0">
          <Node pos="l" depth="2" NCoef="0" IVar="-1" Cut="0.0000000000000000e+00" cType="1" res="5.3710732609033585e-03" rms="3.1443539261817932e-01" purity="8.0471515655517578e-01" nType="-99"/>
          <Node pos="r" depth="2" NCoef="0" IVar="-1" Cut="0.0000000000000000e+00" cType="1" res="-9.4821713864803314e-03" rms="4.1407105326652527e-01" purity="2.5078704953193665e-01" nType="-99"/>
        </Node>
      </Node>
    </BinaryTree>
    <BinaryTree type="DecisionTree" boostWeight="1.0000000000000000e+00" itree="82">
      <Node pos="s" depth="0" NCoef="0" IVar="1" Cut="2.6792814731597900e+00" cType="1" res="1.4674216508865356e-02" rms="3.5573276877403259e-01" purity="5.0061345100402832e-01" nType="0">
        <Node pos="l" depth="1" NCoef="0" IVar="32" Cut="-1.5312232971191406e+00" cType="1" res="-1.2738776206970215e-01" rms="2.9286903142929077e-01" purity="1.6128966212272644e-01" nType="0">
          <Node pos="l" depth="2" NCoef="0" IVar="-1" Cut="0.0000000000000000e+00" cType="1" res="-5.4616574198007584e-04" rms="3.7375468015670776e-01" purity="3.2089126110076904e-01" nType="-99"/>
          <Node pos="r" depth="2" NCoef="0" IVar="-1" Cut="0.0000000000000000e+00" cType="1" res="-7.9646371304988861e-03" rms="2.4000878632068634e-01" purity="9.8683856427669525e-02" nType="-99"/>
        </Node>
        <Node pos="r" depth="1" NCoef="0" IVar="54" Cut="1.2544522285461426e+00" cType="1" res="9.0306870639324188e-02" rms="3.6302682757377625e-01" purity="6.8126672506332397e-01" nType="0">
          <Node pos="l" depth="2" NCoef="0" IVar="-1" Cut="0.0000000000000000e+00" cType="1" res="4.2829494923353195e-03" rms="3.4352439641952515e-01" purity="7.3207783699035645e-01" nType="-99"/>
          <Node pos="r" depth="2" NCoef="0" IVar="-1" Cut="0.0000000000000000e+00" cType="1" res="-8.6789233610033989e-03" rms="3.8231679797172546e-01" purity="2.3337054252624512e-01" nType="-99"/>
        </Node>
      </Node>
    </BinaryTree>
    <BinaryTree type="DecisionTree" boostWeight="1.0000000000000000e+00" itree="83">
      <Node pos="s" depth="0" NCoef="0" IVar="1" Cut="3.1789417266845703e+00" cType="1" res="1.1310399509966373e-02" rms="3.5421335697174072e-01" purity="4.9986553192138672e-01" nType="0">
        <Node pos="l" depth="1" NCoef="0" IVar="56" Cut="-1.4924588203430176e+00" cType="1" res="-7.5683988630771637e-02" rms="3.4305003285408020e-01" purity="3.0269071459770203e-01" nType="0">
          <Node pos="l" depth="2" NCoef="0" IVar="-1" Cut="0.0000000000000000e+00" cType="1" res="2.9303232440724969e-04" rms="3.7069907784461975e-01" purity="4.3415647745132446e-01" nType="-99"/>
          <Node pos="r" depth="2" NCoef="0" IVar="-1" Cut="0.0000000000000000e+00" cType="1" res="-7.4334973469376564e-03" rms="2.8203099966049194e-01" purity="1.5713700652122498e-01" nType="-99"/>
        </Node>
        <Node pos="r" depth="1" NCoef="0" IVar="36" Cut="1.4468667507171631e+00" cType="1" res="1.3319434225559235e-01" rms="3.3303707838058472e-01" purity="7.7611839771270752e-01" nType="0">
          <Node pos="l" depth="2" NCoef="0" IVar="-1" Cut="0.0000000000000000e+00" cType="1" res="5.2735526114702225e-03" rms="3.1343674659729004e-01" purity="8.0686277151107788e-01" nType="-99"/>
          <Node pos="r" depth="2" NCoef="0" IVar="-1" Cut="0.0000000000000000e+00" cType="1" res="-1.1204211972653866e-02" rms="3.9440768957138062e-01" purity="2.0989032089710236e-01" nType="-99"/>
        </Node>
      </Node>
    </BinaryTree>
    <BinaryTree type="DecisionTree" boostWeight="1.0000000000000000e+00" itree="84">
      <Node pos="s" depth="0" NCoef="0" IVar="45" Cut="1.7782374620437622e+00" cType="1" res="1.3445744290947914e-02" rms="3.5321417450904846e-01" purity="5.0082832574844360e-01" nType="0">
        <Node pos="l" depth="1" NCoef="0" IVar="36" Cut="-1.4924511909484863e+00" cType="1" res="-1.3299332559108734e-01" rms="2.9699656367301941e-01" purity="2.1400699019432068e-01" nType="0">
          <Node pos="l" depth="2" NCoef="0" IVar="-1" Cut="0.0000000000000000e+00" cType="1" res="-2.3659972939640284e-03" rms="3.4871685504913330e-01" purity="3.3221560716629028e-01" nType="-99"/>
          <Node pos="r" depth="2" NCoef="0" IVar="-1" Cut="0.0000000000000000e+00" cType="1" res="-9.8959626629948616e-03" rms="1.9804294407367706e-01" purity="8.4339156746864319e-02" nType="-99"/>
        </Node>
        <Node pos="r" depth="1" NCoef="0" IVar="56" Cut="1.4463146924972534e+00" cType="1" res="8.7409742176532745e-02" rms="3.5625952482223511e-01" purity="6.4569711685180664e-01" nType="0">
          <Node pos="l" depth="2" NCoef="0" IVar="-1" Cut="0.0000000000000000e+00" cType="1" res="4.1309371590614319e-03" rms="3.4177413582801819e-01" purity="6.9159215688705444e-01" nType="-99"/>
          <Node pos="r" depth="2" NCoef="0" IVar="-1" Cut="0.0000000000000000e+00" cType="1" res="-1.1795161291956902e-02" rms="3.1594833731651306e-01" purity="1.1859264224767685e-01" nType="-99"/>
        </Node>
      </Node>
    </BinaryTree>
    <BinaryTree type="DecisionTree" boostWeight="1.0000000000000000e+00" itree="85">
      <Node pos="s" depth="0" NCoef="0" IVar="14" Cut="1.4484179019927979e+00" cType="1" res="1.1763205751776695e-02" rms="3.5122033953666687e-01" purity="4.9814543128013611e-01" nType="0">
        <Node pos="l" depth="1" NCoef="0" IVar="25" Cut="2.2150893211364746e+00" cType="1" res="-1.0256260633468628e-01" rms="2.9051363468170166e-01" purity="1.9517980515956879e-01" nType="0">
          <Node pos="l" depth="2" NCoef="0" IVar="-1" Cut="0.0000000000000000e+00" cType="1" res="-8.1792222335934639e-03" rms="1.9693122804164886e-01" purity="7.8200995922088623e-02" nType="-99"/>
          <Node pos="r" depth="2" NCoef="0" IVar="-1" Cut="0.0000000000000000e+00" cType="1" res="-2.1054041280876845e-04" rms="3.8805228471755981e-01" purity="4.0272003412246704e-01" nType="-99"/>
        </Node>
        <Node pos="r" depth="1" NCoef="0" IVar="36" Cut="1.4084697961807251e+00" cType="1" res="1.0406287759542465e-01" rms="3.6842393875122070e-01" purity="7.4274128675460815e-01" nType="0">
          <Node pos="l" depth="2" NCoef="0" IVar="-1" Cut="0.0000000000000000e+00" cType="1" res="4.5215273275971413e-03" rms="3.4657418727874756e-01" purity="7.9160916805267334e-01" nType="-99"/>
          <Node pos="r" depth="2" NCoef="0" IVar="-1" Cut="0.0000000000000000e+00" cType="1" res="-1.1729811318218708e-02" rms="3.5936132073402405e-01" purity="1.7064289748668671e-01" nType="-99"/>
        </Node>
      </Node>
    </BinaryTree>
    <BinaryTree type="DecisionTree" boostWeight="1.0000000000000000e+00" itree="86">
      <Node pos="s" depth="0" NCoef="0" IVar="14" Cut="5.5395957082509995e-02" cType="1" res="1.4163629151880741e-02" rms="3.5075274109840393e-01" purity="5.0099807977676392e-01" nType="0">
        <Node pos="l" depth="1" NCoef="0" IVar="14" Cut="-1.4293607473373413e+00" cType="1" res="-1.4105892181396484e-01" rms="1.8400925397872925e-01" purity="5.7951066642999649e-02" nType="0">
          <Node pos="l" depth="2" NCoef="0" IVar="-1" Cut="0.0000000000000000e+00" cType="1" res="-1.1466932483017445e-02" rms="0.0000000000000000e+00" purity="-1.3159694150090218e-02" nType="-99"/>
          <Node pos="r" depth="2" NCoef="0" IVar="-1" Cut="0.0000000000000000e+00" cType="1" res="-2.8606292326003313e-03" rms="3.5428935289382935e-01" purity="2.0184914767742157e-01" nType="-99"/>
        </Node>
        <Node pos="r" depth="1" NCoef="0" IVar="54" Cut="-4.8690554499626160e-01" cType="1" res="8.0012239515781403e-02" rms="3.8248819112777710e-01" purity="6.8894785642623901e-01" nType="0">
          <Node pos="l" depth="2" NCoef="0" IVar="-1" Cut="0.0000000000000000e+00" cType="1" res="4.4459663331508636e-03" rms="3.5162201523780823e-01" purity="7.7188825607299805e-01" nType="-99"/>
          <Node pos="r" depth="2" NCoef="0" IVar="-1" Cut="0.0000000000000000e+00" cType="1" res="-5.1614753901958466e-03" rms="4.1480663418769836e-01" purity="3.6450967192649841e-01" nType="-99"/>
        </Node>
      </Node>
    </BinaryTree>
    <BinaryTree type="DecisionTree" boostWeight="1.0000000000000000e+00" itree="87">
      <Node pos="s" depth="0" NCoef="0" IVar="1" Cut="2.4294514656066895e+00" cType="1" res="1.4017476700246334e-02" rms="3.5043784976005554e-01" purity="5.0060802698135376e-01" nType="0">
        <Node pos="l" depth="1" NCoef="0" IVar="52" Cut="-1.5312243700027466e+00" cType="1" res="-1.6119787096977234e-01" rms="2.3375116288661957e-01" purity="9.6375577151775360e-02" nType="0">
          <Node pos="l" depth="2" NCoef="0" IVar="-1" Cut="0.0000000000000000e+00" cType="1" res="-2.7040829882025719e-03" rms="3.4278038144111633e-01" purity="2.3247618973255157e-01" nType="-99"/>
          <Node pos="r" depth="2" NCoef="0" IVar="-1" Cut="0.0000000000000000e+00" cType="1" res="-9.6254404634237289e-03" rms="1.6970475018024445e-01" purity="4.9644764512777328e-02" nType="-99"/>
        </Node>
        <Node pos="r" depth="1" NCoef="0" IVar="14" Cut="-1.2602359056472778e+00" cType="1" res="7.1188919246196747e-02" rms="3.6299201846122742e-01" purity="6.3250601291656494e-01" nType="0">
          <Node pos="l" depth="2" NCoef="0" IVar="-1" Cut="0.0000000000000000e+00" cType="1" res="-8.3503769710659981e-03" rms="1.9199924170970917e-01" purity="4.6196274459362030e-02" nType="-99"/>
          <Node pos="r" depth="2" NCoef="0" IVar="-1" Cut="0.0000000000000000e+00" cType="1" res="3.8299541920423508e-03" rms="3.7329506874084473e-01" purity="7.5306564569473267e-01" nType="-99"/>
        </Node>
      </Node>
    </BinaryTree>
    <BinaryTree type="DecisionTree" boostWeight="1.0000000000000000e+00" itree="88">
      <Node pos="s" depth="0" NCoef="0" IVar="14" Cut="1.4484179019927979e+00" cType="1" res="1.0771501809358597e-02" rms="3.4779840707778931e-01" purity="4.9654975533485413e-01" nType="0">
        <Node pos="l" depth="1" NCoef="0" IVar="25" Cut="2.1940941810607910e+00" cType="1" res="-1.0086317360401154e-01" rms="2.8387671709060669e-01" purity="1.8985792994499207e-01" nType="0">
          <Node pos="l" depth="2" NCoef="0" IVar="-1" Cut="0.0000000000000000e+00" cType="1" res="-8.1454711034893990e-03" rms="1.8741579353809357e-01" purity="7.5905114412307739e-02" nType="-99"/>
          <Node pos="r" depth="2" NCoef="0" IVar="-1" Cut="0.0000000000000000e+00" cType="1" res="-3.3499661367386580e-04" rms="3.8337197899818420e-01" purity="3.8978838920593262e-01" nType="-99"/>
        </Node>
        <Node pos="r" depth="1" NCoef="0" IVar="56" Cut="1.4076961278915405e+00" cType="1" res="1.0061662644147873e-01" rms="3.6791071295738220e-01" purity="7.4337953329086304e-01" nType="0">
          <Node pos="l" depth="2" NCoef="0" IVar="-1" Cut="0.0000000000000000e+00" cType="1" res="4.4529745355248451e-03" rms="3.4712380170822144e-01" purity="7.9352343082427979e-01" nType="-99"/>
          <Node pos="r" depth="2" NCoef="0" IVar="-1" Cut="0.0000000000000000e+00" cType="1" res="-1.1812627315521240e-02" rms="3.4558436274528503e-01" purity="1.6611471772193909e-01" nType="-99"/>
        </Node>
      </Node>
    </BinaryTree>
    <BinaryTree type="DecisionTree" boostWeight="1.0000000000000000e+00" itree="89">
      <Node pos="s" depth="0" NCoef="0" IVar="45" Cut="1.7170974016189575e+00" cType="1" res="1.1895747855305672e-02" rms="3.4841787815093994e-01" purity="4.9916365742683411e-01" nType="0">
        <Node pos="l" depth="1" NCoef="0" IVar="36" Cut="-1.4924445152282715e+00" cType="1" res="-1.3523852825164795e-01" rms="2.8801473975181580e-01" purity="2.0163364708423615e-01" nType="0">
          <Node pos="l" depth="2" NCoef="0" IVar="-1" Cut="0.0000000000000000e+00" cType="1" res="-2.7221010532230139e-03" rms="3.4138247370719910e-01" purity="3.1634303927421570e-01" nType="-99"/>
          <Node pos="r" depth="2" NCoef="0" IVar="-1" Cut="0.0000000000000000e+00" cType="1" res="-9.8901335150003433e-03" rms="1.9231645762920380e-01" purity="7.9426869750022888e-02" nType="-99"/>
        </Node>
        <Node pos="r" depth="1" NCoef="0" IVar="54" Cut="1.2544955015182495e+00" cType="1" res="7.8709162771701813e-02" rms="3.5292649269104004e-01" purity="6.3427156209945679e-01" nType="0">
          <Node pos="l" depth="2" NCoef="0" IVar="-1" Cut="0.0000000000000000e+00" cType="1" res="4.1030715219676495e-03" rms="3.3765438199043274e-01" purity="6.9434005022048950e-01" nType="-99"/>
          <Node pos="r" depth="2" NCoef="0" IVar="-1" Cut="0.0000000000000000e+00" cType="1" res="-8.7684141471982002e-03" rms="3.3600559830665588e-01" purity="1.8279933929443359e-01" nType="-99"/>
        </Node>
      </Node>
    </BinaryTree>
    <BinaryTree type="DecisionTree" boostWeight="1.0000000000000000e+00" itree="90">
      <Node pos="s" depth="0" NCoef="0" IVar="14" Cut="1.4483531713485718e+00" cType="1" res="1.3114076107740402e-02" rms="3.4908631443977356e-01" purity="4.9961194396018982e-01" nType="0">
        <Node pos="l" depth="1" NCoef="0" IVar="25" Cut="1.8003987073898315e+00" cType="1" res="-9.3384087085723877e-02" rms="2.9299515485763550e-01" purity="1.9782398641109467e-01" nType="0">
          <Node pos="l" depth="2" NCoef="0" IVar="-1" Cut="0.0000000000000000e+00" cType="1" res="-9.3698184937238693e-03" rms="1.3667999207973480e-01" purity="4.4269077479839325e-02" nType="-99"/>
          <Node pos="r" depth="2" NCoef="0" IVar="-1" Cut="0.0000000000000000e+00" cType="1" res="-1.2998755555599928e-03" rms="3.6599129438400269e-01" purity="3.2710805535316467e-01" nType="-99"/>
        </Node>
        <Node pos="r" depth="1" NCoef="0" IVar="36" Cut="1.4471486806869507e+00" cType="1" res="9.9222302436828613e-02" rms="3.6660057306289673e-01" purity="7.4362009763717651e-01" nType="0">
          <Node pos="l" depth="2" NCoef="0" IVar="-1" Cut="0.0000000000000000e+00" cType="1" res="4.3281139805912971e-03" rms="3.4676674008369446e-01" purity="7.8886425495147705e-01" nType="-99"/>
          <Node pos="r" depth="2" NCoef="0" IVar="-1" Cut="0.0000000000000000e+00" cType="1" res="-1.2405357323586941e-02" rms="3.4502723813056946e-01" purity="1.5274189412593842e-01" nType="-99"/>
        </Node>
      </Node>
    </BinaryTree>
    <BinaryTree type="DecisionTree" boostWeight="1.0000000000000000e+00" itree="91">
      <Node pos="s" depth="0" NCoef="0" IVar="14" Cut="1.4484179019927979e+00" cType="1" res="1.1229595169425011e-02" rms="3.4618437290191650e-01" purity="4.9840420484542847e-01" nType="0">
        <Node pos="l" depth="1" NCoef="0" IVar="14" Cut="-1.3462252616882324e+00" cType="1" res="-9.9819317460060120e-02" rms="2.8179141879081726e-01" purity="1.8847723305225372e-01" nType="0">
          <Node pos="l" depth="2" NCoef="0" IVar="-1" Cut="0.0000000000000000e+00" cType="1" res="-1.1153819970786572e-02" rms="0.0000000000000000e+00" purity="-9.0105738490819931e-03" nType="-99"/>
          <Node pos="r" depth="2" NCoef="0" IVar="-1" Cut="0.0000000000000000e+00" cType="1" res="-1.1997489491477609e-03" rms="4.0195190906524658e-01" purity="3.8250020146369934e-01" nType="-99"/>
        </Node>
        <Node pos="r" depth="1" NCoef="0" IVar="56" Cut="1.4463647603988647e+00" cType="1" res="9.9844537675380707e-02" rms="3.6663135886192322e-01" purity="7.4572014808654785e-01" nType="0">
          <Node pos="l" depth="2" NCoef="0" IVar="-1" Cut="0.0000000000000000e+00" cType="1" res="4.3261311948299408e-03" rms="3.4867396950721741e-01" purity="7.9030108451843262e-01" nType="-99"/>
          <Node pos="r" depth="2" NCoef="0" IVar="-1" Cut="0.0000000000000000e+00" cType="1" res="-1.2425100430846214e-02" rms="3.3394736051559448e-01" purity="1.4015129208564758e-01" nType="-99"/>
        </Node>
      </Node>
    </BinaryTree>
    <BinaryTree type="DecisionTree" boostWeight="1.0000000000000000e+00" itree="92">
      <Node pos="s" depth="0" NCoef="0" IVar="1" Cut="2.4137454032897949e+00" cType="1" res="1.3474482111632824e-02" rms="3.4609574079513550e-01" purity="5.0100147724151611e-01" nType="0">
        <Node pos="l" depth="1" NCoef="0" IVar="32" Cut="-1.5312232971191406e+00" cType="1" res="-1.5915721654891968e-01" rms="2.2041907906532288e-01" purity="8.8695615530014038e-02" nType="0">
          <Node pos="l" depth="2" NCoef="0" IVar="-1" Cut="0.0000000000000000e+00" cType="1" res="-2.5331354700028896e-03" rms="3.4060195088386536e-01" purity="2.2853825986385345e-01" nType="-99"/>
          <Node pos="r" depth="2" NCoef="0" IVar="-1" Cut="0.0000000000000000e+00" cType="1" res="-9.9102435633540154e-03" rms="1.4294777810573578e-01" purity="4.0011502802371979e-02" nType="-99"/>
        </Node>
        <Node pos="r" depth="1" NCoef="0" IVar="34" Cut="1.2539436817169189e+00" cType="1" res="6.7710287868976593e-02" rms="3.6034172773361206e-01" purity="6.3053584098815918e-01" nType="0">
          <Node pos="l" depth="2" NCoef="0" IVar="-1" Cut="0.0000000000000000e+00" cType="1" res="3.6110216751694679e-03" rms="3.4538230299949646e-01" purity="6.8323278427124023e-01" nType="-99"/>
          <Node pos="r" depth="2" NCoef="0" IVar="-1" Cut="0.0000000000000000e+00" cType="1" res="-8.6500206962227821e-03" rms="3.6010754108428955e-01" purity="2.0934702455997467e-01" nType="-99"/>
        </Node>
      </Node>
    </BinaryTree>
    <BinaryTree type="DecisionTree" boostWeight="1.0000000000000000e+00" itree="93">
      <Node pos="s" depth="0" NCoef="0" IVar="45" Cut="1.7245688438415527e+00" cType="1" res="1.0866004973649979e-02" rms="3.4573701024055481e-01" purity="4.9835872650146484e-01" nType="0">
        <Node pos="l" depth="1" NCoef="0" IVar="45" Cut="1.1787608861923218e+00" cType="1" res="-1.2971614301204681e-01" rms="2.8991666436195374e-01" purity="2.0365785062313080e-01" nType="0">
          <Node pos="l" depth="2" NCoef="0" IVar="-1" Cut="0.0000000000000000e+00" cType="1" res="-9.8455278202891350e-03" rms="2.0387491583824158e-01" purity="9.2893756926059723e-02" nType="-99"/>
          <Node pos="r" depth="2" NCoef="0" IVar="-1" Cut="0.0000000000000000e+00" cType="1" res="-2.7118138968944550e-03" rms="3.3310788869857788e-01" purity="2.9753765463829041e-01" nType="-99"/>
        </Node>
        <Node pos="r" depth="1" NCoef="0" IVar="54" Cut="1.3308039903640747e+00" cType="1" res="7.5550578534603119e-02" rms="3.5011804103851318e-01" purity="6.3395637273788452e-01" nType="0">
          <Node pos="l" depth="2" NCoef="0" IVar="-1" Cut="0.0000000000000000e+00" cType="1" res="3.9135608822107315e-03" rms="3.3731764554977417e-01" purity="6.8996250629425049e-01" nType="-99"/>
          <Node pos="r" depth="2" NCoef="0" IVar="-1" Cut="0.0000000000000000e+00" cType="1" res="-9.2042172327637672e-03" rms="3.2320109009742737e-01" purity="1.6798715293407440e-01" nType="-99"/>
        </Node>
      </Node>
    </BinaryTree>
    <BinaryTree type="DecisionTree" boostWeight="1.0000000000000000e+00" itree="94">
      <Node pos="s" depth="0" NCoef="0" IVar="14" Cut="5.5395957082509995e-02" cType="1" res="1.2894557788968086e-02" rms="3.4562119841575623e-01" purity="5.0102049112319946e-01" nType="0">
        <Node pos="l" depth="1" NCoef="0" IVar="3" Cut="5.1509141921997070e+00" cType="1" res="-1.3217389583587646e-01" rms="1.7797736823558807e-01" purity="5.6024674326181412e-02" nType="0">
          <Node pos="l" depth="2" NCoef="0" IVar="-1" Cut="0.0000000000000000e+00" cType="1" res="-9.5534287393093109e-03" rms="9.1714307665824890e-02" purity="2.1162807941436768e-02" nType="-99"/>
          <Node pos="r" depth="2" NCoef="0" IVar="-1" Cut="0.0000000000000000e+00" cType="1" res="-4.7868510591797531e-04" rms="3.6523553729057312e-01" purity="2.3511961102485657e-01" nType="-99"/>
        </Node>
        <Node pos="r" depth="1" NCoef="0" IVar="36" Cut="-9.5093584060668945e-01" cType="1" res="7.3979228734970093e-02" rms="3.7923917174339294e-01" purity="6.8839704990386963e-01" nType="0">
          <Node pos="l" depth="2" NCoef="0" IVar="-1" Cut="0.0000000000000000e+00" cType="1" res="4.1947057470679283e-03" rms="3.5240507125854492e-01" purity="7.6611608266830444e-01" nType="-99"/>
          <Node pos="r" depth="2" NCoef="0" IVar="-1" Cut="0.0000000000000000e+00" cType="1" res="-5.6495200842618942e-03" rms="4.0627339482307434e-01" purity="3.4946590662002563e-01" nType="-99"/>
        </Node>
      </Node>
    </BinaryTree>
    <BinaryTree type="DecisionTree" boostWeight="1.0000000000000000e+00" itree="95">
      <Node pos="s" depth="0" NCoef="0" IVar="1" Cut="3.0777130126953125e+00" cType="1" res="1.2606282718479633e-02" rms="3.4259217977523804e-01" purity="5.0058549642562866e-01" nType="0">
        <Node pos="l" depth="1" NCoef="0" IVar="36" Cut="-1.4924387931823730e+00" cType="1" res="-7.5432904064655304e-02" rms="3.2762518525123596e-01" purity="2.7564546465873718e-01" nType="0">
          <Node pos="l" depth="2" NCoef="0" IVar="-1" Cut="0.0000000000000000e+00" cType="1" res="-1.1421168892411515e-05" rms="3.5802325606346130e-01" purity="4.0017145872116089e-01" nType="-99"/>
          <Node pos="r" depth="2" NCoef="0" IVar="-1" Cut="0.0000000000000000e+00" cType="1" res="-7.4626035057008266e-03" rms="2.6664590835571289e-01" purity="1.3780331611633301e-01" nType="-99"/>
        </Node>
        <Node pos="r" depth="1" NCoef="0" IVar="34" Cut="1.3313064575195312e+00" cType="1" res="1.1347485333681107e-01" rms="3.3137211203575134e-01" purity="7.5830453634262085e-01" nType="0">
          <Node pos="l" depth="2" NCoef="0" IVar="-1" Cut="0.0000000000000000e+00" cType="1" res="4.9376105889678001e-03" rms="3.0959838628768921e-01" purity="7.9927253723144531e-01" nType="-99"/>
          <Node pos="r" depth="2" NCoef="0" IVar="-1" Cut="0.0000000000000000e+00" cType="1" res="-8.3824293687939644e-03" rms="4.0180522203445435e-01" purity="2.7096834778785706e-01" nType="-99"/>
        </Node>
      </Node>
    </BinaryTree>
    <BinaryTree type="DecisionTree" boostWeight="1.0000000000000000e+00" itree="96">
      <Node pos="s" depth="0" NCoef="0" IVar="14" Cut="1.4484179019927979e+00" cType="1" res="1.7035689204931259e-02" rms="3.4229698777198792e-01" purity="5.0463396310806274e-01" nType="0">
        <Node pos="l" depth="1" NCoef="0" IVar="2" Cut="2.0820488929748535e+00" cType="1" res="-8.7630890309810638e-02" rms="2.8707608580589294e-01" purity="1.9817724823951721e-01" nType="0">
          <Node pos="l" depth="2" NCoef="0" IVar="-1" Cut="0.0000000000000000e+00" cType="1" res="-8.0715836957097054e-03" rms="1.8473392724990845e-01" purity="7.1602523326873779e-02" nType="-99"/>
          <Node pos="r" depth="2" NCoef="0" IVar="-1" Cut="0.0000000000000000e+00" cType="1" res="-5.0834269495680928e-04" rms="3.6115494370460510e-01" purity="3.5147213935852051e-01" nType="-99"/>
        </Node>
        <Node pos="r" depth="1" NCoef="0" IVar="36" Cut="1.4084697961807251e+00" cType="1" res="1.0087679326534271e-01" rms="3.5944676399230957e-01" purity="7.5011509656906128e-01" nType="0">
          <Node pos="l" depth="2" NCoef="0" IVar="-1" Cut="0.0000000000000000e+00" cType="1" res="4.4421008788049221e-03" rms="3.3860445022583008e-01" purity="7.9810500144958496e-01" nType="-99"/>
          <Node pos="r" depth="2" NCoef="0" IVar="-1" Cut="0.0000000000000000e+00" cType="1" res="-1.0531691834330559e-02" rms="3.7146937847137451e-01" purity="1.9089545309543610e-01" nType="-99"/>
        </Node>
      </Node>
    </BinaryTree>
    <BinaryTree type="DecisionTree" boostWeight="1.0000000000000000e+00" itree="97">
      <Node pos="s" depth="0" NCoef="0" IVar="1" Cut="3.1620972156524658e+00" cType="1" res="1.2032158672809601e-02" rms="3.4124198555946350e-01" purity="5.0014734268188477e-01" nType="0">
        <Node pos="l" depth="1" NCoef="0" IVar="36" Cut="-1.4924511909484863e+00" cType="1" res="-6.8254671990871429e-02" rms="3.3111014962196350e-01" purity="2.9650101065635681e-01" nType="0">
          <Node pos="l" depth="2" NCoef="0" IVar="-1" Cut="0.0000000000000000e+00" cType="1" res="2.4023042351473123e-04" rms="3.5947424173355103e-01" purity="4.2371073365211487e-01" nType="-99"/>
          <Node pos="r" depth="2" NCoef="0" IVar="-1" Cut="0.0000000000000000e+00" cType="1" res="-7.1238656528294086e-03" rms="2.7224981784820557e-01" purity="1.5266028046607971e-01" nType="-99"/>
        </Node>
        <Node pos="r" depth="1" NCoef="0" IVar="14" Cut="-1.4150485992431641e+00" cType="1" res="1.1975103616714478e-01" rms="3.2455202937126160e-01" purity="7.7337455749511719e-01" nType="0">
          <Node pos="l" depth="2" NCoef="0" IVar="-1" Cut="0.0000000000000000e+00" cType="1" res="-8.1414654850959778e-03" rms="2.3921583592891693e-01" purity="6.4038336277008057e-02" nType="-99"/>
          <Node pos="r" depth="2" NCoef="0" IVar="-1" Cut="0.0000000000000000e+00" cType="1" res="5.1176594570279121e-03" rms="3.1824260950088501e-01" purity="8.4672003984451294e-01" nType="-99"/>
        </Node>
      </Node>
    </BinaryTree>
    <BinaryTree type="DecisionTree" boostWeight="1.0000000000000000e+00" itree="98">
      <Node pos="s" depth="0" NCoef="0" IVar="14" Cut="5.5395957082509995e-02" cType="1" res="1.4239178039133549e-02" rms="3.4158942103385925e-01" purity="5.0213342905044556e-01" nType="0">
        <Node pos="l" depth="1" NCoef="0" IVar="14" Cut="-1.4093084335327148e+00" cType="1" res="-1.2776559591293335e-01" rms="1.7511285841464996e-01" purity="5.5656578391790390e-02" nType="0">
          <Node pos="l" depth="2" NCoef="0" IVar="-1" Cut="0.0000000000000000e+00" cType="1" res="-1.1053739115595818e-02" rms="0.0000000000000000e+00" purity="-8.5594188421964645e-03" nType="-99"/>
          <Node pos="r" depth="2" NCoef="0" IVar="-1" Cut="0.0000000000000000e+00" cType="1" res="-2.6927026920020580e-03" rms="3.4698513150215149e-01" purity="2.0179395377635956e-01" nType="-99"/>
        </Node>
        <Node pos="r" depth="1" NCoef="0" IVar="56" Cut="1.4076961278915405e+00" cType="1" res="7.4099086225032806e-02" rms="3.7531271576881409e-01" purity="6.9033885002136230e-01" nType="0">
          <Node pos="l" depth="2" NCoef="0" IVar="-1" Cut="0.0000000000000000e+00" cType="1" res="3.5593505017459393e-03" rms="3.6217740178108215e-01" purity="7.3726755380630493e-01" nType="-99"/>
          <Node pos="r" depth="2" NCoef="0" IVar="-1" Cut="0.0000000000000000e+00" cType="1" res="-1.1063220910727978e-02" rms="3.3067622780799866e-01" purity="1.5663985908031464e-01" nType="-99"/>
        </Node>
      </Node>
    </BinaryTree>
    <BinaryTree type="DecisionTree" boostWeight="1.0000000000000000e+00" itree="99">
      <Node pos="s" depth="0" NCoef="0" IVar="45" Cut="1.7093154191970825e+00" cType="1" res="1.3800167478621006e-02" rms="3.4064692258834839e-01" purity="5.0272250175476074e-01" nType="0">
        <Node pos="l" depth="1" NCoef="0" IVar="52" Cut="-1.5312243700027466e+00" cType="1" res="-1.2333791702985764e-01" rms="2.8842806816101074e-01" purity="2.0258122682571411e-01" nType="0">
          <Node pos="l" depth="2" NCoef="0" IVar="-1" Cut="0.0000000000000000e+00" cType="1" res="-1.2909693759866059e-04" rms="3.5940742492675781e-01" purity="3.9590474963188171e-01" nType="-99"/>
          <Node pos="r" depth="2" NCoef="0" IVar="-1" Cut="0.0000000000000000e+00" cType="1" res="-7.7149220742285252e-03" rms="2.4917002022266388e-01" purity="1.3988204300403595e-01" nType="-99"/>
        </Node>
        <Node pos="r" depth="1" NCoef="0" IVar="56" Cut="1.4080727100372314e+00" cType="1" res="7.4811443686485291e-02" rms="3.4433329105377197e-01" purity="6.3625222444534302e-01" nType="0">
          <Node pos="l" depth="2" NCoef="0" IVar="-1" Cut="0.0000000000000000e+00" cType="1" res="3.8312156684696674e-03" rms="3.3288350701332092e-01" purity="6.8557822704315186e-01" nType="-99"/>
          <Node pos="r" depth="2" NCoef="0" IVar="-1" Cut="0.0000000000000000e+00" cType="1" res="-1.0584902949631214e-02" rms="2.9736009240150452e-01" purity="1.2801006436347961e-01" nType="-99"/>
        </Node>
      </Node>
    </BinaryTree>
    <BinaryTree type="DecisionTree" boostWeight="1.0000000000000000e+00" itree="100">
      <Node pos="s" depth="0" NCoef="0" IVar="1" Cut="2.4152889251708984e+00" cType="1" res="1.3715046457946301e-02" rms="3.3919021487236023e-01" purity="5.0211900472640991e-01" nType="0">
        <Node pos="l" depth="1" NCoef="0" IVar="1" Cut="2.0223355293273926e+00" cType="1" res="-1.5273189544677734e-01" rms="2.1001772582530975e-01" purity="8.4660589694976807e-02" nType="0">
          <Node pos="l" depth="2" NCoef="0" IVar="-1" Cut="0.0000000000000000e+00" cType="1" res="-1.1779516004025936e-02" rms="0.0000000000000000e+00" purity="4.4308751239441335e-04" nType="-99"/>
          <Node pos="r" depth="2" NCoef="0" IVar="-1" Cut="0.0000000000000000e+00" cType="1" res="-4.9108369275927544e-03" rms="2.8800967335700989e-01" purity="1.5366163849830627e-01" nType="-99"/>
        </Node>
        <Node pos="r" depth="1" NCoef="0" IVar="34" Cut="1.0986384153366089e+00" cType="1" res="6.5435238182544708e-02" rms="3.5469761490821838e-01" purity="6.3183617591857910e-01" nType="0">
          <Node pos="l" depth="2" NCoef="0" IVar="-1" Cut="0.0000000000000000e+00" cType="1" res="3.6209176760166883e-03" rms="3.3922103047370911e-01" purity="6.8870133161544800e-01" nType="-99"/>
          <Node pos="r" depth="2" NCoef="0" IVar="-1" Cut="0.0000000000000000e+00" cType="1" res="-7.5813834555447102e-03" rms="3.6287951469421387e-01" purity="2.3211950063705444e-01" nType="-99"/>
        </Node>
      </Node>
    </BinaryTree>
    <BinaryTree type="DecisionTree" boostWeight="1.0000000000000000e+00" itree="101">
      <Node pos="s" depth="0" NCoef="0" IVar="45" Cut="1.7056963443756104e+00" cType="1" res="1.2219021096825600e-02" rms="3.3931136131286621e-01" purity="4.9868416786193848e-01" nType="0">
        <Node pos="l" depth="1" NCoef="0" IVar="52" Cut="-1.5312244892120361e+00" cType="1" res="-1.2160542607307434e-01" rms="2.8418132662773132e-01" purity="1.9949038326740265e-01" nType="0">
          <Node pos="l" depth="2" NCoef="0" IVar="-1" Cut="0.0000000000000000e+00" cType="1" res="-4.1390958358533680e-06" rms="3.5795873403549194e-01" purity="3.9902868866920471e-01" nType="-99"/>
          <Node pos="r" depth="2" NCoef="0" IVar="-1" Cut="0.0000000000000000e+00" cType="1" res="-7.7673564665019512e-03" rms="2.4359340965747833e-01" purity="1.3556700944900513e-01" nType="-99"/>
        </Node>
        <Node pos="r" depth="1" NCoef="0" IVar="54" Cut="1.3308323621749878e+00" cType="1" res="7.1501851081848145e-02" rms="3.4483504295349121e-01" purity="6.3122397661209106e-01" nType="0">
          <Node pos="l" depth="2" NCoef="0" IVar="-1" Cut="0.0000000000000000e+00" cType="1" res="3.8283418398350477e-03" rms="3.3167961239814758e-01" purity="6.8774718046188354e-01" nType="-99"/>
          <Node pos="r" depth="2" NCoef="0" IVar="-1" Cut="0.0000000000000000e+00" cType="1" res="-9.2265503481030464e-03" rms="3.2413822412490845e-01" purity="1.6429683566093445e-01" nType="-99"/>
        </Node>
      </Node>
    </BinaryTree>
    <BinaryTree type="DecisionTree" boostWeight="1.0000000000000000e+00" itree="102">
      <Node pos="s" depth="0" NCoef="0" IVar="14" Cut="1.6666870564222336e-02" cType="1" res="1.1973965913057327e-02" rms="3.3747431635856628e-01" purity="5.0025254487991333e-01" nType="0">
        <Node pos="l" depth="1" NCoef="0" IVar="3" Cut="5.0041117668151855e+00" cType="1" res="-1.2730039656162262e-01" rms="1.6440716385841370e-01" purity="5.1516529172658920e-02" nType="0">
          <Node pos="l" depth="2" NCoef="0" IVar="-1" Cut="0.0000000000000000e+00" cType="1" res="-1.0079542174935341e-02" rms="3.7014735862612724e-03" purity="1.0550593957304955e-02" nType="-99"/>
          <Node pos="r" depth="2" NCoef="0" IVar="-1" Cut="0.0000000000000000e+00" cType="1" res="-2.7133037801831961e-03" rms="3.0359572172164917e-01" purity="1.6217294335365295e-01" nType="-99"/>
        </Node>
        <Node pos="r" depth="1" NCoef="0" IVar="54" Cut="9.8273193836212158e-01" cType="1" res="7.0033095777034760e-02" rms="3.7234497070312500e-01" purity="6.8731653690338135e-01" nType="0">
          <Node pos="l" depth="2" NCoef="0" IVar="-1" Cut="0.0000000000000000e+00" cType="1" res="3.7792206276208162e-03" rms="3.5292854905128479e-01" purity="7.5229126214981079e-01" nType="-99"/>
          <Node pos="r" depth="2" NCoef="0" IVar="-1" Cut="0.0000000000000000e+00" cType="1" res="-7.7423462644219398e-03" rms="3.8061007857322693e-01" purity="2.5417158007621765e-01" nType="-99"/>
        </Node>
      </Node>
    </BinaryTree>
    <BinaryTree type="DecisionTree" boostWeight="1.0000000000000000e+00" itree="103">
      <Node pos="s" depth="0" NCoef="0" IVar="45" Cut="1.7245688438415527e+00" cType="1" res="1.3225177302956581e-02" rms="3.3848083019256592e-01" purity="4.9966078996658325e-01" nType="0">
        <Node pos="l" depth="1" NCoef="0" IVar="52" Cut="-1.5312165021896362e+00" cType="1" res="-1.1620528250932693e-01" rms="2.8635337948799133e-01" purity="2.0451594889163971e-01" nType="0">
          <Node pos="l" depth="2" NCoef="0" IVar="-1" Cut="0.0000000000000000e+00" cType="1" res="2.2209231246961281e-05" rms="3.5510107874870300e-01" purity="4.0234264731407166e-01" nType="-99"/>
          <Node pos="r" depth="2" NCoef="0" IVar="-1" Cut="0.0000000000000000e+00" cType="1" res="-7.4091274291276932e-03" rms="2.5022545456886292e-01" purity="1.4265909790992737e-01" nType="-99"/>
        </Node>
        <Node pos="r" depth="1" NCoef="0" IVar="54" Cut="1.3705623149871826e+00" cType="1" res="7.3104076087474823e-02" rms="3.4395071864128113e-01" purity="6.3620477914810181e-01" nType="0">
          <Node pos="l" depth="2" NCoef="0" IVar="-1" Cut="0.0000000000000000e+00" cType="1" res="3.8026671390980482e-03" rms="3.3285546302795410e-01" purity="6.8996435403823853e-01" nType="-99"/>
          <Node pos="r" depth="2" NCoef="0" IVar="-1" Cut="0.0000000000000000e+00" cType="1" res="-9.4587234780192375e-03" rms="3.1478518247604370e-01" purity="1.4796480536460876e-01" nType="-99"/>
        </Node>
      </Node>
    </BinaryTree>
    <BinaryTree type="DecisionTree" boostWeight="1.0000000000000000e+00" itree="104">
      <Node pos="s" depth="0" NCoef="0" IVar="56" Cut="-1.4537754058837891e+00" cType="1" res="1.3922786340117455e-02" rms="3.3712729811668396e-01" purity="5.0101327896118164e-01" nType="0">
        <Node pos="l" depth="1" NCoef="0" IVar="14" Cut="-1.3763210773468018e+00" cType="1" res="7.7186599373817444e-02" rms="3.2953888177871704e-01" purity="6.1699891090393066e-01" nType="0">
          <Node pos="l" depth="2" NCoef="0" IVar="-1" Cut="0.0000000000000000e+00" cType="1" res="-9.9929552525281906e-03" rms="5.0230354070663452e-02" purity="7.5973975472152233e-03" nType="-99"/>
          <Node pos="r" depth="2" NCoef="0" IVar="-1" Cut="0.0000000000000000e+00" cType="1" res="4.3497793376445770e-03" rms="3.4459254145622253e-01" purity="7.5324964523315430e-01" nType="-99"/>
        </Node>
        <Node pos="r" depth="1" NCoef="0" IVar="56" Cut="1.4882850646972656e+00" cType="1" res="-1.0968330502510071e-01" rms="3.1692400574684143e-01" purity="2.7439841628074646e-01" nType="0">
          <Node pos="l" depth="2" NCoef="0" IVar="-1" Cut="0.0000000000000000e+00" cType="1" res="-3.0810823664069176e-03" rms="3.2687899470329285e-01" purity="3.3112865686416626e-01" nType="-99"/>
          <Node pos="r" depth="2" NCoef="0" IVar="-1" Cut="0.0000000000000000e+00" cType="1" res="-1.3031796552240849e-02" rms="2.1220575273036957e-01" purity="4.5957840979099274e-02" nType="-99"/>
        </Node>
      </Node>
    </BinaryTree>
    <BinaryTree type="DecisionTree" boostWeight="1.0000000000000000e+00" itree="105">
      <Node pos="s" depth="0" NCoef="0" IVar="1" Cut="3.2906613349914551e+00" cType="1" res="1.3299633748829365e-02" rms="3.3672630786895752e-01" purity="4.9956122040748596e-01" nType="0">
        <Node pos="l" depth="1" NCoef="0" IVar="36" Cut="-1.4924436807632446e+00" cType="1" res="-5.1592543721199036e-02" rms="3.3310967683792114e-01" purity="3.3242940902709961e-01" nType="0">
          <Node pos="l" depth="2" NCoef="0" IVar="-1" Cut="0.0000000000000000e+00" cType="1" res="7.3227623943239450e-04" rms="3.5067924857139587e-01" purity="4.5957508683204651e-01" nType="-99"/>
          <Node pos="r" depth="2" NCoef="0" IVar="-1" Cut="0.0000000000000000e+00" cType="1" res="-6.3216020353138447e-03" rms="2.9005849361419678e-01" purity="1.8274375796318054e-01" nType="-99"/>
        </Node>
        <Node pos="r" depth="1" NCoef="0" IVar="36" Cut="1.4077624082565308e+00" cType="1" res="1.2853696942329407e-01" rms="3.1133422255516052e-01" purity="7.9635858535766602e-01" nType="0">
          <Node pos="l" depth="2" NCoef="0" IVar="-1" Cut="0.0000000000000000e+00" cType="1" res="5.3887986578047276e-03" rms="2.8998592495918274e-01" purity="8.2871532440185547e-01" nType="-99"/>
          <Node pos="r" depth="2" NCoef="0" IVar="-1" Cut="0.0000000000000000e+00" cType="1" res="-8.5334423929452896e-03" rms="4.2030465602874756e-01" purity="2.6905030012130737e-01" nType="-99"/>
        </Node>
      </Node>
    </BinaryTree>
    <BinaryTree type="DecisionTree" boostWeight="1.0000000000000000e+00" itree="106">
      <Node pos="s" depth="0" NCoef="0" IVar="34" Cut="-7.1860915422439575e-01" cType="1" res="1.1029556393623352e-02" rms="3.3555829524993896e-01" purity="4.9902504682540894e-01" nType="0">
        <Node pos="l" depth="1" NCoef="0" IVar="54" Cut="-9.5077347755432129e-01" cType="1" res="6.0885209590196609e-02" rms="3.2906383275985718e-01" purity="5.8787912130355835e-01" nType="0">
          <Node pos="l" depth="2" NCoef="0" IVar="-1" Cut="0.0000000000000000e+00" cType="1" res="4.3510901741683483e-03" rms="3.0511620640754700e-01" purity="6.8715232610702515e-01" nType="-99"/>
          <Node pos="r" depth="2" NCoef="0" IVar="-1" Cut="0.0000000000000000e+00" cType="1" res="-4.9976999871432781e-03" rms="3.3807027339935303e-01" purity="2.7962893247604370e-01" nType="-99"/>
        </Node>
        <Node pos="r" depth="1" NCoef="0" IVar="36" Cut="1.4858170747756958e+00" cType="1" res="-1.4276006817817688e-01" rms="3.0756375193595886e-01" purity="2.2493697702884674e-01" nType="0">
          <Node pos="l" depth="2" NCoef="0" IVar="-1" Cut="0.0000000000000000e+00" cType="1" res="-4.4036228209733963e-03" rms="3.2281529903411865e-01" purity="2.8590458631515503e-01" nType="-99"/>
          <Node pos="r" depth="2" NCoef="0" IVar="-1" Cut="0.0000000000000000e+00" cType="1" res="-1.3253740966320038e-02" rms="2.1018412709236145e-01" purity="4.5875836163759232e-02" nType="-99"/>
        </Node>
      </Node>
    </BinaryTree>
    <BinaryTree type="DecisionTree" boostWeight="1.0000000000000000e+00" itree="107">
      <Node pos="s" depth="0" NCoef="0" IVar="14" Cut="1.4484179019927979e+00" cType="1" res="1.3318118639290333e-02" rms="3.3344313502311707e-01" purity="5.0146555900573730e-01" nType="0">
        <Node pos="l" depth="1" NCoef="0" IVar="2" Cut="2.0493214130401611e+00" cType="1" res="-8.4757916629314423e-02" rms="2.7897089719772339e-01" purity="1.9492377340793610e-01" nType="0">
          <Node pos="l" depth="2" NCoef="0" IVar="-1" Cut="0.0000000000000000e+00" cType="1" res="-8.2772001624107361e-03" rms="1.5541361272335052e-01" purity="6.3911125063896179e-02" nType="-99"/>
          <Node pos="r" depth="2" NCoef="0" IVar="-1" Cut="0.0000000000000000e+00" cType="1" res="-6.9514464121311903e-04" rms="3.5764843225479126e-01" purity="3.3936271071434021e-01" nType="-99"/>
        </Node>
        <Node pos="r" depth="1" NCoef="0" IVar="34" Cut="-8.3504670858383179e-01" cType="1" res="9.1850295662879944e-02" rms="3.5217443108558655e-01" purity="7.4692207574844360e-01" nType="0">
          <Node pos="l" depth="2" NCoef="0" IVar="-1" Cut="0.0000000000000000e+00" cType="1" res="4.9522896297276020e-03" rms="3.1132182478904724e-01" purity="8.2769906520843506e-01" nType="-99"/>
          <Node pos="r" depth="2" NCoef="0" IVar="-1" Cut="0.0000000000000000e+00" cType="1" res="-4.6591460704803467e-03" rms="4.1880252957344055e-01" purity="4.1365018486976624e-01" nType="-99"/>
        </Node>
      </Node>
    </BinaryTree>
    <BinaryTree type="DecisionTree" boostWeight="1.0000000000000000e+00" itree="108">
      <Node pos="s" depth="0" NCoef="0" IVar="25" Cut="1.5598558187484741e+00" cType="1" res="1.2190829031169415e-02" rms="3.3426672220230103e-01" purity="4.9938482046127319e-01" nType="0">
        <Node pos="l" depth="1" NCoef="0" IVar="25" Cut="9.8954176902770996e-01" cType="1" res="-1.3471300899982452e-01" rms="2.6936230063438416e-01" purity="1.7874881625175476e-01" nType="0">
          <Node pos="l" depth="2" NCoef="0" IVar="-1" Cut="0.0000000000000000e+00" cType="1" res="-1.0783739387989044e-02" rms="1.8111544847488403e-01" purity="6.7087285220623016e-02" nType="-99"/>
          <Node pos="r" depth="2" NCoef="0" IVar="-1" Cut="0.0000000000000000e+00" cType="1" res="-3.7642107345163822e-03" rms="3.0709445476531982e-01" purity="2.5745770335197449e-01" nType="-99"/>
        </Node>
        <Node pos="r" depth="1" NCoef="0" IVar="36" Cut="1.4081915616989136e+00" cType="1" res="6.2488619238138199e-02" rms="3.3945468068122864e-01" purity="6.0916602611541748e-01" nType="0">
          <Node pos="l" depth="2" NCoef="0" IVar="-1" Cut="0.0000000000000000e+00" cType="1" res="3.4703779965639114e-03" rms="3.2923489809036255e-01" purity="6.5886551141738892e-01" nType="-99"/>
          <Node pos="r" depth="2" NCoef="0" IVar="-1" Cut="0.0000000000000000e+00" cType="1" res="-1.0787984356284142e-02" rms="2.8852453827857971e-01" purity="1.1628088355064392e-01" nType="-99"/>
        </Node>
      </Node>
    </BinaryTree>
    <BinaryTree type="DecisionTree" boostWeight="1.0000000000000000e+00" itree="109">
      <Node pos="s" depth="0" NCoef="0" IVar="14" Cut="1.4484179019927979e+00" cType="1" res="1.1474690400063992e-02" rms="3.3329653739929199e-01" purity="4.9887332320213318e-01" nType="0">
        <Node pos="l" depth="1" NCoef="0" IVar="25" Cut="2.1344408988952637e+00" cType="1" res="-8.4262937307357788e-02" rms="2.7883592247962952e-01" purity="1.9325713813304901e-01" nType="0">
          <Node pos="l" depth="2" NCoef="0" IVar="-1" Cut="0.0000000000000000e+00" cType="1" res="-7.8009204007685184e-03" rms="1.7896050214767456e-01" purity="7.0989526808261871e-02" nType="-99"/>
          <Node pos="r" depth="2" NCoef="0" IVar="-1" Cut="0.0000000000000000e+00" cType="1" res="-4.6501634642481804e-04" rms="3.7390378117561340e-01" purity="3.8256147503852844e-01" nType="-99"/>
        </Node>
        <Node pos="r" depth="1" NCoef="0" IVar="36" Cut="1.4858274459838867e+00" cType="1" res="8.8993057608604431e-02" rms="3.5305657982826233e-01" purity="7.4632954597473145e-01" nType="0">
          <Node pos="l" depth="2" NCoef="0" IVar="-1" Cut="0.0000000000000000e+00" cType="1" res="3.9618792943656445e-03" rms="3.3775085210800171e-01" purity="7.8609651327133179e-01" nType="-99"/>
          <Node pos="r" depth="2" NCoef="0" IVar="-1" Cut="0.0000000000000000e+00" cType="1" res="-1.3026222586631775e-02" rms="3.2139217853546143e-01" purity="1.1159834265708923e-01" nType="-99"/>
        </Node>
      </Node>
    </BinaryTree>
    <BinaryTree type="DecisionTree" boostWeight="1.0000000000000000e+00" itree="110">
      <Node pos="s" depth="0" NCoef="0" IVar="36" Cut="-1.4924511909484863e+00" cType="1" res="1.2620308436453342e-02" rms="3.3350494503974915e-01" purity="5.0047260522842407e-01" nType="0">
        <Node pos="l" depth="1" NCoef="0" IVar="14" Cut="-1.1828458309173584e+00" cType="1" res="8.2699969410896301e-02" rms="3.2188364863395691e-01" purity="6.3431411981582642e-01" nType="0">
          <Node pos="l" depth="2" NCoef="0" IVar="-1" Cut="0.0000000000000000e+00" cType="1" res="-8.1024514511227608e-03" rms="1.5839061141014099e-01" purity="3.7632022053003311e-02" nType="-99"/>
          <Node pos="r" depth="2" NCoef="0" IVar="-1" Cut="0.0000000000000000e+00" cType="1" res="4.5858784578740597e-03" rms="3.3161598443984985e-01" purity="7.8144448995590210e-01" nType="-99"/>
        </Node>
        <Node pos="r" depth="1" NCoef="0" IVar="36" Cut="1.4872460365295410e+00" cType="1" res="-9.0887211263179779e-02" rms="3.2327616214752197e-01" purity="3.0278900265693665e-01" nType="0">
          <Node pos="l" depth="2" NCoef="0" IVar="-1" Cut="0.0000000000000000e+00" cType="1" res="-2.5711115449666977e-03" rms="3.2806605100631714e-01" purity="3.5177043080329895e-01" nType="-99"/>
          <Node pos="r" depth="2" NCoef="0" IVar="-1" Cut="0.0000000000000000e+00" cType="1" res="-1.2325094081461430e-02" rms="2.4445033073425293e-01" purity="6.1365418136119843e-02" nType="-99"/>
        </Node>
      </Node>
    </BinaryTree>
    <BinaryTree type="DecisionTree" boostWeight="1.0000000000000000e+00" itree="111">
      <Node pos="s" depth="0" NCoef="0" IVar="2" Cut="1.8835328817367554e+00" cType="1" res="1.2466280721127987e-02" rms="3.3389446139335632e-01" purity="5.0071007013320923e-01" nType="0">
        <Node pos="l" depth="1" NCoef="0" IVar="2" Cut="7.2058981657028198e-01" cType="1" res="-1.1209794878959656e-01" rms="2.9358205199241638e-01" purity="2.1491560339927673e-01" nType="0">
          <Node pos="l" depth="2" NCoef="0" IVar="-1" Cut="0.0000000000000000e+00" cType="1" res="-1.2558657675981522e-02" rms="1.6335184872150421e-01" purity="-6.1721650126855820e-05" nType="-99"/>
          <Node pos="r" depth="2" NCoef="0" IVar="-1" Cut="0.0000000000000000e+00" cType="1" res="-3.7702294066548347e-03" rms="2.8968894481658936e-01" purity="2.3922291398048401e-01" nType="-99"/>
        </Node>
        <Node pos="r" depth="1" NCoef="0" IVar="56" Cut="1.4463146924972534e+00" cType="1" res="6.9574929773807526e-02" rms="3.3571922779083252e-01" purity="6.3173747062683105e-01" nType="0">
          <Node pos="l" depth="2" NCoef="0" IVar="-1" Cut="0.0000000000000000e+00" cType="1" res="3.6187849473208189e-03" rms="3.2492265105247498e-01" purity="6.7346853017807007e-01" nType="-99"/>
          <Node pos="r" depth="2" NCoef="0" IVar="-1" Cut="0.0000000000000000e+00" cType="1" res="-1.0291561484336853e-02" rms="3.2042765617370605e-01" purity="1.3227804005146027e-01" nType="-99"/>
        </Node>
      </Node>
    </BinaryTree>
    <BinaryTree type="DecisionTree" boostWeight="1.0000000000000000e+00" itree="112">
      <Node pos="s" depth="0" NCoef="0" IVar="34" Cut="-9.1221302747726440e-01" cType="1" res="1.0294930078089237e-02" rms="3.3215188980102539e-01" purity="4.9798142910003662e-01" nType="0">
        <Node pos="l" depth="1" NCoef="0" IVar="54" Cut="-6.0257309675216675e-01" cType="1" res="5.8763783425092697e-02" rms="3.2732343673706055e-01" purity="5.8982354402542114e-01" nType="0">
          <Node pos="l" depth="2" NCoef="0" IVar="-1" Cut="0.0000000000000000e+00" cType="1" res="4.1993632912635803e-03" rms="3.0476886034011841e-01" purity="6.8457561731338501e-01" nType="-99"/>
          <Node pos="r" depth="2" NCoef="0" IVar="-1" Cut="0.0000000000000000e+00" cType="1" res="-5.0895148888230324e-03" rms="3.3828195929527283e-01" purity="2.7607002854347229e-01" nType="-99"/>
        </Node>
        <Node pos="r" depth="1" NCoef="0" IVar="36" Cut="1.4857858419418335e+00" cType="1" res="-1.3264440000057220e-01" rms="3.0390098690986633e-01" purity="2.2713041305541992e-01" nType="0">
          <Node pos="l" depth="2" NCoef="0" IVar="-1" Cut="0.0000000000000000e+00" cType="1" res="-4.0768338367342949e-03" rms="3.2029125094413757e-01" purity="2.8952872753143311e-01" nType="-99"/>
          <Node pos="r" depth="2" NCoef="0" IVar="-1" Cut="0.0000000000000000e+00" cType="1" res="-1.2833323329687119e-02" rms="2.0518405735492706e-01" purity="4.1658889502286911e-02" nType="-99"/>
        </Node>
      </Node>
    </BinaryTree>
    <BinaryTree type="DecisionTree" boostWeight="1.0000000000000000e+00" itree="113">
      <Node pos="s" depth="0" NCoef="0" IVar="45" Cut="1.8283511400222778e+00" cType="1" res="1.1139495298266411e-02" rms="3.3100590109825134e-01" purity="4.9735233187675476e-01" nType="0">
        <Node pos="l" depth="1" NCoef="0" IVar="36" Cut="-1.5311237573623657e+00" cType="1" res="-1.0237304866313934e-01" rms="2.8944039344787598e-01" purity="2.1912358701229095e-01" nType="0">
          <Node pos="l" depth="2" NCoef="0" IVar="-1" Cut="0.0000000000000000e+00" cType="1" res="-5.0072232261300087e-04" rms="3.4878975152969360e-01" purity="3.9836743474006653e-01" nType="-99"/>
          <Node pos="r" depth="2" NCoef="0" IVar="-1" Cut="0.0000000000000000e+00" cType="1" res="-7.2820200584828854e-03" rms="2.4516600370407104e-01" purity="1.3398376107215881e-01" nType="-99"/>
        </Node>
        <Node pos="r" depth="1" NCoef="0" IVar="56" Cut="1.4467463493347168e+00" cType="1" res="7.3510780930519104e-02" rms="3.3580508828163147e-01" purity="6.5022951364517212e-01" nType="0">
          <Node pos="l" depth="2" NCoef="0" IVar="-1" Cut="0.0000000000000000e+00" cType="1" res="3.7281913682818413e-03" rms="3.2536020874977112e-01" purity="6.9545876979827881e-01" nType="-99"/>
          <Node pos="r" depth="2" NCoef="0" IVar="-1" Cut="0.0000000000000000e+00" cType="1" res="-1.0932767763733864e-02" rms="2.9712837934494019e-01" purity="1.1228747665882111e-01" nType="-99"/>
        </Node>
      </Node>
    </BinaryTree>
    <BinaryTree type="DecisionTree" boostWeight="1.0000000000000000e+00" itree="114">
      <Node pos="s" depth="0" NCoef="0" IVar="14" Cut="-1.0280655622482300e+00" cType="1" res="1.3850160874426365e-02" rms="3.3085346221923828e-01" purity="5.0307244062423706e-01" nType="0">
        <Node pos="l" depth="1" NCoef="0" IVar="2" Cut="2.1544005870819092e+00" cType="1" res="-1.2994067370891571e-01" rms="8.6810171604156494e-02" purity="2.0313717424869537e-02" nType="0">
          <Node pos="l" depth="2" NCoef="0" IVar="-1" Cut="0.0000000000000000e+00" cType="1" res="-1.2653106823563576e-02" rms="0.0000000000000000e+00" purity="-3.1779386103153229e-02" nType="-99"/>
          <Node pos="r" depth="2" NCoef="0" IVar="-1" Cut="0.0000000000000000e+00" cType="1" res="-4.9331407062709332e-03" rms="2.7683788537979126e-01" purity="1.0829410701990128e-01" nType="-99"/>
        </Node>
        <Node pos="r" depth="1" NCoef="0" IVar="36" Cut="1.2535741329193115e+00" cType="1" res="6.2050320208072662e-02" rms="3.6657512187957764e-01" purity="6.6489803791046143e-01" nType="0">
          <Node pos="l" depth="2" NCoef="0" IVar="-1" Cut="0.0000000000000000e+00" cType="1" res="3.3153572585433722e-03" rms="3.5444617271423340e-01" purity="7.1981292963027954e-01" nType="-99"/>
          <Node pos="r" depth="2" NCoef="0" IVar="-1" Cut="0.0000000000000000e+00" cType="1" res="-8.3844158798456192e-03" rms="3.5244229435920715e-01" purity="1.9993913173675537e-01" nType="-99"/>
        </Node>
      </Node>
    </BinaryTree>
    <BinaryTree type="DecisionTree" boostWeight="1.0000000000000000e+00" itree="115">
      <Node pos="s" depth="0" NCoef="0" IVar="25" Cut="1.6191549301147461e+00" cType="1" res="1.1044843122363091e-02" rms="3.2991290092468262e-01" purity="4.9852970242500305e-01" nType="0">
        <Node pos="l" depth="1" NCoef="0" IVar="25" Cut="1.0920503139495850e+00" cType="1" res="-1.2344599515199661e-01" rms="2.7268329262733459e-01" purity="1.8638332188129425e-01" nType="0">
          <Node pos="l" depth="2" NCoef="0" IVar="-1" Cut="0.0000000000000000e+00" cType="1" res="-9.8751774057745934e-03" rms="2.0752596855163574e-01" purity="8.5726186633110046e-02" nType="-99"/>
          <Node pos="r" depth="2" NCoef="0" IVar="-1" Cut="0.0000000000000000e+00" cType="1" res="-3.1501529738306999e-03" rms="3.0818024277687073e-01" purity="2.7285501360893250e-01" nType="-99"/>
        </Node>
        <Node pos="r" depth="1" NCoef="0" IVar="34" Cut="1.2159070968627930e+00" cType="1" res="6.2675788998603821e-02" rms="3.3536872267723083e-01" purity="6.1836254596710205e-01" nType="0">
          <Node pos="l" depth="2" NCoef="0" IVar="-1" Cut="0.0000000000000000e+00" cType="1" res="3.6199030000716448e-03" rms="3.2418644428253174e-01" purity="6.7903017997741699e-01" nType="-99"/>
          <Node pos="r" depth="2" NCoef="0" IVar="-1" Cut="0.0000000000000000e+00" cType="1" res="-8.0885542556643486e-03" rms="3.1504502892494202e-01" purity="1.8028669059276581e-01" nType="-99"/>
        </Node>
      </Node>
    </BinaryTree>
    <BinaryTree type="DecisionTree" boostWeight="1.0000000000000000e+00" itree="116">
      <Node pos="s" depth="0" NCoef="0" IVar="14" Cut="1.4871129989624023e+00" cType="1" res="8.4531875327229500e-03" rms="3.3076068758964539e-01" purity="4.9791225790977478e-01" nType="0">
        <Node pos="l" depth="1" NCoef="0" IVar="2" Cut="1.8534173965454102e+00" cType="1" res="-7.2933495044708252e-02" rms="2.9304516315460205e-01" purity="2.4178768694400787e-01" nType="0">
          <Node pos="l" depth="2" NCoef="0" IVar="-1" Cut="0.0000000000000000e+00" cType="1" res="-8.3496943116188049e-03" rms="1.7633683979511261e-01" purity="7.2243250906467438e-02" nType="-99"/>
          <Node pos="r" depth="2" NCoef="0" IVar="-1" Cut="0.0000000000000000e+00" cType="1" res="-8.9579186169430614e-04" rms="3.4191250801086426e-01" purity="3.5907456278800964e-01" nType="-99"/>
        </Node>
        <Node pos="r" depth="1" NCoef="0" IVar="56" Cut="1.4850335121154785e+00" cType="1" res="9.0025536715984344e-02" rms="3.4596318006515503e-01" purity="7.5462120771408081e-01" nType="0">
          <Node pos="l" depth="2" NCoef="0" IVar="-1" Cut="0.0000000000000000e+00" cType="1" res="4.0638204663991928e-03" rms="3.3036318421363831e-01" purity="7.9554444551467896e-01" nType="-99"/>
          <Node pos="r" depth="2" NCoef="0" IVar="-1" Cut="0.0000000000000000e+00" cType="1" res="-1.3218164443969727e-02" rms="3.1256633996963501e-01" purity="1.0658018290996552e-01" nType="-99"/>
        </Node>
      </Node>
    </BinaryTree>
    <BinaryTree type="DecisionTree" boostWeight="1.0000000000000000e+00" itree="117">
      <Node pos="s" depth="0" NCoef="0" IVar="45" Cut="1.5841673612594604e+00" cType="1" res="1.1364014819264412e-02" rms="3.2996240258216858e-01" purity="4.9887818098068237e-01" nType="0">
        <Node pos="l" depth="1" NCoef="0" IVar="45" Cut="1.0400286912918091e+00" cType="1" res="-1.2459065020084381e-01" rms="2.5976550579071045e-01" purity="1.7541693150997162e-01" nType="0">
          <Node pos="l" depth="2" NCoef="0" IVar="-1" Cut="0.0000000000000000e+00" cType="1" res="-1.0190270841121674e-02" rms="1.7475484311580658e-01" purity="7.4762955307960510e-02" nType="-99"/>
          <Node pos="r" depth="2" NCoef="0" IVar="-1" Cut="0.0000000000000000e+00" cType="1" res="-3.3103646710515022e-03" rms="3.0206668376922607e-01" purity="2.5693991780281067e-01" nType="-99"/>
        </Node>
        <Node pos="r" depth="1" NCoef="0" IVar="54" Cut="1.0986235141754150e+00" cType="1" res="6.0184869915246964e-02" rms="3.3870318531990051e-01" purity="6.1503201723098755e-01" nType="0">
          <Node pos="l" depth="2" NCoef="0" IVar="-1" Cut="0.0000000000000000e+00" cType="1" res="3.5241213627159595e-03" rms="3.2630318403244019e-01" purity="6.7836308479309082e-01" nType="-99"/>
          <Node pos="r" depth="2" NCoef="0" IVar="-1" Cut="0.0000000000000000e+00" cType="1" res="-6.7465100437402725e-03" rms="3.4231352806091309e-01" purity="2.0748908817768097e-01" nType="-99"/>
        </Node>
      </Node>
    </BinaryTree>
    <BinaryTree type="DecisionTree" boostWeight="1.0000000000000000e+00" itree="118">
      <Node pos="s" depth="0" NCoef="0" IVar="1" Cut="2.4079892635345459e+00" cType="1" res="1.1988382786512375e-02" rms="3.2725042104721069e-01" purity="5.0039756298065186e-01" nType="0">
        <Node pos="l" depth="1" NCoef="0" IVar="1" Cut="2.0288980007171631e+00" cType="1" res="-1.3375283777713776e-01" rms="2.0764769613742828e-01" purity="8.7807521224021912e-02" nType="0">
          <Node pos="l" depth="2" NCoef="0" IVar="-1" Cut="0.0000000000000000e+00" cType="1" res="-1.1311686597764492e-02" rms="0.0000000000000000e+00" purity="6.5531642176210880e-03" nType="-99"/>
          <Node pos="r" depth="2" NCoef="0" IVar="-1" Cut="0.0000000000000000e+00" cType="1" res="-4.3341945856809616e-03" rms="2.8413558006286621e-01" purity="1.5808738768100739e-01" nType="-99"/>
        </Node>
        <Node pos="r" depth="1" NCoef="0" IVar="2" Cut="1.0175260305404663e+00" cType="1" res="5.6931365281343460e-02" rms="3.4387689828872681e-01" purity="6.2763011455535889e-01" nType="0">
          <Node pos="l" depth="2" NCoef="0" IVar="-1" Cut="0.0000000000000000e+00" cType="1" res="-1.1358425021171570e-02" rms="2.6400607824325562e-01" purity="7.9653829336166382e-02" nType="-99"/>
          <Node pos="r" depth="2" NCoef="0" IVar="-1" Cut="0.0000000000000000e+00" cType="1" res="2.8518186882138252e-03" rms="3.3584472537040710e-01" purity="6.4979475736618042e-01" nType="-99"/>
        </Node>
      </Node>
    </BinaryTree>
    <BinaryTree type="DecisionTree" boostWeight="1.0000000000000000e+00" itree="119">
      <Node pos="s" depth="0" NCoef="0" IVar="14" Cut="5.5099010467529297e-02" cType="1" res="1.2537048198282719e-02" rms="3.2831403613090515e-01" purity="5.0065600872039795e-01" nType="0">
        <Node pos="l" depth="1" NCoef="0" IVar="3" Cut="5.2300395965576172e+00" cType="1" res="-1.1010672897100449e-01" rms="1.7420364916324615e-01" purity="5.6817602366209030e-02" nType="0">
          <Node pos="l" depth="2" NCoef="0" IVar="-1" Cut="0.0000000000000000e+00" cType="1" res="-8.6636785417795181e-03" rms="1.1592414230108261e-01" purity="3.0561821535229683e-02" nType="-99"/>
          <Node pos="r" depth="2" NCoef="0" IVar="-1" Cut="0.0000000000000000e+00" cType="1" res="7.5980334077030420e-04" rms="3.7702903151512146e-01" purity="2.5821936130523682e-01" nType="-99"/>
        </Node>
        <Node pos="r" depth="1" NCoef="0" IVar="56" Cut="1.4463647603988647e+00" cType="1" res="6.4240626990795135e-02" rms="3.6252427101135254e-01" purity="6.8776732683181763e-01" nType="0">
          <Node pos="l" depth="2" NCoef="0" IVar="-1" Cut="0.0000000000000000e+00" cType="1" res="3.1747631728649139e-03" rms="3.5336211323738098e-01" purity="7.3100459575653076e-01" nType="-99"/>
          <Node pos="r" depth="2" NCoef="0" IVar="-1" Cut="0.0000000000000000e+00" cType="1" res="-1.1009970679879189e-02" rms="3.0961903929710388e-01" purity="1.2842601537704468e-01" nType="-99"/>
        </Node>
      </Node>
    </BinaryTree>
    <BinaryTree type="DecisionTree" boostWeight="1.0000000000000000e+00" itree="120">
      <Node pos="s" depth="0" NCoef="0" IVar="1" Cut="3.2755320072174072e+00" cType="1" res="1.0503532364964485e-02" rms="3.2688406109809875e-01" purity="4.9922364950180054e-01" nType="0">
        <Node pos="l" depth="1" NCoef="0" IVar="52" Cut="-1.5312063694000244e+00" cType="1" res="-5.1089588552713394e-02" rms="3.2340762019157410e-01" purity="3.2587572932243347e-01" nType="0">
          <Node pos="l" depth="2" NCoef="0" IVar="-1" Cut="0.0000000000000000e+00" cType="1" res="1.9794050604104996e-03" rms="3.5076886415481567e-01" purity="5.2053922414779663e-01" nType="-99"/>
          <Node pos="r" depth="2" NCoef="0" IVar="-1" Cut="0.0000000000000000e+00" cType="1" res="-4.8381667584180832e-03" rms="2.9545277357101440e-01" purity="2.2753423452377319e-01" nType="-99"/>
        </Node>
        <Node pos="r" depth="1" NCoef="0" IVar="34" Cut="1.4080221652984619e+00" cType="1" res="1.1549620330333710e-01" rms="3.0531385540962219e-01" purity="7.9471552371978760e-01" nType="0">
          <Node pos="l" depth="2" NCoef="0" IVar="-1" Cut="0.0000000000000000e+00" cType="1" res="5.0409464165568352e-03" rms="2.8740659356117249e-01" purity="8.2658028602600098e-01" nType="-99"/>
          <Node pos="r" depth="2" NCoef="0" IVar="-1" Cut="0.0000000000000000e+00" cType="1" res="-8.8461088016629219e-03" rms="3.9288204908370972e-01" purity="2.5450676679611206e-01" nType="-99"/>
        </Node>
      </Node>
    </BinaryTree>
    <BinaryTree type="DecisionTree" boostWeight="1.0000000000000000e+00" itree="121">
      <Node pos="s" depth="0" NCoef="0" IVar="2" Cut="1.8207448720932007e+00" cType="1" res="1.0714289732277393e-02" rms="3.2542595267295837e-01" purity="5.0039458274841309e-01" nType="0">
        <Node pos="l" depth="1" NCoef="0" IVar="2" Cut="6.0336107015609741e-01" cType="1" res="-1.1503004282712936e-01" rms="2.8283903002738953e-01" purity="2.0149643719196320e-01" nType="0">
          <Node pos="l" depth="2" NCoef="0" IVar="-1" Cut="0.0000000000000000e+00" cType="1" res="-1.2466694228351116e-02" rms="1.4185377955436707e-01" purity="-1.9978322088718414e-02" nType="-99"/>
          <Node pos="r" depth="2" NCoef="0" IVar="-1" Cut="0.0000000000000000e+00" cType="1" res="-4.1576526127755642e-03" rms="2.7909004688262939e-01" purity="2.2376812994480133e-01" nType="-99"/>
        </Node>
        <Node pos="r" depth="1" NCoef="0" IVar="14" Cut="-1.2989367246627808e+00" cType="1" res="6.1064582318067551e-02" rms="3.2773175835609436e-01" purity="6.2007868289947510e-01" nType="0">
          <Node pos="l" depth="2" NCoef="0" IVar="-1" Cut="0.0000000000000000e+00" cType="1" res="-7.7563533559441566e-03" rms="1.7965786159038544e-01" purity="4.0686301887035370e-02" nType="-99"/>
          <Node pos="r" depth="2" NCoef="0" IVar="-1" Cut="0.0000000000000000e+00" cType="1" res="3.6142929457128048e-03" rms="3.4039083123207092e-01" purity="7.4774867296218872e-01" nType="-99"/>
        </Node>
      </Node>
    </BinaryTree>
    <BinaryTree type="DecisionTree" boostWeight="1.0000000000000000e+00" itree="122">
      <Node pos="s" depth="0" NCoef="0" IVar="45" Cut="1.5336501598358154e+00" cType="1" res="1.1930258944630623e-02" rms="3.2635667920112610e-01" purity="5.0041711330413818e-01" nType="0">
        <Node pos="l" depth="1" NCoef="0" IVar="45" Cut="1.0872031450271606e+00" cType="1" res="-1.2562669813632965e-01" rms="2.5886285305023193e-01" purity="1.6671894490718842e-01" nType="0">
          <Node pos="l" depth="2" NCoef="0" IVar="-1" Cut="0.0000000000000000e+00" cType="1" res="-9.7881685942411423e-03" rms="1.9209882616996765e-01" purity="8.2895420491695404e-02" nType="-99"/>
          <Node pos="r" depth="2" NCoef="0" IVar="-1" Cut="0.0000000000000000e+00" cType="1" res="-3.1816153787076473e-03" rms="3.0465775728225708e-01" purity="2.5586518645286560e-01" nType="-99"/>
        </Node>
        <Node pos="r" depth="1" NCoef="0" IVar="54" Cut="1.3318732976913452e+00" cType="1" res="5.7010099291801453e-02" rms="3.3349642157554626e-01" purity="6.0977584123611450e-01" nType="0">
          <Node pos="l" depth="2" NCoef="0" IVar="-1" Cut="0.0000000000000000e+00" cType="1" res="3.3310560975223780e-03" rms="3.2478201389312744e-01" purity="6.6743415594100952e-01" nType="-99"/>
          <Node pos="r" depth="2" NCoef="0" IVar="-1" Cut="0.0000000000000000e+00" cType="1" res="-8.6495503783226013e-03" rms="3.0526140332221985e-01" purity="1.4841112494468689e-01" nType="-99"/>
        </Node>
      </Node>
    </BinaryTree>
    <BinaryTree type="DecisionTree" boostWeight="1.0000000000000000e+00" itree="123">
      <Node pos="s" depth="0" NCoef="0" IVar="25" Cut="1.5949702262878418e+00" cType="1" res="8.9727956801652908e-03" rms="3.2577371597290039e-01" purity="4.9755308032035828e-01" nType="0">
        <Node pos="l" depth="1" NCoef="0" IVar="25" Cut="1.0163409709930420e+00" cType="1" res="-1.2097723037004471e-01" rms="2.6414102315902710e-01" purity="1.8321062624454498e-01" nType="0">
          <Node pos="l" depth="2" NCoef="0" IVar="-1" Cut="0.0000000000000000e+00" cType="1" res="-1.0828309692442417e-02" rms="1.6550207138061523e-01" purity="6.1898335814476013e-02" nType="-99"/>
          <Node pos="r" depth="2" NCoef="0" IVar="-1" Cut="0.0000000000000000e+00" cType="1" res="-3.1347058247774839e-03" rms="3.0499124526977539e-01" purity="2.6916110515594482e-01" nType="-99"/>
        </Node>
        <Node pos="r" depth="1" NCoef="0" IVar="34" Cut="1.2545974254608154e+00" cType="1" res="5.6264270097017288e-02" rms="3.3313348889350891e-01" purity="6.1194872856140137e-01" nType="0">
          <Node pos="l" depth="2" NCoef="0" IVar="-1" Cut="0.0000000000000000e+00" cType="1" res="3.3879610709846020e-03" rms="3.2304409146308899e-01" purity="6.7172497510910034e-01" nType="-99"/>
          <Node pos="r" depth="2" NCoef="0" IVar="-1" Cut="0.0000000000000000e+00" cType="1" res="-8.1766340881586075e-03" rms="3.1290319561958313e-01" purity="1.7639000713825226e-01" nType="-99"/>
        </Node>
      </Node>
    </BinaryTree>
    <BinaryTree type="DecisionTree" boostWeight="1.0000000000000000e+00" itree="124">
      <Node pos="s" depth="0" NCoef="0" IVar="34" Cut="-1.3858562707901001e-01" cType="1" res="1.1572281830012798e-02" rms="3.2532414793968201e-01" purity="4.9819943308830261e-01" nType="0">
        <Node pos="l" depth="1" NCoef="0" IVar="54" Cut="-6.0928091406822205e-02" cType="1" res="5.3531799465417862e-02" rms="3.2062196731567383e-01" purity="5.8187812566757202e-01" nType="0">
          <Node pos="l" depth="2" NCoef="0" IVar="-1" Cut="0.0000000000000000e+00" cType="1" res="3.9151320233941078e-03" rms="3.0204513669013977e-01" purity="6.7377561330795288e-01" nType="-99"/>
          <Node pos="r" depth="2" NCoef="0" IVar="-1" Cut="0.0000000000000000e+00" cType="1" res="-5.3982487879693508e-03" rms="3.2735577225685120e-01" purity="2.5123730301856995e-01" nType="-99"/>
        </Node>
        <Node pos="r" depth="1" NCoef="0" IVar="36" Cut="1.4860124588012695e+00" cType="1" res="-1.3271442055702209e-01" rms="2.9901099205017090e-01" purity="2.1045251190662384e-01" nType="0">
          <Node pos="l" depth="2" NCoef="0" IVar="-1" Cut="0.0000000000000000e+00" cType="1" res="-4.2296899482607841e-03" rms="3.1875017285346985e-01" purity="2.7536889910697937e-01" nType="-99"/>
          <Node pos="r" depth="2" NCoef="0" IVar="-1" Cut="0.0000000000000000e+00" cType="1" res="-1.2669395655393600e-02" rms="2.0267282426357269e-01" purity="4.0071167051792145e-02" nType="-99"/>
        </Node>
      </Node>
    </BinaryTree>
    <BinaryTree type="DecisionTree" boostWeight="1.0000000000000000e+00" itree="125">
      <Node pos="s" depth="0" NCoef="0" IVar="56" Cut="-1.4537754058837891e+00" cType="1" res="1.1209148913621902e-02" rms="3.2351472973823547e-01" purity="4.9731871485710144e-01" nType="0">
        <Node pos="l" depth="1" NCoef="0" IVar="14" Cut="-1.2989310026168823e+00" cType="1" res="6.7182727158069611e-02" rms="3.1920599937438965e-01" purity="6.1339968442916870e-01" nType="0">
          <Node pos="l" depth="2" NCoef="0" IVar="-1" Cut="0.0000000000000000e+00" cType="1" res="-8.6509454995393753e-03" rms="1.2850245833396912e-01" purity="2.4189136922359467e-02" nType="-99"/>
          <Node pos="r" depth="2" NCoef="0" IVar="-1" Cut="0.0000000000000000e+00" cType="1" res="3.9965794421732426e-03" rms="3.3501732349395752e-01" purity="7.5586771965026855e-01" nType="-99"/>
        </Node>
        <Node pos="r" depth="1" NCoef="0" IVar="56" Cut="1.4882848262786865e+00" cType="1" res="-9.8976351320743561e-02" rms="3.0299326777458191e-01" purity="2.6881027221679688e-01" nType="0">
          <Node pos="l" depth="2" NCoef="0" IVar="-1" Cut="0.0000000000000000e+00" cType="1" res="-2.8989925049245358e-03" rms="3.1266719102859497e-01" purity="3.2535880804061890e-01" nType="-99"/>
          <Node pos="r" depth="2" NCoef="0" IVar="-1" Cut="0.0000000000000000e+00" cType="1" res="-1.2560018338263035e-02" rms="2.0982207357883453e-01" purity="4.4720306992530823e-02" nType="-99"/>
        </Node>
      </Node>
    </BinaryTree>
    <BinaryTree type="DecisionTree" boostWeight="1.0000000000000000e+00" itree="126">
      <Node pos="s" depth="0" NCoef="0" IVar="36" Cut="-1.4924387931823730e+00" cType="1" res="1.4173071831464767e-02" rms="3.2500818371772766e-01" purity="5.0376915931701660e-01" nType="0">
        <Node pos="l" depth="1" NCoef="0" IVar="14" Cut="-1.2989367246627808e+00" cType="1" res="7.7782921493053436e-02" rms="3.1450960040092468e-01" purity="6.3636606931686401e-01" nType="0">
          <Node pos="l" depth="2" NCoef="0" IVar="-1" Cut="0.0000000000000000e+00" cType="1" res="-8.4090856835246086e-03" rms="1.3462549448013306e-01" purity="2.7643449604511261e-02" nType="-99"/>
          <Node pos="r" depth="2" NCoef="0" IVar="-1" Cut="0.0000000000000000e+00" cType="1" res="4.3496154248714447e-03" rms="3.2686951756477356e-01" purity="7.7683079242706299e-01" nType="-99"/>
        </Node>
        <Node pos="r" depth="1" NCoef="0" IVar="36" Cut="1.4877376556396484e+00" cType="1" res="-8.0195181071758270e-02" rms="3.1730550527572632e-01" purity="3.0705529451370239e-01" nType="0">
          <Node pos="l" depth="2" NCoef="0" IVar="-1" Cut="0.0000000000000000e+00" cType="1" res="-2.2592074237763882e-03" rms="3.2213619351387024e-01" purity="3.5640877485275269e-01" nType="-99"/>
          <Node pos="r" depth="2" NCoef="0" IVar="-1" Cut="0.0000000000000000e+00" cType="1" res="-1.1963792145252228e-02" rms="2.4007138609886169e-01" purity="5.6131336838006973e-02" nType="-99"/>
        </Node>
      </Node>
    </BinaryTree>
    <BinaryTree type="DecisionTree" boostWeight="1.0000000000000000e+00" itree="127">
      <Node pos="s" depth="0" NCoef="0" IVar="25" Cut="1.7765219211578369e+00" cType="1" res="1.0638145729899406e-02" rms="3.2201418280601501e-01" purity="4.9855855107307434e-01" nType="0">
        <Node pos="l" depth="1" NCoef="0" IVar="25" Cut="1.1159168481826782e+00" cType="1" res="-9.8011814057826996e-02" rms="2.7817827463150024e-01" purity="2.1936234831809998e-01" nType="0">
          <Node pos="l" depth="2" NCoef="0" IVar="-1" Cut="0.0000000000000000e+00" cType="1" res="-9.4539886340498924e-03" rms="1.9787421822547913e-01" purity="8.8140383362770081e-02" nType="-99"/>
          <Node pos="r" depth="2" NCoef="0" IVar="-1" Cut="0.0000000000000000e+00" cType="1" res="-2.1982982289046049e-03" rms="3.1086549162864685e-01" purity="3.0636063218116760e-01" nType="-99"/>
        </Node>
        <Node pos="r" depth="1" NCoef="0" IVar="34" Cut="1.3697201013565063e+00" cType="1" res="6.5923109650611877e-02" rms="3.2866010069847107e-01" purity="6.4062356948852539e-01" nType="0">
          <Node pos="l" depth="2" NCoef="0" IVar="-1" Cut="0.0000000000000000e+00" cType="1" res="3.5707079805433750e-03" rms="3.1808081269264221e-01" purity="6.9173473119735718e-01" nType="-99"/>
          <Node pos="r" depth="2" NCoef="0" IVar="-1" Cut="0.0000000000000000e+00" cType="1" res="-8.6765624582767487e-03" rms="3.1869798898696899e-01" purity="1.6539052128791809e-01" nType="-99"/>
        </Node>
      </Node>
    </BinaryTree>
    <BinaryTree type="DecisionTree" boostWeight="1.0000000000000000e+00" itree="128">
      <Node pos="s" depth="0" NCoef="0" IVar="14" Cut="-1.1441599130630493e+00" cType="1" res="1.2587600387632847e-02" rms="3.2298150658607483e-01" purity="5.0042700767517090e-01" nType="0">
        <Node pos="l" depth="1" NCoef="0" IVar="2" Cut="1.9513940811157227e+00" cType="1" res="-1.1958915740251541e-01" rms="6.4786382019519806e-02" purity="1.4936880208551884e-02" nType="0">
          <Node pos="l" depth="2" NCoef="0" IVar="-1" Cut="0.0000000000000000e+00" cType="1" res="-1.4049312099814415e-02" rms="0.0000000000000000e+00" purity="-4.4231120496988297e-02" nType="-99"/>
          <Node pos="r" depth="2" NCoef="0" IVar="-1" Cut="0.0000000000000000e+00" cType="1" res="-5.5934563279151917e-03" rms="2.4324414134025574e-01" purity="7.9033918678760529e-02" nType="-99"/>
        </Node>
        <Node pos="r" depth="1" NCoef="0" IVar="34" Cut="1.0211628675460815e+00" cType="1" res="5.5767729878425598e-02" rms="3.5979536175727844e-01" purity="6.5902918577194214e-01" nType="0">
          <Node pos="l" depth="2" NCoef="0" IVar="-1" Cut="0.0000000000000000e+00" cType="1" res="3.2369492109864950e-03" rms="3.4621441364288330e-01" purity="7.2107553482055664e-01" nType="-99"/>
          <Node pos="r" depth="2" NCoef="0" IVar="-1" Cut="0.0000000000000000e+00" cType="1" res="-7.0205321535468102e-03" rms="3.6571490764617920e-01" purity="2.3655778169631958e-01" nType="-99"/>
        </Node>
      </Node>
    </BinaryTree>
    <BinaryTree type="DecisionTree" boostWeight="1.0000000000000000e+00" itree="129">
      <Node pos="s" depth="0" NCoef="0" IVar="25" Cut="1.6608484983444214e+00" cType="1" res="1.2729818001389503e-02" rms="3.2351911067962646e-01" purity="5.0246238708496094e-01" nType="0">
        <Node pos="l" depth="1" NCoef="0" IVar="25" Cut="9.9388605356216431e-01" cType="1" res="-1.0477048903703690e-01" rms="2.7540367841720581e-01" purity="2.0035129785537720e-01" nType="0">
          <Node pos="l" depth="2" NCoef="0" IVar="-1" Cut="0.0000000000000000e+00" cType="1" res="-1.0528300888836384e-02" rms="1.7573042213916779e-01" purity="6.4428709447383881e-02" nType="-99"/>
          <Node pos="r" depth="2" NCoef="0" IVar="-1" Cut="0.0000000000000000e+00" cType="1" res="-2.7573073748499155e-03" rms="3.1009826064109802e-01" purity="2.7895134687423706e-01" nType="-99"/>
        </Node>
        <Node pos="r" depth="1" NCoef="0" IVar="34" Cut="1.2545974254608154e+00" cType="1" res="6.1627753078937531e-02" rms="3.2942450046539307e-01" purity="6.2818646430969238e-01" nType="0">
          <Node pos="l" depth="2" NCoef="0" IVar="-1" Cut="0.0000000000000000e+00" cType="1" res="3.5159995313733816e-03" rms="3.1851941347122192e-01" purity="6.8608933687210083e-01" nType="-99"/>
          <Node pos="r" depth="2" NCoef="0" IVar="-1" Cut="0.0000000000000000e+00" cType="1" res="-7.3477332480251789e-03" rms="3.2785287499427795e-01" purity="1.8936425447463989e-01" nType="-99"/>
        </Node>
      </Node>
    </BinaryTree>
    <BinaryTree type="DecisionTree" boostWeight="1.0000000000000000e+00" itree="130">
      <Node pos="s" depth="0" NCoef="0" IVar="45" Cut="1.5841673612594604e+00" cType="1" res="1.0696843266487122e-02" rms="3.2189634442329407e-01" purity="5.0058144330978394e-01" nType="0">
        <Node pos="l" depth="1" NCoef="0" IVar="45" Cut="1.0686675310134888e+00" cType="1" res="-1.1433111131191254e-01" rms="2.5872853398323059e-01" purity="1.8032084405422211e-01" nType="0">
          <Node pos="l" depth="2" NCoef="0" IVar="-1" Cut="0.0000000000000000e+00" cType="1" res="-9.8959337919950485e-03" rms="1.7293749749660492e-01" purity="7.6056689023971558e-02" nType="-99"/>
          <Node pos="r" depth="2" NCoef="0" IVar="-1" Cut="0.0000000000000000e+00" cType="1" res="-2.8576757758855820e-03" rms="3.0290421843528748e-01" purity="2.6772913336753845e-01" nType="-99"/>
        </Node>
        <Node pos="r" depth="1" NCoef="0" IVar="2" Cut="9.7829890251159668e-01" cType="1" res="5.5734019726514816e-02" rms="3.3040824532508850e-01" purity="6.1594468355178833e-01" nType="0">
          <Node pos="l" depth="2" NCoef="0" IVar="-1" Cut="0.0000000000000000e+00" cType="1" res="-1.0895906016230583e-02" rms="2.7052685618400574e-01" purity="7.7094241976737976e-02" nType="-99"/>
          <Node pos="r" depth="2" NCoef="0" IVar="-1" Cut="0.0000000000000000e+00" cType="1" res="2.8707971796393394e-03" rms="3.2293280959129333e-01" purity="6.3772833347320557e-01" nType="-99"/>
        </Node>
      </Node>
    </BinaryTree>
    <BinaryTree type="DecisionTree" boostWeight="1.0000000000000000e+00" itree="131">
      <Node pos="s" depth="0" NCoef="0" IVar="36" Cut="-1.4924387931823730e+00" cType="1" res="8.7583530694246292e-03" rms="3.2121765613555908e-01" purity="4.9616596102714539e-01" nType="0">
        <Node pos="l" depth="1" NCoef="0" IVar="14" Cut="-1.3763252496719360e+00" cType="1" res="6.9601893424987793e-02" rms="3.1285047531127930e-01" purity="6.2888312339782715e-01" nType="0">
          <Node pos="l" depth="2" NCoef="0" IVar="-1" Cut="0.0000000000000000e+00" cType="1" res="-9.3222809955477715e-03" rms="1.0126943886280060e-01" purity="1.4295470900833607e-02" nType="-99"/>
          <Node pos="r" depth="2" NCoef="0" IVar="-1" Cut="0.0000000000000000e+00" cType="1" res="4.0259337984025478e-03" rms="3.2758519053459167e-01" purity="7.6236426830291748e-01" nType="-99"/>
        </Node>
        <Node pos="r" depth="1" NCoef="0" IVar="36" Cut="1.4877375364303589e+00" cType="1" res="-8.1336274743080139e-02" rms="3.1215062737464905e-01" purity="2.9964387416839600e-01" nType="0">
          <Node pos="l" depth="2" NCoef="0" IVar="-1" Cut="0.0000000000000000e+00" cType="1" res="-2.3187336046248674e-03" rms="3.2080504298210144e-01" purity="3.5024288296699524e-01" nType="-99"/>
          <Node pos="r" depth="2" NCoef="0" IVar="-1" Cut="0.0000000000000000e+00" cType="1" res="-1.2316157110035419e-02" rms="2.0795349776744843e-01" purity="4.8494592308998108e-02" nType="-99"/>
        </Node>
      </Node>
    </BinaryTree>
    <BinaryTree type="DecisionTree" boostWeight="1.0000000000000000e+00" itree="132">
      <Node pos="s" depth="0" NCoef="0" IVar="2" Cut="1.7298353910446167e+00" cType="1" res="1.1390054598450661e-02" rms="3.1953048706054688e-01" purity="5.0064903497695923e-01" nType="0">
        <Node pos="l" depth="1" NCoef="0" IVar="2" Cut="5.8418285846710205e-01" cType="1" res="-1.1985915899276733e-01" rms="2.7646234631538391e-01" purity="1.8439228832721710e-01" nType="0">
          <Node pos="l" depth="2" NCoef="0" IVar="-1" Cut="0.0000000000000000e+00" cType="1" res="-1.2736095115542412e-02" rms="0.0000000000000000e+00" purity="-4.6125810593366623e-02" nType="-99"/>
          <Node pos="r" depth="2" NCoef="0" IVar="-1" Cut="0.0000000000000000e+00" cType="1" res="-4.4061145745217800e-03" rms="2.7584034204483032e-01" purity="2.1010184288024902e-01" nType="-99"/>
        </Node>
        <Node pos="r" depth="1" NCoef="0" IVar="14" Cut="-1.4150193929672241e+00" cType="1" res="5.4370436817407608e-02" rms="3.2096248865127563e-01" purity="6.0421413183212280e-01" nType="0">
          <Node pos="l" depth="2" NCoef="0" IVar="-1" Cut="0.0000000000000000e+00" cType="1" res="-9.1593554243445396e-03" rms="1.0952908545732498e-01" purity="1.5804184600710869e-02" nType="-99"/>
          <Node pos="r" depth="2" NCoef="0" IVar="-1" Cut="0.0000000000000000e+00" cType="1" res="3.3559252042323351e-03" rms="3.3795398473739624e-01" purity="7.2320443391799927e-01" nType="-99"/>
        </Node>
      </Node>
    </BinaryTree>
    <BinaryTree type="DecisionTree" boostWeight="1.0000000000000000e+00" itree="133">
      <Node pos="s" depth="0" NCoef="0" IVar="14" Cut="1.4864721298217773e+00" cType="1" res="1.0560153983533382e-02" rms="3.2069480419158936e-01" purity="4.9958819150924683e-01" nType="0">
        <Node pos="l" depth="1" NCoef="0" IVar="1" Cut="3.6763534545898438e+00" cType="1" res="-6.2430784106254578e-02" rms="2.8918147087097168e-01" purity="2.4203480780124664e-01" nType="0">
          <Node pos="l" depth="2" NCoef="0" IVar="-1" Cut="0.0000000000000000e+00" cType="1" res="-4.5164409093558788e-03" rms="2.6900336146354675e-01" purity="1.8282520771026611e-01" nType="-99"/>
          <Node pos="r" depth="2" NCoef="0" IVar="-1" Cut="0.0000000000000000e+00" cType="1" res="3.0796029604971409e-03" rms="3.7121057510375977e-01" purity="6.5268921852111816e-01" nType="-99"/>
        </Node>
        <Node pos="r" depth="1" NCoef="0" IVar="56" Cut="1.4850335121154785e+00" cType="1" res="8.3673737943172455e-02" rms="3.3378806710243225e-01" purity="7.5757431983947754e-01" nType="0">
          <Node pos="l" depth="2" NCoef="0" IVar="-1" Cut="0.0000000000000000e+00" cType="1" res="3.9274455048143864e-03" rms="3.1928753852844238e-01" purity="7.9809945821762085e-01" nType="-99"/>
          <Node pos="r" depth="2" NCoef="0" IVar="-1" Cut="0.0000000000000000e+00" cType="1" res="-1.2534557841718197e-02" rms="3.1446674466133118e-01" purity="1.1646673083305359e-01" nType="-99"/>
        </Node>
      </Node>
    </BinaryTree>
    <BinaryTree type="DecisionTree" boostWeight="1.0000000000000000e+00" itree="134">
      <Node pos="s" depth="0" NCoef="0" IVar="54" Cut="-5.2521127462387085e-01" cType="1" res="9.6727190539240837e-03" rms="3.1924673914909363e-01" purity="4.9810108542442322e-01" nType="0">
        <Node pos="l" depth="1" NCoef="0" IVar="34" Cut="-9.5075112581253052e-01" cType="1" res="5.1094796508550644e-02" rms="3.1352287530899048e-01" purity="5.8588045835494995e-01" nType="0">
          <Node pos="l" depth="2" NCoef="0" IVar="-1" Cut="0.0000000000000000e+00" cType="1" res="3.9836224168539047e-03" rms="2.9274961352348328e-01" purity="6.8496257066726685e-01" nType="-99"/>
          <Node pos="r" depth="2" NCoef="0" IVar="-1" Cut="0.0000000000000000e+00" cType="1" res="-4.5806220732629299e-03" rms="3.2672816514968872e-01" purity="2.8241494297981262e-01" nType="-99"/>
        </Node>
        <Node pos="r" depth="1" NCoef="0" IVar="56" Cut="1.4852737188339233e+00" cType="1" res="-1.2329113483428955e-01" rms="3.0059540271759033e-01" purity="2.1633151173591614e-01" nType="0">
          <Node pos="l" depth="2" NCoef="0" IVar="-1" Cut="0.0000000000000000e+00" cType="1" res="-3.9305067621171474e-03" rms="3.2217353582382202e-01" purity="2.8095054626464844e-01" nType="-99"/>
          <Node pos="r" depth="2" NCoef="0" IVar="-1" Cut="0.0000000000000000e+00" cType="1" res="-1.2543565593659878e-02" rms="1.9190745055675507e-01" purity="3.8302406668663025e-02" nType="-99"/>
        </Node>
      </Node>
    </BinaryTree>
    <BinaryTree type="DecisionTree" boostWeight="1.0000000000000000e+00" itree="135">
      <Node pos="s" depth="0" NCoef="0" IVar="25" Cut="1.4775044918060303e+00" cType="1" res="8.5446154698729515e-03" rms="3.1833440065383911e-01" purity="4.9637302756309509e-01" nType="0">
        <Node pos="l" depth="1" NCoef="0" IVar="32" Cut="-1.5312415361404419e+00" cType="1" res="-1.2557783722877502e-01" rms="2.5041824579238892e-01" purity="1.6192145645618439e-01" nType="0">
          <Node pos="l" depth="2" NCoef="0" IVar="-1" Cut="0.0000000000000000e+00" cType="1" res="-8.7136717047542334e-04" rms="3.3481329679489136e-01" purity="3.6535522341728210e-01" nType="-99"/>
          <Node pos="r" depth="2" NCoef="0" IVar="-1" Cut="0.0000000000000000e+00" cType="1" res="-8.5509689524769783e-03" rms="2.1277022361755371e-01" purity="1.0611313581466675e-01" nType="-99"/>
        </Node>
        <Node pos="r" depth="1" NCoef="0" IVar="14" Cut="-1.2989310026168823e+00" cType="1" res="4.8377685248851776e-02" rms="3.2539147138595581e-01" purity="5.9570187330245972e-01" nType="0">
          <Node pos="l" depth="2" NCoef="0" IVar="-1" Cut="0.0000000000000000e+00" cType="1" res="-8.6039239540696144e-03" rms="1.3289168477058411e-01" purity="2.4351425468921661e-02" nType="-99"/>
          <Node pos="r" depth="2" NCoef="0" IVar="-1" Cut="0.0000000000000000e+00" cType="1" res="3.1509380787611008e-03" rms="3.4462696313858032e-01" purity="7.2745829820632935e-01" nType="-99"/>
        </Node>
      </Node>
    </BinaryTree>
    <BinaryTree type="DecisionTree" boostWeight="1.0000000000000000e+00" itree="136">
      <Node pos="s" depth="0" NCoef="0" IVar="56" Cut="-1.4924588203430176e+00" cType="1" res="1.1699482798576355e-02" rms="3.1800320744514465e-01" purity="5.0130045413970947e-01" nType="0">
        <Node pos="l" depth="1" NCoef="0" IVar="14" Cut="-1.3763616085052490e+00" cType="1" res="7.1739606559276581e-02" rms="3.0947571992874146e-01" purity="6.3576638698577881e-01" nType="0">
          <Node pos="l" depth="2" NCoef="0" IVar="-1" Cut="0.0000000000000000e+00" cType="1" res="-9.2794094234704971e-03" rms="8.1187024712562561e-02" purity="1.1866167187690735e-02" nType="-99"/>
          <Node pos="r" depth="2" NCoef="0" IVar="-1" Cut="0.0000000000000000e+00" cType="1" res="4.0843491442501545e-03" rms="3.2459521293640137e-01" purity="7.6663076877593994e-01" nType="-99"/>
        </Node>
        <Node pos="r" depth="1" NCoef="0" IVar="56" Cut="1.4869431257247925e+00" cType="1" res="-7.6310746371746063e-02" rms="3.0974122881889343e-01" purity="3.0419257283210754e-01" nType="0">
          <Node pos="l" depth="2" NCoef="0" IVar="-1" Cut="0.0000000000000000e+00" cType="1" res="-2.0978481043130159e-03" rms="3.1794503331184387e-01" purity="3.5619324445724487e-01" nType="-99"/>
          <Node pos="r" depth="2" NCoef="0" IVar="-1" Cut="0.0000000000000000e+00" cType="1" res="-1.2317271903157234e-02" rms="2.0702223479747772e-01" purity="4.5707445591688156e-02" nType="-99"/>
        </Node>
      </Node>
    </BinaryTree>
    <BinaryTree type="DecisionTree" boostWeight="1.0000000000000000e+00" itree="137">
      <Node pos="s" depth="0" NCoef="0" IVar="25" Cut="1.4782559871673584e+00" cType="1" res="1.0644033551216125e-02" rms="3.1668430566787720e-01" purity="4.9896922707557678e-01" nType="0">
        <Node pos="l" depth="1" NCoef="0" IVar="0" Cut="6.5431839227676392e-01" cType="1" res="-1.2370849400758743e-01" rms="2.4290446937084198e-01" purity="1.6211290657520294e-01" nType="0">
          <Node pos="l" depth="2" NCoef="0" IVar="-1" Cut="0.0000000000000000e+00" cType="1" res="-3.6235591396689415e-03" rms="2.8265687823295593e-01" purity="2.3730210959911346e-01" nType="-99"/>
          <Node pos="r" depth="2" NCoef="0" IVar="-1" Cut="0.0000000000000000e+00" cType="1" res="-1.0581536218523979e-02" rms="1.6456140577793121e-01" purity="7.0720560848712921e-02" nType="-99"/>
        </Node>
        <Node pos="r" depth="1" NCoef="0" IVar="34" Cut="1.2545974254608154e+00" cType="1" res="5.0381790846586227e-02" rms="3.2493439316749573e-01" purity="5.9860199689865112e-01" nType="0">
          <Node pos="l" depth="2" NCoef="0" IVar="-1" Cut="0.0000000000000000e+00" cType="1" res="3.1621877569705248e-03" rms="3.1700575351715088e-01" purity="6.5862226486206055e-01" nType="-99"/>
          <Node pos="r" depth="2" NCoef="0" IVar="-1" Cut="0.0000000000000000e+00" cType="1" res="-7.6698190532624722e-03" rms="3.0476135015487671e-01" purity="1.6632124781608582e-01" nType="-99"/>
        </Node>
      </Node>
    </BinaryTree>
    <BinaryTree type="DecisionTree" boostWeight="1.0000000000000000e+00" itree="138">
      <Node pos="s" depth="0" NCoef="0" IVar="2" Cut="1.7961606979370117e+00" cType="1" res="8.4279505535960197e-03" rms="3.1607371568679810e-01" purity="4.9514946341514587e-01" nType="0">
        <Node pos="l" depth="1" NCoef="0" IVar="2" Cut="5.0342702865600586e-01" cType="1" res="-1.0768034309148788e-01" rms="2.7340632677078247e-01" purity="1.9433027505874634e-01" nType="0">
          <Node pos="l" depth="2" NCoef="0" IVar="-1" Cut="0.0000000000000000e+00" cType="1" res="-1.2703684158623219e-02" rms="1.3808433711528778e-01" purity="-2.2743111476302147e-02" nType="-99"/>
          <Node pos="r" depth="2" NCoef="0" IVar="-1" Cut="0.0000000000000000e+00" cType="1" res="-4.1368659585714340e-03" rms="2.6902136206626892e-01" purity="2.1363714337348938e-01" nType="-99"/>
        </Node>
        <Node pos="r" depth="1" NCoef="0" IVar="56" Cut="-7.5776642560958862e-01" cType="1" res="5.2958130836486816e-02" rms="3.1999304890632629e-01" purity="6.1052042245864868e-01" nType="0">
          <Node pos="l" depth="2" NCoef="0" IVar="-1" Cut="0.0000000000000000e+00" cType="1" res="3.6711567081511021e-03" rms="3.0606496334075928e-01" purity="6.8631094694137573e-01" nType="-99"/>
          <Node pos="r" depth="2" NCoef="0" IVar="-1" Cut="0.0000000000000000e+00" cType="1" res="-4.6826214529573917e-03" rms="3.3011379837989807e-01" purity="2.9380622506141663e-01" nType="-99"/>
        </Node>
      </Node>
    </BinaryTree>
    <BinaryTree type="DecisionTree" boostWeight="1.0000000000000000e+00" itree="139">
      <Node pos="s" depth="0" NCoef="0" IVar="52" Cut="-1.4926078319549561e+00" cType="1" res="7.8537929803133011e-03" rms="3.1667360663414001e-01" purity="4.9523967504501343e-01" nType="0">
        <Node pos="l" depth="1" NCoef="0" IVar="14" Cut="-1.3763210773468018e+00" cType="1" res="6.8493969738483429e-02" rms="3.1253132224082947e-01" purity="6.2702834606170654e-01" nType="0">
          <Node pos="l" depth="2" NCoef="0" IVar="-1" Cut="0.0000000000000000e+00" cType="1" res="-9.3845641240477562e-03" rms="7.1977384388446808e-02" purity="1.0905751027166843e-02" nType="-99"/>
          <Node pos="r" depth="2" NCoef="0" IVar="-1" Cut="0.0000000000000000e+00" cType="1" res="3.9819343946874142e-03" rms="3.2929715514183044e-01" purity="7.5729423761367798e-01" nType="-99"/>
        </Node>
        <Node pos="r" depth="1" NCoef="0" IVar="1" Cut="3.3790473937988281e+00" cType="1" res="-8.0503232777118683e-02" rms="3.0152091383934021e-01" purity="3.0321425199508667e-01" nType="0">
          <Node pos="l" depth="2" NCoef="0" IVar="-1" Cut="0.0000000000000000e+00" cType="1" res="-5.8679184876382351e-03" rms="2.7157363295555115e-01" purity="1.9395250082015991e-01" nType="-99"/>
          <Node pos="r" depth="2" NCoef="0" IVar="-1" Cut="0.0000000000000000e+00" cType="1" res="1.3431932311505079e-03" rms="3.6036095023155212e-01" purity="6.6113990545272827e-01" nType="-99"/>
        </Node>
      </Node>
    </BinaryTree>
    <BinaryTree type="DecisionTree" boostWeight="1.0000000000000000e+00" itree="140">
      <Node pos="s" depth="0" NCoef="0" IVar="54" Cut="-1.2602849006652832e+00" cType="1" res="1.0988213121891022e-02" rms="3.1722760200500488e-01" purity="5.0036877393722534e-01" nType="0">
        <Node pos="l" depth="1" NCoef="0" IVar="34" Cut="4.8012962937355042e-01" cType="1" res="5.6534070521593094e-02" rms="3.1049540638923645e-01" purity="6.0229331254959106e-01" nType="0">
          <Node pos="l" depth="2" NCoef="0" IVar="-1" Cut="0.0000000000000000e+00" cType="1" res="3.8628496695309877e-03" rms="2.9478117823600769e-01" purity="6.8205899000167847e-01" nType="-99"/>
          <Node pos="r" depth="2" NCoef="0" IVar="-1" Cut="0.0000000000000000e+00" cType="1" res="-6.6012777388095856e-03" rms="3.1335332989692688e-01" purity="2.0771586894989014e-01" nType="-99"/>
        </Node>
        <Node pos="r" depth="1" NCoef="0" IVar="56" Cut="1.4856691360473633e+00" cType="1" res="-9.8734073340892792e-02" rms="3.0623123049736023e-01" purity="2.5482717156410217e-01" nType="0">
          <Node pos="l" depth="2" NCoef="0" IVar="-1" Cut="0.0000000000000000e+00" cType="1" res="-3.0347823631018400e-03" rms="3.2057148218154907e-01" purity="3.1652671098709106e-01" nType="-99"/>
          <Node pos="r" depth="2" NCoef="0" IVar="-1" Cut="0.0000000000000000e+00" cType="1" res="-1.1804931797087193e-02" rms="2.1736675500869751e-01" purity="4.7677971422672272e-02" nType="-99"/>
        </Node>
      </Node>
    </BinaryTree>
    <BinaryTree type="DecisionTree" boostWeight="1.0000000000000000e+00" itree="141">
      <Node pos="s" depth="0" NCoef="0" IVar="14" Cut="1.4483531713485718e+00" cType="1" res="7.9020867124199867e-03" rms="3.1585043668746948e-01" purity="4.9671071767807007e-01" nType="0">
        <Node pos="l" depth="1" NCoef="0" IVar="3" Cut="4.9802823066711426e+00" cType="1" res="-7.0354461669921875e-02" rms="2.6596349477767944e-01" purity="1.9278861582279205e-01" nType="0">
          <Node pos="l" depth="2" NCoef="0" IVar="-1" Cut="0.0000000000000000e+00" cType="1" res="-7.2524817660450935e-03" rms="1.6924534738063812e-01" purity="9.7680561244487762e-02" nType="-99"/>
          <Node pos="r" depth="2" NCoef="0" IVar="-1" Cut="0.0000000000000000e+00" cType="1" res="-2.1093644318170846e-04" rms="3.5653519630432129e-01" purity="3.3641609549522400e-01" nType="-99"/>
        </Node>
        <Node pos="r" depth="1" NCoef="0" IVar="36" Cut="1.4858274459838867e+00" cType="1" res="7.0772618055343628e-02" rms="3.3794540166854858e-01" purity="7.4087882041931152e-01" nType="0">
          <Node pos="l" depth="2" NCoef="0" IVar="-1" Cut="0.0000000000000000e+00" cType="1" res="3.4303471911698580e-03" rms="3.2629415392875671e-01" purity="7.8013420104980469e-01" nType="-99"/>
          <Node pos="r" depth="2" NCoef="0" IVar="-1" Cut="0.0000000000000000e+00" cType="1" res="-1.1761236935853958e-02" rms="3.1882673501968384e-01" purity="1.1627713590860367e-01" nType="-99"/>
        </Node>
      </Node>
    </BinaryTree>
    <BinaryTree type="DecisionTree" boostWeight="1.0000000000000000e+00" itree="142">
      <Node pos="s" depth="0" NCoef="0" IVar="14" Cut="1.4871129989624023e+00" cType="1" res="1.0915416292846203e-02" rms="3.1495520472526550e-01" purity="5.0113677978515625e-01" nType="0">
        <Node pos="l" depth="1" NCoef="0" IVar="2" Cut="1.8137772083282471e+00" cType="1" res="-6.0136556625366211e-02" rms="2.8393796086311340e-01" purity="2.4191416800022125e-01" nType="0">
          <Node pos="l" depth="2" NCoef="0" IVar="-1" Cut="0.0000000000000000e+00" cType="1" res="-8.0278683453798294e-03" rms="1.6999875009059906e-01" purity="7.0238158106803894e-02" nType="-99"/>
          <Node pos="r" depth="2" NCoef="0" IVar="-1" Cut="0.0000000000000000e+00" cType="1" res="-6.9908605655655265e-04" rms="3.2898575067520142e-01" purity="3.5128962993621826e-01" nType="-99"/>
        </Node>
        <Node pos="r" depth="1" NCoef="0" IVar="56" Cut="1.4854199886322021e+00" cType="1" res="8.1525191664695740e-02" rms="3.2810741662979126e-01" purity="7.5874608755111694e-01" nType="0">
          <Node pos="l" depth="2" NCoef="0" IVar="-1" Cut="0.0000000000000000e+00" cType="1" res="3.8691179361194372e-03" rms="3.1453752517700195e-01" purity="8.0030673742294312e-01" nType="-99"/>
          <Node pos="r" depth="2" NCoef="0" IVar="-1" Cut="0.0000000000000000e+00" cType="1" res="-1.1413102038204670e-02" rms="3.2486850023269653e-01" purity="1.1961627006530762e-01" nType="-99"/>
        </Node>
      </Node>
    </BinaryTree>
    <BinaryTree type="DecisionTree" boostWeight="1.0000000000000000e+00" itree="143">
      <Node pos="s" depth="0" NCoef="0" IVar="45" Cut="1.7062592506408691e+00" cType="1" res="1.0433686897158623e-02" rms="3.1393462419509888e-01" purity="4.9984824657440186e-01" nType="0">
        <Node pos="l" depth="1" NCoef="0" IVar="52" Cut="-1.5312244892120361e+00" cType="1" res="-9.5237776637077332e-02" rms="2.6834109425544739e-01" purity="2.0184992253780365e-01" nType="0">
          <Node pos="l" depth="2" NCoef="0" IVar="-1" Cut="0.0000000000000000e+00" cType="1" res="3.8046360714361072e-04" rms="3.3551710844039917e-01" purity="4.0372931957244873e-01" nType="-99"/>
          <Node pos="r" depth="2" NCoef="0" IVar="-1" Cut="0.0000000000000000e+00" cType="1" res="-6.9872722961008549e-03" rms="2.3412258923053741e-01" purity="1.3853892683982849e-01" nType="-99"/>
        </Node>
        <Node pos="r" depth="1" NCoef="0" IVar="56" Cut="1.4463146924972534e+00" cType="1" res="5.7673513889312744e-02" rms="3.2124692201614380e-01" purity="6.3306677341461182e-01" nType="0">
          <Node pos="l" depth="2" NCoef="0" IVar="-1" Cut="0.0000000000000000e+00" cType="1" res="3.2532662153244019e-03" rms="3.1516629457473755e-01" purity="6.7964202165603638e-01" nType="-99"/>
          <Node pos="r" depth="2" NCoef="0" IVar="-1" Cut="0.0000000000000000e+00" cType="1" res="-1.0967590846121311e-02" rms="2.5909295678138733e-01" purity="8.6939215660095215e-02" nType="-99"/>
        </Node>
      </Node>
    </BinaryTree>
    <BinaryTree type="DecisionTree" boostWeight="1.0000000000000000e+00" itree="144">
      <Node pos="s" depth="0" NCoef="0" IVar="2" Cut="1.9560232162475586e+00" cType="1" res="1.0828722268342972e-02" rms="3.1374216079711914e-01" purity="5.0031727552413940e-01" nType="0">
        <Node pos="l" depth="1" NCoef="0" IVar="2" Cut="7.0857739448547363e-01" cType="1" res="-8.4132745862007141e-02" rms="2.8308284282684326e-01" purity="2.3108564317226410e-01" nType="0">
          <Node pos="l" depth="2" NCoef="0" IVar="-1" Cut="0.0000000000000000e+00" cType="1" res="-1.2733207084238529e-02" rms="0.0000000000000000e+00" purity="-3.1963940709829330e-02" nType="-99"/>
          <Node pos="r" depth="2" NCoef="0" IVar="-1" Cut="0.0000000000000000e+00" cType="1" res="-2.8666411526501179e-03" rms="2.8179240226745605e-01" purity="2.5556692481040955e-01" nType="-99"/>
        </Node>
        <Node pos="r" depth="1" NCoef="0" IVar="56" Cut="1.4849827289581299e+00" cType="1" res="6.1979111284017563e-02" rms="3.1751644611358643e-01" purity="6.4533710479736328e-01" nType="0">
          <Node pos="l" depth="2" NCoef="0" IVar="-1" Cut="0.0000000000000000e+00" cType="1" res="3.3480601850897074e-03" rms="3.0889055132865906e-01" purity="6.8165099620819092e-01" nType="-99"/>
          <Node pos="r" depth="2" NCoef="0" IVar="-1" Cut="0.0000000000000000e+00" cType="1" res="-1.1085866019129753e-02" rms="3.0600377917289734e-01" purity="9.5637939870357513e-02" nType="-99"/>
        </Node>
      </Node>
    </BinaryTree>
    <BinaryTree type="DecisionTree" boostWeight="1.0000000000000000e+00" itree="145">
      <Node pos="s" depth="0" NCoef="0" IVar="45" Cut="1.6605032682418823e+00" cType="1" res="8.2990741357207298e-03" rms="3.1163990497589111e-01" purity="4.9738216400146484e-01" nType="0">
        <Node pos="l" depth="1" NCoef="0" IVar="45" Cut="1.1110751628875732e+00" cType="1" res="-1.0124494135379791e-01" rms="2.5955986976623535e-01" purity="1.9098588824272156e-01" nType="0">
          <Node pos="l" depth="2" NCoef="0" IVar="-1" Cut="0.0000000000000000e+00" cType="1" res="-9.6642980352044106e-03" rms="1.7696832120418549e-01" purity="8.2955151796340942e-02" nType="-99"/>
          <Node pos="r" depth="2" NCoef="0" IVar="-1" Cut="0.0000000000000000e+00" cType="1" res="-2.2836525458842516e-03" rms="3.0121123790740967e-01" purity="2.7995541691780090e-01" nType="-99"/>
        </Node>
        <Node pos="r" depth="1" NCoef="0" IVar="54" Cut="8.6760622262954712e-01" cType="1" res="5.3579550236463547e-02" rms="3.2000842690467834e-01" purity="6.2403231859207153e-01" nType="0">
          <Node pos="l" depth="2" NCoef="0" IVar="-1" Cut="0.0000000000000000e+00" cType="1" res="3.3813656773418188e-03" rms="3.0833217501640320e-01" purity="6.9166797399520874e-01" nType="-99"/>
          <Node pos="r" depth="2" NCoef="0" IVar="-1" Cut="0.0000000000000000e+00" cType="1" res="-6.0606817714869976e-03" rms="3.2731989026069641e-01" purity="2.1987998485565186e-01" nType="-99"/>
        </Node>
      </Node>
    </BinaryTree>
    <BinaryTree type="DecisionTree" boostWeight="1.0000000000000000e+00" itree="146">
      <Node pos="s" depth="0" NCoef="0" IVar="14" Cut="-1.2989367246627808e+00" cType="1" res="1.3687646947801113e-02" rms="3.1410732865333557e-01" purity="5.0441282987594604e-01" nType="0">
        <Node pos="l" depth="1" NCoef="0" IVar="53" Cut="-7.9672718048095703e-01" cType="1" res="-1.0078322142362595e-02" rms="0.0000000000000000e+00" purity="3.9827334694564342e-04" nType="-99"/>
        <Node pos="r" depth="1" NCoef="0" IVar="36" Cut="1.4471486806869507e+00" cType="1" res="5.0706587731838226e-02" rms="3.5084247589111328e-01" purity="6.5097993612289429e-01" nType="0">
          <Node pos="l" depth="2" NCoef="0" IVar="-1" Cut="0.0000000000000000e+00" cType="1" res="2.7397181838750839e-03" rms="3.4377562999725342e-01" purity="6.9222533702850342e-01" nType="-99"/>
          <Node pos="r" depth="2" NCoef="0" IVar="-1" Cut="0.0000000000000000e+00" cType="1" res="-9.6965869888663292e-03" rms="3.2073751091957092e-01" purity="1.3169790804386139e-01" nType="-99"/>
        </Node>
      </Node>
    </BinaryTree>
    <BinaryTree type="DecisionTree" boostWeight="1.0000000000000000e+00" itree="147">
      <Node pos="s" depth="0" NCoef="0" IVar="36" Cut="-1.4924387931823730e+00" cType="1" res="9.6818981692194939e-03" rms="3.1132581830024719e-01" purity="4.9913334846496582e-01" nType="0">
        <Node pos="l" depth="1" NCoef="0" IVar="14" Cut="-1.3763252496719360e+00" cType="1" res="6.6724039614200592e-02" rms="3.0224561691284180e-01" purity="6.2967032194137573e-01" nType="0">
          <Node pos="l" depth="2" NCoef="0" IVar="-1" Cut="0.0000000000000000e+00" cType="1" res="-9.4546610489487648e-03" rms="6.2980905175209045e-02" purity="9.4917444512248039e-03" nType="-99"/>
          <Node pos="r" depth="2" NCoef="0" IVar="-1" Cut="0.0000000000000000e+00" cType="1" res="3.9717070758342743e-03" rms="3.1910094618797302e-01" purity="7.6488375663757324e-01" nType="-99"/>
        </Node>
        <Node pos="r" depth="1" NCoef="0" IVar="36" Cut="1.4877376556396484e+00" cType="1" res="-7.5691595673561096e-02" rms="3.0512902140617371e-01" purity="3.0376198887825012e-01" nType="0">
          <Node pos="l" depth="2" NCoef="0" IVar="-1" Cut="0.0000000000000000e+00" cType="1" res="-2.1806261502206326e-03" rms="3.1335362792015076e-01" purity="3.5578811168670654e-01" nType="-99"/>
          <Node pos="r" depth="2" NCoef="0" IVar="-1" Cut="0.0000000000000000e+00" cType="1" res="-1.2295248918235302e-02" rms="2.0543165504932404e-01" purity="4.3508086353540421e-02" nType="-99"/>
        </Node>
      </Node>
    </BinaryTree>
    <BinaryTree type="DecisionTree" boostWeight="1.0000000000000000e+00" itree="148">
      <Node pos="s" depth="0" NCoef="0" IVar="1" Cut="3.2756955623626709e+00" cType="1" res="1.1083724908530712e-02" rms="3.1254050135612488e-01" purity="5.0035846233367920e-01" nType="0">
        <Node pos="l" depth="1" NCoef="0" IVar="36" Cut="-1.3764023780822754e+00" cType="1" res="-4.0861845016479492e-02" rms="3.1211465597152710e-01" purity="3.2802304625511169e-01" nType="0">
          <Node pos="l" depth="2" NCoef="0" IVar="-1" Cut="0.0000000000000000e+00" cType="1" res="7.7579185017384589e-05" rms="3.3093753457069397e-01" purity="4.2305466532707214e-01" nType="-99"/>
          <Node pos="r" depth="2" NCoef="0" IVar="-1" Cut="0.0000000000000000e+00" cType="1" res="-7.0377066731452942e-03" rms="2.4842424690723419e-01" purity="1.3538095355033875e-01" nType="-99"/>
        </Node>
        <Node pos="r" depth="1" NCoef="0" IVar="34" Cut="1.4093587398529053e+00" cType="1" res="9.9639706313610077e-02" rms="2.9273334145545959e-01" purity="7.9415321350097656e-01" nType="0">
          <Node pos="l" depth="2" NCoef="0" IVar="-1" Cut="0.0000000000000000e+00" cType="1" res="4.6700541861355305e-03" rms="2.7679431438446045e-01" purity="8.2620090246200562e-01" nType="-99"/>
          <Node pos="r" depth="2" NCoef="0" IVar="-1" Cut="0.0000000000000000e+00" cType="1" res="-7.1145528927445412e-03" rms="3.9887085556983948e-01" purity="2.5869974493980408e-01" nType="-99"/>
        </Node>
      </Node>
    </BinaryTree>
    <BinaryTree type="DecisionTree" boostWeight="1.0000000000000000e+00" itree="149">
      <Node pos="s" depth="0" NCoef="0" IVar="25" Cut="1.9156509637832642e+00" cType="1" res="1.0656747967004776e-02" rms="3.0971539020538330e-01" purity="5.0069636106491089e-01" nType="0">
        <Node pos="l" depth="1" NCoef="0" IVar="25" Cut="1.2201653718948364e+00" cType="1" res="-7.7401287853717804e-02" rms="2.8021720051765442e-01" purity="2.4220901727676392e-01" nType="0">
          <Node pos="l" depth="2" NCoef="0" IVar="-1" Cut="0.0000000000000000e+00" cType="1" res="-8.5399793460965157e-03" rms="2.1283224225044250e-01" purity="1.0560899972915649e-01" nType="-99"/>
          <Node pos="r" depth="2" NCoef="0" IVar="-1" Cut="0.0000000000000000e+00" cType="1" res="-1.4665356138721108e-03" rms="3.0838024616241455e-01" purity="3.3216771483421326e-01" nType="-99"/>
        </Node>
        <Node pos="r" depth="1" NCoef="0" IVar="34" Cut="1.3706684112548828e+00" cType="1" res="6.6634416580200195e-02" rms="3.1452041864395142e-01" purity="6.6501444578170776e-01" nType="0">
          <Node pos="l" depth="2" NCoef="0" IVar="-1" Cut="0.0000000000000000e+00" cType="1" res="3.6707236431539059e-03" rms="3.0390745401382446e-01" purity="7.1699857711791992e-01" nType="-99"/>
          <Node pos="r" depth="2" NCoef="0" IVar="-1" Cut="0.0000000000000000e+00" cType="1" res="-8.1783914938569069e-03" rms="3.1796243786811829e-01" purity="1.6761381924152374e-01" nType="-99"/>
        </Node>
      </Node>
    </BinaryTree>
    <BinaryTree type="DecisionTree" boostWeight="1.0000000000000000e+00" itree="150">
      <Node pos="s" depth="0" NCoef="0" IVar="56" Cut="-1.4924601316452026e+00" cType="1" res="7.9621514305472374e-03" rms="3.1199806928634644e-01" purity="4.9679625034332275e-01" nType="0">
        <Node pos="l" depth="1" NCoef="0" IVar="14" Cut="-1.3763210773468018e+00" cType="1" res="6.3744261860847473e-02" rms="3.0531930923461914e-01" purity="6.3028872013092041e-01" nType="0">
          <Node pos="l" depth="2" NCoef="0" IVar="-1" Cut="0.0000000000000000e+00" cType="1" res="-9.3116629868745804e-03" rms="6.9206684827804565e-02" purity="1.0392436757683754e-02" nType="-99"/>
          <Node pos="r" depth="2" NCoef="0" IVar="-1" Cut="0.0000000000000000e+00" cType="1" res="3.8111757021397352e-03" rms="3.2269310951232910e-01" purity="7.6148426532745361e-01" nType="-99"/>
        </Node>
        <Node pos="r" depth="1" NCoef="0" IVar="56" Cut="1.4868923425674438e+00" cType="1" res="-7.3943272233009338e-02" rms="3.0351144075393677e-01" purity="3.0078795552253723e-01" nType="0">
          <Node pos="l" depth="2" NCoef="0" IVar="-1" Cut="0.0000000000000000e+00" cType="1" res="-2.2357455454766750e-03" rms="3.1248879432678223e-01" purity="3.5249570012092590e-01" nType="-99"/>
          <Node pos="r" depth="2" NCoef="0" IVar="-1" Cut="0.0000000000000000e+00" cType="1" res="-1.1980266310274601e-02" rms="2.0692574977874756e-01" purity="3.9894845336675644e-02" nType="-99"/>
        </Node>
      </Node>
    </BinaryTree>
    <BinaryTree type="DecisionTree" boostWeight="1.0000000000000000e+00" itree="151">
      <Node pos="s" depth="0" NCoef="0" IVar="25" Cut="1.6191549301147461e+00" cType="1" res="1.2159440666437149e-02" rms="3.0902099609375000e-01" purity="5.0081783533096313e-01" nType="0">
        <Node pos="l" depth="1" NCoef="0" IVar="0" Cut="6.1694645881652832e-01" cType="1" res="-1.0155507922172546e-01" rms="2.4703504145145416e-01" purity="1.8588881194591522e-01" nType="0">
          <Node pos="l" depth="2" NCoef="0" IVar="-1" Cut="0.0000000000000000e+00" cType="1" res="-2.3757775779813528e-03" rms="2.8957867622375488e-01" purity="2.6741513609886169e-01" nType="-99"/>
          <Node pos="r" depth="2" NCoef="0" IVar="-1" Cut="0.0000000000000000e+00" cType="1" res="-9.4929533079266548e-03" rms="1.6523961722850800e-01" purity="9.1019712388515472e-02" nType="-99"/>
        </Node>
        <Node pos="r" depth="1" NCoef="0" IVar="2" Cut="8.8813960552215576e-01" cType="1" res="5.4986201226711273e-02" rms="3.1901553273200989e-01" purity="6.1942535638809204e-01" nType="0">
          <Node pos="l" depth="2" NCoef="0" IVar="-1" Cut="0.0000000000000000e+00" cType="1" res="-1.0608277283608913e-02" rms="2.8784549236297607e-01" purity="6.2757924199104309e-02" nType="-99"/>
          <Node pos="r" depth="2" NCoef="0" IVar="-1" Cut="0.0000000000000000e+00" cType="1" res="2.8666511643677950e-03" rms="3.1162825226783752e-01" purity="6.3788723945617676e-01" nType="-99"/>
        </Node>
      </Node>
    </BinaryTree>
    <BinaryTree type="DecisionTree" boostWeight="1.0000000000000000e+00" itree="152">
      <Node pos="s" depth="0" NCoef="0" IVar="25" Cut="1.2992964982986450e+00" cType="1" res="8.7621016427874565e-03" rms="3.0973169207572937e-01" purity="5.0067663192749023e-01" nType="0">
        <Node pos="l" depth="1" NCoef="0" IVar="29" Cut="2.8588078022003174e+00" cType="1" res="-1.3922081887722015e-01" rms="2.1706588566303253e-01" purity="1.2143924087285995e-01" nType="0">
          <Node pos="l" depth="2" NCoef="0" IVar="-1" Cut="0.0000000000000000e+00" cType="1" res="-1.0640519671142101e-02" rms="1.6222612559795380e-01" purity="7.0920348167419434e-02" nType="-99"/>
          <Node pos="r" depth="2" NCoef="0" IVar="-1" Cut="0.0000000000000000e+00" cType="1" res="-3.2043692190200090e-03" rms="2.8173926472663879e-01" purity="2.2152714431285858e-01" nType="-99"/>
        </Node>
        <Node pos="r" depth="1" NCoef="0" IVar="34" Cut="1.4093587398529053e+00" cType="1" res="4.0304552763700485e-02" rms="3.1729507446289062e-01" purity="5.8151084184646606e-01" nType="0">
          <Node pos="l" depth="2" NCoef="0" IVar="-1" Cut="0.0000000000000000e+00" cType="1" res="2.6396957691758871e-03" rms="3.1417244672775269e-01" purity="6.3231784105300903e-01" nType="-99"/>
          <Node pos="r" depth="2" NCoef="0" IVar="-1" Cut="0.0000000000000000e+00" cType="1" res="-9.5963766798377037e-03" rms="2.5645506381988525e-01" purity="1.0738206654787064e-01" nType="-99"/>
        </Node>
      </Node>
    </BinaryTree>
    <BinaryTree type="DecisionTree" boostWeight="1.0000000000000000e+00" itree="153">
      <Node pos="s" depth="0" NCoef="0" IVar="45" Cut="1.5841673612594604e+00" cType="1" res="1.2356352061033249e-02" rms="3.1242349743843079e-01" purity="5.0233602523803711e-01" nType="0">
        <Node pos="l" depth="1" NCoef="0" IVar="0" Cut="7.6040560007095337e-01" cType="1" res="-9.7833663225173950e-02" rms="2.5655269622802734e-01" purity="1.8414267897605896e-01" nType="0">
          <Node pos="l" depth="2" NCoef="0" IVar="-1" Cut="0.0000000000000000e+00" cType="1" res="-2.9553715139627457e-03" rms="2.8634715080261230e-01" purity="2.4314327538013458e-01" nType="-99"/>
          <Node pos="r" depth="2" NCoef="0" IVar="-1" Cut="0.0000000000000000e+00" cType="1" res="-1.0813219472765923e-02" rms="1.5153701603412628e-01" purity="6.3233904540538788e-02" nType="-99"/>
        </Node>
        <Node pos="r" depth="1" NCoef="0" IVar="54" Cut="1.2544955015182495e+00" cType="1" res="5.2154880017042160e-02" rms="3.2112422585487366e-01" purity="6.1726140975952148e-01" nType="0">
          <Node pos="l" depth="2" NCoef="0" IVar="-1" Cut="0.0000000000000000e+00" cType="1" res="3.2113841734826565e-03" rms="3.1314367055892944e-01" purity="6.7702907323837280e-01" nType="-99"/>
          <Node pos="r" depth="2" NCoef="0" IVar="-1" Cut="0.0000000000000000e+00" cType="1" res="-6.8246950395405293e-03" rms="3.1505790352821350e-01" purity="1.7785489559173584e-01" nType="-99"/>
        </Node>
      </Node>
    </BinaryTree>
    <BinaryTree type="DecisionTree" boostWeight="1.0000000000000000e+00" itree="154">
      <Node pos="s" depth="0" NCoef="0" IVar="14" Cut="1.4871129989624023e+00" cType="1" res="8.6735431104898453e-03" rms="3.0796614289283752e-01" purity="4.9811926484107971e-01" nType="0">
        <Node pos="l" depth="1" NCoef="0" IVar="25" Cut="2.2001590728759766e+00" cType="1" res="-6.0077056288719177e-02" rms="2.7591940760612488e-01" purity="2.3797036707401276e-01" nType="0">
          <Node pos="l" depth="2" NCoef="0" IVar="-1" Cut="0.0000000000000000e+00" cType="1" res="-6.5835639834403992e-03" rms="1.9185449182987213e-01" purity="1.0071210563182831e-01" nType="-99"/>
          <Node pos="r" depth="2" NCoef="0" IVar="-1" Cut="0.0000000000000000e+00" cType="1" res="2.6420567883178592e-04" rms="3.6222752928733826e-01" purity="4.5519414544105530e-01" nType="-99"/>
        </Node>
        <Node pos="r" depth="1" NCoef="0" IVar="54" Cut="1.2931843996047974e+00" cType="1" res="7.7388107776641846e-02" rms="3.2264390587806702e-01" purity="7.5813174247741699e-01" nType="0">
          <Node pos="l" depth="2" NCoef="0" IVar="-1" Cut="0.0000000000000000e+00" cType="1" res="3.9820792153477669e-03" rms="3.0226644873619080e-01" purity="8.1394654512405396e-01" nType="-99"/>
          <Node pos="r" depth="2" NCoef="0" IVar="-1" Cut="0.0000000000000000e+00" cType="1" res="-7.0212236605584621e-03" rms="3.8773906230926514e-01" purity="2.4765114486217499e-01" nType="-99"/>
        </Node>
      </Node>
    </BinaryTree>
    <BinaryTree type="DecisionTree" boostWeight="1.0000000000000000e+00" itree="155">
      <Node pos="s" depth="0" NCoef="0" IVar="45" Cut="1.1895664930343628e+00" cType="1" res="1.1182268150150776e-02" rms="3.0758634209632874e-01" purity="5.0213879346847534e-01" nType="0">
        <Node pos="l" depth="1" NCoef="0" IVar="49" Cut="2.8349177837371826e+00" cType="1" res="-1.4945198595523834e-01" rms="1.9437046349048615e-01" purity="9.5734290778636932e-02" nType="0">
          <Node pos="l" depth="2" NCoef="0" IVar="-1" Cut="0.0000000000000000e+00" cType="1" res="-1.1945671401917934e-02" rms="1.1728993058204651e-01" purity="3.8261137902736664e-02" nType="-99"/>
          <Node pos="r" depth="2" NCoef="0" IVar="-1" Cut="0.0000000000000000e+00" cType="1" res="-2.7880617417395115e-03" rms="2.7876791357994080e-01" purity="2.2356739640235901e-01" nType="-99"/>
        </Node>
        <Node pos="r" depth="1" NCoef="0" IVar="14" Cut="-1.2989310026168823e+00" cType="1" res="3.8776032626628876e-02" rms="3.1492477655410767e-01" purity="5.7195103168487549e-01" nType="0">
          <Node pos="l" depth="2" NCoef="0" IVar="-1" Cut="0.0000000000000000e+00" cType="1" res="-9.1317947953939438e-03" rms="7.7620081603527069e-02" purity="1.2308022938668728e-02" nType="-99"/>
          <Node pos="r" depth="2" NCoef="0" IVar="-1" Cut="0.0000000000000000e+00" cType="1" res="2.8397394344210625e-03" rms="3.3996099233627319e-01" purity="7.0908683538436890e-01" nType="-99"/>
        </Node>
      </Node>
    </BinaryTree>
    <BinaryTree type="DecisionTree" boostWeight="1.0000000000000000e+00" itree="156">
      <Node pos="s" depth="0" NCoef="0" IVar="25" Cut="1.6547884941101074e+00" cType="1" res="9.1425944119691849e-03" rms="3.0992633104324341e-01" purity="4.9921390414237976e-01" nType="0">
        <Node pos="l" depth="1" NCoef="0" IVar="32" Cut="-1.5312349796295166e+00" cType="1" res="-9.3046978116035461e-02" rms="2.5486597418785095e-01" purity="1.9434678554534912e-01" nType="0">
          <Node pos="l" depth="2" NCoef="0" IVar="-1" Cut="0.0000000000000000e+00" cType="1" res="2.5200811796821654e-04" rms="3.2744610309600830e-01" purity="3.8844454288482666e-01" nType="-99"/>
          <Node pos="r" depth="2" NCoef="0" IVar="-1" Cut="0.0000000000000000e+00" cType="1" res="-7.1224919520318508e-03" rms="2.1728715300559998e-01" purity="1.3188822567462921e-01" nType="-99"/>
        </Node>
        <Node pos="r" depth="1" NCoef="0" IVar="36" Cut="1.4084697961807251e+00" cType="1" res="5.0477199256420135e-02" rms="3.2046920061111450e-01" purity="6.2252944707870483e-01" nType="0">
          <Node pos="l" depth="2" NCoef="0" IVar="-1" Cut="0.0000000000000000e+00" cType="1" res="3.0332226306200027e-03" rms="3.1403651833534241e-01" purity="6.7224615812301636e-01" nType="-99"/>
          <Node pos="r" depth="2" NCoef="0" IVar="-1" Cut="0.0000000000000000e+00" cType="1" res="-9.0086748823523521e-03" rms="2.9433026909828186e-01" purity="1.2466369569301605e-01" nType="-99"/>
        </Node>
      </Node>
    </BinaryTree>
    <BinaryTree type="DecisionTree" boostWeight="1.0000000000000000e+00" itree="157">
      <Node pos="s" depth="0" NCoef="0" IVar="14" Cut="1.6700902953743935e-02" cType="1" res="1.2864235788583755e-02" rms="3.0792254209518433e-01" purity="5.0247329473495483e-01" nType="0">
        <Node pos="l" depth="1" NCoef="0" IVar="65" Cut="6.8494743108749390e-01" cType="1" res="-8.7471172213554382e-02" rms="1.6209439933300018e-01" purity="5.5158287286758423e-02" nType="0">
          <Node pos="l" depth="2" NCoef="0" IVar="-1" Cut="0.0000000000000000e+00" cType="1" res="-4.8589855432510376e-03" rms="1.9589586555957794e-01" purity="7.7893443405628204e-02" nType="-99"/>
          <Node pos="r" depth="2" NCoef="0" IVar="-1" Cut="0.0000000000000000e+00" cType="1" res="-1.1750009842216969e-02" rms="0.0000000000000000e+00" purity="-1.0368881747126579e-02" nType="-99"/>
        </Node>
        <Node pos="r" depth="1" NCoef="0" IVar="36" Cut="1.4856319427490234e+00" cType="1" res="5.4798372089862823e-02" rms="3.4277781844139099e-01" purity="6.8942397832870483e-01" nType="0">
          <Node pos="l" depth="2" NCoef="0" IVar="-1" Cut="0.0000000000000000e+00" cType="1" res="2.8136258479207754e-03" rms="3.3568543195724487e-01" purity="7.2558349370956421e-01" nType="-99"/>
          <Node pos="r" depth="2" NCoef="0" IVar="-1" Cut="0.0000000000000000e+00" cType="1" res="-1.1391204781830311e-02" rms="3.0486828088760376e-01" purity="9.7600407898426056e-02" nType="-99"/>
        </Node>
      </Node>
    </BinaryTree>
    <BinaryTree type="DecisionTree" boostWeight="1.0000000000000000e+00" itree="158">
      <Node pos="s" depth="0" NCoef="0" IVar="2" Cut="1.8733389377593994e+00" cType="1" res="9.1458922252058983e-03" rms="3.0848607420921326e-01" purity="4.9887919425964355e-01" nType="0">
        <Node pos="l" depth="1" NCoef="0" IVar="2" Cut="7.1253645420074463e-01" cType="1" res="-8.8513351976871490e-02" rms="2.7262964844703674e-01" purity="2.1015813946723938e-01" nType="0">
          <Node pos="l" depth="2" NCoef="0" IVar="-1" Cut="0.0000000000000000e+00" cType="1" res="-1.1634716764092445e-02" rms="1.7645962536334991e-01" purity="1.3450791593641043e-03" nType="-99"/>
          <Node pos="r" depth="2" NCoef="0" IVar="-1" Cut="0.0000000000000000e+00" cType="1" res="-3.2466861885040998e-03" rms="2.6838505268096924e-01" purity="2.3315195739269257e-01" nType="-99"/>
        </Node>
        <Node pos="r" depth="1" NCoef="0" IVar="36" Cut="1.4856319427490234e+00" cType="1" res="5.3107269108295441e-02" rms="3.1355622410774231e-01" purity="6.2884718179702759e-01" nType="0">
          <Node pos="l" depth="2" NCoef="0" IVar="-1" Cut="0.0000000000000000e+00" cType="1" res="3.0346761923283339e-03" rms="3.0604299902915955e-01" purity="6.6393756866455078e-01" nType="-99"/>
          <Node pos="r" depth="2" NCoef="0" IVar="-1" Cut="0.0000000000000000e+00" cType="1" res="-1.0619563050568104e-02" rms="3.0626192688941956e-01" purity="9.6256695687770844e-02" nType="-99"/>
        </Node>
      </Node>
    </BinaryTree>
    <BinaryTree type="DecisionTree" boostWeight="1.0000000000000000e+00" itree="159">
      <Node pos="s" depth="0" NCoef="0" IVar="45" Cut="1.4736361503601074e+00" cType="1" res="9.9840443581342697e-03" rms="3.0597954988479614e-01" purity="5.0082182884216309e-01" nType="0">
        <Node pos="l" depth="1" NCoef="0" IVar="49" Cut="2.8745405673980713e+00" cType="1" res="-1.0930712521076202e-01" rms="2.3675483465194702e-01" purity="1.5975207090377808e-01" nType="0">
          <Node pos="l" depth="2" NCoef="0" IVar="-1" Cut="0.0000000000000000e+00" cType="1" res="-9.0895211324095726e-03" rms="1.9137102365493774e-01" purity="9.7169280052185059e-02" nType="-99"/>
          <Node pos="r" depth="2" NCoef="0" IVar="-1" Cut="0.0000000000000000e+00" cType="1" res="-2.0678022410720587e-03" rms="2.7904522418975830e-01" purity="2.5520497560501099e-01" nType="-99"/>
        </Node>
        <Node pos="r" depth="1" NCoef="0" IVar="2" Cut="9.8053205013275146e-01" cType="1" res="4.5321602374315262e-02" rms="3.1510129570960999e-01" purity="6.0185664892196655e-01" nType="0">
          <Node pos="l" depth="2" NCoef="0" IVar="-1" Cut="0.0000000000000000e+00" cType="1" res="-1.0832433588802814e-02" rms="2.6592117547988892e-01" purity="6.8176753818988800e-02" nType="-99"/>
          <Node pos="r" depth="2" NCoef="0" IVar="-1" Cut="0.0000000000000000e+00" cType="1" res="2.6154203806072474e-03" rms="3.0806177854537964e-01" purity="6.2466299533843994e-01" nType="-99"/>
        </Node>
      </Node>
    </BinaryTree>
    <BinaryTree type="DecisionTree" boostWeight="1.0000000000000000e+00" itree="160">
      <Node pos="s" depth="0" NCoef="0" IVar="2" Cut="1.7243627309799194e+00" cType="1" res="1.0707015171647072e-02" rms="3.0576822161674500e-01" purity="5.0221741199493408e-01" nType="0">
        <Node pos="l" depth="1" NCoef="0" IVar="2" Cut="6.4059650897979736e-01" cType="1" res="-1.0350222885608673e-01" rms="2.6868236064910889e-01" purity="1.9000618159770966e-01" nType="0">
          <Node pos="l" depth="2" NCoef="0" IVar="-1" Cut="0.0000000000000000e+00" cType="1" res="-1.1487675830721855e-02" rms="1.7881056666374207e-01" purity="-5.4320169147104025e-04" nType="-99"/>
          <Node pos="r" depth="2" NCoef="0" IVar="-1" Cut="0.0000000000000000e+00" cType="1" res="-3.9027119055390358e-03" rms="2.6438930630683899e-01" purity="2.1424953639507294e-01" nType="-99"/>
        </Node>
        <Node pos="r" depth="1" NCoef="0" IVar="56" Cut="1.3689785003662109e+00" cType="1" res="4.7954872250556946e-02" rms="3.0789735913276672e-01" purity="6.0404109954833984e-01" nType="0">
          <Node pos="l" depth="2" NCoef="0" IVar="-1" Cut="0.0000000000000000e+00" cType="1" res="3.0378818046301603e-03" rms="3.0044925212860107e-01" purity="6.5302580595016479e-01" nType="-99"/>
          <Node pos="r" depth="2" NCoef="0" IVar="-1" Cut="0.0000000000000000e+00" cType="1" res="-8.1801405176520348e-03" rms="2.9783636331558228e-01" purity="1.4257195591926575e-01" nType="-99"/>
        </Node>
      </Node>
    </BinaryTree>
    <BinaryTree type="DecisionTree" boostWeight="1.0000000000000000e+00" itree="161">
      <Node pos="s" depth="0" NCoef="0" IVar="56" Cut="-1.4151239395141602e+00" cType="1" res="9.4522861763834953e-03" rms="3.0792915821075439e-01" purity="4.9971005320549011e-01" nType="0">
        <Node pos="l" depth="1" NCoef="0" IVar="34" Cut="-1.0283064842224121e+00" cType="1" res="5.1567409187555313e-02" rms="3.0476242303848267e-01" purity="6.0383856296539307e-01" nType="0">
          <Node pos="l" depth="2" NCoef="0" IVar="-1" Cut="0.0000000000000000e+00" cType="1" res="3.9517660625278950e-03" rms="2.8336647152900696e-01" purity="7.0169609785079956e-01" nType="-99"/>
          <Node pos="r" depth="2" NCoef="0" IVar="-1" Cut="0.0000000000000000e+00" cType="1" res="-3.8459883071482182e-03" rms="3.2977753877639771e-01" purity="3.0221393704414368e-01" nType="-99"/>
        </Node>
        <Node pos="r" depth="1" NCoef="0" IVar="56" Cut="1.4888019561767578e+00" cType="1" res="-8.7161839008331299e-02" rms="2.9303273558616638e-01" purity="2.6083433628082275e-01" nType="0">
          <Node pos="l" depth="2" NCoef="0" IVar="-1" Cut="0.0000000000000000e+00" cType="1" res="-2.7170572429895401e-03" rms="3.0538818240165710e-01" purity="3.2063224911689758e-01" nType="-99"/>
          <Node pos="r" depth="2" NCoef="0" IVar="-1" Cut="0.0000000000000000e+00" cType="1" res="-1.1645553633570671e-02" rms="2.0653294026851654e-01" purity="4.4938407838344574e-02" nType="-99"/>
        </Node>
      </Node>
    </BinaryTree>
    <BinaryTree type="DecisionTree" boostWeight="1.0000000000000000e+00" itree="162">
      <Node pos="s" depth="0" NCoef="0" IVar="14" Cut="1.4870474338531494e+00" cType="1" res="1.0621008463203907e-02" rms="3.0770215392112732e-01" purity="5.0119620561599731e-01" nType="0">
        <Node pos="l" depth="1" NCoef="0" IVar="1" Cut="3.4287717342376709e+00" cType="1" res="-5.2693784236907959e-02" rms="2.8238061070442200e-01" purity="2.4550512433052063e-01" nType="0">
          <Node pos="l" depth="2" NCoef="0" IVar="-1" Cut="0.0000000000000000e+00" cType="1" res="-4.6197632327675819e-03" rms="2.5040426850318909e-01" purity="1.5525880455970764e-01" nType="-99"/>
          <Node pos="r" depth="2" NCoef="0" IVar="-1" Cut="0.0000000000000000e+00" cType="1" res="1.6767672495916486e-03" rms="3.6919915676116943e-01" purity="6.0475558042526245e-01" nType="-99"/>
        </Node>
        <Node pos="r" depth="1" NCoef="0" IVar="36" Cut="1.4858274459838867e+00" cType="1" res="7.4054501950740814e-02" rms="3.1876379251480103e-01" purity="7.5736665725708008e-01" nType="0">
          <Node pos="l" depth="2" NCoef="0" IVar="-1" Cut="0.0000000000000000e+00" cType="1" res="3.6778377834707499e-03" rms="3.0651915073394775e-01" purity="7.9890513420104980e-01" nType="-99"/>
          <Node pos="r" depth="2" NCoef="0" IVar="-1" Cut="0.0000000000000000e+00" cType="1" res="-1.0947377420961857e-02" rms="3.2122600078582764e-01" purity="1.1547454446554184e-01" nType="-99"/>
        </Node>
      </Node>
    </BinaryTree>
    <BinaryTree type="DecisionTree" boostWeight="1.0000000000000000e+00" itree="163">
      <Node pos="s" depth="0" NCoef="0" IVar="2" Cut="1.8577412366867065e+00" cType="1" res="6.0530845075845718e-03" rms="3.0531984567642212e-01" purity="4.9580928683280945e-01" nType="0">
        <Node pos="l" depth="1" NCoef="0" IVar="2" Cut="4.8440498113632202e-01" cType="1" res="-8.8303908705711365e-02" rms="2.7053755521774292e-01" purity="2.0443284511566162e-01" nType="0">
          <Node pos="l" depth="2" NCoef="0" IVar="-1" Cut="0.0000000000000000e+00" cType="1" res="-1.2681711465120316e-02" rms="0.0000000000000000e+00" purity="-5.2934300154447556e-02" nType="-99"/>
          <Node pos="r" depth="2" NCoef="0" IVar="-1" Cut="0.0000000000000000e+00" cType="1" res="-3.5356616135686636e-03" rms="2.6846846938133240e-01" purity="2.2312431037425995e-01" nType="-99"/>
        </Node>
        <Node pos="r" depth="1" NCoef="0" IVar="56" Cut="-7.5776642560958862e-01" cType="1" res="4.7345593571662903e-02" rms="3.1045818328857422e-01" purity="6.2332141399383545e-01" nType="0">
          <Node pos="l" depth="2" NCoef="0" IVar="-1" Cut="0.0000000000000000e+00" cType="1" res="3.4190816804766655e-03" rms="2.9667654633522034e-01" purity="7.0021259784698486e-01" nType="-99"/>
          <Node pos="r" depth="2" NCoef="0" IVar="-1" Cut="0.0000000000000000e+00" cType="1" res="-4.1534239426255226e-03" rms="3.3046844601631165e-01" purity="2.9881969094276428e-01" nType="-99"/>
        </Node>
      </Node>
    </BinaryTree>
    <BinaryTree type="DecisionTree" boostWeight="1.0000000000000000e+00" itree="164">
      <Node pos="s" depth="0" NCoef="0" IVar="14" Cut="1.4871129989624023e+00" cType="1" res="9.9155241623520851e-03" rms="3.0350962281227112e-01" purity="5.0207388401031494e-01" nType="0">
        <Node pos="l" depth="1" NCoef="0" IVar="2" Cut="1.7649111747741699e+00" cType="1" res="-5.4814856499433517e-02" rms="2.7430009841918945e-01" purity="2.4163994193077087e-01" nType="0">
          <Node pos="l" depth="2" NCoef="0" IVar="-1" Cut="0.0000000000000000e+00" cType="1" res="-8.1502106040716171e-03" rms="1.4414188265800476e-01" purity="6.2938489019870758e-02" nType="-99"/>
          <Node pos="r" depth="2" NCoef="0" IVar="-1" Cut="0.0000000000000000e+00" cType="1" res="-7.8912719618529081e-04" rms="3.1865310668945312e-01" purity="3.4193226695060730e-01" nType="-99"/>
        </Node>
        <Node pos="r" depth="1" NCoef="0" IVar="56" Cut="1.4080727100372314e+00" cType="1" res="7.4026539921760559e-02" rms="3.1713405251502991e-01" purity="7.6001584529876709e-01" nType="0">
          <Node pos="l" depth="2" NCoef="0" IVar="-1" Cut="0.0000000000000000e+00" cType="1" res="3.8159592077136040e-03" rms="3.0260258913040161e-01" purity="8.1013017892837524e-01" nType="-99"/>
          <Node pos="r" depth="2" NCoef="0" IVar="-1" Cut="0.0000000000000000e+00" cType="1" res="-8.9486967772245407e-03" rms="3.3915051817893982e-01" purity="1.6791890561580658e-01" nType="-99"/>
        </Node>
      </Node>
    </BinaryTree>
    <BinaryTree type="DecisionTree" boostWeight="1.0000000000000000e+00" itree="165">
      <Node pos="s" depth="0" NCoef="0" IVar="56" Cut="-1.2991197109222412e+00" cType="1" res="1.0542502626776695e-02" rms="3.0480489134788513e-01" purity="5.0322604179382324e-01" nType="0">
        <Node pos="l" depth="1" NCoef="0" IVar="36" Cut="-1.4537600278854370e+00" cType="1" res="4.8198681324720383e-02" rms="3.0484780669212341e-01" purity="5.9682637453079224e-01" nType="0">
          <Node pos="l" depth="2" NCoef="0" IVar="-1" Cut="0.0000000000000000e+00" cType="1" res="4.0358230471611023e-03" rms="2.8435584902763367e-01" purity="7.0698744058609009e-01" nType="-99"/>
          <Node pos="r" depth="2" NCoef="0" IVar="-1" Cut="0.0000000000000000e+00" cType="1" res="-2.7327889110893011e-03" rms="3.2228145003318787e-01" purity="3.4980627894401550e-01" nType="-99"/>
        </Node>
        <Node pos="r" depth="1" NCoef="0" IVar="56" Cut="1.4916669130325317e+00" cType="1" res="-9.9035903811454773e-02" rms="2.7694070339202881e-01" purity="2.3085185885429382e-01" nType="0">
          <Node pos="l" depth="2" NCoef="0" IVar="-1" Cut="0.0000000000000000e+00" cType="1" res="-3.2843854278326035e-03" rms="2.9236492514610291e-01" purity="2.9554337263107300e-01" nType="-99"/>
          <Node pos="r" depth="2" NCoef="0" IVar="-1" Cut="0.0000000000000000e+00" cType="1" res="-1.1934513226151466e-02" rms="1.9335947930812836e-01" purity="3.8246158510446548e-02" nType="-99"/>
        </Node>
      </Node>
    </BinaryTree>
    <BinaryTree type="DecisionTree" boostWeight="1.0000000000000000e+00" itree="166">
      <Node pos="s" depth="0" NCoef="0" IVar="25" Cut="1.5005565881729126e+00" cType="1" res="1.0352075099945068e-02" rms="3.0442720651626587e-01" purity="4.9933281540870667e-01" nType="0">
        <Node pos="l" depth="1" NCoef="0" IVar="0" Cut="6.6557866334915161e-01" cType="1" res="-1.0218214243650436e-01" rms="2.3966827988624573e-01" purity="1.6765743494033813e-01" nType="0">
          <Node pos="l" depth="2" NCoef="0" IVar="-1" Cut="0.0000000000000000e+00" cType="1" res="-2.8206801507622004e-03" rms="2.7890947461128235e-01" purity="2.4235950410366058e-01" nType="-99"/>
          <Node pos="r" depth="2" NCoef="0" IVar="-1" Cut="0.0000000000000000e+00" cType="1" res="-1.0569354519248009e-02" rms="1.5251943469047546e-01" purity="6.8886339664459229e-02" nType="-99"/>
        </Node>
        <Node pos="r" depth="1" NCoef="0" IVar="34" Cut="1.3706684112548828e+00" cType="1" res="4.5413441956043243e-02" rms="3.1381350755691528e-01" purity="6.0267019271850586e-01" nType="0">
          <Node pos="l" depth="2" NCoef="0" IVar="-1" Cut="0.0000000000000000e+00" cType="1" res="2.9089606832712889e-03" rms="3.0890721082687378e-01" purity="6.5618228912353516e-01" nType="-99"/>
          <Node pos="r" depth="2" NCoef="0" IVar="-1" Cut="0.0000000000000000e+00" cType="1" res="-8.5074007511138916e-03" rms="2.8057631850242615e-01" purity="1.3109424710273743e-01" nType="-99"/>
        </Node>
      </Node>
    </BinaryTree>
    <BinaryTree type="DecisionTree" boostWeight="1.0000000000000000e+00" itree="167">
      <Node pos="s" depth="0" NCoef="0" IVar="14" Cut="-1.1054656505584717e+00" cType="1" res="9.1086644679307938e-03" rms="3.0412420630455017e-01" purity="5.0101953744888306e-01" nType="0">
        <Node pos="l" depth="1" NCoef="0" IVar="2" Cut="1.7302298545837402e+00" cType="1" res="-1.0101582854986191e-01" rms="6.9149262271821499e-03" purity="1.3876600190997124e-02" nType="0">
          <Node pos="l" depth="2" NCoef="0" IVar="-1" Cut="0.0000000000000000e+00" cType="1" res="-1.7209025099873543e-02" rms="0.0000000000000000e+00" purity="-6.4334921538829803e-02" nType="-99"/>
          <Node pos="r" depth="2" NCoef="0" IVar="-1" Cut="0.0000000000000000e+00" cType="1" res="-6.0077193193137646e-03" rms="1.9742108881473541e-01" purity="5.9375606477260590e-02" nType="-99"/>
        </Node>
        <Node pos="r" depth="1" NCoef="0" IVar="2" Cut="8.7890726327896118e-01" cType="1" res="4.5125965029001236e-02" rms="3.4272807836532593e-01" purity="6.6034442186355591e-01" nType="0">
          <Node pos="l" depth="2" NCoef="0" IVar="-1" Cut="0.0000000000000000e+00" cType="1" res="-9.9021364003419876e-03" rms="2.9685100913047791e-01" purity="7.9653657972812653e-02" nType="-99"/>
          <Node pos="r" depth="2" NCoef="0" IVar="-1" Cut="0.0000000000000000e+00" cType="1" res="2.4019225966185331e-03" rms="3.3587917685508728e-01" purity="6.8380677700042725e-01" nType="-99"/>
        </Node>
      </Node>
    </BinaryTree>
    <BinaryTree type="DecisionTree" boostWeight="1.0000000000000000e+00" itree="168">
      <Node pos="s" depth="0" NCoef="0" IVar="45" Cut="1.6654654741287231e+00" cType="1" res="8.5496623069047928e-03" rms="3.0291363596916199e-01" purity="4.9972885847091675e-01" nType="0">
        <Node pos="l" depth="1" NCoef="0" IVar="56" Cut="-1.4924952983856201e+00" cType="1" res="-9.1401912271976471e-02" rms="2.5087541341781616e-01" purity="1.9045574963092804e-01" nType="0">
          <Node pos="l" depth="2" NCoef="0" IVar="-1" Cut="0.0000000000000000e+00" cType="1" res="-1.5846346504986286e-03" rms="3.0601540207862854e-01" purity="3.1855797767639160e-01" nType="-99"/>
          <Node pos="r" depth="2" NCoef="0" IVar="-1" Cut="0.0000000000000000e+00" cType="1" res="-8.3789173513650894e-03" rms="1.8740658462047577e-01" purity="9.3157842755317688e-02" nType="-99"/>
        </Node>
        <Node pos="r" depth="1" NCoef="0" IVar="2" Cut="8.8973134756088257e-01" cType="1" res="4.9803242087364197e-02" rms="3.1277108192443848e-01" purity="6.2737691402435303e-01" nType="0">
          <Node pos="l" depth="2" NCoef="0" IVar="-1" Cut="0.0000000000000000e+00" cType="1" res="-1.0677310638129711e-02" rms="2.7871933579444885e-01" purity="5.8626547455787659e-02" nType="-99"/>
          <Node pos="r" depth="2" NCoef="0" IVar="-1" Cut="0.0000000000000000e+00" cType="1" res="2.7186519000679255e-03" rms="3.0592238903045654e-01" purity="6.4594995975494385e-01" nType="-99"/>
        </Node>
      </Node>
    </BinaryTree>
    <BinaryTree type="DecisionTree" boostWeight="1.0000000000000000e+00" itree="169">
      <Node pos="s" depth="0" NCoef="0" IVar="25" Cut="1.8886344432830811e+00" cType="1" res="1.0282259434461594e-02" rms="3.0199667811393738e-01" purity="5.0173008441925049e-01" nType="0">
        <Node pos="l" depth="1" NCoef="0" IVar="25" Cut="1.0011156797409058e+00" cType="1" res="-6.8955153226852417e-02" rms="2.6803854107856750e-01" purity="2.4301907420158386e-01" nType="0">
          <Node pos="l" depth="2" NCoef="0" IVar="-1" Cut="0.0000000000000000e+00" cType="1" res="-1.0014893487095833e-02" rms="1.6664911806583405e-01" purity="6.9180198013782501e-02" nType="-99"/>
          <Node pos="r" depth="2" NCoef="0" IVar="-1" Cut="0.0000000000000000e+00" cType="1" res="-1.6552144661545753e-03" rms="2.9161313176155090e-01" purity="3.1224390864372253e-01" nType="-99"/>
        </Node>
        <Node pos="r" depth="1" NCoef="0" IVar="2" Cut="1.0056756734848022e+00" cType="1" res="5.9379849582910538e-02" rms="3.1128022074699402e-01" purity="6.6203427314758301e-01" nType="0">
          <Node pos="l" depth="2" NCoef="0" IVar="-1" Cut="0.0000000000000000e+00" cType="1" res="-9.9839651957154274e-03" rms="2.9547604918479919e-01" purity="1.1518858373165131e-01" nType="-99"/>
          <Node pos="r" depth="2" NCoef="0" IVar="-1" Cut="0.0000000000000000e+00" cType="1" res="3.1248535960912704e-03" rms="3.0361461639404297e-01" purity="6.8109399080276489e-01" nType="-99"/>
        </Node>
      </Node>
    </BinaryTree>
    <BinaryTree type="DecisionTree" boostWeight="1.0000000000000000e+00" itree="170">
      <Node pos="s" depth="0" NCoef="0" IVar="14" Cut="1.4097228050231934e+00" cType="1" res="7.3740724474191666e-03" rms="3.0142894387245178e-01" purity="4.9904802441596985e-01" nType="0">
        <Node pos="l" depth="1" NCoef="0" IVar="3" Cut="5.0166177749633789e+00" cType="1" res="-6.5228417515754700e-02" rms="2.4661324918270111e-01" purity="1.6579438745975494e-01" nType="0">
          <Node pos="l" depth="2" NCoef="0" IVar="-1" Cut="0.0000000000000000e+00" cType="1" res="-7.3378575034439564e-03" rms="1.4602997899055481e-01" purity="8.0766417086124420e-02" nType="-99"/>
          <Node pos="r" depth="2" NCoef="0" IVar="-1" Cut="0.0000000000000000e+00" cType="1" res="1.3691421190742403e-04" rms="3.5332936048507690e-01" purity="3.1913140416145325e-01" nType="-99"/>
        </Node>
        <Node pos="r" depth="1" NCoef="0" IVar="36" Cut="1.4858274459838867e+00" cType="1" res="5.9143304824829102e-02" rms="3.2533329725265503e-01" purity="7.3667466640472412e-01" nType="0">
          <Node pos="l" depth="2" NCoef="0" IVar="-1" Cut="0.0000000000000000e+00" cType="1" res="3.0824644491076469e-03" rms="3.1578969955444336e-01" purity="7.7619743347167969e-01" nType="-99"/>
          <Node pos="r" depth="2" NCoef="0" IVar="-1" Cut="0.0000000000000000e+00" cType="1" res="-1.1143683455884457e-02" rms="3.1179323792457581e-01" purity="1.0141099244356155e-01" nType="-99"/>
        </Node>
      </Node>
    </BinaryTree>
    <BinaryTree type="DecisionTree" boostWeight="1.0000000000000000e+00" itree="171">
      <Node pos="s" depth="0" NCoef="0" IVar="14" Cut="1.4871129989624023e+00" cType="1" res="1.1239157058298588e-02" rms="3.0155983567237854e-01" purity="5.0356584787368774e-01" nType="0">
        <Node pos="l" depth="1" NCoef="0" IVar="1" Cut="3.6763534545898438e+00" cType="1" res="-4.9263246357440948e-02" rms="2.7742010354995728e-01" purity="2.4650025367736816e-01" nType="0">
          <Node pos="l" depth="2" NCoef="0" IVar="-1" Cut="0.0000000000000000e+00" cType="1" res="-4.0048006922006607e-03" rms="2.5764310359954834e-01" purity="1.8688917160034180e-01" nType="-99"/>
          <Node pos="r" depth="2" NCoef="0" IVar="-1" Cut="0.0000000000000000e+00" cType="1" res="3.0696522444486618e-03" rms="3.6298492550849915e-01" purity="6.5945482254028320e-01" nType="-99"/>
        </Node>
        <Node pos="r" depth="1" NCoef="0" IVar="56" Cut="1.4467463493347168e+00" cType="1" res="7.2344787418842316e-02" rms="3.1244707107543945e-01" purity="7.6319438219070435e-01" nType="0">
          <Node pos="l" depth="2" NCoef="0" IVar="-1" Cut="0.0000000000000000e+00" cType="1" res="3.7224777042865753e-03" rms="2.9962363839149475e-01" purity="8.0906790494918823e-01" nType="-99"/>
          <Node pos="r" depth="2" NCoef="0" IVar="-1" Cut="0.0000000000000000e+00" cType="1" res="-9.7990101203322411e-03" rms="3.2270100712776184e-01" purity="1.3799604773521423e-01" nType="-99"/>
        </Node>
      </Node>
    </BinaryTree>
    <BinaryTree type="DecisionTree" boostWeight="1.0000000000000000e+00" itree="172">
      <Node pos="s" depth="0" NCoef="0" IVar="36" Cut="-1.4537708759307861e+00" cType="1" res="8.7689012289047241e-03" rms="3.0121785402297974e-01" purity="4.9959832429885864e-01" nType="0">
        <Node pos="l" depth="1" NCoef="0" IVar="54" Cut="-1.2604755163192749e+00" cType="1" res="5.1651928573846817e-02" rms="2.9706570506095886e-01" purity="6.1265927553176880e-01" nType="0">
          <Node pos="l" depth="2" NCoef="0" IVar="-1" Cut="0.0000000000000000e+00" cType="1" res="4.1005630046129227e-03" rms="2.7004939317703247e-01" purity="7.1708315610885620e-01" nType="-99"/>
          <Node pos="r" depth="2" NCoef="0" IVar="-1" Cut="0.0000000000000000e+00" cType="1" res="-3.2031738664954901e-03" rms="3.3222305774688721e-01" purity="3.3071792125701904e-01" nType="-99"/>
        </Node>
        <Node pos="r" depth="1" NCoef="0" IVar="36" Cut="1.4511638879776001e+00" cType="1" res="-7.6680488884449005e-02" rms="2.9106056690216064e-01" purity="2.7431130409240723e-01" nType="0">
          <Node pos="l" depth="2" NCoef="0" IVar="-1" Cut="0.0000000000000000e+00" cType="1" res="-2.3028580471873283e-03" rms="3.0130955576896667e-01" purity="3.4235423803329468e-01" nType="-99"/>
          <Node pos="r" depth="2" NCoef="0" IVar="-1" Cut="0.0000000000000000e+00" cType="1" res="-9.8987165838479996e-03" rms="2.3660445213317871e-01" purity="7.2592347860336304e-02" nType="-99"/>
        </Node>
      </Node>
    </BinaryTree>
    <BinaryTree type="DecisionTree" boostWeight="1.0000000000000000e+00" itree="173">
      <Node pos="s" depth="0" NCoef="0" IVar="56" Cut="-1.4924490451812744e+00" cType="1" res="6.4260605722665787e-03" rms="2.9964980483055115e-01" purity="4.9843993782997131e-01" nType="0">
        <Node pos="l" depth="1" NCoef="0" IVar="34" Cut="2.0938470959663391e-01" cType="1" res="5.7158265262842178e-02" rms="2.9450303316116333e-01" purity="6.3275092840194702e-01" nType="0">
          <Node pos="l" depth="2" NCoef="0" IVar="-1" Cut="0.0000000000000000e+00" cType="1" res="3.8885376416146755e-03" rms="2.7757549285888672e-01" purity="7.0920670032501221e-01" nType="-99"/>
          <Node pos="r" depth="2" NCoef="0" IVar="-1" Cut="0.0000000000000000e+00" cType="1" res="-5.2641234360635281e-03" rms="3.2059302926063538e-01" purity="2.5223952531814575e-01" nType="-99"/>
        </Node>
        <Node pos="r" depth="1" NCoef="0" IVar="56" Cut="1.4873298406600952e+00" cType="1" res="-6.7843757569789886e-02" rms="2.9151818156242371e-01" purity="3.0181440711021423e-01" nType="0">
          <Node pos="l" depth="2" NCoef="0" IVar="-1" Cut="0.0000000000000000e+00" cType="1" res="-2.1148531232029200e-03" rms="3.0213472247123718e-01" purity="3.5476675629615784e-01" nType="-99"/>
          <Node pos="r" depth="2" NCoef="0" IVar="-1" Cut="0.0000000000000000e+00" cType="1" res="-1.1707884259521961e-02" rms="1.8834707140922546e-01" purity="3.7747610360383987e-02" nType="-99"/>
        </Node>
      </Node>
    </BinaryTree>
    <BinaryTree type="DecisionTree" boostWeight="1.0000000000000000e+00" itree="174">
      <Node pos="s" depth="0" NCoef="0" IVar="1" Cut="3.2906613349914551e+00" cType="1" res="6.3169789500534534e-03" rms="3.0090603232383728e-01" purity="4.9635499715805054e-01" nType="0">
        <Node pos="l" depth="1" NCoef="0" IVar="32" Cut="-1.5312021970748901e+00" cType="1" res="-3.9079032838344574e-02" rms="2.9970964789390564e-01" purity="3.2808518409729004e-01" nType="0">
          <Node pos="l" depth="2" NCoef="0" IVar="-1" Cut="0.0000000000000000e+00" cType="1" res="1.6713975928723812e-03" rms="3.2393881678581238e-01" purity="5.2097648382186890e-01" nType="-99"/>
          <Node pos="r" depth="2" NCoef="0" IVar="-1" Cut="0.0000000000000000e+00" cType="1" res="-4.2478670366108418e-03" rms="2.7784875035285950e-01" purity="2.2833037376403809e-01" nType="-99"/>
        </Node>
        <Node pos="r" depth="1" NCoef="0" IVar="54" Cut="1.3695074319839478e+00" cType="1" res="8.7088659405708313e-02" rms="2.8571346402168274e-01" purity="7.9575228691101074e-01" nType="0">
          <Node pos="l" depth="2" NCoef="0" IVar="-1" Cut="0.0000000000000000e+00" cType="1" res="4.4025788083672523e-03" rms="2.6780387759208679e-01" purity="8.3021605014801025e-01" nType="-99"/>
          <Node pos="r" depth="2" NCoef="0" IVar="-1" Cut="0.0000000000000000e+00" cType="1" res="-5.5067948997020721e-03" rms="4.1265720129013062e-01" purity="3.0467051267623901e-01" nType="-99"/>
        </Node>
      </Node>
    </BinaryTree>
    <BinaryTree type="DecisionTree" boostWeight="1.0000000000000000e+00" itree="175">
      <Node pos="s" depth="0" NCoef="0" IVar="14" Cut="-1.1054556369781494e+00" cType="1" res="1.1776023544371128e-02" rms="2.9962462186813354e-01" purity="5.0304305553436279e-01" nType="0">
        <Node pos="l" depth="1" NCoef="0" IVar="35" Cut="-7.9688739776611328e-01" cType="1" res="-9.0237818658351898e-03" rms="0.0000000000000000e+00" purity="1.4574510045349598e-02" nType="-99"/>
        <Node pos="r" depth="1" NCoef="0" IVar="2" Cut="8.9687311649322510e-01" cType="1" res="4.7269809991121292e-02" rms="3.3796256780624390e-01" purity="6.6350752115249634e-01" nType="0">
          <Node pos="l" depth="2" NCoef="0" IVar="-1" Cut="0.0000000000000000e+00" cType="1" res="-8.9995153248310089e-03" rms="2.9751828312873840e-01" purity="1.0597791522741318e-01" nType="-99"/>
          <Node pos="r" depth="2" NCoef="0" IVar="-1" Cut="0.0000000000000000e+00" cType="1" res="2.5080717168748379e-03" rms="3.3175417780876160e-01" purity="6.8718403577804565e-01" nType="-99"/>
        </Node>
      </Node>
    </BinaryTree>
    <BinaryTree type="DecisionTree" boostWeight="1.0000000000000000e+00" itree="176">
      <Node pos="s" depth="0" NCoef="0" IVar="25" Cut="1.6390939950942993e+00" cType="1" res="4.8532802611589432e-03" rms="2.9826593399047852e-01" purity="4.9680930376052856e-01" nType="0">
        <Node pos="l" depth="1" NCoef="0" IVar="0" Cut="4.6010762453079224e-01" cType="1" res="-9.0804286301136017e-02" rms="2.3981064558029175e-01" purity="1.8978424370288849e-01" nType="0">
          <Node pos="l" depth="2" NCoef="0" IVar="-1" Cut="0.0000000000000000e+00" cType="1" res="-1.4345004456117749e-03" rms="2.9066112637519836e-01" purity="2.9629039764404297e-01" nType="-99"/>
          <Node pos="r" depth="2" NCoef="0" IVar="-1" Cut="0.0000000000000000e+00" cType="1" res="-8.0931996926665306e-03" rms="1.8614076077938080e-01" purity="1.1702643334865570e-01" nType="-99"/>
        </Node>
        <Node pos="r" depth="1" NCoef="0" IVar="2" Cut="9.3700802326202393e-01" cType="1" res="4.2762018740177155e-02" rms="3.1042569875717163e-01" purity="6.1848223209381104e-01" nType="0">
          <Node pos="l" depth="2" NCoef="0" IVar="-1" Cut="0.0000000000000000e+00" cType="1" res="-1.0098959319293499e-02" rms="2.5792095065116882e-01" purity="7.4561245739459991e-02" nType="-99"/>
          <Node pos="r" depth="2" NCoef="0" IVar="-1" Cut="0.0000000000000000e+00" cType="1" res="2.4725687690079212e-03" rms="3.0468925833702087e-01" purity="6.3862472772598267e-01" nType="-99"/>
        </Node>
      </Node>
    </BinaryTree>
    <BinaryTree type="DecisionTree" boostWeight="1.0000000000000000e+00" itree="177">
      <Node pos="s" depth="0" NCoef="0" IVar="56" Cut="-1.4924588203430176e+00" cType="1" res="9.4478279352188110e-03" rms="3.0010029673576355e-01" purity="5.0040668249130249e-01" nType="0">
        <Node pos="l" depth="1" NCoef="0" IVar="14" Cut="-1.3763669729232788e+00" cType="1" res="5.8729242533445358e-02" rms="2.9373443126678467e-01" purity="6.3352465629577637e-01" nType="0">
          <Node pos="l" depth="2" NCoef="0" IVar="-1" Cut="0.0000000000000000e+00" cType="1" res="-8.5228588432073593e-03" rms="1.0434153676033020e-01" purity="1.7232557758688927e-02" nType="-99"/>
          <Node pos="r" depth="2" NCoef="0" IVar="-1" Cut="0.0000000000000000e+00" cType="1" res="3.6410694010555744e-03" rms="3.1074064970016479e-01" purity="7.6619982719421387e-01" nType="-99"/>
        </Node>
        <Node pos="r" depth="1" NCoef="0" IVar="45" Cut="1.1842522621154785e+00" cType="1" res="-6.2892638146877289e-02" rms="2.9463720321655273e-01" purity="3.0500203371047974e-01" nType="0">
          <Node pos="l" depth="2" NCoef="0" IVar="-1" Cut="0.0000000000000000e+00" cType="1" res="-1.0730075649917126e-02" rms="1.2225200980901718e-01" purity="4.2240738868713379e-02" nType="-99"/>
          <Node pos="r" depth="2" NCoef="0" IVar="-1" Cut="0.0000000000000000e+00" cType="1" res="-1.6392341349273920e-03" rms="3.2365632057189941e-01" purity="3.8338032364845276e-01" nType="-99"/>
        </Node>
      </Node>
    </BinaryTree>
    <BinaryTree type="DecisionTree" boostWeight="1.0000000000000000e+00" itree="178">
      <Node pos="s" depth="0" NCoef="0" IVar="52" Cut="-1.4926078319549561e+00" cType="1" res="7.6509877108037472e-03" rms="3.0000603199005127e-01" purity="4.9968510866165161e-01" nType="0">
        <Node pos="l" depth="1" NCoef="0" IVar="14" Cut="-1.4537354707717896e+00" cType="1" res="5.6146241724491119e-02" rms="2.9835698008537292e-01" purity="6.2927049398422241e-01" nType="0">
          <Node pos="l" depth="2" NCoef="0" IVar="-1" Cut="0.0000000000000000e+00" cType="1" res="-1.0804592631757259e-02" rms="0.0000000000000000e+00" purity="-7.6086320914328098e-03" nType="-99"/>
          <Node pos="r" depth="2" NCoef="0" IVar="-1" Cut="0.0000000000000000e+00" cType="1" res="3.5166430752724409e-03" rms="3.1791314482688904e-01" purity="7.4368786811828613e-01" nType="-99"/>
        </Node>
        <Node pos="r" depth="1" NCoef="0" IVar="1" Cut="3.3788897991180420e+00" cType="1" res="-6.4046360552310944e-02" rms="2.8782799839973450e-01" purity="3.0810087919235229e-01" nType="0">
          <Node pos="l" depth="2" NCoef="0" IVar="-1" Cut="0.0000000000000000e+00" cType="1" res="-5.1605231128633022e-03" rms="2.6119133830070496e-01" purity="1.9451673328876495e-01" nType="-99"/>
          <Node pos="r" depth="2" NCoef="0" IVar="-1" Cut="0.0000000000000000e+00" cType="1" res="1.2176000745967031e-03" rms="3.4366190433502197e-01" purity="6.7096304893493652e-01" nType="-99"/>
        </Node>
      </Node>
    </BinaryTree>
    <BinaryTree type="DecisionTree" boostWeight="1.0000000000000000e+00" itree="179">
      <Node pos="s" depth="0" NCoef="0" IVar="14" Cut="1.3709647655487061e+00" cType="1" res="7.0043150335550308e-03" rms="3.0169302225112915e-01" purity="4.9772194027900696e-01" nType="0">
        <Node pos="l" depth="1" NCoef="0" IVar="3" Cut="5.0779299736022949e+00" cType="1" res="-6.3517168164253235e-02" rms="2.4142676591873169e-01" purity="1.4834056794643402e-01" nType="0">
          <Node pos="l" depth="2" NCoef="0" IVar="-1" Cut="0.0000000000000000e+00" cType="1" res="-6.8523623049259186e-03" rms="1.6242429614067078e-01" purity="7.7259510755538940e-02" nType="-99"/>
          <Node pos="r" depth="2" NCoef="0" IVar="-1" Cut="0.0000000000000000e+00" cType="1" res="7.1185517299454659e-05" rms="3.5724300146102905e-01" purity="3.1620070338249207e-01" nType="-99"/>
        </Node>
        <Node pos="r" depth="1" NCoef="0" IVar="54" Cut="1.2921572923660278e+00" cType="1" res="5.3524781018495560e-02" rms="3.2736191153526306e-01" purity="7.2819614410400391e-01" nType="0">
          <Node pos="l" depth="2" NCoef="0" IVar="-1" Cut="0.0000000000000000e+00" cType="1" res="3.1264515127986670e-03" rms="3.1296929717063904e-01" purity="7.8428232669830322e-01" nType="-99"/>
          <Node pos="r" depth="2" NCoef="0" IVar="-1" Cut="0.0000000000000000e+00" cType="1" res="-7.0776753127574921e-03" rms="3.6638170480728149e-01" purity="2.2629694640636444e-01" nType="-99"/>
        </Node>
      </Node>
    </BinaryTree>
    <BinaryTree type="DecisionTree" boostWeight="1.0000000000000000e+00" itree="180">
      <Node pos="s" depth="0" NCoef="0" IVar="45" Cut="1.2910401821136475e+00" cType="1" res="9.6767386421561241e-03" rms="2.9868745803833008e-01" purity="5.0204199552536011e-01" nType="0">
        <Node pos="l" depth="1" NCoef="0" IVar="49" Cut="2.8398199081420898e+00" cType="1" res="-1.1884564906358719e-01" rms="2.1288001537322998e-01" purity="1.2178617715835571e-01" nType="0">
          <Node pos="l" depth="2" NCoef="0" IVar="-1" Cut="0.0000000000000000e+00" cType="1" res="-1.0136088356375694e-02" rms="1.6571164131164551e-01" purity="6.9274403154850006e-02" nType="-99"/>
          <Node pos="r" depth="2" NCoef="0" IVar="-1" Cut="0.0000000000000000e+00" cType="1" res="-2.6564358267933130e-03" rms="2.6902574300765991e-01" purity="2.2393684089183807e-01" nType="-99"/>
        </Node>
        <Node pos="r" depth="1" NCoef="0" IVar="2" Cut="1.0333153009414673e+00" cType="1" res="3.6505281925201416e-02" rms="3.0693572759628296e-01" purity="5.8141887187957764e-01" nType="0">
          <Node pos="l" depth="2" NCoef="0" IVar="-1" Cut="0.0000000000000000e+00" cType="1" res="-9.5716174691915512e-03" rms="2.5666069984436035e-01" purity="8.5305534303188324e-02" nType="-99"/>
          <Node pos="r" depth="2" NCoef="0" IVar="-1" Cut="0.0000000000000000e+00" cType="1" res="2.3634615354239941e-03" rms="3.0203178524971008e-01" purity="6.0866391658782959e-01" nType="-99"/>
        </Node>
      </Node>
    </BinaryTree>
    <BinaryTree type="DecisionTree" boostWeight="1.0000000000000000e+00" itree="181">
      <Node pos="s" depth="0" NCoef="0" IVar="2" Cut="1.7462874650955200e+00" cType="1" res="9.8543763160705566e-03" rms="2.9646107554435730e-01" purity="5.0113046169281006e-01" nType="0">
        <Node pos="l" depth="1" NCoef="0" IVar="2" Cut="5.4544419050216675e-01" cType="1" res="-9.4448305666446686e-02" rms="2.5250995159149170e-01" purity="1.8180103600025177e-01" nType="0">
          <Node pos="l" depth="2" NCoef="0" IVar="-1" Cut="0.0000000000000000e+00" cType="1" res="-1.1551856994628906e-02" rms="0.0000000000000000e+00" purity="-3.8357138633728027e-02" nType="-99"/>
          <Node pos="r" depth="2" NCoef="0" IVar="-1" Cut="0.0000000000000000e+00" cType="1" res="-3.8984424900263548e-03" rms="2.5332039594650269e-01" purity="2.0381405949592590e-01" nType="-99"/>
        </Node>
        <Node pos="r" depth="1" NCoef="0" IVar="32" Cut="-6.0501223802566528e-01" cType="1" res="4.4908650219440460e-02" rms="3.0184942483901978e-01" purity="6.0845136642456055e-01" nType="0">
          <Node pos="l" depth="2" NCoef="0" IVar="-1" Cut="0.0000000000000000e+00" cType="1" res="3.3242760691791773e-03" rms="2.8889101743698120e-01" purity="6.8380236625671387e-01" nType="-99"/>
          <Node pos="r" depth="2" NCoef="0" IVar="-1" Cut="0.0000000000000000e+00" cType="1" res="-3.6702076904475689e-03" rms="3.2325929403305054e-01" purity="3.0367875099182129e-01" nType="-99"/>
        </Node>
      </Node>
    </BinaryTree>
    <BinaryTree type="DecisionTree" boostWeight="1.0000000000000000e+00" itree="182">
      <Node pos="s" depth="0" NCoef="0" IVar="32" Cut="-1.4926080703735352e+00" cType="1" res="8.2489894703030586e-03" rms="2.9634687304496765e-01" purity="4.9877211451530457e-01" nType="0">
        <Node pos="l" depth="1" NCoef="0" IVar="54" Cut="1.2544955015182495e+00" cType="1" res="5.7641327381134033e-02" rms="2.9257398843765259e-01" purity="6.2789887189865112e-01" nType="0">
          <Node pos="l" depth="2" NCoef="0" IVar="-1" Cut="0.0000000000000000e+00" cType="1" res="3.6618874873965979e-03" rms="2.8140360116958618e-01" purity="6.8944162130355835e-01" nType="-99"/>
          <Node pos="r" depth="2" NCoef="0" IVar="-1" Cut="0.0000000000000000e+00" cType="1" res="-7.2407894767820835e-03" rms="3.0166226625442505e-01" purity="1.6082189977169037e-01" nType="-99"/>
        </Node>
        <Node pos="r" depth="1" NCoef="0" IVar="1" Cut="3.5481595993041992e+00" cType="1" res="-6.5408453345298767e-02" rms="2.8648117184638977e-01" purity="3.0620890855789185e-01" nType="0">
          <Node pos="l" depth="2" NCoef="0" IVar="-1" Cut="0.0000000000000000e+00" cType="1" res="-4.9947369843721390e-03" rms="2.6619660854339600e-01" purity="2.1797184646129608e-01" nType="-99"/>
          <Node pos="r" depth="2" NCoef="0" IVar="-1" Cut="0.0000000000000000e+00" cType="1" res="2.1396519150584936e-03" rms="3.4133276343345642e-01" purity="7.0778703689575195e-01" nType="-99"/>
        </Node>
      </Node>
    </BinaryTree>
    <BinaryTree type="DecisionTree" boostWeight="1.0000000000000000e+00" itree="183">
      <Node pos="s" depth="0" NCoef="0" IVar="45" Cut="1.4250348806381226e+00" cType="1" res="7.4869515374302864e-03" rms="2.9840043187141418e-01" purity="4.9991476535797119e-01" nType="0">
        <Node pos="l" depth="1" NCoef="0" IVar="49" Cut="2.8734118938446045e+00" cType="1" res="-1.0213029384613037e-01" rms="2.2819934785366058e-01" purity="1.5428914129734039e-01" nType="0">
          <Node pos="l" depth="2" NCoef="0" IVar="-1" Cut="0.0000000000000000e+00" cType="1" res="-8.8443858548998833e-03" rms="1.8883675336837769e-01" purity="9.7094029188156128e-02" nType="-99"/>
          <Node pos="r" depth="2" NCoef="0" IVar="-1" Cut="0.0000000000000000e+00" cType="1" res="-2.0778216421604156e-03" rms="2.7000498771667480e-01" purity="2.4908699095249176e-01" nType="-99"/>
        </Node>
        <Node pos="r" depth="1" NCoef="0" IVar="2" Cut="8.8168579339981079e-01" cType="1" res="3.7422958761453629e-02" rms="3.0815729498863220e-01" purity="5.9430372714996338e-01" nType="0">
          <Node pos="l" depth="2" NCoef="0" IVar="-1" Cut="0.0000000000000000e+00" cType="1" res="-9.7143445163965225e-03" rms="2.8439280390739441e-01" purity="5.7624533772468567e-02" nType="-99"/>
          <Node pos="r" depth="2" NCoef="0" IVar="-1" Cut="0.0000000000000000e+00" cType="1" res="2.2769893985241652e-03" rms="3.0227389931678772e-01" purity="6.1513566970825195e-01" nType="-99"/>
        </Node>
      </Node>
    </BinaryTree>
    <BinaryTree type="DecisionTree" boostWeight="1.0000000000000000e+00" itree="184">
      <Node pos="s" depth="0" NCoef="0" IVar="1" Cut="2.3049578666687012e+00" cType="1" res="8.9650098234415054e-03" rms="2.9765874147415161e-01" purity="5.0040519237518311e-01" nType="0">
        <Node pos="l" depth="1" NCoef="0" IVar="52" Cut="-1.5312244892120361e+00" cType="1" res="-1.0915898531675339e-01" rms="1.4546644687652588e-01" purity="5.9165995568037033e-02" nType="0">
          <Node pos="l" depth="2" NCoef="0" IVar="-1" Cut="0.0000000000000000e+00" cType="1" res="-2.2602772805839777e-03" rms="2.9498901963233948e-01" purity="1.9408535957336426e-01" nType="-99"/>
          <Node pos="r" depth="2" NCoef="0" IVar="-1" Cut="0.0000000000000000e+00" cType="1" res="-1.0005088523030281e-02" rms="0.0000000000000000e+00" purity="1.5629502013325691e-02" nType="-99"/>
        </Node>
        <Node pos="r" depth="1" NCoef="0" IVar="2" Cut="9.2962068319320679e-01" cType="1" res="3.8000836968421936e-02" rms="3.1765574216842651e-01" purity="6.0886538028717041e-01" nType="0">
          <Node pos="l" depth="2" NCoef="0" IVar="-1" Cut="0.0000000000000000e+00" cType="1" res="-9.3225520104169846e-03" rms="2.6999917626380920e-01" purity="9.0633943676948547e-02" nType="-99"/>
          <Node pos="r" depth="2" NCoef="0" IVar="-1" Cut="0.0000000000000000e+00" cType="1" res="2.2350058425217867e-03" rms="3.1314629316329956e-01" purity="6.2863475084304810e-01" nType="-99"/>
        </Node>
      </Node>
    </BinaryTree>
    <BinaryTree type="DecisionTree" boostWeight="1.0000000000000000e+00" itree="185">
      <Node pos="s" depth="0" NCoef="0" IVar="25" Cut="1.2672251462936401e+00" cType="1" res="1.0598594322800636e-02" rms="2.9758742451667786e-01" purity="5.0205659866333008e-01" nType="0">
        <Node pos="l" depth="1" NCoef="0" IVar="0" Cut="6.9940119981765747e-01" cType="1" res="-1.1616239696741104e-01" rms="2.1694628894329071e-01" purity="1.2533943355083466e-01" nType="0">
          <Node pos="l" depth="2" NCoef="0" IVar="-1" Cut="0.0000000000000000e+00" cType="1" res="-4.0423204191029072e-03" rms="2.6110181212425232e-01" purity="1.9894297420978546e-01" nType="-99"/>
          <Node pos="r" depth="2" NCoef="0" IVar="-1" Cut="0.0000000000000000e+00" cType="1" res="-1.2315160594880581e-02" rms="1.1028309166431427e-01" purity="2.6807997375726700e-02" nType="-99"/>
        </Node>
        <Node pos="r" depth="1" NCoef="0" IVar="14" Cut="-1.1441507339477539e+00" cType="1" res="3.6153689026832581e-02" rms="3.0500942468643188e-01" purity="5.7800304889678955e-01" nType="0">
          <Node pos="l" depth="2" NCoef="0" IVar="-1" Cut="0.0000000000000000e+00" cType="1" res="-7.2385757230222225e-03" rms="1.4326053857803345e-01" purity="3.6289002746343613e-02" nType="-99"/>
          <Node pos="r" depth="2" NCoef="0" IVar="-1" Cut="0.0000000000000000e+00" cType="1" res="2.7121226303279400e-03" rms="3.2800441980361938e-01" purity="7.2197103500366211e-01" nType="-99"/>
        </Node>
      </Node>
    </BinaryTree>
    <BinaryTree type="DecisionTree" boostWeight="1.0000000000000000e+00" itree="186">
      <Node pos="s" depth="0" NCoef="0" IVar="54" Cut="1.2544955015182495e+00" cType="1" res="9.5441564917564392e-03" rms="2.9738318920135498e-01" purity="5.0134301185607910e-01" nType="0">
        <Node pos="l" depth="1" NCoef="0" IVar="36" Cut="-1.4924445152282715e+00" cType="1" res="3.1496305018663406e-02" rms="2.9863190650939941e-01" purity="5.6045585870742798e-01" nType="0">
          <Node pos="l" depth="2" NCoef="0" IVar="-1" Cut="0.0000000000000000e+00" cType="1" res="3.6769008729606867e-03" rms="2.7505865693092346e-01" purity="6.9651067256927490e-01" nType="-99"/>
          <Node pos="r" depth="2" NCoef="0" IVar="-1" Cut="0.0000000000000000e+00" cType="1" res="-2.3792220745235682e-03" rms="3.1582993268966675e-01" purity="3.5075384378433228e-01" nType="-99"/>
        </Node>
        <Node pos="r" depth="1" NCoef="0" IVar="56" Cut="1.5238395929336548e+00" cType="1" res="-1.3353221118450165e-01" rms="2.4489647150039673e-01" purity="1.1606634408235550e-01" nType="0">
          <Node pos="l" depth="2" NCoef="0" IVar="-1" Cut="0.0000000000000000e+00" cType="1" res="-6.4603737555444241e-03" rms="2.6222956180572510e-01" purity="1.4854252338409424e-01" nType="-99"/>
          <Node pos="r" depth="2" NCoef="0" IVar="-1" Cut="0.0000000000000000e+00" cType="1" res="-1.2701909989118576e-02" rms="1.6422662138938904e-01" purity="1.9947890192270279e-02" nType="-99"/>
        </Node>
      </Node>
    </BinaryTree>
    <BinaryTree type="DecisionTree" boostWeight="1.0000000000000000e+00" itree="187">
      <Node pos="s" depth="0" NCoef="0" IVar="36" Cut="-1.4150910377502441e+00" cType="1" res="7.7251475304365158e-03" rms="2.9586926102638245e-01" purity="4.9979275465011597e-01" nType="0">
        <Node pos="l" depth="1" NCoef="0" IVar="14" Cut="-1.4150193929672241e+00" cType="1" res="4.4478829950094223e-02" rms="2.9232057929039001e-01" purity="6.0355913639068604e-01" nType="0">
          <Node pos="l" depth="2" NCoef="0" IVar="-1" Cut="0.0000000000000000e+00" cType="1" res="-9.9715907126665115e-03" rms="0.0000000000000000e+00" purity="5.0420063780620694e-04" nType="-99"/>
          <Node pos="r" depth="2" NCoef="0" IVar="-1" Cut="0.0000000000000000e+00" cType="1" res="3.0998755246400833e-03" rms="3.1483447551727295e-01" purity="7.3265683650970459e-01" nType="-99"/>
        </Node>
        <Node pos="r" depth="1" NCoef="0" IVar="36" Cut="1.4894518852233887e+00" cType="1" res="-7.7337689697742462e-02" rms="2.8636929392814636e-01" purity="2.5963541865348816e-01" nType="0">
          <Node pos="l" depth="2" NCoef="0" IVar="-1" Cut="0.0000000000000000e+00" cType="1" res="-2.6118205860257149e-03" rms="2.9376652836799622e-01" purity="3.1725591421127319e-01" nType="-99"/>
          <Node pos="r" depth="2" NCoef="0" IVar="-1" Cut="0.0000000000000000e+00" cType="1" res="-1.0855231434106827e-02" rms="2.3427541553974152e-01" purity="5.5636581033468246e-02" nType="-99"/>
        </Node>
      </Node>
    </BinaryTree>
    <BinaryTree type="DecisionTree" boostWeight="1.0000000000000000e+00" itree="188">
      <Node pos="s" depth="0" NCoef="0" IVar="1" Cut="2.3264305591583252e+00" cType="1" res="1.0303398594260216e-02" rms="2.9611122608184814e-01" purity="5.0253516435623169e-01" nType="0">
        <Node pos="l" depth="1" NCoef="0" IVar="0" Cut="6.0736632347106934e-01" cType="1" res="-1.0046648979187012e-01" rms="1.6672684252262115e-01" purity="6.7240506410598755e-02" nType="0">
          <Node pos="l" depth="2" NCoef="0" IVar="-1" Cut="0.0000000000000000e+00" cType="1" res="-3.6879349499940872e-03" rms="2.3691765964031219e-01" purity="1.2731747329235077e-01" nType="-99"/>
          <Node pos="r" depth="2" NCoef="0" IVar="-1" Cut="0.0000000000000000e+00" cType="1" res="-1.0914077982306480e-02" rms="0.0000000000000000e+00" purity="1.0219921357929707e-02" nType="-99"/>
        </Node>
        <Node pos="r" depth="1" NCoef="0" IVar="54" Cut="2.8727227449417114e-01" cType="1" res="3.9482124149799347e-02" rms="3.1523457169532776e-01" purity="6.1719942092895508e-01" nType="0">
          <Node pos="l" depth="2" NCoef="0" IVar="-1" Cut="0.0000000000000000e+00" cType="1" res="2.9045196715742350e-03" rms="3.0213975906372070e-01" purity="6.8505245447158813e-01" nType="-99"/>
          <Node pos="r" depth="2" NCoef="0" IVar="-1" Cut="0.0000000000000000e+00" cType="1" res="-4.7885836102068424e-03" rms="3.4358745813369751e-01" purity="2.6398918032646179e-01" nType="-99"/>
        </Node>
      </Node>
    </BinaryTree>
    <BinaryTree type="DecisionTree" boostWeight="1.0000000000000000e+00" itree="189">
      <Node pos="s" depth="0" NCoef="0" IVar="14" Cut="1.2162475585937500e+00" cType="1" res="7.0417602546513081e-03" rms="2.9314661026000977e-01" purity="4.9976640939712524e-01" nType="0">
        <Node pos="l" depth="1" NCoef="0" IVar="3" Cut="5.0174593925476074e+00" cType="1" res="-6.7764006555080414e-02" rms="2.0871569216251373e-01" purity="1.1110017448663712e-01" nType="0">
          <Node pos="l" depth="2" NCoef="0" IVar="-1" Cut="0.0000000000000000e+00" cType="1" res="-8.4129488095641136e-03" rms="1.0194363445043564e-01" purity="3.8779612630605698e-02" nType="-99"/>
          <Node pos="r" depth="2" NCoef="0" IVar="-1" Cut="0.0000000000000000e+00" cType="1" res="-1.3710580242332071e-04" rms="3.2469120621681213e-01" purity="2.5975707173347473e-01" nType="-99"/>
        </Node>
        <Node pos="r" depth="1" NCoef="0" IVar="56" Cut="1.4463647603988647e+00" cType="1" res="4.8788163810968399e-02" rms="3.2359847426414490e-01" purity="7.1666699647903442e-01" nType="0">
          <Node pos="l" depth="2" NCoef="0" IVar="-1" Cut="0.0000000000000000e+00" cType="1" res="2.7823643758893013e-03" rms="3.1569409370422363e-01" purity="7.6237404346466064e-01" nType="-99"/>
          <Node pos="r" depth="2" NCoef="0" IVar="-1" Cut="0.0000000000000000e+00" cType="1" res="-9.2781707644462585e-03" rms="3.1514564156532288e-01" purity="1.2947647273540497e-01" nType="-99"/>
        </Node>
      </Node>
    </BinaryTree>
    <BinaryTree type="DecisionTree" boostWeight="1.0000000000000000e+00" itree="190">
      <Node pos="s" depth="0" NCoef="0" IVar="34" Cut="-6.0303413867950439e-01" cType="1" res="8.4622576832771301e-03" rms="2.9510250687599182e-01" purity="5.0089967250823975e-01" nType="0">
        <Node pos="l" depth="1" NCoef="0" IVar="54" Cut="1.2544955015182495e+00" cType="1" res="4.0339633822441101e-02" rms="2.9278400540351868e-01" purity="5.8910608291625977e-01" nType="0">
          <Node pos="l" depth="2" NCoef="0" IVar="-1" Cut="0.0000000000000000e+00" cType="1" res="2.9922977555543184e-03" rms="2.8669977188110352e-01" purity="6.5432876348495483e-01" nType="-99"/>
          <Node pos="r" depth="2" NCoef="0" IVar="-1" Cut="0.0000000000000000e+00" cType="1" res="-7.7439979650080204e-03" rms="2.7168348431587219e-01" purity="1.4000058174133301e-01" nType="-99"/>
        </Node>
        <Node pos="r" depth="1" NCoef="0" IVar="34" Cut="1.4555759429931641e+00" cType="1" res="-9.2137396335601807e-02" rms="2.7939182519912720e-01" purity="2.2253507375717163e-01" nType="0">
          <Node pos="l" depth="2" NCoef="0" IVar="-1" Cut="0.0000000000000000e+00" cType="1" res="-2.7162125334143639e-03" rms="3.0738657712936401e-01" purity="3.0348816514015198e-01" nType="-99"/>
          <Node pos="r" depth="2" NCoef="0" IVar="-1" Cut="0.0000000000000000e+00" cType="1" res="-1.0879232548177242e-02" rms="1.9288536906242371e-01" purity="6.5304830670356750e-02" nType="-99"/>
        </Node>
      </Node>
    </BinaryTree>
    <BinaryTree type="DecisionTree" boostWeight="1.0000000000000000e+00" itree="191">
      <Node pos="s" depth="0" NCoef="0" IVar="36" Cut="-1.4150811433792114e+00" cType="1" res="7.5553078204393387e-03" rms="2.9390695691108704e-01" purity="4.9862736463546753e-01" nType="0">
        <Node pos="l" depth="1" NCoef="0" IVar="54" Cut="2.8724381327629089e-01" cType="1" res="4.4278636574745178e-02" rms="2.9223343729972839e-01" purity="6.0205215215682983e-01" nType="0">
          <Node pos="l" depth="2" NCoef="0" IVar="-1" Cut="0.0000000000000000e+00" cType="1" res="3.3248695544898510e-03" rms="2.7767241001129150e-01" purity="6.8067979812622070e-01" nType="-99"/>
          <Node pos="r" depth="2" NCoef="0" IVar="-1" Cut="0.0000000000000000e+00" cType="1" res="-4.9929949454963207e-03" rms="3.1863129138946533e-01" purity="2.2673991322517395e-01" nType="-99"/>
        </Node>
        <Node pos="r" depth="1" NCoef="0" IVar="36" Cut="1.4896479845046997e+00" cType="1" res="-7.8352265059947968e-02" rms="2.7953723073005676e-01" purity="2.5668394565582275e-01" nType="0">
          <Node pos="l" depth="2" NCoef="0" IVar="-1" Cut="0.0000000000000000e+00" cType="1" res="-2.6291543617844582e-03" rms="2.8802219033241272e-01" purity="3.1470319628715515e-01" nType="-99"/>
          <Node pos="r" depth="2" NCoef="0" IVar="-1" Cut="0.0000000000000000e+00" cType="1" res="-1.1132911778986454e-02" rms="2.2033168375492096e-01" purity="5.2705492824316025e-02" nType="-99"/>
        </Node>
      </Node>
    </BinaryTree>
    <BinaryTree type="DecisionTree" boostWeight="1.0000000000000000e+00" itree="192">
      <Node pos="s" depth="0" NCoef="0" IVar="25" Cut="1.3589496612548828e+00" cType="1" res="6.8888976238667965e-03" rms="2.9398852586746216e-01" purity="4.9853971600532532e-01" nType="0">
        <Node pos="l" depth="1" NCoef="0" IVar="29" Cut="2.9187977313995361e+00" cType="1" res="-1.0939582437276840e-01" rms="2.2004489600658417e-01" purity="1.3553231954574585e-01" nType="0">
          <Node pos="l" depth="2" NCoef="0" IVar="-1" Cut="0.0000000000000000e+00" cType="1" res="-1.0063474066555500e-02" rms="1.5419848263263702e-01" purity="7.8801922500133514e-02" nType="-99"/>
          <Node pos="r" depth="2" NCoef="0" IVar="-1" Cut="0.0000000000000000e+00" cType="1" res="-1.2321457033976912e-03" rms="2.9443317651748657e-01" purity="2.5002664327621460e-01" nType="-99"/>
        </Node>
        <Node pos="r" depth="1" NCoef="0" IVar="14" Cut="-1.4150160551071167e+00" cType="1" res="3.4957416355609894e-02" rms="3.0257579684257507e-01" purity="5.8616155385971069e-01" nType="0">
          <Node pos="l" depth="2" NCoef="0" IVar="-1" Cut="0.0000000000000000e+00" cType="1" res="-1.0044672526419163e-02" rms="0.0000000000000000e+00" purity="-3.4729487379081547e-04" nType="-99"/>
          <Node pos="r" depth="2" NCoef="0" IVar="-1" Cut="0.0000000000000000e+00" cType="1" res="2.5823838077485561e-03" rms="3.2647314667701721e-01" purity="7.0574891567230225e-01" nType="-99"/>
        </Node>
      </Node>
    </BinaryTree>
    <BinaryTree type="DecisionTree" boostWeight="1.0000000000000000e+00" itree="193">
      <Node pos="s" depth="0" NCoef="0" IVar="25" Cut="1.2672251462936401e+00" cType="1" res="7.2346534579992294e-03" rms="2.9336863756179810e-01" purity="5.0139081478118896e-01" nType="0">
        <Node pos="l" depth="1" NCoef="0" IVar="29" Cut="3.1230490207672119e+00" cType="1" res="-1.1772143840789795e-01" rms="2.1345326304435730e-01" purity="1.2037923932075500e-01" nType="0">
          <Node pos="l" depth="2" NCoef="0" IVar="-1" Cut="0.0000000000000000e+00" cType="1" res="-9.3796188011765480e-03" rms="1.8075239658355713e-01" purity="8.7138719856739044e-02" nType="-99"/>
          <Node pos="r" depth="2" NCoef="0" IVar="-1" Cut="0.0000000000000000e+00" cType="1" res="-1.8277061462868005e-04" rms="2.9728412628173828e-01" purity="2.7190604805946350e-01" nType="-99"/>
        </Node>
        <Node pos="r" depth="1" NCoef="0" IVar="34" Cut="1.2539436817169189e+00" cType="1" res="3.2178286463022232e-02" rms="3.0068466067314148e-01" purity="5.7744807004928589e-01" nType="0">
          <Node pos="l" depth="2" NCoef="0" IVar="-1" Cut="0.0000000000000000e+00" cType="1" res="2.5161784142255783e-03" rms="2.9739362001419067e-01" purity="6.3911366462707520e-01" nType="-99"/>
          <Node pos="r" depth="2" NCoef="0" IVar="-1" Cut="0.0000000000000000e+00" cType="1" res="-7.4056549929082394e-03" rms="2.7064695954322815e-01" purity="1.4694954454898834e-01" nType="-99"/>
        </Node>
      </Node>
    </BinaryTree>
    <BinaryTree type="DecisionTree" boostWeight="1.0000000000000000e+00" itree="194">
      <Node pos="s" depth="0" NCoef="0" IVar="2" Cut="1.6945774555206299e+00" cType="1" res="6.9490396417677402e-03" rms="2.9420742392539978e-01" purity="4.9938660860061646e-01" nType="0">
        <Node pos="l" depth="1" NCoef="0" IVar="2" Cut="5.1676666736602783e-01" cType="1" res="-9.6215911209583282e-02" rms="2.4821469187736511e-01" purity="1.7709621787071228e-01" nType="0">
          <Node pos="l" depth="2" NCoef="0" IVar="-1" Cut="0.0000000000000000e+00" cType="1" res="-1.2604381889104843e-02" rms="0.0000000000000000e+00" purity="-6.1046794056892395e-02" nType="-99"/>
          <Node pos="r" depth="2" NCoef="0" IVar="-1" Cut="0.0000000000000000e+00" cType="1" res="-3.8944345433264971e-03" rms="2.4967086315155029e-01" purity="2.0213277637958527e-01" nType="-99"/>
        </Node>
        <Node pos="r" depth="1" NCoef="0" IVar="56" Cut="1.4463146924972534e+00" cType="1" res="3.7651192396879196e-02" rms="2.9978731274604797e-01" purity="5.9530103206634521e-01" nType="0">
          <Node pos="l" depth="2" NCoef="0" IVar="-1" Cut="0.0000000000000000e+00" cType="1" res="2.5248813908547163e-03" rms="2.9609784483909607e-01" purity="6.3834154605865479e-01" nType="-99"/>
          <Node pos="r" depth="2" NCoef="0" IVar="-1" Cut="0.0000000000000000e+00" cType="1" res="-8.7260873988270760e-03" rms="2.7630478143692017e-01" purity="9.9819682538509369e-02" nType="-99"/>
        </Node>
      </Node>
    </BinaryTree>
    <BinaryTree type="DecisionTree" boostWeight="1.0000000000000000e+00" itree="195">
      <Node pos="s" depth="0" NCoef="0" IVar="14" Cut="-1.3763252496719360e+00" cType="1" res="7.4557983316481113e-03" rms="2.9127091169357300e-01" purity="4.9958384037017822e-01" nType="0">
        <Node pos="l" depth="1" NCoef="0" IVar="17" Cut="-1.6752603054046631e+00" cType="1" res="-1.1647812090814114e-02" rms="0.0000000000000000e+00" purity="-1.5369425527751446e-02" nType="-99"/>
        <Node pos="r" depth="1" NCoef="0" IVar="2" Cut="7.6724147796630859e-01" cType="1" res="3.7158865481615067e-02" rms="3.3077633380889893e-01" purity="6.3988363742828369e-01" nType="0">
          <Node pos="l" depth="2" NCoef="0" IVar="-1" Cut="0.0000000000000000e+00" cType="1" res="-9.9304383620619774e-03" rms="2.3987117409706116e-01" purity="5.3332850337028503e-02" nType="-99"/>
          <Node pos="r" depth="2" NCoef="0" IVar="-1" Cut="0.0000000000000000e+00" cType="1" res="2.1130654495209455e-03" rms="3.2673287391662598e-01" purity="6.6064995527267456e-01" nType="-99"/>
        </Node>
      </Node>
    </BinaryTree>
    <BinaryTree type="DecisionTree" boostWeight="1.0000000000000000e+00" itree="196">
      <Node pos="s" depth="0" NCoef="0" IVar="45" Cut="1.8283511400222778e+00" cType="1" res="5.6443680077791214e-03" rms="2.9295983910560608e-01" purity="4.9812573194503784e-01" nType="0">
        <Node pos="l" depth="1" NCoef="0" IVar="52" Cut="-1.5312165021896362e+00" cType="1" res="-6.6896818578243256e-02" rms="2.6191014051437378e-01" purity="2.2323860228061676e-01" nType="0">
          <Node pos="l" depth="2" NCoef="0" IVar="-1" Cut="0.0000000000000000e+00" cType="1" res="6.2240060651674867e-04" rms="3.1790247559547424e-01" purity="4.1329106688499451e-01" nType="-99"/>
          <Node pos="r" depth="2" NCoef="0" IVar="-1" Cut="0.0000000000000000e+00" cType="1" res="-5.7911030016839504e-03" rms="2.3333720862865448e-01" purity="1.5785272419452667e-01" nType="-99"/>
        </Node>
        <Node pos="r" depth="1" NCoef="0" IVar="2" Cut="9.2962068319320679e-01" cType="1" res="4.5548047870397568e-02" rms="3.0135631561279297e-01" purity="6.4933651685714722e-01" nType="0">
          <Node pos="l" depth="2" NCoef="0" IVar="-1" Cut="0.0000000000000000e+00" cType="1" res="-9.9197085946798325e-03" rms="2.6302132010459900e-01" purity="8.0307520925998688e-02" nType="-99"/>
          <Node pos="r" depth="2" NCoef="0" IVar="-1" Cut="0.0000000000000000e+00" cType="1" res="2.6287250220775604e-03" rms="2.9567709565162659e-01" purity="6.6781842708587646e-01" nType="-99"/>
        </Node>
      </Node>
    </BinaryTree>
    <BinaryTree type="DecisionTree" boostWeight="1.0000000000000000e+00" itree="197">
      <Node pos="s" depth="0" NCoef="0" IVar="45" Cut="1.6605032682418823e+00" cType="1" res="6.8485951051115990e-03" rms="2.9163199663162231e-01" purity="4.9832484126091003e-01" nType="0">
        <Node pos="l" depth="1" NCoef="0" IVar="45" Cut="9.8898077011108398e-01" cType="1" res="-7.6700694859027863e-02" rms="2.4472139775753021e-01" purity="1.8972900509834290e-01" nType="0">
          <Node pos="l" depth="2" NCoef="0" IVar="-1" Cut="0.0000000000000000e+00" cType="1" res="-9.6508832648396492e-03" rms="1.6594667732715607e-01" purity="6.6261887550354004e-02" nType="-99"/>
          <Node pos="r" depth="2" NCoef="0" IVar="-1" Cut="0.0000000000000000e+00" cType="1" res="-2.2276693489402533e-03" rms="2.7391895651817322e-01" purity="2.6069232821464539e-01" nType="-99"/>
        </Node>
        <Node pos="r" depth="1" NCoef="0" IVar="2" Cut="8.8813960552215576e-01" cType="1" res="4.1267186403274536e-02" rms="3.0224826931953430e-01" purity="6.2545257806777954e-01" nType="0">
          <Node pos="l" depth="2" NCoef="0" IVar="-1" Cut="0.0000000000000000e+00" cType="1" res="-9.6021182835102081e-03" rms="2.7929273247718811e-01" purity="6.6253662109375000e-02" nType="-99"/>
          <Node pos="r" depth="2" NCoef="0" IVar="-1" Cut="0.0000000000000000e+00" cType="1" res="2.4312736932188272e-03" rms="2.9672789573669434e-01" purity="6.4390200376510620e-01" nType="-99"/>
        </Node>
      </Node>
    </BinaryTree>
    <BinaryTree type="DecisionTree" boostWeight="1.0000000000000000e+00" itree="198">
      <Node pos="s" depth="0" NCoef="0" IVar="14" Cut="-1.2989310026168823e+00" cType="1" res="9.8869437351822853e-03" rms="2.9284799098968506e-01" purity="5.0217521190643311e-01" nType="0">
        <Node pos="l" depth="1" NCoef="0" IVar="36" Cut="3.2315531373023987e-01" cType="1" res="-1.0129725560545921e-02" rms="0.0000000000000000e+00" purity="-1.2380809057503939e-03" nType="-99"/>
        <Node pos="r" depth="1" NCoef="0" IVar="34" Cut="1.4473505020141602e+00" cType="1" res="3.9275605231523514e-02" rms="3.3103597164154053e-01" purity="6.5069705247879028e-01" nType="0">
          <Node pos="l" depth="2" NCoef="0" IVar="-1" Cut="0.0000000000000000e+00" cType="1" res="2.3415612522512674e-03" rms="3.2612910866737366e-01" purity="6.8883395195007324e-01" nType="-99"/>
          <Node pos="r" depth="2" NCoef="0" IVar="-1" Cut="0.0000000000000000e+00" cType="1" res="-9.2007061466574669e-03" rms="3.0993351340293884e-01" purity="1.3700403273105621e-01" nType="-99"/>
        </Node>
      </Node>
    </BinaryTree>
    <BinaryTree type="DecisionTree" boostWeight="1.0000000000000000e+00" itree="199">
      <Node pos="s" depth="0" NCoef="0" IVar="1" Cut="3.3666319847106934e+00" cType="1" res="6.8280049599707127e-03" rms="2.9171547293663025e-01" purity="4.9879333376884460e-01" nType="0">
        <Node pos="l" depth="1" NCoef="0" IVar="32" Cut="-1.5312128067016602e+00" cType="1" res="-3.0382119119167328e-02" rms="2.9354685544967651e-01" purity="3.4745079278945923e-01" nType="0">
          <Node pos="l" depth="2" NCoef="0" IVar="-1" Cut="0.0000000000000000e+00" cType="1" res="1.7581898719072342e-03" rms="3.1140455603599548e-01" purity="5.4167151451110840e-01" nType="-99"/>
          <Node pos="r" depth="2" NCoef="0" IVar="-1" Cut="0.0000000000000000e+00" cType="1" res="-3.7710738833993673e-03" rms="2.7627888321876526e-01" purity="2.4312308430671692e-01" nType="-99"/>
        </Node>
        <Node pos="r" depth="1" NCoef="0" IVar="54" Cut="1.3684949874877930e+00" cType="1" res="8.2788743078708649e-02" rms="2.7260467410087585e-01" purity="8.0774402618408203e-01" nType="0">
          <Node pos="l" depth="2" NCoef="0" IVar="-1" Cut="0.0000000000000000e+00" cType="1" res="4.3991142883896828e-03" rms="2.5435543060302734e-01" purity="8.4120649099349976e-01" nType="-99"/>
          <Node pos="r" depth="2" NCoef="0" IVar="-1" Cut="0.0000000000000000e+00" cType="1" res="-4.3763774447143078e-03" rms="4.1910824179649353e-01" purity="3.2251444458961487e-01" nType="-99"/>
        </Node>
      </Node>
    </BinaryTree>
    <BinaryTree type="DecisionTree" boostWeight="1.0000000000000000e+00" itree="200">
      <Node pos="s" depth="0" NCoef="0" IVar="45" Cut="1.6605032682418823e+00" cType="1" res="7.6450332999229431e-03" rms="2.9083535075187683e-01" purity="5.0080662965774536e-01" nType="0">
        <Node pos="l" depth="1" NCoef="0" IVar="0" Cut="7.8508603572845459e-01" cType="1" res="-7.6728150248527527e-02" rms="2.4414442479610443e-01" purity="1.9197286665439606e-01" nType="0">
          <Node pos="l" depth="2" NCoef="0" IVar="-1" Cut="0.0000000000000000e+00" cType="1" res="-2.6063683908432722e-03" rms="2.6667460799217224e-01" purity="2.4224089086055756e-01" nType="-99"/>
          <Node pos="r" depth="2" NCoef="0" IVar="-1" Cut="0.0000000000000000e+00" cType="1" res="-1.0027250275015831e-02" rms="1.5943634510040283e-01" purity="7.3047585785388947e-02" nType="-99"/>
        </Node>
        <Node pos="r" depth="1" NCoef="0" IVar="2" Cut="8.8813960552215576e-01" cType="1" res="4.2277600616216660e-02" rms="3.0119213461875916e-01" purity="6.2757325172424316e-01" nType="0">
          <Node pos="l" depth="2" NCoef="0" IVar="-1" Cut="0.0000000000000000e+00" cType="1" res="-9.9103022366762161e-03" rms="2.2455476224422455e-01" purity="4.4016111642122269e-02" nType="-99"/>
          <Node pos="r" depth="2" NCoef="0" IVar="-1" Cut="0.0000000000000000e+00" cType="1" res="2.4976944550871849e-03" rms="2.9668202996253967e-01" purity="6.4641821384429932e-01" nType="-99"/>
        </Node>
      </Node>
    </BinaryTree>
    <BinaryTree type="DecisionTree" boostWeight="1.0000000000000000e+00" itree="201">
      <Node pos="s" depth="0" NCoef="0" IVar="34" Cut="-8.3485031127929688e-01" cType="1" res="7.6287994161248207e-03" rms="2.9006123542785645e-01" purity="5.0291889905929565e-01" nType="0">
        <Node pos="l" depth="1" NCoef="0" IVar="54" Cut="-1.3763517141342163e+00" cType="1" res="3.8406152278184891e-02" rms="2.8653526306152344e-01" purity="5.9391283988952637e-01" nType="0">
          <Node pos="l" depth="2" NCoef="0" IVar="-1" Cut="0.0000000000000000e+00" cType="1" res="3.7196658086031675e-03" rms="2.6243525743484497e-01" purity="7.1160972118377686e-01" nType="-99"/>
          <Node pos="r" depth="2" NCoef="0" IVar="-1" Cut="0.0000000000000000e+00" cType="1" res="-2.7206379454582930e-03" rms="3.1369754672050476e-01" purity="3.3823755383491516e-01" nType="-99"/>
        </Node>
        <Node pos="r" depth="1" NCoef="0" IVar="34" Cut="1.4449636936187744e+00" cType="1" res="-8.5625343024730682e-02" rms="2.8058716654777527e-01" purity="2.2721083462238312e-01" nType="0">
          <Node pos="l" depth="2" NCoef="0" IVar="-1" Cut="0.0000000000000000e+00" cType="1" res="-2.5786662008613348e-03" rms="3.0343493819236755e-01" purity="3.0989915132522583e-01" nType="-99"/>
          <Node pos="r" depth="2" NCoef="0" IVar="-1" Cut="0.0000000000000000e+00" cType="1" res="-1.0245700366795063e-02" rms="2.1430632472038269e-01" purity="6.9306381046772003e-02" nType="-99"/>
        </Node>
      </Node>
    </BinaryTree>
    <BinaryTree type="DecisionTree" boostWeight="1.0000000000000000e+00" itree="202">
      <Node pos="s" depth="0" NCoef="0" IVar="1" Cut="2.3264305591583252e+00" cType="1" res="6.1960862949490547e-03" rms="2.9232439398765564e-01" purity="4.9808639287948608e-01" nType="0">
        <Node pos="l" depth="1" NCoef="0" IVar="0" Cut="4.9157205224037170e-01" cType="1" res="-9.9751971662044525e-02" rms="1.4686764776706696e-01" purity="6.2783420085906982e-02" nType="0">
          <Node pos="l" depth="2" NCoef="0" IVar="-1" Cut="0.0000000000000000e+00" cType="1" res="-3.2595274969935417e-03" rms="2.3430849611759186e-01" purity="1.3393121957778931e-01" nType="-99"/>
          <Node pos="r" depth="2" NCoef="0" IVar="-1" Cut="0.0000000000000000e+00" cType="1" res="-1.0416966862976551e-02" rms="0.0000000000000000e+00" purity="1.6515357419848442e-02" nType="-99"/>
        </Node>
        <Node pos="r" depth="1" NCoef="0" IVar="2" Cut="9.9335157871246338e-01" cType="1" res="3.3700540661811829e-02" rms="3.1363570690155029e-01" purity="6.1109244823455811e-01" nType="0">
          <Node pos="l" depth="2" NCoef="0" IVar="-1" Cut="0.0000000000000000e+00" cType="1" res="-9.3086017295718193e-03" rms="2.3958034813404083e-01" purity="7.5934849679470062e-02" nType="-99"/>
          <Node pos="r" depth="2" NCoef="0" IVar="-1" Cut="0.0000000000000000e+00" cType="1" res="2.1402880083769560e-03" rms="3.1000223755836487e-01" purity="6.3307315111160278e-01" nType="-99"/>
        </Node>
      </Node>
    </BinaryTree>
    <BinaryTree type="DecisionTree" boostWeight="1.0000000000000000e+00" itree="203">
      <Node pos="s" depth="0" NCoef="0" IVar="34" Cut="-6.0873623937368393e-02" cType="1" res="7.2303772903978825e-03" rms="2.9106226563453674e-01" purity="5.0151258707046509e-01" nType="0">
        <Node pos="l" depth="1" NCoef="0" IVar="54" Cut="-1.2989737987518311e+00" cType="1" res="3.5362038761377335e-02" rms="2.8906327486038208e-01" purity="5.8484017848968506e-01" nType="0">
          <Node pos="l" depth="2" NCoef="0" IVar="-1" Cut="0.0000000000000000e+00" cType="1" res="3.4764800220727921e-03" rms="2.6830041408538818e-01" purity="6.9602143764495850e-01" nType="-99"/>
          <Node pos="r" depth="2" NCoef="0" IVar="-1" Cut="0.0000000000000000e+00" cType="1" res="-3.1612224411219358e-03" rms="3.1397196650505066e-01" purity="3.1271681189537048e-01" nType="-99"/>
        </Node>
        <Node pos="r" depth="1" NCoef="0" IVar="34" Cut="1.4437537193298340e+00" cType="1" res="-9.0544365346431732e-02" rms="2.7647310495376587e-01" purity="2.1189814805984497e-01" nType="0">
          <Node pos="l" depth="2" NCoef="0" IVar="-1" Cut="0.0000000000000000e+00" cType="1" res="-2.6277438737452030e-03" rms="3.0305966734886169e-01" purity="3.0350649356842041e-01" nType="-99"/>
          <Node pos="r" depth="2" NCoef="0" IVar="-1" Cut="0.0000000000000000e+00" cType="1" res="-1.0227262042462826e-02" rms="2.1421094238758087e-01" purity="6.8904273211956024e-02" nType="-99"/>
        </Node>
      </Node>
    </BinaryTree>
    <BinaryTree type="DecisionTree" boostWeight="1.0000000000000000e+00" itree="204">
      <Node pos="s" depth="0" NCoef="0" IVar="25" Cut="1.2396432161331177e+00" cType="1" res="4.9939178861677647e-03" rms="2.9049026966094971e-01" purity="4.9750500917434692e-01" nType="0">
        <Node pos="l" depth="1" NCoef="0" IVar="29" Cut="2.7928471565246582e+00" cType="1" res="-1.2267047911882401e-01" rms="1.9102767109870911e-01" purity="1.0559799522161484e-01" nType="0">
          <Node pos="l" depth="2" NCoef="0" IVar="-1" Cut="0.0000000000000000e+00" cType="1" res="-1.0999474674463272e-02" rms="1.3968561589717865e-01" purity="5.5498231202363968e-02" nType="-99"/>
          <Node pos="r" depth="2" NCoef="0" IVar="-1" Cut="0.0000000000000000e+00" cType="1" res="-3.5463813692331314e-03" rms="2.4596473574638367e-01" purity="1.9542831182479858e-01" nType="-99"/>
        </Node>
        <Node pos="r" depth="1" NCoef="0" IVar="2" Cut="1.1974477767944336e+00" cType="1" res="2.8793586418032646e-02" rms="2.9951325058937073e-01" purity="5.7056576013565063e-01" nType="0">
          <Node pos="l" depth="2" NCoef="0" IVar="-1" Cut="0.0000000000000000e+00" cType="1" res="-7.3605808429419994e-03" rms="2.7383604645729065e-01" purity="1.3064381480216980e-01" nType="-99"/>
          <Node pos="r" depth="2" NCoef="0" IVar="-1" Cut="0.0000000000000000e+00" cType="1" res="2.1311833988875151e-03" rms="2.9561111330986023e-01" purity="6.0460376739501953e-01" nType="-99"/>
        </Node>
      </Node>
    </BinaryTree>
    <BinaryTree type="DecisionTree" boostWeight="1.0000000000000000e+00" itree="205">
      <Node pos="s" depth="0" NCoef="0" IVar="45" Cut="1.1895664930343628e+00" cType="1" res="7.1616088971495628e-03" rms="2.8884881734848022e-01" purity="5.0023192167282104e-01" nType="0">
        <Node pos="l" depth="1" NCoef="0" IVar="49" Cut="2.8584742546081543e+00" cType="1" res="-1.2296589463949203e-01" rms="1.7816986143589020e-01" purity="9.9404051899909973e-02" nType="0">
          <Node pos="l" depth="2" NCoef="0" IVar="-1" Cut="0.0000000000000000e+00" cType="1" res="-1.1557104997336864e-02" rms="1.0627917945384979e-01" purity="4.1111499071121216e-02" nType="-99"/>
          <Node pos="r" depth="2" NCoef="0" IVar="-1" Cut="0.0000000000000000e+00" cType="1" res="-1.6173940384760499e-03" rms="2.6490455865859985e-01" purity="2.4475511908531189e-01" nType="-99"/>
        </Node>
        <Node pos="r" depth="1" NCoef="0" IVar="2" Cut="1.3089874982833862e+00" cType="1" res="2.9557887464761734e-02" rms="2.9818433523178101e-01" purity="5.6921845674514771e-01" nType="0">
          <Node pos="l" depth="2" NCoef="0" IVar="-1" Cut="0.0000000000000000e+00" cType="1" res="-6.7108953371644020e-03" rms="2.7004063129425049e-01" purity="1.4507696032524109e-01" nType="-99"/>
          <Node pos="r" depth="2" NCoef="0" IVar="-1" Cut="0.0000000000000000e+00" cType="1" res="2.2859582677483559e-03" rms="2.9489207267761230e-01" purity="6.1218774318695068e-01" nType="-99"/>
        </Node>
      </Node>
    </BinaryTree>
    <BinaryTree type="DecisionTree" boostWeight="1.0000000000000000e+00" itree="206">
      <Node pos="s" depth="0" NCoef="0" IVar="34" Cut="-9.9904254078865051e-02" cType="1" res="7.1845739148557186e-03" rms="2.9118102788925171e-01" purity="4.9995371699333191e-01" nType="0">
        <Node pos="l" depth="1" NCoef="0" IVar="54" Cut="1.0223221778869629e+00" cType="1" res="3.5324465483427048e-02" rms="2.9091820120811462e-01" purity="5.8291465044021606e-01" nType="0">
          <Node pos="l" depth="2" NCoef="0" IVar="-1" Cut="0.0000000000000000e+00" cType="1" res="2.8452018741518259e-03" rms="2.8260922431945801e-01" purity="6.5379530191421509e-01" nType="-99"/>
          <Node pos="r" depth="2" NCoef="0" IVar="-1" Cut="0.0000000000000000e+00" cType="1" res="-6.1949975788593292e-03" rms="2.9491239786148071e-01" purity="1.7436471581459045e-01" nType="-99"/>
        </Node>
        <Node pos="r" depth="1" NCoef="0" IVar="36" Cut="1.5244253873825073e+00" cType="1" res="-9.0397313237190247e-02" rms="2.7027535438537598e-01" purity="2.1226668357849121e-01" nType="0">
          <Node pos="l" depth="2" NCoef="0" IVar="-1" Cut="0.0000000000000000e+00" cType="1" res="-3.8638319820165634e-03" rms="2.7915194630622864e-01" purity="2.4771942198276520e-01" nType="-99"/>
          <Node pos="r" depth="2" NCoef="0" IVar="-1" Cut="0.0000000000000000e+00" cType="1" res="-1.2875939719378948e-02" rms="1.7733447253704071e-01" purity="2.3023795336484909e-02" nType="-99"/>
        </Node>
      </Node>
    </BinaryTree>
    <BinaryTree type="DecisionTree" boostWeight="1.0000000000000000e+00" itree="207">
      <Node pos="s" depth="0" NCoef="0" IVar="45" Cut="1.2178915739059448e+00" cType="1" res="6.1656376346945763e-03" rms="2.9262819886207581e-01" purity="4.9798667430877686e-01" nType="0">
        <Node pos="l" depth="1" NCoef="0" IVar="49" Cut="2.9905438423156738e+00" cType="1" res="-1.1202406883239746e-01" rms="1.9743306934833527e-01" purity="1.1361909657716751e-01" nType="0">
          <Node pos="l" depth="2" NCoef="0" IVar="-1" Cut="0.0000000000000000e+00" cType="1" res="-1.0028970427811146e-02" rms="1.5416975319385529e-01" purity="6.6379554569721222e-02" nType="-99"/>
          <Node pos="r" depth="2" NCoef="0" IVar="-1" Cut="0.0000000000000000e+00" cType="1" res="-3.3041287679225206e-04" rms="2.7805501222610474e-01" purity="2.7768447995185852e-01" nType="-99"/>
        </Node>
        <Node pos="r" depth="1" NCoef="0" IVar="2" Cut="8.8813960552215576e-01" cType="1" res="2.7731113135814667e-02" rms="3.0187684297561646e-01" purity="5.6812018156051636e-01" nType="0">
          <Node pos="l" depth="2" NCoef="0" IVar="-1" Cut="0.0000000000000000e+00" cType="1" res="-9.1532291844487190e-03" rms="2.3470599949359894e-01" purity="5.3843189030885696e-02" nType="-99"/>
          <Node pos="r" depth="2" NCoef="0" IVar="-1" Cut="0.0000000000000000e+00" cType="1" res="1.8986219074577093e-03" rms="2.9910737276077271e-01" purity="5.9039121866226196e-01" nType="-99"/>
        </Node>
      </Node>
    </BinaryTree>
    <BinaryTree type="DecisionTree" boostWeight="1.0000000000000000e+00" itree="208">
      <Node pos="s" depth="0" NCoef="0" IVar="25" Cut="1.3753144741058350e+00" cType="1" res="7.0676119066774845e-03" rms="2.9039806127548218e-01" purity="5.0025957822799683e-01" nType="0">
        <Node pos="l" depth="1" NCoef="0" IVar="29" Cut="2.7927474975585938e+00" cType="1" res="-9.8360054194927216e-02" rms="2.0991514623165131e-01" purity="1.3513550162315369e-01" nType="0">
          <Node pos="l" depth="2" NCoef="0" IVar="-1" Cut="0.0000000000000000e+00" cType="1" res="-9.8980180919170380e-03" rms="1.4758144319057465e-01" purity="7.6574616134166718e-02" nType="-99"/>
          <Node pos="r" depth="2" NCoef="0" IVar="-1" Cut="0.0000000000000000e+00" cType="1" res="-2.1996565628796816e-03" rms="2.6105126738548279e-01" purity="2.1580170094966888e-01" nType="-99"/>
        </Node>
        <Node pos="r" depth="1" NCoef="0" IVar="34" Cut="7.5058168172836304e-01" cType="1" res="3.2826844602823257e-02" rms="3.0131402611732483e-01" purity="5.8947062492370605e-01" nType="0">
          <Node pos="l" depth="2" NCoef="0" IVar="-1" Cut="0.0000000000000000e+00" cType="1" res="2.6526749134063721e-03" rms="2.9445803165435791e-01" purity="6.6071456670761108e-01" nType="-99"/>
          <Node pos="r" depth="2" NCoef="0" IVar="-1" Cut="0.0000000000000000e+00" cType="1" res="-5.4371110163629055e-03" rms="3.0350923538208008e-01" purity="2.0669396221637726e-01" nType="-99"/>
        </Node>
      </Node>
    </BinaryTree>
    <BinaryTree type="DecisionTree" boostWeight="1.0000000000000000e+00" itree="209">
      <Node pos="s" depth="0" NCoef="0" IVar="2" Cut="1.7591773271560669e+00" cType="1" res="5.7504600845277309e-03" rms="2.8622266650199890e-01" purity="5.0013554096221924e-01" nType="0">
        <Node pos="l" depth="1" NCoef="0" IVar="2" Cut="5.4300594329833984e-01" cType="1" res="-8.3016745746135712e-02" rms="2.4192942678928375e-01" purity="1.8767708539962769e-01" nType="0">
          <Node pos="l" depth="2" NCoef="0" IVar="-1" Cut="0.0000000000000000e+00" cType="1" res="-1.1065072380006313e-02" rms="0.0000000000000000e+00" purity="-4.8823602497577667e-02" nType="-99"/>
          <Node pos="r" depth="2" NCoef="0" IVar="-1" Cut="0.0000000000000000e+00" cType="1" res="-3.5639668349176645e-03" rms="2.4408617615699768e-01" purity="2.1033807098865509e-01" nType="-99"/>
        </Node>
        <Node pos="r" depth="1" NCoef="0" IVar="36" Cut="1.4858274459838867e+00" cType="1" res="3.6618344485759735e-02" rms="2.9387992620468140e-01" purity="6.0878980159759521e-01" nType="0">
          <Node pos="l" depth="2" NCoef="0" IVar="-1" Cut="0.0000000000000000e+00" cType="1" res="2.4273472372442484e-03" rms="2.8930407762527466e-01" purity="6.4455348253250122e-01" nType="-99"/>
          <Node pos="r" depth="2" NCoef="0" IVar="-1" Cut="0.0000000000000000e+00" cType="1" res="-9.8590422421693802e-03" rms="2.8305035829544067e-01" purity="8.7356939911842346e-02" nType="-99"/>
        </Node>
      </Node>
    </BinaryTree>
    <BinaryTree type="DecisionTree" boostWeight="1.0000000000000000e+00" itree="210">
      <Node pos="s" depth="0" NCoef="0" IVar="14" Cut="-1.2989310026168823e+00" cType="1" res="6.7569240927696228e-03" rms="2.8990200161933899e-01" purity="4.9915465712547302e-01" nType="0">
        <Node pos="l" depth="1" NCoef="0" IVar="53" Cut="1.5968851745128632e-02" cType="1" res="-9.9519081413745880e-03" rms="0.0000000000000000e+00" purity="5.3282990120351315e-04" nType="-99"/>
        <Node pos="r" depth="1" NCoef="0" IVar="2" Cut="6.6189116239547729e-01" cType="1" res="3.4327749162912369e-02" rms="3.2843339443206787e-01" purity="6.4688998460769653e-01" nType="0">
          <Node pos="l" depth="2" NCoef="0" IVar="-1" Cut="0.0000000000000000e+00" cType="1" res="-9.9799493327736855e-03" rms="1.5478336811065674e-01" purity="-9.0589653700590134e-04" nType="-99"/>
          <Node pos="r" depth="2" NCoef="0" IVar="-1" Cut="0.0000000000000000e+00" cType="1" res="1.9524879753589630e-03" rms="3.2590216398239136e-01" purity="6.6547399759292603e-01" nType="-99"/>
        </Node>
      </Node>
    </BinaryTree>
    <BinaryTree type="DecisionTree" boostWeight="1.0000000000000000e+00" itree="211">
      <Node pos="s" depth="0" NCoef="0" IVar="2" Cut="1.0027880668640137e+00" cType="1" res="6.9874837063252926e-03" rms="2.8696045279502869e-01" purity="5.0043338537216187e-01" nType="0">
        <Node pos="l" depth="1" NCoef="0" IVar="1" Cut="2.6895496845245361e+00" cType="1" res="-2.1699585020542145e-01" rms="1.7633639276027679e-01" purity="3.8471274077892303e-02" nType="0">
          <Node pos="l" depth="2" NCoef="0" IVar="-1" Cut="0.0000000000000000e+00" cType="1" res="-8.3156656473875046e-03" rms="3.7440456449985504e-02" purity="2.1505761891603470e-02" nType="-99"/>
          <Node pos="r" depth="2" NCoef="0" IVar="-1" Cut="0.0000000000000000e+00" cType="1" res="-1.0318927466869354e-02" rms="2.2690075635910034e-01" purity="6.3287056982517242e-02" nType="-99"/>
        </Node>
        <Node pos="r" depth="1" NCoef="0" IVar="14" Cut="-1.2602924108505249e+00" cType="1" res="1.9129108637571335e-02" rms="2.8680583834648132e-01" purity="5.2547532320022583e-01" nType="0">
          <Node pos="l" depth="2" NCoef="0" IVar="-1" Cut="0.0000000000000000e+00" cType="1" res="-9.3266936019062996e-03" rms="0.0000000000000000e+00" purity="6.5693762153387070e-03" nType="-99"/>
          <Node pos="r" depth="2" NCoef="0" IVar="-1" Cut="0.0000000000000000e+00" cType="1" res="2.1518401335924864e-03" rms="3.2156923413276672e-01" purity="6.8001139163970947e-01" nType="-99"/>
        </Node>
      </Node>
    </BinaryTree>
    <BinaryTree type="DecisionTree" boostWeight="1.0000000000000000e+00" itree="212">
      <Node pos="s" depth="0" NCoef="0" IVar="52" Cut="-1.4926078319549561e+00" cType="1" res="7.3410915210843086e-03" rms="2.8968447446823120e-01" purity="4.9906867742538452e-01" nType="0">
        <Node pos="l" depth="1" NCoef="0" IVar="14" Cut="-1.4537111520767212e+00" cType="1" res="4.9103472381830215e-02" rms="2.8609314560890198e-01" purity="6.2846237421035767e-01" nType="0">
          <Node pos="l" depth="2" NCoef="0" IVar="-1" Cut="0.0000000000000000e+00" cType="1" res="-1.0150287300348282e-02" rms="0.0000000000000000e+00" purity="-8.9103187201544642e-04" nType="-99"/>
          <Node pos="r" depth="2" NCoef="0" IVar="-1" Cut="0.0000000000000000e+00" cType="1" res="3.2540298998355865e-03" rms="3.0581921339035034e-01" purity="7.4470907449722290e-01" nType="-99"/>
        </Node>
        <Node pos="r" depth="1" NCoef="0" IVar="56" Cut="1.5239548683166504e+00" cType="1" res="-5.3681023418903351e-02" rms="2.8401827812194824e-01" purity="3.1000199913978577e-01" nType="0">
          <Node pos="l" depth="2" NCoef="0" IVar="-1" Cut="0.0000000000000000e+00" cType="1" res="-2.0670592784881592e-03" rms="2.8714972734451294e-01" purity="3.3980652689933777e-01" nType="-99"/>
          <Node pos="r" depth="2" NCoef="0" IVar="-1" Cut="0.0000000000000000e+00" cType="1" res="-1.2561260722577572e-02" rms="2.0123088359832764e-01" purity="3.2314959913492203e-02" nType="-99"/>
        </Node>
      </Node>
    </BinaryTree>
    <BinaryTree type="DecisionTree" boostWeight="1.0000000000000000e+00" itree="213">
      <Node pos="s" depth="0" NCoef="0" IVar="14" Cut="1.4870474338531494e+00" cType="1" res="8.0988509580492973e-03" rms="2.8830987215042114e-01" purity="5.0097340345382690e-01" nType="0">
        <Node pos="l" depth="1" NCoef="0" IVar="65" Cut="6.1904543638229370e-01" cType="1" res="-4.1480340063571930e-02" rms="2.6713809370994568e-01" purity="2.4205984175205231e-01" nType="0">
          <Node pos="l" depth="2" NCoef="0" IVar="-1" Cut="0.0000000000000000e+00" cType="1" res="-8.4410654380917549e-04" rms="2.8978562355041504e-01" purity="2.9008612036705017e-01" nType="-99"/>
          <Node pos="r" depth="2" NCoef="0" IVar="-1" Cut="0.0000000000000000e+00" cType="1" res="-7.6807746663689613e-03" rms="1.7645932734012604e-01" purity="1.1576820909976959e-01" nType="-99"/>
        </Node>
        <Node pos="r" depth="1" NCoef="0" IVar="56" Cut="1.4467463493347168e+00" cType="1" res="5.7803884148597717e-02" rms="2.9996219277381897e-01" purity="7.6054424047470093e-01" nType="0">
          <Node pos="l" depth="2" NCoef="0" IVar="-1" Cut="0.0000000000000000e+00" cType="1" res="3.2975927460938692e-03" rms="2.8957316279411316e-01" purity="8.0564624071121216e-01" nType="-99"/>
          <Node pos="r" depth="2" NCoef="0" IVar="-1" Cut="0.0000000000000000e+00" cType="1" res="-9.4306040555238724e-03" rms="3.1292104721069336e-01" purity="1.3025945425033569e-01" nType="-99"/>
        </Node>
      </Node>
    </BinaryTree>
    <BinaryTree type="DecisionTree" boostWeight="1.0000000000000000e+00" itree="214">
      <Node pos="s" depth="0" NCoef="0" IVar="54" Cut="4.4202798604965210e-01" cType="1" res="6.3606519252061844e-03" rms="2.8860601782798767e-01" purity="4.9820899963378906e-01" nType="0">
        <Node pos="l" depth="1" NCoef="0" IVar="36" Cut="-1.1830332279205322e+00" cType="1" res="2.9964378103613853e-02" rms="2.8769481182098389e-01" purity="5.7031267881393433e-01" nType="0">
          <Node pos="l" depth="2" NCoef="0" IVar="-1" Cut="0.0000000000000000e+00" cType="1" res="2.8754866216331720e-03" rms="2.7692717313766479e-01" purity="6.6105479001998901e-01" nType="-99"/>
          <Node pos="r" depth="2" NCoef="0" IVar="-1" Cut="0.0000000000000000e+00" cType="1" res="-3.9669959805905819e-03" rms="2.9931715130805969e-01" purity="2.6432549953460693e-01" nType="-99"/>
        </Node>
        <Node pos="r" depth="1" NCoef="0" IVar="56" Cut="1.5238395929336548e+00" cType="1" res="-1.0220311582088470e-01" rms="2.6713311672210693e-01" purity="1.6657297313213348e-01" nType="0">
          <Node pos="l" depth="2" NCoef="0" IVar="-1" Cut="0.0000000000000000e+00" cType="1" res="-4.4727148488163948e-03" rms="2.8575608134269714e-01" purity="2.0706179738044739e-01" nType="-99"/>
          <Node pos="r" depth="2" NCoef="0" IVar="-1" Cut="0.0000000000000000e+00" cType="1" res="-1.3515796512365341e-02" rms="1.3091994822025299e-01" purity="5.0459327176213264e-03" nType="-99"/>
        </Node>
      </Node>
    </BinaryTree>
    <BinaryTree type="DecisionTree" boostWeight="1.0000000000000000e+00" itree="215">
      <Node pos="s" depth="0" NCoef="0" IVar="25" Cut="1.1203368902206421e+00" cType="1" res="8.5381409153342247e-03" rms="2.8757110238075256e-01" purity="4.9994742870330811e-01" nType="0">
        <Node pos="l" depth="1" NCoef="0" IVar="29" Cut="2.9249372482299805e+00" cType="1" res="-1.1961197853088379e-01" rms="1.7355965077877045e-01" purity="8.5884667932987213e-02" nType="0">
          <Node pos="l" depth="2" NCoef="0" IVar="-1" Cut="0.0000000000000000e+00" cType="1" res="-1.0860566049814224e-02" rms="1.2101501226425171e-01" purity="4.5378994196653366e-02" nType="-99"/>
          <Node pos="r" depth="2" NCoef="0" IVar="-1" Cut="0.0000000000000000e+00" cType="1" res="-1.8593998393043876e-03" rms="2.6506277918815613e-01" purity="2.1819251775741577e-01" nType="-99"/>
        </Node>
        <Node pos="r" depth="1" NCoef="0" IVar="32" Cut="1.3245559930801392e+00" cType="1" res="2.8162799775600433e-02" rms="2.9639202356338501e-01" purity="5.6335622072219849e-01" nType="0">
          <Node pos="l" depth="2" NCoef="0" IVar="-1" Cut="0.0000000000000000e+00" cType="1" res="2.2658787202090025e-03" rms="2.9362243413925171e-01" purity="6.2039041519165039e-01" nType="-99"/>
          <Node pos="r" depth="2" NCoef="0" IVar="-1" Cut="0.0000000000000000e+00" cType="1" res="-6.5108984708786011e-03" rms="2.7813446521759033e-01" purity="1.6313211619853973e-01" nType="-99"/>
        </Node>
      </Node>
    </BinaryTree>
    <BinaryTree type="DecisionTree" boostWeight="1.0000000000000000e+00" itree="216">
      <Node pos="s" depth="0" NCoef="0" IVar="56" Cut="-1.1057127714157104e+00" cType="1" res="8.8858352974057198e-03" rms="2.8854078054428101e-01" purity="5.0178086757659912e-01" nType="0">
        <Node pos="l" depth="1" NCoef="0" IVar="14" Cut="-1.2989952564239502e+00" cType="1" res="3.6040343344211578e-02" rms="2.9028329253196716e-01" purity="5.8688712120056152e-01" nType="0">
          <Node pos="l" depth="2" NCoef="0" IVar="-1" Cut="0.0000000000000000e+00" cType="1" res="-8.1153186038136482e-03" rms="9.1082811355590820e-02" purity="1.7102686688303947e-02" nType="-99"/>
          <Node pos="r" depth="2" NCoef="0" IVar="-1" Cut="0.0000000000000000e+00" cType="1" res="2.7560107409954071e-03" rms="3.1598341464996338e-01" purity="7.3342829942703247e-01" nType="-99"/>
        </Node>
        <Node pos="r" depth="1" NCoef="0" IVar="56" Cut="1.4968791007995605e+00" cType="1" res="-8.2324296236038208e-02" rms="2.6281529664993286e-01" purity="2.1591469645500183e-01" nType="0">
          <Node pos="l" depth="2" NCoef="0" IVar="-1" Cut="0.0000000000000000e+00" cType="1" res="-2.9713837429881096e-03" rms="2.7727383375167847e-01" purity="2.7998569607734680e-01" nType="-99"/>
          <Node pos="r" depth="2" NCoef="0" IVar="-1" Cut="0.0000000000000000e+00" cType="1" res="-1.1079651303589344e-02" rms="1.9829832017421722e-01" purity="4.2023379355669022e-02" nType="-99"/>
        </Node>
      </Node>
    </BinaryTree>
    <BinaryTree type="DecisionTree" boostWeight="1.0000000000000000e+00" itree="217">
      <Node pos="s" depth="0" NCoef="0" IVar="52" Cut="-1.4926165342330933e+00" cType="1" res="6.3762892968952656e-03" rms="2.8648108243942261e-01" purity="4.9889406561851501e-01" nType="0">
        <Node pos="l" depth="1" NCoef="0" IVar="34" Cut="5.9686189889907837e-01" cType="1" res="4.7322936356067657e-02" rms="2.8620496392250061e-01" purity="6.2844431400299072e-01" nType="0">
          <Node pos="l" depth="2" NCoef="0" IVar="-1" Cut="0.0000000000000000e+00" cType="1" res="3.4124609082937241e-03" rms="2.7233633399009705e-01" purity="6.9889664649963379e-01" nType="-99"/>
          <Node pos="r" depth="2" NCoef="0" IVar="-1" Cut="0.0000000000000000e+00" cType="1" res="-4.5701707713305950e-03" rms="3.2085096836090088e-01" purity="2.4560047686100006e-01" nType="-99"/>
        </Node>
        <Node pos="r" depth="1" NCoef="0" IVar="45" Cut="1.1554278135299683e+00" cType="1" res="-5.4609216749668121e-02" rms="2.7584517002105713e-01" purity="3.0594334006309509e-01" nType="0">
          <Node pos="l" depth="2" NCoef="0" IVar="-1" Cut="0.0000000000000000e+00" cType="1" res="-1.1292414739727974e-02" rms="5.2253253757953644e-02" purity="2.7957173064351082e-02" nType="-99"/>
          <Node pos="r" depth="2" NCoef="0" IVar="-1" Cut="0.0000000000000000e+00" cType="1" res="-1.5159987378865480e-03" rms="3.0618104338645935e-01" purity="3.8361331820487976e-01" nType="-99"/>
        </Node>
      </Node>
    </BinaryTree>
    <BinaryTree type="DecisionTree" boostWeight="1.0000000000000000e+00" itree="218">
      <Node pos="s" depth="0" NCoef="0" IVar="56" Cut="-1.4924490451812744e+00" cType="1" res="7.8851822763681412e-03" rms="2.8945258259773254e-01" purity="5.0105732679367065e-01" nType="0">
        <Node pos="l" depth="1" NCoef="0" IVar="34" Cut="-1.1055123805999756e+00" cType="1" res="4.8572786152362823e-02" rms="2.8264069557189941e-01" purity="6.3610756397247314e-01" nType="0">
          <Node pos="l" depth="2" NCoef="0" IVar="-1" Cut="0.0000000000000000e+00" cType="1" res="3.8901616353541613e-03" rms="2.5776356458663940e-01" purity="7.3228675127029419e-01" nType="-99"/>
          <Node pos="r" depth="2" NCoef="0" IVar="-1" Cut="0.0000000000000000e+00" cType="1" res="-2.8363268356770277e-03" rms="3.2799649238586426e-01" purity="3.3511927723884583e-01" nType="-99"/>
        </Node>
        <Node pos="r" depth="1" NCoef="0" IVar="56" Cut="1.5250486135482788e+00" cType="1" res="-5.1038365811109543e-02" rms="2.8906232118606567e-01" purity="3.0547845363616943e-01" nType="0">
          <Node pos="l" depth="2" NCoef="0" IVar="-1" Cut="0.0000000000000000e+00" cType="1" res="-1.9506966928020120e-03" rms="2.9376497864723206e-01" purity="3.3455085754394531e-01" nType="-99"/>
          <Node pos="r" depth="2" NCoef="0" IVar="-1" Cut="0.0000000000000000e+00" cType="1" res="-1.2930443510413170e-02" rms="1.8046066164970398e-01" purity="2.2534351795911789e-02" nType="-99"/>
        </Node>
      </Node>
    </BinaryTree>
    <BinaryTree type="DecisionTree" boostWeight="1.0000000000000000e+00" itree="219">
      <Node pos="s" depth="0" NCoef="0" IVar="14" Cut="1.4484179019927979e+00" cType="1" res="5.9882136993110180e-03" rms="2.8541737794876099e-01" purity="5.0023430585861206e-01" nType="0">
        <Node pos="l" depth="1" NCoef="0" IVar="65" Cut="7.0739358663558960e-01" cType="1" res="-5.1379248499870300e-02" rms="2.4902398884296417e-01" purity="1.9219835102558136e-01" nType="0">
          <Node pos="l" depth="2" NCoef="0" IVar="-1" Cut="0.0000000000000000e+00" cType="1" res="-1.8986639333888888e-03" rms="2.6647406816482544e-01" purity="2.2612594068050385e-01" nType="-99"/>
          <Node pos="r" depth="2" NCoef="0" IVar="-1" Cut="0.0000000000000000e+00" cType="1" res="-1.0349169373512268e-02" rms="1.1769261956214905e-01" purity="4.9883864820003510e-02" nType="-99"/>
        </Node>
        <Node pos="r" depth="1" NCoef="0" IVar="36" Cut="1.4855418205261230e+00" cType="1" res="5.1974292844533920e-02" rms="3.0381175875663757e-01" purity="7.4715769290924072e-01" nType="0">
          <Node pos="l" depth="2" NCoef="0" IVar="-1" Cut="0.0000000000000000e+00" cType="1" res="2.9715520795434713e-03" rms="2.9451677203178406e-01" purity="7.8746849298477173e-01" nType="-99"/>
          <Node pos="r" depth="2" NCoef="0" IVar="-1" Cut="0.0000000000000000e+00" cType="1" res="-9.7352359443902969e-03" rms="3.2605436444282532e-01" purity="1.1806977540254593e-01" nType="-99"/>
        </Node>
      </Node>
    </BinaryTree>
    <BinaryTree type="DecisionTree" boostWeight="1.0000000000000000e+00" itree="220">
      <Node pos="s" depth="0" NCoef="0" IVar="45" Cut="1.6342350244522095e+00" cType="1" res="6.6204532049596310e-03" rms="2.8446739912033081e-01" purity="5.0248163938522339e-01" nType="0">
        <Node pos="l" depth="1" NCoef="0" IVar="0" Cut="6.5935307741165161e-01" cType="1" res="-7.3298707604408264e-02" rms="2.3516044020652771e-01" purity="1.8754670023918152e-01" nType="0">
          <Node pos="l" depth="2" NCoef="0" IVar="-1" Cut="0.0000000000000000e+00" cType="1" res="-1.8326987046748400e-03" rms="2.7014937996864319e-01" purity="2.6315453648567200e-01" nType="-99"/>
          <Node pos="r" depth="2" NCoef="0" IVar="-1" Cut="0.0000000000000000e+00" cType="1" res="-9.1567868366837502e-03" rms="1.6242067515850067e-01" purity="8.5960879921913147e-02" nType="-99"/>
        </Node>
        <Node pos="r" depth="1" NCoef="0" IVar="2" Cut="8.9047807455062866e-01" cType="1" res="3.7852894514799118e-02" rms="2.9574140906333923e-01" purity="6.2555837631225586e-01" nType="0">
          <Node pos="l" depth="2" NCoef="0" IVar="-1" Cut="0.0000000000000000e+00" cType="1" res="-9.2222345992922783e-03" rms="2.2638225555419922e-01" purity="6.8237140774726868e-02" nType="-99"/>
          <Node pos="r" depth="2" NCoef="0" IVar="-1" Cut="0.0000000000000000e+00" cType="1" res="2.3578708060085773e-03" rms="2.9203501343727112e-01" purity="6.4442700147628784e-01" nType="-99"/>
        </Node>
      </Node>
    </BinaryTree>
    <BinaryTree type="DecisionTree" boostWeight="1.0000000000000000e+00" itree="221">
      <Node pos="s" depth="0" NCoef="0" IVar="2" Cut="1.7462874650955200e+00" cType="1" res="5.3487750701606274e-03" rms="2.8738731145858765e-01" purity="4.9781075119972229e-01" nType="0">
        <Node pos="l" depth="1" NCoef="0" IVar="2" Cut="6.7887645959854126e-01" cType="1" res="-7.9753279685974121e-02" rms="2.4609901010990143e-01" purity="1.8659086525440216e-01" nType="0">
          <Node pos="l" depth="2" NCoef="0" IVar="-1" Cut="0.0000000000000000e+00" cType="1" res="-1.0120566934347153e-02" rms="1.5488606691360474e-01" purity="7.2818738408386707e-04" nType="-99"/>
          <Node pos="r" depth="2" NCoef="0" IVar="-1" Cut="0.0000000000000000e+00" cType="1" res="-3.3641802147030830e-03" rms="2.4632546305656433e-01" purity="2.1140661835670471e-01" nType="-99"/>
        </Node>
        <Node pos="r" depth="1" NCoef="0" IVar="25" Cut="1.0536981821060181e+00" cType="1" res="3.4344602376222610e-02" rms="2.9459807276725769e-01" purity="6.0384899377822876e-01" nType="0">
          <Node pos="l" depth="2" NCoef="0" IVar="-1" Cut="0.0000000000000000e+00" cType="1" res="-8.8489269837737083e-03" rms="2.3092092573642731e-01" purity="1.1711883544921875e-01" nType="-99"/>
          <Node pos="r" depth="2" NCoef="0" IVar="-1" Cut="0.0000000000000000e+00" cType="1" res="2.4575714487582445e-03" rms="2.9471245408058167e-01" purity="6.4903646707534790e-01" nType="-99"/>
        </Node>
      </Node>
    </BinaryTree>
    <BinaryTree type="DecisionTree" boostWeight="1.0000000000000000e+00" itree="222">
      <Node pos="s" depth="0" NCoef="0" IVar="14" Cut="1.4870474338531494e+00" cType="1" res="7.8777261078357697e-03" rms="2.8647372126579285e-01" purity="5.0282120704650879e-01" nType="0">
        <Node pos="l" depth="1" NCoef="0" IVar="65" Cut="7.0710259675979614e-01" cType="1" res="-3.9595875889062881e-02" rms="2.6518860459327698e-01" purity="2.4685715138912201e-01" nType="0">
          <Node pos="l" depth="2" NCoef="0" IVar="-1" Cut="0.0000000000000000e+00" cType="1" res="-1.2023341841995716e-03" rms="2.8018558025360107e-01" purity="2.8308013081550598e-01" nType="-99"/>
          <Node pos="r" depth="2" NCoef="0" IVar="-1" Cut="0.0000000000000000e+00" cType="1" res="-9.0371808037161827e-03" rms="1.5385724604129791e-01" purity="8.2945905625820160e-02" nType="-99"/>
        </Node>
        <Node pos="r" depth="1" NCoef="0" IVar="36" Cut="1.4471486806869507e+00" cType="1" res="5.5184334516525269e-02" rms="2.9880484938621521e-01" purity="7.5788486003875732e-01" nType="0">
          <Node pos="l" depth="2" NCoef="0" IVar="-1" Cut="0.0000000000000000e+00" cType="1" res="3.2105555292218924e-03" rms="2.8699046373367310e-01" purity="8.0381643772125244e-01" nType="-99"/>
          <Node pos="r" depth="2" NCoef="0" IVar="-1" Cut="0.0000000000000000e+00" cType="1" res="-8.3143841475248337e-03" rms="3.4477391839027405e-01" purity="1.5423467755317688e-01" nType="-99"/>
        </Node>
      </Node>
    </BinaryTree>
    <BinaryTree type="DecisionTree" boostWeight="1.0000000000000000e+00" itree="223">
      <Node pos="s" depth="0" NCoef="0" IVar="14" Cut="1.4096589088439941e+00" cType="1" res="5.9336763806641102e-03" rms="2.8430640697479248e-01" purity="4.9898272752761841e-01" nType="0">
        <Node pos="l" depth="1" NCoef="0" IVar="65" Cut="6.4029288291931152e-01" cType="1" res="-5.1921859383583069e-02" rms="2.3285555839538574e-01" purity="1.6359698772430420e-01" nType="0">
          <Node pos="l" depth="2" NCoef="0" IVar="-1" Cut="0.0000000000000000e+00" cType="1" res="-1.5967650106176734e-03" rms="2.5847080349922180e-01" purity="2.0834046602249146e-01" nType="-99"/>
          <Node pos="r" depth="2" NCoef="0" IVar="-1" Cut="0.0000000000000000e+00" cType="1" res="-9.6884565427899361e-03" rms="1.1636588722467422e-01" purity="4.5292962342500687e-02" nType="-99"/>
        </Node>
        <Node pos="r" depth="1" NCoef="0" IVar="36" Cut="1.4856319427490234e+00" cType="1" res="4.7178711742162704e-02" rms="3.0937319993972778e-01" purity="7.3807823657989502e-01" nType="0">
          <Node pos="l" depth="2" NCoef="0" IVar="-1" Cut="0.0000000000000000e+00" cType="1" res="2.7466597966849804e-03" rms="3.0141052603721619e-01" purity="7.7725398540496826e-01" nType="-99"/>
          <Node pos="r" depth="2" NCoef="0" IVar="-1" Cut="0.0000000000000000e+00" cType="1" res="-9.8335314542055130e-03" rms="3.1914046406745911e-01" purity="1.0945391654968262e-01" nType="-99"/>
        </Node>
      </Node>
    </BinaryTree>
    <BinaryTree type="DecisionTree" boostWeight="1.0000000000000000e+00" itree="224">
      <Node pos="s" depth="0" NCoef="0" IVar="25" Cut="1.2343175411224365e+00" cType="1" res="6.6685187630355358e-03" rms="2.8628969192504883e-01" purity="5.0046199560165405e-01" nType="0">
        <Node pos="l" depth="1" NCoef="0" IVar="29" Cut="2.7927474975585938e+00" cType="1" res="-1.0272483527660370e-01" rms="2.0196031033992767e-01" purity="1.1471123993396759e-01" nType="0">
          <Node pos="l" depth="2" NCoef="0" IVar="-1" Cut="0.0000000000000000e+00" cType="1" res="-1.0177045129239559e-02" rms="1.6297334432601929e-01" purity="6.3519313931465149e-02" nType="-99"/>
          <Node pos="r" depth="2" NCoef="0" IVar="-1" Cut="0.0000000000000000e+00" cType="1" res="-2.5150482542812824e-03" rms="2.4645362794399261e-01" purity="2.0840696990489960e-01" nType="-99"/>
        </Node>
        <Node pos="r" depth="1" NCoef="0" IVar="2" Cut="8.3301770687103271e-01" cType="1" res="2.7583738788962364e-02" rms="2.9514145851135254e-01" purity="5.7421475648880005e-01" nType="0">
          <Node pos="l" depth="2" NCoef="0" IVar="-1" Cut="0.0000000000000000e+00" cType="1" res="-8.7100220844149590e-03" rms="2.2749532759189606e-01" purity="5.6231111288070679e-02" nType="-99"/>
          <Node pos="r" depth="2" NCoef="0" IVar="-1" Cut="0.0000000000000000e+00" cType="1" res="1.8733815522864461e-03" rms="2.9261004924774170e-01" purity="5.9382224082946777e-01" nType="-99"/>
        </Node>
      </Node>
    </BinaryTree>
    <BinaryTree type="DecisionTree" boostWeight="1.0000000000000000e+00" itree="225">
      <Node pos="s" depth="0" NCoef="0" IVar="2" Cut="8.8168579339981079e-01" cType="1" res="6.3187722116708755e-03" rms="2.8415581583976746e-01" purity="4.9837985634803772e-01" nType="0">
        <Node pos="l" depth="1" NCoef="0" IVar="14" Cut="9.4478505849838257e-01" cType="1" res="-2.2987440228462219e-01" rms="1.3222318887710571e-01" purity="1.8464483320713043e-02" nType="0">
          <Node pos="l" depth="2" NCoef="0" IVar="-1" Cut="0.0000000000000000e+00" cType="1" res="-1.2198131531476974e-02" rms="0.0000000000000000e+00" purity="-4.2468968778848648e-02" nType="-99"/>
          <Node pos="r" depth="2" NCoef="0" IVar="-1" Cut="0.0000000000000000e+00" cType="1" res="-8.8716018944978714e-03" rms="2.4344041943550110e-01" purity="7.8888736665248871e-02" nType="-99"/>
        </Node>
        <Node pos="r" depth="1" NCoef="0" IVar="14" Cut="-1.2602359056472778e+00" cType="1" res="1.6450887545943260e-02" rms="2.8453910350799561e-01" purity="5.1896709203720093e-01" nType="0">
          <Node pos="l" depth="2" NCoef="0" IVar="-1" Cut="0.0000000000000000e+00" cType="1" res="-8.8407881557941437e-03" rms="2.8631992638111115e-02" purity="9.6193011850118637e-03" nType="-99"/>
          <Node pos="r" depth="2" NCoef="0" IVar="-1" Cut="0.0000000000000000e+00" cType="1" res="1.9496595486998558e-03" rms="3.1964817643165588e-01" purity="6.7424631118774414e-01" nType="-99"/>
        </Node>
      </Node>
    </BinaryTree>
    <BinaryTree type="DecisionTree" boostWeight="1.0000000000000000e+00" itree="226">
      <Node pos="s" depth="0" NCoef="0" IVar="25" Cut="1.6500213146209717e+00" cType="1" res="6.2713446095585823e-03" rms="2.8419709205627441e-01" purity="5.0025147199630737e-01" nType="0">
        <Node pos="l" depth="1" NCoef="0" IVar="0" Cut="6.6565054655075073e-01" cType="1" res="-6.8037629127502441e-02" rms="2.3698976635932922e-01" purity="1.9609443843364716e-01" nType="0">
          <Node pos="l" depth="2" NCoef="0" IVar="-1" Cut="0.0000000000000000e+00" cType="1" res="-1.5357576776295900e-03" rms="2.7112320065498352e-01" purity="2.7130126953125000e-01" nType="-99"/>
          <Node pos="r" depth="2" NCoef="0" IVar="-1" Cut="0.0000000000000000e+00" cType="1" res="-9.1157965362071991e-03" rms="1.6160063445568085e-01" purity="9.0431503951549530e-02" nType="-99"/>
        </Node>
        <Node pos="r" depth="1" NCoef="0" IVar="2" Cut="8.8813960552215576e-01" cType="1" res="3.6327138543128967e-02" rms="2.9594382643699646e-01" purity="6.2327408790588379e-01" nType="0">
          <Node pos="l" depth="2" NCoef="0" IVar="-1" Cut="0.0000000000000000e+00" cType="1" res="-8.8583556935191154e-03" rms="2.5900486111640930e-01" purity="6.1810761690139771e-02" nType="-99"/>
          <Node pos="r" depth="2" NCoef="0" IVar="-1" Cut="0.0000000000000000e+00" cType="1" res="2.2729153279215097e-03" rms="2.9194954037666321e-01" purity="6.4205068349838257e-01" nType="-99"/>
        </Node>
      </Node>
    </BinaryTree>
    <BinaryTree type="DecisionTree" boostWeight="1.0000000000000000e+00" itree="227">
      <Node pos="s" depth="0" NCoef="0" IVar="1" Cut="2.2315812110900879e+00" cType="1" res="6.4999759197235107e-03" rms="2.8287264704704285e-01" purity="4.9974673986434937e-01" nType="0">
        <Node pos="l" depth="1" NCoef="0" IVar="0" Cut="7.3343706130981445e-01" cType="1" res="-9.9120192229747772e-02" rms="1.0760208964347839e-01" purity="4.2808569967746735e-02" nType="0">
          <Node pos="l" depth="2" NCoef="0" IVar="-1" Cut="0.0000000000000000e+00" cType="1" res="-5.4451175965368748e-03" rms="1.8219143152236938e-01" purity="8.4230616688728333e-02" nType="-99"/>
          <Node pos="r" depth="2" NCoef="0" IVar="-1" Cut="0.0000000000000000e+00" cType="1" res="-1.3715090230107307e-02" rms="0.0000000000000000e+00" purity="-2.3467438295483589e-02" nType="-99"/>
        </Node>
        <Node pos="r" depth="1" NCoef="0" IVar="2" Cut="1.0581700801849365e+00" cType="1" res="2.8953561559319496e-02" rms="3.0280435085296631e-01" purity="5.9688633680343628e-01" nType="0">
          <Node pos="l" depth="2" NCoef="0" IVar="-1" Cut="0.0000000000000000e+00" cType="1" res="-7.7158948406577110e-03" rms="2.7172282338142395e-01" purity="1.1289334297180176e-01" nType="-99"/>
          <Node pos="r" depth="2" NCoef="0" IVar="-1" Cut="0.0000000000000000e+00" cType="1" res="1.9710548222064972e-03" rms="2.9961973428726196e-01" purity="6.2080788612365723e-01" nType="-99"/>
        </Node>
      </Node>
    </BinaryTree>
    <BinaryTree type="DecisionTree" boostWeight="1.0000000000000000e+00" itree="228">
      <Node pos="s" depth="0" NCoef="0" IVar="14" Cut="1.4870474338531494e+00" cType="1" res="6.3290935941040516e-03" rms="2.8331804275512695e-01" purity="4.9897384643554688e-01" nType="0">
        <Node pos="l" depth="1" NCoef="0" IVar="3" Cut="4.9784417152404785e+00" cType="1" res="-4.2098566889762878e-02" rms="2.6142129302024841e-01" purity="2.3794999718666077e-01" nType="0">
          <Node pos="l" depth="2" NCoef="0" IVar="-1" Cut="0.0000000000000000e+00" cType="1" res="-5.3490558639168739e-03" rms="1.8896701931953430e-01" purity="1.5658740699291229e-01" nType="-99"/>
          <Node pos="r" depth="2" NCoef="0" IVar="-1" Cut="0.0000000000000000e+00" cType="1" res="2.0826414402108639e-04" rms="3.3882391452789307e-01" purity="3.6257395148277283e-01" nType="-99"/>
        </Node>
        <Node pos="r" depth="1" NCoef="0" IVar="56" Cut="1.4854199886322021e+00" cType="1" res="5.4713986814022064e-02" rms="2.9580789804458618e-01" purity="7.5976717472076416e-01" nType="0">
          <Node pos="l" depth="2" NCoef="0" IVar="-1" Cut="0.0000000000000000e+00" cType="1" res="3.1567371916025877e-03" rms="2.8712496161460876e-01" purity="8.0115127563476562e-01" nType="-99"/>
          <Node pos="r" depth="2" NCoef="0" IVar="-1" Cut="0.0000000000000000e+00" cType="1" res="-9.9482405930757523e-03" rms="3.0440208315849304e-01" purity="1.0229025036096573e-01" nType="-99"/>
        </Node>
      </Node>
    </BinaryTree>
    <BinaryTree type="DecisionTree" boostWeight="1.0000000000000000e+00" itree="229">
      <Node pos="s" depth="0" NCoef="0" IVar="52" Cut="-1.5312063694000244e+00" cType="1" res="5.3195273503661156e-03" rms="2.8453207015991211e-01" purity="4.9782195687294006e-01" nType="0">
        <Node pos="l" depth="1" NCoef="0" IVar="36" Cut="1.4084697961807251e+00" cType="1" res="6.3395090401172638e-02" rms="2.6995295286178589e-01" purity="6.8177789449691772e-01" nType="0">
          <Node pos="l" depth="2" NCoef="0" IVar="-1" Cut="0.0000000000000000e+00" cType="1" res="3.9328718557953835e-03" rms="2.5878316164016724e-01" purity="7.2866177558898926e-01" nType="-99"/>
          <Node pos="r" depth="2" NCoef="0" IVar="-1" Cut="0.0000000000000000e+00" cType="1" res="-8.3377473056316376e-03" rms="3.0588856339454651e-01" purity="1.2450724840164185e-01" nType="-99"/>
        </Node>
        <Node pos="r" depth="1" NCoef="0" IVar="2" Cut="1.7340836524963379e+00" cType="1" res="-3.2574988901615143e-02" rms="2.8739613294601440e-01" purity="3.7779006361961365e-01" nType="0">
          <Node pos="l" depth="2" NCoef="0" IVar="-1" Cut="0.0000000000000000e+00" cType="1" res="-6.9002271629869938e-03" rms="1.8533843755722046e-01" purity="1.0449053347110748e-01" nType="-99"/>
          <Node pos="r" depth="2" NCoef="0" IVar="-1" Cut="0.0000000000000000e+00" cType="1" res="-1.8945110787171870e-04" rms="3.1405439972877502e-01" purity="4.8535528779029846e-01" nType="-99"/>
        </Node>
      </Node>
    </BinaryTree>
    <BinaryTree type="DecisionTree" boostWeight="1.0000000000000000e+00" itree="230">
      <Node pos="s" depth="0" NCoef="0" IVar="45" Cut="1.0718322992324829e+00" cType="1" res="7.6299821957945824e-03" rms="2.8572717308998108e-01" purity="5.0036674737930298e-01" nType="0">
        <Node pos="l" depth="1" NCoef="0" IVar="49" Cut="3.0235612392425537e+00" cType="1" res="-1.1427221447229385e-01" rms="1.8036699295043945e-01" purity="9.2059999704360962e-02" nType="0">
          <Node pos="l" depth="2" NCoef="0" IVar="-1" Cut="0.0000000000000000e+00" cType="1" res="-1.0598176158964634e-02" rms="1.3594350218772888e-01" purity="5.1278509199619293e-02" nType="-99"/>
          <Node pos="r" depth="2" NCoef="0" IVar="-1" Cut="0.0000000000000000e+00" cType="1" res="5.1850984164047986e-06" rms="2.8498828411102295e-01" purity="2.7957159280776978e-01" nType="-99"/>
        </Node>
        <Node pos="r" depth="1" NCoef="0" IVar="54" Cut="1.2544955015182495e+00" cType="1" res="2.4922404438257217e-02" rms="2.9359698295593262e-01" purity="5.5828714370727539e-01" nType="0">
          <Node pos="l" depth="2" NCoef="0" IVar="-1" Cut="0.0000000000000000e+00" cType="1" res="2.1564497146755457e-03" rms="2.9100292921066284e-01" purity="6.1954653263092041e-01" nType="-99"/>
          <Node pos="r" depth="2" NCoef="0" IVar="-1" Cut="0.0000000000000000e+00" cType="1" res="-6.4530214294791222e-03" rms="2.7727037668228149e-01" purity="1.4588719606399536e-01" nType="-99"/>
        </Node>
      </Node>
    </BinaryTree>
    <BinaryTree type="DecisionTree" boostWeight="1.0000000000000000e+00" itree="231">
      <Node pos="s" depth="0" NCoef="0" IVar="52" Cut="-1.5312020778656006e+00" cType="1" res="5.6229401379823685e-03" rms="2.8471404314041138e-01" purity="5.0017958879470825e-01" nType="0">
        <Node pos="l" depth="1" NCoef="0" IVar="36" Cut="1.4858274459838867e+00" cType="1" res="6.3365191221237183e-02" rms="2.6989591121673584e-01" purity="6.8766826391220093e-01" nType="0">
          <Node pos="l" depth="2" NCoef="0" IVar="-1" Cut="0.0000000000000000e+00" cType="1" res="3.8052508607506752e-03" rms="2.6184585690498352e-01" purity="7.2516715526580811e-01" nType="-99"/>
          <Node pos="r" depth="2" NCoef="0" IVar="-1" Cut="0.0000000000000000e+00" cType="1" res="-1.0776478797197342e-02" rms="2.8081375360488892e-01" purity="7.3344103991985321e-02" nType="-99"/>
        </Node>
        <Node pos="r" depth="1" NCoef="0" IVar="45" Cut="1.0844768285751343e+00" cType="1" res="-3.2339569181203842e-02" rms="2.8780543804168701e-01" purity="3.7691563367843628e-01" nType="0">
          <Node pos="l" depth="2" NCoef="0" IVar="-1" Cut="0.0000000000000000e+00" cType="1" res="-1.0245657525956631e-02" rms="1.1657235026359558e-01" purity="4.6648271381855011e-02" nType="-99"/>
          <Node pos="r" depth="2" NCoef="0" IVar="-1" Cut="0.0000000000000000e+00" cType="1" res="-6.1468372587114573e-04" rms="3.0818602442741394e-01" purity="4.4622606039047241e-01" nType="-99"/>
        </Node>
      </Node>
    </BinaryTree>
    <BinaryTree type="DecisionTree" boostWeight="1.0000000000000000e+00" itree="232">
      <Node pos="s" depth="0" NCoef="0" IVar="45" Cut="1.0835309028625488e+00" cType="1" res="5.9378799051046371e-03" rms="2.8216034173965454e-01" purity="5.0045603513717651e-01" nType="0">
        <Node pos="l" depth="1" NCoef="0" IVar="49" Cut="3.0364885330200195e+00" cType="1" res="-1.2234272807836533e-01" rms="1.4356078207492828e-01" purity="7.3756292462348938e-02" nType="0">
          <Node pos="l" depth="2" NCoef="0" IVar="-1" Cut="0.0000000000000000e+00" cType="1" res="-1.1633764952421188e-02" rms="7.3645316064357758e-02" purity="3.5305239260196686e-02" nType="-99"/>
          <Node pos="r" depth="2" NCoef="0" IVar="-1" Cut="0.0000000000000000e+00" cType="1" res="-2.7057978513767011e-05" rms="2.8052410483360291e-01" purity="2.6597049832344055e-01" nType="-99"/>
        </Node>
        <Node pos="r" depth="1" NCoef="0" IVar="2" Cut="6.1853700876235962e-01" cType="1" res="2.4196127429604530e-02" rms="2.9212513566017151e-01" purity="5.6118839979171753e-01" nType="0">
          <Node pos="l" depth="2" NCoef="0" IVar="-1" Cut="0.0000000000000000e+00" cType="1" res="-1.0016581974923611e-02" rms="1.4183795452117920e-01" purity="-1.5827707946300507e-02" nType="-99"/>
          <Node pos="r" depth="2" NCoef="0" IVar="-1" Cut="0.0000000000000000e+00" cType="1" res="1.6328918281942606e-03" rms="2.9076668620109558e-01" purity="5.7654786109924316e-01" nType="-99"/>
        </Node>
      </Node>
    </BinaryTree>
    <BinaryTree type="DecisionTree" boostWeight="1.0000000000000000e+00" itree="233">
      <Node pos="s" depth="0" NCoef="0" IVar="36" Cut="-1.4924387931823730e+00" cType="1" res="6.7709889262914658e-03" rms="2.8152003884315491e-01" purity="5.0118410587310791e-01" nType="0">
        <Node pos="l" depth="1" NCoef="0" IVar="14" Cut="-1.4150160551071167e+00" cType="1" res="4.5536857098340988e-02" rms="2.7637538313865662e-01" purity="6.3379627466201782e-01" nType="0">
          <Node pos="l" depth="2" NCoef="0" IVar="-1" Cut="0.0000000000000000e+00" cType="1" res="-9.9061001092195511e-03" rms="0.0000000000000000e+00" purity="5.3191237384453416e-04" nType="-99"/>
          <Node pos="r" depth="2" NCoef="0" IVar="-1" Cut="0.0000000000000000e+00" cType="1" res="3.2017410267144442e-03" rms="2.9678300023078918e-01" purity="7.6067924499511719e-01" nType="-99"/>
        </Node>
        <Node pos="r" depth="1" NCoef="0" IVar="36" Cut="1.5254611968994141e+00" cType="1" res="-5.1525481045246124e-02" rms="2.7912601828575134e-01" purity="3.0176076292991638e-01" nType="0">
          <Node pos="l" depth="2" NCoef="0" IVar="-1" Cut="0.0000000000000000e+00" cType="1" res="-2.1021068096160889e-03" rms="2.8296941518783569e-01" purity="3.2979470491409302e-01" nType="-99"/>
          <Node pos="r" depth="2" NCoef="0" IVar="-1" Cut="0.0000000000000000e+00" cType="1" res="-1.2585053220391273e-02" rms="1.8780516088008881e-01" purity="2.4091213941574097e-02" nType="-99"/>
        </Node>
      </Node>
    </BinaryTree>
    <BinaryTree type="DecisionTree" boostWeight="1.0000000000000000e+00" itree="234">
      <Node pos="s" depth="0" NCoef="0" IVar="14" Cut="1.4871129989624023e+00" cType="1" res="4.1185095906257629e-03" rms="2.8172299265861511e-01" purity="4.9849560856819153e-01" nType="0">
        <Node pos="l" depth="1" NCoef="0" IVar="65" Cut="6.1763358116149902e-01" cType="1" res="-4.2592294514179230e-02" rms="2.5790745019912720e-01" purity="2.3952473700046539e-01" nType="0">
          <Node pos="l" depth="2" NCoef="0" IVar="-1" Cut="0.0000000000000000e+00" cType="1" res="-1.0238803224638104e-03" rms="2.8213965892791748e-01" purity="2.8838074207305908e-01" nType="-99"/>
          <Node pos="r" depth="2" NCoef="0" IVar="-1" Cut="0.0000000000000000e+00" cType="1" res="-7.8581245616078377e-03" rms="1.5970118343830109e-01" purity="1.1033066362142563e-01" nType="-99"/>
        </Node>
        <Node pos="r" depth="1" NCoef="0" IVar="56" Cut="1.4849827289581299e+00" cType="1" res="5.0885152071714401e-02" rms="2.9641723632812500e-01" purity="7.5777608156204224e-01" nType="0">
          <Node pos="l" depth="2" NCoef="0" IVar="-1" Cut="0.0000000000000000e+00" cType="1" res="3.0043281149119139e-03" rms="2.8860062360763550e-01" purity="7.9882210493087769e-01" nType="-99"/>
          <Node pos="r" depth="2" NCoef="0" IVar="-1" Cut="0.0000000000000000e+00" cType="1" res="-9.7554083913564682e-03" rms="3.0097448825836182e-01" purity="1.0455651581287384e-01" nType="-99"/>
        </Node>
      </Node>
    </BinaryTree>
    <BinaryTree type="DecisionTree" boostWeight="1.0000000000000000e+00" itree="235">
      <Node pos="s" depth="0" NCoef="0" IVar="36" Cut="-1.4924387931823730e+00" cType="1" res="3.5886180121451616e-03" rms="2.8222230076789856e-01" purity="4.9700903892517090e-01" nType="0">
        <Node pos="l" depth="1" NCoef="0" IVar="54" Cut="1.1384286880493164e+00" cType="1" res="4.1582275182008743e-02" rms="2.7467253804206848e-01" purity="6.3031142950057983e-01" nType="0">
          <Node pos="l" depth="2" NCoef="0" IVar="-1" Cut="0.0000000000000000e+00" cType="1" res="3.0930445063859224e-03" rms="2.6339688897132874e-01" purity="6.9518721103668213e-01" nType="-99"/>
          <Node pos="r" depth="2" NCoef="0" IVar="-1" Cut="0.0000000000000000e+00" cType="1" res="-5.8495989069342613e-03" rms="3.0433428287506104e-01" purity="1.8525935709476471e-01" nType="-99"/>
        </Node>
        <Node pos="r" depth="1" NCoef="0" IVar="36" Cut="1.5254611968994141e+00" cType="1" res="-5.2689921110868454e-02" rms="2.8385168313980103e-01" purity="2.9955330491065979e-01" nType="0">
          <Node pos="l" depth="2" NCoef="0" IVar="-1" Cut="0.0000000000000000e+00" cType="1" res="-2.1355994977056980e-03" rms="2.8700947761535645e-01" purity="3.2804998755455017e-01" nType="-99"/>
          <Node pos="r" depth="2" NCoef="0" IVar="-1" Cut="0.0000000000000000e+00" cType="1" res="-1.3033439405262470e-02" rms="2.0105138421058655e-01" purity="2.4043906480073929e-02" nType="-99"/>
        </Node>
      </Node>
    </BinaryTree>
    <BinaryTree type="DecisionTree" boostWeight="1.0000000000000000e+00" itree="236">
      <Node pos="s" depth="0" NCoef="0" IVar="45" Cut="1.2901349067687988e+00" cType="1" res="4.9701598472893238e-03" rms="2.8320226073265076e-01" purity="4.9846416711807251e-01" nType="0">
        <Node pos="l" depth="1" NCoef="0" IVar="49" Cut="3.0077795982360840e+00" cType="1" res="-9.8770387470722198e-02" rms="1.8503867089748383e-01" purity="1.1743550002574921e-01" nType="0">
          <Node pos="l" depth="2" NCoef="0" IVar="-1" Cut="0.0000000000000000e+00" cType="1" res="-9.6647804602980614e-03" rms="1.3271623849868774e-01" purity="6.9745309650897980e-02" nType="-99"/>
          <Node pos="r" depth="2" NCoef="0" IVar="-1" Cut="0.0000000000000000e+00" cType="1" res="-3.3507388434372842e-04" rms="2.7216023206710815e-01" purity="2.6459452509880066e-01" nType="-99"/>
        </Node>
        <Node pos="r" depth="1" NCoef="0" IVar="2" Cut="9.2962068319320679e-01" cType="1" res="2.6326209306716919e-02" rms="2.9494768381118774e-01" purity="5.7690280675888062e-01" nType="0">
          <Node pos="l" depth="2" NCoef="0" IVar="-1" Cut="0.0000000000000000e+00" cType="1" res="-8.6280405521392822e-03" rms="2.2319707274436951e-01" purity="5.3177546709775925e-02" nType="-99"/>
          <Node pos="r" depth="2" NCoef="0" IVar="-1" Cut="0.0000000000000000e+00" cType="1" res="1.8706051632761955e-03" rms="2.9300311207771301e-01" purity="5.9921330213546753e-01" nType="-99"/>
        </Node>
      </Node>
    </BinaryTree>
    <BinaryTree type="DecisionTree" boostWeight="1.0000000000000000e+00" itree="237">
      <Node pos="s" depth="0" NCoef="0" IVar="45" Cut="1.2018496990203857e+00" cType="1" res="5.1958444528281689e-03" rms="2.8183886408805847e-01" purity="5.0048440694808960e-01" nType="0">
        <Node pos="l" depth="1" NCoef="0" IVar="49" Cut="2.9069302082061768e+00" cType="1" res="-1.0514634847640991e-01" rms="1.7689564824104309e-01" purity="1.0435920953750610e-01" nType="0">
          <Node pos="l" depth="2" NCoef="0" IVar="-1" Cut="0.0000000000000000e+00" cType="1" res="-1.0277420282363892e-02" rms="1.3593749701976776e-01" purity="5.8641966432332993e-02" nType="-99"/>
          <Node pos="r" depth="2" NCoef="0" IVar="-1" Cut="0.0000000000000000e+00" cType="1" res="-1.6016984591260552e-03" rms="2.4537524580955505e-01" purity="2.3707939684391022e-01" nType="-99"/>
        </Node>
        <Node pos="r" depth="1" NCoef="0" IVar="2" Cut="1.0333153009414673e+00" cType="1" res="2.4534620344638824e-02" rms="2.9216873645782471e-01" purity="5.6991004943847656e-01" nType="0">
          <Node pos="l" depth="2" NCoef="0" IVar="-1" Cut="0.0000000000000000e+00" cType="1" res="-7.7243098057806492e-03" rms="2.4878467619419098e-01" purity="9.2751592397689819e-02" nType="-99"/>
          <Node pos="r" depth="2" NCoef="0" IVar="-1" Cut="0.0000000000000000e+00" cType="1" res="1.8489581998437643e-03" rms="2.9005450010299683e-01" purity="5.9695070981979370e-01" nType="-99"/>
        </Node>
      </Node>
    </BinaryTree>
    <BinaryTree type="DecisionTree" boostWeight="1.0000000000000000e+00" itree="238">
      <Node pos="s" depth="0" NCoef="0" IVar="25" Cut="1.2396432161331177e+00" cType="1" res="3.7055348511785269e-03" rms="2.8157153725624084e-01" purity="4.9782526493072510e-01" nType="0">
        <Node pos="l" depth="1" NCoef="0" IVar="29" Cut="2.8918378353118896e+00" cType="1" res="-1.0432318598031998e-01" rms="1.8838757276535034e-01" purity="1.0646577924489975e-01" nType="0">
          <Node pos="l" depth="2" NCoef="0" IVar="-1" Cut="0.0000000000000000e+00" cType="1" res="-1.0322545655071735e-02" rms="1.3123102486133575e-01" purity="6.0019832104444504e-02" nType="-99"/>
          <Node pos="r" depth="2" NCoef="0" IVar="-1" Cut="0.0000000000000000e+00" cType="1" res="-1.8713580211624503e-03" rms="2.6905435323715210e-01" purity="2.2040872275829315e-01" nType="-99"/>
        </Node>
        <Node pos="r" depth="1" NCoef="0" IVar="36" Cut="1.3309267759323120e+00" cType="1" res="2.4403743445873260e-02" rms="2.9156258702278137e-01" purity="5.7280945777893066e-01" nType="0">
          <Node pos="l" depth="2" NCoef="0" IVar="-1" Cut="0.0000000000000000e+00" cType="1" res="2.0750137045979500e-03" rms="2.8980779647827148e-01" purity="6.2854158878326416e-01" nType="-99"/>
          <Node pos="r" depth="2" NCoef="0" IVar="-1" Cut="0.0000000000000000e+00" cType="1" res="-7.4365371838212013e-03" rms="2.6449370384216309e-01" purity="1.2417840212583542e-01" nType="-99"/>
        </Node>
      </Node>
    </BinaryTree>
    <BinaryTree type="DecisionTree" boostWeight="1.0000000000000000e+00" itree="239">
      <Node pos="s" depth="0" NCoef="0" IVar="25" Cut="1.1447613239288330e+00" cType="1" res="6.3346181996166706e-03" rms="2.8109472990036011e-01" purity="5.0237315893173218e-01" nType="0">
        <Node pos="l" depth="1" NCoef="0" IVar="29" Cut="2.8583924770355225e+00" cType="1" res="-1.0969557613134384e-01" rms="1.6552212834358215e-01" purity="9.0389117598533630e-02" nType="0">
          <Node pos="l" depth="2" NCoef="0" IVar="-1" Cut="0.0000000000000000e+00" cType="1" res="-1.0943822562694550e-02" rms="9.8590284585952759e-02" purity="4.5169979333877563e-02" nType="-99"/>
          <Node pos="r" depth="2" NCoef="0" IVar="-1" Cut="0.0000000000000000e+00" cType="1" res="-2.2176450584083796e-03" rms="2.5279021263122559e-01" purity="2.0426927506923676e-01" nType="-99"/>
        </Node>
        <Node pos="r" depth="1" NCoef="0" IVar="34" Cut="1.3706684112548828e+00" cType="1" res="2.4341752752661705e-02" rms="2.9088002443313599e-01" purity="5.6631046533584595e-01" nType="0">
          <Node pos="l" depth="2" NCoef="0" IVar="-1" Cut="0.0000000000000000e+00" cType="1" res="2.0418891217559576e-03" rms="2.8978803753852844e-01" purity="6.2041521072387695e-01" nType="-99"/>
          <Node pos="r" depth="2" NCoef="0" IVar="-1" Cut="0.0000000000000000e+00" cType="1" res="-7.5667477212846279e-03" rms="2.6003754138946533e-01" purity="1.1836380511522293e-01" nType="-99"/>
        </Node>
      </Node>
    </BinaryTree>
    <BinaryTree type="DecisionTree" boostWeight="1.0000000000000000e+00" itree="240">
      <Node pos="s" depth="0" NCoef="0" IVar="14" Cut="1.6700902953743935e-02" cType="1" res="4.8118326812982559e-03" rms="2.8154483437538147e-01" purity="4.9935588240623474e-01" nType="0">
        <Node pos="l" depth="1" NCoef="0" IVar="65" Cut="6.8494743108749390e-01" cType="1" res="-6.4953327178955078e-02" rms="1.3891980051994324e-01" purity="5.3008452057838440e-02" nType="0">
          <Node pos="l" depth="2" NCoef="0" IVar="-1" Cut="0.0000000000000000e+00" cType="1" res="-4.1969562880694866e-03" rms="1.6853624582290649e-01" purity="7.3962569236755371e-02" nType="-99"/>
          <Node pos="r" depth="2" NCoef="0" IVar="-1" Cut="0.0000000000000000e+00" cType="1" res="-1.2140682898461819e-02" rms="0.0000000000000000e+00" purity="-8.9050894603133202e-03" nType="-99"/>
        </Node>
        <Node pos="r" depth="1" NCoef="0" IVar="36" Cut="1.4856008291244507e+00" cType="1" res="3.3815275877714157e-02" rms="3.1832951307296753e-01" purity="6.8491572141647339e-01" nType="0">
          <Node pos="l" depth="2" NCoef="0" IVar="-1" Cut="0.0000000000000000e+00" cType="1" res="2.1162901539355516e-03" rms="3.1447571516036987e-01" purity="7.2153925895690918e-01" nType="-99"/>
          <Node pos="r" depth="2" NCoef="0" IVar="-1" Cut="0.0000000000000000e+00" cType="1" res="-9.6430405974388123e-03" rms="2.9549154639244080e-01" purity="9.7708873450756073e-02" nType="-99"/>
        </Node>
      </Node>
    </BinaryTree>
    <BinaryTree type="DecisionTree" boostWeight="1.0000000000000000e+00" itree="241">
      <Node pos="s" depth="0" NCoef="0" IVar="54" Cut="1.2544955015182495e+00" cType="1" res="4.4615878723561764e-03" rms="2.7997589111328125e-01" purity="5.0037753582000732e-01" nType="0">
        <Node pos="l" depth="1" NCoef="0" IVar="25" Cut="1.1447613239288330e+00" cType="1" res="2.2695427760481834e-02" rms="2.8299531340599060e-01" purity="5.5918133258819580e-01" nType="0">
          <Node pos="l" depth="2" NCoef="0" IVar="-1" Cut="0.0000000000000000e+00" cType="1" res="-7.4940789490938187e-03" rms="2.1396842598915100e-01" purity="1.2056112289428711e-01" nType="-99"/>
          <Node pos="r" depth="2" NCoef="0" IVar="-1" Cut="0.0000000000000000e+00" cType="1" res="2.0874368492513895e-03" rms="2.8664994239807129e-01" purity="6.2310701608657837e-01" nType="-99"/>
        </Node>
        <Node pos="r" depth="1" NCoef="0" IVar="49" Cut="3.3393189907073975e+00" cType="1" res="-1.1723348498344421e-01" rms="2.2363546490669250e-01" purity="1.0791281610727310e-01" nType="0">
          <Node pos="l" depth="2" NCoef="0" IVar="-1" Cut="0.0000000000000000e+00" cType="1" res="-6.4325891435146332e-03" rms="2.0621812343597412e-01" purity="9.6857607364654541e-02" nType="-99"/>
          <Node pos="r" depth="2" NCoef="0" IVar="-1" Cut="0.0000000000000000e+00" cType="1" res="-9.2591587454080582e-03" rms="2.3886971175670624e-01" purity="1.2222690135240555e-01" nType="-99"/>
        </Node>
      </Node>
    </BinaryTree>
    <BinaryTree type="DecisionTree" boostWeight="1.0000000000000000e+00" itree="242">
      <Node pos="s" depth="0" NCoef="0" IVar="52" Cut="-1.2610422372817993e+00" cType="1" res="4.9401456490159035e-03" rms="2.8126725554466248e-01" purity="4.9934941530227661e-01" nType="0">
        <Node pos="l" depth="1" NCoef="0" IVar="14" Cut="-1.4150160551071167e+00" cType="1" res="3.1087595969438553e-02" rms="2.8323572874069214e-01" purity="5.8902782201766968e-01" nType="0">
          <Node pos="l" depth="2" NCoef="0" IVar="-1" Cut="0.0000000000000000e+00" cType="1" res="-1.0277670808136463e-02" rms="0.0000000000000000e+00" purity="-2.9543156269937754e-03" nType="-99"/>
          <Node pos="r" depth="2" NCoef="0" IVar="-1" Cut="0.0000000000000000e+00" cType="1" res="2.5270832702517509e-03" rms="3.0916234850883484e-01" purity="7.1663808822631836e-01" nType="-99"/>
        </Node>
        <Node pos="r" depth="1" NCoef="0" IVar="56" Cut="1.5244315862655640e+00" cType="1" res="-7.0228576660156250e-02" rms="2.6134446263313293e-01" purity="2.4154187738895416e-01" nType="0">
          <Node pos="l" depth="2" NCoef="0" IVar="-1" Cut="0.0000000000000000e+00" cType="1" res="-3.0651555862277746e-03" rms="2.6660194993019104e-01" purity="2.7785173058509827e-01" nType="-99"/>
          <Node pos="r" depth="2" NCoef="0" IVar="-1" Cut="0.0000000000000000e+00" cType="1" res="-1.2238040566444397e-02" rms="1.9560205936431885e-01" purity="2.8814429417252541e-02" nType="-99"/>
        </Node>
      </Node>
    </BinaryTree>
    <BinaryTree type="DecisionTree" boostWeight="1.0000000000000000e+00" itree="243">
      <Node pos="s" depth="0" NCoef="0" IVar="2" Cut="7.1139717102050781e-01" cType="1" res="5.1996149122714996e-03" rms="2.8164196014404297e-01" purity="4.9828743934631348e-01" nType="0">
        <Node pos="l" depth="1" NCoef="0" IVar="-1" Cut="0.0000000000000000e+00" cType="1" res="-1.0048573836684227e-02" rms="9.1417253017425537e-02" purity="-1.5436961315572262e-02" nType="-99"/>
        <Node pos="r" depth="1" NCoef="0" IVar="14" Cut="-1.4150193929672241e+00" cType="1" res="1.3158920221030712e-02" rms="2.8181889653205872e-01" purity="5.1423805952072144e-01" nType="0">
          <Node pos="l" depth="2" NCoef="0" IVar="-1" Cut="0.0000000000000000e+00" cType="1" res="-1.1252146214246750e-02" rms="0.0000000000000000e+00" purity="-9.9386675283312798e-03" nType="-99"/>
          <Node pos="r" depth="2" NCoef="0" IVar="-1" Cut="0.0000000000000000e+00" cType="1" res="1.7152043292298913e-03" rms="3.1671380996704102e-01" purity="6.4773887395858765e-01" nType="-99"/>
        </Node>
      </Node>
    </BinaryTree>
    <BinaryTree type="DecisionTree" boostWeight="1.0000000000000000e+00" itree="244">
      <Node pos="s" depth="0" NCoef="0" IVar="52" Cut="-1.5312020778656006e+00" cType="1" res="5.9352768585085869e-03" rms="2.7924653887748718e-01" purity="4.9963176250457764e-01" nType="0">
        <Node pos="l" depth="1" NCoef="0" IVar="34" Cut="1.3154165446758270e-01" cType="1" res="6.0598768293857574e-02" rms="2.6654559373855591e-01" purity="6.8526828289031982e-01" nType="0">
          <Node pos="l" depth="2" NCoef="0" IVar="-1" Cut="0.0000000000000000e+00" cType="1" res="4.2384276166558266e-03" rms="2.4426023662090302e-01" purity="7.5700914859771729e-01" nType="-99"/>
          <Node pos="r" depth="2" NCoef="0" IVar="-1" Cut="0.0000000000000000e+00" cType="1" res="-4.0562697686254978e-03" rms="3.3701366186141968e-01" purity="2.7999678254127502e-01" nType="-99"/>
        </Node>
        <Node pos="r" depth="1" NCoef="0" IVar="2" Cut="1.6500101089477539e+00" cType="1" res="-2.9562214389443398e-02" rms="2.8156653046607971e-01" purity="3.7908276915550232e-01" nType="0">
          <Node pos="l" depth="2" NCoef="0" IVar="-1" Cut="0.0000000000000000e+00" cType="1" res="-7.1252328343689442e-03" rms="1.8229377269744873e-01" purity="9.1870702803134918e-02" nType="-99"/>
          <Node pos="r" depth="2" NCoef="0" IVar="-1" Cut="0.0000000000000000e+00" cType="1" res="-2.6949925813823938e-04" rms="3.0203327536582947e-01" purity="4.6922889351844788e-01" nType="-99"/>
        </Node>
      </Node>
    </BinaryTree>
    <BinaryTree type="DecisionTree" boostWeight="1.0000000000000000e+00" itree="245">
      <Node pos="s" depth="0" NCoef="0" IVar="25" Cut="1.2656567096710205e+00" cType="1" res="3.3494234085083008e-03" rms="2.7898037433624268e-01" purity="4.9939778447151184e-01" nType="0">
        <Node pos="l" depth="1" NCoef="0" IVar="29" Cut="2.7267642021179199e+00" cType="1" res="-9.7404591739177704e-02" rms="1.8477778136730194e-01" purity="1.1684667319059372e-01" nType="0">
          <Node pos="l" depth="2" NCoef="0" IVar="-1" Cut="0.0000000000000000e+00" cType="1" res="-1.0778561234474182e-02" rms="1.1936242133378983e-01" purity="5.5370248854160309e-02" nType="-99"/>
          <Node pos="r" depth="2" NCoef="0" IVar="-1" Cut="0.0000000000000000e+00" cType="1" res="-2.7211022097617388e-03" rms="2.3546871542930603e-01" purity="1.9954743981361389e-01" nType="-99"/>
        </Node>
        <Node pos="r" depth="1" NCoef="0" IVar="2" Cut="9.2295092344284058e-01" cType="1" res="2.3284479975700378e-02" rms="2.8994482755661011e-01" purity="5.7508885860443115e-01" nType="0">
          <Node pos="l" depth="2" NCoef="0" IVar="-1" Cut="0.0000000000000000e+00" cType="1" res="-8.6184004321694374e-03" rms="2.2966454923152924e-01" purity="4.8607703298330307e-02" nType="-99"/>
          <Node pos="r" depth="2" NCoef="0" IVar="-1" Cut="0.0000000000000000e+00" cType="1" res="1.7436661291867495e-03" rms="2.8764885663986206e-01" purity="5.9771549701690674e-01" nType="-99"/>
        </Node>
      </Node>
    </BinaryTree>
    <BinaryTree type="DecisionTree" boostWeight="1.0000000000000000e+00" itree="246">
      <Node pos="s" depth="0" NCoef="0" IVar="45" Cut="1.5472586154937744e+00" cType="1" res="4.5817154459655285e-03" rms="2.8028875589370728e-01" purity="4.9833571910858154e-01" nType="0">
        <Node pos="l" depth="1" NCoef="0" IVar="0" Cut="7.6033449172973633e-01" cType="1" res="-7.2065383195877075e-02" rms="2.2183154523372650e-01" purity="1.6842265427112579e-01" nType="0">
          <Node pos="l" depth="2" NCoef="0" IVar="-1" Cut="0.0000000000000000e+00" cType="1" res="-2.6072417385876179e-03" rms="2.5090414285659790e-01" purity="2.2237133979797363e-01" nType="-99"/>
          <Node pos="r" depth="2" NCoef="0" IVar="-1" Cut="0.0000000000000000e+00" cType="1" res="-1.0462558828294277e-02" rms="1.2716650962829590e-01" purity="6.0215711593627930e-02" nType="-99"/>
        </Node>
        <Node pos="r" depth="1" NCoef="0" IVar="54" Cut="1.4092055559158325e+00" cType="1" res="3.0153548344969749e-02" rms="2.9281523823738098e-01" purity="6.0840487480163574e-01" nType="0">
          <Node pos="l" depth="2" NCoef="0" IVar="-1" Cut="0.0000000000000000e+00" cType="1" res="2.3137079551815987e-03" rms="2.9029783606529236e-01" purity="6.6032356023788452e-01" nType="-99"/>
          <Node pos="r" depth="2" NCoef="0" IVar="-1" Cut="0.0000000000000000e+00" cType="1" res="-8.0889686942100525e-03" rms="2.6821497082710266e-01" purity="1.1652789264917374e-01" nType="-99"/>
        </Node>
      </Node>
    </BinaryTree>
    <BinaryTree type="DecisionTree" boostWeight="1.0000000000000000e+00" itree="247">
      <Node pos="s" depth="0" NCoef="0" IVar="14" Cut="-1.2602359056472778e+00" cType="1" res="5.0688944756984711e-03" rms="2.7706423401832581e-01" purity="4.9842488765716553e-01" nType="0">
        <Node pos="l" depth="1" NCoef="0" IVar="33" Cut="-7.5747263431549072e-01" cType="1" res="-1.0448629036545753e-02" rms="0.0000000000000000e+00" purity="-4.0316069498658180e-03" nType="-99"/>
        <Node pos="r" depth="1" NCoef="0" IVar="2" Cut="7.9095810651779175e-01" cType="1" res="3.0587833374738693e-02" rms="3.1790944933891296e-01" purity="6.5257465839385986e-01" nType="0">
          <Node pos="l" depth="2" NCoef="0" IVar="-1" Cut="0.0000000000000000e+00" cType="1" res="-8.7330415844917297e-03" rms="2.0924398303031921e-01" purity="3.5755321383476257e-02" nType="-99"/>
          <Node pos="r" depth="2" NCoef="0" IVar="-1" Cut="0.0000000000000000e+00" cType="1" res="1.8920848378911614e-03" rms="3.1593829393386841e-01" purity="6.7406314611434937e-01" nType="-99"/>
        </Node>
      </Node>
    </BinaryTree>
    <BinaryTree type="DecisionTree" boostWeight="1.0000000000000000e+00" itree="248">
      <Node pos="s" depth="0" NCoef="0" IVar="14" Cut="1.4863872528076172e+00" cType="1" res="4.4033597223460674e-03" rms="2.8045228123664856e-01" purity="4.9888429045677185e-01" nType="0">
        <Node pos="l" depth="1" NCoef="0" IVar="65" Cut="6.4105343818664551e-01" cType="1" res="-3.8417145609855652e-02" rms="2.5687810778617859e-01" purity="2.3870517313480377e-01" nType="0">
          <Node pos="l" depth="2" NCoef="0" IVar="-1" Cut="0.0000000000000000e+00" cType="1" res="-9.4987312331795692e-04" rms="2.7986460924148560e-01" purity="2.8361475467681885e-01" nType="-99"/>
          <Node pos="r" depth="2" NCoef="0" IVar="-1" Cut="0.0000000000000000e+00" cType="1" res="-7.8622726723551750e-03" rms="1.5275283157825470e-01" purity="1.0640981793403625e-01" nType="-99"/>
        </Node>
        <Node pos="r" depth="1" NCoef="0" IVar="56" Cut="1.4849827289581299e+00" cType="1" res="4.6663213521242142e-02" rms="2.9590415954589844e-01" purity="7.5565683841705322e-01" nType="0">
          <Node pos="l" depth="2" NCoef="0" IVar="-1" Cut="0.0000000000000000e+00" cType="1" res="2.8110470157116652e-03" rms="2.8855830430984497e-01" purity="7.9511427879333496e-01" nType="-99"/>
          <Node pos="r" depth="2" NCoef="0" IVar="-1" Cut="0.0000000000000000e+00" cType="1" res="-9.3683907762169838e-03" rms="3.0956786870956421e-01" purity="1.0692022740840912e-01" nType="-99"/>
        </Node>
      </Node>
    </BinaryTree>
    <BinaryTree type="DecisionTree" boostWeight="1.0000000000000000e+00" itree="249">
      <Node pos="s" depth="0" NCoef="0" IVar="2" Cut="1.8577412366867065e+00" cType="1" res="6.8218000233173370e-03" rms="2.7911347150802612e-01" purity="4.9971768260002136e-01" nType="0">
        <Node pos="l" depth="1" NCoef="0" IVar="2" Cut="5.4980182647705078e-01" cType="1" res="-6.3252128660678864e-02" rms="2.4124513566493988e-01" purity="2.0468473434448242e-01" nType="0">
          <Node pos="l" depth="2" NCoef="0" IVar="-1" Cut="0.0000000000000000e+00" cType="1" res="-1.0250249877572060e-02" rms="0.0000000000000000e+00" purity="-3.9655264467000961e-02" nType="-99"/>
          <Node pos="r" depth="2" NCoef="0" IVar="-1" Cut="0.0000000000000000e+00" cType="1" res="-2.9185425955802202e-03" rms="2.4499498307704926e-01" purity="2.2467805445194244e-01" nType="-99"/>
        </Node>
        <Node pos="r" depth="1" NCoef="0" IVar="56" Cut="1.4848066568374634e+00" cType="1" res="3.7453364580869675e-02" rms="2.8884822130203247e-01" purity="6.2868607044219971e-01" nType="0">
          <Node pos="l" depth="2" NCoef="0" IVar="-1" Cut="0.0000000000000000e+00" cType="1" res="2.5361638981848955e-03" rms="2.8421005606651306e-01" purity="6.6503435373306274e-01" nType="-99"/>
          <Node pos="r" depth="2" NCoef="0" IVar="-1" Cut="0.0000000000000000e+00" cType="1" res="-8.3120521157979965e-03" rms="2.9997152090072632e-01" purity="1.0059739649295807e-01" nType="-99"/>
        </Node>
      </Node>
    </BinaryTree>
    <BinaryTree type="DecisionTree" boostWeight="1.0000000000000000e+00" itree="250">
      <Node pos="s" depth="0" NCoef="0" IVar="1" Cut="3.3552670478820801e+00" cType="1" res="3.8134036585688591e-03" rms="2.7683719992637634e-01" purity="4.9781569838523865e-01" nType="0">
        <Node pos="l" depth="1" NCoef="0" IVar="32" Cut="-1.5312186479568481e+00" cType="1" res="-2.7511050924658775e-02" rms="2.7872076630592346e-01" purity="3.4636759757995605e-01" nType="0">
          <Node pos="l" depth="2" NCoef="0" IVar="-1" Cut="0.0000000000000000e+00" cType="1" res="1.4553258661180735e-03" rms="2.9648879170417786e-01" purity="5.3548300266265869e-01" nType="-99"/>
          <Node pos="r" depth="2" NCoef="0" IVar="-1" Cut="0.0000000000000000e+00" cType="1" res="-3.5316559951752424e-03" rms="2.6364228129386902e-01" purity="2.4517428874969482e-01" nType="-99"/>
        </Node>
        <Node pos="r" depth="1" NCoef="0" IVar="34" Cut="1.3706684112548828e+00" cType="1" res="6.7898333072662354e-02" rms="2.6150271296501160e-01" purity="8.0765479803085327e-01" nType="0">
          <Node pos="l" depth="2" NCoef="0" IVar="-1" Cut="0.0000000000000000e+00" cType="1" res="4.0872031822800636e-03" rms="2.4417339265346527e-01" purity="8.4110319614410400e-01" nType="-99"/>
          <Node pos="r" depth="2" NCoef="0" IVar="-1" Cut="0.0000000000000000e+00" cType="1" res="-4.8551908694207668e-03" rms="4.0707361698150635e-01" purity="3.0866912007331848e-01" nType="-99"/>
        </Node>
      </Node>
    </BinaryTree>
    <BinaryTree type="DecisionTree" boostWeight="1.0000000000000000e+00" itree="251">
      <Node pos="s" depth="0" NCoef="0" IVar="32" Cut="-1.5312049388885498e+00" cType="1" res="6.4647896215319633e-03" rms="2.7698534727096558e-01" purity="5.0278645753860474e-01" nType="0">
        <Node pos="l" depth="1" NCoef="0" IVar="54" Cut="1.4092512130737305e+00" cType="1" res="6.0057774186134338e-02" rms="2.6676023006439209e-01" purity="6.8620830774307251e-01" nType="0">
          <Node pos="l" depth="2" NCoef="0" IVar="-1" Cut="0.0000000000000000e+00" cType="1" res="3.8860936183482409e-03" rms="2.5664305686950684e-01" purity="7.3704582452774048e-01" nType="-99"/>
          <Node pos="r" depth="2" NCoef="0" IVar="-1" Cut="0.0000000000000000e+00" cType="1" res="-7.8390128910541534e-03" rms="2.9688158631324768e-01" purity="1.4040254056453705e-01" nType="-99"/>
        </Node>
        <Node pos="r" depth="1" NCoef="0" IVar="25" Cut="1.1203368902206421e+00" cType="1" res="-2.8889775276184082e-02" rms="2.7792796492576599e-01" purity="3.8178554177284241e-01" nType="0">
          <Node pos="l" depth="2" NCoef="0" IVar="-1" Cut="0.0000000000000000e+00" cType="1" res="-1.0194829665124416e-02" rms="1.1518202722072601e-01" purity="4.6422600746154785e-02" nType="-99"/>
          <Node pos="r" depth="2" NCoef="0" IVar="-1" Cut="0.0000000000000000e+00" cType="1" res="-4.5446577132679522e-04" rms="2.9828229546546936e-01" purity="4.5527628064155579e-01" nType="-99"/>
        </Node>
      </Node>
    </BinaryTree>
    <BinaryTree type="DecisionTree" boostWeight="1.0000000000000000e+00" itree="252">
      <Node pos="s" depth="0" NCoef="0" IVar="32" Cut="-1.5312049388885498e+00" cType="1" res="6.6633513197302818e-03" rms="2.7831149101257324e-01" purity="5.0074952840805054e-01" nType="0">
        <Node pos="l" depth="1" NCoef="0" IVar="54" Cut="1.3318732976913452e+00" cType="1" res="6.0615334659814835e-02" rms="2.6464566588401794e-01" purity="6.8572628498077393e-01" nType="0">
          <Node pos="l" depth="2" NCoef="0" IVar="-1" Cut="0.0000000000000000e+00" cType="1" res="4.0081921033561230e-03" rms="2.5100034475326538e-01" purity="7.4341475963592529e-01" nType="-99"/>
          <Node pos="r" depth="2" NCoef="0" IVar="-1" Cut="0.0000000000000000e+00" cType="1" res="-6.6774152219295502e-03" rms="3.1505584716796875e-01" purity="1.6132128238677979e-01" nType="-99"/>
        </Node>
        <Node pos="r" depth="1" NCoef="0" IVar="1" Cut="3.6268277168273926e+00" cType="1" res="-2.8594132512807846e-02" rms="2.8135547041893005e-01" purity="3.7986764311790466e-01" nType="0">
          <Node pos="l" depth="2" NCoef="0" IVar="-1" Cut="0.0000000000000000e+00" cType="1" res="-2.8441681060940027e-03" rms="2.7505037188529968e-01" purity="2.9322031140327454e-01" nType="-99"/>
          <Node pos="r" depth="2" NCoef="0" IVar="-1" Cut="0.0000000000000000e+00" cType="1" res="3.0018633697181940e-03" rms="2.9219588637351990e-01" purity="7.7828603982925415e-01" nType="-99"/>
        </Node>
      </Node>
    </BinaryTree>
    <BinaryTree type="DecisionTree" boostWeight="1.0000000000000000e+00" itree="253">
      <Node pos="s" depth="0" NCoef="0" IVar="2" Cut="1.1600728034973145e+00" cType="1" res="5.2454289980232716e-03" rms="2.7911576628684998e-01" purity="4.9766680598258972e-01" nType="0">
        <Node pos="l" depth="1" NCoef="0" IVar="1" Cut="2.8359472751617432e+00" cType="1" res="-1.5211644768714905e-01" rms="2.1249192953109741e-01" purity="8.8348232209682465e-02" nType="0">
          <Node pos="l" depth="2" NCoef="0" IVar="-1" Cut="0.0000000000000000e+00" cType="1" res="-6.5705790184438229e-03" rms="1.5277494490146637e-01" purity="6.1917796730995178e-02" nType="-99"/>
          <Node pos="r" depth="2" NCoef="0" IVar="-1" Cut="0.0000000000000000e+00" cType="1" res="-8.8216410949826241e-03" rms="2.7318230271339417e-01" purity="1.4822520315647125e-01" nType="-99"/>
        </Node>
        <Node pos="r" depth="1" NCoef="0" IVar="14" Cut="-1.2989310026168823e+00" cType="1" res="1.7504716292023659e-02" rms="2.7996033430099487e-01" purity="5.2955484390258789e-01" nType="0">
          <Node pos="l" depth="2" NCoef="0" IVar="-1" Cut="0.0000000000000000e+00" cType="1" res="-8.8938307017087936e-03" rms="1.9933750852942467e-02" purity="7.5508714653551579e-03" nType="-99"/>
          <Node pos="r" depth="2" NCoef="0" IVar="-1" Cut="0.0000000000000000e+00" cType="1" res="1.9535208120942116e-03" rms="3.1344658136367798e-01" purity="6.8007600307464600e-01" nType="-99"/>
        </Node>
      </Node>
    </BinaryTree>
    <BinaryTree type="DecisionTree" boostWeight="1.0000000000000000e+00" itree="254">
      <Node pos="s" depth="0" NCoef="0" IVar="45" Cut="1.3661677837371826e+00" cType="1" res="5.9598609805107117e-03" rms="2.8113967180252075e-01" purity="5.0026559829711914e-01" nType="0">
        <Node pos="l" depth="1" NCoef="0" IVar="49" Cut="2.8398199081420898e+00" cType="1" res="-7.9803138971328735e-02" rms="2.1599976718425751e-01" purity="1.3963678479194641e-01" nType="0">
          <Node pos="l" depth="2" NCoef="0" IVar="-1" Cut="0.0000000000000000e+00" cType="1" res="-9.2413909733295441e-03" rms="1.7396476864814758e-01" purity="7.6519370079040527e-02" nType="-99"/>
          <Node pos="r" depth="2" NCoef="0" IVar="-1" Cut="0.0000000000000000e+00" cType="1" res="-1.0537417838349938e-03" rms="2.5890254974365234e-01" purity="2.4275210499763489e-01" nType="-99"/>
        </Node>
        <Node pos="r" depth="1" NCoef="0" IVar="2" Cut="9.9335157871246338e-01" cType="1" res="2.6616159826517105e-02" rms="2.9093122482299805e-01" purity="5.8712422847747803e-01" nType="0">
          <Node pos="l" depth="2" NCoef="0" IVar="-1" Cut="0.0000000000000000e+00" cType="1" res="-7.7198422513902187e-03" rms="2.4413780868053436e-01" purity="8.8749617338180542e-02" nType="-99"/>
          <Node pos="r" depth="2" NCoef="0" IVar="-1" Cut="0.0000000000000000e+00" cType="1" res="1.9338278798386455e-03" rms="2.8889968991279602e-01" purity="6.1093372106552124e-01" nType="-99"/>
        </Node>
      </Node>
    </BinaryTree>
    <BinaryTree type="DecisionTree" boostWeight="1.0000000000000000e+00" itree="255">
      <Node pos="s" depth="0" NCoef="0" IVar="54" Cut="1.2544955015182495e+00" cType="1" res="4.3543330393731594e-03" rms="2.7714827656745911e-01" purity="4.9830770492553711e-01" nType="0">
        <Node pos="l" depth="1" NCoef="0" IVar="45" Cut="1.2885376214981079e+00" cType="1" res="2.1148072555661201e-02" rms="2.7985239028930664e-01" purity="5.5715537071228027e-01" nType="0">
          <Node pos="l" depth="2" NCoef="0" IVar="-1" Cut="0.0000000000000000e+00" cType="1" res="-6.0021504759788513e-03" rms="2.1381403505802155e-01" purity="1.4273761212825775e-01" nType="-99"/>
          <Node pos="r" depth="2" NCoef="0" IVar="-1" Cut="0.0000000000000000e+00" cType="1" res="2.1761476527899504e-03" rms="2.8649410605430603e-01" purity="6.4130592346191406e-01" nType="-99"/>
        </Node>
        <Node pos="r" depth="1" NCoef="0" IVar="49" Cut="3.3172709941864014e+00" cType="1" res="-1.0581891983747482e-01" rms="2.3009036481380463e-01" purity="1.1224423348903656e-01" nType="0">
          <Node pos="l" depth="2" NCoef="0" IVar="-1" Cut="0.0000000000000000e+00" cType="1" res="-5.4581076838076115e-03" rms="2.1689668297767639e-01" purity="1.0349535942077637e-01" nType="-99"/>
          <Node pos="r" depth="2" NCoef="0" IVar="-1" Cut="0.0000000000000000e+00" cType="1" res="-9.0777222067117691e-03" rms="2.3829451203346252e-01" purity="1.2282722443342209e-01" nType="-99"/>
        </Node>
      </Node>
    </BinaryTree>
    <BinaryTree type="DecisionTree" boostWeight="1.0000000000000000e+00" itree="256">
      <Node pos="s" depth="0" NCoef="0" IVar="2" Cut="6.1416429281234741e-01" cType="1" res="5.6137251667678356e-03" rms="2.7963227033615112e-01" purity="5.0231015682220459e-01" nType="0">
        <Node pos="l" depth="1" NCoef="0" IVar="-1" Cut="0.0000000000000000e+00" cType="1" res="-1.0569273494184017e-02" rms="0.0000000000000000e+00" purity="-5.6731779128313065e-02" nType="-99"/>
        <Node pos="r" depth="1" NCoef="0" IVar="14" Cut="-1.4537111520767212e+00" cType="1" res="1.2691738083958626e-02" rms="2.8029888868331909e-01" purity="5.1623779535293579e-01" nType="0">
          <Node pos="l" depth="2" NCoef="0" IVar="-1" Cut="0.0000000000000000e+00" cType="1" res="-1.1741060763597488e-02" rms="0.0000000000000000e+00" purity="-1.2738949619233608e-02" nType="-99"/>
          <Node pos="r" depth="2" NCoef="0" IVar="-1" Cut="0.0000000000000000e+00" cType="1" res="1.6175486380234361e-03" rms="3.1309071183204651e-01" purity="6.3814604282379150e-01" nType="-99"/>
        </Node>
      </Node>
    </BinaryTree>
    <BinaryTree type="DecisionTree" boostWeight="1.0000000000000000e+00" itree="257">
      <Node pos="s" depth="0" NCoef="0" IVar="25" Cut="1.0854622125625610e+00" cType="1" res="3.8210274651646614e-03" rms="2.7700489759445190e-01" purity="4.9884721636772156e-01" nType="0">
        <Node pos="l" depth="1" NCoef="0" IVar="29" Cut="2.9909284114837646e+00" cType="1" res="-1.0773143172264099e-01" rms="1.6496546566486359e-01" purity="8.2057826220989227e-02" nType="0">
          <Node pos="l" depth="2" NCoef="0" IVar="-1" Cut="0.0000000000000000e+00" cType="1" res="-1.0868084616959095e-02" rms="1.2605111300945282e-01" purity="4.5011516660451889e-02" nType="-99"/>
          <Node pos="r" depth="2" NCoef="0" IVar="-1" Cut="0.0000000000000000e+00" cType="1" res="-7.3337386129423976e-04" rms="2.4967938661575317e-01" purity="2.3470114171504974e-01" nType="-99"/>
        </Node>
        <Node pos="r" depth="1" NCoef="0" IVar="2" Cut="1.2059113979339600e+00" cType="1" res="1.9727109000086784e-02" rms="2.8594589233398438e-01" purity="5.5827659368515015e-01" nType="0">
          <Node pos="l" depth="2" NCoef="0" IVar="-1" Cut="0.0000000000000000e+00" cType="1" res="-6.5138279460370541e-03" rms="2.5170341134071350e-01" purity="1.3766269385814667e-01" nType="-99"/>
          <Node pos="r" depth="2" NCoef="0" IVar="-1" Cut="0.0000000000000000e+00" cType="1" res="1.7323270440101624e-03" rms="2.8457453846931458e-01" purity="5.9241348505020142e-01" nType="-99"/>
        </Node>
      </Node>
    </BinaryTree>
    <BinaryTree type="DecisionTree" boostWeight="1.0000000000000000e+00" itree="258">
      <Node pos="s" depth="0" NCoef="0" IVar="34" Cut="-1.1442027091979980e+00" cType="1" res="6.7648557014763355e-03" rms="2.7797654271125793e-01" purity="5.0336694717407227e-01" nType="0">
        <Node pos="l" depth="1" NCoef="0" IVar="54" Cut="-1.4150429964065552e+00" cType="1" res="3.3098991960287094e-02" rms="2.7272933721542358e-01" purity="5.9831666946411133e-01" nType="0">
          <Node pos="l" depth="2" NCoef="0" IVar="-1" Cut="0.0000000000000000e+00" cType="1" res="3.5930182784795761e-03" rms="2.4622137844562531e-01" purity="7.2208356857299805e-01" nType="-99"/>
          <Node pos="r" depth="2" NCoef="0" IVar="-1" Cut="0.0000000000000000e+00" cType="1" res="-2.1613542921841145e-03" rms="3.0603188276290894e-01" purity="3.5383605957031250e-01" nType="-99"/>
        </Node>
        <Node pos="r" depth="1" NCoef="0" IVar="34" Cut="1.4638124704360962e+00" cType="1" res="-6.2953427433967590e-02" rms="2.7968662977218628e-01" purity="2.5199249386787415e-01" nType="0">
          <Node pos="l" depth="2" NCoef="0" IVar="-1" Cut="0.0000000000000000e+00" cType="1" res="-1.9170893356204033e-03" rms="2.9852041602134705e-01" purity="3.2679495215415955e-01" nType="-99"/>
          <Node pos="r" depth="2" NCoef="0" IVar="-1" Cut="0.0000000000000000e+00" cType="1" res="-1.0350738652050495e-02" rms="2.0801930129528046e-01" purity="6.3053429126739502e-02" nType="-99"/>
        </Node>
      </Node>
    </BinaryTree>
    <BinaryTree type="DecisionTree" boostWeight="1.0000000000000000e+00" itree="259">
      <Node pos="s" depth="0" NCoef="0" IVar="45" Cut="1.5190025568008423e+00" cType="1" res="4.6588974073529243e-03" rms="2.7711784839630127e-01" purity="4.9799686670303345e-01" nType="0">
        <Node pos="l" depth="1" NCoef="0" IVar="49" Cut="2.8734118938446045e+00" cType="1" res="-7.0226751267910004e-02" rms="2.1833960711956024e-01" purity="1.6571056842803955e-01" nType="0">
          <Node pos="l" depth="2" NCoef="0" IVar="-1" Cut="0.0000000000000000e+00" cType="1" res="-7.9011349007487297e-03" rms="1.8504735827445984e-01" purity="1.0567004978656769e-01" nType="-99"/>
          <Node pos="r" depth="2" NCoef="0" IVar="-1" Cut="0.0000000000000000e+00" cType="1" res="-1.2434617383405566e-03" rms="2.4926777184009552e-01" purity="2.4967207014560699e-01" nType="-99"/>
        </Node>
        <Node pos="r" depth="1" NCoef="0" IVar="54" Cut="1.4478938579559326e+00" cType="1" res="2.8601897880434990e-02" rms="2.8937727212905884e-01" purity="6.0423791408538818e-01" nType="0">
          <Node pos="l" depth="2" NCoef="0" IVar="-1" Cut="0.0000000000000000e+00" cType="1" res="2.1753523033112288e-03" rms="2.8750467300415039e-01" purity="6.5123361349105835e-01" nType="-99"/>
          <Node pos="r" depth="2" NCoef="0" IVar="-1" Cut="0.0000000000000000e+00" cType="1" res="-8.6281988769769669e-03" rms="2.6253166794776917e-01" purity="9.6989579498767853e-02" nType="-99"/>
        </Node>
      </Node>
    </BinaryTree>
    <BinaryTree type="DecisionTree" boostWeight="1.0000000000000000e+00" itree="260">
      <Node pos="s" depth="0" NCoef="0" IVar="32" Cut="-1.5312021970748901e+00" cType="1" res="5.0130500458180904e-03" rms="2.7645617723464966e-01" purity="5.0083327293395996e-01" nType="0">
        <Node pos="l" depth="1" NCoef="0" IVar="14" Cut="-1.4537111520767212e+00" cType="1" res="5.7113964110612869e-02" rms="2.5870752334594727e-01" purity="6.8647450208663940e-01" nType="0">
          <Node pos="l" depth="2" NCoef="0" IVar="-1" Cut="0.0000000000000000e+00" cType="1" res="-9.7837178036570549e-03" rms="0.0000000000000000e+00" purity="1.3446747325360775e-03" nType="-99"/>
          <Node pos="r" depth="2" NCoef="0" IVar="-1" Cut="0.0000000000000000e+00" cType="1" res="3.7490772083401680e-03" rms="2.7276685833930969e-01" purity="7.9482638835906982e-01" nType="-99"/>
        </Node>
        <Node pos="r" depth="1" NCoef="0" IVar="36" Cut="1.4857443571090698e+00" cType="1" res="-2.8958350419998169e-02" rms="2.8230708837509155e-01" purity="3.7978950142860413e-01" nType="0">
          <Node pos="l" depth="2" NCoef="0" IVar="-1" Cut="0.0000000000000000e+00" cType="1" res="-8.6162460502237082e-04" rms="2.8609839081764221e-01" purity="4.2115491628646851e-01" nType="-99"/>
          <Node pos="r" depth="2" NCoef="0" IVar="-1" Cut="0.0000000000000000e+00" cType="1" res="-1.0092185810208321e-02" rms="2.2265337407588959e-01" purity="5.1868233829736710e-02" nType="-99"/>
        </Node>
      </Node>
    </BinaryTree>
    <BinaryTree type="DecisionTree" boostWeight="1.0000000000000000e+00" itree="261">
      <Node pos="s" depth="0" NCoef="0" IVar="2" Cut="8.8813960552215576e-01" cType="1" res="6.9603300653398037e-03" rms="2.7673014998435974e-01" purity="5.0212895870208740e-01" nType="0">
        <Node pos="l" depth="1" NCoef="0" IVar="1" Cut="2.5639314651489258e+00" cType="1" res="-1.8924652040004730e-01" rms="1.8408952653408051e-01" purity="3.0001364648342133e-02" nType="0">
          <Node pos="l" depth="2" NCoef="0" IVar="-1" Cut="0.0000000000000000e+00" cType="1" res="-6.8737682886421680e-03" rms="8.4165722131729126e-02" purity="2.5028478354215622e-02" nType="-99"/>
          <Node pos="r" depth="2" NCoef="0" IVar="-1" Cut="0.0000000000000000e+00" cType="1" res="-9.4408532604575157e-03" rms="2.0745219290256500e-01" purity="3.5220757126808167e-02" nType="-99"/>
        </Node>
        <Node pos="r" depth="1" NCoef="0" IVar="14" Cut="1.6700902953743935e-02" cType="1" res="1.5571213327348232e-02" rms="2.7692863345146179e-01" purity="5.2284908294677734e-01" nType="0">
          <Node pos="l" depth="2" NCoef="0" IVar="-1" Cut="0.0000000000000000e+00" cType="1" res="-5.2918377332389355e-03" rms="1.6031104326248169e-01" purity="6.2386780977249146e-02" nType="-99"/>
          <Node pos="r" depth="2" NCoef="0" IVar="-1" Cut="0.0000000000000000e+00" cType="1" res="2.0326161757111549e-03" rms="3.0818054080009460e-01" purity="7.1196281909942627e-01" nType="-99"/>
        </Node>
      </Node>
    </BinaryTree>
    <BinaryTree type="DecisionTree" boostWeight="1.0000000000000000e+00" itree="262">
      <Node pos="s" depth="0" NCoef="0" IVar="34" Cut="-6.0873623937368393e-02" cType="1" res="3.2482594251632690e-03" rms="2.7550297975540161e-01" purity="4.9671468138694763e-01" nType="0">
        <Node pos="l" depth="1" NCoef="0" IVar="14" Cut="-1.4537136554718018e+00" cType="1" res="2.5762777775526047e-02" rms="2.7604737877845764e-01" purity="5.7896894216537476e-01" nType="0">
          <Node pos="l" depth="2" NCoef="0" IVar="-1" Cut="0.0000000000000000e+00" cType="1" res="-1.0628095827996731e-02" rms="0.0000000000000000e+00" purity="-5.5910013616085052e-03" nType="-99"/>
          <Node pos="r" depth="2" NCoef="0" IVar="-1" Cut="0.0000000000000000e+00" cType="1" res="2.2253687493503094e-03" rms="3.0164113640785217e-01" purity="6.9780647754669189e-01" nType="-99"/>
        </Node>
        <Node pos="r" depth="1" NCoef="0" IVar="34" Cut="1.4838758707046509e+00" cType="1" res="-7.5370468199253082e-02" rms="2.5865507125854492e-01" purity="2.0948977768421173e-01" nType="0">
          <Node pos="l" depth="2" NCoef="0" IVar="-1" Cut="0.0000000000000000e+00" cType="1" res="-2.9059122316539288e-03" rms="2.7945196628570557e-01" purity="2.7746707201004028e-01" nType="-99"/>
          <Node pos="r" depth="2" NCoef="0" IVar="-1" Cut="0.0000000000000000e+00" cType="1" res="-1.0573272593319416e-02" rms="1.8980440497398376e-01" purity="5.2698686718940735e-02" nType="-99"/>
        </Node>
      </Node>
    </BinaryTree>
    <BinaryTree type="DecisionTree" boostWeight="1.0000000000000000e+00" itree="263">
      <Node pos="s" depth="0" NCoef="0" IVar="2" Cut="5.7144588232040405e-01" cType="1" res="4.1601005941629410e-03" rms="2.7587550878524780e-01" purity="4.9933123588562012e-01" nType="0">
        <Node pos="l" depth="1" NCoef="0" IVar="-1" Cut="0.0000000000000000e+00" cType="1" res="-1.0750290937721729e-02" rms="0.0000000000000000e+00" purity="-5.4146401584148407e-02" nType="-99"/>
        <Node pos="r" depth="1" NCoef="0" IVar="14" Cut="-1.2989310026168823e+00" cType="1" res="1.0811606422066689e-02" rms="2.7690339088439941e-01" purity="5.1299166679382324e-01" nType="0">
          <Node pos="l" depth="2" NCoef="0" IVar="-1" Cut="0.0000000000000000e+00" cType="1" res="-9.7111389040946960e-03" rms="0.0000000000000000e+00" purity="1.4274250715970993e-03" nType="-99"/>
          <Node pos="r" depth="2" NCoef="0" IVar="-1" Cut="0.0000000000000000e+00" cType="1" res="1.6108214622363448e-03" rms="3.1465300917625427e-01" purity="6.6509264707565308e-01" nType="-99"/>
        </Node>
      </Node>
    </BinaryTree>
    <BinaryTree type="DecisionTree" boostWeight="1.0000000000000000e+00" itree="264">
      <Node pos="s" depth="0" NCoef="0" IVar="2" Cut="1.8543626070022583e+00" cType="1" res="5.7038138620555401e-03" rms="2.7491319179534912e-01" purity="5.0195264816284180e-01" nType="0">
        <Node pos="l" depth="1" NCoef="0" IVar="2" Cut="4.9341285228729248e-01" cType="1" res="-6.0596685856580734e-02" rms="2.3779156804084778e-01" purity="2.0666016638278961e-01" nType="0">
          <Node pos="l" depth="2" NCoef="0" IVar="-1" Cut="0.0000000000000000e+00" cType="1" res="-1.0509850457310677e-02" rms="0.0000000000000000e+00" purity="-4.5082390308380127e-02" nType="-99"/>
          <Node pos="r" depth="2" NCoef="0" IVar="-1" Cut="0.0000000000000000e+00" cType="1" res="-2.8262354899197817e-03" rms="2.4160622060298920e-01" purity="2.2513729333877563e-01" nType="-99"/>
        </Node>
        <Node pos="r" depth="1" NCoef="0" IVar="36" Cut="1.4855418205261230e+00" cType="1" res="3.4066285938024521e-02" rms="2.8466510772705078e-01" purity="6.2827485799789429e-01" nType="0">
          <Node pos="l" depth="2" NCoef="0" IVar="-1" Cut="0.0000000000000000e+00" cType="1" res="2.4561069440096617e-03" rms="2.8006160259246826e-01" purity="6.6437810659408569e-01" nType="-99"/>
          <Node pos="r" depth="2" NCoef="0" IVar="-1" Cut="0.0000000000000000e+00" cType="1" res="-8.8124964386224747e-03" rms="2.9178628325462341e-01" purity="9.7683273255825043e-02" nType="-99"/>
        </Node>
      </Node>
    </BinaryTree>
    <BinaryTree type="DecisionTree" boostWeight="1.0000000000000000e+00" itree="265">
      <Node pos="s" depth="0" NCoef="0" IVar="25" Cut="1.1333715915679932e+00" cType="1" res="3.8419968914240599e-03" rms="2.7352347970008850e-01" purity="4.9935272336006165e-01" nType="0">
        <Node pos="l" depth="1" NCoef="0" IVar="29" Cut="2.9579892158508301e+00" cType="1" res="-1.0322083532810211e-01" rms="1.6584534943103790e-01" purity="8.5017912089824677e-02" nType="0">
          <Node pos="l" depth="2" NCoef="0" IVar="-1" Cut="0.0000000000000000e+00" cType="1" res="-1.0757051408290863e-02" rms="1.2209448218345642e-01" purity="4.8107691109180450e-02" nType="-99"/>
          <Node pos="r" depth="2" NCoef="0" IVar="-1" Cut="0.0000000000000000e+00" cType="1" res="-1.3519155327230692e-03" rms="2.5190114974975586e-01" purity="2.1613815426826477e-01" nType="-99"/>
        </Node>
        <Node pos="r" depth="1" NCoef="0" IVar="34" Cut="1.4465442895889282e+00" cType="1" res="2.0486388355493546e-02" rms="2.8303906321525574e-01" purity="5.6376677751541138e-01" nType="0">
          <Node pos="l" depth="2" NCoef="0" IVar="-1" Cut="0.0000000000000000e+00" cType="1" res="1.7921969993039966e-03" rms="2.8363940119743347e-01" purity="6.0931962728500366e-01" nType="-99"/>
          <Node pos="r" depth="2" NCoef="0" IVar="-1" Cut="0.0000000000000000e+00" cType="1" res="-9.2613901942968369e-03" rms="2.2896100580692291e-01" purity="8.1384338438510895e-02" nType="-99"/>
        </Node>
      </Node>
    </BinaryTree>
    <BinaryTree type="DecisionTree" boostWeight="1.0000000000000000e+00" itree="266">
      <Node pos="s" depth="0" NCoef="0" IVar="56" Cut="-1.4924601316452026e+00" cType="1" res="2.2864434868097305e-03" rms="2.7236765623092651e-01" purity="4.9734118580818176e-01" nType="0">
        <Node pos="l" depth="1" NCoef="0" IVar="34" Cut="7.5058168172836304e-01" cType="1" res="3.7498049437999725e-02" rms="2.6818695664405823e-01" purity="6.3253730535507202e-01" nType="0">
          <Node pos="l" depth="2" NCoef="0" IVar="-1" Cut="0.0000000000000000e+00" cType="1" res="3.0567825306206942e-03" rms="2.5606635212898254e-01" purity="7.0307904481887817e-01" nType="-99"/>
          <Node pos="r" depth="2" NCoef="0" IVar="-1" Cut="0.0000000000000000e+00" cType="1" res="-4.8157204873859882e-03" rms="3.0219477415084839e-01" purity="2.2373290359973907e-01" nType="-99"/>
        </Node>
        <Node pos="r" depth="1" NCoef="0" IVar="56" Cut="1.5246056318283081e+00" cType="1" res="-4.9402393400669098e-02" rms="2.7020320296287537e-01" purity="2.9888010025024414e-01" nType="0">
          <Node pos="l" depth="2" NCoef="0" IVar="-1" Cut="0.0000000000000000e+00" cType="1" res="-2.1273617167025805e-03" rms="2.7470862865447998e-01" purity="3.2759955525398254e-01" nType="-99"/>
          <Node pos="r" depth="2" NCoef="0" IVar="-1" Cut="0.0000000000000000e+00" cType="1" res="-1.2765543535351753e-02" rms="1.7541682720184326e-01" purity="2.0402209833264351e-02" nType="-99"/>
        </Node>
      </Node>
    </BinaryTree>
    <BinaryTree type="DecisionTree" boostWeight="1.0000000000000000e+00" itree="267">
      <Node pos="s" depth="0" NCoef="0" IVar="54" Cut="1.3306601047515869e+00" cType="1" res="5.1039457321166992e-03" rms="2.7523413300514221e-01" purity="5.0036460161209106e-01" nType="0">
        <Node pos="l" depth="1" NCoef="0" IVar="34" Cut="1.1772167682647705e+00" cType="1" res="2.0083397626876831e-02" rms="2.7814564108848572e-01" purity="5.5383694171905518e-01" nType="0">
          <Node pos="l" depth="2" NCoef="0" IVar="-1" Cut="0.0000000000000000e+00" cType="1" res="2.0097973756492138e-03" rms="2.7605482935905457e-01" purity="6.1864656209945679e-01" nType="-99"/>
          <Node pos="r" depth="2" NCoef="0" IVar="-1" Cut="0.0000000000000000e+00" cType="1" res="-5.9120957739651203e-03" rms="2.6471155881881714e-01" purity="1.5690031647682190e-01" nType="-99"/>
        </Node>
        <Node pos="r" depth="1" NCoef="0" IVar="49" Cut="3.2649374008178711e+00" cType="1" res="-1.0718451440334320e-01" rms="2.2222848236560822e-01" purity="9.9527180194854736e-02" nType="0">
          <Node pos="l" depth="2" NCoef="0" IVar="-1" Cut="0.0000000000000000e+00" cType="1" res="-4.7492077574133873e-03" rms="2.2434183955192566e-01" purity="1.0231599211692810e-01" nType="-99"/>
          <Node pos="r" depth="2" NCoef="0" IVar="-1" Cut="0.0000000000000000e+00" cType="1" res="-1.0022135451436043e-02" rms="2.0902612805366516e-01" purity="9.6805229783058167e-02" nType="-99"/>
        </Node>
      </Node>
    </BinaryTree>
    <BinaryTree type="DecisionTree" boostWeight="1.0000000000000000e+00" itree="268">
      <Node pos="s" depth="0" NCoef="0" IVar="2" Cut="6.7458766698837280e-01" cType="1" res="3.7607951089739799e-03" rms="2.7257359027862549e-01" purity="4.9839258193969727e-01" nType="0">
        <Node pos="l" depth="1" NCoef="0" IVar="-1" Cut="0.0000000000000000e+00" cType="1" res="-1.0199364274740219e-02" rms="0.0000000000000000e+00" purity="-3.6660652607679367e-02" nType="-99"/>
        <Node pos="r" depth="1" NCoef="0" IVar="56" Cut="-1.2217776775360107e+00" cType="1" res="1.1068550869822502e-02" rms="2.7383321523666382e-01" purity="5.1380801200866699e-01" nType="0">
          <Node pos="l" depth="2" NCoef="0" IVar="-1" Cut="0.0000000000000000e+00" cType="1" res="1.9183699041604996e-03" rms="2.7498206496238708e-01" purity="6.0479772090911865e-01" nType="-99"/>
          <Node pos="r" depth="2" NCoef="0" IVar="-1" Cut="0.0000000000000000e+00" cType="1" res="-4.1125388815999031e-03" rms="2.5571328401565552e-01" purity="2.2853307425975800e-01" nType="-99"/>
        </Node>
      </Node>
    </BinaryTree>
    <BinaryTree type="DecisionTree" boostWeight="1.0000000000000000e+00" itree="269">
      <Node pos="s" depth="0" NCoef="0" IVar="54" Cut="-2.2239163517951965e-02" cType="1" res="2.9655736871063709e-03" rms="2.7188092470169067e-01" purity="4.9639192223548889e-01" nType="0">
        <Node pos="l" depth="1" NCoef="0" IVar="34" Cut="4.8012962937355042e-01" cType="1" res="2.4836836382746696e-02" rms="2.7089542150497437e-01" purity="5.8071500062942505e-01" nType="0">
          <Node pos="l" depth="2" NCoef="0" IVar="-1" Cut="0.0000000000000000e+00" cType="1" res="2.4806205183267593e-03" rms="2.6425647735595703e-01" purity="6.5841805934906006e-01" nType="-99"/>
          <Node pos="r" depth="2" NCoef="0" IVar="-1" Cut="0.0000000000000000e+00" cType="1" res="-4.9428478814661503e-03" rms="2.7689206600189209e-01" purity="2.0742513239383698e-01" nType="-99"/>
        </Node>
        <Node pos="r" depth="1" NCoef="0" IVar="54" Cut="1.4073745012283325e+00" cType="1" res="-7.3125809431076050e-02" rms="2.6139256358146667e-01" purity="2.0302718877792358e-01" nType="0">
          <Node pos="l" depth="2" NCoef="0" IVar="-1" Cut="0.0000000000000000e+00" cType="1" res="-2.2134373430162668e-03" rms="2.9129534959793091e-01" purity="3.0454441905021667e-01" nType="-99"/>
          <Node pos="r" depth="2" NCoef="0" IVar="-1" Cut="0.0000000000000000e+00" cType="1" res="-8.6397789418697357e-03" rms="2.1216762065887451e-01" purity="7.9522483050823212e-02" nType="-99"/>
        </Node>
      </Node>
    </BinaryTree>
    <BinaryTree type="DecisionTree" boostWeight="1.0000000000000000e+00" itree="270">
      <Node pos="s" depth="0" NCoef="0" IVar="25" Cut="1.1127163171768188e+00" cType="1" res="4.3939612805843353e-03" rms="2.7227845788002014e-01" purity="4.9828028678894043e-01" nType="0">
        <Node pos="l" depth="1" NCoef="0" IVar="29" Cut="2.9099566936492920e+00" cType="1" res="-1.0425195842981339e-01" rms="1.5197266638278961e-01" purity="8.1264019012451172e-02" nType="0">
          <Node pos="l" depth="2" NCoef="0" IVar="-1" Cut="0.0000000000000000e+00" cType="1" res="-1.1634151451289654e-02" rms="6.9169588387012482e-02" purity="3.4263800829648972e-02" nType="-99"/>
          <Node pos="r" depth="2" NCoef="0" IVar="-1" Cut="0.0000000000000000e+00" cType="1" res="-5.3331506205722690e-04" rms="2.6033455133438110e-01" purity="2.2737245261669159e-01" nType="-99"/>
        </Node>
        <Node pos="r" depth="1" NCoef="0" IVar="14" Cut="-1.4150193929672241e+00" cType="1" res="2.0841943100094795e-02" rms="2.8249773383140564e-01" purity="5.6141269207000732e-01" nType="0">
          <Node pos="l" depth="2" NCoef="0" IVar="-1" Cut="0.0000000000000000e+00" cType="1" res="-1.0456745512783527e-02" rms="0.0000000000000000e+00" purity="-4.7838608734309673e-03" nType="-99"/>
          <Node pos="r" depth="2" NCoef="0" IVar="-1" Cut="0.0000000000000000e+00" cType="1" res="1.9537343177944422e-03" rms="3.1079524755477905e-01" purity="6.8347644805908203e-01" nType="-99"/>
        </Node>
      </Node>
    </BinaryTree>
    <BinaryTree type="DecisionTree" boostWeight="1.0000000000000000e+00" itree="271">
      <Node pos="s" depth="0" NCoef="0" IVar="25" Cut="1.1799900531768799e+00" cType="1" res="6.8968036212027073e-03" rms="2.7313205599784851e-01" purity="5.0177228450775146e-01" nType="0">
        <Node pos="l" depth="1" NCoef="0" IVar="29" Cut="2.8588078022003174e+00" cType="1" res="-9.1934800148010254e-02" rms="1.7711560428142548e-01" purity="1.0401714593172073e-01" nType="0">
          <Node pos="l" depth="2" NCoef="0" IVar="-1" Cut="0.0000000000000000e+00" cType="1" res="-1.0073771700263023e-02" rms="1.2125822156667709e-01" purity="5.7416651397943497e-02" nType="-99"/>
          <Node pos="r" depth="2" NCoef="0" IVar="-1" Cut="0.0000000000000000e+00" cType="1" res="-1.6202621627599001e-03" rms="2.5338917970657349e-01" purity="2.1431505680084229e-01" nType="-99"/>
        </Node>
        <Node pos="r" depth="1" NCoef="0" IVar="54" Cut="1.3308039903640747e+00" cType="1" res="2.3621197789907455e-02" rms="2.8281468152999878e-01" purity="5.6908094882965088e-01" nType="0">
          <Node pos="l" depth="2" NCoef="0" IVar="-1" Cut="0.0000000000000000e+00" cType="1" res="2.0257597789168358e-03" rms="2.8047889471054077e-01" purity="6.2031131982803345e-01" nType="-99"/>
          <Node pos="r" depth="2" NCoef="0" IVar="-1" Cut="0.0000000000000000e+00" cType="1" res="-6.5752458758652210e-03" rms="2.7041816711425781e-01" purity="1.3755102455615997e-01" nType="-99"/>
        </Node>
      </Node>
    </BinaryTree>
    <BinaryTree type="DecisionTree" boostWeight="1.0000000000000000e+00" itree="272">
      <Node pos="s" depth="0" NCoef="0" IVar="45" Cut="1.4290518760681152e+00" cType="1" res="4.1554966010153294e-03" rms="2.7234363555908203e-01" purity="4.9864679574966431e-01" nType="0">
        <Node pos="l" depth="1" NCoef="0" IVar="49" Cut="2.9741876125335693e+00" cType="1" res="-7.5017191469669342e-02" rms="2.0852947235107422e-01" purity="1.4944237470626831e-01" nType="0">
          <Node pos="l" depth="2" NCoef="0" IVar="-1" Cut="0.0000000000000000e+00" cType="1" res="-8.0013880506157875e-03" rms="1.7417670786380768e-01" purity="1.0069843381643295e-01" nType="-99"/>
          <Node pos="r" depth="2" NCoef="0" IVar="-1" Cut="0.0000000000000000e+00" cType="1" res="-6.3678389415144920e-04" rms="2.5572615861892700e-01" purity="2.5349533557891846e-01" nType="-99"/>
        </Node>
        <Node pos="r" depth="1" NCoef="0" IVar="56" Cut="1.4854199886322021e+00" cType="1" res="2.5661217048764229e-02" rms="2.8344538807868958e-01" purity="5.9350144863128662e-01" nType="0">
          <Node pos="l" depth="2" NCoef="0" IVar="-1" Cut="0.0000000000000000e+00" cType="1" res="2.0029558800160885e-03" rms="2.8354176878929138e-01" purity="6.3403004407882690e-01" nType="-99"/>
          <Node pos="r" depth="2" NCoef="0" IVar="-1" Cut="0.0000000000000000e+00" cType="1" res="-1.0230005718767643e-02" rms="2.1904687583446503e-01" purity="5.4535675793886185e-02" nType="-99"/>
        </Node>
      </Node>
    </BinaryTree>
    <BinaryTree type="DecisionTree" boostWeight="1.0000000000000000e+00" itree="273">
      <Node pos="s" depth="0" NCoef="0" IVar="25" Cut="1.2633597850799561e+00" cType="1" res="7.4539012275636196e-03" rms="2.7458006143569946e-01" purity="5.0210893154144287e-01" nType="0">
        <Node pos="l" depth="1" NCoef="0" IVar="29" Cut="2.7267642021179199e+00" cType="1" res="-8.5033364593982697e-02" rms="1.8941110372543335e-01" purity="1.1956723779439926e-01" nType="0">
          <Node pos="l" depth="2" NCoef="0" IVar="-1" Cut="0.0000000000000000e+00" cType="1" res="-1.0769298300147057e-02" rms="1.1009531468153000e-01" purity="5.1749203354120255e-02" nType="-99"/>
          <Node pos="r" depth="2" NCoef="0" IVar="-1" Cut="0.0000000000000000e+00" cType="1" res="-1.8701244844123721e-03" rms="2.4930365383625031e-01" purity="2.1128940582275391e-01" nType="-99"/>
        </Node>
        <Node pos="r" depth="1" NCoef="0" IVar="2" Cut="1.0268164873123169e+00" cType="1" res="2.5736417621374130e-02" rms="2.8492236137390137e-01" purity="5.7772827148437500e-01" nType="0">
          <Node pos="l" depth="2" NCoef="0" IVar="-1" Cut="0.0000000000000000e+00" cType="1" res="-6.8432823754847050e-03" rms="2.5820571184158325e-01" purity="1.0144752264022827e-01" nType="-99"/>
          <Node pos="r" depth="2" NCoef="0" IVar="-1" Cut="0.0000000000000000e+00" cType="1" res="1.9325824687257409e-03" rms="2.8291413187980652e-01" purity="6.0350817441940308e-01" nType="-99"/>
        </Node>
      </Node>
    </BinaryTree>
    <BinaryTree type="DecisionTree" boostWeight="1.0000000000000000e+00" itree="274">
      <Node pos="s" depth="0" NCoef="0" IVar="54" Cut="9.4498407840728760e-01" cType="1" res="5.7318322360515594e-03" rms="2.7355447411537170e-01" purity="5.0339728593826294e-01" nType="0">
        <Node pos="l" depth="1" NCoef="0" IVar="34" Cut="-9.1235589981079102e-01" cType="1" res="2.2950654849410057e-02" rms="2.7573367953300476e-01" purity="5.6934368610382080e-01" nType="0">
          <Node pos="l" depth="2" NCoef="0" IVar="-1" Cut="0.0000000000000000e+00" cType="1" res="2.5497523602098227e-03" rms="2.6395392417907715e-01" purity="6.6683781147003174e-01" nType="-99"/>
          <Node pos="r" depth="2" NCoef="0" IVar="-1" Cut="0.0000000000000000e+00" cType="1" res="-3.1228840816766024e-03" rms="2.9594567418098450e-01" purity="2.7508026361465454e-01" nType="-99"/>
        </Node>
        <Node pos="r" depth="1" NCoef="0" IVar="49" Cut="3.4380643367767334e+00" cType="1" res="-8.7741173803806305e-02" rms="2.4080565571784973e-01" purity="1.4540491998195648e-01" nType="0">
          <Node pos="l" depth="2" NCoef="0" IVar="-1" Cut="0.0000000000000000e+00" cType="1" res="-4.6991542913019657e-03" rms="2.3261837661266327e-01" purity="1.3407532870769501e-01" nType="-99"/>
          <Node pos="r" depth="2" NCoef="0" IVar="-1" Cut="0.0000000000000000e+00" cType="1" res="-7.9434253275394440e-03" rms="2.4976676702499390e-01" purity="1.6809357702732086e-01" nType="-99"/>
        </Node>
      </Node>
    </BinaryTree>
    <BinaryTree type="DecisionTree" boostWeight="1.0000000000000000e+00" itree="275">
      <Node pos="s" depth="0" NCoef="0" IVar="14" Cut="1.4870474338531494e+00" cType="1" res="5.7309269905090332e-03" rms="2.7372181415557861e-01" purity="5.0227791070938110e-01" nType="0">
        <Node pos="l" depth="1" NCoef="0" IVar="65" Cut="6.1803561449050903e-01" cType="1" res="-3.3726375550031662e-02" rms="2.5383451581001282e-01" purity="2.4509610235691071e-01" nType="0">
          <Node pos="l" depth="2" NCoef="0" IVar="-1" Cut="0.0000000000000000e+00" cType="1" res="-6.1036122497171164e-04" rms="2.7698516845703125e-01" purity="2.9488635063171387e-01" nType="-99"/>
          <Node pos="r" depth="2" NCoef="0" IVar="-1" Cut="0.0000000000000000e+00" cType="1" res="-7.4685108847916126e-03" rms="1.6426107287406921e-01" purity="1.1569032818078995e-01" nType="-99"/>
        </Node>
        <Node pos="r" depth="1" NCoef="0" IVar="36" Cut="1.4856008291244507e+00" cType="1" res="4.5070737600326538e-02" rms="2.8685218095779419e-01" purity="7.5869393348693848e-01" nType="0">
          <Node pos="l" depth="2" NCoef="0" IVar="-1" Cut="0.0000000000000000e+00" cType="1" res="2.8541714418679476e-03" rms="2.7818122506141663e-01" purity="7.9851621389389038e-01" nType="-99"/>
          <Node pos="r" depth="2" NCoef="0" IVar="-1" Cut="0.0000000000000000e+00" cType="1" res="-9.0919462963938713e-03" rms="3.2568079233169556e-01" purity="1.1615184694528580e-01" nType="-99"/>
        </Node>
      </Node>
    </BinaryTree>
    <BinaryTree type="DecisionTree" boostWeight="1.0000000000000000e+00" itree="276">
      <Node pos="s" depth="0" NCoef="0" IVar="2" Cut="1.2407044172286987e+00" cType="1" res="6.4796567894518375e-03" rms="2.7245649695396423e-01" purity="5.0062191486358643e-01" nType="0">
        <Node pos="l" depth="1" NCoef="0" IVar="2" Cut="5.4936236143112183e-01" cType="1" res="-1.2250252813100815e-01" rms="2.2298292815685272e-01" purity="1.1303680390119553e-01" nType="0">
          <Node pos="l" depth="2" NCoef="0" IVar="-1" Cut="0.0000000000000000e+00" cType="1" res="-9.6628684550523758e-03" rms="0.0000000000000000e+00" purity="-2.8373148292303085e-02" nType="-99"/>
          <Node pos="r" depth="2" NCoef="0" IVar="-1" Cut="0.0000000000000000e+00" cType="1" res="-4.6813590452075005e-03" rms="2.5155499577522278e-01" purity="1.6626542806625366e-01" nType="-99"/>
        </Node>
        <Node pos="r" depth="1" NCoef="0" IVar="45" Cut="1.2901349067687988e+00" cType="1" res="1.8590563908219337e-02" rms="2.7354207634925842e-01" purity="5.3701454401016235e-01" nType="0">
          <Node pos="l" depth="2" NCoef="0" IVar="-1" Cut="0.0000000000000000e+00" cType="1" res="-5.6212344206869602e-03" rms="2.1289898455142975e-01" purity="1.4130137860774994e-01" nType="-99"/>
          <Node pos="r" depth="2" NCoef="0" IVar="-1" Cut="0.0000000000000000e+00" cType="1" res="2.0147571340203285e-03" rms="2.8027194738388062e-01" purity="6.1513596773147583e-01" nType="-99"/>
        </Node>
      </Node>
    </BinaryTree>
    <BinaryTree type="DecisionTree" boostWeight="1.0000000000000000e+00" itree="277">
      <Node pos="s" depth="0" NCoef="0" IVar="2" Cut="1.9351288080215454e+00" cType="1" res="3.5219199489802122e-03" rms="2.7047598361968994e-01" purity="5.0108057260513306e-01" nType="0">
        <Node pos="l" depth="1" NCoef="0" IVar="2" Cut="6.0807126760482788e-01" cType="1" res="-5.3701449185609818e-02" rms="2.3676735162734985e-01" purity="2.2301606833934784e-01" nType="0">
          <Node pos="l" depth="2" NCoef="0" IVar="-1" Cut="0.0000000000000000e+00" cType="1" res="-9.6453716978430748e-03" rms="0.0000000000000000e+00" purity="-2.3214902728796005e-02" nType="-99"/>
          <Node pos="r" depth="2" NCoef="0" IVar="-1" Cut="0.0000000000000000e+00" cType="1" res="-2.4492642842233181e-03" rms="2.4202097952365875e-01" purity="2.4376882612705231e-01" nType="-99"/>
        </Node>
        <Node pos="r" depth="1" NCoef="0" IVar="65" Cut="7.2956109046936035e-01" cType="1" res="3.2830711454153061e-02" rms="2.8174212574958801e-01" purity="6.4350020885467529e-01" nType="0">
          <Node pos="l" depth="2" NCoef="0" IVar="-1" Cut="0.0000000000000000e+00" cType="1" res="2.5201817043125629e-03" rms="2.8165242075920105e-01" purity="6.8239557743072510e-01" nType="-99"/>
          <Node pos="r" depth="2" NCoef="0" IVar="-1" Cut="0.0000000000000000e+00" cType="1" res="-6.4342934638261795e-03" rms="2.4150972068309784e-01" purity="2.5366336107254028e-01" nType="-99"/>
        </Node>
      </Node>
    </BinaryTree>
    <BinaryTree type="DecisionTree" boostWeight="1.0000000000000000e+00" itree="278">
      <Node pos="s" depth="0" NCoef="0" IVar="36" Cut="-1.4924436807632446e+00" cType="1" res="4.2883851565420628e-03" rms="2.7239015698432922e-01" purity="5.0069880485534668e-01" nType="0">
        <Node pos="l" depth="1" NCoef="0" IVar="56" Cut="1.4467463493347168e+00" cType="1" res="3.8455322384834290e-02" rms="2.6666295528411865e-01" purity="6.3339662551879883e-01" nType="0">
          <Node pos="l" depth="2" NCoef="0" IVar="-1" Cut="0.0000000000000000e+00" cType="1" res="2.7884598821401596e-03" rms="2.6145657896995544e-01" purity="6.7869770526885986e-01" nType="-99"/>
          <Node pos="r" depth="2" NCoef="0" IVar="-1" Cut="0.0000000000000000e+00" cType="1" res="-8.3600739017128944e-03" rms="2.7097117900848389e-01" purity="9.4481922686100006e-02" nType="-99"/>
        </Node>
        <Node pos="r" depth="1" NCoef="0" IVar="1" Cut="3.7021350860595703e+00" cType="1" res="-4.6340972185134888e-02" rms="2.7290660142898560e-01" purity="3.0406406521797180e-01" nType="0">
          <Node pos="l" depth="2" NCoef="0" IVar="-1" Cut="0.0000000000000000e+00" cType="1" res="-3.8923076353967190e-03" rms="2.5914514064788818e-01" purity="2.3923838138580322e-01" nType="-99"/>
          <Node pos="r" depth="2" NCoef="0" IVar="-1" Cut="0.0000000000000000e+00" cType="1" res="2.2300339769572020e-03" rms="3.3329218626022339e-01" purity="7.1833503246307373e-01" nType="-99"/>
        </Node>
      </Node>
    </BinaryTree>
    <BinaryTree type="DecisionTree" boostWeight="1.0000000000000000e+00" itree="279">
      <Node pos="s" depth="0" NCoef="0" IVar="45" Cut="1.0744315385818481e+00" cType="1" res="5.0237169489264488e-03" rms="2.7443054318428040e-01" purity="5.0191920995712280e-01" nType="0">
        <Node pos="l" depth="1" NCoef="0" IVar="49" Cut="2.9905438423156738e+00" cType="1" res="-1.0097339004278183e-01" rms="1.6291673481464386e-01" purity="8.2797333598136902e-02" nType="0">
          <Node pos="l" depth="2" NCoef="0" IVar="-1" Cut="0.0000000000000000e+00" cType="1" res="-1.0769027285277843e-02" rms="1.2822900712490082e-01" purity="4.3194666504859924e-02" nType="-99"/>
          <Node pos="r" depth="2" NCoef="0" IVar="-1" Cut="0.0000000000000000e+00" cType="1" res="-2.7648248942568898e-04" rms="2.4601404368877411e-01" purity="2.6075649261474609e-01" nType="-99"/>
        </Node>
        <Node pos="r" depth="1" NCoef="0" IVar="36" Cut="1.4856319427490234e+00" cType="1" res="1.9928896799683571e-02" rms="2.8349262475967407e-01" purity="5.6085556745529175e-01" nType="0">
          <Node pos="l" depth="2" NCoef="0" IVar="-1" Cut="0.0000000000000000e+00" cType="1" res="1.6314025269821286e-03" rms="2.8280964493751526e-01" purity="5.9380209445953369e-01" nType="-99"/>
          <Node pos="r" depth="2" NCoef="0" IVar="-1" Cut="0.0000000000000000e+00" cType="1" res="-9.6088321879506111e-03" rms="2.4312634766101837e-01" purity="6.4421147108078003e-02" nType="-99"/>
        </Node>
      </Node>
    </BinaryTree>
    <BinaryTree type="DecisionTree" boostWeight="1.0000000000000000e+00" itree="280">
      <Node pos="s" depth="0" NCoef="0" IVar="32" Cut="-1.5312049388885498e+00" cType="1" res="6.8302159197628498e-03" rms="2.7505359053611755e-01" purity="5.0201988220214844e-01" nType="0">
        <Node pos="l" depth="1" NCoef="0" IVar="14" Cut="-1.4150193929672241e+00" cType="1" res="5.4420746862888336e-02" rms="2.6035538315773010e-01" purity="6.8662095069885254e-01" nType="0">
          <Node pos="l" depth="2" NCoef="0" IVar="-1" Cut="0.0000000000000000e+00" cType="1" res="-7.7109560370445251e-03" rms="9.9566124379634857e-02" purity="1.6625106334686279e-02" nType="-99"/>
          <Node pos="r" depth="2" NCoef="0" IVar="-1" Cut="0.0000000000000000e+00" cType="1" res="3.6384931299835443e-03" rms="2.7370208501815796e-01" purity="8.0173206329345703e-01" nType="-99"/>
        </Node>
        <Node pos="r" depth="1" NCoef="0" IVar="2" Cut="1.8577412366867065e+00" cType="1" res="-2.4118572473526001e-02" rms="2.7989542484283447e-01" purity="3.8197124004364014e-01" nType="0">
          <Node pos="l" depth="2" NCoef="0" IVar="-1" Cut="0.0000000000000000e+00" cType="1" res="-5.4304408840835094e-03" rms="1.9288364052772522e-01" purity="1.2272036075592041e-01" nType="-99"/>
          <Node pos="r" depth="2" NCoef="0" IVar="-1" Cut="0.0000000000000000e+00" cType="1" res="1.1083048593718559e-04" rms="3.1262162327766418e-01" purity="5.1678848266601562e-01" nType="-99"/>
        </Node>
      </Node>
    </BinaryTree>
    <BinaryTree type="DecisionTree" boostWeight="1.0000000000000000e+00" itree="281">
      <Node pos="s" depth="0" NCoef="0" IVar="1" Cut="2.1983001232147217e+00" cType="1" res="4.8232423141598701e-03" rms="2.7011573314666748e-01" purity="5.0065129995346069e-01" nType="0">
        <Node pos="l" depth="1" NCoef="0" IVar="37" Cut="-1.5766245126724243e+00" cType="1" res="-8.7824150919914246e-02" rms="3.6153074353933334e-02" purity="3.3710256218910217e-02" nType="0">
          <Node pos="l" depth="2" NCoef="0" IVar="-1" Cut="0.0000000000000000e+00" cType="1" res="-5.6926733814179897e-03" rms="1.6429048776626587e-01" purity="6.9063395261764526e-02" nType="-99"/>
          <Node pos="r" depth="2" NCoef="0" IVar="-1" Cut="0.0000000000000000e+00" cType="1" res="-1.4479291625320911e-02" rms="0.0000000000000000e+00" purity="-3.0006079003214836e-02" nType="-99"/>
        </Node>
        <Node pos="r" depth="1" NCoef="0" IVar="2" Cut="1.2472093105316162e+00" cType="1" res="2.2596996277570724e-02" rms="2.9111254215240479e-01" purity="5.9023070335388184e-01" nType="0">
          <Node pos="l" depth="2" NCoef="0" IVar="-1" Cut="0.0000000000000000e+00" cType="1" res="-6.1696395277976990e-03" rms="2.7658951282501221e-01" purity="1.5946231782436371e-01" nType="-99"/>
          <Node pos="r" depth="2" NCoef="0" IVar="-1" Cut="0.0000000000000000e+00" cType="1" res="1.8492476083338261e-03" rms="2.8853750228881836e-01" purity="6.2187421321868896e-01" nType="-99"/>
        </Node>
      </Node>
    </BinaryTree>
    <BinaryTree type="DecisionTree" boostWeight="1.0000000000000000e+00" itree="282">
      <Node pos="s" depth="0" NCoef="0" IVar="56" Cut="-1.4537754058837891e+00" cType="1" res="3.7454618141055107e-03" rms="2.7165752649307251e-01" purity="4.9939411878585815e-01" nType="0">
        <Node pos="l" depth="1" NCoef="0" IVar="34" Cut="-1.1055123805999756e+00" cType="1" res="3.1307227909564972e-02" rms="2.7383592724800110e-01" purity="6.1421799659729004e-01" nType="0">
          <Node pos="l" depth="2" NCoef="0" IVar="-1" Cut="0.0000000000000000e+00" cType="1" res="3.1299276743084192e-03" rms="2.5376227498054504e-01" purity="7.1131205558776855e-01" nType="-99"/>
          <Node pos="r" depth="2" NCoef="0" IVar="-1" Cut="0.0000000000000000e+00" cType="1" res="-2.7497333940118551e-03" rms="3.1359148025512695e-01" purity="3.2213717699050903e-01" nType="-99"/>
        </Node>
        <Node pos="r" depth="1" NCoef="0" IVar="56" Cut="1.5255260467529297e+00" cType="1" res="-5.0457973033189774e-02" rms="2.5889942049980164e-01" purity="2.7357959747314453e-01" nType="0">
          <Node pos="l" depth="2" NCoef="0" IVar="-1" Cut="0.0000000000000000e+00" cType="1" res="-2.1441709250211716e-03" rms="2.6673045754432678e-01" purity="3.0706372857093811e-01" nType="-99"/>
          <Node pos="r" depth="2" NCoef="0" IVar="-1" Cut="0.0000000000000000e+00" cType="1" res="-1.3530767522752285e-02" rms="1.2541887164115906e-01" purity="5.3250812925398350e-03" nType="-99"/>
        </Node>
      </Node>
    </BinaryTree>
    <BinaryTree type="DecisionTree" boostWeight="1.0000000000000000e+00" itree="283">
      <Node pos="s" depth="0" NCoef="0" IVar="25" Cut="1.5829364061355591e+00" cType="1" res="3.4941672347486019e-03" rms="2.7398478984832764e-01" purity="4.9840313196182251e-01" nType="0">
        <Node pos="l" depth="1" NCoef="0" IVar="0" Cut="4.3373876810073853e-01" cType="1" res="-6.0942064970731735e-02" rms="2.2828461229801178e-01" purity="1.8312560021877289e-01" nType="0">
          <Node pos="l" depth="2" NCoef="0" IVar="-1" Cut="0.0000000000000000e+00" cType="1" res="-5.1976257236674428e-04" rms="2.7243688702583313e-01" purity="2.9048657417297363e-01" nType="-99"/>
          <Node pos="r" depth="2" NCoef="0" IVar="-1" Cut="0.0000000000000000e+00" cType="1" res="-7.2278887964785099e-03" rms="1.8992775678634644e-01" purity="1.1813595890998840e-01" nType="-99"/>
        </Node>
        <Node pos="r" depth="1" NCoef="0" IVar="2" Cut="8.2592612504959106e-01" cType="1" res="2.6812270283699036e-02" rms="2.8518047928810120e-01" purity="6.1249536275863647e-01" nType="0">
          <Node pos="l" depth="2" NCoef="0" IVar="-1" Cut="0.0000000000000000e+00" cType="1" res="-7.4882428161799908e-03" rms="2.4332250654697418e-01" purity="7.0597171783447266e-02" nType="-99"/>
          <Node pos="r" depth="2" NCoef="0" IVar="-1" Cut="0.0000000000000000e+00" cType="1" res="1.8622998613864183e-03" rms="2.8327262401580811e-01" purity="6.3004463911056519e-01" nType="-99"/>
        </Node>
      </Node>
    </BinaryTree>
    <BinaryTree type="DecisionTree" boostWeight="1.0000000000000000e+00" itree="284">
      <Node pos="s" depth="0" NCoef="0" IVar="1" Cut="3.3984236717224121e+00" cType="1" res="3.0796024948358536e-03" rms="2.6889231801033020e-01" purity="4.9885943531990051e-01" nType="0">
        <Node pos="l" depth="1" NCoef="0" IVar="17" Cut="-1.0217673778533936e+00" cType="1" res="-2.4448646232485771e-02" rms="2.7117508649826050e-01" purity="3.5376298427581787e-01" nType="0">
          <Node pos="l" depth="2" NCoef="0" IVar="-1" Cut="0.0000000000000000e+00" cType="1" res="-6.2212761258706450e-04" rms="2.7725946903228760e-01" purity="3.7871676683425903e-01" nType="-99"/>
          <Node pos="r" depth="2" NCoef="0" IVar="-1" Cut="0.0000000000000000e+00" cType="1" res="-9.1713210567831993e-03" rms="1.8092788755893707e-01" purity="1.5147615969181061e-01" nType="-99"/>
        </Node>
        <Node pos="r" depth="1" NCoef="0" IVar="54" Cut="1.1761322021484375e+00" cType="1" res="6.3136376440525055e-02" rms="2.5367966294288635e-01" purity="8.1540793180465698e-01" nType="0">
          <Node pos="l" depth="2" NCoef="0" IVar="-1" Cut="0.0000000000000000e+00" cType="1" res="4.1148508898913860e-03" rms="2.3345355689525604e-01" purity="8.5384190082550049e-01" nType="-99"/>
          <Node pos="r" depth="2" NCoef="0" IVar="-1" Cut="0.0000000000000000e+00" cType="1" res="-2.7671582065522671e-03" rms="4.0257978439331055e-01" purity="3.6611875891685486e-01" nType="-99"/>
        </Node>
      </Node>
    </BinaryTree>
    <BinaryTree type="DecisionTree" boostWeight="1.0000000000000000e+00" itree="285">
      <Node pos="s" depth="0" NCoef="0" IVar="36" Cut="-1.1830332279205322e+00" cType="1" res="4.5349956490099430e-03" rms="2.7221286296844482e-01" purity="4.9915909767150879e-01" nType="0">
        <Node pos="l" depth="1" NCoef="0" IVar="2" Cut="6.9652026891708374e-01" cType="1" res="2.6172434911131859e-02" rms="2.7320015430450439e-01" purity="5.8679687976837158e-01" nType="0">
          <Node pos="l" depth="2" NCoef="0" IVar="-1" Cut="0.0000000000000000e+00" cType="1" res="-8.4865586832165718e-03" rms="1.3709111511707306e-01" purity="1.0265946388244629e-02" nType="-99"/>
          <Node pos="r" depth="2" NCoef="0" IVar="-1" Cut="0.0000000000000000e+00" cType="1" res="1.8920745933428407e-03" rms="2.7252385020256042e-01" purity="6.0390174388885498e-01" nType="-99"/>
        </Node>
        <Node pos="r" depth="1" NCoef="0" IVar="36" Cut="1.5290831327438354e+00" cType="1" res="-6.4185850322246552e-02" rms="2.5725486874580383e-01" purity="2.2081995010375977e-01" nType="0">
          <Node pos="l" depth="2" NCoef="0" IVar="-1" Cut="0.0000000000000000e+00" cType="1" res="-3.0902700964361429e-03" rms="2.6048880815505981e-01" purity="2.5147581100463867e-01" nType="-99"/>
          <Node pos="r" depth="2" NCoef="0" IVar="-1" Cut="0.0000000000000000e+00" cType="1" res="-1.1974697932600975e-02" rms="2.0947109162807465e-01" purity="3.3312905579805374e-02" nType="-99"/>
        </Node>
      </Node>
    </BinaryTree>
    <BinaryTree type="DecisionTree" boostWeight="1.0000000000000000e+00" itree="286">
      <Node pos="s" depth="0" NCoef="0" IVar="2" Cut="6.0483932495117188e-01" cType="1" res="4.2490833438932896e-03" rms="2.7075251936912537e-01" purity="5.0002175569534302e-01" nType="0">
        <Node pos="l" depth="1" NCoef="0" IVar="-1" Cut="0.0000000000000000e+00" cType="1" res="-9.8137706518173218e-03" rms="0.0000000000000000e+00" purity="-4.2181693017482758e-02" nType="-99"/>
        <Node pos="r" depth="1" NCoef="0" IVar="14" Cut="-1.4150193929672241e+00" cType="1" res="1.0394238866865635e-02" rms="2.7227866649627686e-01" purity="5.1358205080032349e-01" nType="0">
          <Node pos="l" depth="2" NCoef="0" IVar="-1" Cut="0.0000000000000000e+00" cType="1" res="-1.0725466534495354e-02" rms="0.0000000000000000e+00" purity="-5.9867943637073040e-03" nType="-99"/>
          <Node pos="r" depth="2" NCoef="0" IVar="-1" Cut="0.0000000000000000e+00" cType="1" res="1.5051420778036118e-03" rms="3.0670729279518127e-01" purity="6.4783054590225220e-01" nType="-99"/>
        </Node>
      </Node>
    </BinaryTree>
    <BinaryTree type="DecisionTree" boostWeight="1.0000000000000000e+00" itree="287">
      <Node pos="s" depth="0" NCoef="0" IVar="14" Cut="1.4871129989624023e+00" cType="1" res="2.5594085454940796e-03" rms="2.6892492175102234e-01" purity="4.9892219901084900e-01" nType="0">
        <Node pos="l" depth="1" NCoef="0" IVar="17" Cut="-1.3782238960266113e+00" cType="1" res="-3.6161426454782486e-02" rms="2.4544624984264374e-01" purity="2.3860214650630951e-01" nType="0">
          <Node pos="l" depth="2" NCoef="0" IVar="-1" Cut="0.0000000000000000e+00" cType="1" res="-1.0947848204523325e-03" rms="2.5496754050254822e-01" purity="2.6943603157997131e-01" nType="-99"/>
          <Node pos="r" depth="2" NCoef="0" IVar="-1" Cut="0.0000000000000000e+00" cType="1" res="-7.7344500459730625e-03" rms="1.9640226662158966e-01" purity="1.3591837882995605e-01" nType="-99"/>
        </Node>
        <Node pos="r" depth="1" NCoef="0" IVar="36" Cut="1.4856319427490234e+00" cType="1" res="4.0978752076625824e-02" rms="2.8520110249519348e-01" purity="7.5721532106399536e-01" nType="0">
          <Node pos="l" depth="2" NCoef="0" IVar="-1" Cut="0.0000000000000000e+00" cType="1" res="2.6980519760400057e-03" rms="2.7763900160789490e-01" purity="7.9809582233428955e-01" nType="-99"/>
          <Node pos="r" depth="2" NCoef="0" IVar="-1" Cut="0.0000000000000000e+00" cType="1" res="-9.1873593628406525e-03" rms="3.1171408295631409e-01" purity="1.0728640854358673e-01" nType="-99"/>
        </Node>
      </Node>
    </BinaryTree>
    <BinaryTree type="DecisionTree" boostWeight="1.0000000000000000e+00" itree="288">
      <Node pos="s" depth="0" NCoef="0" IVar="45" Cut="1.1450664997100830e+00" cType="1" res="2.8826128691434860e-03" rms="2.6797172427177429e-01" purity="4.9868553876876831e-01" nType="0">
        <Node pos="l" depth="1" NCoef="0" IVar="49" Cut="2.6935400962829590e+00" cType="1" res="-9.8895907402038574e-02" rms="1.5205082297325134e-01" purity="8.5477463901042938e-02" nType="0">
          <Node pos="l" depth="2" NCoef="0" IVar="-1" Cut="0.0000000000000000e+00" cType="1" res="-1.2111892923712730e-02" rms="7.4399948120117188e-02" purity="2.9602117836475372e-02" nType="-99"/>
          <Node pos="r" depth="2" NCoef="0" IVar="-1" Cut="0.0000000000000000e+00" cType="1" res="-3.3697171602398157e-03" rms="2.1064691245555878e-01" purity="1.6810123622417450e-01" nType="-99"/>
        </Node>
        <Node pos="r" depth="1" NCoef="0" IVar="2" Cut="6.1853700876235962e-01" cType="1" res="1.9100287929177284e-02" rms="2.7866381406784058e-01" purity="5.6452727317810059e-01" nType="0">
          <Node pos="l" depth="2" NCoef="0" IVar="-1" Cut="0.0000000000000000e+00" cType="1" res="-9.5366528257727623e-03" rms="0.0000000000000000e+00" purity="-4.0897253900766373e-02" nType="-99"/>
          <Node pos="r" depth="2" NCoef="0" IVar="-1" Cut="0.0000000000000000e+00" cType="1" res="1.4441801467910409e-03" rms="2.7913063764572144e-01" purity="5.8025801181793213e-01" nType="-99"/>
        </Node>
      </Node>
    </BinaryTree>
    <BinaryTree type="DecisionTree" boostWeight="1.0000000000000000e+00" itree="289">
      <Node pos="s" depth="0" NCoef="0" IVar="14" Cut="-1.4150193929672241e+00" cType="1" res="4.4797058217227459e-03" rms="2.6901730895042419e-01" purity="4.9935367703437805e-01" nType="0">
        <Node pos="l" depth="1" NCoef="0" IVar="54" Cut="1.0610104799270630e+00" cType="1" res="-1.2587911449372768e-02" rms="0.0000000000000000e+00" purity="-1.7185615375638008e-02" nType="-99"/>
        <Node pos="r" depth="1" NCoef="0" IVar="36" Cut="1.5245062112808228e+00" cType="1" res="2.4644879624247551e-02" rms="3.0716666579246521e-01" purity="6.3119494915008545e-01" nType="0">
          <Node pos="l" depth="2" NCoef="0" IVar="-1" Cut="0.0000000000000000e+00" cType="1" res="1.6252535860985518e-03" rms="3.0610060691833496e-01" purity="6.5334290266036987e-01" nType="-99"/>
          <Node pos="r" depth="2" NCoef="0" IVar="-1" Cut="0.0000000000000000e+00" cType="1" res="-1.1710610240697861e-02" rms="2.4246969819068909e-01" purity="4.7177240252494812e-02" nType="-99"/>
        </Node>
      </Node>
    </BinaryTree>
    <BinaryTree type="DecisionTree" boostWeight="1.0000000000000000e+00" itree="290">
      <Node pos="s" depth="0" NCoef="0" IVar="2" Cut="1.1974477767944336e+00" cType="1" res="1.6947472468018532e-03" rms="2.6899760961532593e-01" purity="4.9645170569419861e-01" nType="0">
        <Node pos="l" depth="1" NCoef="0" IVar="2" Cut="5.6775051355361938e-01" cType="1" res="-1.3097937405109406e-01" rms="1.9561083614826202e-01" purity="9.6250638365745544e-02" nType="0">
          <Node pos="l" depth="2" NCoef="0" IVar="-1" Cut="0.0000000000000000e+00" cType="1" res="-1.0390277951955795e-02" rms="0.0000000000000000e+00" purity="-5.0445660948753357e-02" nType="-99"/>
          <Node pos="r" depth="2" NCoef="0" IVar="-1" Cut="0.0000000000000000e+00" cType="1" res="-4.9881585873663425e-03" rms="2.4320617318153381e-01" purity="1.6081745922565460e-01" nType="-99"/>
        </Node>
        <Node pos="r" depth="1" NCoef="0" IVar="25" Cut="1.2307525873184204e+00" cType="1" res="1.2810767628252506e-02" rms="2.7132648229598999e-01" purity="5.2998226881027222e-01" nType="0">
          <Node pos="l" depth="2" NCoef="0" IVar="-1" Cut="0.0000000000000000e+00" cType="1" res="-6.2788887880742550e-03" rms="2.1399180591106415e-01" purity="1.2545265257358551e-01" nType="-99"/>
          <Node pos="r" depth="2" NCoef="0" IVar="-1" Cut="0.0000000000000000e+00" cType="1" res="1.6431782860308886e-03" rms="2.7732464671134949e-01" purity="6.0410171747207642e-01" nType="-99"/>
        </Node>
      </Node>
    </BinaryTree>
    <BinaryTree type="DecisionTree" boostWeight="1.0000000000000000e+00" itree="291">
      <Node pos="s" depth="0" NCoef="0" IVar="36" Cut="-1.4537686109542847e+00" cType="1" res="2.2040887270122766e-03" rms="2.7051138877868652e-01" purity="4.9905011057853699e-01" nType="0">
        <Node pos="l" depth="1" NCoef="0" IVar="54" Cut="-6.0309875011444092e-01" cType="1" res="2.9219323769211769e-02" rms="2.6893562078475952e-01" purity="6.1212533712387085e-01" nType="0">
          <Node pos="l" depth="2" NCoef="0" IVar="-1" Cut="0.0000000000000000e+00" cType="1" res="2.9201924335211515e-03" rms="2.5233215093612671e-01" purity="7.0481926202774048e-01" nType="-99"/>
          <Node pos="r" depth="2" NCoef="0" IVar="-1" Cut="0.0000000000000000e+00" cType="1" res="-3.1456167344003916e-03" rms="3.0540207028388977e-01" purity="2.9209735989570618e-01" nType="-99"/>
        </Node>
        <Node pos="r" depth="1" NCoef="0" IVar="36" Cut="1.5257091522216797e+00" cType="1" res="-5.1609337329864502e-02" rms="2.6555600762367249e-01" purity="2.7380809187889099e-01" nType="0">
          <Node pos="l" depth="2" NCoef="0" IVar="-1" Cut="0.0000000000000000e+00" cType="1" res="-2.3711810354143381e-03" rms="2.7038335800170898e-01" purity="3.0421319603919983e-01" nType="-99"/>
          <Node pos="r" depth="2" NCoef="0" IVar="-1" Cut="0.0000000000000000e+00" cType="1" res="-1.1930655688047409e-02" rms="1.9027492403984070e-01" purity="2.8496913611888885e-02" nType="-99"/>
        </Node>
      </Node>
    </BinaryTree>
    <BinaryTree type="DecisionTree" boostWeight="1.0000000000000000e+00" itree="292">
      <Node pos="s" depth="0" NCoef="0" IVar="1" Cut="2.2621483802795410e+00" cType="1" res="2.9221319127827883e-03" rms="2.7099132537841797e-01" purity="4.9913161993026733e-01" nType="0">
        <Node pos="l" depth="1" NCoef="0" IVar="0" Cut="6.6565054655075073e-01" cType="1" res="-7.7375017106533051e-02" rms="1.0643884539604187e-01" purity="5.0967868417501450e-02" nType="0">
          <Node pos="l" depth="2" NCoef="0" IVar="-1" Cut="0.0000000000000000e+00" cType="1" res="-3.6817279178649187e-03" rms="1.9225986301898956e-01" purity="1.0348361730575562e-01" nType="-99"/>
          <Node pos="r" depth="2" NCoef="0" IVar="-1" Cut="0.0000000000000000e+00" cType="1" res="-1.2941904366016388e-02" rms="0.0000000000000000e+00" purity="-1.1210134252905846e-02" nType="-99"/>
        </Node>
        <Node pos="r" depth="1" NCoef="0" IVar="2" Cut="1.1842149496078491e+00" cType="1" res="2.0803278312087059e-02" rms="2.9242298007011414e-01" purity="5.9893196821212769e-01" nType="0">
          <Node pos="l" depth="2" NCoef="0" IVar="-1" Cut="0.0000000000000000e+00" cType="1" res="-6.1082271859049797e-03" rms="2.7073496580123901e-01" purity="1.5250672399997711e-01" nType="-99"/>
          <Node pos="r" depth="2" NCoef="0" IVar="-1" Cut="0.0000000000000000e+00" cType="1" res="1.6845992067828774e-03" rms="2.9065546393394470e-01" purity="6.2671029567718506e-01" nType="-99"/>
        </Node>
      </Node>
    </BinaryTree>
    <BinaryTree type="DecisionTree" boostWeight="1.0000000000000000e+00" itree="293">
      <Node pos="s" depth="0" NCoef="0" IVar="45" Cut="1.1306993961334229e+00" cType="1" res="5.4716244339942932e-03" rms="2.7039700746536255e-01" purity="5.0213980674743652e-01" nType="0">
        <Node pos="l" depth="1" NCoef="0" IVar="49" Cut="2.9905438423156738e+00" cType="1" res="-9.2296779155731201e-02" rms="1.5449704229831696e-01" purity="9.1093197464942932e-02" nType="0">
          <Node pos="l" depth="2" NCoef="0" IVar="-1" Cut="0.0000000000000000e+00" cType="1" res="-1.0550444014370441e-02" rms="9.8495274782180786e-02" purity="4.7426339238882065e-02" nType="-99"/>
          <Node pos="r" depth="2" NCoef="0" IVar="-1" Cut="0.0000000000000000e+00" cType="1" res="5.9062032960355282e-04" rms="2.6061588525772095e-01" purity="2.6644080877304077e-01" nType="-99"/>
        </Node>
        <Node pos="r" depth="1" NCoef="0" IVar="54" Cut="1.4466782808303833e+00" cType="1" res="2.0679039880633354e-02" rms="2.8116959333419800e-01" purity="5.6607615947723389e-01" nType="0">
          <Node pos="l" depth="2" NCoef="0" IVar="-1" Cut="0.0000000000000000e+00" cType="1" res="1.7955473158508539e-03" rms="2.8178730607032776e-01" purity="6.1105000972747803e-01" nType="-99"/>
          <Node pos="r" depth="2" NCoef="0" IVar="-1" Cut="0.0000000000000000e+00" cType="1" res="-8.3743911236524582e-03" rms="2.3647242784500122e-01" purity="8.8268712162971497e-02" nType="-99"/>
        </Node>
      </Node>
    </BinaryTree>
    <BinaryTree type="DecisionTree" boostWeight="1.0000000000000000e+00" itree="294">
      <Node pos="s" depth="0" NCoef="0" IVar="25" Cut="1.1127163171768188e+00" cType="1" res="2.5857314467430115e-03" rms="2.6880693435668945e-01" purity="4.9894770979881287e-01" nType="0">
        <Node pos="l" depth="1" NCoef="0" IVar="29" Cut="2.7267904281616211e+00" cType="1" res="-9.5010466873645782e-02" rms="1.5394769608974457e-01" purity="7.9992122948169708e-02" nType="0">
          <Node pos="l" depth="2" NCoef="0" IVar="-1" Cut="0.0000000000000000e+00" cType="1" res="-1.1866400949656963e-02" rms="8.0391526222229004e-02" purity="2.9780901968479156e-02" nType="-99"/>
          <Node pos="r" depth="2" NCoef="0" IVar="-1" Cut="0.0000000000000000e+00" cType="1" res="-3.0059562996029854e-03" rms="2.1797543764114380e-01" purity="1.6385094821453094e-01" nType="-99"/>
        </Node>
        <Node pos="r" depth="1" NCoef="0" IVar="36" Cut="1.4471486806869507e+00" cType="1" res="1.7335200682282448e-02" rms="2.7917459607124329e-01" purity="5.6226342916488647e-01" nType="0">
          <Node pos="l" depth="2" NCoef="0" IVar="-1" Cut="0.0000000000000000e+00" cType="1" res="1.6423285705968738e-03" rms="2.8043249249458313e-01" purity="6.0793769359588623e-01" nType="-99"/>
          <Node pos="r" depth="2" NCoef="0" IVar="-1" Cut="0.0000000000000000e+00" cType="1" res="-8.6531164124608040e-03" rms="2.2308041155338287e-01" purity="7.7358961105346680e-02" nType="-99"/>
        </Node>
      </Node>
    </BinaryTree>
    <BinaryTree type="DecisionTree" boostWeight="1.0000000000000000e+00" itree="295">
      <Node pos="s" depth="0" NCoef="0" IVar="52" Cut="-1.5312020778656006e+00" cType="1" res="3.5969379823654890e-03" rms="2.6850497722625732e-01" purity="4.9684447050094604e-01" nType="0">
        <Node pos="l" depth="1" NCoef="0" IVar="34" Cut="1.4093587398529053e+00" cType="1" res="5.1041871309280396e-02" rms="2.5595238804817200e-01" purity="6.8226778507232666e-01" nType="0">
          <Node pos="l" depth="2" NCoef="0" IVar="-1" Cut="0.0000000000000000e+00" cType="1" res="3.5498291254043579e-03" rms="2.4622035026550293e-01" purity="7.3041445016860962e-01" nType="-99"/>
          <Node pos="r" depth="2" NCoef="0" IVar="-1" Cut="0.0000000000000000e+00" cType="1" res="-6.9023827090859413e-03" rms="3.0509790778160095e-01" purity="1.4539523422718048e-01" nType="-99"/>
        </Node>
        <Node pos="r" depth="1" NCoef="0" IVar="1" Cut="3.4287717342376709e+00" cType="1" res="-2.7337526902556419e-02" rms="2.7196079492568970e-01" purity="3.7594702839851379e-01" nType="0">
          <Node pos="l" depth="2" NCoef="0" IVar="-1" Cut="0.0000000000000000e+00" cType="1" res="-3.1198605429381132e-03" rms="2.5888758897781372e-01" purity="2.5779810547828674e-01" nType="-99"/>
          <Node pos="r" depth="2" NCoef="0" IVar="-1" Cut="0.0000000000000000e+00" cType="1" res="1.9519297638908029e-03" rms="2.9961174726486206e-01" purity="7.4163466691970825e-01" nType="-99"/>
        </Node>
      </Node>
    </BinaryTree>
    <BinaryTree type="DecisionTree" boostWeight="1.0000000000000000e+00" itree="296">
      <Node pos="s" depth="0" NCoef="0" IVar="57" Cut="-1.2141454219818115e+00" cType="1" res="5.6716273538768291e-03" rms="2.6835849881172180e-01" purity="5.0322198867797852e-01" nType="0">
        <Node pos="l" depth="1" NCoef="0" IVar="14" Cut="-1.3763210773468018e+00" cType="1" res="2.2208215668797493e-02" rms="2.7016928791999817e-01" purity="5.4086977243423462e-01" nType="0">
          <Node pos="l" depth="2" NCoef="0" IVar="-1" Cut="0.0000000000000000e+00" cType="1" res="-9.5587931573390961e-03" rms="0.0000000000000000e+00" purity="1.3931168941780925e-03" nType="-99"/>
          <Node pos="r" depth="2" NCoef="0" IVar="-1" Cut="0.0000000000000000e+00" cType="1" res="2.0863048266619444e-03" rms="3.0036026239395142e-01" purity="6.7593377828598022e-01" nType="-99"/>
        </Node>
        <Node pos="r" depth="1" NCoef="0" IVar="53" Cut="-1.2990559339523315e+00" cType="1" res="-8.4319628775119781e-02" rms="2.3900398612022400e-01" purity="2.9834425449371338e-01" nType="0">
          <Node pos="l" depth="2" NCoef="0" IVar="-1" Cut="0.0000000000000000e+00" cType="1" res="-2.8980127535760403e-03" rms="2.6294735074043274e-01" purity="4.0034836530685425e-01" nType="-99"/>
          <Node pos="r" depth="2" NCoef="0" IVar="-1" Cut="0.0000000000000000e+00" cType="1" res="-8.8747469708323479e-03" rms="2.0564943552017212e-01" purity="1.9790579378604889e-01" nType="-99"/>
        </Node>
      </Node>
    </BinaryTree>
    <BinaryTree type="DecisionTree" boostWeight="1.0000000000000000e+00" itree="297">
      <Node pos="s" depth="0" NCoef="0" IVar="52" Cut="-1.2224479913711548e+00" cType="1" res="4.3909647502005100e-03" rms="2.6887384057044983e-01" purity="4.9879425764083862e-01" nType="0">
        <Node pos="l" depth="1" NCoef="0" IVar="34" Cut="1.0212924480438232e+00" cType="1" res="2.5429101660847664e-02" rms="2.7216017246246338e-01" purity="5.8670085668563843e-01" nType="0">
          <Node pos="l" depth="2" NCoef="0" IVar="-1" Cut="0.0000000000000000e+00" cType="1" res="2.3333546705543995e-03" rms="2.6591658592224121e-01" purity="6.5291303396224976e-01" nType="-99"/>
          <Node pos="r" depth="2" NCoef="0" IVar="-1" Cut="0.0000000000000000e+00" cType="1" res="-4.8676230944693089e-03" rms="2.8706064820289612e-01" purity="1.8607127666473389e-01" nType="-99"/>
        </Node>
        <Node pos="r" depth="1" NCoef="0" IVar="56" Cut="1.5244266986846924e+00" cType="1" res="-5.8182694017887115e-02" rms="2.4854144454002380e-01" purity="2.3733401298522949e-01" nType="0">
          <Node pos="l" depth="2" NCoef="0" IVar="-1" Cut="0.0000000000000000e+00" cType="1" res="-2.6268870569765568e-03" rms="2.5742569565773010e-01" purity="2.7667891979217529e-01" nType="-99"/>
          <Node pos="r" depth="2" NCoef="0" IVar="-1" Cut="0.0000000000000000e+00" cType="1" res="-1.2260762043297291e-02" rms="1.5836404263973236e-01" purity="1.7456777393817902e-02" nType="-99"/>
        </Node>
      </Node>
    </BinaryTree>
    <BinaryTree type="DecisionTree" boostWeight="1.0000000000000000e+00" itree="298">
      <Node pos="s" depth="0" NCoef="0" IVar="2" Cut="1.6189798116683960e+00" cType="1" res="2.3697030264884233e-03" rms="2.6631176471710205e-01" purity="4.9639376997947693e-01" nType="0">
        <Node pos="l" depth="1" NCoef="0" IVar="2" Cut="5.5733156204223633e-01" cType="1" res="-7.3449037969112396e-02" rms="2.1381264925003052e-01" purity="1.7032495141029358e-01" nType="0">
          <Node pos="l" depth="2" NCoef="0" IVar="-1" Cut="0.0000000000000000e+00" cType="1" res="-9.3622757121920586e-03" rms="0.0000000000000000e+00" purity="-2.2873414680361748e-02" nType="-99"/>
          <Node pos="r" depth="2" NCoef="0" IVar="-1" Cut="0.0000000000000000e+00" cType="1" res="-3.5586385056376457e-03" rms="2.2649759054183960e-01" purity="1.9600607454776764e-01" nType="-99"/>
        </Node>
        <Node pos="r" depth="1" NCoef="0" IVar="25" Cut="1.0854622125625610e+00" cType="1" res="2.1263020113110542e-02" rms="2.7461549639701843e-01" purity="5.7764708995819092e-01" nType="0">
          <Node pos="l" depth="2" NCoef="0" IVar="-1" Cut="0.0000000000000000e+00" cType="1" res="-7.4299178086221218e-03" rms="2.0838381350040436e-01" purity="1.1141874641180038e-01" nType="-99"/>
          <Node pos="r" depth="2" NCoef="0" IVar="-1" Cut="0.0000000000000000e+00" cType="1" res="1.9278095569461584e-03" rms="2.7804413437843323e-01" purity="6.3028299808502197e-01" nType="-99"/>
        </Node>
      </Node>
    </BinaryTree>
    <BinaryTree type="DecisionTree" boostWeight="1.0000000000000000e+00" itree="299">
      <Node pos="s" depth="0" NCoef="0" IVar="14" Cut="1.4870474338531494e+00" cType="1" res="5.5064084008336067e-03" rms="2.6927268505096436e-01" purity="4.9853831529617310e-01" nType="0">
        <Node pos="l" depth="1" NCoef="0" IVar="65" Cut="7.5187700986862183e-01" cType="1" res="-3.0599841848015785e-02" rms="2.5151199102401733e-01" purity="2.4333104491233826e-01" nType="0">
          <Node pos="l" depth="2" NCoef="0" IVar="-1" Cut="0.0000000000000000e+00" cType="1" res="-1.0889961849898100e-03" rms="2.6076301932334900e-01" purity="2.7029147744178772e-01" nType="-99"/>
          <Node pos="r" depth="2" NCoef="0" IVar="-1" Cut="0.0000000000000000e+00" cType="1" res="-1.0513086803257465e-02" rms="1.3662014901638031e-01" purity="5.7841163128614426e-02" nType="-99"/>
        </Node>
        <Node pos="r" depth="1" NCoef="0" IVar="56" Cut="1.5240936279296875e+00" cType="1" res="4.2033132165670395e-02" rms="2.8144618868827820e-01" purity="7.5671762228012085e-01" nType="0">
          <Node pos="l" depth="2" NCoef="0" IVar="-1" Cut="0.0000000000000000e+00" cType="1" res="2.6230677030980587e-03" rms="2.7709144353866577e-01" purity="7.8608548641204834e-01" nType="-99"/>
          <Node pos="r" depth="2" NCoef="0" IVar="-1" Cut="0.0000000000000000e+00" cType="1" res="-1.0977417230606079e-02" rms="2.6916208863258362e-01" purity="6.6169969737529755e-02" nType="-99"/>
        </Node>
      </Node>
    </BinaryTree>
    <BinaryTree type="DecisionTree" boostWeight="1.0000000000000000e+00" itree="300">
      <Node pos="s" depth="0" NCoef="0" IVar="1" Cut="2.1978664398193359e+00" cType="1" res="3.8297050632536411e-03" rms="2.6826786994934082e-01" purity="4.9858799576759338e-01" nType="0">
        <Node pos="l" depth="1" NCoef="0" IVar="0" Cut="4.3361404538154602e-01" cType="1" res="-8.0459736287593842e-02" rms="6.5974242985248566e-02" purity="3.6438945680856705e-02" nType="0">
          <Node pos="l" depth="2" NCoef="0" IVar="-1" Cut="0.0000000000000000e+00" cType="1" res="-2.6629029307514429e-03" rms="2.0293173193931580e-01" purity="1.1130677163600922e-01" nType="-99"/>
          <Node pos="r" depth="2" NCoef="0" IVar="-1" Cut="0.0000000000000000e+00" cType="1" res="-1.1654617264866829e-02" rms="0.0000000000000000e+00" purity="-1.1696541914716363e-03" nType="-99"/>
        </Node>
        <Node pos="r" depth="1" NCoef="0" IVar="2" Cut="1.3139866590499878e+00" cType="1" res="2.0291954278945923e-02" rms="2.8898906707763672e-01" purity="5.8884853124618530e-01" nType="0">
          <Node pos="l" depth="2" NCoef="0" IVar="-1" Cut="0.0000000000000000e+00" cType="1" res="-5.8515407145023346e-03" rms="2.6276963949203491e-01" purity="1.6984570026397705e-01" nType="-99"/>
          <Node pos="r" depth="2" NCoef="0" IVar="-1" Cut="0.0000000000000000e+00" cType="1" res="1.8009580671787262e-03" rms="2.8763207793235779e-01" purity="6.2381529808044434e-01" nType="-99"/>
        </Node>
      </Node>
    </BinaryTree>
    <BinaryTree type="DecisionTree" boostWeight="1.0000000000000000e+00" itree="301">
      <Node pos="s" depth="0" NCoef="0" IVar="2" Cut="1.2441861629486084e+00" cType="1" res="3.4200202208012342e-03" rms="2.6876872777938843e-01" purity="4.9919968843460083e-01" nType="0">
        <Node pos="l" depth="1" NCoef="0" IVar="2" Cut="6.3902741670608521e-01" cType="1" res="-1.1571981757879257e-01" rms="2.0032599568367004e-01" purity="1.0609281808137894e-01" nType="0">
          <Node pos="l" depth="2" NCoef="0" IVar="-1" Cut="0.0000000000000000e+00" cType="1" res="-8.8702617213129997e-03" rms="0.0000000000000000e+00" purity="-2.2373722866177559e-02" nType="-99"/>
          <Node pos="r" depth="2" NCoef="0" IVar="-1" Cut="0.0000000000000000e+00" cType="1" res="-4.7426321543753147e-03" rms="2.3804582655429840e-01" purity="1.6551244258880615e-01" nType="-99"/>
        </Node>
        <Node pos="r" depth="1" NCoef="0" IVar="45" Cut="1.0861301422119141e+00" cType="1" res="1.4433571137487888e-02" rms="2.7160841226577759e-01" purity="5.3553932905197144e-01" nType="0">
          <Node pos="l" depth="2" NCoef="0" IVar="-1" Cut="0.0000000000000000e+00" cType="1" res="-7.3631149716675282e-03" rms="1.8686552345752716e-01" purity="9.8396673798561096e-02" nType="-99"/>
          <Node pos="r" depth="2" NCoef="0" IVar="-1" Cut="0.0000000000000000e+00" cType="1" res="1.6241477569565177e-03" rms="2.7845117449760437e-01" purity="5.9636449813842773e-01" nType="-99"/>
        </Node>
      </Node>
    </BinaryTree>
    <BinaryTree type="DecisionTree" boostWeight="1.0000000000000000e+00" itree="302">
      <Node pos="s" depth="0" NCoef="0" IVar="1" Cut="3.4598696231842041e+00" cType="1" res="6.2690195627510548e-03" rms="2.6883584260940552e-01" purity="5.0363194942474365e-01" nType="0">
        <Node pos="l" depth="1" NCoef="0" IVar="0" Cut="6.8883490562438965e-01" cType="1" res="-1.6270210966467857e-02" rms="2.7363324165344238e-01" purity="3.7557271122932434e-01" nType="0">
          <Node pos="l" depth="2" NCoef="0" IVar="-1" Cut="0.0000000000000000e+00" cType="1" res="5.6070840219035745e-04" rms="2.8502449393272400e-01" purity="4.3962225317955017e-01" nType="-99"/>
          <Node pos="r" depth="2" NCoef="0" IVar="-1" Cut="0.0000000000000000e+00" cType="1" res="-4.8189656808972359e-03" rms="2.4050703644752502e-01" purity="2.4649626016616821e-01" nType="-99"/>
        </Node>
        <Node pos="r" depth="1" NCoef="0" IVar="2" Cut="1.9893765449523926e+00" cType="1" res="6.2674283981323242e-02" rms="2.4760267138481140e-01" purity="8.2410502433776855e-01" nType="0">
          <Node pos="l" depth="2" NCoef="0" IVar="-1" Cut="0.0000000000000000e+00" cType="1" res="-2.1088204812258482e-03" rms="3.6464053392410278e-01" purity="5.8304202556610107e-01" nType="-99"/>
          <Node pos="r" depth="2" NCoef="0" IVar="-1" Cut="0.0000000000000000e+00" cType="1" res="4.1578570380806923e-03" rms="2.3304449021816254e-01" purity="8.4393346309661865e-01" nType="-99"/>
        </Node>
      </Node>
    </BinaryTree>
    <BinaryTree type="DecisionTree" boostWeight="1.0000000000000000e+00" itree="303">
      <Node pos="s" depth="0" NCoef="0" IVar="2" Cut="7.9957205057144165e-01" cType="1" res="4.9830838106572628e-03" rms="2.6586753129959106e-01" purity="5.0228941440582275e-01" nType="0">
        <Node pos="l" depth="1" NCoef="0" IVar="-1" Cut="0.0000000000000000e+00" cType="1" res="-9.3681085854768753e-03" rms="5.6691542267799377e-02" purity="-5.6996433995664120e-03" nType="-99"/>
        <Node pos="r" depth="1" NCoef="0" IVar="14" Cut="-1.4150160551071167e+00" cType="1" res="1.2602281756699085e-02" rms="2.6769286394119263e-01" purity="5.2157294750213623e-01" nType="0">
          <Node pos="l" depth="2" NCoef="0" IVar="-1" Cut="0.0000000000000000e+00" cType="1" res="-1.1592760682106018e-02" rms="0.0000000000000000e+00" purity="-1.1298778466880322e-02" nType="-99"/>
          <Node pos="r" depth="2" NCoef="0" IVar="-1" Cut="0.0000000000000000e+00" cType="1" res="1.6718378756195307e-03" rms="3.0268952250480652e-01" purity="6.5587222576141357e-01" nType="-99"/>
        </Node>
      </Node>
    </BinaryTree>
    <BinaryTree type="DecisionTree" boostWeight="1.0000000000000000e+00" itree="304">
      <Node pos="s" depth="0" NCoef="0" IVar="1" Cut="3.4192254543304443e+00" cType="1" res="1.2897014385089278e-03" rms="2.6542040705680847e-01" purity="4.9537256360054016e-01" nType="0">
        <Node pos="l" depth="1" NCoef="0" IVar="17" Cut="-1.2905076742172241e+00" cType="1" res="-2.2785479202866554e-02" rms="2.6989617943763733e-01" purity="3.5760554671287537e-01" nType="0">
          <Node pos="l" depth="2" NCoef="0" IVar="-1" Cut="0.0000000000000000e+00" cType="1" res="-3.6501104477792978e-04" rms="2.7991893887519836e-01" purity="3.8974848389625549e-01" nType="-99"/>
          <Node pos="r" depth="2" NCoef="0" IVar="-1" Cut="0.0000000000000000e+00" cType="1" res="-6.9797881878912449e-03" rms="1.9654124975204468e-01" purity="2.0296929776668549e-01" nType="-99"/>
        </Node>
        <Node pos="r" depth="1" NCoef="0" IVar="2" Cut="1.9286360740661621e+00" cType="1" res="5.7313270866870880e-02" rms="2.4573382735252380e-01" purity="8.1596004962921143e-01" nType="0">
          <Node pos="l" depth="2" NCoef="0" IVar="-1" Cut="0.0000000000000000e+00" cType="1" res="-2.9577105306088924e-03" rms="3.5485705733299255e-01" purity="5.3659850358963013e-01" nType="-99"/>
          <Node pos="r" depth="2" NCoef="0" IVar="-1" Cut="0.0000000000000000e+00" cType="1" res="3.8971516769379377e-03" rms="2.3260737955570221e-01" purity="8.3702510595321655e-01" nType="-99"/>
        </Node>
      </Node>
    </BinaryTree>
    <BinaryTree type="DecisionTree" boostWeight="1.0000000000000000e+00" itree="305">
      <Node pos="s" depth="0" NCoef="0" IVar="14" Cut="1.4871129989624023e+00" cType="1" res="3.2288734801113605e-03" rms="2.6884633302688599e-01" purity="5.0132519006729126e-01" nType="0">
        <Node pos="l" depth="1" NCoef="0" IVar="65" Cut="7.0710259675979614e-01" cType="1" res="-3.3046275377273560e-02" rms="2.4828389286994934e-01" purity="2.4170564115047455e-01" nType="0">
          <Node pos="l" depth="2" NCoef="0" IVar="-1" Cut="0.0000000000000000e+00" cType="1" res="-1.0118102654814720e-03" rms="2.6465627551078796e-01" purity="2.7704533934593201e-01" nType="-99"/>
          <Node pos="r" depth="2" NCoef="0" IVar="-1" Cut="0.0000000000000000e+00" cType="1" res="-9.3947080895304680e-03" rms="1.2243676185607910e-01" purity="8.1364318728446960e-02" nType="-99"/>
        </Node>
        <Node pos="r" depth="1" NCoef="0" IVar="36" Cut="1.4853361845016479e+00" cType="1" res="3.8979172706604004e-02" rms="2.8316608071327209e-01" purity="7.5718849897384644e-01" nType="0">
          <Node pos="l" depth="2" NCoef="0" IVar="-1" Cut="0.0000000000000000e+00" cType="1" res="2.6053534820675850e-03" rms="2.7533268928527832e-01" purity="7.9770493507385254e-01" nType="-99"/>
          <Node pos="r" depth="2" NCoef="0" IVar="-1" Cut="0.0000000000000000e+00" cType="1" res="-8.2655446603894234e-03" rms="3.2711488008499146e-01" purity="1.1979460716247559e-01" nType="-99"/>
        </Node>
      </Node>
    </BinaryTree>
    <BinaryTree type="DecisionTree" boostWeight="1.0000000000000000e+00" itree="306">
      <Node pos="s" depth="0" NCoef="0" IVar="14" Cut="-1.4150160551071167e+00" cType="1" res="3.6645880900323391e-03" rms="2.6532667875289917e-01" purity="4.9998080730438232e-01" nType="0">
        <Node pos="l" depth="1" NCoef="0" IVar="32" Cut="-7.2119081020355225e-01" cType="1" res="-1.2513083405792713e-02" rms="0.0000000000000000e+00" purity="-1.5384380705654621e-02" nType="-99"/>
        <Node pos="r" depth="1" NCoef="0" IVar="52" Cut="1.4389042854309082e+00" cType="1" res="2.2401517257094383e-02" rms="3.0293515324592590e-01" purity="6.3227397203445435e-01" nType="0">
          <Node pos="l" depth="2" NCoef="0" IVar="-1" Cut="0.0000000000000000e+00" cType="1" res="1.7502394039183855e-03" rms="3.0133104324340820e-01" purity="6.7652326822280884e-01" nType="-99"/>
          <Node pos="r" depth="2" NCoef="0" IVar="-1" Cut="0.0000000000000000e+00" cType="1" res="-6.9336667656898499e-03" rms="2.8490227460861206e-01" purity="1.3974589109420776e-01" nType="-99"/>
        </Node>
      </Node>
    </BinaryTree>
    <BinaryTree type="DecisionTree" boostWeight="1.0000000000000000e+00" itree="307">
      <Node pos="s" depth="0" NCoef="0" IVar="45" Cut="1.0718322992324829e+00" cType="1" res="5.3613418713212013e-03" rms="2.6916670799255371e-01" purity="5.0102823972702026e-01" nType="0">
        <Node pos="l" depth="1" NCoef="0" IVar="49" Cut="3.0235612392425537e+00" cType="1" res="-9.0881094336509705e-02" rms="1.6723418235778809e-01" purity="8.2925729453563690e-02" nType="0">
          <Node pos="l" depth="2" NCoef="0" IVar="-1" Cut="0.0000000000000000e+00" cType="1" res="-1.0506066493690014e-02" rms="1.2753275036811829e-01" purity="4.6663977205753326e-02" nType="-99"/>
          <Node pos="r" depth="2" NCoef="0" IVar="-1" Cut="0.0000000000000000e+00" cType="1" res="2.0002934616059065e-04" rms="2.7238264679908752e-01" purity="2.5909346342086792e-01" nType="-99"/>
        </Node>
        <Node pos="r" depth="1" NCoef="0" IVar="2" Cut="1.2037755250930786e+00" cType="1" res="1.8926203250885010e-02" rms="2.7790451049804688e-01" purity="5.5995756387710571e-01" nType="0">
          <Node pos="l" depth="2" NCoef="0" IVar="-1" Cut="0.0000000000000000e+00" cType="1" res="-5.8786682784557343e-03" rms="2.4089279770851135e-01" purity="1.2445039302110672e-01" nType="-99"/>
          <Node pos="r" depth="2" NCoef="0" IVar="-1" Cut="0.0000000000000000e+00" cType="1" res="1.7096417723223567e-03" rms="2.7782002091407776e-01" purity="5.9494870901107788e-01" nType="-99"/>
        </Node>
      </Node>
    </BinaryTree>
    <BinaryTree type="DecisionTree" boostWeight="1.0000000000000000e+00" itree="308">
      <Node pos="s" depth="0" NCoef="0" IVar="45" Cut="9.5409804582595825e-01" cType="1" res="5.4808645509183407e-03" rms="2.6974982023239136e-01" purity="5.0259613990783691e-01" nType="0">
        <Node pos="l" depth="1" NCoef="0" IVar="0" Cut="5.3345447778701782e-01" cType="1" res="-1.0534957051277161e-01" rms="1.1435548961162567e-01" purity="5.5168274790048599e-02" nType="0">
          <Node pos="l" depth="2" NCoef="0" IVar="-1" Cut="0.0000000000000000e+00" cType="1" res="-4.2742476798593998e-03" rms="2.2239024937152863e-01" purity="1.3983674347400665e-01" nType="-99"/>
          <Node pos="r" depth="2" NCoef="0" IVar="-1" Cut="0.0000000000000000e+00" cType="1" res="-1.4085088856518269e-02" rms="0.0000000000000000e+00" purity="2.3332156706601381e-03" nType="-99"/>
        </Node>
        <Node pos="r" depth="1" NCoef="0" IVar="2" Cut="1.1376283168792725e+00" cType="1" res="1.7437046393752098e-02" rms="2.7881163358688354e-01" purity="5.5086386203765869e-01" nType="0">
          <Node pos="l" depth="2" NCoef="0" IVar="-1" Cut="0.0000000000000000e+00" cType="1" res="-6.0322573408484459e-03" rms="2.2282224893569946e-01" purity="1.1427240073680878e-01" nType="-99"/>
          <Node pos="r" depth="2" NCoef="0" IVar="-1" Cut="0.0000000000000000e+00" cType="1" res="1.5775201609358191e-03" rms="2.7971163392066956e-01" purity="5.8185881376266479e-01" nType="-99"/>
        </Node>
      </Node>
    </BinaryTree>
    <BinaryTree type="DecisionTree" boostWeight="1.0000000000000000e+00" itree="309">
      <Node pos="s" depth="0" NCoef="0" IVar="54" Cut="2.8658789396286011e-01" cType="1" res="2.1869540214538574e-03" rms="2.6764065027236938e-01" purity="4.9694788455963135e-01" nType="0">
        <Node pos="l" depth="1" NCoef="0" IVar="34" Cut="-6.4177721738815308e-01" cType="1" res="1.9747860729694366e-02" rms="2.6695513725280762e-01" purity="5.7039242982864380e-01" nType="0">
          <Node pos="l" depth="2" NCoef="0" IVar="-1" Cut="0.0000000000000000e+00" cType="1" res="2.4646930396556854e-03" rms="2.5684979557991028e-01" purity="6.6710960865020752e-01" nType="-99"/>
          <Node pos="r" depth="2" NCoef="0" IVar="-1" Cut="0.0000000000000000e+00" cType="1" res="-3.6146568600088358e-03" rms="2.8400596976280212e-01" purity="2.5691169500350952e-01" nType="-99"/>
        </Node>
        <Node pos="r" depth="1" NCoef="0" IVar="49" Cut="3.2754375934600830e+00" cType="1" res="-7.5917221605777740e-02" rms="2.5649493932723999e-01" purity="1.7029477655887604e-01" nType="0">
          <Node pos="l" depth="2" NCoef="0" IVar="-1" Cut="0.0000000000000000e+00" cType="1" res="-3.0729763675481081e-03" rms="2.4429646134376526e-01" purity="1.6020523011684418e-01" nType="-99"/>
          <Node pos="r" depth="2" NCoef="0" IVar="-1" Cut="0.0000000000000000e+00" cType="1" res="-7.0559135638177395e-03" rms="2.6292410492897034e-01" purity="1.8027518689632416e-01" nType="-99"/>
        </Node>
      </Node>
    </BinaryTree>
    <BinaryTree type="DecisionTree" boostWeight="1.0000000000000000e+00" itree="310">
      <Node pos="s" depth="0" NCoef="0" IVar="52" Cut="-1.5312020778656006e+00" cType="1" res="4.3246871791779995e-03" rms="2.6708099246025085e-01" purity="4.9810317158699036e-01" nType="0">
        <Node pos="l" depth="1" NCoef="0" IVar="34" Cut="1.2528780698776245e+00" cType="1" res="5.0490736961364746e-02" rms="2.5646477937698364e-01" purity="6.8307912349700928e-01" nType="0">
          <Node pos="l" depth="2" NCoef="0" IVar="-1" Cut="0.0000000000000000e+00" cType="1" res="3.7516364827752113e-03" rms="2.4393597245216370e-01" purity="7.4366718530654907e-01" nType="-99"/>
          <Node pos="r" depth="2" NCoef="0" IVar="-1" Cut="0.0000000000000000e+00" cType="1" res="-5.2837850525975227e-03" rms="3.1143864989280701e-01" purity="1.8317656219005585e-01" nType="-99"/>
        </Node>
        <Node pos="r" depth="1" NCoef="0" IVar="1" Cut="3.4287717342376709e+00" cType="1" res="-2.6046678423881531e-02" rms="2.6956301927566528e-01" purity="3.7641260027885437e-01" nType="0">
          <Node pos="l" depth="2" NCoef="0" IVar="-1" Cut="0.0000000000000000e+00" cType="1" res="-3.0481915455311537e-03" rms="2.5460088253021240e-01" purity="2.5874212384223938e-01" nType="-99"/>
          <Node pos="r" depth="2" NCoef="0" IVar="-1" Cut="0.0000000000000000e+00" cType="1" res="1.9690112676471472e-03" rms="3.0277752876281738e-01" purity="7.4182069301605225e-01" nType="-99"/>
        </Node>
      </Node>
    </BinaryTree>
    <BinaryTree type="DecisionTree" boostWeight="1.0000000000000000e+00" itree="311">
      <Node pos="s" depth="0" NCoef="0" IVar="32" Cut="-1.5312049388885498e+00" cType="1" res="2.9901117086410522e-03" rms="2.6785096526145935e-01" purity="4.9868842959403992e-01" nType="0">
        <Node pos="l" depth="1" NCoef="0" IVar="54" Cut="1.4092512130737305e+00" cType="1" res="4.6086169779300690e-02" rms="2.5793707370758057e-01" purity="6.7964792251586914e-01" nType="0">
          <Node pos="l" depth="2" NCoef="0" IVar="-1" Cut="0.0000000000000000e+00" cType="1" res="3.3687881659716368e-03" rms="2.4915593862533569e-01" purity="7.3092430830001831e-01" nType="-99"/>
          <Node pos="r" depth="2" NCoef="0" IVar="-1" Cut="0.0000000000000000e+00" cType="1" res="-7.0742634125053883e-03" rms="2.9699474573135376e-01" purity="1.3364209234714508e-01" nType="-99"/>
        </Node>
        <Node pos="r" depth="1" NCoef="0" IVar="25" Cut="2.0412895679473877e+00" cType="1" res="-2.5069110095500946e-02" rms="2.7044671773910522e-01" purity="3.8086834549903870e-01" nType="0">
          <Node pos="l" depth="2" NCoef="0" IVar="-1" Cut="0.0000000000000000e+00" cType="1" res="-4.1526663117110729e-03" rms="2.2699023783206940e-01" purity="1.9139048457145691e-01" nType="-99"/>
          <Node pos="r" depth="2" NCoef="0" IVar="-1" Cut="0.0000000000000000e+00" cType="1" res="5.3219887195155025e-04" rms="3.0742755532264709e-01" purity="5.8882045745849609e-01" nType="-99"/>
        </Node>
      </Node>
    </BinaryTree>
    <BinaryTree type="DecisionTree" boostWeight="1.0000000000000000e+00" itree="312">
      <Node pos="s" depth="0" NCoef="0" IVar="52" Cut="-1.5312020778656006e+00" cType="1" res="1.4658349100500345e-03" rms="2.6647087931632996e-01" purity="4.9555489420890808e-01" nType="0">
        <Node pos="l" depth="1" NCoef="0" IVar="34" Cut="1.1385264396667480e+00" cType="1" res="4.7742821276187897e-02" rms="2.5686827301979065e-01" purity="6.8277442455291748e-01" nType="0">
          <Node pos="l" depth="2" NCoef="0" IVar="-1" Cut="0.0000000000000000e+00" cType="1" res="3.6270339041948318e-03" rms="2.4417497217655182e-01" purity="7.4587047100067139e-01" nType="-99"/>
          <Node pos="r" depth="2" NCoef="0" IVar="-1" Cut="0.0000000000000000e+00" cType="1" res="-4.7859773039817810e-03" rms="3.1010478734970093e-01" purity="2.0389246940612793e-01" nType="-99"/>
        </Node>
        <Node pos="r" depth="1" NCoef="0" IVar="1" Cut="3.3038568496704102e+00" cType="1" res="-2.8353657573461533e-02" rms="2.6828306913375854e-01" purity="3.7491640448570251e-01" nType="0">
          <Node pos="l" depth="2" NCoef="0" IVar="-1" Cut="0.0000000000000000e+00" cType="1" res="-3.4096040762960911e-03" rms="2.4797181785106659e-01" purity="2.3007975518703461e-01" nType="-99"/>
          <Node pos="r" depth="2" NCoef="0" IVar="-1" Cut="0.0000000000000000e+00" cType="1" res="1.2393253855407238e-03" rms="3.0394533276557922e-01" purity="7.1025061607360840e-01" nType="-99"/>
        </Node>
      </Node>
    </BinaryTree>
    <BinaryTree type="DecisionTree" boostWeight="1.0000000000000000e+00" itree="313">
      <Node pos="s" depth="0" NCoef="0" IVar="14" Cut="5.5395957082509995e-02" cType="1" res="2.7618492022156715e-03" rms="2.6301541924476624e-01" purity="5.0095236301422119e-01" nType="0">
        <Node pos="l" depth="1" NCoef="0" IVar="3" Cut="5.1469945907592773e+00" cType="1" res="-5.4611403495073318e-02" rms="1.1700171977281570e-01" purity="5.1582187414169312e-02" nType="0">
          <Node pos="l" depth="2" NCoef="0" IVar="-1" Cut="0.0000000000000000e+00" cType="1" res="-9.0333828702569008e-03" rms="0.0000000000000000e+00" purity="1.7117457464337349e-02" nType="-99"/>
          <Node pos="r" depth="2" NCoef="0" IVar="-1" Cut="0.0000000000000000e+00" cType="1" res="1.7651650123298168e-03" rms="2.9578921198844910e-01" purity="2.2620344161987305e-01" nType="-99"/>
        </Node>
        <Node pos="r" depth="1" NCoef="0" IVar="2" Cut="8.3478271961212158e-01" cType="1" res="2.6897462084889412e-02" rms="3.0091902613639832e-01" purity="6.8999201059341431e-01" nType="0">
          <Node pos="l" depth="2" NCoef="0" IVar="-1" Cut="0.0000000000000000e+00" cType="1" res="-6.9322069175541401e-03" rms="2.4361695349216461e-01" purity="7.5168654322624207e-02" nType="-99"/>
          <Node pos="r" depth="2" NCoef="0" IVar="-1" Cut="0.0000000000000000e+00" cType="1" res="1.7827163683250546e-03" rms="2.9930958151817322e-01" purity="7.1114826202392578e-01" nType="-99"/>
        </Node>
      </Node>
    </BinaryTree>
    <BinaryTree type="DecisionTree" boostWeight="1.0000000000000000e+00" itree="314">
      <Node pos="s" depth="0" NCoef="0" IVar="2" Cut="8.8129884004592896e-01" cType="1" res="2.8793311212211847e-03" rms="2.6475828886032104e-01" purity="5.0026607513427734e-01" nType="0">
        <Node pos="l" depth="1" NCoef="0" IVar="13" Cut="-6.4468294382095337e-01" cType="1" res="-8.8971136137843132e-03" rms="0.0000000000000000e+00" purity="1.7439259681850672e-03" nType="-99"/>
        <Node pos="r" depth="1" NCoef="0" IVar="14" Cut="-1.4537136554718018e+00" cType="1" res="1.0592378675937653e-02" rms="2.6767575740814209e-01" purity="5.2117341756820679e-01" nType="0">
          <Node pos="l" depth="2" NCoef="0" IVar="-1" Cut="0.0000000000000000e+00" cType="1" res="-1.2134140357375145e-02" rms="0.0000000000000000e+00" purity="-1.3573405332863331e-02" nType="-99"/>
          <Node pos="r" depth="2" NCoef="0" IVar="-1" Cut="0.0000000000000000e+00" cType="1" res="1.4899062225595117e-03" rms="3.0056375265121460e-01" purity="6.4426481723785400e-01" nType="-99"/>
        </Node>
      </Node>
    </BinaryTree>
    <BinaryTree type="DecisionTree" boostWeight="1.0000000000000000e+00" itree="315">
      <Node pos="s" depth="0" NCoef="0" IVar="25" Cut="1.0606837272644043e+00" cType="1" res="4.9193836748600006e-03" rms="2.6748993992805481e-01" purity="5.0207412242889404e-01" nType="0">
        <Node pos="l" depth="1" NCoef="0" IVar="29" Cut="2.9382455348968506e+00" cType="1" res="-8.9694023132324219e-02" rms="1.5690645575523376e-01" purity="7.9226866364479065e-02" nType="0">
          <Node pos="l" depth="2" NCoef="0" IVar="-1" Cut="0.0000000000000000e+00" cType="1" res="-1.1015642434358597e-02" rms="9.7356326878070831e-02" purity="3.8211677223443985e-02" nType="-99"/>
          <Node pos="r" depth="2" NCoef="0" IVar="-1" Cut="0.0000000000000000e+00" cType="1" res="-2.7777851209975779e-04" rms="2.6015701889991760e-01" purity="2.2160287201404572e-01" nType="-99"/>
        </Node>
        <Node pos="r" depth="1" NCoef="0" IVar="56" Cut="1.5237022638320923e+00" cType="1" res="1.7832510173320770e-02" rms="2.7670866250991821e-01" purity="5.5978554487228394e-01" nType="0">
          <Node pos="l" depth="2" NCoef="0" IVar="-1" Cut="0.0000000000000000e+00" cType="1" res="1.4334025327116251e-03" rms="2.7689695358276367e-01" purity="5.7957535982131958e-01" nType="-99"/>
          <Node pos="r" depth="2" NCoef="0" IVar="-1" Cut="0.0000000000000000e+00" cType="1" res="-1.2475564144551754e-02" rms="1.8197235465049744e-01" purity="2.2636516019701958e-02" nType="-99"/>
        </Node>
      </Node>
    </BinaryTree>
    <BinaryTree type="DecisionTree" boostWeight="1.0000000000000000e+00" itree="316">
      <Node pos="s" depth="0" NCoef="0" IVar="2" Cut="5.5746024847030640e-01" cType="1" res="3.3118417486548424e-03" rms="2.6622611284255981e-01" purity="4.9924051761627197e-01" nType="0">
        <Node pos="l" depth="1" NCoef="0" IVar="-1" Cut="0.0000000000000000e+00" cType="1" res="-1.0697524063289165e-02" rms="0.0000000000000000e+00" purity="-6.8558730185031891e-02" nType="-99"/>
        <Node pos="r" depth="1" NCoef="0" IVar="56" Cut="-1.3377546072006226e+00" cType="1" res="9.0518034994602203e-03" rms="2.6822453737258911e-01" purity="5.1255494356155396e-01" nType="0">
          <Node pos="l" depth="2" NCoef="0" IVar="-1" Cut="0.0000000000000000e+00" cType="1" res="1.8101949244737625e-03" rms="2.6686507463455200e-01" purity="6.0887736082077026e-01" nType="-99"/>
          <Node pos="r" depth="2" NCoef="0" IVar="-1" Cut="0.0000000000000000e+00" cType="1" res="-3.4084438811987638e-03" rms="2.6286047697067261e-01" purity="2.4743187427520752e-01" nType="-99"/>
        </Node>
      </Node>
    </BinaryTree>
    <BinaryTree type="DecisionTree" boostWeight="1.0000000000000000e+00" itree="317">
      <Node pos="s" depth="0" NCoef="0" IVar="2" Cut="9.8976099491119385e-01" cType="1" res="2.7926124166697264e-03" rms="2.6625537872314453e-01" purity="4.9947997927665710e-01" nType="0">
        <Node pos="l" depth="1" NCoef="0" IVar="2" Cut="5.3073167800903320e-01" cType="1" res="-1.5530475974082947e-01" rms="1.1329498142004013e-01" purity="4.5133214443922043e-02" nType="0">
          <Node pos="l" depth="2" NCoef="0" IVar="-1" Cut="0.0000000000000000e+00" cType="1" res="-9.9161667749285698e-03" rms="0.0000000000000000e+00" purity="-6.1375685036182404e-02" nType="-99"/>
          <Node pos="r" depth="2" NCoef="0" IVar="-1" Cut="0.0000000000000000e+00" cType="1" res="-5.8001196011900902e-03" rms="2.1144586801528931e-01" purity="1.2214545160531998e-01" nType="-99"/>
        </Node>
        <Node pos="r" depth="1" NCoef="0" IVar="45" Cut="1.3399834632873535e+00" cType="1" res="1.1237888596951962e-02" rms="2.6941916346549988e-01" purity="5.2375036478042603e-01" nType="0">
          <Node pos="l" depth="2" NCoef="0" IVar="-1" Cut="0.0000000000000000e+00" cType="1" res="-5.1855319179594517e-03" rms="2.0494312047958374e-01" purity="1.4571948349475861e-01" nType="-99"/>
          <Node pos="r" depth="2" NCoef="0" IVar="-1" Cut="0.0000000000000000e+00" cType="1" res="1.6326410695910454e-03" rms="2.7893090248107910e-01" purity="6.0789173841476440e-01" nType="-99"/>
        </Node>
      </Node>
    </BinaryTree>
    <BinaryTree type="DecisionTree" boostWeight="1.0000000000000000e+00" itree="318">
      <Node pos="s" depth="0" NCoef="0" IVar="45" Cut="1.1683771610260010e+00" cType="1" res="2.3732390254735947e-03" rms="2.6322475075721741e-01" purity="4.9751764535903931e-01" nType="0">
        <Node pos="l" depth="1" NCoef="0" IVar="49" Cut="2.8423142433166504e+00" cType="1" res="-8.3588808774948120e-02" rms="1.5655907988548279e-01" purity="9.5666043460369110e-02" nType="0">
          <Node pos="l" depth="2" NCoef="0" IVar="-1" Cut="0.0000000000000000e+00" cType="1" res="-1.0469179600477219e-02" rms="1.0483556240797043e-01" purity="4.7224070876836777e-02" nType="-99"/>
          <Node pos="r" depth="2" NCoef="0" IVar="-1" Cut="0.0000000000000000e+00" cType="1" res="-1.2820420088246465e-03" rms="2.2563718259334564e-01" purity="2.1235652267932892e-01" nType="-99"/>
        </Node>
        <Node pos="r" depth="1" NCoef="0" IVar="34" Cut="1.4480490684509277e+00" cType="1" res="1.6949217766523361e-02" rms="2.7461659908294678e-01" purity="5.6565684080123901e-01" nType="0">
          <Node pos="l" depth="2" NCoef="0" IVar="-1" Cut="0.0000000000000000e+00" cType="1" res="1.5975084388628602e-03" rms="2.7456179261207581e-01" purity="6.0580110549926758e-01" nType="-99"/>
          <Node pos="r" depth="2" NCoef="0" IVar="-1" Cut="0.0000000000000000e+00" cType="1" res="-9.1765886172652245e-03" rms="2.3566542565822601e-01" purity="8.3229601383209229e-02" nType="-99"/>
        </Node>
      </Node>
    </BinaryTree>
    <BinaryTree type="DecisionTree" boostWeight="1.0000000000000000e+00" itree="319">
      <Node pos="s" depth="0" NCoef="0" IVar="54" Cut="8.6673176288604736e-01" cType="1" res="3.0656228773295879e-03" rms="2.6600575447082520e-01" purity="4.9942135810852051e-01" nType="0">
        <Node pos="l" depth="1" NCoef="0" IVar="34" Cut="-1.0669385194778442e+00" cType="1" res="1.8325800076127052e-02" rms="2.6762080192565918e-01" purity="5.6744331121444702e-01" nType="0">
          <Node pos="l" depth="2" NCoef="0" IVar="-1" Cut="0.0000000000000000e+00" cType="1" res="2.3803475778549910e-03" rms="2.5265774130821228e-01" purity="6.7027223110198975e-01" nType="-99"/>
          <Node pos="r" depth="2" NCoef="0" IVar="-1" Cut="0.0000000000000000e+00" cType="1" res="-2.8876042924821377e-03" rms="2.9601591825485229e-01" purity="2.8208217024803162e-01" nType="-99"/>
        </Node>
        <Node pos="r" depth="1" NCoef="0" IVar="56" Cut="1.5242309570312500e+00" cType="1" res="-7.5562596321105957e-02" rms="2.4276776611804962e-01" purity="1.4893773198127747e-01" nType="0">
          <Node pos="l" depth="2" NCoef="0" IVar="-1" Cut="0.0000000000000000e+00" cType="1" res="-3.8832298014312983e-03" rms="2.6525092124938965e-01" purity="1.8672497570514679e-01" nType="-99"/>
          <Node pos="r" depth="2" NCoef="0" IVar="-1" Cut="0.0000000000000000e+00" cType="1" res="-1.2364409863948822e-02" rms="9.3024298548698425e-02" purity="7.1649942547082901e-03" nType="-99"/>
        </Node>
      </Node>
    </BinaryTree>
    <BinaryTree type="DecisionTree" boostWeight="1.0000000000000000e+00" itree="320">
      <Node pos="s" depth="0" NCoef="0" IVar="25" Cut="9.6686375141143799e-01" cType="1" res="1.3178795343264937e-03" rms="2.6495209336280823e-01" purity="4.9689382314682007e-01" nType="0">
        <Node pos="l" depth="1" NCoef="0" IVar="29" Cut="2.7765266895294189e+00" cType="1" res="-1.0239484906196594e-01" rms="1.0068278014659882e-01" purity="5.3482640534639359e-02" nType="0">
          <Node pos="l" depth="2" NCoef="0" IVar="-1" Cut="0.0000000000000000e+00" cType="1" res="-1.3420625589787960e-02" rms="0.0000000000000000e+00" purity="7.0158052258193493e-03" nType="-99"/>
          <Node pos="r" depth="2" NCoef="0" IVar="-1" Cut="0.0000000000000000e+00" cType="1" res="-2.9648859053850174e-03" rms="2.1021373569965363e-01" purity="1.5938775241374969e-01" nType="-99"/>
        </Node>
        <Node pos="r" depth="1" NCoef="0" IVar="2" Cut="1.0569968223571777e+00" cType="1" res="1.2934291735291481e-02" rms="2.7493134140968323e-01" purity="5.4655838012695312e-01" nType="0">
          <Node pos="l" depth="2" NCoef="0" IVar="-1" Cut="0.0000000000000000e+00" cType="1" res="-6.8067437969148159e-03" rms="2.0141473412513733e-01" purity="8.0232799053192139e-02" nType="-99"/>
          <Node pos="r" depth="2" NCoef="0" IVar="-1" Cut="0.0000000000000000e+00" cType="1" res="1.2874851236119866e-03" rms="2.7607595920562744e-01" purity="5.7399141788482666e-01" nType="-99"/>
        </Node>
      </Node>
    </BinaryTree>
    <BinaryTree type="DecisionTree" boostWeight="1.0000000000000000e+00" itree="321">
      <Node pos="s" depth="0" NCoef="0" IVar="56" Cut="1.3689785003662109e+00" cType="1" res="2.0368795376271009e-03" rms="2.6550555229187012e-01" purity="4.9994865059852600e-01" nType="0">
        <Node pos="l" depth="1" NCoef="0" IVar="14" Cut="-1.4150444269180298e+00" cType="1" res="1.3696305453777313e-02" rms="2.6907268166542053e-01" purity="5.4870706796646118e-01" nType="0">
          <Node pos="l" depth="2" NCoef="0" IVar="-1" Cut="0.0000000000000000e+00" cType="1" res="-1.1089282110333443e-02" rms="0.0000000000000000e+00" purity="-8.0330306664109230e-03" nType="-99"/>
          <Node pos="r" depth="2" NCoef="0" IVar="-1" Cut="0.0000000000000000e+00" cType="1" res="1.6260738484561443e-03" rms="3.0079466104507446e-01" purity="6.7872500419616699e-01" nType="-99"/>
        </Node>
        <Node pos="r" depth="1" NCoef="0" IVar="49" Cut="3.4070770740509033e+00" cType="1" res="-9.6552744507789612e-02" rms="2.0856525003910065e-01" purity="8.7657377123832703e-02" nType="0">
          <Node pos="l" depth="2" NCoef="0" IVar="-1" Cut="0.0000000000000000e+00" cType="1" res="-4.9359621480107307e-03" rms="2.1536095440387726e-01" purity="1.0498534142971039e-01" nType="-99"/>
          <Node pos="r" depth="2" NCoef="0" IVar="-1" Cut="0.0000000000000000e+00" cType="1" res="-1.2497541494667530e-02" rms="1.6067102551460266e-01" purity="4.6813555061817169e-02" nType="-99"/>
        </Node>
      </Node>
    </BinaryTree>
    <BinaryTree type="DecisionTree" boostWeight="1.0000000000000000e+00" itree="322">
      <Node pos="s" depth="0" NCoef="0" IVar="14" Cut="1.4871129989624023e+00" cType="1" res="2.5507542304694653e-03" rms="2.6370665431022644e-01" purity="5.0105303525924683e-01" nType="0">
        <Node pos="l" depth="1" NCoef="0" IVar="65" Cut="6.1751896142959595e-01" cType="1" res="-3.2998327165842056e-02" rms="2.4073393642902374e-01" purity="2.4000661075115204e-01" nType="0">
          <Node pos="l" depth="2" NCoef="0" IVar="-1" Cut="0.0000000000000000e+00" cType="1" res="-7.2853348683565855e-04" rms="2.6243579387664795e-01" purity="2.8708705306053162e-01" nType="-99"/>
          <Node pos="r" depth="2" NCoef="0" IVar="-1" Cut="0.0000000000000000e+00" cType="1" res="-7.6105589978396893e-03" rms="1.5604475140571594e-01" purity="1.1607874929904938e-01" nType="-99"/>
        </Node>
        <Node pos="r" depth="1" NCoef="0" IVar="56" Cut="1.4854199886322021e+00" cType="1" res="3.7711791694164276e-02" rms="2.8020858764648438e-01" purity="7.5924998521804810e-01" nType="0">
          <Node pos="l" depth="2" NCoef="0" IVar="-1" Cut="0.0000000000000000e+00" cType="1" res="2.5743378791958094e-03" rms="2.7417066693305969e-01" purity="7.9987478256225586e-01" nType="-99"/>
          <Node pos="r" depth="2" NCoef="0" IVar="-1" Cut="0.0000000000000000e+00" cType="1" res="-8.2509955391287804e-03" rms="3.0570140480995178e-01" purity="1.0876918584108353e-01" nType="-99"/>
        </Node>
      </Node>
    </BinaryTree>
    <BinaryTree type="DecisionTree" boostWeight="1.0000000000000000e+00" itree="323">
      <Node pos="s" depth="0" NCoef="0" IVar="2" Cut="5.5746024847030640e-01" cType="1" res="4.8476150259375572e-03" rms="2.6098334789276123e-01" purity="4.9976071715354919e-01" nType="0">
        <Node pos="l" depth="1" NCoef="0" IVar="-1" Cut="0.0000000000000000e+00" cType="1" res="-9.9560255184769630e-03" rms="0.0000000000000000e+00" purity="-5.4431591182947159e-02" nType="-99"/>
        <Node pos="r" depth="1" NCoef="0" IVar="0" Cut="7.2218310832977295e-01" cType="1" res="1.0267610661685467e-02" rms="2.6348835229873657e-01" purity="5.1245766878128052e-01" nType="0">
          <Node pos="l" depth="2" NCoef="0" IVar="-1" Cut="0.0000000000000000e+00" cType="1" res="1.9960762001574039e-03" rms="2.6482033729553223e-01" purity="5.6789129972457886e-01" nType="-99"/>
          <Node pos="r" depth="2" NCoef="0" IVar="-1" Cut="0.0000000000000000e+00" cType="1" res="-3.2058404758572578e-03" rms="2.5130873918533325e-01" purity="3.7863630056381226e-01" nType="-99"/>
        </Node>
      </Node>
    </BinaryTree>
    <BinaryTree type="DecisionTree" boostWeight="1.0000000000000000e+00" itree="324">
      <Node pos="s" depth="0" NCoef="0" IVar="25" Cut="2.0151345729827881e+00" cType="1" res="4.0002004243433475e-03" rms="2.6511719822883606e-01" purity="4.9971756339073181e-01" nType="0">
        <Node pos="l" depth="1" NCoef="0" IVar="0" Cut="5.7968360185623169e-01" cType="1" res="-3.5203397274017334e-02" rms="2.4217157065868378e-01" purity="2.6103264093399048e-01" nType="0">
          <Node pos="l" depth="2" NCoef="0" IVar="-1" Cut="0.0000000000000000e+00" cType="1" res="-6.0417383792810142e-05" rms="2.6949712634086609e-01" purity="3.4555387496948242e-01" nType="-99"/>
          <Node pos="r" depth="2" NCoef="0" IVar="-1" Cut="0.0000000000000000e+00" cType="1" res="-6.0173063538968563e-03" rms="1.9827333092689514e-01" purity="1.6211579740047455e-01" nType="-99"/>
        </Node>
        <Node pos="r" depth="1" NCoef="0" IVar="2" Cut="1.2037755250930786e+00" cType="1" res="3.3436216413974762e-02" rms="2.7750059962272644e-01" purity="6.7893409729003906e-01" nType="0">
          <Node pos="l" depth="2" NCoef="0" IVar="-1" Cut="0.0000000000000000e+00" cType="1" res="-6.5145934931933880e-03" rms="2.8638556599617004e-01" purity="1.6319258511066437e-01" nType="-99"/>
          <Node pos="r" depth="2" NCoef="0" IVar="-1" Cut="0.0000000000000000e+00" cType="1" res="2.4354893248528242e-03" rms="2.7379709482192993e-01" purity="7.0078510046005249e-01" nType="-99"/>
        </Node>
      </Node>
    </BinaryTree>
    <BinaryTree type="DecisionTree" boostWeight="1.0000000000000000e+00" itree="325">
      <Node pos="s" depth="0" NCoef="0" IVar="2" Cut="8.1908535957336426e-01" cType="1" res="2.5581358931958675e-03" rms="2.6230037212371826e-01" purity="4.9790814518928528e-01" nType="0">
        <Node pos="l" depth="1" NCoef="0" IVar="-1" Cut="0.0000000000000000e+00" cType="1" res="-8.4166051819920540e-03" rms="0.0000000000000000e+00" purity="7.9395491629838943e-03" nType="-99"/>
        <Node pos="r" depth="1" NCoef="0" IVar="25" Cut="1.0784766674041748e+00" cType="1" res="9.4092013314366341e-03" rms="2.6512646675109863e-01" purity="5.1705092191696167e-01" nType="0">
          <Node pos="l" depth="2" NCoef="0" IVar="-1" Cut="0.0000000000000000e+00" cType="1" res="-7.8624645248055458e-03" rms="1.4878235757350922e-01" purity="8.1584416329860687e-02" nType="-99"/>
          <Node pos="r" depth="2" NCoef="0" IVar="-1" Cut="0.0000000000000000e+00" cType="1" res="1.3442543568089604e-03" rms="2.7495658397674561e-01" purity="5.7813674211502075e-01" nType="-99"/>
        </Node>
      </Node>
    </BinaryTree>
    <BinaryTree type="DecisionTree" boostWeight="1.0000000000000000e+00" itree="326">
      <Node pos="s" depth="0" NCoef="0" IVar="57" Cut="-1.1235055923461914e+00" cType="1" res="2.7549082878977060e-03" rms="2.6701104640960693e-01" purity="4.9951255321502686e-01" nType="0">
        <Node pos="l" depth="1" NCoef="0" IVar="34" Cut="1.3699878454208374e+00" cType="1" res="1.6519343480467796e-02" rms="2.6981502771377563e-01" purity="5.3433841466903687e-01" nType="0">
          <Node pos="l" depth="2" NCoef="0" IVar="-1" Cut="0.0000000000000000e+00" cType="1" res="1.6569513827562332e-03" rms="2.6997151970863342e-01" purity="5.8319479227066040e-01" nType="-99"/>
          <Node pos="r" depth="2" NCoef="0" IVar="-1" Cut="0.0000000000000000e+00" cType="1" res="-6.6193267703056335e-03" rms="2.4549095332622528e-01" purity="1.1510989814996719e-01" nType="-99"/>
        </Node>
        <Node pos="r" depth="1" NCoef="0" IVar="45" Cut="2.7039246559143066e+00" cType="1" res="-8.6452066898345947e-02" rms="2.2880898416042328e-01" purity="2.7380719780921936e-01" nType="0">
          <Node pos="l" depth="2" NCoef="0" IVar="-1" Cut="0.0000000000000000e+00" cType="1" res="-7.9445028677582741e-03" rms="1.9711343944072723e-01" purity="1.7817564308643341e-01" nType="-99"/>
          <Node pos="r" depth="2" NCoef="0" IVar="-1" Cut="0.0000000000000000e+00" cType="1" res="-9.4214192358776927e-04" rms="3.2306921482086182e-01" purity="6.8578946590423584e-01" nType="-99"/>
        </Node>
      </Node>
    </BinaryTree>
    <BinaryTree type="DecisionTree" boostWeight="1.0000000000000000e+00" itree="327">
      <Node pos="s" depth="0" NCoef="0" IVar="54" Cut="5.9600645303726196e-01" cType="1" res="5.5043916217982769e-03" rms="2.6544743776321411e-01" purity="5.0150680541992188e-01" nType="0">
        <Node pos="l" depth="1" NCoef="0" IVar="14" Cut="-1.4537111520767212e+00" cType="1" res="2.0791424438357353e-02" rms="2.6601004600524902e-01" purity="5.7269042730331421e-01" nType="0">
          <Node pos="l" depth="2" NCoef="0" IVar="-1" Cut="0.0000000000000000e+00" cType="1" res="-1.0829155333340168e-02" rms="0.0000000000000000e+00" purity="-6.3576265238225460e-03" nType="-99"/>
          <Node pos="r" depth="2" NCoef="0" IVar="-1" Cut="0.0000000000000000e+00" cType="1" res="1.9718890544027090e-03" rms="2.9231002926826477e-01" purity="6.9126641750335693e-01" nType="-99"/>
        </Node>
        <Node pos="r" depth="1" NCoef="0" IVar="54" Cut="1.4435244798660278e+00" cType="1" res="-6.7416407167911530e-02" rms="2.5020772218704224e-01" purity="1.6195364296436310e-01" nType="0">
          <Node pos="l" depth="2" NCoef="0" IVar="-1" Cut="0.0000000000000000e+00" cType="1" res="-2.3054643534123898e-03" rms="2.8170797228813171e-01" purity="2.5270146131515503e-01" nType="-99"/>
          <Node pos="r" depth="2" NCoef="0" IVar="-1" Cut="0.0000000000000000e+00" cType="1" res="-8.4544559940695763e-03" rms="2.1041510999202728e-01" purity="7.2749756276607513e-02" nType="-99"/>
        </Node>
      </Node>
    </BinaryTree>
    <BinaryTree type="DecisionTree" boostWeight="1.0000000000000000e+00" itree="328">
      <Node pos="s" depth="0" NCoef="0" IVar="57" Cut="-1.0574718713760376e+00" cType="1" res="3.9335135370492935e-03" rms="2.6539772748947144e-01" purity="4.9894717335700989e-01" nType="0">
        <Node pos="l" depth="1" NCoef="0" IVar="2" Cut="6.8329149484634399e-01" cType="1" res="1.6086950898170471e-02" rms="2.6681429147720337e-01" purity="5.2998679876327515e-01" nType="0">
          <Node pos="l" depth="2" NCoef="0" IVar="-1" Cut="0.0000000000000000e+00" cType="1" res="-8.5510909557342529e-03" rms="0.0000000000000000e+00" purity="-1.5252631157636642e-02" nType="-99"/>
          <Node pos="r" depth="2" NCoef="0" IVar="-1" Cut="0.0000000000000000e+00" cType="1" res="1.3479873305186629e-03" rms="2.6905265450477600e-01" purity="5.4674577713012695e-01" nType="-99"/>
        </Node>
        <Node pos="r" depth="1" NCoef="0" IVar="53" Cut="-9.9098992347717285e-01" cType="1" res="-8.6302876472473145e-02" rms="2.3579458892345428e-01" purity="2.6848524808883667e-01" nType="0">
          <Node pos="l" depth="2" NCoef="0" IVar="-1" Cut="0.0000000000000000e+00" cType="1" res="-4.1542579419910908e-03" rms="2.6373651623725891e-01" purity="3.4186878800392151e-01" nType="-99"/>
          <Node pos="r" depth="2" NCoef="0" IVar="-1" Cut="0.0000000000000000e+00" cType="1" res="-9.7171515226364136e-03" rms="1.8227024376392365e-01" purity="1.6448010504245758e-01" nType="-99"/>
        </Node>
      </Node>
    </BinaryTree>
    <BinaryTree type="DecisionTree" boostWeight="1.0000000000000000e+00" itree="329">
      <Node pos="s" depth="0" NCoef="0" IVar="57" Cut="-1.6071285009384155e+00" cType="1" res="3.6825442221015692e-03" rms="2.6552936434745789e-01" purity="5.0032860040664673e-01" nType="0">
        <Node pos="l" depth="1" NCoef="0" IVar="14" Cut="-1.3376309871673584e+00" cType="1" res="2.4474071338772774e-02" rms="2.6860839128494263e-01" purity="5.5147308111190796e-01" nType="0">
          <Node pos="l" depth="2" NCoef="0" IVar="-1" Cut="0.0000000000000000e+00" cType="1" res="-8.0347154289484024e-03" rms="5.3452454507350922e-02" purity="1.0696670971810818e-02" nType="-99"/>
          <Node pos="r" depth="2" NCoef="0" IVar="-1" Cut="0.0000000000000000e+00" cType="1" res="2.1757110953330994e-03" rms="2.9748299717903137e-01" purity="6.9193989038467407e-01" nType="-99"/>
        </Node>
        <Node pos="r" depth="1" NCoef="0" IVar="1" Cut="3.6733813285827637e+00" cType="1" res="-4.8413272947072983e-02" rms="2.5017571449279785e-01" purity="3.7217962741851807e-01" nType="0">
          <Node pos="l" depth="2" NCoef="0" IVar="-1" Cut="0.0000000000000000e+00" cType="1" res="-4.5455852523446083e-03" rms="2.4119053781032562e-01" purity="2.8324258327484131e-01" nType="-99"/>
          <Node pos="r" depth="2" NCoef="0" IVar="-1" Cut="0.0000000000000000e+00" cType="1" res="2.0223658066242933e-03" rms="2.7475062012672424e-01" purity="7.9843813180923462e-01" nType="-99"/>
        </Node>
      </Node>
    </BinaryTree>
    <BinaryTree type="DecisionTree" boostWeight="1.0000000000000000e+00" itree="330">
      <Node pos="s" depth="0" NCoef="0" IVar="37" Cut="-1.2868434190750122e+00" cType="1" res="2.8335242532193661e-03" rms="2.6335519552230835e-01" purity="4.9815386533737183e-01" nType="0">
        <Node pos="l" depth="1" NCoef="0" IVar="14" Cut="-1.4537111520767212e+00" cType="1" res="1.8495624884963036e-02" rms="2.6540109515190125e-01" purity="5.3752750158309937e-01" nType="0">
          <Node pos="l" depth="2" NCoef="0" IVar="-1" Cut="0.0000000000000000e+00" cType="1" res="-1.0503510944545269e-02" rms="0.0000000000000000e+00" purity="-3.9505520835518837e-03" nType="-99"/>
          <Node pos="r" depth="2" NCoef="0" IVar="-1" Cut="0.0000000000000000e+00" cType="1" res="1.7960142577067018e-03" rms="2.9302328824996948e-01" purity="6.5560597181320190e-01" nType="-99"/>
        </Node>
        <Node pos="r" depth="1" NCoef="0" IVar="33" Cut="-1.4924805164337158e+00" cType="1" res="-6.9497384130954742e-02" rms="2.4082240462303162e-01" purity="3.1631785631179810e-01" nType="0">
          <Node pos="l" depth="2" NCoef="0" IVar="-1" Cut="0.0000000000000000e+00" cType="1" res="-5.9643009444698691e-04" rms="2.6866915822029114e-01" purity="4.8859065771102905e-01" nType="-99"/>
          <Node pos="r" depth="2" NCoef="0" IVar="-1" Cut="0.0000000000000000e+00" cType="1" res="-6.8275802768766880e-03" rms="2.2487591207027435e-01" purity="2.4969273805618286e-01" nType="-99"/>
        </Node>
      </Node>
    </BinaryTree>
    <BinaryTree type="DecisionTree" boostWeight="1.0000000000000000e+00" itree="331">
      <Node pos="s" depth="0" NCoef="0" IVar="2" Cut="7.1139717102050781e-01" cType="1" res="1.2043570168316364e-03" rms="2.6289650797843933e-01" purity="4.9972552061080933e-01" nType="0">
        <Node pos="l" depth="1" NCoef="0" IVar="-1" Cut="0.0000000000000000e+00" cType="1" res="-9.4163455069065094e-03" rms="0.0000000000000000e+00" purity="-2.8589932247996330e-02" nType="-99"/>
        <Node pos="r" depth="1" NCoef="0" IVar="14" Cut="-1.1054656505584717e+00" cType="1" res="7.4424510821700096e-03" rms="2.6602536439895630e-01" purity="5.1610273122787476e-01" nType="0">
          <Node pos="l" depth="2" NCoef="0" IVar="-1" Cut="0.0000000000000000e+00" cType="1" res="-8.0380439758300781e-03" rms="1.7338925972580910e-02" purity="1.6631947830319405e-02" nType="-99"/>
          <Node pos="r" depth="2" NCoef="0" IVar="-1" Cut="0.0000000000000000e+00" cType="1" res="1.3987055281177163e-03" rms="3.0355140566825867e-01" purity="6.7853736877441406e-01" nType="-99"/>
        </Node>
      </Node>
    </BinaryTree>
    <BinaryTree type="DecisionTree" boostWeight="1.0000000000000000e+00" itree="332">
      <Node pos="s" depth="0" NCoef="0" IVar="56" Cut="-1.5311226844787598e+00" cType="1" res="3.2057291828095913e-03" rms="2.6092663407325745e-01" purity="5.0149309635162354e-01" nType="0">
        <Node pos="l" depth="1" NCoef="0" IVar="34" Cut="1.4083980321884155e+00" cType="1" res="4.5187544077634811e-02" rms="2.4295407533645630e-01" purity="6.9003039598464966e-01" nType="0">
          <Node pos="l" depth="2" NCoef="0" IVar="-1" Cut="0.0000000000000000e+00" cType="1" res="3.4660287201404572e-03" rms="2.3266461491584778e-01" purity="7.4117970466613770e-01" nType="-99"/>
          <Node pos="r" depth="2" NCoef="0" IVar="-1" Cut="0.0000000000000000e+00" cType="1" res="-7.5884587131440639e-03" rms="2.9368183016777039e-01" purity="1.3190501928329468e-01" nType="-99"/>
        </Node>
        <Node pos="r" depth="1" NCoef="0" IVar="0" Cut="5.8356338739395142e-01" cType="1" res="-2.4527730420231819e-02" rms="2.6857349276542664e-01" purity="3.7694409489631653e-01" nType="0">
          <Node pos="l" depth="2" NCoef="0" IVar="-1" Cut="0.0000000000000000e+00" cType="1" res="1.9155090558342636e-04" rms="2.8867766261100769e-01" purity="4.4971758127212524e-01" nType="-99"/>
          <Node pos="r" depth="2" NCoef="0" IVar="-1" Cut="0.0000000000000000e+00" cType="1" res="-4.3796706013381481e-03" rms="2.3394572734832764e-01" purity="2.7960470318794250e-01" nType="-99"/>
        </Node>
      </Node>
    </BinaryTree>
    <BinaryTree type="DecisionTree" boostWeight="1.0000000000000000e+00" itree="333">
      <Node pos="s" depth="0" NCoef="0" IVar="0" Cut="7.8508603572845459e-01" cType="1" res="5.7269232347607613e-03" rms="2.6717415452003479e-01" purity="5.0064671039581299e-01" nType="0">
        <Node pos="l" depth="1" NCoef="0" IVar="14" Cut="-1.4150160551071167e+00" cType="1" res="2.4258572608232498e-02" rms="2.7006644010543823e-01" purity="5.4437959194183350e-01" nType="0">
          <Node pos="l" depth="2" NCoef="0" IVar="-1" Cut="0.0000000000000000e+00" cType="1" res="-1.0080100037157536e-02" rms="0.0000000000000000e+00" purity="-2.3803068324923515e-03" nType="-99"/>
          <Node pos="r" depth="2" NCoef="0" IVar="-1" Cut="0.0000000000000000e+00" cType="1" res="2.1507425699383020e-03" rms="2.9986622929573059e-01" purity="6.7265439033508301e-01" nType="-99"/>
        </Node>
        <Node pos="r" depth="1" NCoef="0" IVar="1" Cut="3.3797376155853271e+00" cType="1" res="-5.3098268806934357e-02" rms="2.4879525601863861e-01" purity="3.6182510852813721e-01" nType="0">
          <Node pos="l" depth="2" NCoef="0" IVar="-1" Cut="0.0000000000000000e+00" cType="1" res="-6.2491674907505512e-03" rms="2.2002361714839935e-01" purity="2.0177219808101654e-01" nType="-99"/>
          <Node pos="r" depth="2" NCoef="0" IVar="-1" Cut="0.0000000000000000e+00" cType="1" res="1.0446411324664950e-03" rms="2.9684785008430481e-01" purity="7.5606060028076172e-01" nType="-99"/>
        </Node>
      </Node>
    </BinaryTree>
    <BinaryTree type="DecisionTree" boostWeight="1.0000000000000000e+00" itree="334">
      <Node pos="s" depth="0" NCoef="0" IVar="52" Cut="-1.4926078319549561e+00" cType="1" res="2.7646091766655445e-03" rms="2.6315686106681824e-01" purity="5.0083482265472412e-01" nType="0">
        <Node pos="l" depth="1" NCoef="0" IVar="36" Cut="1.2921659946441650e+00" cType="1" res="2.9875660315155983e-02" rms="2.6557600498199463e-01" purity="6.3049185276031494e-01" nType="0">
          <Node pos="l" depth="2" NCoef="0" IVar="-1" Cut="0.0000000000000000e+00" cType="1" res="2.5251435581594706e-03" rms="2.5914883613586426e-01" purity="6.8316543102264404e-01" nType="-99"/>
          <Node pos="r" depth="2" NCoef="0" IVar="-1" Cut="0.0000000000000000e+00" cType="1" res="-5.6430683471262455e-03" rms="2.9162955284118652e-01" purity="1.6487173736095428e-01" nType="-99"/>
        </Node>
        <Node pos="r" depth="1" NCoef="0" IVar="1" Cut="3.6443526744842529e+00" cType="1" res="-3.7304453551769257e-02" rms="2.5430154800415039e-01" purity="3.0920684337615967e-01" nType="0">
          <Node pos="l" depth="2" NCoef="0" IVar="-1" Cut="0.0000000000000000e+00" cType="1" res="-3.5970443859696388e-03" rms="2.4233719706535339e-01" purity="2.3421376943588257e-01" nType="-99"/>
          <Node pos="r" depth="2" NCoef="0" IVar="-1" Cut="0.0000000000000000e+00" cType="1" res="2.2367050405591726e-03" rms="3.0134576559066772e-01" purity="7.3537653684616089e-01" nType="-99"/>
        </Node>
      </Node>
    </BinaryTree>
    <BinaryTree type="DecisionTree" boostWeight="1.0000000000000000e+00" itree="335">
      <Node pos="s" depth="0" NCoef="0" IVar="17" Cut="-8.7398117780685425e-01" cType="1" res="3.5128667950630188e-03" rms="2.6464954018592834e-01" purity="4.9926462769508362e-01" nType="0">
        <Node pos="l" depth="1" NCoef="0" IVar="14" Cut="-1.4537111520767212e+00" cType="1" res="1.2426998466253281e-02" rms="2.6472187042236328e-01" purity="5.1847791671752930e-01" nType="0">
          <Node pos="l" depth="2" NCoef="0" IVar="-1" Cut="0.0000000000000000e+00" cType="1" res="-1.2271774001419544e-02" rms="0.0000000000000000e+00" purity="-1.2138154357671738e-02" nType="-99"/>
          <Node pos="r" depth="2" NCoef="0" IVar="-1" Cut="0.0000000000000000e+00" cType="1" res="1.5342845581471920e-03" rms="2.9800546169281006e-01" purity="6.4437741041183472e-01" nType="-99"/>
        </Node>
        <Node pos="r" depth="1" NCoef="0" IVar="16" Cut="-1.1838514804840088e+00" cType="1" res="-1.1463546752929688e-01" rms="2.3349426686763763e-01" purity="2.4461081624031067e-01" nType="0">
          <Node pos="l" depth="2" NCoef="0" IVar="-1" Cut="0.0000000000000000e+00" cType="1" res="-8.1099625676870346e-03" rms="1.4185658097267151e-01" purity="1.0922875255346298e-01" nType="-99"/>
          <Node pos="r" depth="2" NCoef="0" IVar="-1" Cut="0.0000000000000000e+00" cType="1" res="-8.0890040844678879e-03" rms="2.7010723948478699e-01" purity="3.2381173968315125e-01" nType="-99"/>
        </Node>
      </Node>
    </BinaryTree>
    <BinaryTree type="DecisionTree" boostWeight="1.0000000000000000e+00" itree="336">
      <Node pos="s" depth="0" NCoef="0" IVar="37" Cut="-1.1710400581359863e+00" cType="1" res="1.4014706248417497e-03" rms="2.6210990548133850e-01" purity="4.9760866165161133e-01" nType="0">
        <Node pos="l" depth="1" NCoef="0" IVar="2" Cut="6.1135417222976685e-01" cType="1" res="1.5434340573847294e-02" rms="2.6484081149101257e-01" purity="5.3246974945068359e-01" nType="0">
          <Node pos="l" depth="2" NCoef="0" IVar="-1" Cut="0.0000000000000000e+00" cType="1" res="-8.6552537977695465e-03" rms="0.0000000000000000e+00" purity="-2.6547590270638466e-02" nType="-99"/>
          <Node pos="r" depth="2" NCoef="0" IVar="-1" Cut="0.0000000000000000e+00" cType="1" res="1.2895516119897366e-03" rms="2.6630204916000366e-01" purity="5.4713118076324463e-01" nType="-99"/>
        </Node>
        <Node pos="r" depth="1" NCoef="0" IVar="36" Cut="-1.5311478376388550e+00" cType="1" res="-7.9679884016513824e-02" rms="2.2950984537601471e-01" purity="2.9618254303932190e-01" nType="0">
          <Node pos="l" depth="2" NCoef="0" IVar="-1" Cut="0.0000000000000000e+00" cType="1" res="-1.1411552550271153e-03" rms="2.6616644859313965e-01" purity="5.7144194841384888e-01" nType="-99"/>
          <Node pos="r" depth="2" NCoef="0" IVar="-1" Cut="0.0000000000000000e+00" cType="1" res="-7.4096443131566048e-03" rms="2.1393743157386780e-01" purity="2.1384523808956146e-01" nType="-99"/>
        </Node>
      </Node>
    </BinaryTree>
    <BinaryTree type="DecisionTree" boostWeight="1.0000000000000000e+00" itree="337">
      <Node pos="s" depth="0" NCoef="0" IVar="25" Cut="1.2633597850799561e+00" cType="1" res="3.1227243598550558e-03" rms="2.6543578505516052e-01" purity="4.9996027350425720e-01" nType="0">
        <Node pos="l" depth="1" NCoef="0" IVar="0" Cut="6.6557866334915161e-01" cType="1" res="-7.0565775036811829e-02" rms="1.8493565917015076e-01" purity="1.1719406396150589e-01" nType="0">
          <Node pos="l" depth="2" NCoef="0" IVar="-1" Cut="0.0000000000000000e+00" cType="1" res="-2.2509465925395489e-03" rms="2.4138191342353821e-01" purity="1.9437031447887421e-01" nType="-99"/>
          <Node pos="r" depth="2" NCoef="0" IVar="-1" Cut="0.0000000000000000e+00" cType="1" res="-1.2480689212679863e-02" rms="8.5628908127546310e-03" purity="2.2253289818763733e-02" nType="-99"/>
        </Node>
        <Node pos="r" depth="1" NCoef="0" IVar="17" Cut="-9.0197438001632690e-01" cType="1" res="1.7838949337601662e-02" rms="2.7639755606651306e-01" purity="5.7640194892883301e-01" nType="0">
          <Node pos="l" depth="2" NCoef="0" IVar="-1" Cut="0.0000000000000000e+00" cType="1" res="1.5940141165629029e-03" rms="2.7362474799156189e-01" purity="5.9564423561096191e-01" nType="-99"/>
          <Node pos="r" depth="2" NCoef="0" IVar="-1" Cut="0.0000000000000000e+00" cType="1" res="-7.1609970182180405e-03" rms="2.8239065408706665e-01" purity="3.1498467922210693e-01" nType="-99"/>
        </Node>
      </Node>
    </BinaryTree>
    <BinaryTree type="DecisionTree" boostWeight="1.0000000000000000e+00" itree="338">
      <Node pos="s" depth="0" NCoef="0" IVar="32" Cut="-1.4926292896270752e+00" cType="1" res="3.0935015529394150e-03" rms="2.6284730434417725e-01" purity="5.0066721439361572e-01" nType="0">
        <Node pos="l" depth="1" NCoef="0" IVar="54" Cut="1.4074168205261230e+00" cType="1" res="3.2112699002027512e-02" rms="2.6206675171852112e-01" purity="6.2905758619308472e-01" nType="0">
          <Node pos="l" depth="2" NCoef="0" IVar="-1" Cut="0.0000000000000000e+00" cType="1" res="2.6266227941960096e-03" rms="2.5727111101150513e-01" purity="6.8050819635391235e-01" nType="-99"/>
          <Node pos="r" depth="2" NCoef="0" IVar="-1" Cut="0.0000000000000000e+00" cType="1" res="-6.8063475191593170e-03" rms="2.7400931715965271e-01" purity="1.2205166369676590e-01" nType="-99"/>
        </Node>
        <Node pos="r" depth="1" NCoef="0" IVar="34" Cut="1.4488464593887329e+00" cType="1" res="-3.9526589214801788e-02" rms="2.5814181566238403e-01" purity="3.1210201978683472e-01" nType="0">
          <Node pos="l" depth="2" NCoef="0" IVar="-1" Cut="0.0000000000000000e+00" cType="1" res="-1.4397125924006104e-03" rms="2.7135428786277771e-01" purity="3.7407267093658447e-01" nType="-99"/>
          <Node pos="r" depth="2" NCoef="0" IVar="-1" Cut="0.0000000000000000e+00" cType="1" res="-9.7586363554000854e-03" rms="1.7654648423194885e-01" purity="5.1661927253007889e-02" nType="-99"/>
        </Node>
      </Node>
    </BinaryTree>
    <BinaryTree type="DecisionTree" boostWeight="1.0000000000000000e+00" itree="339">
      <Node pos="s" depth="0" NCoef="0" IVar="2" Cut="1.0569968223571777e+00" cType="1" res="1.6946565592661500e-03" rms="2.6005697250366211e-01" purity="4.9911236763000488e-01" nType="0">
        <Node pos="l" depth="1" NCoef="0" IVar="1" Cut="2.7637267112731934e+00" cType="1" res="-1.3369098305702209e-01" rms="1.3809181749820709e-01" purity="5.2118003368377686e-02" nType="0">
          <Node pos="l" depth="2" NCoef="0" IVar="-1" Cut="0.0000000000000000e+00" cType="1" res="-7.1378354914486408e-03" rms="0.0000000000000000e+00" purity="2.9748452827334404e-02" nType="-99"/>
          <Node pos="r" depth="2" NCoef="0" IVar="-1" Cut="0.0000000000000000e+00" cType="1" res="-7.9327654093503952e-03" rms="2.2335487604141235e-01" purity="9.3695476651191711e-02" nType="-99"/>
        </Node>
        <Node pos="r" depth="1" NCoef="0" IVar="45" Cut="1.1920174360275269e+00" cType="1" res="1.0058541782200336e-02" rms="2.6349058747291565e-01" purity="5.2672690153121948e-01" nType="0">
          <Node pos="l" depth="2" NCoef="0" IVar="-1" Cut="0.0000000000000000e+00" cType="1" res="-6.4171487465500832e-03" rms="1.6791909933090210e-01" purity="1.1313986778259277e-01" nType="-99"/>
          <Node pos="r" depth="2" NCoef="0" IVar="-1" Cut="0.0000000000000000e+00" cType="1" res="1.4453822514042258e-03" rms="2.7371740341186523e-01" purity="5.9593701362609863e-01" nType="-99"/>
        </Node>
      </Node>
    </BinaryTree>
    <BinaryTree type="DecisionTree" boostWeight="1.0000000000000000e+00" itree="340">
      <Node pos="s" depth="0" NCoef="0" IVar="25" Cut="1.5975623130798340e+00" cType="1" res="3.2604881562292576e-03" rms="2.6092728972434998e-01" purity="4.9964508414268494e-01" nType="0">
        <Node pos="l" depth="1" NCoef="0" IVar="0" Cut="6.8858593702316284e-01" cType="1" res="-5.0478037446737289e-02" rms="2.1255199611186981e-01" purity="1.8402017652988434e-01" nType="0">
          <Node pos="l" depth="2" NCoef="0" IVar="-1" Cut="0.0000000000000000e+00" cType="1" res="-1.4206134947016835e-03" rms="2.4330812692642212e-01" purity="2.5058385729789734e-01" nType="-99"/>
          <Node pos="r" depth="2" NCoef="0" IVar="-1" Cut="0.0000000000000000e+00" cType="1" res="-8.8174520060420036e-03" rms="1.4528687298297882e-01" purity="8.5355274379253387e-02" nType="-99"/>
        </Node>
        <Node pos="r" depth="1" NCoef="0" IVar="36" Cut="1.4858274459838867e+00" cType="1" res="2.3163223639130592e-02" rms="2.7404457330703735e-01" purity="6.1654067039489746e-01" nType="0">
          <Node pos="l" depth="2" NCoef="0" IVar="-1" Cut="0.0000000000000000e+00" cType="1" res="1.9203302217647433e-03" rms="2.7191230654716492e-01" purity="6.5587085485458374e-01" nType="-99"/>
          <Node pos="r" depth="2" NCoef="0" IVar="-1" Cut="0.0000000000000000e+00" cType="1" res="-8.7253190577030182e-03" rms="2.6331442594528198e-01" purity="7.3167286813259125e-02" nType="-99"/>
        </Node>
      </Node>
    </BinaryTree>
    <BinaryTree type="DecisionTree" boostWeight="1.0000000000000000e+00" itree="341">
      <Node pos="s" depth="0" NCoef="0" IVar="2" Cut="5.5746024847030640e-01" cType="1" res="3.1944296788424253e-03" rms="2.6217049360275269e-01" purity="4.9984008073806763e-01" nType="0">
        <Node pos="l" depth="1" NCoef="0" IVar="-1" Cut="0.0000000000000000e+00" cType="1" res="-9.8430505022406578e-03" rms="0.0000000000000000e+00" purity="-6.5442450344562531e-02" nType="-99"/>
        <Node pos="r" depth="1" NCoef="0" IVar="17" Cut="-1.3805184364318848e+00" cType="1" res="8.3408644422888756e-03" rms="2.6499572396278381e-01" purity="5.1261317729949951e-01" nType="0">
          <Node pos="l" depth="2" NCoef="0" IVar="-1" Cut="0.0000000000000000e+00" cType="1" res="1.5425913734361529e-03" rms="2.6505282521247864e-01" purity="5.5107742547988892e-01" nType="-99"/>
          <Node pos="r" depth="2" NCoef="0" IVar="-1" Cut="0.0000000000000000e+00" cType="1" res="-4.3141166679561138e-03" rms="2.5261360406875610e-01" purity="3.4801059961318970e-01" nType="-99"/>
        </Node>
      </Node>
    </BinaryTree>
    <BinaryTree type="DecisionTree" boostWeight="1.0000000000000000e+00" itree="342">
      <Node pos="s" depth="0" NCoef="0" IVar="2" Cut="1.7538757324218750e+00" cType="1" res="1.7493340419605374e-04" rms="2.6189750432968140e-01" purity="4.9750354886054993e-01" nType="0">
        <Node pos="l" depth="1" NCoef="0" IVar="2" Cut="5.3569030761718750e-01" cType="1" res="-5.5844273418188095e-02" rms="2.1479938924312592e-01" purity="1.8565857410430908e-01" nType="0">
          <Node pos="l" depth="2" NCoef="0" IVar="-1" Cut="0.0000000000000000e+00" cType="1" res="-8.9758327230811119e-03" rms="0.0000000000000000e+00" purity="-3.8068443536758423e-02" nType="-99"/>
          <Node pos="r" depth="2" NCoef="0" IVar="-1" Cut="0.0000000000000000e+00" cType="1" res="-3.0417430680245161e-03" rms="2.2352443635463715e-01" purity="2.0737439393997192e-01" nType="-99"/>
        </Node>
        <Node pos="r" depth="1" NCoef="0" IVar="65" Cut="7.2987788915634155e-01" cType="1" res="1.9633337855339050e-02" rms="2.7371555566787720e-01" purity="6.0582363605499268e-01" nType="0">
          <Node pos="l" depth="2" NCoef="0" IVar="-1" Cut="0.0000000000000000e+00" cType="1" res="1.8273162422701716e-03" rms="2.7365002036094666e-01" purity="6.4302951097488403e-01" nType="-99"/>
          <Node pos="r" depth="2" NCoef="0" IVar="-1" Cut="0.0000000000000000e+00" cType="1" res="-5.8467816561460495e-03" rms="2.5072500109672546e-01" purity="2.4330858886241913e-01" nType="-99"/>
        </Node>
      </Node>
    </BinaryTree>
    <BinaryTree type="DecisionTree" boostWeight="1.0000000000000000e+00" itree="343">
      <Node pos="s" depth="0" NCoef="0" IVar="57" Cut="-1.4559814929962158e+00" cType="1" res="1.9699293188750744e-03" rms="2.6225024461746216e-01" purity="4.9943691492080688e-01" nType="0">
        <Node pos="l" depth="1" NCoef="0" IVar="34" Cut="7.5043296813964844e-01" cType="1" res="2.1045709028840065e-02" rms="2.6466318964958191e-01" purity="5.4573798179626465e-01" nType="0">
          <Node pos="l" depth="2" NCoef="0" IVar="-1" Cut="0.0000000000000000e+00" cType="1" res="2.1166710648685694e-03" rms="2.6176765561103821e-01" purity="6.1140525341033936e-01" nType="-99"/>
          <Node pos="r" depth="2" NCoef="0" IVar="-1" Cut="0.0000000000000000e+00" cType="1" res="-4.0655052289366722e-03" rms="2.6607513427734375e-01" purity="1.8931123614311218e-01" nType="-99"/>
        </Node>
        <Node pos="r" depth="1" NCoef="0" IVar="45" Cut="2.3628840446472168e+00" cType="1" res="-6.2301348894834518e-02" rms="2.4317616224288940e-01" purity="3.4343636035919189e-01" nType="0">
          <Node pos="l" depth="2" NCoef="0" IVar="-1" Cut="0.0000000000000000e+00" cType="1" res="-6.8219485692679882e-03" rms="1.9308041036128998e-01" purity="1.8341127038002014e-01" nType="-99"/>
          <Node pos="r" depth="2" NCoef="0" IVar="-1" Cut="0.0000000000000000e+00" cType="1" res="-6.4744806149974465e-04" rms="3.1193301081657410e-01" purity="6.5222162008285522e-01" nType="-99"/>
        </Node>
      </Node>
    </BinaryTree>
    <BinaryTree type="DecisionTree" boostWeight="1.0000000000000000e+00" itree="344">
      <Node pos="s" depth="0" NCoef="0" IVar="45" Cut="9.5409804582595825e-01" cType="1" res="5.5292213801294565e-04" rms="2.6200079917907715e-01" purity="4.9755784869194031e-01" nType="0">
        <Node pos="l" depth="1" NCoef="0" IVar="49" Cut="2.8914968967437744e+00" cType="1" res="-1.0268572717905045e-01" rms="8.3676330745220184e-02" purity="5.1412537693977356e-02" nType="0">
          <Node pos="l" depth="2" NCoef="0" IVar="-1" Cut="0.0000000000000000e+00" cType="1" res="-1.3233666308224201e-02" rms="0.0000000000000000e+00" purity="1.1939913965761662e-02" nType="-99"/>
          <Node pos="r" depth="2" NCoef="0" IVar="-1" Cut="0.0000000000000000e+00" cType="1" res="-1.4567025937139988e-03" rms="2.2223936021327972e-01" purity="1.9878996908664703e-01" nType="-99"/>
        </Node>
        <Node pos="r" depth="1" NCoef="0" IVar="54" Cut="1.4092055559158325e+00" cType="1" res="1.1790482327342033e-02" rms="2.7215403318405151e-01" purity="5.4612094163894653e-01" nType="0">
          <Node pos="l" depth="2" NCoef="0" IVar="-1" Cut="0.0000000000000000e+00" cType="1" res="1.3649502070620656e-03" rms="2.7416434884071350e-01" purity="5.9656620025634766e-01" nType="-99"/>
          <Node pos="r" depth="2" NCoef="0" IVar="-1" Cut="0.0000000000000000e+00" cType="1" res="-7.2957351803779602e-03" rms="2.2895386815071106e-01" purity="9.4991773366928101e-02" nType="-99"/>
        </Node>
      </Node>
    </BinaryTree>
    <BinaryTree type="DecisionTree" boostWeight="1.0000000000000000e+00" itree="345">
      <Node pos="s" depth="0" NCoef="0" IVar="37" Cut="-1.2602425813674927e+00" cType="1" res="3.9798999205231667e-03" rms="2.6272460818290710e-01" purity="5.0092685222625732e-01" nType="0">
        <Node pos="l" depth="1" NCoef="0" IVar="54" Cut="1.4081532955169678e+00" cType="1" res="1.8863979727029800e-02" rms="2.6560479402542114e-01" purity="5.3875702619552612e-01" nType="0">
          <Node pos="l" depth="2" NCoef="0" IVar="-1" Cut="0.0000000000000000e+00" cType="1" res="1.7612716183066368e-03" rms="2.6551115512847900e-01" purity="5.8477139472961426e-01" nType="-99"/>
          <Node pos="r" depth="2" NCoef="0" IVar="-1" Cut="0.0000000000000000e+00" cType="1" res="-6.7359483800828457e-03" rms="2.4374274909496307e-01" purity="1.0401470214128494e-01" nType="-99"/>
        </Node>
        <Node pos="r" depth="1" NCoef="0" IVar="37" Cut="-6.9601905345916748e-01" cType="1" res="-6.8664669990539551e-02" rms="2.3502944409847260e-01" purity="3.1628981232643127e-01" nType="0">
          <Node pos="l" depth="2" NCoef="0" IVar="-1" Cut="0.0000000000000000e+00" cType="1" res="-3.2509588636457920e-03" rms="2.5026401877403259e-01" purity="3.6926901340484619e-01" nType="-99"/>
          <Node pos="r" depth="2" NCoef="0" IVar="-1" Cut="0.0000000000000000e+00" cType="1" res="-9.5855696126818657e-03" rms="1.8105022609233856e-01" purity="1.8265137076377869e-01" nType="-99"/>
        </Node>
      </Node>
    </BinaryTree>
    <BinaryTree type="DecisionTree" boostWeight="1.0000000000000000e+00" itree="346">
      <Node pos="s" depth="0" NCoef="0" IVar="32" Cut="-1.5312186479568481e+00" cType="1" res="2.8867591172456741e-03" rms="2.6446726918220520e-01" purity="4.9845385551452637e-01" nType="0">
        <Node pos="l" depth="1" NCoef="0" IVar="56" Cut="1.4854199886322021e+00" cType="1" res="4.5782908797264099e-02" rms="2.5197538733482361e-01" purity="6.8677008152008057e-01" nType="0">
          <Node pos="l" depth="2" NCoef="0" IVar="-1" Cut="0.0000000000000000e+00" cType="1" res="3.3445814624428749e-03" rms="2.4620109796524048e-01" purity="7.2521293163299561e-01" nType="-99"/>
          <Node pos="r" depth="2" NCoef="0" IVar="-1" Cut="0.0000000000000000e+00" cType="1" res="-8.6747445166110992e-03" rms="2.7929556369781494e-01" purity="8.0393552780151367e-02" nType="-99"/>
        </Node>
        <Node pos="r" depth="1" NCoef="0" IVar="36" Cut="1.4857697486877441e+00" cType="1" res="-2.5499330833554268e-02" rms="2.6867941021919250e-01" purity="3.7383747100830078e-01" nType="0">
          <Node pos="l" depth="2" NCoef="0" IVar="-1" Cut="0.0000000000000000e+00" cType="1" res="-9.3911739531904459e-04" rms="2.7348428964614868e-01" purity="4.1450127959251404e-01" nType="-99"/>
          <Node pos="r" depth="2" NCoef="0" IVar="-1" Cut="0.0000000000000000e+00" cType="1" res="-9.4097498804330826e-03" rms="2.0786580443382263e-01" purity="4.8644680529832840e-02" nType="-99"/>
        </Node>
      </Node>
    </BinaryTree>
    <BinaryTree type="DecisionTree" boostWeight="1.0000000000000000e+00" itree="347">
      <Node pos="s" depth="0" NCoef="0" IVar="14" Cut="-1.4150160551071167e+00" cType="1" res="4.4345911592245102e-03" rms="2.6132884621620178e-01" purity="5.0138688087463379e-01" nType="0">
        <Node pos="l" depth="1" NCoef="0" IVar="58" Cut="4.7462987899780273e-01" cType="1" res="-1.2680998072028160e-02" rms="0.0000000000000000e+00" purity="-1.4262299053370953e-02" nType="-99"/>
        <Node pos="r" depth="1" NCoef="0" IVar="36" Cut="1.4853361845016479e+00" cType="1" res="2.0768953487277031e-02" rms="2.9822319746017456e-01" purity="6.3252663612365723e-01" nType="0">
          <Node pos="l" depth="2" NCoef="0" IVar="-1" Cut="0.0000000000000000e+00" cType="1" res="1.6122015658766031e-03" rms="2.9716724157333374e-01" purity="6.6731745004653931e-01" nType="-99"/>
          <Node pos="r" depth="2" NCoef="0" IVar="-1" Cut="0.0000000000000000e+00" cType="1" res="-8.7106702849268913e-03" rms="2.6940941810607910e-01" purity="8.0202206969261169e-02" nType="-99"/>
        </Node>
      </Node>
    </BinaryTree>
    <BinaryTree type="DecisionTree" boostWeight="1.0000000000000000e+00" itree="348">
      <Node pos="s" depth="0" NCoef="0" IVar="14" Cut="1.4478664398193359e+00" cType="1" res="3.1140600331127644e-03" rms="2.5905635952949524e-01" purity="5.0080853700637817e-01" nType="0">
        <Node pos="l" depth="1" NCoef="0" IVar="65" Cut="6.8470668792724609e-01" cType="1" res="-3.2853659242391586e-02" rms="2.2479742765426636e-01" purity="1.9236560165882111e-01" nType="0">
          <Node pos="l" depth="2" NCoef="0" IVar="-1" Cut="0.0000000000000000e+00" cType="1" res="-1.0791918030008674e-03" rms="2.4389521777629852e-01" purity="2.2947314381599426e-01" nType="-99"/>
          <Node pos="r" depth="2" NCoef="0" IVar="-1" Cut="0.0000000000000000e+00" cType="1" res="-9.5888515934348106e-03" rms="1.1178657412528992e-01" purity="5.9343405067920685e-02" nType="-99"/>
        </Node>
        <Node pos="r" depth="1" NCoef="0" IVar="56" Cut="1.5237022638320923e+00" cType="1" res="3.1673178076744080e-02" rms="2.8005230426788330e-01" purity="7.4571853876113892e-01" nType="0">
          <Node pos="l" depth="2" NCoef="0" IVar="-1" Cut="0.0000000000000000e+00" cType="1" res="2.1791036706417799e-03" rms="2.7762740850448608e-01" purity="7.7317684888839722e-01" nType="-99"/>
          <Node pos="r" depth="2" NCoef="0" IVar="-1" Cut="0.0000000000000000e+00" cType="1" res="-1.1603780090808868e-02" rms="2.3259122669696808e-01" purity="4.3166790157556534e-02" nType="-99"/>
        </Node>
      </Node>
    </BinaryTree>
    <BinaryTree type="DecisionTree" boostWeight="1.0000000000000000e+00" itree="349">
      <Node pos="s" depth="0" NCoef="0" IVar="17" Cut="-9.6234393119812012e-01" cType="1" res="2.8285330627113581e-03" rms="2.6078504323959351e-01" purity="5.0031036138534546e-01" nType="0">
        <Node pos="l" depth="1" NCoef="0" IVar="14" Cut="-1.3376259803771973e+00" cType="1" res="1.2705760076642036e-02" rms="2.6115715503692627e-01" purity="5.2290618419647217e-01" nType="0">
          <Node pos="l" depth="2" NCoef="0" IVar="-1" Cut="0.0000000000000000e+00" cType="1" res="-1.1014021001756191e-02" rms="0.0000000000000000e+00" purity="-6.6513009369373322e-03" nType="-99"/>
          <Node pos="r" depth="2" NCoef="0" IVar="-1" Cut="0.0000000000000000e+00" cType="1" res="1.6679046675562859e-03" rms="2.9860290884971619e-01" purity="6.7055344581604004e-01" nType="-99"/>
        </Node>
        <Node pos="r" depth="1" NCoef="0" IVar="17" Cut="-6.4877080917358398e-01" cType="1" res="-1.0340247303247452e-01" rms="2.3148591816425323e-01" purity="2.5728869438171387e-01" nType="0">
          <Node pos="l" depth="2" NCoef="0" IVar="-1" Cut="0.0000000000000000e+00" cType="1" res="-5.3597800433635712e-03" rms="2.3690955340862274e-01" purity="3.0588194727897644e-01" nType="-99"/>
          <Node pos="r" depth="2" NCoef="0" IVar="-1" Cut="0.0000000000000000e+00" cType="1" res="-1.0783484205603600e-02" rms="2.1620519459247589e-01" purity="1.8419794738292694e-01" nType="-99"/>
        </Node>
      </Node>
    </BinaryTree>
    <BinaryTree type="DecisionTree" boostWeight="1.0000000000000000e+00" itree="350">
      <Node pos="s" depth="0" NCoef="0" IVar="14" Cut="1.4871129989624023e+00" cType="1" res="3.0150716193020344e-03" rms="2.6059004664421082e-01" purity="5.0098919868469238e-01" nType="0">
        <Node pos="l" depth="1" NCoef="0" IVar="65" Cut="7.0718294382095337e-01" cType="1" res="-2.9943311586976051e-02" rms="2.3850245773792267e-01" purity="2.4034459888935089e-01" nType="0">
          <Node pos="l" depth="2" NCoef="0" IVar="-1" Cut="0.0000000000000000e+00" cType="1" res="-9.0208824258297682e-04" rms="2.5294503569602966e-01" purity="2.7780476212501526e-01" nType="-99"/>
          <Node pos="r" depth="2" NCoef="0" IVar="-1" Cut="0.0000000000000000e+00" cType="1" res="-9.7265858203172684e-03" rms="1.3281960785388947e-01" purity="7.3509074747562408e-02" nType="-99"/>
        </Node>
        <Node pos="r" depth="1" NCoef="0" IVar="56" Cut="1.4850335121154785e+00" cType="1" res="3.5662714391946793e-02" rms="2.7692076563835144e-01" purity="7.5917631387710571e-01" nType="0">
          <Node pos="l" depth="2" NCoef="0" IVar="-1" Cut="0.0000000000000000e+00" cType="1" res="2.5174240581691265e-03" rms="2.7028268575668335e-01" purity="8.0042469501495361e-01" nType="-99"/>
          <Node pos="r" depth="2" NCoef="0" IVar="-1" Cut="0.0000000000000000e+00" cType="1" res="-7.7654393389821053e-03" rms="3.1918084621429443e-01" purity="1.1402720957994461e-01" nType="-99"/>
        </Node>
      </Node>
    </BinaryTree>
    <BinaryTree type="DecisionTree" boostWeight="1.0000000000000000e+00" itree="351">
      <Node pos="s" depth="0" NCoef="0" IVar="17" Cut="-9.9302250146865845e-01" cType="1" res="1.5101257013157010e-03" rms="2.6137664914131165e-01" purity="4.9964982271194458e-01" nType="0">
        <Node pos="l" depth="1" NCoef="0" IVar="14" Cut="-1.3763252496719360e+00" cType="1" res="1.1935103684663773e-02" rms="2.6131585240364075e-01" purity="5.2393919229507446e-01" nType="0">
          <Node pos="l" depth="2" NCoef="0" IVar="-1" Cut="0.0000000000000000e+00" cType="1" res="-1.0842168703675270e-02" rms="0.0000000000000000e+00" purity="-5.7233534753322601e-03" nType="-99"/>
          <Node pos="r" depth="2" NCoef="0" IVar="-1" Cut="0.0000000000000000e+00" cType="1" res="1.5213589649647474e-03" rms="2.9682758450508118e-01" purity="6.6520917415618896e-01" nType="-99"/>
        </Node>
        <Node pos="r" depth="1" NCoef="0" IVar="9" Cut="2.7706005573272705e+00" cType="1" res="-9.9589735269546509e-02" rms="2.3948028683662415e-01" purity="2.6409485936164856e-01" nType="0">
          <Node pos="l" depth="2" NCoef="0" IVar="-1" Cut="0.0000000000000000e+00" cType="1" res="-1.3175347819924355e-02" rms="1.5081681311130524e-01" purity="6.6980808973312378e-02" nType="-99"/>
          <Node pos="r" depth="2" NCoef="0" IVar="-1" Cut="0.0000000000000000e+00" cType="1" res="-5.4535479284822941e-03" rms="2.5993356108665466e-01" purity="3.3282798528671265e-01" nType="-99"/>
        </Node>
      </Node>
    </BinaryTree>
    <BinaryTree type="DecisionTree" boostWeight="1.0000000000000000e+00" itree="352">
      <Node pos="s" depth="0" NCoef="0" IVar="32" Cut="-1.5312128067016602e+00" cType="1" res="1.1989161139354110e-03" rms="2.5875946879386902e-01" purity="4.9915954470634460e-01" nType="0">
        <Node pos="l" depth="1" NCoef="0" IVar="54" Cut="1.3318732976913452e+00" cType="1" res="4.1056558489799500e-02" rms="2.4302878975868225e-01" purity="6.8358439207077026e-01" nType="0">
          <Node pos="l" depth="2" NCoef="0" IVar="-1" Cut="0.0000000000000000e+00" cType="1" res="3.2918357755988836e-03" rms="2.3156064748764038e-01" purity="7.4042552709579468e-01" nType="-99"/>
          <Node pos="r" depth="2" NCoef="0" IVar="-1" Cut="0.0000000000000000e+00" cType="1" res="-5.7043633423745632e-03" rms="3.0178147554397583e-01" purity="1.5938830375671387e-01" nType="-99"/>
        </Node>
        <Node pos="r" depth="1" NCoef="0" IVar="25" Cut="1.1413525342941284e+00" cType="1" res="-2.4804078042507172e-02" rms="2.6531782746315002e-01" purity="3.7884137034416199e-01" nType="0">
          <Node pos="l" depth="2" NCoef="0" IVar="-1" Cut="0.0000000000000000e+00" cType="1" res="-9.3940617516636848e-03" rms="1.1892751604318619e-01" purity="5.0185240805149078e-02" nType="-99"/>
          <Node pos="r" depth="2" NCoef="0" IVar="-1" Cut="0.0000000000000000e+00" cType="1" res="-5.9215561486780643e-04" rms="2.8661188483238220e-01" purity="4.5451995730400085e-01" nType="-99"/>
        </Node>
      </Node>
    </BinaryTree>
    <BinaryTree type="DecisionTree" boostWeight="1.0000000000000000e+00" itree="353">
      <Node pos="s" depth="0" NCoef="0" IVar="14" Cut="-1.4537111520767212e+00" cType="1" res="1.4346326934173703e-03" rms="2.5894048810005188e-01" purity="4.9809026718139648e-01" nType="0">
        <Node pos="l" depth="1" NCoef="0" IVar="15" Cut="7.0823854207992554e-01" cType="1" res="-1.5047538094222546e-02" rms="0.0000000000000000e+00" purity="-2.3843150585889816e-02" nType="-99"/>
        <Node pos="r" depth="1" NCoef="0" IVar="32" Cut="1.2082173824310303e+00" cType="1" res="1.6801316291093826e-02" rms="2.9587820172309875e-01" purity="6.1855375766754150e-01" nType="0">
          <Node pos="l" depth="2" NCoef="0" IVar="-1" Cut="0.0000000000000000e+00" cType="1" res="1.6633810009807348e-03" rms="2.9384911060333252e-01" purity="6.7718571424484253e-01" nType="-99"/>
          <Node pos="r" depth="2" NCoef="0" IVar="-1" Cut="0.0000000000000000e+00" cType="1" res="-4.9012489616870880e-03" rms="2.9086178541183472e-01" purity="2.0983332395553589e-01" nType="-99"/>
        </Node>
      </Node>
    </BinaryTree>
    <BinaryTree type="DecisionTree" boostWeight="1.0000000000000000e+00" itree="354">
      <Node pos="s" depth="0" NCoef="0" IVar="34" Cut="1.4480490684509277e+00" cType="1" res="3.2856853213161230e-03" rms="2.6179119944572449e-01" purity="4.9951171875000000e-01" nType="0">
        <Node pos="l" depth="1" NCoef="0" IVar="45" Cut="1.1683771610260010e+00" cType="1" res="1.3026655651628971e-02" rms="2.6508113741874695e-01" purity="5.3970342874526978e-01" nType="0">
          <Node pos="l" depth="2" NCoef="0" IVar="-1" Cut="0.0000000000000000e+00" cType="1" res="-6.0920407995581627e-03" rms="1.9165095686912537e-01" purity="1.2318830192089081e-01" nType="-99"/>
          <Node pos="r" depth="2" NCoef="0" IVar="-1" Cut="0.0000000000000000e+00" cType="1" res="1.5753231709823012e-03" rms="2.7249652147293091e-01" purity="6.0570967197418213e-01" nType="-99"/>
        </Node>
        <Node pos="r" depth="1" NCoef="0" IVar="14" Cut="1.7040950059890747e-01" cType="1" res="-1.0233671218156815e-01" rms="1.9378945231437683e-01" purity="6.3708633184432983e-02" nType="0">
          <Node pos="l" depth="2" NCoef="0" IVar="-1" Cut="0.0000000000000000e+00" cType="1" res="-2.0006725564599037e-02" rms="0.0000000000000000e+00" purity="-3.0320888385176659e-02" nType="-99"/>
          <Node pos="r" depth="2" NCoef="0" IVar="-1" Cut="0.0000000000000000e+00" cType="1" res="-7.7751092612743378e-03" rms="3.0381044745445251e-01" purity="1.4033122360706329e-01" nType="-99"/>
        </Node>
      </Node>
    </BinaryTree>
    <BinaryTree type="DecisionTree" boostWeight="1.0000000000000000e+00" itree="355">
      <Node pos="s" depth="0" NCoef="0" IVar="45" Cut="1.5293642282485962e+00" cType="1" res="3.7093120627105236e-03" rms="2.6210135221481323e-01" purity="5.0137954950332642e-01" nType="0">
        <Node pos="l" depth="1" NCoef="0" IVar="0" Cut="6.6557866334915161e-01" cType="1" res="-5.3858332335948944e-02" rms="2.0223994553089142e-01" purity="1.6845037043094635e-01" nType="0">
          <Node pos="l" depth="2" NCoef="0" IVar="-1" Cut="0.0000000000000000e+00" cType="1" res="-1.3844775967299938e-03" rms="2.4190206825733185e-01" purity="2.4270795285701752e-01" nType="-99"/>
          <Node pos="r" depth="2" NCoef="0" IVar="-1" Cut="0.0000000000000000e+00" cType="1" res="-9.5287095755338669e-03" rms="1.1837954074144363e-01" purity="7.0053428411483765e-02" nType="-99"/>
        </Node>
        <Node pos="r" depth="1" NCoef="0" IVar="2" Cut="1.3089874982833862e+00" cType="1" res="2.2329488769173622e-02" rms="2.7616861462593079e-01" purity="6.0906493663787842e-01" nType="0">
          <Node pos="l" depth="2" NCoef="0" IVar="-1" Cut="0.0000000000000000e+00" cType="1" res="-5.0089550204575062e-03" rms="2.6874318718910217e-01" purity="1.8111123144626617e-01" nType="-99"/>
          <Node pos="r" depth="2" NCoef="0" IVar="-1" Cut="0.0000000000000000e+00" cType="1" res="1.9819568842649460e-03" rms="2.7429166436195374e-01" purity="6.4450484514236450e-01" nType="-99"/>
        </Node>
      </Node>
    </BinaryTree>
    <BinaryTree type="DecisionTree" boostWeight="1.0000000000000000e+00" itree="356">
      <Node pos="s" depth="0" NCoef="0" IVar="36" Cut="1.4471486806869507e+00" cType="1" res="3.4244770649820566e-03" rms="2.5954619050025940e-01" purity="4.9913835525512695e-01" nType="0">
        <Node pos="l" depth="1" NCoef="0" IVar="25" Cut="1.1099817752838135e+00" cType="1" res="1.2995489872992039e-02" rms="2.6222905516624451e-01" purity="5.3931260108947754e-01" nType="0">
          <Node pos="l" depth="2" NCoef="0" IVar="-1" Cut="0.0000000000000000e+00" cType="1" res="-6.8938792683184147e-03" rms="1.6127137839794159e-01" purity="9.6771635115146637e-02" nType="-99"/>
          <Node pos="r" depth="2" NCoef="0" IVar="-1" Cut="0.0000000000000000e+00" cType="1" res="1.5839119441807270e-03" rms="2.7179446816444397e-01" purity="6.0695916414260864e-01" nType="-99"/>
        </Node>
        <Node pos="r" depth="1" NCoef="0" IVar="29" Cut="3.3713884353637695e+00" cType="1" res="-1.0055167973041534e-01" rms="2.0087440311908722e-01" purity="6.2698706984519958e-02" nType="0">
          <Node pos="l" depth="2" NCoef="0" IVar="-1" Cut="0.0000000000000000e+00" cType="1" res="-6.8213138729333878e-03" rms="1.6902467608451843e-01" purity="6.4946234226226807e-02" nType="-99"/>
          <Node pos="r" depth="2" NCoef="0" IVar="-1" Cut="0.0000000000000000e+00" cType="1" res="-1.0706694796681404e-02" rms="2.3799288272857666e-01" purity="5.8759234845638275e-02" nType="-99"/>
        </Node>
      </Node>
    </BinaryTree>
    <BinaryTree type="DecisionTree" boostWeight="1.0000000000000000e+00" itree="357">
      <Node pos="s" depth="0" NCoef="0" IVar="37" Cut="-1.2571998834609985e+00" cType="1" res="5.1401224918663502e-03" rms="2.6209425926208496e-01" purity="5.0186675786972046e-01" nType="0">
        <Node pos="l" depth="1" NCoef="0" IVar="34" Cut="1.4473505020141602e+00" cType="1" res="1.9186036661267281e-02" rms="2.6537609100341797e-01" purity="5.3889554738998413e-01" nType="0">
          <Node pos="l" depth="2" NCoef="0" IVar="-1" Cut="0.0000000000000000e+00" cType="1" res="1.7319091130048037e-03" rms="2.6657077670097351e-01" purity="5.7807517051696777e-01" nType="-99"/>
          <Node pos="r" depth="2" NCoef="0" IVar="-1" Cut="0.0000000000000000e+00" cType="1" res="-7.7820252627134323e-03" rms="2.2385272383689880e-01" purity="8.4432177245616913e-02" nType="-99"/>
        </Node>
        <Node pos="r" depth="1" NCoef="0" IVar="33" Cut="-1.4925282001495361e+00" cType="1" res="-6.4150221645832062e-02" rms="2.3319387435913086e-01" purity="3.1919893622398376e-01" nType="0">
          <Node pos="l" depth="2" NCoef="0" IVar="-1" Cut="0.0000000000000000e+00" cType="1" res="-4.0859429282136261e-04" rms="2.6048853993415833e-01" purity="5.0321507453918457e-01" nType="-99"/>
          <Node pos="r" depth="2" NCoef="0" IVar="-1" Cut="0.0000000000000000e+00" cType="1" res="-6.6243945620954037e-03" rms="2.1716347336769104e-01" purity="2.4606361985206604e-01" nType="-99"/>
        </Node>
      </Node>
    </BinaryTree>
    <BinaryTree type="DecisionTree" boostWeight="1.0000000000000000e+00" itree="358">
      <Node pos="s" depth="0" NCoef="0" IVar="2" Cut="9.2962068319320679e-01" cType="1" res="6.9216778501868248e-04" rms="2.5927624106407166e-01" purity="5.0016772747039795e-01" nType="0">
        <Node pos="l" depth="1" NCoef="0" IVar="60" Cut="-1.2845294177532196e-01" cType="1" res="-8.4534594789147377e-03" rms="0.0000000000000000e+00" purity="1.1609210632741451e-02" nType="-99"/>
        <Node pos="r" depth="1" NCoef="0" IVar="45" Cut="1.0835309028625488e+00" cType="1" res="8.2223163917660713e-03" rms="2.6291429996490479e-01" purity="5.2293121814727783e-01" nType="0">
          <Node pos="l" depth="2" NCoef="0" IVar="-1" Cut="0.0000000000000000e+00" cType="1" res="-7.2942106053233147e-03" rms="1.5347865223884583e-01" purity="9.3252338469028473e-02" nType="-99"/>
          <Node pos="r" depth="2" NCoef="0" IVar="-1" Cut="0.0000000000000000e+00" cType="1" res="1.2678906787186861e-03" rms="2.7269968390464783e-01" purity="5.8379536867141724e-01" nType="-99"/>
        </Node>
      </Node>
    </BinaryTree>
    <BinaryTree type="DecisionTree" boostWeight="1.0000000000000000e+00" itree="359">
      <Node pos="s" depth="0" NCoef="0" IVar="2" Cut="4.7321304678916931e-01" cType="1" res="2.0029151346534491e-03" rms="2.5853949785232544e-01" purity="4.9864125251770020e-01" nType="0">
        <Node pos="l" depth="1" NCoef="0" IVar="-1" Cut="0.0000000000000000e+00" cType="1" res="-9.9621238186955452e-03" rms="0.0000000000000000e+00" purity="-6.0337267816066742e-02" nType="-99"/>
        <Node pos="r" depth="1" NCoef="0" IVar="14" Cut="-1.1054556369781494e+00" cType="1" res="6.7296768538653851e-03" rms="2.6078411936759949e-01" purity="5.1054060459136963e-01" nType="0">
          <Node pos="l" depth="2" NCoef="0" IVar="-1" Cut="0.0000000000000000e+00" cType="1" res="-8.5990782827138901e-03" rms="0.0000000000000000e+00" purity="1.2623485177755356e-02" nType="-99"/>
          <Node pos="r" depth="2" NCoef="0" IVar="-1" Cut="0.0000000000000000e+00" cType="1" res="1.3568392023444176e-03" rms="3.0047026276588440e-01" purity="6.7360186576843262e-01" nType="-99"/>
        </Node>
      </Node>
    </BinaryTree>
    <BinaryTree type="DecisionTree" boostWeight="1.0000000000000000e+00" itree="360">
      <Node pos="s" depth="0" NCoef="0" IVar="57" Cut="-1.0327688455581665e+00" cType="1" res="4.4485535472631454e-03" rms="2.6144641637802124e-01" purity="5.0292778015136719e-01" nType="0">
        <Node pos="l" depth="1" NCoef="0" IVar="14" Cut="-1.4537111520767212e+00" cType="1" res="1.6143009066581726e-02" rms="2.6378071308135986e-01" purity="5.3364372253417969e-01" nType="0">
          <Node pos="l" depth="2" NCoef="0" IVar="-1" Cut="0.0000000000000000e+00" cType="1" res="-1.1455195955932140e-02" rms="0.0000000000000000e+00" purity="-8.3045456558465958e-03" nType="-99"/>
          <Node pos="r" depth="2" NCoef="0" IVar="-1" Cut="0.0000000000000000e+00" cType="1" res="1.6575884073972702e-03" rms="2.9361864924430847e-01" purity="6.5244358777999878e-01" nType="-99"/>
        </Node>
        <Node pos="r" depth="1" NCoef="0" IVar="53" Cut="-1.1832617521286011e+00" cType="1" res="-8.8700041174888611e-02" rms="2.2095845639705658e-01" purity="2.5826922059059143e-01" nType="0">
          <Node pos="l" depth="2" NCoef="0" IVar="-1" Cut="0.0000000000000000e+00" cType="1" res="-4.5396252535283566e-03" rms="2.4958799779415131e-01" purity="3.4046506881713867e-01" nType="-99"/>
          <Node pos="r" depth="2" NCoef="0" IVar="-1" Cut="0.0000000000000000e+00" cType="1" res="-9.9779134616255760e-03" rms="1.7787189781665802e-01" purity="1.6473762691020966e-01" nType="-99"/>
        </Node>
      </Node>
    </BinaryTree>
    <BinaryTree type="DecisionTree" boostWeight="1.0000000000000000e+00" itree="361">
      <Node pos="s" depth="0" NCoef="0" IVar="2" Cut="1.8501082658767700e+00" cType="1" res="3.8228451739996672e-03" rms="2.5682348012924194e-01" purity="5.0088471174240112e-01" nType="0">
        <Node pos="l" depth="1" NCoef="0" IVar="2" Cut="7.6218050718307495e-01" cType="1" res="-4.6253658831119537e-02" rms="2.1432605385780334e-01" purity="2.0672680437564850e-01" nType="0">
          <Node pos="l" depth="2" NCoef="0" IVar="-1" Cut="0.0000000000000000e+00" cType="1" res="-7.8304577618837357e-03" rms="1.1009471118450165e-01" purity="1.5492377802729607e-02" nType="-99"/>
          <Node pos="r" depth="2" NCoef="0" IVar="-1" Cut="0.0000000000000000e+00" cType="1" res="-2.3434632457792759e-03" rms="2.2079652547836304e-01" purity="2.3218202590942383e-01" nType="-99"/>
        </Node>
        <Node pos="r" depth="1" NCoef="0" IVar="0" Cut="9.1089189052581787e-01" cType="1" res="2.5393093004822731e-02" rms="2.7025455236434937e-01" purity="6.2759202718734741e-01" nType="0">
          <Node pos="l" depth="2" NCoef="0" IVar="-1" Cut="0.0000000000000000e+00" cType="1" res="2.4690628051757812e-03" rms="2.6358845829963684e-01" purity="6.5961444377899170e-01" nType="-99"/>
          <Node pos="r" depth="2" NCoef="0" IVar="-1" Cut="0.0000000000000000e+00" cType="1" res="-4.0162820369005203e-03" rms="2.9082608222961426e-01" purity="4.4816502928733826e-01" nType="-99"/>
        </Node>
      </Node>
    </BinaryTree>
    <BinaryTree type="DecisionTree" boostWeight="1.0000000000000000e+00" itree="362">
      <Node pos="s" depth="0" NCoef="0" IVar="2" Cut="5.5746024847030640e-01" cType="1" res="2.4691112339496613e-03" rms="2.5984525680541992e-01" purity="5.0022149085998535e-01" nType="0">
        <Node pos="l" depth="1" NCoef="0" IVar="-1" Cut="0.0000000000000000e+00" cType="1" res="-9.6496725454926491e-03" rms="0.0000000000000000e+00" purity="-4.8557020723819733e-02" nType="-99"/>
        <Node pos="r" depth="1" NCoef="0" IVar="14" Cut="-1.4150160551071167e+00" cType="1" res="7.4016512371599674e-03" rms="2.6197823882102966e-01" purity="5.1348429918289185e-01" nType="0">
          <Node pos="l" depth="2" NCoef="0" IVar="-1" Cut="0.0000000000000000e+00" cType="1" res="-1.2771890498697758e-02" rms="0.0000000000000000e+00" purity="-1.3849916867911816e-02" nType="-99"/>
          <Node pos="r" depth="2" NCoef="0" IVar="-1" Cut="0.0000000000000000e+00" cType="1" res="1.2623869115486741e-03" rms="2.9856014251708984e-01" purity="6.4647495746612549e-01" nType="-99"/>
        </Node>
      </Node>
    </BinaryTree>
    <BinaryTree type="DecisionTree" boostWeight="1.0000000000000000e+00" itree="363">
      <Node pos="s" depth="0" NCoef="0" IVar="37" Cut="-1.1710631847381592e+00" cType="1" res="4.3627629056572914e-03" rms="2.6088893413543701e-01" purity="5.0244116783142090e-01" nType="0">
        <Node pos="l" depth="1" NCoef="0" IVar="45" Cut="1.0475789308547974e+00" cType="1" res="1.7142198979854584e-02" rms="2.6314923167228699e-01" purity="5.3762269020080566e-01" nType="0">
          <Node pos="l" depth="2" NCoef="0" IVar="-1" Cut="0.0000000000000000e+00" cType="1" res="-6.7397500388324261e-03" rms="1.6900956630706787e-01" purity="9.6321254968643188e-02" nType="-99"/>
          <Node pos="r" depth="2" NCoef="0" IVar="-1" Cut="0.0000000000000000e+00" cType="1" res="1.7073132330551744e-03" rms="2.7028948068618774e-01" purity="5.9106767177581787e-01" nType="-99"/>
        </Node>
        <Node pos="r" depth="1" NCoef="0" IVar="25" Cut="1.5041911602020264e+00" cType="1" res="-7.0277564227581024e-02" rms="2.3370878398418427e-01" purity="2.9695773124694824e-01" nType="0">
          <Node pos="l" depth="2" NCoef="0" IVar="-1" Cut="0.0000000000000000e+00" cType="1" res="-1.1421948671340942e-02" rms="0.0000000000000000e+00" purity="4.8610396683216095e-02" nType="-99"/>
          <Node pos="r" depth="2" NCoef="0" IVar="-1" Cut="0.0000000000000000e+00" cType="1" res="-2.8266829904168844e-03" rms="2.9262277483940125e-01" purity="4.4326213002204895e-01" nType="-99"/>
        </Node>
      </Node>
    </BinaryTree>
    <BinaryTree type="DecisionTree" boostWeight="1.0000000000000000e+00" itree="364">
      <Node pos="s" depth="0" NCoef="0" IVar="2" Cut="8.7479454278945923e-01" cType="1" res="4.7609936445951462e-03" rms="2.5948104262351990e-01" purity="5.0166308879852295e-01" nType="0">
        <Node pos="l" depth="1" NCoef="0" IVar="-1" Cut="0.0000000000000000e+00" cType="1" res="-7.2813387960195541e-03" rms="1.1103416234254837e-01" purity="2.1137772127985954e-02" nType="-99"/>
        <Node pos="r" depth="1" NCoef="0" IVar="45" Cut="1.1382086277008057e+00" cType="1" res="1.0776966810226440e-02" rms="2.6209336519241333e-01" purity="5.2153068780899048e-01" nType="0">
          <Node pos="l" depth="2" NCoef="0" IVar="-1" Cut="0.0000000000000000e+00" cType="1" res="-6.4456425607204437e-03" rms="1.6876956820487976e-01" purity="1.0021352022886276e-01" nType="-99"/>
          <Node pos="r" depth="2" NCoef="0" IVar="-1" Cut="0.0000000000000000e+00" cType="1" res="1.4408899005502462e-03" rms="2.7176579833030701e-01" purity="5.8757168054580688e-01" nType="-99"/>
        </Node>
      </Node>
    </BinaryTree>
    <BinaryTree type="DecisionTree" boostWeight="1.0000000000000000e+00" itree="365">
      <Node pos="s" depth="0" NCoef="0" IVar="54" Cut="1.2544955015182495e+00" cType="1" res="3.0352950561791658e-03" rms="2.6189798116683960e-01" purity="4.9965193867683411e-01" nType="0">
        <Node pos="l" depth="1" NCoef="0" IVar="45" Cut="1.0745511054992676e+00" cType="1" res="1.5652263537049294e-02" rms="2.6389589905738831e-01" purity="5.5830454826354980e-01" nType="0">
          <Node pos="l" depth="2" NCoef="0" IVar="-1" Cut="0.0000000000000000e+00" cType="1" res="-6.9292774423956871e-03" rms="1.6913685202598572e-01" purity="9.8113715648651123e-02" nType="-99"/>
          <Node pos="r" depth="2" NCoef="0" IVar="-1" Cut="0.0000000000000000e+00" cType="1" res="1.7037116922438145e-03" rms="2.7198085188865662e-01" purity="6.2186592817306519e-01" nType="-99"/>
        </Node>
        <Node pos="r" depth="1" NCoef="0" IVar="49" Cut="3.4369866847991943e+00" cType="1" res="-8.0510474741458893e-02" rms="2.3151786625385284e-01" purity="1.1127198487520218e-01" nType="0">
          <Node pos="l" depth="2" NCoef="0" IVar="-1" Cut="0.0000000000000000e+00" cType="1" res="-4.6721221879124641e-03" rms="2.2477816045284271e-01" purity="1.0843516141176224e-01" nType="-99"/>
          <Node pos="r" depth="2" NCoef="0" IVar="-1" Cut="0.0000000000000000e+00" cType="1" res="-9.6393646672368050e-03" rms="2.3456357419490814e-01" purity="1.1707231402397156e-01" nType="-99"/>
        </Node>
      </Node>
    </BinaryTree>
    <BinaryTree type="DecisionTree" boostWeight="1.0000000000000000e+00" itree="366">
      <Node pos="s" depth="0" NCoef="0" IVar="2" Cut="7.1521973609924316e-01" cType="1" res="2.9814403969794512e-03" rms="2.6142060756683350e-01" purity="5.0113284587860107e-01" nType="0">
        <Node pos="l" depth="1" NCoef="0" IVar="-1" Cut="0.0000000000000000e+00" cType="1" res="-8.7908720597624779e-03" rms="0.0000000000000000e+00" purity="-2.4029089137911797e-02" nType="-99"/>
        <Node pos="r" depth="1" NCoef="0" IVar="36" Cut="-1.4924387931823730e+00" cType="1" res="8.5749896243214607e-03" rms="2.6433312892913818e-01" purity="5.1770848035812378e-01" nType="0">
          <Node pos="l" depth="2" NCoef="0" IVar="-1" Cut="0.0000000000000000e+00" cType="1" res="2.1818005479872227e-03" rms="2.5646474957466125e-01" purity="6.4819955825805664e-01" nType="-99"/>
          <Node pos="r" depth="2" NCoef="0" IVar="-1" Cut="0.0000000000000000e+00" cType="1" res="-2.0993733778595924e-03" rms="2.7106866240501404e-01" purity="3.2087787985801697e-01" nType="-99"/>
        </Node>
      </Node>
    </BinaryTree>
    <BinaryTree type="DecisionTree" boostWeight="1.0000000000000000e+00" itree="367">
      <Node pos="s" depth="0" NCoef="0" IVar="2" Cut="9.9917691946029663e-01" cType="1" res="8.9313910575583577e-04" rms="2.5902581214904785e-01" purity="4.9798920750617981e-01" nType="0">
        <Node pos="l" depth="1" NCoef="0" IVar="2" Cut="5.6075084209442139e-01" cType="1" res="-1.3042528927326202e-01" rms="1.1691742390394211e-01" purity="4.9393791705369949e-02" nType="0">
          <Node pos="l" depth="2" NCoef="0" IVar="-1" Cut="0.0000000000000000e+00" cType="1" res="-9.5497975125908852e-03" rms="0.0000000000000000e+00" purity="-5.2948888391256332e-02" nType="-99"/>
          <Node pos="r" depth="2" NCoef="0" IVar="-1" Cut="0.0000000000000000e+00" cType="1" res="-4.8584584146738052e-03" rms="2.2298179566860199e-01" purity="1.3142119348049164e-01" nType="-99"/>
        </Node>
        <Node pos="r" depth="1" NCoef="0" IVar="1" Cut="2.0470592975616455e+00" cType="1" res="8.2043567672371864e-03" rms="2.6278367638587952e-01" purity="5.2296501398086548e-01" nType="0">
          <Node pos="l" depth="2" NCoef="0" IVar="-1" Cut="0.0000000000000000e+00" cType="1" res="-1.0190548375248909e-02" rms="0.0000000000000000e+00" purity="1.1658517643809319e-02" nType="-99"/>
          <Node pos="r" depth="2" NCoef="0" IVar="-1" Cut="0.0000000000000000e+00" cType="1" res="1.1771838180720806e-03" rms="2.7968603372573853e-01" purity="5.8568358421325684e-01" nType="-99"/>
        </Node>
      </Node>
    </BinaryTree>
    <BinaryTree type="DecisionTree" boostWeight="1.0000000000000000e+00" itree="368">
      <Node pos="s" depth="0" NCoef="0" IVar="32" Cut="-1.5312049388885498e+00" cType="1" res="3.8676885887980461e-03" rms="2.6286503672599792e-01" purity="5.0046658515930176e-01" nType="0">
        <Node pos="l" depth="1" NCoef="0" IVar="14" Cut="-1.4537452459335327e+00" cType="1" res="4.1664279997348785e-02" rms="2.5104311108589172e-01" purity="6.8441075086593628e-01" nType="0">
          <Node pos="l" depth="2" NCoef="0" IVar="-1" Cut="0.0000000000000000e+00" cType="1" res="-8.5539314895868301e-03" rms="3.7245575338602066e-02" purity="6.1478200368583202e-03" nType="-99"/>
          <Node pos="r" depth="2" NCoef="0" IVar="-1" Cut="0.0000000000000000e+00" cType="1" res="3.1497399322688580e-03" rms="2.6730501651763916e-01" purity="7.9419428110122681e-01" nType="-99"/>
        </Node>
        <Node pos="r" depth="1" NCoef="0" IVar="25" Cut="1.5679397583007812e+00" cType="1" res="-2.0791385322809219e-02" rms="2.6743522286415100e-01" purity="3.8045856356620789e-01" nType="0">
          <Node pos="l" depth="2" NCoef="0" IVar="-1" Cut="0.0000000000000000e+00" cType="1" res="-5.5329124443233013e-03" rms="1.7955355346202850e-01" purity="1.2616528570652008e-01" nType="-99"/>
          <Node pos="r" depth="2" NCoef="0" IVar="-1" Cut="0.0000000000000000e+00" cType="1" res="-2.6944317141897045e-06" rms="2.9939168691635132e-01" purity="5.0614190101623535e-01" nType="-99"/>
        </Node>
      </Node>
    </BinaryTree>
    <BinaryTree type="DecisionTree" boostWeight="1.0000000000000000e+00" itree="369">
      <Node pos="s" depth="0" NCoef="0" IVar="52" Cut="-1.5312020778656006e+00" cType="1" res="2.8197844512760639e-03" rms="2.6028516888618469e-01" purity="4.9695938825607300e-01" nType="0">
        <Node pos="l" depth="1" NCoef="0" IVar="36" Cut="1.3697910308837891e+00" cType="1" res="4.0193196386098862e-02" rms="2.4948453903198242e-01" purity="6.8268245458602905e-01" nType="0">
          <Node pos="l" depth="2" NCoef="0" IVar="-1" Cut="0.0000000000000000e+00" cType="1" res="3.2040893565863371e-03" rms="2.4090595543384552e-01" purity="7.3098880052566528e-01" nType="-99"/>
          <Node pos="r" depth="2" NCoef="0" IVar="-1" Cut="0.0000000000000000e+00" cType="1" res="-6.1658294871449471e-03" rms="3.0065822601318359e-01" purity="1.4239014685153961e-01" nType="-99"/>
        </Node>
        <Node pos="r" depth="1" NCoef="0" IVar="56" Cut="1.5238658189773560e+00" cType="1" res="-2.1777566522359848e-02" rms="2.6428717374801636e-01" purity="3.7472558021545410e-01" nType="0">
          <Node pos="l" depth="2" NCoef="0" IVar="-1" Cut="0.0000000000000000e+00" cType="1" res="-9.1744808014482260e-04" rms="2.6761305332183838e-01" purity="3.9934214949607849e-01" nType="-99"/>
          <Node pos="r" depth="2" NCoef="0" IVar="-1" Cut="0.0000000000000000e+00" cType="1" res="-1.1827130801975727e-02" rms="1.7500154674053192e-01" purity="1.9800715148448944e-02" nType="-99"/>
        </Node>
      </Node>
    </BinaryTree>
    <BinaryTree type="DecisionTree" boostWeight="1.0000000000000000e+00" itree="370">
      <Node pos="s" depth="0" NCoef="0" IVar="17" Cut="-1.2878465652465820e+00" cType="1" res="1.0252640349790454e-03" rms="2.5927203893661499e-01" purity="4.9793946743011475e-01" nType="0">
        <Node pos="l" depth="1" NCoef="0" IVar="14" Cut="-1.4150193929672241e+00" cType="1" res="1.5546472743153572e-02" rms="2.6069924235343933e-01" purity="5.3302711248397827e-01" nType="0">
          <Node pos="l" depth="2" NCoef="0" IVar="-1" Cut="0.0000000000000000e+00" cType="1" res="-1.1455101892352104e-02" rms="0.0000000000000000e+00" purity="-7.9765124246478081e-03" nType="-99"/>
          <Node pos="r" depth="2" NCoef="0" IVar="-1" Cut="0.0000000000000000e+00" cType="1" res="1.6930165002122521e-03" rms="2.9415610432624817e-01" purity="6.6767227649688721e-01" nType="-99"/>
        </Node>
        <Node pos="r" depth="1" NCoef="0" IVar="14" Cut="1.5241698026657104e+00" cType="1" res="-7.5282335281372070e-02" rms="2.3746858537197113e-01" purity="3.1355720758438110e-01" nType="0">
          <Node pos="l" depth="2" NCoef="0" IVar="-1" Cut="0.0000000000000000e+00" cType="1" res="-7.6663582585752010e-03" rms="2.0480147004127502e-01" purity="1.9082082808017731e-01" nType="-99"/>
          <Node pos="r" depth="2" NCoef="0" IVar="-1" Cut="0.0000000000000000e+00" cType="1" res="-5.3083797683939338e-04" rms="3.0801081657409668e-01" purity="6.8927806615829468e-01" nType="-99"/>
        </Node>
      </Node>
    </BinaryTree>
    <BinaryTree type="DecisionTree" boostWeight="1.0000000000000000e+00" itree="371">
      <Node pos="s" depth="0" NCoef="0" IVar="32" Cut="-1.4540457725524902e+00" cType="1" res="4.5721398782916367e-04" rms="2.5974643230438232e-01" purity="4.9747937917709351e-01" nType="0">
        <Node pos="l" depth="1" NCoef="0" IVar="56" Cut="1.4463647603988647e+00" cType="1" res="2.2105988115072250e-02" rms="2.6100510358810425e-01" purity="6.0659444332122803e-01" nType="0">
          <Node pos="l" depth="2" NCoef="0" IVar="-1" Cut="0.0000000000000000e+00" cType="1" res="1.9982070662081242e-03" rms="2.5808969140052795e-01" purity="6.4979380369186401e-01" nType="-99"/>
          <Node pos="r" depth="2" NCoef="0" IVar="-1" Cut="0.0000000000000000e+00" cType="1" res="-7.4534597806632519e-03" rms="2.6516276597976685e-01" purity="8.8670484721660614e-02" nType="-99"/>
        </Node>
        <Node pos="r" depth="1" NCoef="0" IVar="36" Cut="1.5240216255187988e+00" cType="1" res="-4.1208036243915558e-02" rms="2.5212839245796204e-01" purity="2.8747659921646118e-01" nType="0">
          <Node pos="l" depth="2" NCoef="0" IVar="-1" Cut="0.0000000000000000e+00" cType="1" res="-2.0542787387967110e-03" rms="2.5799447298049927e-01" purity="3.2014364004135132e-01" nType="-99"/>
          <Node pos="r" depth="2" NCoef="0" IVar="-1" Cut="0.0000000000000000e+00" cType="1" res="-1.1428817175328732e-02" rms="1.7322844266891479e-01" purity="2.5001490488648415e-02" nType="-99"/>
        </Node>
      </Node>
    </BinaryTree>
    <BinaryTree type="DecisionTree" boostWeight="1.0000000000000000e+00" itree="372">
      <Node pos="s" depth="0" NCoef="0" IVar="2" Cut="6.6553544998168945e-01" cType="1" res="3.7354971282184124e-03" rms="2.5925105810165405e-01" purity="5.0087332725524902e-01" nType="0">
        <Node pos="l" depth="1" NCoef="0" IVar="-1" Cut="0.0000000000000000e+00" cType="1" res="-8.8777476921677589e-03" rms="0.0000000000000000e+00" purity="-2.7182321995496750e-02" nType="-99"/>
        <Node pos="r" depth="1" NCoef="0" IVar="65" Cut="7.5197696685791016e-01" cType="1" res="9.0704429894685745e-03" rms="2.6190871000289917e-01" purity="5.1665067672729492e-01" nType="0">
          <Node pos="l" depth="2" NCoef="0" IVar="-1" Cut="0.0000000000000000e+00" cType="1" res="1.1627220083028078e-03" rms="2.6644220948219299e-01" purity="5.4649978876113892e-01" nType="-99"/>
          <Node pos="r" depth="2" NCoef="0" IVar="-1" Cut="0.0000000000000000e+00" cType="1" res="-8.1798182800412178e-03" rms="1.6238538920879364e-01" purity="1.5045976638793945e-01" nType="-99"/>
        </Node>
      </Node>
    </BinaryTree>
    <BinaryTree type="DecisionTree" boostWeight="1.0000000000000000e+00" itree="373">
      <Node pos="s" depth="0" NCoef="0" IVar="1" Cut="2.3264305591583252e+00" cType="1" res="1.2300427770242095e-03" rms="2.5919565558433533e-01" purity="5.0063681602478027e-01" nType="0">
        <Node pos="l" depth="1" NCoef="0" IVar="0" Cut="4.3361404538154602e-01" cType="1" res="-6.0659531503915787e-02" rms="1.0626720637083054e-01" purity="6.1637781560420990e-02" nType="0">
          <Node pos="l" depth="2" NCoef="0" IVar="-1" Cut="0.0000000000000000e+00" cType="1" res="-1.3371291570365429e-03" rms="2.1005403995513916e-01" purity="1.4272601902484894e-01" nType="-99"/>
          <Node pos="r" depth="2" NCoef="0" IVar="-1" Cut="0.0000000000000000e+00" cType="1" res="-1.0023820213973522e-02" rms="0.0000000000000000e+00" purity="1.8349992111325264e-02" nType="-99"/>
        </Node>
        <Node pos="r" depth="1" NCoef="0" IVar="36" Cut="1.5245062112808228e+00" cType="1" res="1.7153263092041016e-02" rms="2.8341293334960938e-01" purity="6.1358439922332764e-01" nType="0">
          <Node pos="l" depth="2" NCoef="0" IVar="-1" Cut="0.0000000000000000e+00" cType="1" res="1.3865879736840725e-03" rms="2.8225627541542053e-01" purity="6.3450515270233154e-01" nType="-99"/>
          <Node pos="r" depth="2" NCoef="0" IVar="-1" Cut="0.0000000000000000e+00" cType="1" res="-1.0553741827607155e-02" rms="2.6306238770484924e-01" purity="5.4794542491436005e-02" nType="-99"/>
        </Node>
      </Node>
    </BinaryTree>
    <BinaryTree type="DecisionTree" boostWeight="1.0000000000000000e+00" itree="374">
      <Node pos="s" depth="0" NCoef="0" IVar="52" Cut="-1.5312020778656006e+00" cType="1" res="2.9190902132540941e-03" rms="2.5892761349678040e-01" purity="5.0193786621093750e-01" nType="0">
        <Node pos="l" depth="1" NCoef="0" IVar="34" Cut="1.4480490684509277e+00" cType="1" res="4.0551044046878815e-02" rms="2.4670062959194183e-01" purity="6.8833833932876587e-01" nType="0">
          <Node pos="l" depth="2" NCoef="0" IVar="-1" Cut="0.0000000000000000e+00" cType="1" res="3.1366108451038599e-03" rms="2.3963062465190887e-01" purity="7.3150789737701416e-01" nType="-99"/>
          <Node pos="r" depth="2" NCoef="0" IVar="-1" Cut="0.0000000000000000e+00" cType="1" res="-6.6941254772245884e-03" rms="2.9598903656005859e-01" purity="1.2953053414821625e-01" nType="-99"/>
        </Node>
        <Node pos="r" depth="1" NCoef="0" IVar="1" Cut="3.7056534290313721e+00" cType="1" res="-2.1553976461291313e-02" rms="2.6371219754219055e-01" purity="3.8071662187576294e-01" nType="0">
          <Node pos="l" depth="2" NCoef="0" IVar="-1" Cut="0.0000000000000000e+00" cType="1" res="-2.3529599420726299e-03" rms="2.5974148511886597e-01" purity="3.0746677517890930e-01" nType="-99"/>
          <Node pos="r" depth="2" NCoef="0" IVar="-1" Cut="0.0000000000000000e+00" cType="1" res="2.8361640870571136e-03" rms="2.7448719739913940e-01" purity="7.8917783498764038e-01" nType="-99"/>
        </Node>
      </Node>
    </BinaryTree>
    <BinaryTree type="DecisionTree" boostWeight="1.0000000000000000e+00" itree="375">
      <Node pos="s" depth="0" NCoef="0" IVar="57" Cut="-1.2444219589233398e+00" cType="1" res="3.0025658197700977e-03" rms="2.5623750686645508e-01" purity="4.9859032034873962e-01" nType="0">
        <Node pos="l" depth="1" NCoef="0" IVar="56" Cut="1.4854199886322021e+00" cType="1" res="1.7344392836093903e-02" rms="2.5837329030036926e-01" purity="5.3776162862777710e-01" nType="0">
          <Node pos="l" depth="2" NCoef="0" IVar="-1" Cut="0.0000000000000000e+00" cType="1" res="1.6610560705885291e-03" rms="2.5948908925056458e-01" purity="5.7189148664474487e-01" nType="-99"/>
          <Node pos="r" depth="2" NCoef="0" IVar="-1" Cut="0.0000000000000000e+00" cType="1" res="-9.8577514290809631e-03" rms="1.9928765296936035e-01" purity="4.3860599398612976e-02" nType="-99"/>
        </Node>
        <Node pos="r" depth="1" NCoef="0" IVar="1" Cut="3.6371243000030518e+00" cType="1" res="-6.9529332220554352e-02" rms="2.3194402456283569e-01" purity="3.0048665404319763e-01" nType="0">
          <Node pos="l" depth="2" NCoef="0" IVar="-1" Cut="0.0000000000000000e+00" cType="1" res="-6.4329868182539940e-03" rms="2.1159550547599792e-01" purity="2.1662482619285583e-01" nType="-99"/>
          <Node pos="r" depth="2" NCoef="0" IVar="-1" Cut="0.0000000000000000e+00" cType="1" res="-3.2513728365302086e-04" rms="3.1106421351432800e-01" purity="7.4535673856735229e-01" nType="-99"/>
        </Node>
      </Node>
    </BinaryTree>
    <BinaryTree type="DecisionTree" boostWeight="1.0000000000000000e+00" itree="376">
      <Node pos="s" depth="0" NCoef="0" IVar="57" Cut="-1.6071643829345703e+00" cType="1" res="2.1976705174893141e-03" rms="2.5702270865440369e-01" purity="4.9927294254302979e-01" nType="0">
        <Node pos="l" depth="1" NCoef="0" IVar="14" Cut="-1.4150160551071167e+00" cType="1" res="2.1768411621451378e-02" rms="2.6033172011375427e-01" purity="5.5237436294555664e-01" nType="0">
          <Node pos="l" depth="2" NCoef="0" IVar="-1" Cut="0.0000000000000000e+00" cType="1" res="-1.0606976225972176e-02" rms="0.0000000000000000e+00" purity="-4.8791025765240192e-03" nType="-99"/>
          <Node pos="r" depth="2" NCoef="0" IVar="-1" Cut="0.0000000000000000e+00" cType="1" res="2.0235034171491861e-03" rms="2.9018273949623108e-01" purity="6.8050700426101685e-01" nType="-99"/>
        </Node>
        <Node pos="r" depth="1" NCoef="0" IVar="45" Cut="2.1950857639312744e+00" cType="1" res="-4.7227725386619568e-02" rms="2.4150998890399933e-01" purity="3.6516660451889038e-01" nType="0">
          <Node pos="l" depth="2" NCoef="0" IVar="-1" Cut="0.0000000000000000e+00" cType="1" res="-6.3407761044800282e-03" rms="1.8345220386981964e-01" purity="1.7227084934711456e-01" nType="-99"/>
          <Node pos="r" depth="2" NCoef="0" IVar="-1" Cut="0.0000000000000000e+00" cType="1" res="-2.5583145907148719e-04" rms="3.0016282200813293e-01" purity="6.3834071159362793e-01" nType="-99"/>
        </Node>
      </Node>
    </BinaryTree>
    <BinaryTree type="DecisionTree" boostWeight="1.0000000000000000e+00" itree="377">
      <Node pos="s" depth="0" NCoef="0" IVar="37" Cut="-1.4053580760955811e+00" cType="1" res="3.0939786229282618e-03" rms="2.5497230887413025e-01" purity="4.9997392296791077e-01" nType="0">
        <Node pos="l" depth="1" NCoef="0" IVar="54" Cut="1.3318288326263428e+00" cType="1" res="1.9009310752153397e-02" rms="2.5927481055259705e-01" purity="5.4285460710525513e-01" nType="0">
          <Node pos="l" depth="2" NCoef="0" IVar="-1" Cut="0.0000000000000000e+00" cType="1" res="1.8784950952976942e-03" rms="2.5863230228424072e-01" purity="5.9644621610641479e-01" nType="-99"/>
          <Node pos="r" depth="2" NCoef="0" IVar="-1" Cut="0.0000000000000000e+00" cType="1" res="-5.5435444228351116e-03" rms="2.4698688089847565e-01" purity="1.2242615222930908e-01" nType="-99"/>
        </Node>
        <Node pos="r" depth="1" NCoef="0" IVar="14" Cut="1.5252424478530884e+00" cType="1" res="-5.6339278817176819e-02" rms="2.2862687706947327e-01" purity="3.3984306454658508e-01" nType="0">
          <Node pos="l" depth="2" NCoef="0" IVar="-1" Cut="0.0000000000000000e+00" cType="1" res="-6.7855697125196457e-03" rms="1.7363364994525909e-01" purity="1.9812738895416260e-01" nType="-99"/>
          <Node pos="r" depth="2" NCoef="0" IVar="-1" Cut="0.0000000000000000e+00" cType="1" res="1.1402455129427835e-05" rms="3.1718504428863525e-01" purity="6.7854964733123779e-01" nType="-99"/>
        </Node>
      </Node>
    </BinaryTree>
    <BinaryTree type="DecisionTree" boostWeight="1.0000000000000000e+00" itree="378">
      <Node pos="s" depth="0" NCoef="0" IVar="57" Cut="-1.0932277441024780e+00" cType="1" res="3.1518717296421528e-03" rms="2.5849103927612305e-01" purity="5.0077646970748901e-01" nType="0">
        <Node pos="l" depth="1" NCoef="0" IVar="54" Cut="1.3705623149871826e+00" cType="1" res="1.4453005976974964e-02" rms="2.6051756739616394e-01" purity="5.3368991613388062e-01" nType="0">
          <Node pos="l" depth="2" NCoef="0" IVar="-1" Cut="0.0000000000000000e+00" cType="1" res="1.5360257821157575e-03" rms="2.5974890589714050e-01" purity="5.8333146572113037e-01" nType="-99"/>
          <Node pos="r" depth="2" NCoef="0" IVar="-1" Cut="0.0000000000000000e+00" cType="1" res="-6.0964762233197689e-03" rms="2.5079753994941711e-01" purity="1.0877834260463715e-01" nType="-99"/>
        </Node>
        <Node pos="r" depth="1" NCoef="0" IVar="17" Cut="-1.4256485700607300e+00" cType="1" res="-7.5316764414310455e-02" rms="2.2906424105167389e-01" purity="2.7224448323249817e-01" nType="0">
          <Node pos="l" depth="2" NCoef="0" IVar="-1" Cut="0.0000000000000000e+00" cType="1" res="-4.2737578041851521e-03" rms="2.5564485788345337e-01" purity="3.2053601741790771e-01" nType="-99"/>
          <Node pos="r" depth="2" NCoef="0" IVar="-1" Cut="0.0000000000000000e+00" cType="1" res="-1.0890384204685688e-02" rms="1.1747658252716064e-01" purity="1.4121338725090027e-01" nType="-99"/>
        </Node>
      </Node>
    </BinaryTree>
    <BinaryTree type="DecisionTree" boostWeight="1.0000000000000000e+00" itree="379">
      <Node pos="s" depth="0" NCoef="0" IVar="2" Cut="1.2037755250930786e+00" cType="1" res="1.0049623670056462e-03" rms="2.5516018271446228e-01" purity="4.9750915169715881e-01" nType="0">
        <Node pos="l" depth="1" NCoef="0" IVar="2" Cut="5.1791834831237793e-01" cType="1" res="-1.1353688687086105e-01" rms="1.2743325531482697e-01" purity="8.6651675403118134e-02" nType="0">
          <Node pos="l" depth="2" NCoef="0" IVar="-1" Cut="0.0000000000000000e+00" cType="1" res="-1.0394178330898285e-02" rms="0.0000000000000000e+00" purity="-7.5706578791141510e-02" nType="-99"/>
          <Node pos="r" depth="2" NCoef="0" IVar="-1" Cut="0.0000000000000000e+00" cType="1" res="-4.8632654361426830e-03" rms="2.0586787164211273e-01" purity="1.4748959243297577e-01" nType="-99"/>
        </Node>
        <Node pos="r" depth="1" NCoef="0" IVar="25" Cut="1.2396432161331177e+00" cType="1" res="1.0470909997820854e-02" rms="2.6071318984031677e-01" purity="5.3146320581436157e-01" nType="0">
          <Node pos="l" depth="2" NCoef="0" IVar="-1" Cut="0.0000000000000000e+00" cType="1" res="-6.2746107578277588e-03" rms="1.7739908397197723e-01" purity="1.2009543925523758e-01" nType="-99"/>
          <Node pos="r" depth="2" NCoef="0" IVar="-1" Cut="0.0000000000000000e+00" cType="1" res="1.5699251089245081e-03" rms="2.7031847834587097e-01" purity="6.0431599617004395e-01" nType="-99"/>
        </Node>
      </Node>
    </BinaryTree>
    <BinaryTree type="DecisionTree" boostWeight="1.0000000000000000e+00" itree="380">
      <Node pos="s" depth="0" NCoef="0" IVar="57" Cut="-1.0932285785675049e+00" cType="1" res="2.3553466890007257e-03" rms="2.5609031319618225e-01" purity="5.0032645463943481e-01" nType="0">
        <Node pos="l" depth="1" NCoef="0" IVar="54" Cut="1.4092512130737305e+00" cType="1" res="1.4159583486616611e-02" rms="2.5915399193763733e-01" purity="5.3381401300430298e-01" nType="0">
          <Node pos="l" depth="2" NCoef="0" IVar="-1" Cut="0.0000000000000000e+00" cType="1" res="1.5082859899848700e-03" rms="2.5975912809371948e-01" purity="5.8024293184280396e-01" nType="-99"/>
          <Node pos="r" depth="2" NCoef="0" IVar="-1" Cut="0.0000000000000000e+00" cType="1" res="-7.0314272306859493e-03" rms="2.3283480107784271e-01" purity="9.2616163194179535e-02" nType="-99"/>
        </Node>
        <Node pos="r" depth="1" NCoef="0" IVar="17" Cut="-1.3376603126525879e+00" cType="1" res="-7.9024456441402435e-02" rms="2.1706283092498779e-01" purity="2.6945948600769043e-01" nType="0">
          <Node pos="l" depth="2" NCoef="0" IVar="-1" Cut="0.0000000000000000e+00" cType="1" res="-4.6645193360745907e-03" rms="2.4253560602664948e-01" purity="3.1186732649803162e-01" nType="-99"/>
          <Node pos="r" depth="2" NCoef="0" IVar="-1" Cut="0.0000000000000000e+00" cType="1" res="-1.1657285504043102e-02" rms="7.0152901113033295e-02" purity="1.3110184669494629e-01" nType="-99"/>
        </Node>
      </Node>
    </BinaryTree>
    <BinaryTree type="DecisionTree" boostWeight="1.0000000000000000e+00" itree="381">
      <Node pos="s" depth="0" NCoef="0" IVar="17" Cut="-1.3797447681427002e+00" cType="1" res="5.0837397575378418e-03" rms="2.5956603884696960e-01" purity="5.0051748752593994e-01" nType="0">
        <Node pos="l" depth="1" NCoef="0" IVar="25" Cut="1.2040605545043945e+00" cType="1" res="1.9335273653268814e-02" rms="2.6102557778358459e-01" purity="5.3856831789016724e-01" nType="0">
          <Node pos="l" depth="2" NCoef="0" IVar="-1" Cut="0.0000000000000000e+00" cType="1" res="-5.1683010533452034e-03" rms="1.9496658444404602e-01" purity="1.2643511593341827e-01" nType="-99"/>
          <Node pos="r" depth="2" NCoef="0" IVar="-1" Cut="0.0000000000000000e+00" cType="1" res="1.9622177351266146e-03" rms="2.6816770434379578e-01" purity="6.0555434226989746e-01" nType="-99"/>
        </Node>
        <Node pos="r" depth="1" NCoef="0" IVar="14" Cut="1.5245252847671509e+00" cType="1" res="-5.6536506861448288e-02" rms="2.4374997615814209e-01" purity="3.3599466085433960e-01" nType="0">
          <Node pos="l" depth="2" NCoef="0" IVar="-1" Cut="0.0000000000000000e+00" cType="1" res="-6.1534508131444454e-03" rms="2.1980208158493042e-01" purity="2.1425433456897736e-01" nType="-99"/>
          <Node pos="r" depth="2" NCoef="0" IVar="-1" Cut="0.0000000000000000e+00" cType="1" res="2.7505008620209992e-04" rms="2.9702523350715637e-01" purity="7.0681899785995483e-01" nType="-99"/>
        </Node>
      </Node>
    </BinaryTree>
    <BinaryTree type="DecisionTree" boostWeight="1.0000000000000000e+00" itree="382">
      <Node pos="s" depth="0" NCoef="0" IVar="14" Cut="1.4871129989624023e+00" cType="1" res="2.7927590417675674e-04" rms="2.5568798184394836e-01" purity="4.9546748399734497e-01" nType="0">
        <Node pos="l" depth="1" NCoef="0" IVar="65" Cut="7.5189441442489624e-01" cType="1" res="-2.9512437060475349e-02" rms="2.3336483538150787e-01" purity="2.3624621331691742e-01" nType="0">
          <Node pos="l" depth="2" NCoef="0" IVar="-1" Cut="0.0000000000000000e+00" cType="1" res="-1.2335937935858965e-03" rms="2.4535614252090454e-01" purity="2.6370477676391602e-01" nType="-99"/>
          <Node pos="r" depth="2" NCoef="0" IVar="-1" Cut="0.0000000000000000e+00" cType="1" res="-1.1543205007910728e-02" rms="6.8275384604930878e-02" purity="4.7438669949769974e-02" nType="-99"/>
        </Node>
        <Node pos="r" depth="1" NCoef="0" IVar="56" Cut="1.4850335121154785e+00" cType="1" res="3.0121549963951111e-02" rms="2.7300634980201721e-01" purity="7.5512862205505371e-01" nType="0">
          <Node pos="l" depth="2" NCoef="0" IVar="-1" Cut="0.0000000000000000e+00" cType="1" res="2.2853112313896418e-03" rms="2.6685938239097595e-01" purity="7.9612290859222412e-01" nType="-99"/>
          <Node pos="r" depth="2" NCoef="0" IVar="-1" Cut="0.0000000000000000e+00" cType="1" res="-8.0603854730725288e-03" rms="3.1120976805686951e-01" purity="1.0301213711500168e-01" nType="-99"/>
        </Node>
      </Node>
    </BinaryTree>
    <BinaryTree type="DecisionTree" boostWeight="1.0000000000000000e+00" itree="383">
      <Node pos="s" depth="0" NCoef="0" IVar="52" Cut="-1.5312020778656006e+00" cType="1" res="1.6790584195405245e-03" rms="2.5616827607154846e-01" purity="5.0099706649780273e-01" nType="0">
        <Node pos="l" depth="1" NCoef="0" IVar="36" Cut="1.4858274459838867e+00" cType="1" res="4.0134105831384659e-02" rms="2.4456666409969330e-01" purity="6.8823862075805664e-01" nType="0">
          <Node pos="l" depth="2" NCoef="0" IVar="-1" Cut="0.0000000000000000e+00" cType="1" res="3.0937385745346546e-03" rms="2.3828314244747162e-01" purity="7.2551769018173218e-01" nType="-99"/>
          <Node pos="r" depth="2" NCoef="0" IVar="-1" Cut="0.0000000000000000e+00" cType="1" res="-7.6767220161855221e-03" rms="2.9405111074447632e-01" purity="8.8859632611274719e-02" nType="-99"/>
        </Node>
        <Node pos="r" depth="1" NCoef="0" IVar="2" Cut="1.7029196023941040e+00" cType="1" res="-2.3620007559657097e-02" rms="2.6044413447380066e-01" purity="3.7781330943107605e-01" nType="0">
          <Node pos="l" depth="2" NCoef="0" IVar="-1" Cut="0.0000000000000000e+00" cType="1" res="-6.4720395021140575e-03" rms="1.3064233958721161e-01" purity="9.2582479119300842e-02" nType="-99"/>
          <Node pos="r" depth="2" NCoef="0" IVar="-1" Cut="0.0000000000000000e+00" cType="1" res="-2.9112611082382500e-04" rms="2.9083791375160217e-01" purity="4.7967091202735901e-01" nType="-99"/>
        </Node>
      </Node>
    </BinaryTree>
    <BinaryTree type="DecisionTree" boostWeight="1.0000000000000000e+00" itree="384">
      <Node pos="s" depth="0" NCoef="0" IVar="25" Cut="1.0784766674041748e+00" cType="1" res="1.9361703889444470e-03" rms="2.5809305906295776e-01" purity="5.0016289949417114e-01" nType="0">
        <Node pos="l" depth="1" NCoef="0" IVar="29" Cut="2.9909949302673340e+00" cType="1" res="-7.4438825249671936e-02" rms="1.5426392853260040e-01" purity="7.8423410654067993e-02" nType="0">
          <Node pos="l" depth="2" NCoef="0" IVar="-1" Cut="0.0000000000000000e+00" cType="1" res="-1.0297251865267754e-02" rms="1.0280553996562958e-01" purity="4.1847236454486847e-02" nType="-99"/>
          <Node pos="r" depth="2" NCoef="0" IVar="-1" Cut="0.0000000000000000e+00" cType="1" res="4.5047182356938720e-04" rms="2.6775264739990234e-01" purity="2.3288451135158539e-01" nType="-99"/>
        </Node>
        <Node pos="r" depth="1" NCoef="0" IVar="34" Cut="1.4480490684509277e+00" cType="1" res="1.2679828330874443e-02" rms="2.6776626706123352e-01" purity="5.5948895215988159e-01" nType="0">
          <Node pos="l" depth="2" NCoef="0" IVar="-1" Cut="0.0000000000000000e+00" cType="1" res="1.4101861743256450e-03" rms="2.6959511637687683e-01" purity="6.0447216033935547e-01" nType="-99"/>
          <Node pos="r" depth="2" NCoef="0" IVar="-1" Cut="0.0000000000000000e+00" cType="1" res="-8.4202094003558159e-03" rms="2.1977731585502625e-01" purity="8.2598268985748291e-02" nType="-99"/>
        </Node>
      </Node>
    </BinaryTree>
    <BinaryTree type="DecisionTree" boostWeight="1.0000000000000000e+00" itree="385">
      <Node pos="s" depth="0" NCoef="0" IVar="17" Cut="-8.7437140941619873e-01" cType="1" res="4.6811794163659215e-04" rms="2.5736403465270996e-01" purity="4.9495336413383484e-01" nType="0">
        <Node pos="l" depth="1" NCoef="0" IVar="2" Cut="5.2104693651199341e-01" cType="1" res="8.7253600358963013e-03" rms="2.5854191184043884e-01" purity="5.1438498497009277e-01" nType="0">
          <Node pos="l" depth="2" NCoef="0" IVar="-1" Cut="0.0000000000000000e+00" cType="1" res="-9.7687607631087303e-03" rms="0.0000000000000000e+00" purity="-6.1890192329883575e-02" nType="-99"/>
          <Node pos="r" depth="2" NCoef="0" IVar="-1" Cut="0.0000000000000000e+00" cType="1" res="8.9319283142685890e-04" rms="2.6143923401832581e-01" purity="5.2732080221176147e-01" nType="-99"/>
        </Node>
        <Node pos="r" depth="1" NCoef="0" IVar="5" Cut="1.8711401224136353e+00" cType="1" res="-1.0864195227622986e-01" rms="2.1307407319545746e-01" purity="2.3818665742874146e-01" nType="0">
          <Node pos="l" depth="2" NCoef="0" IVar="-1" Cut="0.0000000000000000e+00" cType="1" res="-1.2894255109131336e-02" rms="0.0000000000000000e+00" purity="5.8851510286331177e-02" nType="-99"/>
          <Node pos="r" depth="2" NCoef="0" IVar="-1" Cut="0.0000000000000000e+00" cType="1" res="-4.6384427696466446e-03" rms="3.0993872880935669e-01" purity="4.4447496533393860e-01" nType="-99"/>
        </Node>
      </Node>
    </BinaryTree>
    <BinaryTree type="DecisionTree" boostWeight="1.0000000000000000e+00" itree="386">
      <Node pos="s" depth="0" NCoef="0" IVar="37" Cut="-1.1090764999389648e+00" cType="1" res="4.8143630847334862e-03" rms="2.5987359881401062e-01" purity="5.0093579292297363e-01" nType="0">
        <Node pos="l" depth="1" NCoef="0" IVar="57" Cut="-1.0874501466751099e+00" cType="1" res="1.6807589679956436e-02" rms="2.6175394654273987e-01" purity="5.3442412614822388e-01" nType="0">
          <Node pos="l" depth="2" NCoef="0" IVar="-1" Cut="0.0000000000000000e+00" cType="1" res="1.7635833937674761e-03" rms="2.6164290308952332e-01" purity="5.6427329778671265e-01" nType="-99"/>
          <Node pos="r" depth="2" NCoef="0" IVar="-1" Cut="0.0000000000000000e+00" cType="1" res="-4.9040773883461952e-03" rms="2.4784161150455475e-01" purity="3.0971109867095947e-01" nType="-99"/>
        </Node>
        <Node pos="r" depth="1" NCoef="0" IVar="33" Cut="-7.9663109779357910e-01" cType="1" res="-7.3207914829254150e-02" rms="2.3265892267227173e-01" purity="2.8307628631591797e-01" nType="0">
          <Node pos="l" depth="2" NCoef="0" IVar="-1" Cut="0.0000000000000000e+00" cType="1" res="-3.5881430376321077e-03" rms="2.4641992151737213e-01" purity="3.5035473108291626e-01" nType="-99"/>
          <Node pos="r" depth="2" NCoef="0" IVar="-1" Cut="0.0000000000000000e+00" cType="1" res="-9.8644280806183815e-03" rms="1.9959865510463715e-01" purity="1.6853791475296021e-01" nType="-99"/>
        </Node>
      </Node>
    </BinaryTree>
    <BinaryTree type="DecisionTree" boostWeight="1.0000000000000000e+00" itree="387">
      <Node pos="s" depth="0" NCoef="0" IVar="2" Cut="7.9273128509521484e-01" cType="1" res="1.4622810995206237e-03" rms="2.5765696167945862e-01" purity="4.9992337822914124e-01" nType="0">
        <Node pos="l" depth="1" NCoef="0" IVar="-1" Cut="0.0000000000000000e+00" cType="1" res="-8.5668908432126045e-03" rms="0.0000000000000000e+00" purity="-9.7964815795421600e-03" nType="-99"/>
        <Node pos="r" depth="1" NCoef="0" IVar="57" Cut="-1.1174790859222412e+00" cType="1" res="7.1948044933378696e-03" rms="2.6049777865409851e-01" purity="5.1834231615066528e-01" nType="0">
          <Node pos="l" depth="2" NCoef="0" IVar="-1" Cut="0.0000000000000000e+00" cType="1" res="1.2150572147220373e-03" rms="2.6189997792243958e-01" purity="5.5316954851150513e-01" nType="-99"/>
          <Node pos="r" depth="2" NCoef="0" IVar="-1" Cut="0.0000000000000000e+00" cType="1" res="-5.2890605293214321e-03" rms="2.3807503283023834e-01" purity="2.8988015651702881e-01" nType="-99"/>
        </Node>
      </Node>
    </BinaryTree>
    <BinaryTree type="DecisionTree" boostWeight="1.0000000000000000e+00" itree="388">
      <Node pos="s" depth="0" NCoef="0" IVar="25" Cut="1.0854622125625610e+00" cType="1" res="3.9960411377251148e-03" rms="2.5551468133926392e-01" purity="5.0293129682540894e-01" nType="0">
        <Node pos="l" depth="1" NCoef="0" IVar="29" Cut="3.0240461826324463e+00" cType="1" res="-7.4390731751918793e-02" rms="1.4016628265380859e-01" purity="8.2609288394451141e-02" nType="0">
          <Node pos="l" depth="2" NCoef="0" IVar="-1" Cut="0.0000000000000000e+00" cType="1" res="-9.9481241777539253e-03" rms="9.3889310956001282e-02" purity="5.0091210752725601e-02" nType="-99"/>
          <Node pos="r" depth="2" NCoef="0" IVar="-1" Cut="0.0000000000000000e+00" cType="1" res="1.0686191963031888e-03" rms="2.4668344855308533e-01" purity="2.3473808169364929e-01" nType="-99"/>
        </Node>
        <Node pos="r" depth="1" NCoef="0" IVar="32" Cut="1.4397184848785400e+00" cType="1" res="1.5228996984660625e-02" rms="2.6612308621406555e-01" purity="5.6316411495208740e-01" nType="0">
          <Node pos="l" depth="2" NCoef="0" IVar="-1" Cut="0.0000000000000000e+00" cType="1" res="1.5968612860888243e-03" rms="2.6700788736343384e-01" purity="6.1113905906677246e-01" nType="-99"/>
          <Node pos="r" depth="2" NCoef="0" IVar="-1" Cut="0.0000000000000000e+00" cType="1" res="-6.8099033087491989e-03" rms="2.3533499240875244e-01" purity="1.1178360134363174e-01" nType="-99"/>
        </Node>
      </Node>
    </BinaryTree>
    <BinaryTree type="DecisionTree" boostWeight="1.0000000000000000e+00" itree="389">
      <Node pos="s" depth="0" NCoef="0" IVar="14" Cut="1.4871129989624023e+00" cType="1" res="5.4198305588215590e-04" rms="2.5391536951065063e-01" purity="4.9716764688491821e-01" nType="0">
        <Node pos="l" depth="1" NCoef="0" IVar="65" Cut="6.8470668792724609e-01" cType="1" res="-3.0393345281481743e-02" rms="2.3219893872737885e-01" purity="2.3568789660930634e-01" nType="0">
          <Node pos="l" depth="2" NCoef="0" IVar="-1" Cut="0.0000000000000000e+00" cType="1" res="-9.8816398531198502e-04" rms="2.5159984827041626e-01" purity="2.7455365657806396e-01" nType="-99"/>
          <Node pos="r" depth="2" NCoef="0" IVar="-1" Cut="0.0000000000000000e+00" cType="1" res="-9.1977883130311966e-03" rms="1.0783150047063828e-01" purity="8.5097126662731171e-02" nType="-99"/>
        </Node>
        <Node pos="r" depth="1" NCoef="0" IVar="56" Cut="1.4854199886322021e+00" cType="1" res="3.1264342367649078e-02" rms="2.7030122280120850e-01" purity="7.5684732198715210e-01" nType="0">
          <Node pos="l" depth="2" NCoef="0" IVar="-1" Cut="0.0000000000000000e+00" cType="1" res="2.3792015854269266e-03" rms="2.6438647508621216e-01" purity="7.9769796133041382e-01" nType="-99"/>
          <Node pos="r" depth="2" NCoef="0" IVar="-1" Cut="0.0000000000000000e+00" cType="1" res="-8.3179417997598648e-03" rms="3.0294111371040344e-01" purity="9.6085630357265472e-02" nType="-99"/>
        </Node>
      </Node>
    </BinaryTree>
    <BinaryTree type="DecisionTree" boostWeight="1.0000000000000000e+00" itree="390">
      <Node pos="s" depth="0" NCoef="0" IVar="17" Cut="-9.9296450614929199e-01" cType="1" res="3.8684776518493891e-03" rms="2.6081195473670959e-01" purity="5.0183653831481934e-01" nType="0">
        <Node pos="l" depth="1" NCoef="0" IVar="2" Cut="6.8504309654235840e-01" cType="1" res="1.3117815367877483e-02" rms="2.6078653335571289e-01" purity="5.2440029382705688e-01" nType="0">
          <Node pos="l" depth="2" NCoef="0" IVar="-1" Cut="0.0000000000000000e+00" cType="1" res="-7.8404089435935020e-03" rms="0.0000000000000000e+00" purity="-5.6748008355498314e-03" nType="-99"/>
          <Node pos="r" depth="2" NCoef="0" IVar="-1" Cut="0.0000000000000000e+00" cType="1" res="1.2141087790951133e-03" rms="2.6318544149398804e-01" purity="5.4057949781417847e-01" nType="-99"/>
        </Node>
        <Node pos="r" depth="1" NCoef="0" IVar="17" Cut="-7.6524883508682251e-01" cType="1" res="-8.7792806327342987e-02" rms="2.4270291626453400e-01" purity="2.7822926640510559e-01" nType="0">
          <Node pos="l" depth="2" NCoef="0" IVar="-1" Cut="0.0000000000000000e+00" cType="1" res="-3.7250940222293139e-03" rms="2.5565332174301147e-01" purity="3.4478557109832764e-01" nType="-99"/>
          <Node pos="r" depth="2" NCoef="0" IVar="-1" Cut="0.0000000000000000e+00" cType="1" res="-9.0042361989617348e-03" rms="2.2862932085990906e-01" purity="2.2681339085102081e-01" nType="-99"/>
        </Node>
      </Node>
    </BinaryTree>
    <BinaryTree type="DecisionTree" boostWeight="1.0000000000000000e+00" itree="391">
      <Node pos="s" depth="0" NCoef="0" IVar="2" Cut="1.4573017358779907e+00" cType="1" res="1.6407680232077837e-03" rms="2.5478413701057434e-01" purity="5.0072121620178223e-01" nType="0">
        <Node pos="l" depth="1" NCoef="0" IVar="2" Cut="5.7323443889617920e-01" cType="1" res="-7.0607103407382965e-02" rms="1.9491380453109741e-01" purity="1.4947231113910675e-01" nType="0">
          <Node pos="l" depth="2" NCoef="0" IVar="-1" Cut="0.0000000000000000e+00" cType="1" res="-8.6470237001776695e-03" rms="0.0000000000000000e+00" purity="-3.3441916108131409e-02" nType="-99"/>
          <Node pos="r" depth="2" NCoef="0" IVar="-1" Cut="0.0000000000000000e+00" cType="1" res="-3.5459438804537058e-03" rms="2.1704155206680298e-01" purity="1.8895787000656128e-01" nType="-99"/>
        </Node>
        <Node pos="r" depth="1" NCoef="0" IVar="0" Cut="7.8516113758087158e-01" cType="1" res="1.3193555176258087e-02" rms="2.6125091314315796e-01" purity="5.5688768625259399e-01" nType="0">
          <Node pos="l" depth="2" NCoef="0" IVar="-1" Cut="0.0000000000000000e+00" cType="1" res="1.9889040850102901e-03" rms="2.5818878412246704e-01" purity="6.0481864213943481e-01" nType="-99"/>
          <Node pos="r" depth="2" NCoef="0" IVar="-1" Cut="0.0000000000000000e+00" cType="1" res="-3.1349002383649349e-03" rms="2.6301887631416321e-01" purity="4.0514183044433594e-01" nType="-99"/>
        </Node>
      </Node>
    </BinaryTree>
    <BinaryTree type="DecisionTree" boostWeight="1.0000000000000000e+00" itree="392">
      <Node pos="s" depth="0" NCoef="0" IVar="0" Cut="7.6044625043869019e-01" cType="1" res="3.8969963788986206e-03" rms="2.5607931613922119e-01" purity="5.0111073255538940e-01" nType="0">
        <Node pos="l" depth="1" NCoef="0" IVar="14" Cut="-1.3763563632965088e+00" cType="1" res="2.1566517651081085e-02" rms="2.6041072607040405e-01" purity="5.4883790016174316e-01" nType="0">
          <Node pos="l" depth="2" NCoef="0" IVar="-1" Cut="0.0000000000000000e+00" cType="1" res="-1.0585246607661247e-02" rms="0.0000000000000000e+00" purity="-4.5579173602163792e-03" nType="-99"/>
          <Node pos="r" depth="2" NCoef="0" IVar="-1" Cut="0.0000000000000000e+00" cType="1" res="2.0843169186264277e-03" rms="2.9253086447715759e-01" purity="6.8412292003631592e-01" nType="-99"/>
        </Node>
        <Node pos="r" depth="1" NCoef="0" IVar="4" Cut="3.4660909175872803e+00" cType="1" res="-4.6772532165050507e-02" rms="2.3600557446479797e-01" purity="3.6424717307090759e-01" nType="0">
          <Node pos="l" depth="2" NCoef="0" IVar="-1" Cut="0.0000000000000000e+00" cType="1" res="-1.0856712237000465e-02" rms="1.2619687616825104e-01" purity="1.4201080799102783e-01" nType="-99"/>
          <Node pos="r" depth="2" NCoef="0" IVar="-1" Cut="0.0000000000000000e+00" cType="1" res="-1.8026919569820166e-03" rms="2.5686091184616089e-01" purity="4.3269544839859009e-01" nType="-99"/>
        </Node>
      </Node>
    </BinaryTree>
    <BinaryTree type="DecisionTree" boostWeight="1.0000000000000000e+00" itree="393">
      <Node pos="s" depth="0" NCoef="0" IVar="2" Cut="1.4573017358779907e+00" cType="1" res="4.7559463419020176e-03" rms="2.5719830393791199e-01" purity="5.0151145458221436e-01" nType="0">
        <Node pos="l" depth="1" NCoef="0" IVar="2" Cut="6.3638371229171753e-01" cType="1" res="-6.9948390126228333e-02" rms="2.0847409963607788e-01" purity="1.4899143576622009e-01" nType="0">
          <Node pos="l" depth="2" NCoef="0" IVar="-1" Cut="0.0000000000000000e+00" cType="1" res="-8.5009271278977394e-03" rms="0.0000000000000000e+00" purity="-2.6620686054229736e-02" nType="-99"/>
          <Node pos="r" depth="2" NCoef="0" IVar="-1" Cut="0.0000000000000000e+00" cType="1" res="-3.4043327905237675e-03" rms="2.3589538037776947e-01" purity="1.9058781862258911e-01" nType="-99"/>
        </Node>
        <Node pos="r" depth="1" NCoef="0" IVar="0" Cut="6.2820184230804443e-01" cType="1" res="1.6685545444488525e-02" rms="2.6218461990356445e-01" purity="5.5780571699142456e-01" nType="0">
          <Node pos="l" depth="2" NCoef="0" IVar="-1" Cut="0.0000000000000000e+00" cType="1" res="2.5750240311026573e-03" rms="2.6353371143341064e-01" purity="6.2441861629486084e-01" nType="-99"/>
          <Node pos="r" depth="2" NCoef="0" IVar="-1" Cut="0.0000000000000000e+00" cType="1" res="-1.7154122469946742e-03" rms="2.5487300753593445e-01" purity="4.4479528069496155e-01" nType="-99"/>
        </Node>
      </Node>
    </BinaryTree>
    <BinaryTree type="DecisionTree" boostWeight="1.0000000000000000e+00" itree="394">
      <Node pos="s" depth="0" NCoef="0" IVar="57" Cut="-1.9094222784042358e+00" cType="1" res="2.7530721854418516e-03" rms="2.5733491778373718e-01" purity="4.9904024600982666e-01" nType="0">
        <Node pos="l" depth="1" NCoef="0" IVar="56" Cut="1.4463146924972534e+00" cType="1" res="2.7509711682796478e-02" rms="2.6289847493171692e-01" purity="5.6495225429534912e-01" nType="0">
          <Node pos="l" depth="2" NCoef="0" IVar="-1" Cut="0.0000000000000000e+00" cType="1" res="2.3367702960968018e-03" rms="2.6337486505508423e-01" purity="6.0411000251770020e-01" nType="-99"/>
          <Node pos="r" depth="2" NCoef="0" IVar="-1" Cut="0.0000000000000000e+00" cType="1" res="-8.3907749503850937e-03" rms="2.2252383828163147e-01" purity="6.2442630529403687e-02" nType="-99"/>
        </Node>
        <Node pos="r" depth="1" NCoef="0" IVar="2" Cut="1.2370815277099609e+00" cType="1" res="-3.1776148825883865e-02" rms="2.4522906541824341e-01" purity="4.0710964798927307e-01" nType="0">
          <Node pos="l" depth="2" NCoef="0" IVar="-1" Cut="0.0000000000000000e+00" cType="1" res="-1.1072605848312378e-02" rms="0.0000000000000000e+00" purity="2.2102672606706619e-02" nType="-99"/>
          <Node pos="r" depth="2" NCoef="0" IVar="-1" Cut="0.0000000000000000e+00" cType="1" res="-1.4328192919492722e-03" rms="2.5790247321128845e-01" purity="4.4459146261215210e-01" nType="-99"/>
        </Node>
      </Node>
    </BinaryTree>
    <BinaryTree type="DecisionTree" boostWeight="1.0000000000000000e+00" itree="395">
      <Node pos="s" depth="0" NCoef="0" IVar="17" Cut="-1.0227143764495850e+00" cType="1" res="3.8306785281747580e-03" rms="2.6002120971679688e-01" purity="5.0194185972213745e-01" nType="0">
        <Node pos="l" depth="1" NCoef="0" IVar="34" Cut="1.4470758438110352e+00" cType="1" res="1.3564274646341801e-02" rms="2.6046201586723328e-01" purity="5.2627789974212646e-01" nType="0">
          <Node pos="l" depth="2" NCoef="0" IVar="-1" Cut="0.0000000000000000e+00" cType="1" res="1.4592886436730623e-03" rms="2.6238581538200378e-01" purity="5.6613492965698242e-01" nType="-99"/>
          <Node pos="r" depth="2" NCoef="0" IVar="-1" Cut="0.0000000000000000e+00" cType="1" res="-8.1182355061173439e-03" rms="2.1286588907241821e-01" purity="7.7899232506752014e-02" nType="-99"/>
        </Node>
        <Node pos="r" depth="1" NCoef="0" IVar="17" Cut="-5.7535439729690552e-01" cType="1" res="-8.6348675191402435e-02" rms="2.3764529824256897e-01" purity="2.7647486329078674e-01" nType="0">
          <Node pos="l" depth="2" NCoef="0" IVar="-1" Cut="0.0000000000000000e+00" cType="1" res="-5.0094858743250370e-03" rms="2.4878793954849243e-01" purity="3.1393861770629883e-01" nType="-99"/>
          <Node pos="r" depth="2" NCoef="0" IVar="-1" Cut="0.0000000000000000e+00" cType="1" res="-1.1361909098923206e-02" rms="1.9026659429073334e-01" purity="1.6221031546592712e-01" nType="-99"/>
        </Node>
      </Node>
    </BinaryTree>
    <BinaryTree type="DecisionTree" boostWeight="1.0000000000000000e+00" itree="396">
      <Node pos="s" depth="0" NCoef="0" IVar="36" Cut="-1.4924436807632446e+00" cType="1" res="2.5609305594116449e-03" rms="2.5204935669898987e-01" purity="5.0225168466567993e-01" nType="0">
        <Node pos="l" depth="1" NCoef="0" IVar="54" Cut="-1.4150406122207642e+00" cType="1" res="2.6895735412836075e-02" rms="2.4616175889968872e-01" purity="6.3455533981323242e-01" nType="0">
          <Node pos="l" depth="2" NCoef="0" IVar="-1" Cut="0.0000000000000000e+00" cType="1" res="3.2705508638173342e-03" rms="2.1171902120113373e-01" purity="7.5182598829269409e-01" nType="-99"/>
          <Node pos="r" depth="2" NCoef="0" IVar="-1" Cut="0.0000000000000000e+00" cType="1" res="-1.4874039916321635e-03" rms="3.0124977231025696e-01" purity="3.8269957900047302e-01" nType="-99"/>
        </Node>
        <Node pos="r" depth="1" NCoef="0" IVar="36" Cut="1.4875419139862061e+00" cType="1" res="-3.3842418342828751e-02" rms="2.5633144378662109e-01" purity="3.0433368682861328e-01" nType="0">
          <Node pos="l" depth="2" NCoef="0" IVar="-1" Cut="0.0000000000000000e+00" cType="1" res="-1.3341536978259683e-03" rms="2.6609581708908081e-01" purity="3.5672113299369812e-01" nType="-99"/>
          <Node pos="r" depth="2" NCoef="0" IVar="-1" Cut="0.0000000000000000e+00" cType="1" res="-9.8398374393582344e-03" rms="1.8376365303993225e-01" purity="3.9635658264160156e-02" nType="-99"/>
        </Node>
      </Node>
    </BinaryTree>
    <BinaryTree type="DecisionTree" boostWeight="1.0000000000000000e+00" itree="397">
      <Node pos="s" depth="0" NCoef="0" IVar="2" Cut="6.1135417222976685e-01" cType="1" res="9.8124262876808643e-04" rms="2.5797674059867859e-01" purity="4.9739858508110046e-01" nType="0">
        <Node pos="l" depth="1" NCoef="0" IVar="-1" Cut="0.0000000000000000e+00" cType="1" res="-9.5539372414350510e-03" rms="0.0000000000000000e+00" purity="-5.5861208587884903e-02" nType="-99"/>
        <Node pos="r" depth="1" NCoef="0" IVar="25" Cut="1.1487420797348022e+00" cType="1" res="5.7930364273488522e-03" rms="2.6120576262474060e-01" purity="5.1171809434890747e-01" nType="0">
          <Node pos="l" depth="2" NCoef="0" IVar="-1" Cut="0.0000000000000000e+00" cType="1" res="-6.3066319562494755e-03" rms="1.6651256382465363e-01" purity="9.9282942712306976e-02" nType="-99"/>
          <Node pos="r" depth="2" NCoef="0" IVar="-1" Cut="0.0000000000000000e+00" cType="1" res="1.1014767223969102e-03" rms="2.7164509892463684e-01" purity="5.7778853178024292e-01" nType="-99"/>
        </Node>
      </Node>
    </BinaryTree>
    <BinaryTree type="DecisionTree" boostWeight="1.0000000000000000e+00" itree="398">
      <Node pos="s" depth="0" NCoef="0" IVar="0" Cut="7.6048177480697632e-01" cType="1" res="2.6049690786749125e-03" rms="2.5433924794197083e-01" purity="5.0070977210998535e-01" nType="0">
        <Node pos="l" depth="1" NCoef="0" IVar="14" Cut="-1.4537111520767212e+00" cType="1" res="1.9794391468167305e-02" rms="2.5869581103324890e-01" purity="5.4740589857101440e-01" nType="0">
          <Node pos="l" depth="2" NCoef="0" IVar="-1" Cut="0.0000000000000000e+00" cType="1" res="-1.2435592710971832e-02" rms="0.0000000000000000e+00" purity="-1.1958325281739235e-02" nType="-99"/>
          <Node pos="r" depth="2" NCoef="0" IVar="-1" Cut="0.0000000000000000e+00" cType="1" res="1.9220816902816296e-03" rms="2.8762122988700867e-01" purity="6.6344606876373291e-01" nType="-99"/>
        </Node>
        <Node pos="r" depth="1" NCoef="0" IVar="1" Cut="3.3990483283996582e+00" cType="1" res="-4.7286640852689743e-02" rms="2.3421026766300201e-01" purity="3.6517596244812012e-01" nType="0">
          <Node pos="l" depth="2" NCoef="0" IVar="-1" Cut="0.0000000000000000e+00" cType="1" res="-5.7358895428478718e-03" rms="2.1283072233200073e-01" purity="2.0721676945686340e-01" nType="-99"/>
          <Node pos="r" depth="2" NCoef="0" IVar="-1" Cut="0.0000000000000000e+00" cType="1" res="6.0745142400264740e-04" rms="2.7257609367370605e-01" purity="7.6055580377578735e-01" nType="-99"/>
        </Node>
      </Node>
    </BinaryTree>
    <BinaryTree type="DecisionTree" boostWeight="1.0000000000000000e+00" itree="399">
      <Node pos="s" depth="0" NCoef="0" IVar="57" Cut="-1.4862102270126343e+00" cType="1" res="9.4231416005641222e-04" rms="2.5769662857055664e-01" purity="4.9684229493141174e-01" nType="0">
        <Node pos="l" depth="1" NCoef="0" IVar="56" Cut="1.4850335121154785e+00" cType="1" res="1.6656987369060516e-02" rms="2.6089069247245789e-01" purity="5.4469722509384155e-01" nType="0">
          <Node pos="l" depth="2" NCoef="0" IVar="-1" Cut="0.0000000000000000e+00" cType="1" res="1.5577010344713926e-03" rms="2.6107844710350037e-01" purity="5.7830685377120972e-01" nType="-99"/>
          <Node pos="r" depth="2" NCoef="0" IVar="-1" Cut="0.0000000000000000e+00" cType="1" res="-8.5184220224618912e-03" rms="2.3132941126823425e-01" purity="5.6020490825176239e-02" nType="-99"/>
        </Node>
        <Node pos="r" depth="1" NCoef="0" IVar="45" Cut="2.1272065639495850e+00" cType="1" res="-4.8974942415952682e-02" rms="2.4056154489517212e-01" purity="3.4483239054679871e-01" nType="0">
          <Node pos="l" depth="2" NCoef="0" IVar="-1" Cut="0.0000000000000000e+00" cType="1" res="-6.7476355470716953e-03" rms="1.7547385394573212e-01" purity="1.5284799039363861e-01" nType="-99"/>
          <Node pos="r" depth="2" NCoef="0" IVar="-1" Cut="0.0000000000000000e+00" cType="1" res="-6.8491109414026141e-04" rms="3.0488535761833191e-01" purity="6.1111432313919067e-01" nType="-99"/>
        </Node>
      </Node>
    </BinaryTree>
    <BinaryTree type="DecisionTree" boostWeight="1.0000000000000000e+00" itree="400">
      <Node pos="s" depth="0" NCoef="0" IVar="57" Cut="-1.0818436145782471e+00" cType="1" res="2.8147248085588217e-03" rms="2.5665611028671265e-01" purity="4.9774044752120972e-01" nType="0">
        <Node pos="l" depth="1" NCoef="0" IVar="56" Cut="1.4076465368270874e+00" cType="1" res="1.3713097199797630e-02" rms="2.5955051183700562e-01" purity="5.3069102764129639e-01" nType="0">
          <Node pos="l" depth="2" NCoef="0" IVar="-1" Cut="0.0000000000000000e+00" cType="1" res="1.4740625629201531e-03" rms="2.6156359910964966e-01" purity="5.7388699054718018e-01" nType="-99"/>
          <Node pos="r" depth="2" NCoef="0" IVar="-1" Cut="0.0000000000000000e+00" cType="1" res="-6.8038487806916237e-03" rms="2.1685370802879333e-01" purity="8.6018167436122894e-02" nType="-99"/>
        </Node>
        <Node pos="r" depth="1" NCoef="0" IVar="5" Cut="1.3924454450607300e+00" cType="1" res="-7.4664697051048279e-02" rms="2.2000660002231598e-01" purity="2.6348596811294556e-01" nType="0">
          <Node pos="l" depth="2" NCoef="0" IVar="-1" Cut="0.0000000000000000e+00" cType="1" res="-1.4923376962542534e-02" rms="0.0000000000000000e+00" purity="4.0573989972472191e-03" nType="-99"/>
          <Node pos="r" depth="2" NCoef="0" IVar="-1" Cut="0.0000000000000000e+00" cType="1" res="-4.3535213917493820e-03" rms="2.7269402146339417e-01" purity="3.4290909767150879e-01" nType="-99"/>
        </Node>
      </Node>
    </BinaryTree>
    <BinaryTree type="DecisionTree" boostWeight="1.0000000000000000e+00" itree="401">
      <Node pos="s" depth="0" NCoef="0" IVar="25" Cut="9.6686375141143799e-01" cType="1" res="4.6053258702158928e-03" rms="2.5751510262489319e-01" purity="5.0060111284255981e-01" nType="0">
        <Node pos="l" depth="1" NCoef="0" IVar="12" Cut="1.2463990449905396e+00" cType="1" res="-8.0411396920681000e-02" rms="1.1893317848443985e-01" purity="5.7043917477130890e-02" nType="0">
          <Node pos="l" depth="2" NCoef="0" IVar="-1" Cut="0.0000000000000000e+00" cType="1" res="-1.0082515887916088e-02" rms="0.0000000000000000e+00" purity="1.8201788887381554e-02" nType="-99"/>
          <Node pos="r" depth="2" NCoef="0" IVar="-1" Cut="0.0000000000000000e+00" cType="1" res="-8.0489879474043846e-03" rms="2.2995784878730774e-01" purity="1.3312436640262604e-01" nType="-99"/>
        </Node>
        <Node pos="r" depth="1" NCoef="0" IVar="34" Cut="1.0982109308242798e+00" cType="1" res="1.4185030944645405e-02" rms="2.6699480414390564e-01" purity="5.5058127641677856e-01" nType="0">
          <Node pos="l" depth="2" NCoef="0" IVar="-1" Cut="0.0000000000000000e+00" cType="1" res="1.6506334068253636e-03" rms="2.6608237624168396e-01" purity="6.1501336097717285e-01" nType="-99"/>
          <Node pos="r" depth="2" NCoef="0" IVar="-1" Cut="0.0000000000000000e+00" cType="1" res="-4.4812499545514584e-03" rms="2.6090344786643982e-01" purity="1.6474977135658264e-01" nType="-99"/>
        </Node>
      </Node>
    </BinaryTree>
    <BinaryTree type="DecisionTree" boostWeight="1.0000000000000000e+00" itree="402">
      <Node pos="s" depth="0" NCoef="0" IVar="25" Cut="1.3226590156555176e+00" cType="1" res="4.4255736283957958e-03" rms="2.5207531452178955e-01" purity="5.0042420625686646e-01" nType="0">
        <Node pos="l" depth="1" NCoef="0" IVar="0" Cut="4.3380635976791382e-01" cType="1" res="-5.7053763419389725e-02" rms="1.7358165979385376e-01" purity="1.3020338118076324e-01" nType="0">
          <Node pos="l" depth="2" NCoef="0" IVar="-1" Cut="0.0000000000000000e+00" cType="1" res="-2.0986524759791791e-04" rms="2.5215148925781250e-01" purity="2.4837949872016907e-01" nType="-99"/>
          <Node pos="r" depth="2" NCoef="0" IVar="-1" Cut="0.0000000000000000e+00" cType="1" res="-9.1853179037570953e-03" rms="9.7054712474346161e-02" purity="6.5771847963333130e-02" nType="-99"/>
        </Node>
        <Node pos="r" depth="1" NCoef="0" IVar="2" Cut="1.3089874982833862e+00" cType="1" res="1.8151352182030678e-02" rms="2.6451668143272400e-01" purity="5.8307909965515137e-01" nType="0">
          <Node pos="l" depth="2" NCoef="0" IVar="-1" Cut="0.0000000000000000e+00" cType="1" res="-4.6624699607491493e-03" rms="2.4434927105903625e-01" purity="1.5851445496082306e-01" nType="-99"/>
          <Node pos="r" depth="2" NCoef="0" IVar="-1" Cut="0.0000000000000000e+00" cType="1" res="1.7973182257264853e-03" rms="2.6433771848678589e-01" purity="6.2363523244857788e-01" nType="-99"/>
        </Node>
      </Node>
    </BinaryTree>
    <BinaryTree type="DecisionTree" boostWeight="1.0000000000000000e+00" itree="403">
      <Node pos="s" depth="0" NCoef="0" IVar="57" Cut="-1.0327962636947632e+00" cType="1" res="4.0337457321584225e-03" rms="2.5718948245048523e-01" purity="5.0199741125106812e-01" nType="0">
        <Node pos="l" depth="1" NCoef="0" IVar="36" Cut="1.4855418205261230e+00" cType="1" res="1.3877924531698227e-02" rms="2.5788304209709167e-01" purity="5.3223109245300293e-01" nType="0">
          <Node pos="l" depth="2" NCoef="0" IVar="-1" Cut="0.0000000000000000e+00" cType="1" res="1.3674023794010282e-03" rms="2.5771597027778625e-01" purity="5.6510472297668457e-01" nType="-99"/>
          <Node pos="r" depth="2" NCoef="0" IVar="-1" Cut="0.0000000000000000e+00" cType="1" res="-7.9370141029357910e-03" rms="2.3717689514160156e-01" purity="6.4225852489471436e-02" nType="-99"/>
        </Node>
        <Node pos="r" depth="1" NCoef="0" IVar="53" Cut="-1.3378143310546875e+00" cType="1" res="-7.2871811687946320e-02" rms="2.3808436095714569e-01" purity="2.6580348610877991e-01" nType="0">
          <Node pos="l" depth="2" NCoef="0" IVar="-1" Cut="0.0000000000000000e+00" cType="1" res="-3.2342139165848494e-03" rms="2.6155695319175720e-01" purity="3.7025898694992065e-01" nType="-99"/>
          <Node pos="r" depth="2" NCoef="0" IVar="-1" Cut="0.0000000000000000e+00" cType="1" res="-8.5697341710329056e-03" rms="2.1295569837093353e-01" purity="1.7761237919330597e-01" nType="-99"/>
        </Node>
      </Node>
    </BinaryTree>
    <BinaryTree type="DecisionTree" boostWeight="1.0000000000000000e+00" itree="404">
      <Node pos="s" depth="0" NCoef="0" IVar="0" Cut="7.6229816675186157e-01" cType="1" res="1.9420535536482930e-03" rms="2.5428137183189392e-01" purity="5.0048971176147461e-01" nType="0">
        <Node pos="l" depth="1" NCoef="0" IVar="14" Cut="-1.4537111520767212e+00" cType="1" res="1.9399827346205711e-02" rms="2.5636842846870422e-01" purity="5.4860740900039673e-01" nType="0">
          <Node pos="l" depth="2" NCoef="0" IVar="-1" Cut="0.0000000000000000e+00" cType="1" res="-1.2757204473018646e-02" rms="0.0000000000000000e+00" purity="-1.3063056394457817e-02" nType="-99"/>
          <Node pos="r" depth="2" NCoef="0" IVar="-1" Cut="0.0000000000000000e+00" cType="1" res="1.9037526799365878e-03" rms="2.8535810112953186e-01" purity="6.6507762670516968e-01" nType="-99"/>
        </Node>
        <Node pos="r" depth="1" NCoef="0" IVar="45" Cut="2.3629021644592285e+00" cType="1" res="-4.8810269683599472e-02" rms="2.4103705585002899e-01" purity="3.6060440540313721e-01" nType="0">
          <Node pos="l" depth="2" NCoef="0" IVar="-1" Cut="0.0000000000000000e+00" cType="1" res="-6.6705918870866299e-03" rms="2.0075656473636627e-01" purity="1.7911289632320404e-01" nType="-99"/>
          <Node pos="r" depth="2" NCoef="0" IVar="-1" Cut="0.0000000000000000e+00" cType="1" res="-9.6071453299373388e-05" rms="2.8955680131912231e-01" purity="6.5988242626190186e-01" nType="-99"/>
        </Node>
      </Node>
    </BinaryTree>
    <BinaryTree type="DecisionTree" boostWeight="1.0000000000000000e+00" itree="405">
      <Node pos="s" depth="0" NCoef="0" IVar="34" Cut="-2.2183297201991081e-02" cType="1" res="3.9043198339641094e-03" rms="2.5515726208686829e-01" purity="5.0078982114791870e-01" nType="0">
        <Node pos="l" depth="1" NCoef="0" IVar="65" Cut="7.7437400817871094e-01" cType="1" res="1.8999811261892319e-02" rms="2.5654804706573486e-01" purity="5.8386272192001343e-01" nType="0">
          <Node pos="l" depth="2" NCoef="0" IVar="-1" Cut="0.0000000000000000e+00" cType="1" res="1.6889261314645410e-03" rms="2.5686812400817871e-01" purity="6.0803365707397461e-01" nType="-99"/>
          <Node pos="r" depth="2" NCoef="0" IVar="-1" Cut="0.0000000000000000e+00" cType="1" res="-8.3071645349264145e-03" rms="2.1476286649703979e-01" purity="1.5333963930606842e-01" nType="-99"/>
        </Node>
        <Node pos="r" depth="1" NCoef="0" IVar="33" Cut="-1.4741493463516235e+00" cType="1" res="-4.9349840730428696e-02" rms="2.4280577898025513e-01" purity="2.0772349834442139e-01" nType="0">
          <Node pos="l" depth="2" NCoef="0" IVar="-1" Cut="0.0000000000000000e+00" cType="1" res="1.4806061517447233e-03" rms="2.4649457633495331e-01" purity="3.9505192637443542e-01" nType="-99"/>
          <Node pos="r" depth="2" NCoef="0" IVar="-1" Cut="0.0000000000000000e+00" cType="1" res="-4.8192851245403290e-03" rms="2.4008645117282867e-01" purity="1.7606556415557861e-01" nType="-99"/>
        </Node>
      </Node>
    </BinaryTree>
    <BinaryTree type="DecisionTree" boostWeight="1.0000000000000000e+00" itree="406">
      <Node pos="s" depth="0" NCoef="0" IVar="17" Cut="-1.0232266187667847e+00" cType="1" res="3.3266602549701929e-03" rms="2.5423175096511841e-01" purity="5.0092840194702148e-01" nType="0">
        <Node pos="l" depth="1" NCoef="0" IVar="54" Cut="1.4479401111602783e+00" cType="1" res="1.2825752608478069e-02" rms="2.5536283850669861e-01" purity="5.2549552917480469e-01" nType="0">
          <Node pos="l" depth="2" NCoef="0" IVar="-1" Cut="0.0000000000000000e+00" cType="1" res="1.4212116366252303e-03" rms="2.5538966059684753e-01" purity="5.6685757637023926e-01" nType="-99"/>
          <Node pos="r" depth="2" NCoef="0" IVar="-1" Cut="0.0000000000000000e+00" cType="1" res="-7.8538563102483749e-03" rms="2.3433712124824524e-01" purity="8.0700501799583435e-02" nType="-99"/>
        </Node>
        <Node pos="r" depth="1" NCoef="0" IVar="65" Cut="6.8425083160400391e-01" cType="1" res="-8.3774916827678680e-02" rms="2.2568672895431519e-01" purity="2.7566090226173401e-01" nType="0">
          <Node pos="l" depth="2" NCoef="0" IVar="-1" Cut="0.0000000000000000e+00" cType="1" res="-4.8892265185713768e-03" rms="2.4430885910987854e-01" purity="3.2973080873489380e-01" nType="-99"/>
          <Node pos="r" depth="2" NCoef="0" IVar="-1" Cut="0.0000000000000000e+00" cType="1" res="-1.1984089389443398e-02" rms="1.2473989278078079e-01" purity="8.6201310157775879e-02" nType="-99"/>
        </Node>
      </Node>
    </BinaryTree>
    <BinaryTree type="DecisionTree" boostWeight="1.0000000000000000e+00" itree="407">
      <Node pos="s" depth="0" NCoef="0" IVar="52" Cut="-1.5312020778656006e+00" cType="1" res="2.9719020240008831e-03" rms="2.5769659876823425e-01" purity="5.0146669149398804e-01" nType="0">
        <Node pos="l" depth="1" NCoef="0" IVar="36" Cut="1.2921659946441650e+00" cType="1" res="3.6684568971395493e-02" rms="2.4574516713619232e-01" purity="6.8623542785644531e-01" nType="0">
          <Node pos="l" depth="2" NCoef="0" IVar="-1" Cut="0.0000000000000000e+00" cType="1" res="3.1119813211262226e-03" rms="2.3524457216262817e-01" purity="7.3987400531768799e-01" nType="-99"/>
          <Node pos="r" depth="2" NCoef="0" IVar="-1" Cut="0.0000000000000000e+00" cType="1" res="-4.7062840312719345e-03" rms="3.1124565005302429e-01" purity="1.6939263045787811e-01" nType="-99"/>
        </Node>
        <Node pos="r" depth="1" NCoef="0" IVar="56" Cut="1.5243101119995117e+00" cType="1" res="-1.9065091386437416e-02" rms="2.6289168000221252e-01" purity="3.8068872690200806e-01" nType="0">
          <Node pos="l" depth="2" NCoef="0" IVar="-1" Cut="0.0000000000000000e+00" cType="1" res="-8.2930817734450102e-04" rms="2.6637703180313110e-01" purity="4.0485921502113342e-01" nType="-99"/>
          <Node pos="r" depth="2" NCoef="0" IVar="-1" Cut="0.0000000000000000e+00" cType="1" res="-1.1159495450556278e-02" rms="1.7569918930530548e-01" purity="2.4266952648758888e-02" nType="-99"/>
        </Node>
      </Node>
    </BinaryTree>
    <BinaryTree type="DecisionTree" boostWeight="1.0000000000000000e+00" itree="408">
      <Node pos="s" depth="0" NCoef="0" IVar="2" Cut="5.0748854875564575e-01" cType="1" res="7.8623415902256966e-04" rms="2.5329455733299255e-01" purity="4.9900603294372559e-01" nType="0">
        <Node pos="l" depth="1" NCoef="0" IVar="-1" Cut="0.0000000000000000e+00" cType="1" res="-1.0692734271287918e-02" rms="0.0000000000000000e+00" purity="-7.9936809837818146e-02" nType="-99"/>
        <Node pos="r" depth="1" NCoef="0" IVar="25" Cut="1.0663746595382690e+00" cType="1" res="5.1727364771068096e-03" rms="2.5631356239318848e-01" purity="5.1103502511978149e-01" nType="0">
          <Node pos="l" depth="2" NCoef="0" IVar="-1" Cut="0.0000000000000000e+00" cType="1" res="-7.5922678224742413e-03" rms="1.4102210104465485e-01" purity="7.7925540506839752e-02" nType="-99"/>
          <Node pos="r" depth="2" NCoef="0" IVar="-1" Cut="0.0000000000000000e+00" cType="1" res="1.0485606035217643e-03" rms="2.6655668020248413e-01" purity="5.7090169191360474e-01" nType="-99"/>
        </Node>
      </Node>
    </BinaryTree>
    <BinaryTree type="DecisionTree" boostWeight="1.0000000000000000e+00" itree="409">
      <Node pos="s" depth="0" NCoef="0" IVar="37" Cut="-1.1090481281280518e+00" cType="1" res="3.3071876969188452e-03" rms="2.5742572546005249e-01" purity="4.9913403391838074e-01" nType="0">
        <Node pos="l" depth="1" NCoef="0" IVar="36" Cut="1.5243083238601685e+00" cType="1" res="1.3887964189052582e-02" rms="2.5964492559432983e-01" purity="5.3124749660491943e-01" nType="0">
          <Node pos="l" depth="2" NCoef="0" IVar="-1" Cut="0.0000000000000000e+00" cType="1" res="1.2736516073346138e-03" rms="2.5991919636726379e-01" purity="5.5076825618743896e-01" nType="-99"/>
          <Node pos="r" depth="2" NCoef="0" IVar="-1" Cut="0.0000000000000000e+00" cType="1" res="-1.0598725639283657e-02" rms="2.0892700552940369e-01" purity="3.6210548132658005e-02" nType="-99"/>
        </Node>
        <Node pos="r" depth="1" NCoef="0" IVar="33" Cut="-1.4925366640090942e+00" cType="1" res="-6.5709635615348816e-02" rms="2.3084528744220734e-01" purity="2.8966262936592102e-01" nType="0">
          <Node pos="l" depth="2" NCoef="0" IVar="-1" Cut="0.0000000000000000e+00" cType="1" res="-8.2888762699440122e-04" rms="2.5793951749801636e-01" purity="4.7620329260826111e-01" nType="-99"/>
          <Node pos="r" depth="2" NCoef="0" IVar="-1" Cut="0.0000000000000000e+00" cType="1" res="-7.1055768057703972e-03" rms="2.1758969128131866e-01" purity="2.2510975599288940e-01" nType="-99"/>
        </Node>
      </Node>
    </BinaryTree>
    <BinaryTree type="DecisionTree" boostWeight="1.0000000000000000e+00" itree="410">
      <Node pos="s" depth="0" NCoef="0" IVar="45" Cut="1.6452132463455200e+00" cType="1" res="2.7286950498819351e-03" rms="2.5275215506553650e-01" purity="5.0027352571487427e-01" nType="0">
        <Node pos="l" depth="1" NCoef="0" IVar="0" Cut="6.8881940841674805e-01" cType="1" res="-4.2167745530605316e-02" rms="2.0834566652774811e-01" purity="1.9022902846336365e-01" nType="0">
          <Node pos="l" depth="2" NCoef="0" IVar="-1" Cut="0.0000000000000000e+00" cType="1" res="-1.2245605466887355e-03" rms="2.3666438460350037e-01" purity="2.5526472926139832e-01" nType="-99"/>
          <Node pos="r" depth="2" NCoef="0" IVar="-1" Cut="0.0000000000000000e+00" cType="1" res="-8.2074692472815514e-03" rms="1.4730854332447052e-01" purity="9.0875096619129181e-02" nType="-99"/>
        </Node>
        <Node pos="r" depth="1" NCoef="0" IVar="36" Cut="1.5233963727951050e+00" cType="1" res="2.0755620673298836e-02" rms="2.6640343666076660e-01" purity="6.2476330995559692e-01" nType="0">
          <Node pos="l" depth="2" NCoef="0" IVar="-1" Cut="0.0000000000000000e+00" cType="1" res="1.6849399544298649e-03" rms="2.6494979858398438e-01" purity="6.4418262243270874e-01" nType="-99"/>
          <Node pos="r" depth="2" NCoef="0" IVar="-1" Cut="0.0000000000000000e+00" cType="1" res="-1.0295745916664600e-02" rms="2.5278276205062866e-01" purity="5.4064471274614334e-02" nType="-99"/>
        </Node>
      </Node>
    </BinaryTree>
    <BinaryTree type="DecisionTree" boostWeight="1.0000000000000000e+00" itree="411">
      <Node pos="s" depth="0" NCoef="0" IVar="25" Cut="2.0171031951904297e+00" cType="1" res="-1.4840790536254644e-03" rms="2.5244745612144470e-01" purity="4.9616107344627380e-01" nType="0">
        <Node pos="l" depth="1" NCoef="0" IVar="0" Cut="4.9157902598381042e-01" cType="1" res="-3.5015173256397247e-02" rms="2.2709356248378754e-01" purity="2.5636431574821472e-01" nType="0">
          <Node pos="l" depth="2" NCoef="0" IVar="-1" Cut="0.0000000000000000e+00" cType="1" res="-3.7558696931228042e-05" rms="2.6323786377906799e-01" purity="3.5403209924697876e-01" nType="-99"/>
          <Node pos="r" depth="2" NCoef="0" IVar="-1" Cut="0.0000000000000000e+00" cType="1" res="-5.6835296563804150e-03" rms="1.8490706384181976e-01" purity="1.7124347388744354e-01" nType="-99"/>
        </Node>
        <Node pos="r" depth="1" NCoef="0" IVar="2" Cut="1.2037755250930786e+00" cType="1" res="2.3919807747006416e-02" rms="2.6728987693786621e-01" purity="6.7783629894256592e-01" nType="0">
          <Node pos="l" depth="2" NCoef="0" IVar="-1" Cut="0.0000000000000000e+00" cType="1" res="-5.7525872252881527e-03" rms="2.6447385549545288e-01" purity="1.7735113203525543e-01" nType="-99"/>
          <Node pos="r" depth="2" NCoef="0" IVar="-1" Cut="0.0000000000000000e+00" cType="1" res="2.0043556578457355e-03" rms="2.6507058739662170e-01" purity="6.9882369041442871e-01" nType="-99"/>
        </Node>
      </Node>
    </BinaryTree>
    <BinaryTree type="DecisionTree" boostWeight="1.0000000000000000e+00" itree="412">
      <Node pos="s" depth="0" NCoef="0" IVar="2" Cut="1.1802119016647339e+00" cType="1" res="1.7964912112802267e-03" rms="2.5461623072624207e-01" purity="4.9772214889526367e-01" nType="0">
        <Node pos="l" depth="1" NCoef="0" IVar="1" Cut="2.8366761207580566e+00" cType="1" res="-9.8680764436721802e-02" rms="1.6890473663806915e-01" purity="9.0403683483600616e-02" nType="0">
          <Node pos="l" depth="2" NCoef="0" IVar="-1" Cut="0.0000000000000000e+00" cType="1" res="-5.4152403026819229e-03" rms="9.3490786850452423e-02" purity="5.7238891720771790e-02" nType="-99"/>
          <Node pos="r" depth="2" NCoef="0" IVar="-1" Cut="0.0000000000000000e+00" cType="1" res="-6.9150179624557495e-03" rms="2.4873451888561249e-01" purity="1.6308137774467468e-01" nType="-99"/>
        </Node>
        <Node pos="r" depth="1" NCoef="0" IVar="0" Cut="8.4806513786315918e-01" cType="1" res="9.8779061809182167e-03" rms="2.5859579443931580e-01" purity="5.3048288822174072e-01" nType="0">
          <Node pos="l" depth="2" NCoef="0" IVar="-1" Cut="0.0000000000000000e+00" cType="1" res="1.5980006428435445e-03" rms="2.5814065337181091e-01" purity="5.6817221641540527e-01" nType="-99"/>
          <Node pos="r" depth="2" NCoef="0" IVar="-1" Cut="0.0000000000000000e+00" cType="1" res="-3.7126652896404266e-03" rms="2.5235161185264587e-01" purity="3.7349298596382141e-01" nType="-99"/>
        </Node>
      </Node>
    </BinaryTree>
    <BinaryTree type="DecisionTree" boostWeight="1.0000000000000000e+00" itree="413">
      <Node pos="s" depth="0" NCoef="0" IVar="65" Cut="7.5202912092208862e-01" cType="1" res="2.2343916352838278e-03" rms="2.5598457455635071e-01" purity="5.0025570392608643e-01" nType="0">
        <Node pos="l" depth="1" NCoef="0" IVar="45" Cut="1.7494674921035767e+00" cType="1" res="1.0089743882417679e-02" rms="2.5996249914169312e-01" purity="5.2863246202468872e-01" nType="0">
          <Node pos="l" depth="2" NCoef="0" IVar="-1" Cut="0.0000000000000000e+00" cType="1" res="-2.4187685921788216e-03" rms="2.2808136045932770e-01" purity="2.2453680634498596e-01" nType="-99"/>
          <Node pos="r" depth="2" NCoef="0" IVar="-1" Cut="0.0000000000000000e+00" cType="1" res="1.8519079312682152e-03" rms="2.7147236466407776e-01" purity="6.7080235481262207e-01" nType="-99"/>
        </Node>
        <Node pos="r" depth="1" NCoef="0" IVar="9" Cut="2.4791109561920166e+00" cType="1" res="-9.4976484775543213e-02" rms="1.7296236753463745e-01" purity="1.4909060299396515e-01" nType="0">
          <Node pos="l" depth="2" NCoef="0" IVar="-1" Cut="0.0000000000000000e+00" cType="1" res="-1.3662937097251415e-02" rms="1.5636883676052094e-01" purity="1.9370546564459801e-02" nType="-99"/>
          <Node pos="r" depth="2" NCoef="0" IVar="-1" Cut="0.0000000000000000e+00" cType="1" res="-5.7877232320606709e-03" rms="1.7171925306320190e-01" purity="1.9957046210765839e-01" nType="-99"/>
        </Node>
      </Node>
    </BinaryTree>
    <BinaryTree type="DecisionTree" boostWeight="1.0000000000000000e+00" itree="414">
      <Node pos="s" depth="0" NCoef="0" IVar="45" Cut="1.1926382780075073e+00" cType="1" res="3.2819421030580997e-03" rms="2.5618347525596619e-01" purity="5.0184452533721924e-01" nType="0">
        <Node pos="l" depth="1" NCoef="0" IVar="49" Cut="3.0040988922119141e+00" cType="1" res="-6.6347293555736542e-02" rms="1.3980357348918915e-01" purity="1.0473921895027161e-01" nType="0">
          <Node pos="l" depth="2" NCoef="0" IVar="-1" Cut="0.0000000000000000e+00" cType="1" res="-9.5454016700387001e-03" rms="8.7839767336845398e-02" purity="5.7239774614572525e-02" nType="-99"/>
          <Node pos="r" depth="2" NCoef="0" IVar="-1" Cut="0.0000000000000000e+00" cType="1" res="1.9175680354237556e-03" rms="2.3657149076461792e-01" purity="2.9477825760841370e-01" nType="-99"/>
        </Node>
        <Node pos="r" depth="1" NCoef="0" IVar="56" Cut="1.4467463493347168e+00" cType="1" res="1.5444222837686539e-02" rms="2.6960146427154541e-01" purity="5.7120764255523682e-01" nType="0">
          <Node pos="l" depth="2" NCoef="0" IVar="-1" Cut="0.0000000000000000e+00" cType="1" res="1.5523668844252825e-03" rms="2.7081859111785889e-01" purity="6.1699640750885010e-01" nType="-99"/>
          <Node pos="r" depth="2" NCoef="0" IVar="-1" Cut="0.0000000000000000e+00" cType="1" res="-7.1512712165713310e-03" rms="2.3446486890316010e-01" purity="7.9240962862968445e-02" nType="-99"/>
        </Node>
      </Node>
    </BinaryTree>
    <BinaryTree type="DecisionTree" boostWeight="1.0000000000000000e+00" itree="415">
      <Node pos="s" depth="0" NCoef="0" IVar="45" Cut="9.1266185045242310e-01" cType="1" res="2.2260472178459167e-03" rms="2.5181731581687927e-01" purity="5.0030636787414551e-01" nType="0">
        <Node pos="l" depth="1" NCoef="0" IVar="12" Cut="-1.2614731788635254e+00" cType="1" res="-8.6731776595115662e-02" rms="8.8351711630821228e-02" purity="4.9890100955963135e-02" nType="0">
          <Node pos="l" depth="2" NCoef="0" IVar="-1" Cut="0.0000000000000000e+00" cType="1" res="-1.1733336374163628e-02" rms="0.0000000000000000e+00" purity="9.2342076823115349e-03" nType="-99"/>
          <Node pos="r" depth="2" NCoef="0" IVar="-1" Cut="0.0000000000000000e+00" cType="1" res="-8.9525114744901657e-03" rms="1.7868363857269287e-01" purity="9.8437704145908356e-02" nType="-99"/>
        </Node>
        <Node pos="r" depth="1" NCoef="0" IVar="65" Cut="7.2964251041412354e-01" cType="1" res="1.0940093547105789e-02" rms="2.6078310608863831e-01" purity="5.4442781209945679e-01" nType="0">
          <Node pos="l" depth="2" NCoef="0" IVar="-1" Cut="0.0000000000000000e+00" cType="1" res="1.3199150562286377e-03" rms="2.6586914062500000e-01" purity="5.8056265115737915e-01" nType="-99"/>
          <Node pos="r" depth="2" NCoef="0" IVar="-1" Cut="0.0000000000000000e+00" cType="1" res="-6.5829004161059856e-03" rms="1.8180115520954132e-01" purity="1.9786074757575989e-01" nType="-99"/>
        </Node>
      </Node>
    </BinaryTree>
    <BinaryTree type="DecisionTree" boostWeight="1.0000000000000000e+00" itree="416">
      <Node pos="s" depth="0" NCoef="0" IVar="52" Cut="-1.5312063694000244e+00" cType="1" res="3.4362247679382563e-03" rms="2.5338140130043030e-01" purity="4.9976310133934021e-01" nType="0">
        <Node pos="l" depth="1" NCoef="0" IVar="36" Cut="1.4853361845016479e+00" cType="1" res="3.7271998822689056e-02" rms="2.4742467701435089e-01" purity="6.8516457080841064e-01" nType="0">
          <Node pos="l" depth="2" NCoef="0" IVar="-1" Cut="0.0000000000000000e+00" cType="1" res="2.9371392447501421e-03" rms="2.4198149144649506e-01" purity="7.2254407405853271e-01" nType="-99"/>
          <Node pos="r" depth="2" NCoef="0" IVar="-1" Cut="0.0000000000000000e+00" cType="1" res="-6.2942760996520519e-03" rms="2.9650768637657166e-01" purity="9.8660618066787720e-02" nType="-99"/>
        </Node>
        <Node pos="r" depth="1" NCoef="0" IVar="2" Cut="1.6597310304641724e+00" cType="1" res="-1.8376747146248817e-02" rms="2.5477719306945801e-01" purity="3.8023996353149414e-01" nType="0">
          <Node pos="l" depth="2" NCoef="0" IVar="-1" Cut="0.0000000000000000e+00" cType="1" res="-5.8682942762970924e-03" rms="1.5276254713535309e-01" purity="9.7261033952236176e-02" nType="-99"/>
          <Node pos="r" depth="2" NCoef="0" IVar="-1" Cut="0.0000000000000000e+00" cType="1" res="-1.5424168668687344e-04" rms="2.7901974320411682e-01" purity="4.7527885437011719e-01" nType="-99"/>
        </Node>
      </Node>
    </BinaryTree>
    <BinaryTree type="DecisionTree" boostWeight="1.0000000000000000e+00" itree="417">
      <Node pos="s" depth="0" NCoef="0" IVar="17" Cut="-1.3499636650085449e+00" cType="1" res="2.3552495986223221e-03" rms="2.5540372729301453e-01" purity="4.9896427989006042e-01" nType="0">
        <Node pos="l" depth="1" NCoef="0" IVar="14" Cut="-1.4537136554718018e+00" cType="1" res="1.5236219391226768e-02" rms="2.5917592644691467e-01" purity="5.3444147109985352e-01" nType="0">
          <Node pos="l" depth="2" NCoef="0" IVar="-1" Cut="0.0000000000000000e+00" cType="1" res="-1.1099070310592651e-02" rms="0.0000000000000000e+00" purity="-6.1052497476339340e-03" nType="-99"/>
          <Node pos="r" depth="2" NCoef="0" IVar="-1" Cut="0.0000000000000000e+00" cType="1" res="1.6301103169098496e-03" rms="2.8918176889419556e-01" purity="6.5816605091094971e-01" nType="-99"/>
        </Node>
        <Node pos="r" depth="1" NCoef="0" IVar="14" Cut="1.4858462810516357e+00" cType="1" res="-5.7758081704378128e-02" rms="2.2756183147430420e-01" purity="3.3339810371398926e-01" nType="0">
          <Node pos="l" depth="2" NCoef="0" IVar="-1" Cut="0.0000000000000000e+00" cType="1" res="-7.8295860439538956e-03" rms="1.6141252219676971e-01" purity="1.3180494308471680e-01" nType="-99"/>
          <Node pos="r" depth="2" NCoef="0" IVar="-1" Cut="0.0000000000000000e+00" cType="1" res="-8.1380619667470455e-04" rms="3.0017983913421631e-01" purity="6.5797436237335205e-01" nType="-99"/>
        </Node>
      </Node>
    </BinaryTree>
    <BinaryTree type="DecisionTree" boostWeight="1.0000000000000000e+00" itree="418">
      <Node pos="s" depth="0" NCoef="0" IVar="57" Cut="-1.0874766111373901e+00" cType="1" res="2.2975453175604343e-03" rms="2.5219449400901794e-01" purity="5.0117921829223633e-01" nType="0">
        <Node pos="l" depth="1" NCoef="0" IVar="14" Cut="-1.4537111520767212e+00" cType="1" res="1.3487205840647221e-02" rms="2.5643327832221985e-01" purity="5.3514569997787476e-01" nType="0">
          <Node pos="l" depth="2" NCoef="0" IVar="-1" Cut="0.0000000000000000e+00" cType="1" res="-1.2982800602912903e-02" rms="0.0000000000000000e+00" purity="-1.3630596920847893e-02" nType="-99"/>
          <Node pos="r" depth="2" NCoef="0" IVar="-1" Cut="0.0000000000000000e+00" cType="1" res="1.5540100866928697e-03" rms="2.8718528151512146e-01" purity="6.5263551473617554e-01" nType="-99"/>
        </Node>
        <Node pos="r" depth="1" NCoef="0" IVar="54" Cut="-1.4151469469070435e+00" cType="1" res="-7.5789906084537506e-02" rms="2.0392435789108276e-01" purity="2.6414284110069275e-01" nType="0">
          <Node pos="l" depth="2" NCoef="0" IVar="-1" Cut="0.0000000000000000e+00" cType="1" res="-3.4295439254492521e-03" rms="2.6079601049423218e-01" purity="4.3965852260589600e-01" nType="-99"/>
          <Node pos="r" depth="2" NCoef="0" IVar="-1" Cut="0.0000000000000000e+00" cType="1" res="-9.6067292615771294e-03" rms="1.3028354942798615e-01" purity="1.0979485511779785e-01" nType="-99"/>
        </Node>
      </Node>
    </BinaryTree>
    <BinaryTree type="DecisionTree" boostWeight="1.0000000000000000e+00" itree="419">
      <Node pos="s" depth="0" NCoef="0" IVar="37" Cut="-1.0794360637664795e+00" cType="1" res="1.8224898958578706e-03" rms="2.5176718831062317e-01" purity="4.9847495555877686e-01" nType="0">
        <Node pos="l" depth="1" NCoef="0" IVar="34" Cut="1.3706684112548828e+00" cType="1" res="1.2646652758121490e-02" rms="2.5478157401084900e-01" purity="5.3066158294677734e-01" nType="0">
          <Node pos="l" depth="2" NCoef="0" IVar="-1" Cut="0.0000000000000000e+00" cType="1" res="1.4793927548453212e-03" rms="2.5517043471336365e-01" purity="5.7932889461517334e-01" nType="-99"/>
          <Node pos="r" depth="2" NCoef="0" IVar="-1" Cut="0.0000000000000000e+00" cType="1" res="-6.5371752716600895e-03" rms="2.3417174816131592e-01" purity="1.0732632130384445e-01" nType="-99"/>
        </Node>
        <Node pos="r" depth="1" NCoef="0" IVar="33" Cut="-1.4925379753112793e+00" cType="1" res="-7.4665524065494537e-02" rms="2.1428592503070831e-01" purity="2.7103072404861450e-01" nType="0">
          <Node pos="l" depth="2" NCoef="0" IVar="-1" Cut="0.0000000000000000e+00" cType="1" res="-1.6594656044617295e-03" rms="2.4713900685310364e-01" purity="4.5903021097183228e-01" nType="-99"/>
          <Node pos="r" depth="2" NCoef="0" IVar="-1" Cut="0.0000000000000000e+00" cType="1" res="-7.8988829627633095e-03" rms="1.9847057759761810e-01" purity="2.0573675632476807e-01" nType="-99"/>
        </Node>
      </Node>
    </BinaryTree>
    <BinaryTree type="DecisionTree" boostWeight="1.0000000000000000e+00" itree="420">
      <Node pos="s" depth="0" NCoef="0" IVar="37" Cut="-1.2571932077407837e+00" cType="1" res="1.8033038359135389e-03" rms="2.5170743465423584e-01" purity="4.9962908029556274e-01" nType="0">
        <Node pos="l" depth="1" NCoef="0" IVar="56" Cut="1.5237022638320923e+00" cType="1" res="1.4426459558308125e-02" rms="2.5549069046974182e-01" purity="5.3808259963989258e-01" nType="0">
          <Node pos="l" depth="2" NCoef="0" IVar="-1" Cut="0.0000000000000000e+00" cType="1" res="1.3438425958156586e-03" rms="2.5672405958175659e-01" purity="5.5839747190475464e-01" nType="-99"/>
          <Node pos="r" depth="2" NCoef="0" IVar="-1" Cut="0.0000000000000000e+00" cType="1" res="-1.1873924173414707e-02" rms="1.6372673213481903e-01" purity="1.9744722172617912e-02" nType="-99"/>
        </Node>
        <Node pos="r" depth="1" NCoef="0" IVar="37" Cut="-8.4347528219223022e-01" cType="1" res="-6.0502644628286362e-02" rms="2.2184872627258301e-01" purity="3.0982849001884460e-01" nType="0">
          <Node pos="l" depth="2" NCoef="0" IVar="-1" Cut="0.0000000000000000e+00" cType="1" res="-2.7771198656409979e-03" rms="2.3476535081863403e-01" purity="3.7984228134155273e-01" nType="-99"/>
          <Node pos="r" depth="2" NCoef="0" IVar="-1" Cut="0.0000000000000000e+00" cType="1" res="-7.6410318724811077e-03" rms="2.0208792388439178e-01" purity="2.2626826167106628e-01" nType="-99"/>
        </Node>
      </Node>
    </BinaryTree>
    <BinaryTree type="DecisionTree" boostWeight="1.0000000000000000e+00" itree="421">
      <Node pos="s" depth="0" NCoef="0" IVar="1" Cut="2.1978664398193359e+00" cType="1" res="2.5722612626850605e-03" rms="2.5358331203460693e-01" purity="5.0084829330444336e-01" nType="0">
        <Node pos="l" depth="1" NCoef="0" IVar="0" Cut="7.8134256601333618e-01" cType="1" res="-5.9815950691699982e-02" rms="2.1013608202338219e-02" purity="3.7187047302722931e-02" nType="0">
          <Node pos="l" depth="2" NCoef="0" IVar="-1" Cut="0.0000000000000000e+00" cType="1" res="-4.4309776276350021e-03" rms="1.4017033576965332e-01" purity="7.1114726364612579e-02" nType="-99"/>
          <Node pos="r" depth="2" NCoef="0" IVar="-1" Cut="0.0000000000000000e+00" cType="1" res="-1.6363363713026047e-02" rms="0.0000000000000000e+00" purity="-3.0681749805808067e-02" nType="-99"/>
        </Node>
        <Node pos="r" depth="1" NCoef="0" IVar="2" Cut="1.4573017358779907e+00" cType="1" res="1.4444452710449696e-02" rms="2.7491033077239990e-01" purity="5.8908087015151978e-01" nType="0">
          <Node pos="l" depth="2" NCoef="0" IVar="-1" Cut="0.0000000000000000e+00" cType="1" res="-3.8788071833550930e-03" rms="2.6536816358566284e-01" purity="2.2343400120735168e-01" nType="-99"/>
          <Node pos="r" depth="2" NCoef="0" IVar="-1" Cut="0.0000000000000000e+00" cType="1" res="1.5590066323056817e-03" rms="2.7426877617835999e-01" purity="6.2999802827835083e-01" nType="-99"/>
        </Node>
      </Node>
    </BinaryTree>
    <BinaryTree type="DecisionTree" boostWeight="1.0000000000000000e+00" itree="422">
      <Node pos="s" depth="0" NCoef="0" IVar="37" Cut="-1.3494728803634644e+00" cType="1" res="2.4664495140314102e-03" rms="2.5451201200485229e-01" purity="4.9953478574752808e-01" nType="0">
        <Node pos="l" depth="1" NCoef="0" IVar="54" Cut="1.0223618745803833e+00" cType="1" res="1.6162408515810966e-02" rms="2.5892001390457153e-01" purity="5.4058229923248291e-01" nType="0">
          <Node pos="l" depth="2" NCoef="0" IVar="-1" Cut="0.0000000000000000e+00" cType="1" res="1.8040830036625266e-03" rms="2.5579059123992920e-01" purity="6.0444247722625732e-01" nType="-99"/>
          <Node pos="r" depth="2" NCoef="0" IVar="-1" Cut="0.0000000000000000e+00" cType="1" res="-4.0584770031273365e-03" rms="2.6685717701911926e-01" purity="1.6492930054664612e-01" nType="-99"/>
        </Node>
        <Node pos="r" depth="1" NCoef="0" IVar="5" Cut="1.4178386926651001e+00" cType="1" res="-5.4547060281038284e-02" rms="2.2654739022254944e-01" purity="3.2866251468658447e-01" nType="0">
          <Node pos="l" depth="2" NCoef="0" IVar="-1" Cut="0.0000000000000000e+00" cType="1" res="-1.2402012012898922e-02" rms="0.0000000000000000e+00" purity="4.8590969294309616e-02" nType="-99"/>
          <Node pos="r" depth="2" NCoef="0" IVar="-1" Cut="0.0000000000000000e+00" cType="1" res="-2.6920416858047247e-03" rms="2.6536715030670166e-01" purity="4.1075903177261353e-01" nType="-99"/>
        </Node>
      </Node>
    </BinaryTree>
    <BinaryTree type="DecisionTree" boostWeight="1.0000000000000000e+00" itree="423">
      <Node pos="s" depth="0" NCoef="0" IVar="2" Cut="1.6597310304641724e+00" cType="1" res="2.7371328324079514e-03" rms="2.5129115581512451e-01" purity="5.0053834915161133e-01" nType="0">
        <Node pos="l" depth="1" NCoef="0" IVar="2" Cut="4.6939653158187866e-01" cType="1" res="-4.8200946301221848e-02" rms="2.0400212705135345e-01" purity="1.8037308752536774e-01" nType="0">
          <Node pos="l" depth="2" NCoef="0" IVar="-1" Cut="0.0000000000000000e+00" cType="1" res="-8.0642309039831161e-03" rms="0.0000000000000000e+00" purity="-3.0871367081999779e-02" nType="-99"/>
          <Node pos="r" depth="2" NCoef="0" IVar="-1" Cut="0.0000000000000000e+00" cType="1" res="-2.8271733317524195e-03" rms="2.1217091381549835e-01" purity="2.0210419595241547e-01" nType="-99"/>
        </Node>
        <Node pos="r" depth="1" NCoef="0" IVar="25" Cut="1.0663746595382690e+00" cType="1" res="1.6879817470908165e-02" rms="2.6116013526916504e-01" purity="5.8943057060241699e-01" nType="0">
          <Node pos="l" depth="2" NCoef="0" IVar="-1" Cut="0.0000000000000000e+00" cType="1" res="-6.7427516914904118e-03" rms="1.9553704559803009e-01" purity="1.1373008787631989e-01" nType="-99"/>
          <Node pos="r" depth="2" NCoef="0" IVar="-1" Cut="0.0000000000000000e+00" cType="1" res="1.7436445923522115e-03" rms="2.6524633169174194e-01" purity="6.3893258571624756e-01" nType="-99"/>
        </Node>
      </Node>
    </BinaryTree>
    <BinaryTree type="DecisionTree" boostWeight="1.0000000000000000e+00" itree="424">
      <Node pos="s" depth="0" NCoef="0" IVar="37" Cut="-1.3791853189468384e+00" cType="1" res="8.8447442976757884e-04" rms="2.5256633758544922e-01" purity="4.9545192718505859e-01" nType="0">
        <Node pos="l" depth="1" NCoef="0" IVar="2" Cut="1.1280367374420166e+00" cType="1" res="1.4847298152744770e-02" rms="2.5578251481056213e-01" purity="5.3713846206665039e-01" nType="0">
          <Node pos="l" depth="2" NCoef="0" IVar="-1" Cut="0.0000000000000000e+00" cType="1" res="-5.3019816987216473e-03" rms="1.7548793554306030e-01" purity="1.0361991822719574e-01" nType="-99"/>
          <Node pos="r" depth="2" NCoef="0" IVar="-1" Cut="0.0000000000000000e+00" cType="1" res="1.5282909153029323e-03" rms="2.5882300734519958e-01" purity="5.6750589609146118e-01" nType="-99"/>
        </Node>
        <Node pos="r" depth="1" NCoef="0" IVar="33" Cut="-1.4924798011779785e+00" cType="1" res="-5.3503822535276413e-02" rms="2.3174080252647400e-01" purity="3.3307349681854248e-01" nType="0">
          <Node pos="l" depth="2" NCoef="0" IVar="-1" Cut="0.0000000000000000e+00" cType="1" res="-1.4223426114767790e-04" rms="2.5450900197029114e-01" purity="5.0072294473648071e-01" nType="-99"/>
          <Node pos="r" depth="2" NCoef="0" IVar="-1" Cut="0.0000000000000000e+00" cType="1" res="-6.0014999471604824e-03" rms="2.1882253885269165e-01" purity="2.6698908209800720e-01" nType="-99"/>
        </Node>
      </Node>
    </BinaryTree>
    <BinaryTree type="DecisionTree" boostWeight="1.0000000000000000e+00" itree="425">
      <Node pos="s" depth="0" NCoef="0" IVar="2" Cut="6.7393302917480469e-01" cType="1" res="1.7917500808835030e-03" rms="2.5249788165092468e-01" purity="5.0000047683715820e-01" nType="0">
        <Node pos="l" depth="1" NCoef="0" IVar="-1" Cut="0.0000000000000000e+00" cType="1" res="-8.4235314279794693e-03" rms="0.0000000000000000e+00" purity="-2.3863075301051140e-02" nType="-99"/>
        <Node pos="r" depth="1" NCoef="0" IVar="17" Cut="-9.6321457624435425e-01" cType="1" res="6.4042177982628345e-03" rms="2.5591906905174255e-01" purity="5.1518166065216064e-01" nType="0">
          <Node pos="l" depth="2" NCoef="0" IVar="-1" Cut="0.0000000000000000e+00" cType="1" res="1.0143367107957602e-03" rms="2.5559252500534058e-01" purity="5.3839278221130371e-01" nType="-99"/>
          <Node pos="r" depth="2" NCoef="0" IVar="-1" Cut="0.0000000000000000e+00" cType="1" res="-6.6029606387019157e-03" rms="2.4173840880393982e-01" purity="2.6296964287757874e-01" nType="-99"/>
        </Node>
      </Node>
    </BinaryTree>
    <BinaryTree type="DecisionTree" boostWeight="1.0000000000000000e+00" itree="426">
      <Node pos="s" depth="0" NCoef="0" IVar="37" Cut="-1.1090481281280518e+00" cType="1" res="1.6788326902315021e-03" rms="2.5123238563537598e-01" purity="4.9860939383506775e-01" nType="0">
        <Node pos="l" depth="1" NCoef="0" IVar="2" Cut="7.2223156690597534e-01" cType="1" res="1.1934008449316025e-02" rms="2.5466132164001465e-01" purity="5.3030955791473389e-01" nType="0">
          <Node pos="l" depth="2" NCoef="0" IVar="-1" Cut="0.0000000000000000e+00" cType="1" res="-7.2466861456632614e-03" rms="0.0000000000000000e+00" purity="1.9934002775698900e-03" nType="-99"/>
          <Node pos="r" depth="2" NCoef="0" IVar="-1" Cut="0.0000000000000000e+00" cType="1" res="1.1469908058643341e-03" rms="2.5735470652580261e-01" purity="5.4692560434341431e-01" nType="-99"/>
        </Node>
        <Node pos="r" depth="1" NCoef="0" IVar="33" Cut="-1.4925332069396973e+00" cType="1" res="-6.6315896809101105e-02" rms="2.1516443789005280e-01" purity="2.8842872381210327e-01" nType="0">
          <Node pos="l" depth="2" NCoef="0" IVar="-1" Cut="0.0000000000000000e+00" cType="1" res="-2.5392262614332139e-04" rms="2.5734156370162964e-01" purity="4.8511278629302979e-01" nType="-99"/>
          <Node pos="r" depth="2" NCoef="0" IVar="-1" Cut="0.0000000000000000e+00" cType="1" res="-7.7224159613251686e-03" rms="1.9240805506706238e-01" purity="2.1637493371963501e-01" nType="-99"/>
        </Node>
      </Node>
    </BinaryTree>
    <BinaryTree type="DecisionTree" boostWeight="1.0000000000000000e+00" itree="427">
      <Node pos="s" depth="0" NCoef="0" IVar="65" Cut="7.5209474563598633e-01" cType="1" res="1.3125960249453783e-03" rms="2.5362408161163330e-01" purity="4.9846851825714111e-01" nType="0">
        <Node pos="l" depth="1" NCoef="0" IVar="54" Cut="-1.3830594718456268e-01" cType="1" res="8.8789919391274452e-03" rms="2.5756561756134033e-01" purity="5.2625644207000732e-01" nType="0">
          <Node pos="l" depth="2" NCoef="0" IVar="-1" Cut="0.0000000000000000e+00" cType="1" res="1.5682858647778630e-03" rms="2.5331628322601318e-01" purity="6.1207681894302368e-01" nType="-99"/>
          <Node pos="r" depth="2" NCoef="0" IVar="-1" Cut="0.0000000000000000e+00" cType="1" res="-3.2035545445978642e-03" rms="2.6545056700706482e-01" purity="2.3006683588027954e-01" nType="-99"/>
        </Node>
        <Node pos="r" depth="1" NCoef="0" IVar="4" Cut="3.7383093833923340e+00" cType="1" res="-9.2140741646289825e-02" rms="1.7320126295089722e-01" purity="1.5525662899017334e-01" nType="0">
          <Node pos="l" depth="2" NCoef="0" IVar="-1" Cut="0.0000000000000000e+00" cType="1" res="-1.0508170351386070e-02" rms="1.4444471895694733e-01" purity="9.3537732958793640e-02" nType="-99"/>
          <Node pos="r" depth="2" NCoef="0" IVar="-1" Cut="0.0000000000000000e+00" cType="1" res="-3.7925606593489647e-03" rms="2.0199559628963470e-01" purity="2.5574481487274170e-01" nType="-99"/>
        </Node>
      </Node>
    </BinaryTree>
    <BinaryTree type="DecisionTree" boostWeight="1.0000000000000000e+00" itree="428">
      <Node pos="s" depth="0" NCoef="0" IVar="57" Cut="-1.5164402723312378e+00" cType="1" res="2.7151685208082199e-03" rms="2.5272965431213379e-01" purity="5.0122141838073730e-01" nType="0">
        <Node pos="l" depth="1" NCoef="0" IVar="54" Cut="1.4479401111602783e+00" cType="1" res="1.8201956525444984e-02" rms="2.5597092509269714e-01" purity="5.4898798465728760e-01" nType="0">
          <Node pos="l" depth="2" NCoef="0" IVar="-1" Cut="0.0000000000000000e+00" cType="1" res="1.7342146020382643e-03" rms="2.5461006164550781e-01" purity="5.8944499492645264e-01" nType="-99"/>
          <Node pos="r" depth="2" NCoef="0" IVar="-1" Cut="0.0000000000000000e+00" cType="1" res="-6.9108563475310802e-03" rms="2.5287199020385742e-01" purity="9.3077845871448517e-02" nType="-99"/>
        </Node>
        <Node pos="r" depth="1" NCoef="0" IVar="2" Cut="2.0915405750274658e+00" cType="1" res="-4.3453369289636612e-02" rms="2.3687613010406494e-01" purity="3.5882177948951721e-01" nType="0">
          <Node pos="l" depth="2" NCoef="0" IVar="-1" Cut="0.0000000000000000e+00" cType="1" res="-7.0849340409040451e-03" rms="1.1749897152185440e-01" purity="1.2651719152927399e-01" nType="-99"/>
          <Node pos="r" depth="2" NCoef="0" IVar="-1" Cut="0.0000000000000000e+00" cType="1" res="-9.7520550480112433e-04" rms="3.0029362440109253e-01" purity="5.5580526590347290e-01" nType="-99"/>
        </Node>
      </Node>
    </BinaryTree>
    <BinaryTree type="DecisionTree" boostWeight="1.0000000000000000e+00" itree="429">
      <Node pos="s" depth="0" NCoef="0" IVar="32" Cut="-1.5312021970748901e+00" cType="1" res="1.4138355618342757e-03" rms="2.5370320677757263e-01" purity="5.0008106231689453e-01" nType="0">
        <Node pos="l" depth="1" NCoef="0" IVar="54" Cut="-1.4150406122207642e+00" cType="1" res="3.6298945546150208e-02" rms="2.4700950086116791e-01" purity="6.8482542037963867e-01" nType="0">
          <Node pos="l" depth="2" NCoef="0" IVar="-1" Cut="0.0000000000000000e+00" cType="1" res="4.1164178401231766e-03" rms="2.1456086635589600e-01" purity="7.9244244098663330e-01" nType="-99"/>
          <Node pos="r" depth="2" NCoef="0" IVar="-1" Cut="0.0000000000000000e+00" cType="1" res="-1.3826383510604501e-03" rms="3.0484911799430847e-01" purity="4.2078724503517151e-01" nType="-99"/>
        </Node>
        <Node pos="r" depth="1" NCoef="0" IVar="65" Cut="7.0641738176345825e-01" cType="1" res="-2.1577700972557068e-02" rms="2.5542822480201721e-01" purity="3.7832266092300415e-01" nType="0">
          <Node pos="l" depth="2" NCoef="0" IVar="-1" Cut="0.0000000000000000e+00" cType="1" res="-8.0527755199000239e-04" rms="2.6798656582832336e-01" purity="4.1423150897026062e-01" nType="-99"/>
          <Node pos="r" depth="2" NCoef="0" IVar="-1" Cut="0.0000000000000000e+00" cType="1" res="-9.1274604201316833e-03" rms="1.0214889794588089e-01" purity="1.1172426491975784e-01" nType="-99"/>
        </Node>
      </Node>
    </BinaryTree>
    <BinaryTree type="DecisionTree" boostWeight="1.0000000000000000e+00" itree="430">
      <Node pos="s" depth="0" NCoef="0" IVar="17" Cut="-1.3805184364318848e+00" cType="1" res="3.2586054876446724e-03" rms="2.5330868363380432e-01" purity="5.0176882743835449e-01" nType="0">
        <Node pos="l" depth="1" NCoef="0" IVar="14" Cut="-1.2989310026168823e+00" cType="1" res="1.5931639820337296e-02" rms="2.5448724627494812e-01" purity="5.3823459148406982e-01" nType="0">
          <Node pos="l" depth="2" NCoef="0" IVar="-1" Cut="0.0000000000000000e+00" cType="1" res="-8.2403607666492462e-03" rms="0.0000000000000000e+00" purity="7.3208645917475224e-03" nType="-99"/>
          <Node pos="r" depth="2" NCoef="0" IVar="-1" Cut="0.0000000000000000e+00" cType="1" res="1.7492689657956362e-03" rms="2.8729161620140076e-01" purity="6.8901664018630981e-01" nType="-99"/>
        </Node>
        <Node pos="r" depth="1" NCoef="0" IVar="2" Cut="1.8084229230880737e+00" cType="1" res="-5.2340049296617508e-02" rms="2.4029949307441711e-01" purity="3.4178754687309265e-01" nType="0">
          <Node pos="l" depth="2" NCoef="0" IVar="-1" Cut="0.0000000000000000e+00" cType="1" res="-9.7924806177616119e-03" rms="0.0000000000000000e+00" purity="6.1541657894849777e-02" nType="-99"/>
          <Node pos="r" depth="2" NCoef="0" IVar="-1" Cut="0.0000000000000000e+00" cType="1" res="-2.0119477994740009e-03" rms="2.9853093624114990e-01" purity="4.7332990169525146e-01" nType="-99"/>
        </Node>
      </Node>
    </BinaryTree>
    <BinaryTree type="DecisionTree" boostWeight="1.0000000000000000e+00" itree="431">
      <Node pos="s" depth="0" NCoef="0" IVar="2" Cut="5.7250368595123291e-01" cType="1" res="4.4862208887934685e-03" rms="2.5312781333923340e-01" purity="5.0271379947662354e-01" nType="0">
        <Node pos="l" depth="1" NCoef="0" IVar="-1" Cut="0.0000000000000000e+00" cType="1" res="-9.8852487280964851e-03" rms="0.0000000000000000e+00" purity="-6.7619822919368744e-02" nType="-99"/>
        <Node pos="r" depth="1" NCoef="0" IVar="34" Cut="1.4480490684509277e+00" cType="1" res="9.0333418920636177e-03" rms="2.5677788257598877e-01" purity="5.1612597703933716e-01" nType="0">
          <Node pos="l" depth="2" NCoef="0" IVar="-1" Cut="0.0000000000000000e+00" cType="1" res="1.1929599568247795e-03" rms="2.5983208417892456e-01" purity="5.5638134479522705e-01" nType="-99"/>
          <Node pos="r" depth="2" NCoef="0" IVar="-1" Cut="0.0000000000000000e+00" cType="1" res="-8.1750126555562019e-03" rms="1.9756999611854553e-01" purity="7.3053479194641113e-02" nType="-99"/>
        </Node>
      </Node>
    </BinaryTree>
    <BinaryTree type="DecisionTree" boostWeight="1.0000000000000000e+00" itree="432">
      <Node pos="s" depth="0" NCoef="0" IVar="65" Cut="7.7429032325744629e-01" cType="1" res="1.9634622149169445e-03" rms="2.5214135646820068e-01" purity="5.0130379199981689e-01" nType="0">
        <Node pos="l" depth="1" NCoef="0" IVar="54" Cut="1.2931843996047974e+00" cType="1" res="8.5526593029499054e-03" rms="2.5612974166870117e-01" purity="5.2465593814849854e-01" nType="0">
          <Node pos="l" depth="2" NCoef="0" IVar="-1" Cut="0.0000000000000000e+00" cType="1" res="1.2534545967355371e-03" rms="2.5783979892730713e-01" purity="5.7999187707901001e-01" nType="-99"/>
          <Node pos="r" depth="2" NCoef="0" IVar="-1" Cut="0.0000000000000000e+00" cType="1" res="-5.7020415551960468e-03" rms="2.2974203526973724e-01" purity="1.1627783626317978e-01" nType="-99"/>
        </Node>
        <Node pos="r" depth="1" NCoef="0" IVar="37" Cut="-1.8203061819076538e+00" cType="1" res="-1.0884258896112442e-01" rms="1.2836378812789917e-01" purity="1.0860712081193924e-01" nType="0">
          <Node pos="l" depth="2" NCoef="0" IVar="-1" Cut="0.0000000000000000e+00" cType="1" res="-6.3893352635204792e-03" rms="2.1236585080623627e-01" purity="1.6531839966773987e-01" nType="-99"/>
          <Node pos="r" depth="2" NCoef="0" IVar="-1" Cut="0.0000000000000000e+00" cType="1" res="-1.5367142856121063e-02" rms="0.0000000000000000e+00" purity="2.3058757185935974e-02" nType="-99"/>
        </Node>
      </Node>
    </BinaryTree>
    <BinaryTree type="DecisionTree" boostWeight="1.0000000000000000e+00" itree="433">
      <Node pos="s" depth="0" NCoef="0" IVar="36" Cut="-1.5311200618743896e+00" cType="1" res="8.4470730507746339e-04" rms="2.5130751729011536e-01" purity="4.9672493338584900e-01" nType="0">
        <Node pos="l" depth="1" NCoef="0" IVar="54" Cut="-1.4150429964065552e+00" cType="1" res="3.2193902879953384e-02" rms="2.3472559452056885e-01" purity="6.8240088224411011e-01" nType="0">
          <Node pos="l" depth="2" NCoef="0" IVar="-1" Cut="0.0000000000000000e+00" cType="1" res="3.7538779433816671e-03" rms="1.9657711684703827e-01" purity="7.9017895460128784e-01" nType="-99"/>
          <Node pos="r" depth="2" NCoef="0" IVar="-1" Cut="0.0000000000000000e+00" cType="1" res="-1.2827379396185279e-03" rms="3.0088293552398682e-01" purity="4.2468425631523132e-01" nType="-99"/>
        </Node>
        <Node pos="r" depth="1" NCoef="0" IVar="36" Cut="1.5247857570648193e+00" cType="1" res="-2.0111175253987312e-02" rms="2.5970515608787537e-01" purity="3.7260681390762329e-01" nType="0">
          <Node pos="l" depth="2" NCoef="0" IVar="-1" Cut="0.0000000000000000e+00" cType="1" res="-9.1531040379777551e-04" rms="2.6282697916030884e-01" purity="3.9621055126190186e-01" nType="-99"/>
          <Node pos="r" depth="2" NCoef="0" IVar="-1" Cut="0.0000000000000000e+00" cType="1" res="-1.1422534473240376e-02" rms="1.7748400568962097e-01" purity="2.3380331695079803e-02" nType="-99"/>
        </Node>
      </Node>
    </BinaryTree>
    <BinaryTree type="DecisionTree" boostWeight="1.0000000000000000e+00" itree="434">
      <Node pos="s" depth="0" NCoef="0" IVar="14" Cut="1.5258079767227173e+00" cType="1" res="5.1634525880217552e-04" rms="2.5439757108688354e-01" purity="4.9749711155891418e-01" nType="0">
        <Node pos="l" depth="1" NCoef="0" IVar="17" Cut="-1.0522351264953613e+00" cType="1" res="-1.8058683723211288e-02" rms="2.5116884708404541e-01" purity="3.4523108601570129e-01" nType="0">
          <Node pos="l" depth="2" NCoef="0" IVar="-1" Cut="0.0000000000000000e+00" cType="1" res="-5.9207400772720575e-04" rms="2.5550889968872070e-01" purity="3.7049815058708191e-01" nType="-99"/>
          <Node pos="r" depth="2" NCoef="0" IVar="-1" Cut="0.0000000000000000e+00" cType="1" res="-7.6627968810498714e-03" rms="2.0661832392215729e-01" purity="1.7362222075462341e-01" nType="-99"/>
        </Node>
        <Node pos="r" depth="1" NCoef="0" IVar="36" Cut="1.4855418205261230e+00" cType="1" res="3.4503936767578125e-02" rms="2.5674581527709961e-01" purity="7.7610522508621216e-01" nType="0">
          <Node pos="l" depth="2" NCoef="0" IVar="-1" Cut="0.0000000000000000e+00" cType="1" res="2.7673100121319294e-03" rms="2.4808225035667419e-01" purity="8.1874442100524902e-01" nType="-99"/>
          <Node pos="r" depth="2" NCoef="0" IVar="-1" Cut="0.0000000000000000e+00" cType="1" res="-7.8458348289132118e-03" rms="3.2125076651573181e-01" purity="1.1119107156991959e-01" nType="-99"/>
        </Node>
      </Node>
    </BinaryTree>
    <BinaryTree type="DecisionTree" boostWeight="1.0000000000000000e+00" itree="435">
      <Node pos="s" depth="0" NCoef="0" IVar="57" Cut="-1.0932277441024780e+00" cType="1" res="4.6937889419496059e-04" rms="2.4964746832847595e-01" purity="4.9854713678359985e-01" nType="0">
        <Node pos="l" depth="1" NCoef="0" IVar="36" Cut="1.4856319427490234e+00" cType="1" res="1.0753027163445950e-02" rms="2.5277480483055115e-01" purity="5.3235650062561035e-01" nType="0">
          <Node pos="l" depth="2" NCoef="0" IVar="-1" Cut="0.0000000000000000e+00" cType="1" res="1.2284411350265145e-03" rms="2.5411143898963928e-01" purity="5.6567227840423584e-01" nType="-99"/>
          <Node pos="r" depth="2" NCoef="0" IVar="-1" Cut="0.0000000000000000e+00" cType="1" res="-8.9393854141235352e-03" rms="2.0318055152893066e-01" purity="5.0069201737642288e-02" nType="-99"/>
        </Node>
        <Node pos="r" depth="1" NCoef="0" IVar="45" Cut="2.7039246559143066e+00" cType="1" res="-7.1477726101875305e-02" rms="2.1310733258724213e-01" purity="2.6200789213180542e-01" nType="0">
          <Node pos="l" depth="2" NCoef="0" IVar="-1" Cut="0.0000000000000000e+00" cType="1" res="-7.4748303741216660e-03" rms="1.7156969010829926e-01" purity="1.7062975466251373e-01" nType="-99"/>
          <Node pos="r" depth="2" NCoef="0" IVar="-1" Cut="0.0000000000000000e+00" cType="1" res="-1.1877208016812801e-03" rms="3.3422285318374634e-01" purity="6.6056370735168457e-01" nType="-99"/>
        </Node>
      </Node>
    </BinaryTree>
    <BinaryTree type="DecisionTree" boostWeight="1.0000000000000000e+00" itree="436">
      <Node pos="s" depth="0" NCoef="0" IVar="57" Cut="-1.4862109422683716e+00" cType="1" res="2.0791429560631514e-03" rms="2.5730490684509277e-01" purity="5.0014257431030273e-01" nType="0">
        <Node pos="l" depth="1" NCoef="0" IVar="56" Cut="1.4849827289581299e+00" cType="1" res="1.6178768128156662e-02" rms="2.5839039683341980e-01" purity="5.4709726572036743e-01" nType="0">
          <Node pos="l" depth="2" NCoef="0" IVar="-1" Cut="0.0000000000000000e+00" cType="1" res="1.5732261817902327e-03" rms="2.5990378856658936e-01" purity="5.8104568719863892e-01" nType="-99"/>
          <Node pos="r" depth="2" NCoef="0" IVar="-1" Cut="0.0000000000000000e+00" cType="1" res="-8.9010037481784821e-03" rms="2.0575264096260071e-01" purity="4.9081224948167801e-02" nType="-99"/>
        </Node>
        <Node pos="r" depth="1" NCoef="0" IVar="45" Cut="2.8744449615478516e+00" cType="1" res="-4.2520631104707718e-02" rms="2.4863062798976898e-01" purity="3.5161599516868591e-01" nType="0">
          <Node pos="l" depth="2" NCoef="0" IVar="-1" Cut="0.0000000000000000e+00" cType="1" res="-4.4045858085155487e-03" rms="2.3826228082180023e-01" purity="2.6971742510795593e-01" nType="-99"/>
          <Node pos="r" depth="2" NCoef="0" IVar="-1" Cut="0.0000000000000000e+00" cType="1" res="1.1753186117857695e-03" rms="2.8614646196365356e-01" purity="7.4872869253158569e-01" nType="-99"/>
        </Node>
      </Node>
    </BinaryTree>
    <BinaryTree type="DecisionTree" boostWeight="1.0000000000000000e+00" itree="437">
      <Node pos="s" depth="0" NCoef="0" IVar="45" Cut="9.6825766563415527e-01" cType="1" res="5.4312573047354817e-04" rms="2.4898687005043030e-01" purity="5.0057762861251831e-01" nType="0">
        <Node pos="l" depth="1" NCoef="0" IVar="49" Cut="2.8584742546081543e+00" cType="1" res="-7.8522704541683197e-02" rms="1.1006112396717072e-01" purity="6.5182991325855255e-02" nType="0">
          <Node pos="l" depth="2" NCoef="0" IVar="-1" Cut="0.0000000000000000e+00" cType="1" res="-1.2642890214920044e-02" rms="0.0000000000000000e+00" purity="1.7743390053510666e-02" nType="-99"/>
          <Node pos="r" depth="2" NCoef="0" IVar="-1" Cut="0.0000000000000000e+00" cType="1" res="5.1113037625327706e-04" rms="2.4451543390750885e-01" purity="2.1448200941085815e-01" nType="-99"/>
        </Node>
        <Node pos="r" depth="1" NCoef="0" IVar="2" Cut="6.1416429281234741e-01" cType="1" res="9.5723317936062813e-03" rms="2.5864139199256897e-01" purity="5.5029898881912231e-01" nType="0">
          <Node pos="l" depth="2" NCoef="0" IVar="-1" Cut="0.0000000000000000e+00" cType="1" res="-8.3000147715210915e-03" rms="0.0000000000000000e+00" purity="-3.6257106810808182e-02" nType="-99"/>
          <Node pos="r" depth="2" NCoef="0" IVar="-1" Cut="0.0000000000000000e+00" cType="1" res="9.6260837744921446e-04" rms="2.6134514808654785e-01" purity="5.6504565477371216e-01" nType="-99"/>
        </Node>
      </Node>
    </BinaryTree>
    <BinaryTree type="DecisionTree" boostWeight="1.0000000000000000e+00" itree="438">
      <Node pos="s" depth="0" NCoef="0" IVar="45" Cut="1.5231213569641113e+00" cType="1" res="1.8227751133963466e-03" rms="2.5015899538993835e-01" purity="5.0016951560974121e-01" nType="0">
        <Node pos="l" depth="1" NCoef="0" IVar="0" Cut="7.6033449172973633e-01" cType="1" res="-4.6110186725854874e-02" rms="1.8439868092536926e-01" purity="1.6200658679008484e-01" nType="0">
          <Node pos="l" depth="2" NCoef="0" IVar="-1" Cut="0.0000000000000000e+00" cType="1" res="-1.6770889051258564e-03" rms="2.1659623086452484e-01" purity="2.1787133812904358e-01" nType="-99"/>
          <Node pos="r" depth="2" NCoef="0" IVar="-1" Cut="0.0000000000000000e+00" cType="1" res="-1.0883737355470657e-02" rms="6.8616844713687897e-02" purity="5.1136232912540436e-02" nType="-99"/>
        </Node>
        <Node pos="r" depth="1" NCoef="0" IVar="54" Cut="1.4479401111602783e+00" cType="1" res="1.7144195735454559e-02" rms="2.6597872376441956e-01" purity="6.0826081037521362e-01" nType="0">
          <Node pos="l" depth="2" NCoef="0" IVar="-1" Cut="0.0000000000000000e+00" cType="1" res="1.6826422652229667e-03" rms="2.6530385017395020e-01" purity="6.5479457378387451e-01" nType="-99"/>
          <Node pos="r" depth="2" NCoef="0" IVar="-1" Cut="0.0000000000000000e+00" cType="1" res="-7.0437155663967133e-03" rms="2.5354960560798645e-01" purity="1.0071802884340286e-01" nType="-99"/>
        </Node>
      </Node>
    </BinaryTree>
    <BinaryTree type="DecisionTree" boostWeight="1.0000000000000000e+00" itree="439">
      <Node pos="s" depth="0" NCoef="0" IVar="1" Cut="3.3984236717224121e+00" cType="1" res="2.1262874361127615e-03" rms="2.5078475475311279e-01" purity="4.9957734346389771e-01" nType="0">
        <Node pos="l" depth="1" NCoef="0" IVar="57" Cut="-2.0333197116851807e+00" cType="1" res="-1.5444384887814522e-02" rms="2.5514367222785950e-01" purity="3.5674816370010376e-01" nType="0">
          <Node pos="l" depth="2" NCoef="0" IVar="-1" Cut="0.0000000000000000e+00" cType="1" res="7.9884828301146626e-04" rms="2.7638721466064453e-01" purity="4.3168309330940247e-01" nType="-99"/>
          <Node pos="r" depth="2" NCoef="0" IVar="-1" Cut="0.0000000000000000e+00" cType="1" res="-3.3090345095843077e-03" rms="2.2843761742115021e-01" purity="2.8129032254219055e-01" nType="-99"/>
        </Node>
        <Node pos="r" depth="1" NCoef="0" IVar="2" Cut="1.9345929622650146e+00" cType="1" res="4.0857363492250443e-02" rms="2.3632861673831940e-01" purity="8.1441611051559448e-01" nType="0">
          <Node pos="l" depth="2" NCoef="0" IVar="-1" Cut="0.0000000000000000e+00" cType="1" res="-3.2287102658301592e-03" rms="3.1574603915214539e-01" purity="5.5599170923233032e-01" nType="-99"/>
          <Node pos="r" depth="2" NCoef="0" IVar="-1" Cut="0.0000000000000000e+00" cType="1" res="3.5460542421787977e-03" rms="2.2677642107009888e-01" purity="8.3471089601516724e-01" nType="-99"/>
        </Node>
      </Node>
    </BinaryTree>
    <BinaryTree type="DecisionTree" boostWeight="1.0000000000000000e+00" itree="440">
      <Node pos="s" depth="0" NCoef="0" IVar="14" Cut="1.4870474338531494e+00" cType="1" res="1.4521366683766246e-03" rms="2.5382098555564880e-01" purity="4.9868834018707275e-01" nType="0">
        <Node pos="l" depth="1" NCoef="0" IVar="65" Cut="7.5187700986862183e-01" cType="1" res="-2.3880399763584137e-02" rms="2.3832422494888306e-01" purity="2.4043521285057068e-01" nType="0">
          <Node pos="l" depth="2" NCoef="0" IVar="-1" Cut="0.0000000000000000e+00" cType="1" res="-1.0832195403054357e-03" rms="2.4788242578506470e-01" purity="2.6717886328697205e-01" nType="-99"/>
          <Node pos="r" depth="2" NCoef="0" IVar="-1" Cut="0.0000000000000000e+00" cType="1" res="-1.0086918249726295e-02" rms="1.3494041562080383e-01" purity="5.5045831948518753e-02" nType="-99"/>
        </Node>
        <Node pos="r" depth="1" NCoef="0" IVar="56" Cut="1.4850335121154785e+00" cType="1" res="2.6690199971199036e-02" rms="2.6598307490348816e-01" purity="7.5597834587097168e-01" nType="0">
          <Node pos="l" depth="2" NCoef="0" IVar="-1" Cut="0.0000000000000000e+00" cType="1" res="2.1554233971983194e-03" rms="2.6061779260635376e-01" purity="7.9695010185241699e-01" nType="-99"/>
          <Node pos="r" depth="2" NCoef="0" IVar="-1" Cut="0.0000000000000000e+00" cType="1" res="-7.3857819661498070e-03" rms="3.0612739920616150e-01" purity="1.0177229344844818e-01" nType="-99"/>
        </Node>
      </Node>
    </BinaryTree>
    <BinaryTree type="DecisionTree" boostWeight="1.0000000000000000e+00" itree="441">
      <Node pos="s" depth="0" NCoef="0" IVar="45" Cut="1.1926382780075073e+00" cType="1" res="2.4426102754659951e-04" rms="2.4832974374294281e-01" purity="4.9907571077346802e-01" nType="0">
        <Node pos="l" depth="1" NCoef="0" IVar="49" Cut="2.9905488491058350e+00" cType="1" res="-6.3965193927288055e-02" rms="1.4608703553676605e-01" purity="1.0050236433744431e-01" nType="0">
          <Node pos="l" depth="2" NCoef="0" IVar="-1" Cut="0.0000000000000000e+00" cType="1" res="-9.2962495982646942e-03" rms="1.0058305412530899e-01" purity="5.7945750653743744e-02" nType="-99"/>
          <Node pos="r" depth="2" NCoef="0" IVar="-1" Cut="0.0000000000000000e+00" cType="1" res="1.1242291657254100e-03" rms="2.3876784741878510e-01" purity="2.6539093255996704e-01" nType="-99"/>
        </Node>
        <Node pos="r" depth="1" NCoef="0" IVar="34" Cut="1.4480490684509277e+00" cType="1" res="1.1366093531250954e-02" rms="2.6041278243064880e-01" purity="5.6811326742172241e-01" nType="0">
          <Node pos="l" depth="2" NCoef="0" IVar="-1" Cut="0.0000000000000000e+00" cType="1" res="1.2908137869089842e-03" rms="2.6091188192367554e-01" purity="6.0674220323562622e-01" nType="-99"/>
          <Node pos="r" depth="2" NCoef="0" IVar="-1" Cut="0.0000000000000000e+00" cType="1" res="-8.0700013786554337e-03" rms="2.2999362647533417e-01" purity="8.7508276104927063e-02" nType="-99"/>
        </Node>
      </Node>
    </BinaryTree>
    <BinaryTree type="DecisionTree" boostWeight="1.0000000000000000e+00" itree="442">
      <Node pos="s" depth="0" NCoef="0" IVar="0" Cut="9.1093313694000244e-01" cType="1" res="3.8582545239478350e-03" rms="2.5089615583419800e-01" purity="4.9953237175941467e-01" nType="0">
        <Node pos="l" depth="1" NCoef="0" IVar="2" Cut="6.1135417222976685e-01" cType="1" res="1.4512468129396439e-02" rms="2.5110346078872681e-01" purity="5.2696412801742554e-01" nType="0">
          <Node pos="l" depth="2" NCoef="0" IVar="-1" Cut="0.0000000000000000e+00" cType="1" res="-8.3405645564198494e-03" rms="0.0000000000000000e+00" purity="-2.6062749326229095e-02" nType="-99"/>
          <Node pos="r" depth="2" NCoef="0" IVar="-1" Cut="0.0000000000000000e+00" cType="1" res="1.3557249912992120e-03" rms="2.5398123264312744e-01" purity="5.4259794950485229e-01" nType="-99"/>
        </Node>
        <Node pos="r" depth="1" NCoef="0" IVar="29" Cut="2.7841699123382568e+00" cType="1" res="-5.7092662900686264e-02" rms="2.4080923199653625e-01" purity="3.4260019659996033e-01" nType="0">
          <Node pos="l" depth="2" NCoef="0" IVar="-1" Cut="0.0000000000000000e+00" cType="1" res="-1.2287917546927929e-02" rms="1.2824209034442902e-01" purity="1.3261017203330994e-01" nType="-99"/>
          <Node pos="r" depth="2" NCoef="0" IVar="-1" Cut="0.0000000000000000e+00" cType="1" res="-2.2652463521808386e-03" rms="2.6692590117454529e-01" purity="4.2295318841934204e-01" nType="-99"/>
        </Node>
      </Node>
    </BinaryTree>
    <BinaryTree type="DecisionTree" boostWeight="1.0000000000000000e+00" itree="443">
      <Node pos="s" depth="0" NCoef="0" IVar="2" Cut="1.2441861629486084e+00" cType="1" res="1.8670877907425165e-03" rms="2.4880874156951904e-01" purity="5.0084054470062256e-01" nType="0">
        <Node pos="l" depth="1" NCoef="0" IVar="2" Cut="5.1800268888473511e-01" cType="1" res="-8.6963512003421783e-02" rms="1.5213085711002350e-01" purity="1.0514242202043533e-01" nType="0">
          <Node pos="l" depth="2" NCoef="0" IVar="-1" Cut="0.0000000000000000e+00" cType="1" res="-9.9454950541257858e-03" rms="0.0000000000000000e+00" purity="-7.9297997057437897e-02" nType="-99"/>
          <Node pos="r" depth="2" NCoef="0" IVar="-1" Cut="0.0000000000000000e+00" cType="1" res="-3.7656063213944435e-03" rms="2.1581353247165680e-01" purity="1.6416558623313904e-01" nType="-99"/>
        </Node>
        <Node pos="r" depth="1" NCoef="0" IVar="0" Cut="7.5690430402755737e-01" cType="1" res="1.0125437751412392e-02" rms="2.5437688827514648e-01" purity="5.3762757778167725e-01" nType="0">
          <Node pos="l" depth="2" NCoef="0" IVar="-1" Cut="0.0000000000000000e+00" cType="1" res="1.8401037668809295e-03" rms="2.5609168410301208e-01" purity="5.8903503417968750e-01" nType="-99"/>
          <Node pos="r" depth="2" NCoef="0" IVar="-1" Cut="0.0000000000000000e+00" cType="1" res="-2.9407192487269640e-03" rms="2.4326957762241364e-01" purity="3.9218494296073914e-01" nType="-99"/>
        </Node>
      </Node>
    </BinaryTree>
    <BinaryTree type="DecisionTree" boostWeight="1.0000000000000000e+00" itree="444">
      <Node pos="s" depth="0" NCoef="0" IVar="1" Cut="2.3264305591583252e+00" cType="1" res="1.1997906258329749e-03" rms="2.4984093010425568e-01" purity="4.9877655506134033e-01" nType="0">
        <Node pos="l" depth="1" NCoef="0" IVar="57" Cut="-1.8792073726654053e+00" cType="1" res="-4.8011809587478638e-02" rms="1.2155043333768845e-01" purity="6.6600255668163300e-02" nType="0">
          <Node pos="l" depth="2" NCoef="0" IVar="-1" Cut="0.0000000000000000e+00" cType="1" res="-2.0572016946971416e-03" rms="2.0774935185909271e-01" purity="1.1669941246509552e-01" nType="-99"/>
          <Node pos="r" depth="2" NCoef="0" IVar="-1" Cut="0.0000000000000000e+00" cType="1" res="-1.0260863229632378e-02" rms="0.0000000000000000e+00" purity="1.4499636366963387e-02" nType="-99"/>
        </Node>
        <Node pos="r" depth="1" NCoef="0" IVar="65" Cut="7.7427268028259277e-01" cType="1" res="1.3892112299799919e-02" rms="2.7188843488693237e-01" purity="6.1024051904678345e-01" nType="0">
          <Node pos="l" depth="2" NCoef="0" IVar="-1" Cut="0.0000000000000000e+00" cType="1" res="1.2710128212347627e-03" rms="2.7288314700126648e-01" purity="6.3216304779052734e-01" nType="-99"/>
          <Node pos="r" depth="2" NCoef="0" IVar="-1" Cut="0.0000000000000000e+00" cType="1" res="-7.5954208150506020e-03" rms="2.2116668522357941e-01" purity="1.8124192953109741e-01" nType="-99"/>
        </Node>
      </Node>
    </BinaryTree>
    <BinaryTree type="DecisionTree" boostWeight="1.0000000000000000e+00" itree="445">
      <Node pos="s" depth="0" NCoef="0" IVar="0" Cut="8.3210808038711548e-01" cType="1" res="2.5115881580859423e-03" rms="2.5207415223121643e-01" purity="4.9749806523323059e-01" nType="0">
        <Node pos="l" depth="1" NCoef="0" IVar="2" Cut="1.7217365503311157e+00" cType="1" res="1.5121016651391983e-02" rms="2.5460678339004517e-01" purity="5.3580200672149658e-01" nType="0">
          <Node pos="l" depth="2" NCoef="0" IVar="-1" Cut="0.0000000000000000e+00" cType="1" res="-2.4886066094040871e-03" rms="2.2319719195365906e-01" purity="2.0947062969207764e-01" nType="-99"/>
          <Node pos="r" depth="2" NCoef="0" IVar="-1" Cut="0.0000000000000000e+00" cType="1" res="2.1295398473739624e-03" rms="2.6184722781181335e-01" purity="6.4061903953552246e-01" nType="-99"/>
        </Node>
        <Node pos="r" depth="1" NCoef="0" IVar="4" Cut="3.4644880294799805e+00" cType="1" res="-4.6609107404947281e-02" rms="2.3560613393783569e-01" purity="3.4828317165374756e-01" nType="0">
          <Node pos="l" depth="2" NCoef="0" IVar="-1" Cut="0.0000000000000000e+00" cType="1" res="-1.2093753553926945e-02" rms="1.4134171605110168e-01" purity="1.1316374689340591e-01" nType="-99"/>
          <Node pos="r" depth="2" NCoef="0" IVar="-1" Cut="0.0000000000000000e+00" cType="1" res="-2.0138432737439871e-03" rms="2.5397571921348572e-01" purity="4.1958564519882202e-01" nType="-99"/>
        </Node>
      </Node>
    </BinaryTree>
    <BinaryTree type="DecisionTree" boostWeight="1.0000000000000000e+00" itree="446">
      <Node pos="s" depth="0" NCoef="0" IVar="32" Cut="-1.5312021970748901e+00" cType="1" res="2.8850191738456488e-03" rms="2.5177982449531555e-01" purity="4.9881288409233093e-01" nType="0">
        <Node pos="l" depth="1" NCoef="0" IVar="56" Cut="1.2920519113540649e+00" cType="1" res="3.5718005150556564e-02" rms="2.4187286198139191e-01" purity="6.8634068965911865e-01" nType="0">
          <Node pos="l" depth="2" NCoef="0" IVar="-1" Cut="0.0000000000000000e+00" cType="1" res="3.0936645343899727e-03" rms="2.3358596861362457e-01" purity="7.3901683092117310e-01" nType="-99"/>
          <Node pos="r" depth="2" NCoef="0" IVar="-1" Cut="0.0000000000000000e+00" cType="1" res="-4.5603956095874310e-03" rms="2.9348778724670410e-01" purity="1.6934432089328766e-01" nType="-99"/>
        </Node>
        <Node pos="r" depth="1" NCoef="0" IVar="37" Cut="-9.0166145563125610e-01" cType="1" res="-1.8552541732788086e-02" rms="2.5577890872955322e-01" purity="3.7637087702751160e-01" nType="0">
          <Node pos="l" depth="2" NCoef="0" IVar="-1" Cut="0.0000000000000000e+00" cType="1" res="-6.1122275656089187e-04" rms="2.6244714856147766e-01" purity="4.0423831343650818e-01" nType="-99"/>
          <Node pos="r" depth="2" NCoef="0" IVar="-1" Cut="0.0000000000000000e+00" cType="1" res="-8.3435848355293274e-03" rms="1.8531461060047150e-01" purity="1.7328101396560669e-01" nType="-99"/>
        </Node>
      </Node>
    </BinaryTree>
    <BinaryTree type="DecisionTree" boostWeight="1.0000000000000000e+00" itree="447">
      <Node pos="s" depth="0" NCoef="0" IVar="25" Cut="1.0606837272644043e+00" cType="1" res="1.4084046706557274e-03" rms="2.5088739395141602e-01" purity="5.0036776065826416e-01" nType="0">
        <Node pos="l" depth="1" NCoef="0" IVar="29" Cut="2.9381775856018066e+00" cType="1" res="-6.7200943827629089e-02" rms="1.2864066660404205e-01" purity="7.6137758791446686e-02" nType="0">
          <Node pos="l" depth="2" NCoef="0" IVar="-1" Cut="0.0000000000000000e+00" cType="1" res="-1.0627437382936478e-02" rms="5.9613756835460663e-02" purity="3.8790538907051086e-02" nType="-99"/>
          <Node pos="r" depth="2" NCoef="0" IVar="-1" Cut="0.0000000000000000e+00" cType="1" res="8.7747216457501054e-04" rms="2.3323351144790649e-01" purity="2.0701201260089874e-01" nType="-99"/>
        </Node>
        <Node pos="r" depth="1" NCoef="0" IVar="65" Cut="7.2964251041412354e-01" cType="1" res="1.0840639472007751e-02" rms="2.6189079880714417e-01" purity="5.5868977308273315e-01" nType="0">
          <Node pos="l" depth="2" NCoef="0" IVar="-1" Cut="0.0000000000000000e+00" cType="1" res="1.3159733498468995e-03" rms="2.6753720641136169e-01" purity="5.9462827444076538e-01" nType="-99"/>
          <Node pos="r" depth="2" NCoef="0" IVar="-1" Cut="0.0000000000000000e+00" cType="1" res="-6.5503814257681370e-03" rms="1.7405143380165100e-01" purity="2.0488843321800232e-01" nType="-99"/>
        </Node>
      </Node>
    </BinaryTree>
    <BinaryTree type="DecisionTree" boostWeight="1.0000000000000000e+00" itree="448">
      <Node pos="s" depth="0" NCoef="0" IVar="45" Cut="9.8574072122573853e-01" cType="1" res="1.1068107560276985e-03" rms="2.4894541501998901e-01" purity="4.9992236495018005e-01" nType="0">
        <Node pos="l" depth="1" NCoef="0" IVar="49" Cut="2.8584742546081543e+00" cType="1" res="-7.8622803092002869e-02" rms="5.7762689888477325e-02" purity="6.1328966170549393e-02" nType="0">
          <Node pos="l" depth="2" NCoef="0" IVar="-1" Cut="0.0000000000000000e+00" cType="1" res="-1.2190375477075577e-02" rms="0.0000000000000000e+00" purity="2.2087002173066139e-02" nType="-99"/>
          <Node pos="r" depth="2" NCoef="0" IVar="-1" Cut="0.0000000000000000e+00" cType="1" res="-7.7407684875652194e-04" rms="2.0766682922840118e-01" purity="1.8666578829288483e-01" nType="-99"/>
        </Node>
        <Node pos="r" depth="1" NCoef="0" IVar="54" Cut="1.4479401111602783e+00" cType="1" res="1.0282062925398350e-02" rms="2.6058790087699890e-01" purity="5.5039554834365845e-01" nType="0">
          <Node pos="l" depth="2" NCoef="0" IVar="-1" Cut="0.0000000000000000e+00" cType="1" res="1.2345262803137302e-03" rms="2.6275512576103210e-01" purity="5.9429681301116943e-01" nType="-99"/>
          <Node pos="r" depth="2" NCoef="0" IVar="-1" Cut="0.0000000000000000e+00" cType="1" res="-7.5463121756911278e-03" rms="2.1659789979457855e-01" purity="8.2595385611057281e-02" nType="-99"/>
        </Node>
      </Node>
    </BinaryTree>
    <BinaryTree type="DecisionTree" boostWeight="1.0000000000000000e+00" itree="449">
      <Node pos="s" depth="0" NCoef="0" IVar="17" Cut="-1.1125811338424683e+00" cType="1" res="2.9332756530493498e-03" rms="2.5149857997894287e-01" purity="5.0089454650878906e-01" nType="0">
        <Node pos="l" depth="1" NCoef="0" IVar="56" Cut="1.5236508846282959e+00" cType="1" res="1.2950853444635868e-02" rms="2.5273081660270691e-01" purity="5.2890872955322266e-01" nType="0">
          <Node pos="l" depth="2" NCoef="0" IVar="-1" Cut="0.0000000000000000e+00" cType="1" res="1.2599407928064466e-03" rms="2.5393974781036377e-01" purity="5.4951727390289307e-01" nType="-99"/>
          <Node pos="r" depth="2" NCoef="0" IVar="-1" Cut="0.0000000000000000e+00" cType="1" res="-1.1692902073264122e-02" rms="1.7419832944869995e-01" purity="1.5975700691342354e-02" nType="-99"/>
        </Node>
        <Node pos="r" depth="1" NCoef="0" IVar="17" Cut="-7.4204194545745850e-01" cType="1" res="-7.2453372180461884e-02" rms="2.2833617031574249e-01" purity="2.9007560014724731e-01" nType="0">
          <Node pos="l" depth="2" NCoef="0" IVar="-1" Cut="0.0000000000000000e+00" cType="1" res="-3.6819397937506437e-03" rms="2.2717210650444031e-01" purity="3.4355473518371582e-01" nType="-99"/>
          <Node pos="r" depth="2" NCoef="0" IVar="-1" Cut="0.0000000000000000e+00" cType="1" res="-9.0547064319252968e-03" rms="2.2514928877353668e-01" purity="2.1537457406520844e-01" nType="-99"/>
        </Node>
      </Node>
    </BinaryTree>
    <BinaryTree type="DecisionTree" boostWeight="1.0000000000000000e+00" itree="450">
      <Node pos="s" depth="0" NCoef="0" IVar="57" Cut="-1.0629982948303223e+00" cType="1" res="6.6550768679007888e-05" rms="2.4904015660285950e-01" purity="4.9864992499351501e-01" nType="0">
        <Node pos="l" depth="1" NCoef="0" IVar="14" Cut="-1.3376259803771973e+00" cType="1" res="9.7319232299923897e-03" rms="2.5222957134246826e-01" purity="5.3135931491851807e-01" nType="0">
          <Node pos="l" depth="2" NCoef="0" IVar="-1" Cut="0.0000000000000000e+00" cType="1" res="-9.6695767715573311e-03" rms="0.0000000000000000e+00" purity="5.5993720889091492e-04" nType="-99"/>
          <Node pos="r" depth="2" NCoef="0" IVar="-1" Cut="0.0000000000000000e+00" cType="1" res="1.3607126893475652e-03" rms="2.8554296493530273e-01" purity="6.7306077480316162e-01" nType="-99"/>
        </Node>
        <Node pos="r" depth="1" NCoef="0" IVar="37" Cut="-1.4898560047149658e+00" cType="1" res="-7.0051081478595734e-02" rms="2.1172767877578735e-01" purity="2.6135909557342529e-01" nType="0">
          <Node pos="l" depth="2" NCoef="0" IVar="-1" Cut="0.0000000000000000e+00" cType="1" res="-4.2117871344089508e-03" rms="2.5243037939071655e-01" purity="3.1877267360687256e-01" nType="-99"/>
          <Node pos="r" depth="2" NCoef="0" IVar="-1" Cut="0.0000000000000000e+00" cType="1" res="-1.0833399370312691e-02" rms="4.0129557251930237e-02" purity="1.3675759732723236e-01" nType="-99"/>
        </Node>
      </Node>
    </BinaryTree>
    <BinaryTree type="DecisionTree" boostWeight="1.0000000000000000e+00" itree="451">
      <Node pos="s" depth="0" NCoef="0" IVar="0" Cut="6.8874430656433105e-01" cType="1" res="2.7514211833477020e-03" rms="2.5083726644515991e-01" purity="5.0160360336303711e-01" nType="0">
        <Node pos="l" depth="1" NCoef="0" IVar="14" Cut="-1.4537111520767212e+00" cType="1" res="2.0474089309573174e-02" rms="2.5553745031356812e-01" purity="5.5868631601333618e-01" nType="0">
          <Node pos="l" depth="2" NCoef="0" IVar="-1" Cut="0.0000000000000000e+00" cType="1" res="-1.0812697932124138e-02" rms="0.0000000000000000e+00" purity="-4.9599758349359035e-03" nType="-99"/>
          <Node pos="r" depth="2" NCoef="0" IVar="-1" Cut="0.0000000000000000e+00" cType="1" res="1.9511047285050154e-03" rms="2.8228780627250671e-01" purity="6.7643475532531738e-01" nType="-99"/>
        </Node>
        <Node pos="r" depth="1" NCoef="0" IVar="25" Cut="1.2038426399230957e+00" cType="1" res="-3.5384975373744965e-02" rms="2.3593981564044952e-01" purity="3.7877053022384644e-01" nType="0">
          <Node pos="l" depth="2" NCoef="0" IVar="-1" Cut="0.0000000000000000e+00" cType="1" res="-1.2297376990318298e-02" rms="0.0000000000000000e+00" purity="2.4389138445258141e-02" nType="-99"/>
          <Node pos="r" depth="2" NCoef="0" IVar="-1" Cut="0.0000000000000000e+00" cType="1" res="-1.4087952440604568e-03" rms="2.6456084847450256e-01" purity="4.7513175010681152e-01" nType="-99"/>
        </Node>
      </Node>
    </BinaryTree>
    <BinaryTree type="DecisionTree" boostWeight="1.0000000000000000e+00" itree="452">
      <Node pos="s" depth="0" NCoef="0" IVar="2" Cut="5.5746024847030640e-01" cType="1" res="3.0578302685171366e-03" rms="2.4959190189838409e-01" purity="5.0010532140731812e-01" nType="0">
        <Node pos="l" depth="1" NCoef="0" IVar="-1" Cut="0.0000000000000000e+00" cType="1" res="-8.9648813009262085e-03" rms="0.0000000000000000e+00" purity="-4.5026764273643494e-02" nType="-99"/>
        <Node pos="r" depth="1" NCoef="0" IVar="36" Cut="-9.8965764045715332e-01" cType="1" res="7.1258316747844219e-03" rms="2.5289055705070496e-01" purity="5.1303911209106445e-01" nType="0">
          <Node pos="l" depth="2" NCoef="0" IVar="-1" Cut="0.0000000000000000e+00" cType="1" res="1.4408042188733816e-03" rms="2.5294426083564758e-01" purity="5.9648698568344116e-01" nType="-99"/>
          <Node pos="r" depth="2" NCoef="0" IVar="-1" Cut="0.0000000000000000e+00" cType="1" res="-3.2741092145442963e-03" rms="2.4678634107112885e-01" purity="2.1968695521354675e-01" nType="-99"/>
        </Node>
      </Node>
    </BinaryTree>
    <BinaryTree type="DecisionTree" boostWeight="1.0000000000000000e+00" itree="453">
      <Node pos="s" depth="0" NCoef="0" IVar="17" Cut="-1.3507441282272339e+00" cType="1" res="6.8125175312161446e-04" rms="2.4949896335601807e-01" purity="4.9783238768577576e-01" nType="0">
        <Node pos="l" depth="1" NCoef="0" IVar="54" Cut="1.4092512130737305e+00" cType="1" res="1.3564706780016422e-02" rms="2.5209647417068481e-01" purity="5.3294301033020020e-01" nType="0">
          <Node pos="l" depth="2" NCoef="0" IVar="-1" Cut="0.0000000000000000e+00" cType="1" res="1.5128776431083679e-03" rms="2.5301712751388550e-01" purity="5.8019173145294189e-01" nType="-99"/>
          <Node pos="r" depth="2" NCoef="0" IVar="-1" Cut="0.0000000000000000e+00" cType="1" res="-6.3306204974651337e-03" rms="2.2805958986282349e-01" purity="9.6315801143646240e-02" nType="-99"/>
        </Node>
        <Node pos="r" depth="1" NCoef="0" IVar="45" Cut="1.6587998867034912e+00" cType="1" res="-5.8699581772089005e-02" rms="2.2793301939964294e-01" purity="3.3600485324859619e-01" nType="0">
          <Node pos="l" depth="2" NCoef="0" IVar="-1" Cut="0.0000000000000000e+00" cType="1" res="-1.1657631024718285e-02" rms="0.0000000000000000e+00" purity="4.7090630978345871e-02" nType="-99"/>
          <Node pos="r" depth="2" NCoef="0" IVar="-1" Cut="0.0000000000000000e+00" cType="1" res="-2.3424730170518160e-03" rms="2.9257115721702576e-01" purity="4.8630264401435852e-01" nType="-99"/>
        </Node>
      </Node>
    </BinaryTree>
    <BinaryTree type="DecisionTree" boostWeight="1.0000000000000000e+00" itree="454">
      <Node pos="s" depth="0" NCoef="0" IVar="14" Cut="-1.4150160551071167e+00" cType="1" res="2.0823597442358732e-03" rms="2.4768769741058350e-01" purity="5.0075387954711914e-01" nType="0">
        <Node pos="l" depth="1" NCoef="0" IVar="34" Cut="-9.5132362842559814e-01" cType="1" res="-1.4394762925803661e-02" rms="0.0000000000000000e+00" purity="-1.7151208594441414e-02" nType="-99"/>
        <Node pos="r" depth="1" NCoef="0" IVar="44" Cut="1.2345679104328156e-02" cType="1" res="1.5192676335573196e-02" rms="2.8515344858169556e-01" purity="6.3104313611984253e-01" nType="0">
          <Node pos="l" depth="2" NCoef="0" IVar="-1" Cut="0.0000000000000000e+00" cType="1" res="1.2994667049497366e-03" rms="2.8042516112327576e-01" purity="6.4088135957717896e-01" nType="-99"/>
          <Node pos="r" depth="2" NCoef="0" IVar="-1" Cut="0.0000000000000000e+00" cType="1" res="-8.1267347559332848e-03" rms="3.4345293045043945e-01" purity="4.1668415069580078e-01" nType="-99"/>
        </Node>
      </Node>
    </BinaryTree>
    <BinaryTree type="DecisionTree" boostWeight="1.0000000000000000e+00" itree="455">
      <Node pos="s" depth="0" NCoef="0" IVar="2" Cut="4.9828153848648071e-01" cType="1" res="5.6082330411300063e-04" rms="2.4964457750320435e-01" purity="4.9922969937324524e-01" nType="0">
        <Node pos="l" depth="1" NCoef="0" IVar="-1" Cut="0.0000000000000000e+00" cType="1" res="-9.6151046454906464e-03" rms="0.0000000000000000e+00" purity="-6.7881740629673004e-02" nType="-99"/>
        <Node pos="r" depth="1" NCoef="0" IVar="14" Cut="-1.1442284584045410e+00" cType="1" res="4.3145716190338135e-03" rms="2.5304195284843445e-01" purity="5.1113855838775635e-01" nType="0">
          <Node pos="l" depth="2" NCoef="0" IVar="-1" Cut="0.0000000000000000e+00" cType="1" res="-8.4991054609417915e-03" rms="0.0000000000000000e+00" purity="1.0595418512821198e-02" nType="-99"/>
          <Node pos="r" depth="2" NCoef="0" IVar="-1" Cut="0.0000000000000000e+00" cType="1" res="1.1124969460070133e-03" rms="2.9193475842475891e-01" purity="6.7066687345504761e-01" nType="-99"/>
        </Node>
      </Node>
    </BinaryTree>
    <BinaryTree type="DecisionTree" boostWeight="1.0000000000000000e+00" itree="456">
      <Node pos="s" depth="0" NCoef="0" IVar="36" Cut="1.5242767333984375e+00" cType="1" res="2.7599912136793137e-03" rms="2.5007066130638123e-01" purity="4.9919974803924561e-01" nType="0">
        <Node pos="l" depth="1" NCoef="0" IVar="44" Cut="1.2345679104328156e-02" cType="1" res="7.7652023173868656e-03" rms="2.5150173902511597e-01" purity="5.1795208454132080e-01" nType="0">
          <Node pos="l" depth="2" NCoef="0" IVar="-1" Cut="0.0000000000000000e+00" cType="1" res="9.6690142527222633e-04" rms="2.4842295050621033e-01" purity="5.3060388565063477e-01" nType="-99"/>
          <Node pos="r" depth="2" NCoef="0" IVar="-1" Cut="0.0000000000000000e+00" cType="1" res="-8.5606854408979416e-03" rms="2.8131359815597534e-01" purity="2.7868264913558960e-01" nType="-99"/>
        </Node>
        <Node pos="r" depth="1" NCoef="0" IVar="-1" Cut="0.0000000000000000e+00" cType="1" res="-1.1770503595471382e-02" rms="1.6478027403354645e-01" purity="1.9625041633844376e-02" nType="-99"/>
      </Node>
    </BinaryTree>
    <BinaryTree type="DecisionTree" boostWeight="1.0000000000000000e+00" itree="457">
      <Node pos="s" depth="0" NCoef="0" IVar="25" Cut="2.2121469974517822e+00" cType="1" res="1.8650877755135298e-03" rms="2.4890597164630890e-01" purity="4.9980086088180542e-01" nType="0">
        <Node pos="l" depth="1" NCoef="0" IVar="0" Cut="8.0494123697280884e-01" cType="1" res="-2.2140474990010262e-02" rms="2.3583559691905975e-01" purity="2.9989057779312134e-01" nType="0">
          <Node pos="l" depth="2" NCoef="0" IVar="-1" Cut="0.0000000000000000e+00" cType="1" res="-3.8456980837509036e-04" rms="2.4708293378353119e-01" purity="3.4920075535774231e-01" nType="-99"/>
          <Node pos="r" depth="2" NCoef="0" IVar="-1" Cut="0.0000000000000000e+00" cType="1" res="-7.1081840433180332e-03" rms="1.8862298130989075e-01" purity="1.4953093230724335e-01" nType="-99"/>
        </Node>
        <Node pos="r" depth="1" NCoef="0" IVar="36" Cut="1.4856319427490234e+00" cType="1" res="2.7264723554253578e-02" rms="2.5962084531784058e-01" purity="7.1132045984268188e-01" nType="0">
          <Node pos="l" depth="2" NCoef="0" IVar="-1" Cut="0.0000000000000000e+00" cType="1" res="2.3634084500372410e-03" rms="2.5449541211128235e-01" purity="7.4965000152587891e-01" nType="-99"/>
          <Node pos="r" depth="2" NCoef="0" IVar="-1" Cut="0.0000000000000000e+00" cType="1" res="-7.2319773025810719e-03" rms="3.0226016044616699e-01" purity="1.0010306537151337e-01" nType="-99"/>
        </Node>
      </Node>
    </BinaryTree>
    <BinaryTree type="DecisionTree" boostWeight="1.0000000000000000e+00" itree="458">
      <Node pos="s" depth="0" NCoef="0" IVar="56" Cut="1.4850335121154785e+00" cType="1" res="3.7856767885386944e-03" rms="2.4711278080940247e-01" purity="5.0189089775085449e-01" nType="0">
        <Node pos="l" depth="1" NCoef="0" IVar="14" Cut="1.4864721298217773e+00" cType="1" res="1.0684207081794739e-02" rms="2.4992896616458893e-01" purity="5.3555345535278320e-01" nType="0">
          <Node pos="l" depth="2" NCoef="0" IVar="-1" Cut="0.0000000000000000e+00" cType="1" res="-1.4001985546201468e-03" rms="2.4197190999984741e-01" purity="2.6224413514137268e-01" nType="-99"/>
          <Node pos="r" depth="2" NCoef="0" IVar="-1" Cut="0.0000000000000000e+00" cType="1" res="2.3089486639946699e-03" rms="2.5453966856002808e-01" purity="8.0099129676818848e-01" nType="-99"/>
        </Node>
        <Node pos="r" depth="1" NCoef="0" IVar="49" Cut="3.3797359466552734e+00" cType="1" res="-9.2009894549846649e-02" rms="1.7829611897468567e-01" purity="3.4440416842699051e-02" nType="0">
          <Node pos="l" depth="2" NCoef="0" IVar="-1" Cut="0.0000000000000000e+00" cType="1" res="-5.4066115990281105e-03" rms="1.9771866500377655e-01" purity="5.7383798062801361e-02" nType="-99"/>
          <Node pos="r" depth="2" NCoef="0" IVar="-1" Cut="0.0000000000000000e+00" cType="1" res="-1.4364698901772499e-02" rms="9.8950125277042389e-02" purity="-2.9147514142096043e-03" nType="-99"/>
        </Node>
      </Node>
    </BinaryTree>
    <BinaryTree type="DecisionTree" boostWeight="1.0000000000000000e+00" itree="459">
      <Node pos="s" depth="0" NCoef="0" IVar="37" Cut="-1.4942619800567627e+00" cType="1" res="3.6786631681025028e-03" rms="2.5194600224494934e-01" purity="5.0300765037536621e-01" nType="0">
        <Node pos="l" depth="1" NCoef="0" IVar="56" Cut="1.5240936279296875e+00" cType="1" res="1.7856188118457794e-02" rms="2.5653979182243347e-01" purity="5.4944640398025513e-01" nType="0">
          <Node pos="l" depth="2" NCoef="0" IVar="-1" Cut="0.0000000000000000e+00" cType="1" res="1.5857766848057508e-03" rms="2.5725927948951721e-01" purity="5.6952702999114990e-01" nType="-99"/>
          <Node pos="r" depth="2" NCoef="0" IVar="-1" Cut="0.0000000000000000e+00" cType="1" res="-1.0916625149548054e-02" rms="1.9333583116531372e-01" purity="2.7695411816239357e-02" nType="-99"/>
        </Node>
        <Node pos="r" depth="1" NCoef="0" IVar="25" Cut="1.8273352384567261e+00" cType="1" res="-4.0952432900667191e-02" rms="2.3129795491695404e-01" purity="3.5681778192520142e-01" nType="0">
          <Node pos="l" depth="2" NCoef="0" IVar="-1" Cut="0.0000000000000000e+00" cType="1" res="-7.6747913844883442e-03" rms="1.2394651025533676e-01" purity="1.1677253991365433e-01" nType="-99"/>
          <Node pos="r" depth="2" NCoef="0" IVar="-1" Cut="0.0000000000000000e+00" cType="1" res="-7.9852557973936200e-04" rms="2.8892704844474792e-01" purity="5.5724537372589111e-01" nType="-99"/>
        </Node>
      </Node>
    </BinaryTree>
    <BinaryTree type="DecisionTree" boostWeight="1.0000000000000000e+00" itree="460">
      <Node pos="s" depth="0" NCoef="0" IVar="0" Cut="9.0376991033554077e-01" cType="1" res="2.8097061440348625e-03" rms="2.5136944651603699e-01" purity="5.0102084875106812e-01" nType="0">
        <Node pos="l" depth="1" NCoef="0" IVar="14" Cut="-1.4537323713302612e+00" cType="1" res="1.3204746879637241e-02" rms="2.5369232892990112e-01" purity="5.3078752756118774e-01" nType="0">
          <Node pos="l" depth="2" NCoef="0" IVar="-1" Cut="0.0000000000000000e+00" cType="1" res="-1.3647105544805527e-02" rms="0.0000000000000000e+00" purity="-1.4099862426519394e-02" nType="-99"/>
          <Node pos="r" depth="2" NCoef="0" IVar="-1" Cut="0.0000000000000000e+00" cType="1" res="1.5574776334688067e-03" rms="2.8519055247306824e-01" purity="6.4991426467895508e-01" nType="-99"/>
        </Node>
        <Node pos="r" depth="1" NCoef="0" IVar="4" Cut="3.4937884807586670e+00" cType="1" res="-5.4421145468950272e-02" rms="2.2990690171718597e-01" purity="3.3713775873184204e-01" nType="0">
          <Node pos="l" depth="2" NCoef="0" IVar="-1" Cut="0.0000000000000000e+00" cType="1" res="-1.3351716101169586e-02" rms="5.3384758532047272e-02" purity="1.0129865258932114e-01" nType="-99"/>
          <Node pos="r" depth="2" NCoef="0" IVar="-1" Cut="0.0000000000000000e+00" cType="1" res="-2.2806636989116669e-03" rms="2.6003378629684448e-01" purity="4.1830742359161377e-01" nType="-99"/>
        </Node>
      </Node>
    </BinaryTree>
    <BinaryTree type="DecisionTree" boostWeight="1.0000000000000000e+00" itree="461">
      <Node pos="s" depth="0" NCoef="0" IVar="34" Cut="1.0218554735183716e+00" cType="1" res="-2.0531578920781612e-03" rms="2.4811388552188873e-01" purity="4.9664685130119324e-01" nType="0">
        <Node pos="l" depth="1" NCoef="0" IVar="44" Cut="1.2345679104328156e-02" cType="1" res="8.8649755343794823e-03" rms="2.5206637382507324e-01" purity="5.5999928712844849e-01" nType="0">
          <Node pos="l" depth="2" NCoef="0" IVar="-1" Cut="0.0000000000000000e+00" cType="1" res="1.0482671204954386e-03" rms="2.4851325154304504e-01" purity="5.7337617874145508e-01" nType="-99"/>
          <Node pos="r" depth="2" NCoef="0" IVar="-1" Cut="0.0000000000000000e+00" cType="1" res="-8.8885240256786346e-03" rms="2.8723084926605225e-01" purity="3.0542340874671936e-01" nType="-99"/>
        </Node>
        <Node pos="r" depth="1" NCoef="0" IVar="29" Cut="3.1823062896728516e+00" cType="1" res="-6.3631474971771240e-02" rms="2.1435078978538513e-01" purity="1.3933882117271423e-01" nType="0">
          <Node pos="l" depth="2" NCoef="0" IVar="-1" Cut="0.0000000000000000e+00" cType="1" res="-2.4841134436428547e-03" rms="1.8989761173725128e-01" purity="1.2981791794300079e-01" nType="-99"/>
          <Node pos="r" depth="2" NCoef="0" IVar="-1" Cut="0.0000000000000000e+00" cType="1" res="-7.2184018790721893e-03" rms="2.2588029503822327e-01" purity="1.4605991542339325e-01" nType="-99"/>
        </Node>
      </Node>
    </BinaryTree>
    <BinaryTree type="DecisionTree" boostWeight="1.0000000000000000e+00" itree="462">
      <Node pos="s" depth="0" NCoef="0" IVar="2" Cut="6.9652026891708374e-01" cType="1" res="1.3533929595723748e-03" rms="2.4875649809837341e-01" purity="4.9918919801712036e-01" nType="0">
        <Node pos="l" depth="1" NCoef="0" IVar="-1" Cut="0.0000000000000000e+00" cType="1" res="-8.4351683035492897e-03" rms="0.0000000000000000e+00" purity="-2.0221170037984848e-02" nType="-99"/>
        <Node pos="r" depth="1" NCoef="0" IVar="0" Cut="6.8881940841674805e-01" cType="1" res="5.8500934392213821e-03" rms="2.5230759382247925e-01" purity="5.1515555381774902e-01" nType="0">
          <Node pos="l" depth="2" NCoef="0" IVar="-1" Cut="0.0000000000000000e+00" cType="1" res="1.6164211556315422e-03" rms="2.5696238875389099e-01" purity="5.7432895898818970e-01" nType="-99"/>
          <Node pos="r" depth="2" NCoef="0" IVar="-1" Cut="0.0000000000000000e+00" cType="1" res="-2.5505174417048693e-03" rms="2.3774012923240662e-01" purity="3.8811138272285461e-01" nType="-99"/>
        </Node>
      </Node>
    </BinaryTree>
    <BinaryTree type="DecisionTree" boostWeight="1.0000000000000000e+00" itree="463">
      <Node pos="s" depth="0" NCoef="0" IVar="2" Cut="1.3089874982833862e+00" cType="1" res="9.1482145944610238e-04" rms="2.4773356318473816e-01" purity="4.9868223071098328e-01" nType="0">
        <Node pos="l" depth="1" NCoef="0" IVar="1" Cut="2.9661686420440674e+00" cType="1" res="-7.5609587132930756e-02" rms="1.8862119317054749e-01" purity="1.1581635475158691e-01" nType="0">
          <Node pos="l" depth="2" NCoef="0" IVar="-1" Cut="0.0000000000000000e+00" cType="1" res="-4.0153050795197487e-03" rms="1.5162062644958496e-01" purity="9.0582840144634247e-02" nType="-99"/>
          <Node pos="r" depth="2" NCoef="0" IVar="-1" Cut="0.0000000000000000e+00" cType="1" res="-7.0871072821319103e-03" rms="2.5441381335258484e-01" purity="2.0047791302204132e-01" nType="-99"/>
        </Node>
        <Node pos="r" depth="1" NCoef="0" IVar="1" Cut="2.2428646087646484e+00" cType="1" res="9.3595739454030991e-03" rms="2.5199371576309204e-01" purity="5.4093283414840698e-01" nType="0">
          <Node pos="l" depth="2" NCoef="0" IVar="-1" Cut="0.0000000000000000e+00" cType="1" res="-6.4104916527867317e-03" rms="9.1966331005096436e-02" purity="5.3178042173385620e-02" nType="-99"/>
          <Node pos="r" depth="2" NCoef="0" IVar="-1" Cut="0.0000000000000000e+00" cType="1" res="1.3962091179564595e-03" rms="2.6985222101211548e-01" purity="6.3092297315597534e-01" nType="-99"/>
        </Node>
      </Node>
    </BinaryTree>
    <BinaryTree type="DecisionTree" boostWeight="1.0000000000000000e+00" itree="464">
      <Node pos="s" depth="0" NCoef="0" IVar="17" Cut="-1.3805305957794189e+00" cType="1" res="2.0446442067623138e-03" rms="2.5105223059654236e-01" purity="5.0187993049621582e-01" nType="0">
        <Node pos="l" depth="1" NCoef="0" IVar="54" Cut="1.3705172538757324e+00" cType="1" res="1.4093294739723206e-02" rms="2.5391054153442383e-01" purity="5.3905451297760010e-01" nType="0">
          <Node pos="l" depth="2" NCoef="0" IVar="-1" Cut="0.0000000000000000e+00" cType="1" res="1.5770703321322799e-03" rms="2.5421559810638428e-01" purity="5.8996391296386719e-01" nType="-99"/>
          <Node pos="r" depth="2" NCoef="0" IVar="-1" Cut="0.0000000000000000e+00" cType="1" res="-5.6274924427270889e-03" rms="2.3866155743598938e-01" purity="1.0819861292839050e-01" nType="-99"/>
        </Node>
        <Node pos="r" depth="1" NCoef="0" IVar="14" Cut="1.5243974924087524e+00" cType="1" res="-5.1161684095859528e-02" rms="2.3061116039752960e-01" purity="3.3771812915802002e-01" nType="0">
          <Node pos="l" depth="2" NCoef="0" IVar="-1" Cut="0.0000000000000000e+00" cType="1" res="-6.1882734298706055e-03" rms="2.0249445736408234e-01" purity="2.1224592626094818e-01" nType="-99"/>
          <Node pos="r" depth="2" NCoef="0" IVar="-1" Cut="0.0000000000000000e+00" cType="1" res="4.4130184687674046e-04" rms="2.9047095775604248e-01" purity="7.0637005567550659e-01" nType="-99"/>
        </Node>
      </Node>
    </BinaryTree>
    <BinaryTree type="DecisionTree" boostWeight="1.0000000000000000e+00" itree="465">
      <Node pos="s" depth="0" NCoef="0" IVar="25" Cut="1.1799900531768799e+00" cType="1" res="1.3052873546257615e-03" rms="2.4669675529003143e-01" purity="5.0127667188644409e-01" nType="0">
        <Node pos="l" depth="1" NCoef="0" IVar="29" Cut="2.8588795661926270e+00" cType="1" res="-5.9821695089340210e-02" rms="1.4658702909946442e-01" purity="1.0153980553150177e-01" nType="0">
          <Node pos="l" depth="2" NCoef="0" IVar="-1" Cut="0.0000000000000000e+00" cType="1" res="-9.9138077348470688e-03" rms="6.9381065666675568e-02" purity="5.2327148616313934e-02" nType="-99"/>
          <Node pos="r" depth="2" NCoef="0" IVar="-1" Cut="0.0000000000000000e+00" cType="1" res="3.6846299190074205e-04" rms="2.3662135004997253e-01" purity="2.2051213681697845e-01" nType="-99"/>
        </Node>
        <Node pos="r" depth="1" NCoef="0" IVar="34" Cut="1.4473505020141602e+00" cType="1" res="1.1608435772359371e-02" rms="2.5837865471839905e-01" purity="5.6865358352661133e-01" nType="0">
          <Node pos="l" depth="2" NCoef="0" IVar="-1" Cut="0.0000000000000000e+00" cType="1" res="1.3082644436508417e-03" rms="2.5925397872924805e-01" purity="6.1342757940292358e-01" nType="-99"/>
          <Node pos="r" depth="2" NCoef="0" IVar="-1" Cut="0.0000000000000000e+00" cType="1" res="-6.8760421127080917e-03" rms="2.3230512440204620e-01" purity="9.0672641992568970e-02" nType="-99"/>
        </Node>
      </Node>
    </BinaryTree>
    <BinaryTree type="DecisionTree" boostWeight="1.0000000000000000e+00" itree="466">
      <Node pos="s" depth="0" NCoef="0" IVar="1" Cut="2.2861402034759521e+00" cType="1" res="-1.1822825763374567e-04" rms="2.4395951628684998e-01" purity="4.9781551957130432e-01" nType="0">
        <Node pos="l" depth="1" NCoef="0" IVar="3" Cut="5.0003952980041504e+00" cType="1" res="-5.2759625017642975e-02" rms="7.5517676770687103e-02" purity="5.1027391105890274e-02" nType="0">
          <Node pos="l" depth="2" NCoef="0" IVar="-1" Cut="0.0000000000000000e+00" cType="1" res="-8.8685173541307449e-03" rms="0.0000000000000000e+00" purity="3.0929423868656158e-02" nType="-99"/>
          <Node pos="r" depth="2" NCoef="0" IVar="-1" Cut="0.0000000000000000e+00" cType="1" res="-1.1858402285724878e-03" rms="2.0903202891349792e-01" purity="1.0260825604200363e-01" nType="-99"/>
        </Node>
        <Node pos="r" depth="1" NCoef="0" IVar="44" Cut="1.2345679104328156e-02" cType="1" res="1.2504802085459232e-02" rms="2.6757514476776123e-01" purity="6.0495209693908691e-01" nType="0">
          <Node pos="l" depth="2" NCoef="0" IVar="-1" Cut="0.0000000000000000e+00" cType="1" res="1.2041296577081084e-03" rms="2.6360994577407837e-01" purity="6.1583495140075684e-01" nType="-99"/>
          <Node pos="r" depth="2" NCoef="0" IVar="-1" Cut="0.0000000000000000e+00" cType="1" res="-7.8092277981340885e-03" rms="3.1606191396713257e-01" purity="3.8033640384674072e-01" nType="-99"/>
        </Node>
      </Node>
    </BinaryTree>
    <BinaryTree type="DecisionTree" boostWeight="1.0000000000000000e+00" itree="467">
      <Node pos="s" depth="0" NCoef="0" IVar="2" Cut="4.9828153848648071e-01" cType="1" res="1.8330821767449379e-03" rms="2.4759592115879059e-01" purity="5.0071287155151367e-01" nType="0">
        <Node pos="l" depth="1" NCoef="0" IVar="-1" Cut="0.0000000000000000e+00" cType="1" res="-9.1430004686117172e-03" rms="0.0000000000000000e+00" purity="-6.1685547232627869e-02" nType="-99"/>
        <Node pos="r" depth="1" NCoef="0" IVar="65" Cut="7.5197696685791016e-01" cType="1" res="5.5722547695040703e-03" rms="2.5075799226760864e-01" purity="5.1255953311920166e-01" nType="0">
          <Node pos="l" depth="2" NCoef="0" IVar="-1" Cut="0.0000000000000000e+00" cType="1" res="9.3768624356016517e-04" rms="2.5566503405570984e-01" purity="5.4219466447830200e-01" nType="-99"/>
          <Node pos="r" depth="2" NCoef="0" IVar="-1" Cut="0.0000000000000000e+00" cType="1" res="-8.0458782613277435e-03" rms="1.5037313103675842e-01" purity="1.4507997035980225e-01" nType="-99"/>
        </Node>
      </Node>
    </BinaryTree>
    <BinaryTree type="DecisionTree" boostWeight="1.0000000000000000e+00" itree="468">
      <Node pos="s" depth="0" NCoef="0" IVar="2" Cut="1.0056756734848022e+00" cType="1" res="3.5369519609957933e-03" rms="2.4801245331764221e-01" purity="5.0470453500747681e-01" nType="0">
        <Node pos="l" depth="1" NCoef="0" IVar="5" Cut="1.8007091283798218e+00" cType="1" res="-1.0384179651737213e-01" rms="1.1340872943401337e-01" purity="5.5070668458938599e-02" nType="0">
          <Node pos="l" depth="2" NCoef="0" IVar="-1" Cut="0.0000000000000000e+00" cType="1" res="-5.4929289035499096e-03" rms="1.0191522538661957e-01" purity="5.6359052658081055e-02" nType="-99"/>
          <Node pos="r" depth="2" NCoef="0" IVar="-1" Cut="0.0000000000000000e+00" cType="1" res="-7.5484369881451130e-03" rms="1.0608394443988800e-01" purity="5.3016182035207748e-02" nType="-99"/>
        </Node>
        <Node pos="r" depth="1" NCoef="0" IVar="56" Cut="1.2533782720565796e+00" cType="1" res="9.4882361590862274e-03" rms="2.5205552577972412e-01" purity="5.2962470054626465e-01" nType="0">
          <Node pos="l" depth="2" NCoef="0" IVar="-1" Cut="0.0000000000000000e+00" cType="1" res="1.3163586845621467e-03" rms="2.5388151407241821e-01" purity="5.8544737100601196e-01" nType="-99"/>
          <Node pos="r" depth="2" NCoef="0" IVar="-1" Cut="0.0000000000000000e+00" cType="1" res="-5.0726281479001045e-03" rms="2.2756785154342651e-01" purity="1.2152667343616486e-01" nType="-99"/>
        </Node>
      </Node>
    </BinaryTree>
    <BinaryTree type="DecisionTree" boostWeight="1.0000000000000000e+00" itree="469">
      <Node pos="s" depth="0" NCoef="0" IVar="37" Cut="-1.6170525550842285e+00" cType="1" res="4.1467119008302689e-03" rms="2.5053977966308594e-01" purity="5.0135076045989990e-01" nType="0">
        <Node pos="l" depth="1" NCoef="0" IVar="34" Cut="1.4473505020141602e+00" cType="1" res="2.0067933946847916e-02" rms="2.5411850214004517e-01" purity="5.5407363176345825e-01" nType="0">
          <Node pos="l" depth="2" NCoef="0" IVar="-1" Cut="0.0000000000000000e+00" cType="1" res="1.9114585593342781e-03" rms="2.5335222482681274e-01" purity="5.9455597400665283e-01" nType="-99"/>
          <Node pos="r" depth="2" NCoef="0" IVar="-1" Cut="0.0000000000000000e+00" cType="1" res="-7.0195565931499004e-03" rms="2.4481774866580963e-01" purity="8.9749895036220551e-02" nType="-99"/>
        </Node>
        <Node pos="r" depth="1" NCoef="0" IVar="37" Cut="-8.3441680669784546e-01" cType="1" res="-3.5033561289310455e-02" rms="2.3699544370174408e-01" purity="3.7160590291023254e-01" nType="0">
          <Node pos="l" depth="2" NCoef="0" IVar="-1" Cut="0.0000000000000000e+00" cType="1" res="-1.5563082415610552e-03" rms="2.4593308568000793e-01" purity="4.2293411493301392e-01" nType="-99"/>
          <Node pos="r" depth="2" NCoef="0" IVar="-1" Cut="0.0000000000000000e+00" cType="1" res="-7.1663465350866318e-03" rms="2.0266522467136383e-01" purity="2.2112804651260376e-01" nType="-99"/>
        </Node>
      </Node>
    </BinaryTree>
    <BinaryTree type="DecisionTree" boostWeight="1.0000000000000000e+00" itree="470">
      <Node pos="s" depth="0" NCoef="0" IVar="2" Cut="4.9828153848648071e-01" cType="1" res="2.7685132808983326e-03" rms="2.5188127160072327e-01" purity="4.9905195832252502e-01" nType="0">
        <Node pos="l" depth="1" NCoef="0" IVar="-1" Cut="0.0000000000000000e+00" cType="1" res="-9.0049458667635918e-03" rms="0.0000000000000000e+00" purity="-5.2820935845375061e-02" nType="-99"/>
        <Node pos="r" depth="1" NCoef="0" IVar="44" Cut="1.2345679104328156e-02" cType="1" res="6.3465535640716553e-03" rms="2.5497481226921082e-01" purity="5.1068854331970215e-01" nType="0">
          <Node pos="l" depth="2" NCoef="0" IVar="-1" Cut="0.0000000000000000e+00" cType="1" res="8.6816906696185470e-04" rms="2.5178411602973938e-01" purity="5.2256643772125244e-01" nType="-99"/>
          <Node pos="r" depth="2" NCoef="0" IVar="-1" Cut="0.0000000000000000e+00" cType="1" res="-8.2708625122904778e-03" rms="2.8937229514122009e-01" purity="2.8624990582466125e-01" nType="-99"/>
        </Node>
      </Node>
    </BinaryTree>
    <BinaryTree type="DecisionTree" boostWeight="1.0000000000000000e+00" itree="471">
      <Node pos="s" depth="0" NCoef="0" IVar="32" Cut="-1.5312128067016602e+00" cType="1" res="6.1459252610802650e-03" rms="2.5135815143585205e-01" purity="5.0292903184890747e-01" nType="0">
        <Node pos="l" depth="1" NCoef="0" IVar="54" Cut="1.4076321125030518e+00" cType="1" res="3.5352330654859543e-02" rms="2.3841616511344910e-01" purity="6.8554204702377319e-01" nType="0">
          <Node pos="l" depth="2" NCoef="0" IVar="-1" Cut="0.0000000000000000e+00" cType="1" res="3.0866053421050310e-03" rms="2.3074077069759369e-01" purity="7.3550891876220703e-01" nType="-99"/>
          <Node pos="r" depth="2" NCoef="0" IVar="-1" Cut="0.0000000000000000e+00" cType="1" res="-5.1391595043241978e-03" rms="2.9156112670898438e-01" purity="1.3816136121749878e-01" nType="-99"/>
        </Node>
        <Node pos="r" depth="1" NCoef="0" IVar="25" Cut="1.1203368902206421e+00" cType="1" res="-1.2954896315932274e-02" rms="2.5768905878067017e-01" purity="3.8350111246109009e-01" nType="0">
          <Node pos="l" depth="2" NCoef="0" IVar="-1" Cut="0.0000000000000000e+00" cType="1" res="-7.8217247501015663e-03" rms="1.0851410031318665e-01" purity="5.5696550756692886e-02" nType="-99"/>
          <Node pos="r" depth="2" NCoef="0" IVar="-1" Cut="0.0000000000000000e+00" cType="1" res="-1.3378419680520892e-04" rms="2.7883073687553406e-01" purity="4.5558661222457886e-01" nType="-99"/>
        </Node>
      </Node>
    </BinaryTree>
    <BinaryTree type="DecisionTree" boostWeight="1.0000000000000000e+00" itree="472">
      <Node pos="s" depth="0" NCoef="0" IVar="52" Cut="-1.5312020778656006e+00" cType="1" res="1.2095420388504863e-03" rms="2.4986468255519867e-01" purity="4.9978286027908325e-01" nType="0">
        <Node pos="l" depth="1" NCoef="0" IVar="34" Cut="1.4093587398529053e+00" cType="1" res="3.3640593290328979e-02" rms="2.4422827363014221e-01" purity="6.8760299682617188e-01" nType="0">
          <Node pos="l" depth="2" NCoef="0" IVar="-1" Cut="0.0000000000000000e+00" cType="1" res="2.9618416447192430e-03" rms="2.3619648814201355e-01" purity="7.3638093471527100e-01" nType="-99"/>
          <Node pos="r" depth="2" NCoef="0" IVar="-1" Cut="0.0000000000000000e+00" cType="1" res="-5.3298552520573139e-03" rms="3.0295988917350769e-01" purity="1.4430594444274902e-01" nType="-99"/>
        </Node>
        <Node pos="r" depth="1" NCoef="0" IVar="2" Cut="1.6290044784545898e+00" cType="1" res="-1.9986724480986595e-02" rms="2.5122860074043274e-01" purity="3.7702745199203491e-01" nType="0">
          <Node pos="l" depth="2" NCoef="0" IVar="-1" Cut="0.0000000000000000e+00" cType="1" res="-6.8195364437997341e-03" rms="1.0295547544956207e-01" purity="8.0362491309642792e-02" nType="-99"/>
          <Node pos="r" depth="2" NCoef="0" IVar="-1" Cut="0.0000000000000000e+00" cType="1" res="-2.9807840473949909e-04" rms="2.7884808182716370e-01" purity="4.6578821539878845e-01" nType="-99"/>
        </Node>
      </Node>
    </BinaryTree>
    <BinaryTree type="DecisionTree" boostWeight="1.0000000000000000e+00" itree="473">
      <Node pos="s" depth="0" NCoef="0" IVar="14" Cut="1.4871129989624023e+00" cType="1" res="4.6680599916726351e-04" rms="2.4459765851497650e-01" purity="4.9780279397964478e-01" nType="0">
        <Node pos="l" depth="1" NCoef="0" IVar="65" Cut="7.0641738176345825e-01" cType="1" res="-2.2951887920498848e-02" rms="2.2857993841171265e-01" purity="2.4048800766468048e-01" nType="0">
          <Node pos="l" depth="2" NCoef="0" IVar="-1" Cut="0.0000000000000000e+00" cType="1" res="-9.1747654369100928e-04" rms="2.3942337930202484e-01" purity="2.7606460452079773e-01" nType="-99"/>
          <Node pos="r" depth="2" NCoef="0" IVar="-1" Cut="0.0000000000000000e+00" cType="1" res="-8.0019021406769753e-03" rms="1.6386321187019348e-01" purity="8.5975028574466705e-02" nType="-99"/>
        </Node>
        <Node pos="r" depth="1" NCoef="0" IVar="56" Cut="1.4850335121154785e+00" cType="1" res="2.4121407419443130e-02" rms="2.5762391090393066e-01" purity="7.5770968198776245e-01" nType="0">
          <Node pos="l" depth="2" NCoef="0" IVar="-1" Cut="0.0000000000000000e+00" cType="1" res="2.0487015135586262e-03" rms="2.5224792957305908e-01" purity="7.9920160770416260e-01" nType="-99"/>
          <Node pos="r" depth="2" NCoef="0" IVar="-1" Cut="0.0000000000000000e+00" cType="1" res="-7.3590739630162716e-03" rms="2.9943549633026123e-01" purity="9.7332052886486053e-02" nType="-99"/>
        </Node>
      </Node>
    </BinaryTree>
    <BinaryTree type="DecisionTree" boostWeight="1.0000000000000000e+00" itree="474">
      <Node pos="s" depth="0" NCoef="0" IVar="44" Cut="1.2345679104328156e-02" cType="1" res="3.2377438619732857e-03" rms="2.4800617992877960e-01" purity="5.0078821182250977e-01" nType="0">
        <Node pos="l" depth="1" NCoef="0" IVar="54" Cut="1.4478938579559326e+00" cType="1" res="8.6449887603521347e-03" rms="2.4557444453239441e-01" purity="5.1217544078826904e-01" nType="0">
          <Node pos="l" depth="2" NCoef="0" IVar="-1" Cut="0.0000000000000000e+00" cType="1" res="1.1319522745907307e-03" rms="2.4807809293270111e-01" purity="5.5241727828979492e-01" nType="-99"/>
          <Node pos="r" depth="2" NCoef="0" IVar="-1" Cut="0.0000000000000000e+00" cType="1" res="-7.9527655616402626e-03" rms="1.9754117727279663e-01" purity="6.4473971724510193e-02" nType="-99"/>
        </Node>
        <Node pos="r" depth="1" NCoef="0" IVar="35" Cut="-7.1954673528671265e-01" cType="1" res="-1.0513492673635483e-01" rms="2.7061453461647034e-01" purity="2.7256366610527039e-01" nType="0">
          <Node pos="l" depth="2" NCoef="0" IVar="-1" Cut="0.0000000000000000e+00" cType="1" res="-2.7388522867113352e-03" rms="2.5082671642303467e-01" purity="4.2435839772224426e-01" nType="-99"/>
          <Node pos="r" depth="2" NCoef="0" IVar="-1" Cut="0.0000000000000000e+00" cType="1" res="-1.4629767276346684e-02" rms="2.7229708433151245e-01" purity="1.4680175483226776e-01" nType="-99"/>
        </Node>
      </Node>
    </BinaryTree>
    <BinaryTree type="DecisionTree" boostWeight="1.0000000000000000e+00" itree="475">
      <Node pos="s" depth="0" NCoef="0" IVar="2" Cut="1.2037755250930786e+00" cType="1" res="1.2266872217878699e-03" rms="2.4640917778015137e-01" purity="5.0081932544708252e-01" nType="0">
        <Node pos="l" depth="1" NCoef="0" IVar="1" Cut="2.9158589839935303e+00" cType="1" res="-9.1515883803367615e-02" rms="1.4303787052631378e-01" purity="8.6519494652748108e-02" nType="0">
          <Node pos="l" depth="2" NCoef="0" IVar="-1" Cut="0.0000000000000000e+00" cType="1" res="-5.4659894667565823e-03" rms="5.4812338203191757e-02" purity="6.0712426900863647e-02" nType="-99"/>
          <Node pos="r" depth="2" NCoef="0" IVar="-1" Cut="0.0000000000000000e+00" cType="1" res="-6.9767087697982788e-03" rms="2.4054968357086182e-01" purity="1.5688323974609375e-01" nType="-99"/>
        </Node>
        <Node pos="r" depth="1" NCoef="0" IVar="45" Cut="9.5409804582595825e-01" cType="1" res="8.9607024565339088e-03" rms="2.5159007310867310e-01" purity="5.3536880016326904e-01" nType="0">
          <Node pos="l" depth="2" NCoef="0" IVar="-1" Cut="0.0000000000000000e+00" cType="1" res="-8.4590669721364975e-03" rms="1.1583635956048965e-01" purity="6.5439760684967041e-02" nType="-99"/>
          <Node pos="r" depth="2" NCoef="0" IVar="-1" Cut="0.0000000000000000e+00" cType="1" res="1.2421705760061741e-03" rms="2.6037973165512085e-01" purity="5.8503079414367676e-01" nType="-99"/>
        </Node>
      </Node>
    </BinaryTree>
    <BinaryTree type="DecisionTree" boostWeight="1.0000000000000000e+00" itree="476">
      <Node pos="s" depth="0" NCoef="0" IVar="1" Cut="1.9815175533294678e+00" cType="1" res="2.4417988024652004e-03" rms="2.4817988276481628e-01" purity="4.9945628643035889e-01" nType="0">
        <Node pos="l" depth="1" NCoef="0" IVar="54" Cut="1.5786502510309219e-02" cType="1" res="-1.1694856919348240e-02" rms="0.0000000000000000e+00" purity="-2.1807346493005753e-03" nType="-99"/>
        <Node pos="r" depth="1" NCoef="0" IVar="56" Cut="1.5237022638320923e+00" cType="1" res="1.0177765041589737e-02" rms="2.6493218541145325e-01" purity="5.5358380079269409e-01" nType="0">
          <Node pos="l" depth="2" NCoef="0" IVar="-1" Cut="0.0000000000000000e+00" cType="1" res="1.0069730924442410e-03" rms="2.6597756147384644e-01" purity="5.7409346103668213e-01" nType="-99"/>
          <Node pos="r" depth="2" NCoef="0" IVar="-1" Cut="0.0000000000000000e+00" cType="1" res="-1.0140874423086643e-02" rms="2.0448511838912964e-01" purity="3.3856570720672607e-02" nType="-99"/>
        </Node>
      </Node>
    </BinaryTree>
    <BinaryTree type="DecisionTree" boostWeight="1.0000000000000000e+00" itree="477">
      <Node pos="s" depth="0" NCoef="0" IVar="1" Cut="2.1978664398193359e+00" cType="1" res="1.6715668607503176e-03" rms="2.4448724091053009e-01" purity="4.9985343217849731e-01" nType="0">
        <Node pos="l" depth="1" NCoef="0" IVar="16" Cut="8.6507713794708252e-01" cType="1" res="-7.4705015867948532e-03" rms="0.0000000000000000e+00" purity="3.6578796803951263e-02" nType="-99"/>
        <Node pos="r" depth="1" NCoef="0" IVar="2" Cut="1.3139866590499878e+00" cType="1" res="1.2648077681660652e-02" rms="2.6689371466636658e-01" purity="5.8980411291122437e-01" nType="0">
          <Node pos="l" depth="2" NCoef="0" IVar="-1" Cut="0.0000000000000000e+00" cType="1" res="-4.3472456745803356e-03" rms="2.4265405535697937e-01" purity="1.7936833202838898e-01" nType="-99"/>
          <Node pos="r" depth="2" NCoef="0" IVar="-1" Cut="0.0000000000000000e+00" cType="1" res="1.3884024228900671e-03" rms="2.6738128066062927e-01" purity="6.2438744306564331e-01" nType="-99"/>
        </Node>
      </Node>
    </BinaryTree>
    <BinaryTree type="DecisionTree" boostWeight="1.0000000000000000e+00" itree="478">
      <Node pos="s" depth="0" NCoef="0" IVar="44" Cut="1.2345679104328156e-02" cType="1" res="1.1907367734238505e-03" rms="2.4942937493324280e-01" purity="5.0044912099838257e-01" nType="0">
        <Node pos="l" depth="1" NCoef="0" IVar="36" Cut="-1.1830085515975952e+00" cType="1" res="7.0877075195312500e-03" rms="2.4637593328952789e-01" purity="5.1240777969360352e-01" nType="0">
          <Node pos="l" depth="2" NCoef="0" IVar="-1" Cut="0.0000000000000000e+00" cType="1" res="1.5262755332514644e-03" rms="2.4570871889591217e-01" purity="6.0224974155426025e-01" nType="-99"/>
          <Node pos="r" depth="2" NCoef="0" IVar="-1" Cut="0.0000000000000000e+00" cType="1" res="-3.3606702927500010e-03" rms="2.4245400726795197e-01" purity="2.2336927056312561e-01" nType="-99"/>
        </Node>
        <Node pos="r" depth="1" NCoef="0" IVar="35" Cut="-4.1000217199325562e-01" cType="1" res="-1.1396269500255585e-01" rms="2.7899596095085144e-01" purity="2.6692512631416321e-01" nType="0">
          <Node pos="l" depth="2" NCoef="0" IVar="-1" Cut="0.0000000000000000e+00" cType="1" res="-4.1806413792073727e-03" rms="2.5668433308601379e-01" purity="3.9311352372169495e-01" nType="-99"/>
          <Node pos="r" depth="2" NCoef="0" IVar="-1" Cut="0.0000000000000000e+00" cType="1" res="-1.6066290438175201e-02" rms="2.8739649057388306e-01" purity="1.3492791354656219e-01" nType="-99"/>
        </Node>
      </Node>
    </BinaryTree>
    <BinaryTree type="DecisionTree" boostWeight="1.0000000000000000e+00" itree="479">
      <Node pos="s" depth="0" NCoef="0" IVar="36" Cut="-1.4150956869125366e+00" cType="1" res="3.9508449845016003e-03" rms="2.4930009245872498e-01" purity="5.0300729274749756e-01" nType="0">
        <Node pos="l" depth="1" NCoef="0" IVar="45" Cut="1.0271939039230347e+00" cType="1" res="2.1074825897812843e-02" rms="2.4928885698318481e-01" purity="6.0821712017059326e-01" nType="0">
          <Node pos="l" depth="2" NCoef="0" IVar="-1" Cut="0.0000000000000000e+00" cType="1" res="-5.9840911999344826e-03" rms="1.9763638079166412e-01" purity="1.2794281542301178e-01" nType="-99"/>
          <Node pos="r" depth="2" NCoef="0" IVar="-1" Cut="0.0000000000000000e+00" cType="1" res="2.0973584614694118e-03" rms="2.5229269266128540e-01" purity="6.5896105766296387e-01" nType="-99"/>
        </Node>
        <Node pos="r" depth="1" NCoef="0" IVar="36" Cut="1.5261269807815552e+00" cType="1" res="-3.5485092550516129e-02" rms="2.4481208622455597e-01" purity="2.6071253418922424e-01" nType="0">
          <Node pos="l" depth="2" NCoef="0" IVar="-1" Cut="0.0000000000000000e+00" cType="1" res="-2.0024662371724844e-03" rms="2.4760650098323822e-01" purity="2.9166710376739502e-01" nType="-99"/>
          <Node pos="r" depth="2" NCoef="0" IVar="-1" Cut="0.0000000000000000e+00" cType="1" res="-1.0141935199499130e-02" rms="2.1053685247898102e-01" purity="3.7130650132894516e-02" nType="-99"/>
        </Node>
      </Node>
    </BinaryTree>
    <BinaryTree type="DecisionTree" boostWeight="1.0000000000000000e+00" itree="480">
      <Node pos="s" depth="0" NCoef="0" IVar="0" Cut="7.5922459363937378e-01" cType="1" res="3.6038693506270647e-03" rms="2.4978855252265930e-01" purity="5.0351786613464355e-01" nType="0">
        <Node pos="l" depth="1" NCoef="0" IVar="2" Cut="1.3205331563949585e+00" cType="1" res="1.8426463007926941e-02" rms="2.5264227390289307e-01" purity="5.5108660459518433e-01" nType="0">
          <Node pos="l" depth="2" NCoef="0" IVar="-1" Cut="0.0000000000000000e+00" cType="1" res="-4.2058737017214298e-03" rms="2.1392814815044403e-01" purity="1.4131821691989899e-01" nType="-99"/>
          <Node pos="r" depth="2" NCoef="0" IVar="-1" Cut="0.0000000000000000e+00" cType="1" res="1.9934496376663446e-03" rms="2.5497248768806458e-01" purity="5.9836065769195557e-01" nType="-99"/>
        </Node>
        <Node pos="r" depth="1" NCoef="0" IVar="29" Cut="2.7692995071411133e+00" cType="1" res="-3.8709741085767746e-02" rms="2.3639723658561707e-01" purity="3.6772492527961731e-01" nType="0">
          <Node pos="l" depth="2" NCoef="0" IVar="-1" Cut="0.0000000000000000e+00" cType="1" res="-1.0023291222751141e-02" rms="1.5818609297275543e-01" purity="1.5286293625831604e-01" nType="-99"/>
          <Node pos="r" depth="2" NCoef="0" IVar="-1" Cut="0.0000000000000000e+00" cType="1" res="-1.3880656333640218e-03" rms="2.5511083006858826e-01" purity="4.4341301918029785e-01" nType="-99"/>
        </Node>
      </Node>
    </BinaryTree>
    <BinaryTree type="DecisionTree" boostWeight="1.0000000000000000e+00" itree="481">
      <Node pos="s" depth="0" NCoef="0" IVar="14" Cut="1.3323327302932739e+00" cType="1" res="2.4200500047300011e-04" rms="2.4379223585128784e-01" purity="5.0059747695922852e-01" nType="0">
        <Node pos="l" depth="1" NCoef="0" IVar="65" Cut="5.7280093431472778e-01" cType="1" res="-3.2555665820837021e-02" rms="1.8635524809360504e-01" purity="1.3348250091075897e-01" nType="0">
          <Node pos="l" depth="2" NCoef="0" IVar="-1" Cut="0.0000000000000000e+00" cType="1" res="-9.8489364609122276e-04" rms="2.2473496198654175e-01" purity="1.8279659748077393e-01" nType="-99"/>
          <Node pos="r" depth="2" NCoef="0" IVar="-1" Cut="0.0000000000000000e+00" cType="1" res="-9.7845187410712242e-03" rms="3.3625110983848572e-02" purity="3.7638001143932343e-02" nType="-99"/>
        </Node>
        <Node pos="r" depth="1" NCoef="0" IVar="56" Cut="1.5237022638320923e+00" cType="1" res="2.0495247095823288e-02" rms="2.7132433652877808e-01" purity="7.2729867696762085e-01" nType="0">
          <Node pos="l" depth="2" NCoef="0" IVar="-1" Cut="0.0000000000000000e+00" cType="1" res="1.6479137120768428e-03" rms="2.7062040567398071e-01" purity="7.5388216972351074e-01" nType="-99"/>
          <Node pos="r" depth="2" NCoef="0" IVar="-1" Cut="0.0000000000000000e+00" cType="1" res="-1.0189533233642578e-02" rms="2.3484006524085999e-01" purity="4.4850371778011322e-02" nType="-99"/>
        </Node>
      </Node>
    </BinaryTree>
    <BinaryTree type="DecisionTree" boostWeight="1.0000000000000000e+00" itree="482">
      <Node pos="s" depth="0" NCoef="0" IVar="37" Cut="-1.1090598106384277e+00" cType="1" res="1.9984508398920298e-03" rms="2.4981948733329773e-01" purity="4.9869546294212341e-01" nType="0">
        <Node pos="l" depth="1" NCoef="0" IVar="2" Cut="1.0310705900192261e+00" cType="1" res="1.1558925732970238e-02" rms="2.5291347503662109e-01" purity="5.3132951259613037e-01" nType="0">
          <Node pos="l" depth="2" NCoef="0" IVar="-1" Cut="0.0000000000000000e+00" cType="1" res="-5.3520868532359600e-03" rms="1.8106667697429657e-01" purity="7.6386876404285431e-02" nType="-99"/>
          <Node pos="r" depth="2" NCoef="0" IVar="-1" Cut="0.0000000000000000e+00" cType="1" res="1.2592385755851865e-03" rms="2.5531348586082458e-01" purity="5.5782884359359741e-01" nType="-99"/>
        </Node>
        <Node pos="r" depth="1" NCoef="0" IVar="33" Cut="-1.4924798011779785e+00" cType="1" res="-6.0440968722105026e-02" rms="2.1853047609329224e-01" purity="2.8556236624717712e-01" nType="0">
          <Node pos="l" depth="2" NCoef="0" IVar="-1" Cut="0.0000000000000000e+00" cType="1" res="-1.2199904303997755e-03" rms="2.4792006611824036e-01" purity="4.5470717549324036e-01" nType="-99"/>
          <Node pos="r" depth="2" NCoef="0" IVar="-1" Cut="0.0000000000000000e+00" cType="1" res="-7.0760888047516346e-03" rms="2.0433656871318817e-01" purity="2.2393491864204407e-01" nType="-99"/>
        </Node>
      </Node>
    </BinaryTree>
    <BinaryTree type="DecisionTree" boostWeight="1.0000000000000000e+00" itree="483">
      <Node pos="s" depth="0" NCoef="0" IVar="17" Cut="-1.2904766798019409e+00" cType="1" res="4.7017480246722698e-03" rms="2.5072568655014038e-01" purity="5.0072014331817627e-01" nType="0">
        <Node pos="l" depth="1" NCoef="0" IVar="34" Cut="1.2536866664886475e+00" cType="1" res="1.4949115924537182e-02" rms="2.5176051259040833e-01" purity="5.3471088409423828e-01" nType="0">
          <Node pos="l" depth="2" NCoef="0" IVar="-1" Cut="0.0000000000000000e+00" cType="1" res="1.7056455835700035e-03" rms="2.5059574842453003e-01" purity="5.9114027023315430e-01" nType="-99"/>
          <Node pos="r" depth="2" NCoef="0" IVar="-1" Cut="0.0000000000000000e+00" cType="1" res="-4.3473471887409687e-03" rms="2.5044378638267517e-01" purity="1.4301130175590515e-01" nType="-99"/>
        </Node>
        <Node pos="r" depth="1" NCoef="0" IVar="14" Cut="1.4858462810516357e+00" cType="1" res="-4.8945460468530655e-02" rms="2.3814557492733002e-01" purity="3.2277122139930725e-01" nType="0">
          <Node pos="l" depth="2" NCoef="0" IVar="-1" Cut="0.0000000000000000e+00" cType="1" res="-7.3328162543475628e-03" rms="1.7889621853828430e-01" purity="1.2483173608779907e-01" nType="-99"/>
          <Node pos="r" depth="2" NCoef="0" IVar="-1" Cut="0.0000000000000000e+00" cType="1" res="-7.1461993502452970e-04" rms="3.0969345569610596e-01" purity="6.5456169843673706e-01" nType="-99"/>
        </Node>
      </Node>
    </BinaryTree>
    <BinaryTree type="DecisionTree" boostWeight="1.0000000000000000e+00" itree="484">
      <Node pos="s" depth="0" NCoef="0" IVar="45" Cut="1.1895664930343628e+00" cType="1" res="2.1322281099855900e-03" rms="2.5074914097785950e-01" purity="5.0023663043975830e-01" nType="0">
        <Node pos="l" depth="1" NCoef="0" IVar="49" Cut="2.8945534229278564e+00" cType="1" res="-5.6485578417778015e-02" rms="1.4496502280235291e-01" purity="9.9907912313938141e-02" nType="0">
          <Node pos="l" depth="2" NCoef="0" IVar="-1" Cut="0.0000000000000000e+00" cType="1" res="-9.7001409158110619e-03" rms="8.4825009107589722e-02" purity="4.9953620880842209e-02" nType="-99"/>
          <Node pos="r" depth="2" NCoef="0" IVar="-1" Cut="0.0000000000000000e+00" cType="1" res="1.1480231769382954e-03" rms="2.3074701428413391e-01" purity="2.4047714471817017e-01" nType="-99"/>
        </Node>
        <Node pos="r" depth="1" NCoef="0" IVar="54" Cut="1.4081825017929077e+00" cType="1" res="1.2117109261453152e-02" rms="2.6328799128532410e-01" purity="5.6842815876007080e-01" nType="0">
          <Node pos="l" depth="2" NCoef="0" IVar="-1" Cut="0.0000000000000000e+00" cType="1" res="1.4122091233730316e-03" rms="2.6418364048004150e-01" purity="6.2026774883270264e-01" nType="-99"/>
          <Node pos="r" depth="2" NCoef="0" IVar="-1" Cut="0.0000000000000000e+00" cType="1" res="-6.1308867298066616e-03" rms="2.4140076339244843e-01" purity="1.0180798172950745e-01" nType="-99"/>
        </Node>
      </Node>
    </BinaryTree>
    <BinaryTree type="DecisionTree" boostWeight="1.0000000000000000e+00" itree="485">
      <Node pos="s" depth="0" NCoef="0" IVar="52" Cut="-1.5312020778656006e+00" cType="1" res="-3.4981255885213614e-04" rms="2.4600866436958313e-01" purity="4.9886521697044373e-01" nType="0">
        <Node pos="l" depth="1" NCoef="0" IVar="25" Cut="9.6531844139099121e-01" cType="1" res="2.9324339702725410e-02" rms="2.3520220816135406e-01" purity="6.8489736318588257e-01" nType="0">
          <Node pos="l" depth="2" NCoef="0" IVar="-1" Cut="0.0000000000000000e+00" cType="1" res="-6.3707609660923481e-03" rms="1.9119751453399658e-01" purity="1.4747217297554016e-01" nType="-99"/>
          <Node pos="r" depth="2" NCoef="0" IVar="-1" Cut="0.0000000000000000e+00" cType="1" res="2.6687830686569214e-03" rms="2.3605990409851074e-01" purity="7.2406661510467529e-01" nType="-99"/>
        </Node>
        <Node pos="r" depth="1" NCoef="0" IVar="45" Cut="1.2009309530258179e+00" cType="1" res="-1.9712269306182861e-02" rms="2.5092613697052002e-01" purity="3.7747871875762939e-01" nType="0">
          <Node pos="l" depth="2" NCoef="0" IVar="-1" Cut="0.0000000000000000e+00" cType="1" res="-8.1579936668276787e-03" rms="8.6352109909057617e-02" purity="6.0465417802333832e-02" nType="-99"/>
          <Node pos="r" depth="2" NCoef="0" IVar="-1" Cut="0.0000000000000000e+00" cType="1" res="-5.2830122876912355e-04" rms="2.7571991086006165e-01" purity="4.5618587732315063e-01" nType="-99"/>
        </Node>
      </Node>
    </BinaryTree>
    <BinaryTree type="DecisionTree" boostWeight="1.0000000000000000e+00" itree="486">
      <Node pos="s" depth="0" NCoef="0" IVar="2" Cut="9.9917691946029663e-01" cType="1" res="1.7951328773051500e-03" rms="2.4895597994327545e-01" purity="4.9831753969192505e-01" nType="0">
        <Node pos="l" depth="1" NCoef="0" IVar="25" Cut="1.7594126462936401e+00" cType="1" res="-9.8116613924503326e-02" rms="1.1752688884735107e-01" purity="5.1852870732545853e-02" nType="0">
          <Node pos="l" depth="2" NCoef="0" IVar="-1" Cut="0.0000000000000000e+00" cType="1" res="-5.4131052456796169e-03" rms="1.5003865584731102e-02" purity="3.9054721593856812e-02" nType="-99"/>
          <Node pos="r" depth="2" NCoef="0" IVar="-1" Cut="0.0000000000000000e+00" cType="1" res="-6.8819792941212654e-03" rms="1.5822863578796387e-01" purity="6.7926593124866486e-02" nType="-99"/>
        </Node>
        <Node pos="r" depth="1" NCoef="0" IVar="37" Cut="-9.0164500474929810e-01" cType="1" res="7.3380484245717525e-03" rms="2.5311410427093506e-01" purity="5.2308654785156250e-01" nType="0">
          <Node pos="l" depth="2" NCoef="0" IVar="-1" Cut="0.0000000000000000e+00" cType="1" res="1.0657152161002159e-03" rms="2.5485998392105103e-01" purity="5.4777711629867554e-01" nType="-99"/>
          <Node pos="r" depth="2" NCoef="0" IVar="-1" Cut="0.0000000000000000e+00" cType="1" res="-6.4640594646334648e-03" rms="2.1879766881465912e-01" purity="2.5718319416046143e-01" nType="-99"/>
        </Node>
      </Node>
    </BinaryTree>
    <BinaryTree type="DecisionTree" boostWeight="1.0000000000000000e+00" itree="487">
      <Node pos="s" depth="0" NCoef="0" IVar="64" Cut="1.2345679104328156e-02" cType="1" res="1.3299651909619570e-03" rms="2.4995258450508118e-01" purity="4.9806287884712219e-01" nType="0">
        <Node pos="l" depth="1" NCoef="0" IVar="0" Cut="9.1093313694000244e-01" cType="1" res="6.3512837514281273e-03" rms="2.4873827397823334e-01" purity="5.0791984796524048e-01" nType="0">
          <Node pos="l" depth="2" NCoef="0" IVar="-1" Cut="0.0000000000000000e+00" cType="1" res="1.1636471608653665e-03" rms="2.4958018958568573e-01" purity="5.3585207462310791e-01" nType="-99"/>
          <Node pos="r" depth="2" NCoef="0" IVar="-1" Cut="0.0000000000000000e+00" cType="1" res="-4.2917793616652489e-03" rms="2.3590347170829773e-01" purity="3.4697622060775757e-01" nType="-99"/>
        </Node>
        <Node pos="r" depth="1" NCoef="0" IVar="55" Cut="-6.8172740936279297e-01" cType="1" res="-1.1221053451299667e-01" rms="2.5041490793228149e-01" purity="2.7518045902252197e-01" nType="0">
          <Node pos="l" depth="2" NCoef="0" IVar="-1" Cut="0.0000000000000000e+00" cType="1" res="-4.1239499114453793e-03" rms="2.3686666786670685e-01" purity="4.2569991946220398e-01" nType="-99"/>
          <Node pos="r" depth="2" NCoef="0" IVar="-1" Cut="0.0000000000000000e+00" cType="1" res="-1.6511149704456329e-02" rms="2.4723881483078003e-01" purity="1.1083811521530151e-01" nType="-99"/>
        </Node>
      </Node>
    </BinaryTree>
    <BinaryTree type="DecisionTree" boostWeight="1.0000000000000000e+00" itree="488">
      <Node pos="s" depth="0" NCoef="0" IVar="14" Cut="1.4483531713485718e+00" cType="1" res="3.0571664683520794e-04" rms="2.4539446830749512e-01" purity="4.9979048967361450e-01" nType="0">
        <Node pos="l" depth="1" NCoef="0" IVar="65" Cut="7.0717555284500122e-01" cType="1" res="-2.7280993759632111e-02" rms="2.1155142784118652e-01" purity="1.9091440737247467e-01" nType="0">
          <Node pos="l" depth="2" NCoef="0" IVar="-1" Cut="0.0000000000000000e+00" cType="1" res="-1.0687776375561953e-03" rms="2.3254865407943726e-01" purity="2.2607806324958801e-01" nType="-99"/>
          <Node pos="r" depth="2" NCoef="0" IVar="-1" Cut="0.0000000000000000e+00" cType="1" res="-1.1194695718586445e-02" rms="0.0000000000000000e+00" purity="4.0280513465404510e-02" nType="-99"/>
        </Node>
        <Node pos="r" depth="1" NCoef="0" IVar="36" Cut="1.5242767333984375e+00" cType="1" res="2.2204041481018066e-02" rms="2.6722738146781921e-01" purity="7.4497634172439575e-01" nType="0">
          <Node pos="l" depth="2" NCoef="0" IVar="-1" Cut="0.0000000000000000e+00" cType="1" res="1.7955240327864885e-03" rms="2.6407578587532043e-01" purity="7.7226233482360840e-01" nType="-99"/>
          <Node pos="r" depth="2" NCoef="0" IVar="-1" Cut="0.0000000000000000e+00" cType="1" res="-8.8961776345968246e-03" rms="2.9299807548522949e-01" purity="7.5564533472061157e-02" nType="-99"/>
        </Node>
      </Node>
    </BinaryTree>
    <BinaryTree type="DecisionTree" boostWeight="1.0000000000000000e+00" itree="489">
      <Node pos="s" depth="0" NCoef="0" IVar="14" Cut="1.5258079767227173e+00" cType="1" res="4.5988155761733651e-04" rms="2.4533933401107788e-01" purity="5.0264078378677368e-01" nType="0">
        <Node pos="l" depth="1" NCoef="0" IVar="17" Cut="-1.3805305957794189e+00" cType="1" res="-1.7834657803177834e-02" rms="2.4411907792091370e-01" purity="3.5065856575965881e-01" nType="0">
          <Node pos="l" depth="2" NCoef="0" IVar="-1" Cut="0.0000000000000000e+00" cType="1" res="-3.3288737176917493e-04" rms="2.5008064508438110e-01" purity="3.8626480102539062e-01" nType="-99"/>
          <Node pos="r" depth="2" NCoef="0" IVar="-1" Cut="0.0000000000000000e+00" cType="1" res="-5.9105870313942432e-03" rms="2.1349728107452393e-01" purity="2.1956190466880798e-01" nType="-99"/>
        </Node>
        <Node pos="r" depth="1" NCoef="0" IVar="36" Cut="1.4471486806869507e+00" cType="1" res="3.4020360559225082e-02" rms="2.4402202665805817e-01" purity="7.8144508600234985e-01" nType="0">
          <Node pos="l" depth="2" NCoef="0" IVar="-1" Cut="0.0000000000000000e+00" cType="1" res="2.9449178837239742e-03" rms="2.3201565444469452e-01" purity="8.2903605699539185e-01" nType="-99"/>
          <Node pos="r" depth="2" NCoef="0" IVar="-1" Cut="0.0000000000000000e+00" cType="1" res="-6.4565087668597698e-03" rms="3.3588665723800659e-01" purity="1.4946326613426208e-01" nType="-99"/>
        </Node>
      </Node>
    </BinaryTree>
    <BinaryTree type="DecisionTree" boostWeight="1.0000000000000000e+00" itree="490">
      <Node pos="s" depth="0" NCoef="0" IVar="36" Cut="-8.3489948511123657e-01" cType="1" res="2.0353721920400858e-03" rms="2.4639259278774261e-01" purity="5.0120049715042114e-01" nType="0">
        <Node pos="l" depth="1" NCoef="0" IVar="14" Cut="1.5257415771484375e+00" cType="1" res="1.4549764804542065e-02" rms="2.4837294220924377e-01" purity="5.8235555887222290e-01" nType="0">
          <Node pos="l" depth="2" NCoef="0" IVar="-1" Cut="0.0000000000000000e+00" cType="1" res="-3.7041906034573913e-04" rms="2.5890761613845825e-01" purity="4.2304483056068420e-01" nType="-99"/>
          <Node pos="r" depth="2" NCoef="0" IVar="-1" Cut="0.0000000000000000e+00" cType="1" res="3.1542372889816761e-03" rms="2.2599685192108154e-01" purity="8.4814071655273438e-01" nType="-99"/>
        </Node>
        <Node pos="r" depth="1" NCoef="0" IVar="36" Cut="1.5335820913314819e+00" cType="1" res="-4.4050130993127823e-02" rms="2.3323906958103180e-01" purity="2.0233882963657379e-01" nType="0">
          <Node pos="l" depth="2" NCoef="0" IVar="-1" Cut="0.0000000000000000e+00" cType="1" res="-2.7815236244350672e-03" rms="2.3530101776123047e-01" purity="2.2740320861339569e-01" nType="-99"/>
          <Node pos="r" depth="2" NCoef="0" IVar="-1" Cut="0.0000000000000000e+00" cType="1" res="-1.1062758974730968e-02" rms="2.0207922160625458e-01" purity="2.7685754001140594e-02" nType="-99"/>
        </Node>
      </Node>
    </BinaryTree>
    <BinaryTree type="DecisionTree" boostWeight="1.0000000000000000e+00" itree="491">
      <Node pos="s" depth="0" NCoef="0" IVar="17" Cut="-9.6321457624435425e-01" cType="1" res="2.2774031385779381e-03" rms="2.4862813949584961e-01" purity="4.9957990646362305e-01" nType="0">
        <Node pos="l" depth="1" NCoef="0" IVar="14" Cut="-1.4537136554718018e+00" cType="1" res="9.5221698284149170e-03" rms="2.5004228949546814e-01" purity="5.2203911542892456e-01" nType="0">
          <Node pos="l" depth="2" NCoef="0" IVar="-1" Cut="0.0000000000000000e+00" cType="1" res="-1.2663302011787891e-02" rms="0.0000000000000000e+00" purity="-1.0088025592267513e-02" nType="-99"/>
          <Node pos="r" depth="2" NCoef="0" IVar="-1" Cut="0.0000000000000000e+00" cType="1" res="1.3032930437475443e-03" rms="2.8150573372840881e-01" purity="6.4512121677398682e-01" nType="-99"/>
        </Node>
        <Node pos="r" depth="1" NCoef="0" IVar="2" Cut="1.7033147811889648e+00" cType="1" res="-7.5074978172779083e-02" rms="2.1850126981735229e-01" purity="2.5978296995162964e-01" nType="0">
          <Node pos="l" depth="2" NCoef="0" IVar="-1" Cut="0.0000000000000000e+00" cType="1" res="-1.4008825644850731e-02" rms="0.0000000000000000e+00" purity="4.5814258046448231e-03" nType="-99"/>
          <Node pos="r" depth="2" NCoef="0" IVar="-1" Cut="0.0000000000000000e+00" cType="1" res="-4.5036966912448406e-03" rms="2.8652471303939819e-01" purity="3.5964864492416382e-01" nType="-99"/>
        </Node>
      </Node>
    </BinaryTree>
    <BinaryTree type="DecisionTree" boostWeight="1.0000000000000000e+00" itree="492">
      <Node pos="s" depth="0" NCoef="0" IVar="52" Cut="-1.5312063694000244e+00" cType="1" res="1.5763357514515519e-03" rms="2.4832196533679962e-01" purity="5.0152945518493652e-01" nType="0">
        <Node pos="l" depth="1" NCoef="0" IVar="34" Cut="1.3319780826568604e+00" cType="1" res="3.3656284213066101e-02" rms="2.3649711906909943e-01" purity="6.8884861469268799e-01" nType="0">
          <Node pos="l" depth="2" NCoef="0" IVar="-1" Cut="0.0000000000000000e+00" cType="1" res="3.0693495646119118e-03" rms="2.2696770727634430e-01" purity="7.4319106340408325e-01" nType="-99"/>
          <Node pos="r" depth="2" NCoef="0" IVar="-1" Cut="0.0000000000000000e+00" cType="1" res="-4.1682985611259937e-03" rms="2.9922264814376831e-01" purity="1.7142961919307709e-01" nType="-99"/>
        </Node>
        <Node pos="r" depth="1" NCoef="0" IVar="2" Cut="1.3028308153152466e+00" cType="1" res="-1.9435267895460129e-02" rms="2.5358071923255920e-01" purity="3.7883991003036499e-01" nType="0">
          <Node pos="l" depth="2" NCoef="0" IVar="-1" Cut="0.0000000000000000e+00" cType="1" res="-8.0164121463894844e-03" rms="0.0000000000000000e+00" purity="4.5195188373327255e-02" nType="-99"/>
          <Node pos="r" depth="2" NCoef="0" IVar="-1" Cut="0.0000000000000000e+00" cType="1" res="-7.7081506606191397e-04" rms="2.6820406317710876e-01" purity="4.1934204101562500e-01" nType="-99"/>
        </Node>
      </Node>
    </BinaryTree>
    <BinaryTree type="DecisionTree" boostWeight="1.0000000000000000e+00" itree="493">
      <Node pos="s" depth="0" NCoef="0" IVar="34" Cut="1.4480490684509277e+00" cType="1" res="2.1481146104633808e-03" rms="2.4796718358993530e-01" purity="5.0252318382263184e-01" nType="0">
        <Node pos="l" depth="1" NCoef="0" IVar="25" Cut="9.9240130186080933e-01" cType="1" res="9.5610776916146278e-03" rms="2.5156506896018982e-01" purity="5.4267036914825439e-01" nType="0">
          <Node pos="l" depth="2" NCoef="0" IVar="-1" Cut="0.0000000000000000e+00" cType="1" res="-7.8226830810308456e-03" rms="1.2710374593734741e-01" purity="7.0421375334262848e-02" nType="-99"/>
          <Node pos="r" depth="2" NCoef="0" IVar="-1" Cut="0.0000000000000000e+00" cType="1" res="1.2941011227667332e-03" rms="2.6098534464836121e-01" purity="5.9901511669158936e-01" nType="-99"/>
        </Node>
        <Node pos="r" depth="1" NCoef="0" IVar="31" Cut="1.2345679104328156e-02" cType="1" res="-7.9357877373695374e-02" rms="1.8568629026412964e-01" purity="6.1102379113435745e-02" nType="0">
          <Node pos="l" depth="2" NCoef="0" IVar="-1" Cut="0.0000000000000000e+00" cType="1" res="-3.2933789771050215e-03" rms="1.8986605107784271e-01" purity="6.3650496304035187e-02" nType="-99"/>
          <Node pos="r" depth="2" NCoef="0" IVar="-1" Cut="0.0000000000000000e+00" cType="1" res="-1.1343553662300110e-02" rms="1.7291885614395142e-01" purity="5.9361197054386139e-02" nType="-99"/>
        </Node>
      </Node>
    </BinaryTree>
    <BinaryTree type="DecisionTree" boostWeight="1.0000000000000000e+00" itree="494">
      <Node pos="s" depth="0" NCoef="0" IVar="37" Cut="-7.2390031814575195e-01" cType="1" res="3.6863051354885101e-03" rms="2.4813571572303772e-01" purity="5.0224310159683228e-01" nType="0">
        <Node pos="l" depth="1" NCoef="0" IVar="56" Cut="1.5237022638320923e+00" cType="1" res="9.3265296891331673e-03" rms="2.5148764252662659e-01" purity="5.2002292871475220e-01" nType="0">
          <Node pos="l" depth="2" NCoef="0" IVar="-1" Cut="0.0000000000000000e+00" cType="1" res="1.0118727805092931e-03" rms="2.5313320755958557e-01" purity="5.4002916812896729e-01" nType="-99"/>
          <Node pos="r" depth="2" NCoef="0" IVar="-1" Cut="0.0000000000000000e+00" cType="1" res="-1.0939515195786953e-02" rms="1.6849680244922638e-01" purity="2.1220797672867775e-02" nType="-99"/>
        </Node>
        <Node pos="r" depth="1" NCoef="0" IVar="37" Cut="-5.9514009952545166e-01" cType="1" res="-9.9799357354640961e-02" rms="1.3982598483562469e-01" purity="1.7602200806140900e-01" nType="0">
          <Node pos="l" depth="2" NCoef="0" IVar="-1" Cut="0.0000000000000000e+00" cType="1" res="-6.2145707197487354e-03" rms="1.6756391525268555e-01" purity="2.4526162445545197e-01" nType="-99"/>
          <Node pos="r" depth="2" NCoef="0" IVar="-1" Cut="0.0000000000000000e+00" cType="1" res="-1.2404161505401134e-02" rms="1.1100292950868607e-01" purity="1.2682132422924042e-01" nType="-99"/>
        </Node>
      </Node>
    </BinaryTree>
    <BinaryTree type="DecisionTree" boostWeight="1.0000000000000000e+00" itree="495">
      <Node pos="s" depth="0" NCoef="0" IVar="14" Cut="1.3704904317855835e+00" cType="1" res="1.8974906997755170e-03" rms="2.4486622214317322e-01" purity="5.0224643945693970e-01" nType="0">
        <Node pos="l" depth="1" NCoef="0" IVar="65" Cut="7.5194656848907471e-01" cType="1" res="-2.9106754809617996e-02" rms="1.9447098672389984e-01" purity="1.4649841189384460e-01" nType="0">
          <Node pos="l" depth="2" NCoef="0" IVar="-1" Cut="0.0000000000000000e+00" cType="1" res="-1.7801404464989901e-03" rms="2.0899672806262970e-01" purity="1.6972658038139343e-01" nType="-99"/>
          <Node pos="r" depth="2" NCoef="0" IVar="-1" Cut="0.0000000000000000e+00" cType="1" res="-1.2996869161725044e-02" rms="0.0000000000000000e+00" purity="7.3721744120121002e-03" nType="-99"/>
        </Node>
        <Node pos="r" depth="1" NCoef="0" IVar="36" Cut="1.4858274459838867e+00" cType="1" res="2.2203991189599037e-02" rms="2.7095872163772583e-01" purity="7.3524665832519531e-01" nType="0">
          <Node pos="l" depth="2" NCoef="0" IVar="-1" Cut="0.0000000000000000e+00" cType="1" res="1.8934828694909811e-03" rms="2.6631802320480347e-01" purity="7.7463483810424805e-01" nType="-99"/>
          <Node pos="r" depth="2" NCoef="0" IVar="-1" Cut="0.0000000000000000e+00" cType="1" res="-6.9647738710045815e-03" rms="3.0805826187133789e-01" purity="1.0709380358457565e-01" nType="-99"/>
        </Node>
      </Node>
    </BinaryTree>
    <BinaryTree type="DecisionTree" boostWeight="1.0000000000000000e+00" itree="496">
      <Node pos="s" depth="0" NCoef="0" IVar="25" Cut="1.0897804498672485e+00" cType="1" res="-3.8644150481559336e-04" rms="2.4216145277023315e-01" purity="4.9737906455993652e-01" nType="0">
        <Node pos="l" depth="1" NCoef="0" IVar="29" Cut="3.0571143627166748e+00" cType="1" res="-6.3703082501888275e-02" rms="1.2445867806673050e-01" purity="7.3263444006443024e-02" nType="0">
          <Node pos="l" depth="2" NCoef="0" IVar="-1" Cut="0.0000000000000000e+00" cType="1" res="-1.0357015766203403e-02" rms="5.9294298291206360e-02" purity="3.8593593984842300e-02" nType="-99"/>
          <Node pos="r" depth="2" NCoef="0" IVar="-1" Cut="0.0000000000000000e+00" cType="1" res="2.7414741925895214e-03" rms="2.5667345523834229e-01" purity="2.5074875354766846e-01" nType="-99"/>
        </Node>
        <Node pos="r" depth="1" NCoef="0" IVar="2" Cut="1.3205331563949585e+00" cType="1" res="8.7775019928812981e-03" rms="2.5342348217964172e-01" purity="5.5876219272613525e-01" nType="0">
          <Node pos="l" depth="2" NCoef="0" IVar="-1" Cut="0.0000000000000000e+00" cType="1" res="-4.5307571999728680e-03" rms="2.0497983694076538e-01" purity="1.4684894680976868e-01" nType="-99"/>
          <Node pos="r" depth="2" NCoef="0" IVar="-1" Cut="0.0000000000000000e+00" cType="1" res="1.2419054983183742e-03" rms="2.5649803876876831e-01" purity="6.0191166400909424e-01" nType="-99"/>
        </Node>
      </Node>
    </BinaryTree>
    <BinaryTree type="DecisionTree" boostWeight="1.0000000000000000e+00" itree="497">
      <Node pos="s" depth="0" NCoef="0" IVar="57" Cut="-1.1536873579025269e+00" cType="1" res="-5.3630844922736287e-04" rms="2.4691228568553925e-01" purity="4.9885249137878418e-01" nType="0">
        <Node pos="l" depth="1" NCoef="0" IVar="2" Cut="1.2037755250930786e+00" cType="1" res="9.9111981689929962e-03" rms="2.5016325712203979e-01" purity="5.3498339653015137e-01" nType="0">
          <Node pos="l" depth="2" NCoef="0" IVar="-1" Cut="0.0000000000000000e+00" cType="1" res="-4.4858148321509361e-03" rms="2.0150952041149139e-01" purity="1.2508037686347961e-01" nType="-99"/>
          <Node pos="r" depth="2" NCoef="0" IVar="-1" Cut="0.0000000000000000e+00" cType="1" res="1.2307944707572460e-03" rms="2.5265419483184814e-01" purity="5.6934857368469238e-01" nType="-99"/>
        </Node>
        <Node pos="r" depth="1" NCoef="0" IVar="53" Cut="-1.3764103651046753e+00" cType="1" res="-6.4522087574005127e-02" rms="2.1518830955028534e-01" purity="2.7756828069686890e-01" nType="0">
          <Node pos="l" depth="2" NCoef="0" IVar="-1" Cut="0.0000000000000000e+00" cType="1" res="-2.4649214465171099e-03" rms="2.5218415260314941e-01" purity="3.8875061273574829e-01" nType="-99"/>
          <Node pos="r" depth="2" NCoef="0" IVar="-1" Cut="0.0000000000000000e+00" cType="1" res="-8.4808357059955597e-03" rms="1.7630915343761444e-01" purity="1.8994612991809845e-01" nType="-99"/>
        </Node>
      </Node>
    </BinaryTree>
    <BinaryTree type="DecisionTree" boostWeight="1.0000000000000000e+00" itree="498">
      <Node pos="s" depth="0" NCoef="0" IVar="17" Cut="-1.0827752351760864e+00" cType="1" res="-3.1264990102499723e-03" rms="2.4507372081279755e-01" purity="4.9502867460250854e-01" nType="0">
        <Node pos="l" depth="1" NCoef="0" IVar="14" Cut="-1.4150160551071167e+00" cType="1" res="5.2602547220885754e-03" rms="2.4883700907230377e-01" purity="5.2207136154174805e-01" nType="0">
          <Node pos="l" depth="2" NCoef="0" IVar="-1" Cut="0.0000000000000000e+00" cType="1" res="-1.3790847733616829e-02" rms="0.0000000000000000e+00" purity="-1.3688839972019196e-02" nType="-99"/>
          <Node pos="r" depth="2" NCoef="0" IVar="-1" Cut="0.0000000000000000e+00" cType="1" res="1.1016974458470941e-03" rms="2.8481516242027283e-01" purity="6.5727931261062622e-01" nType="-99"/>
        </Node>
        <Node pos="r" depth="1" NCoef="0" IVar="14" Cut="1.5238344669342041e+00" cType="1" res="-6.9359421730041504e-02" rms="2.0109666883945465e-01" purity="2.8146362304687500e-01" nType="0">
          <Node pos="l" depth="2" NCoef="0" IVar="-1" Cut="0.0000000000000000e+00" cType="1" res="-8.4295421838760376e-03" rms="1.6584816575050354e-01" purity="1.6187785565853119e-01" nType="-99"/>
          <Node pos="r" depth="2" NCoef="0" IVar="-1" Cut="0.0000000000000000e+00" cType="1" res="1.1277895100647584e-04" rms="2.7973273396492004e-01" purity="6.9148498773574829e-01" nType="-99"/>
        </Node>
      </Node>
    </BinaryTree>
    <BinaryTree type="DecisionTree" boostWeight="1.0000000000000000e+00" itree="499">
      <Node pos="s" depth="0" NCoef="0" IVar="1" Cut="3.4192254543304443e+00" cType="1" res="2.7484295424073935e-03" rms="2.4443216621875763e-01" purity="5.0142484903335571e-01" nType="0">
        <Node pos="l" depth="1" NCoef="0" IVar="0" Cut="9.3861746788024902e-01" cType="1" res="-1.2690151110291481e-02" rms="2.4778527021408081e-01" purity="3.6377078294754028e-01" nType="0">
          <Node pos="l" depth="2" NCoef="0" IVar="-1" Cut="0.0000000000000000e+00" cType="1" res="-1.7686531646177173e-04" rms="2.5198766589164734e-01" purity="3.9444932341575623e-01" nType="-99"/>
          <Node pos="r" depth="2" NCoef="0" IVar="-1" Cut="0.0000000000000000e+00" cType="1" res="-7.3235677555203438e-03" rms="2.0936803519725800e-01" purity="1.7477683722972870e-01" nType="-99"/>
        </Node>
        <Node pos="r" depth="1" NCoef="0" IVar="2" Cut="2.0246355533599854e+00" cType="1" res="3.8306329399347305e-02" rms="2.3266379535198212e-01" purity="8.1846749782562256e-01" nType="0">
          <Node pos="l" depth="2" NCoef="0" IVar="-1" Cut="0.0000000000000000e+00" cType="1" res="-2.8616401832550764e-03" rms="3.1297326087951660e-01" purity="5.8696770668029785e-01" nType="-99"/>
          <Node pos="r" depth="2" NCoef="0" IVar="-1" Cut="0.0000000000000000e+00" cType="1" res="3.5936760250478983e-03" rms="2.2200968861579895e-01" purity="8.3955913782119751e-01" nType="-99"/>
        </Node>
      </Node>
    </BinaryTree>
    <BinaryTree type="DecisionTree" boostWeight="1.0000000000000000e+00" itree="500">
      <Node pos="s" depth="0" NCoef="0" IVar="2" Cut="5.5654078722000122e-01" cType="1" res="1.5927556669339538e-03" rms="2.4865700304508209e-01" purity="4.9991533160209656e-01" nType="0">
        <Node pos="l" depth="1" NCoef="0" IVar="-1" Cut="0.0000000000000000e+00" cType="1" res="-1.0134151205420494e-02" rms="0.0000000000000000e+00" purity="-7.1146734058856964e-02" nType="-99"/>
        <Node pos="r" depth="1" NCoef="0" IVar="0" Cut="7.6044625043869019e-01" cType="1" res="5.6273611262440681e-03" rms="2.5283488631248474e-01" purity="5.1300960779190063e-01" nType="0">
          <Node pos="l" depth="2" NCoef="0" IVar="-1" Cut="0.0000000000000000e+00" cType="1" res="1.3976796763017774e-03" rms="2.5502225756645203e-01" purity="5.6178081035614014e-01" nType="-99"/>
          <Node pos="r" depth="2" NCoef="0" IVar="-1" Cut="0.0000000000000000e+00" cType="1" res="-2.7967519126832485e-03" rms="2.4234472215175629e-01" purity="3.7436738610267639e-01" nType="-99"/>
        </Node>
      </Node>
    </BinaryTree>
    <BinaryTree type="DecisionTree" boostWeight="1.0000000000000000e+00" itree="501">
      <Node pos="s" depth="0" NCoef="0" IVar="56" Cut="1.5240936279296875e+00" cType="1" res="1.2900518486276269e-03" rms="2.4748945236206055e-01" purity="4.9996238946914673e-01" nType="0">
        <Node pos="l" depth="1" NCoef="0" IVar="14" Cut="1.5252424478530884e+00" cType="1" res="5.7300948537886143e-03" rms="2.4985325336456299e-01" purity="5.1954030990600586e-01" nType="0">
          <Node pos="l" depth="2" NCoef="0" IVar="-1" Cut="0.0000000000000000e+00" cType="1" res="-9.3339290469884872e-04" rms="2.4922661483287811e-01" purity="3.6283561587333679e-01" nType="-99"/>
          <Node pos="r" depth="2" NCoef="0" IVar="-1" Cut="0.0000000000000000e+00" cType="1" res="2.4762384127825499e-03" rms="2.4783022701740265e-01" purity="8.0671429634094238e-01" nType="-99"/>
        </Node>
        <Node pos="r" depth="1" NCoef="0" IVar="-1" Cut="0.0000000000000000e+00" cType="1" res="-1.1939610354602337e-02" rms="1.3828352093696594e-01" purity="1.1193576268851757e-02" nType="-99"/>
      </Node>
    </BinaryTree>
    <BinaryTree type="DecisionTree" boostWeight="1.0000000000000000e+00" itree="502">
      <Node pos="s" depth="0" NCoef="0" IVar="2" Cut="1.7538757324218750e+00" cType="1" res="2.5920867919921875e-03" rms="2.4786148965358734e-01" purity="4.9997746944427490e-01" nType="0">
        <Node pos="l" depth="1" NCoef="0" IVar="14" Cut="-8.7353408336639404e-01" cType="1" res="-3.7167619913816452e-02" rms="1.9972304999828339e-01" purity="1.8839520215988159e-01" nType="0">
          <Node pos="l" depth="2" NCoef="0" IVar="-1" Cut="0.0000000000000000e+00" cType="1" res="-2.9789311811327934e-02" rms="0.0000000000000000e+00" purity="-5.1298741251230240e-02" nType="-99"/>
          <Node pos="r" depth="2" NCoef="0" IVar="-1" Cut="0.0000000000000000e+00" cType="1" res="-5.8876001276075840e-04" rms="3.2072395086288452e-01" purity="3.4412777423858643e-01" nType="-99"/>
        </Node>
        <Node pos="r" depth="1" NCoef="0" IVar="0" Cut="8.4798896312713623e-01" cType="1" res="1.6324531286954880e-02" rms="2.6104104518890381e-01" purity="6.0759359598159790e-01" nType="0">
          <Node pos="l" depth="2" NCoef="0" IVar="-1" Cut="0.0000000000000000e+00" cType="1" res="2.0342255011200905e-03" rms="2.5622898340225220e-01" purity="6.4709728956222534e-01" nType="-99"/>
          <Node pos="r" depth="2" NCoef="0" IVar="-1" Cut="0.0000000000000000e+00" cType="1" res="-2.6325166691094637e-03" rms="2.7482399344444275e-01" purity="4.4125118851661682e-01" nType="-99"/>
        </Node>
      </Node>
    </BinaryTree>
    <BinaryTree type="DecisionTree" boostWeight="1.0000000000000000e+00" itree="503">
      <Node pos="s" depth="0" NCoef="0" IVar="37" Cut="-1.3197319507598877e+00" cType="1" res="1.8156036967411637e-03" rms="2.4534972012042999e-01" purity="4.9938318133354187e-01" nType="0">
        <Node pos="l" depth="1" NCoef="0" IVar="2" Cut="6.0483932495117188e-01" cType="1" res="1.3725746423006058e-02" rms="2.4967038631439209e-01" purity="5.3968250751495361e-01" nType="0">
          <Node pos="l" depth="2" NCoef="0" IVar="-1" Cut="0.0000000000000000e+00" cType="1" res="-7.6294424943625927e-03" rms="0.0000000000000000e+00" purity="-2.7602730318903923e-02" nType="-99"/>
          <Node pos="r" depth="2" NCoef="0" IVar="-1" Cut="0.0000000000000000e+00" cType="1" res="1.3026688247919083e-03" rms="2.5270375609397888e-01" purity="5.5407845973968506e-01" nType="-99"/>
        </Node>
        <Node pos="r" depth="1" NCoef="0" IVar="33" Cut="-1.4924798011779785e+00" cType="1" res="-5.0205655395984650e-02" rms="2.1801091730594635e-01" purity="3.2336354255676270e-01" nType="0">
          <Node pos="l" depth="2" NCoef="0" IVar="-1" Cut="0.0000000000000000e+00" cType="1" res="-4.4344435445964336e-04" rms="2.6292601227760315e-01" purity="4.9075794219970703e-01" nType="-99"/>
          <Node pos="r" depth="2" NCoef="0" IVar="-1" Cut="0.0000000000000000e+00" cType="1" res="-6.0362056829035282e-03" rms="1.9420839846134186e-01" purity="2.5597608089447021e-01" nType="-99"/>
        </Node>
      </Node>
    </BinaryTree>
    <BinaryTree type="DecisionTree" boostWeight="1.0000000000000000e+00" itree="504">
      <Node pos="s" depth="0" NCoef="0" IVar="1" Cut="2.1642911434173584e+00" cType="1" res="9.3039526836946607e-04" rms="2.4384716153144836e-01" purity="5.0016379356384277e-01" nType="0">
        <Node pos="l" depth="1" NCoef="0" IVar="56" Cut="1.0586681365966797e+00" cType="1" res="-8.1418668851256371e-03" rms="0.0000000000000000e+00" purity="3.0829945579171181e-02" nType="-99"/>
        <Node pos="r" depth="1" NCoef="0" IVar="56" Cut="1.5240936279296875e+00" cType="1" res="1.1030087247490883e-02" rms="2.6518702507019043e-01" purity="5.8315342664718628e-01" nType="0">
          <Node pos="l" depth="2" NCoef="0" IVar="-1" Cut="0.0000000000000000e+00" cType="1" res="1.0827570222318172e-03" rms="2.6615497469902039e-01" purity="6.0434854030609131e-01" nType="-99"/>
          <Node pos="r" depth="2" NCoef="0" IVar="-1" Cut="0.0000000000000000e+00" cType="1" res="-1.0347685776650906e-02" rms="2.0254153013229370e-01" purity="3.2250314950942993e-02" nType="-99"/>
        </Node>
      </Node>
    </BinaryTree>
    <BinaryTree type="DecisionTree" boostWeight="1.0000000000000000e+00" itree="505">
      <Node pos="s" depth="0" NCoef="0" IVar="57" Cut="-1.1474322080612183e+00" cType="1" res="2.9205773025751114e-03" rms="2.4799059331417084e-01" purity="5.0100064277648926e-01" nType="0">
        <Node pos="l" depth="1" NCoef="0" IVar="54" Cut="1.4092512130737305e+00" cType="1" res="1.2375863268971443e-02" rms="2.5006198883056641e-01" purity="5.3592252731323242e-01" nType="0">
          <Node pos="l" depth="2" NCoef="0" IVar="-1" Cut="0.0000000000000000e+00" cType="1" res="1.4567018952220678e-03" rms="2.5161910057067871e-01" purity="5.8283519744873047e-01" nType="-99"/>
          <Node pos="r" depth="2" NCoef="0" IVar="-1" Cut="0.0000000000000000e+00" cType="1" res="-6.6637378185987473e-03" rms="2.1999278664588928e-01" purity="8.7413169443607330e-02" nType="-99"/>
        </Node>
        <Node pos="r" depth="1" NCoef="0" IVar="5" Cut="1.4459702968597412e+00" cType="1" res="-5.6175108999013901e-02" rms="2.2583264112472534e-01" purity="2.8273811936378479e-01" nType="0">
          <Node pos="l" depth="2" NCoef="0" IVar="-1" Cut="0.0000000000000000e+00" cType="1" res="-1.4227600768208504e-02" rms="0.0000000000000000e+00" purity="1.9808340817689896e-02" nType="-99"/>
          <Node pos="r" depth="2" NCoef="0" IVar="-1" Cut="0.0000000000000000e+00" cType="1" res="-3.1741599086672068e-03" rms="2.7619451284408569e-01" purity="3.6618545651435852e-01" nType="-99"/>
        </Node>
      </Node>
    </BinaryTree>
    <BinaryTree type="DecisionTree" boostWeight="1.0000000000000000e+00" itree="506">
      <Node pos="s" depth="0" NCoef="0" IVar="45" Cut="9.5622467994689941e-01" cType="1" res="5.3517124615609646e-03" rms="2.4891273677349091e-01" purity="5.0256532430648804e-01" nType="0">
        <Node pos="l" depth="1" NCoef="0" IVar="49" Cut="2.9005789756774902e+00" cType="1" res="-6.9775484502315521e-02" rms="7.3240295052528381e-02" purity="5.6913938373327255e-02" nType="0">
          <Node pos="l" depth="2" NCoef="0" IVar="-1" Cut="0.0000000000000000e+00" cType="1" res="-1.2204770930111408e-02" rms="0.0000000000000000e+00" purity="1.9372686743736267e-02" nType="-99"/>
          <Node pos="r" depth="2" NCoef="0" IVar="-1" Cut="0.0000000000000000e+00" cType="1" res="6.0894421767443419e-04" rms="2.2044879198074341e-01" purity="1.9872802495956421e-01" nType="-99"/>
        </Node>
        <Node pos="r" depth="1" NCoef="0" IVar="34" Cut="1.2536866664886475e+00" cType="1" res="1.3502643443644047e-02" rms="2.5965142250061035e-01" purity="5.5091631412506104e-01" nType="0">
          <Node pos="l" depth="2" NCoef="0" IVar="-1" Cut="0.0000000000000000e+00" cType="1" res="1.6136707272380590e-03" rms="2.5867223739624023e-01" purity="6.0739576816558838e-01" nType="-99"/>
          <Node pos="r" depth="2" NCoef="0" IVar="-1" Cut="0.0000000000000000e+00" cType="1" res="-4.4370102696120739e-03" rms="2.5698021054267883e-01" purity="1.5110935270786285e-01" nType="-99"/>
        </Node>
      </Node>
    </BinaryTree>
    <BinaryTree type="DecisionTree" boostWeight="1.0000000000000000e+00" itree="507">
      <Node pos="s" depth="0" NCoef="0" IVar="2" Cut="8.8129884004592896e-01" cType="1" res="1.8489934736862779e-03" rms="2.4363219738006592e-01" purity="5.0019443035125732e-01" nType="0">
        <Node pos="l" depth="1" NCoef="0" IVar="1" Cut="2.5639314651489258e+00" cType="1" res="-1.1500742286443710e-01" rms="1.9346818327903748e-02" purity="2.0371241495013237e-02" nType="0">
          <Node pos="l" depth="2" NCoef="0" IVar="-1" Cut="0.0000000000000000e+00" cType="1" res="-8.5869878530502319e-03" rms="0.0000000000000000e+00" purity="-3.3232914283871651e-03" nType="-99"/>
          <Node pos="r" depth="2" NCoef="0" IVar="-1" Cut="0.0000000000000000e+00" cType="1" res="-7.0009683258831501e-03" rms="1.4627385139465332e-01" purity="4.4498912990093231e-02" nType="-99"/>
        </Node>
        <Node pos="r" depth="1" NCoef="0" IVar="37" Cut="-1.0497976541519165e+00" cType="1" res="6.9866459816694260e-03" rms="2.4763496220111847e-01" purity="5.2129006385803223e-01" nType="0">
          <Node pos="l" depth="2" NCoef="0" IVar="-1" Cut="0.0000000000000000e+00" cType="1" res="1.1882130056619644e-03" rms="2.4930694699287415e-01" purity="5.5290687084197998e-01" nType="-99"/>
          <Node pos="r" depth="2" NCoef="0" IVar="-1" Cut="0.0000000000000000e+00" cType="1" res="-5.4583363234996796e-03" rms="2.2309075295925140e-01" purity="2.8044635057449341e-01" nType="-99"/>
        </Node>
      </Node>
    </BinaryTree>
    <BinaryTree type="DecisionTree" boostWeight="1.0000000000000000e+00" itree="508">
      <Node pos="s" depth="0" NCoef="0" IVar="1" Cut="1.9922486543655396e+00" cType="1" res="2.7669291011989117e-03" rms="2.4670973420143127e-01" purity="5.0303518772125244e-01" nType="0">
        <Node pos="l" depth="1" NCoef="0" IVar="45" Cut="1.4589406251907349e+00" cType="1" res="-1.2429157271981239e-02" rms="0.0000000000000000e+00" purity="-6.1214929446578026e-03" nType="-99"/>
        <Node pos="r" depth="1" NCoef="0" IVar="44" Cut="1.2345679104328156e-02" cType="1" res="1.0578048415482044e-02" rms="2.6432839035987854e-01" purity="5.5920577049255371e-01" nType="0">
          <Node pos="l" depth="2" NCoef="0" IVar="-1" Cut="0.0000000000000000e+00" cType="1" res="1.1300340993329883e-03" rms="2.6090374588966370e-01" purity="5.7059961557388306e-01" nType="-99"/>
          <Node pos="r" depth="2" NCoef="0" IVar="-1" Cut="0.0000000000000000e+00" cType="1" res="-7.9629682004451752e-03" rms="3.0679538846015930e-01" purity="3.2260528206825256e-01" nType="-99"/>
        </Node>
      </Node>
    </BinaryTree>
    <BinaryTree type="DecisionTree" boostWeight="1.0000000000000000e+00" itree="509">
      <Node pos="s" depth="0" NCoef="0" IVar="37" Cut="-1.7954719066619873e+00" cType="1" res="3.2435443717986345e-03" rms="2.4812605977058411e-01" purity="5.0163960456848145e-01" nType="0">
        <Node pos="l" depth="1" NCoef="0" IVar="34" Cut="1.3706684112548828e+00" cType="1" res="2.0469702780246735e-02" rms="2.5322729349136353e-01" purity="5.5886453390121460e-01" nType="0">
          <Node pos="l" depth="2" NCoef="0" IVar="-1" Cut="0.0000000000000000e+00" cType="1" res="2.0729021634906530e-03" rms="2.5209057331085205e-01" purity="6.0915857553482056e-01" nType="-99"/>
          <Node pos="r" depth="2" NCoef="0" IVar="-1" Cut="0.0000000000000000e+00" cType="1" res="-5.4008606821298599e-03" rms="2.5027799606323242e-01" purity="1.1493125557899475e-01" nType="-99"/>
        </Node>
        <Node pos="r" depth="1" NCoef="0" IVar="25" Cut="2.1344408988952637e+00" cType="1" res="-2.6943502947688103e-02" rms="2.3590990900993347e-01" purity="4.0135884284973145e-01" nType="0">
          <Node pos="l" depth="2" NCoef="0" IVar="-1" Cut="0.0000000000000000e+00" cType="1" res="-4.7358809970319271e-03" rms="1.8557885289192200e-01" purity="1.9797387719154358e-01" nType="-99"/>
          <Node pos="r" depth="2" NCoef="0" IVar="-1" Cut="0.0000000000000000e+00" cType="1" res="1.4941106201149523e-04" rms="2.8215241432189941e-01" purity="6.4590871334075928e-01" nType="-99"/>
        </Node>
      </Node>
    </BinaryTree>
    <BinaryTree type="DecisionTree" boostWeight="1.0000000000000000e+00" itree="510">
      <Node pos="s" depth="0" NCoef="0" IVar="57" Cut="-1.6978167295455933e+00" cType="1" res="4.0041245520114899e-03" rms="2.4883864820003510e-01" purity="5.0331568717956543e-01" nType="0">
        <Node pos="l" depth="1" NCoef="0" IVar="14" Cut="-1.4924062490463257e+00" cType="1" res="1.9401660189032555e-02" rms="2.5101050734519958e-01" purity="5.5859655141830444e-01" nType="0">
          <Node pos="l" depth="2" NCoef="0" IVar="-1" Cut="0.0000000000000000e+00" cType="1" res="-1.2854675762355328e-02" rms="0.0000000000000000e+00" purity="-1.1019716039299965e-02" nType="-99"/>
          <Node pos="r" depth="2" NCoef="0" IVar="-1" Cut="0.0000000000000000e+00" cType="1" res="1.9462798954918981e-03" rms="2.7442559599876404e-01" purity="6.5566456317901611e-01" nType="-99"/>
        </Node>
        <Node pos="r" depth="1" NCoef="0" IVar="45" Cut="1.6808028221130371e+00" cType="1" res="-2.8301037847995758e-02" rms="2.4104349315166473e-01" purity="3.8733249902725220e-01" nType="0">
          <Node pos="l" depth="2" NCoef="0" IVar="-1" Cut="0.0000000000000000e+00" cType="1" res="-6.3527356833219528e-03" rms="1.4725324511528015e-01" purity="1.1338800191879272e-01" nType="-99"/>
          <Node pos="r" depth="2" NCoef="0" IVar="-1" Cut="0.0000000000000000e+00" cType="1" res="-6.0284155188128352e-04" rms="2.8206780552864075e-01" purity="5.5645567178726196e-01" nType="-99"/>
        </Node>
      </Node>
    </BinaryTree>
    <BinaryTree type="DecisionTree" boostWeight="1.0000000000000000e+00" itree="511">
      <Node pos="s" depth="0" NCoef="0" IVar="57" Cut="-1.0630429983139038e+00" cType="1" res="1.9085881649516523e-04" rms="2.4238820374011993e-01" purity="5.0067466497421265e-01" nType="0">
        <Node pos="l" depth="1" NCoef="0" IVar="34" Cut="1.3699878454208374e+00" cType="1" res="9.0593164786696434e-03" rms="2.4621979892253876e-01" purity="5.3297501802444458e-01" nType="0">
          <Node pos="l" depth="2" NCoef="0" IVar="-1" Cut="0.0000000000000000e+00" cType="1" res="1.2565349461510777e-03" rms="2.4749320745468140e-01" purity="5.8297926187515259e-01" nType="-99"/>
          <Node pos="r" depth="2" NCoef="0" IVar="-1" Cut="0.0000000000000000e+00" cType="1" res="-6.0166912153363228e-03" rms="2.2251597046852112e-01" purity="1.0535609722137451e-01" nType="-99"/>
        </Node>
        <Node pos="r" depth="1" NCoef="0" IVar="2" Cut="2.0693852901458740e+00" cType="1" res="-6.6024161875247955e-02" rms="1.9950503110885620e-01" purity="2.5950911641120911e-01" nType="0">
          <Node pos="l" depth="2" NCoef="0" IVar="-1" Cut="0.0000000000000000e+00" cType="1" res="-1.1329267174005508e-02" rms="0.0000000000000000e+00" purity="5.2567098289728165e-02" nType="-99"/>
          <Node pos="r" depth="2" NCoef="0" IVar="-1" Cut="0.0000000000000000e+00" cType="1" res="-2.9419034253805876e-03" rms="3.0067217350006104e-01" purity="4.5434525609016418e-01" nType="-99"/>
        </Node>
      </Node>
    </BinaryTree>
    <BinaryTree type="DecisionTree" boostWeight="1.0000000000000000e+00" itree="512">
      <Node pos="s" depth="0" NCoef="0" IVar="17" Cut="-8.7378716468811035e-01" cType="1" res="2.0533741917461157e-03" rms="2.4386304616928101e-01" purity="5.0063824653625488e-01" nType="0">
        <Node pos="l" depth="1" NCoef="0" IVar="2" Cut="5.5746024847030640e-01" cType="1" res="8.6649507284164429e-03" rms="2.4498392641544342e-01" purity="5.2007436752319336e-01" nType="0">
          <Node pos="l" depth="2" NCoef="0" IVar="-1" Cut="0.0000000000000000e+00" cType="1" res="-8.0678854137659073e-03" rms="0.0000000000000000e+00" purity="-2.5295758619904518e-02" nType="-99"/>
          <Node pos="r" depth="2" NCoef="0" IVar="-1" Cut="0.0000000000000000e+00" cType="1" res="9.2945154756307602e-04" rms="2.4824221432209015e-01" purity="5.3359770774841309e-01" nType="-99"/>
        </Node>
        <Node pos="r" depth="1" NCoef="0" IVar="16" Cut="-1.2219940423965454e+00" cType="1" res="-8.7872371077537537e-02" rms="2.0817145705223083e-01" purity="2.3628216981887817e-01" nType="0">
          <Node pos="l" depth="2" NCoef="0" IVar="-1" Cut="0.0000000000000000e+00" cType="1" res="-5.7033924385905266e-03" rms="1.5367135405540466e-01" purity="1.1371458321809769e-01" nType="-99"/>
          <Node pos="r" depth="2" NCoef="0" IVar="-1" Cut="0.0000000000000000e+00" cType="1" res="-8.3916513249278069e-03" rms="2.3007443547248840e-01" purity="3.1051242351531982e-01" nType="-99"/>
        </Node>
      </Node>
    </BinaryTree>
    <BinaryTree type="DecisionTree" boostWeight="1.0000000000000000e+00" itree="513">
      <Node pos="s" depth="0" NCoef="0" IVar="25" Cut="1.1799900531768799e+00" cType="1" res="1.4139614067971706e-03" rms="2.4819549918174744e-01" purity="5.0081080198287964e-01" nType="0">
        <Node pos="l" depth="1" NCoef="0" IVar="30" Cut="1.2345679104328156e-02" cType="1" res="-5.2202627062797546e-02" rms="1.5228632092475891e-01" purity="1.0073734074831009e-01" nType="0">
          <Node pos="l" depth="2" NCoef="0" IVar="-1" Cut="0.0000000000000000e+00" cType="1" res="-1.0130778886377811e-02" rms="7.9590789973735809e-02" purity="4.9316931515932083e-02" nType="-99"/>
          <Node pos="r" depth="2" NCoef="0" IVar="-1" Cut="0.0000000000000000e+00" cType="1" res="-2.9254847322590649e-04" rms="2.1508228778839111e-01" purity="1.8308982253074646e-01" nType="-99"/>
        </Node>
        <Node pos="r" depth="1" NCoef="0" IVar="34" Cut="1.3319780826568604e+00" cType="1" res="1.0550552979111671e-02" rms="2.5994792580604553e-01" purity="5.6898570060729980e-01" nType="0">
          <Node pos="l" depth="2" NCoef="0" IVar="-1" Cut="0.0000000000000000e+00" cType="1" res="1.3624811545014381e-03" rms="2.6074695587158203e-01" purity="6.2563538551330566e-01" nType="-99"/>
          <Node pos="r" depth="2" NCoef="0" IVar="-1" Cut="0.0000000000000000e+00" cType="1" res="-5.0832889974117279e-03" rms="2.4302087724208832e-01" purity="1.2875670194625854e-01" nType="-99"/>
        </Node>
      </Node>
    </BinaryTree>
    <BinaryTree type="DecisionTree" boostWeight="1.0000000000000000e+00" itree="514">
      <Node pos="s" depth="0" NCoef="0" IVar="52" Cut="-1.5312020778656006e+00" cType="1" res="1.8256061011925340e-03" rms="2.4511957168579102e-01" purity="5.0418198108673096e-01" nType="0">
        <Node pos="l" depth="1" NCoef="0" IVar="36" Cut="1.4853361845016479e+00" cType="1" res="3.1207744032144547e-02" rms="2.3749408125877380e-01" purity="6.9136965274810791e-01" nType="0">
          <Node pos="l" depth="2" NCoef="0" IVar="-1" Cut="0.0000000000000000e+00" cType="1" res="2.8063100762665272e-03" rms="2.3248602449893951e-01" purity="7.2840958833694458e-01" nType="-99"/>
          <Node pos="r" depth="2" NCoef="0" IVar="-1" Cut="0.0000000000000000e+00" cType="1" res="-6.8354816175997257e-03" rms="2.8515958786010742e-01" purity="8.6916089057922363e-02" nType="-99"/>
        </Node>
        <Node pos="r" depth="1" NCoef="0" IVar="2" Cut="1.6500101089477539e+00" cType="1" res="-1.7555469647049904e-02" rms="2.4812504649162292e-01" purity="3.8070902228355408e-01" nType="0">
          <Node pos="l" depth="2" NCoef="0" IVar="-1" Cut="0.0000000000000000e+00" cType="1" res="-5.7111210189759731e-03" rms="1.2896135449409485e-01" purity="9.2904068529605865e-02" nType="-99"/>
          <Node pos="r" depth="2" NCoef="0" IVar="-1" Cut="0.0000000000000000e+00" cType="1" res="-3.5599339753389359e-04" rms="2.7405330538749695e-01" purity="4.7167393565177917e-01" nType="-99"/>
        </Node>
      </Node>
    </BinaryTree>
    <BinaryTree type="DecisionTree" boostWeight="1.0000000000000000e+00" itree="515">
      <Node pos="s" depth="0" NCoef="0" IVar="45" Cut="1.1895664930343628e+00" cType="1" res="8.2122691674157977e-04" rms="2.4315509200096130e-01" purity="4.9995064735412598e-01" nType="0">
        <Node pos="l" depth="1" NCoef="0" IVar="49" Cut="2.9905438423156738e+00" cType="1" res="-5.5083207786083221e-02" rms="1.5180055797100067e-01" purity="1.0067092627286911e-01" nType="0">
          <Node pos="l" depth="2" NCoef="0" IVar="-1" Cut="0.0000000000000000e+00" cType="1" res="-9.3164695426821709e-03" rms="1.1231034994125366e-01" purity="5.6452821940183640e-02" nType="-99"/>
          <Node pos="r" depth="2" NCoef="0" IVar="-1" Cut="0.0000000000000000e+00" cType="1" res="1.7787017859518528e-03" rms="2.3425891995429993e-01" purity="2.6717463135719299e-01" nType="-99"/>
        </Node>
        <Node pos="r" depth="1" NCoef="0" IVar="2" Cut="6.0483932495117188e-01" cType="1" res="1.0550504550337791e-02" rms="2.5448998808860779e-01" purity="5.6943893432617188e-01" nType="0">
          <Node pos="l" depth="2" NCoef="0" IVar="-1" Cut="0.0000000000000000e+00" cType="1" res="-8.1204455345869064e-03" rms="0.0000000000000000e+00" purity="-4.0030684322118759e-02" nType="-99"/>
          <Node pos="r" depth="2" NCoef="0" IVar="-1" Cut="0.0000000000000000e+00" cType="1" res="1.0634623467922211e-03" rms="2.5733998417854309e-01" purity="5.8452588319778442e-01" nType="-99"/>
        </Node>
      </Node>
    </BinaryTree>
    <BinaryTree type="DecisionTree" boostWeight="1.0000000000000000e+00" itree="516">
      <Node pos="s" depth="0" NCoef="0" IVar="57" Cut="-1.4862102270126343e+00" cType="1" res="3.1813650857657194e-03" rms="2.4361117184162140e-01" purity="5.0087779760360718e-01" nType="0">
        <Node pos="l" depth="1" NCoef="0" IVar="56" Cut="1.5240936279296875e+00" cType="1" res="1.6464889049530029e-02" rms="2.4850736558437347e-01" purity="5.4856038093566895e-01" nType="0">
          <Node pos="l" depth="2" NCoef="0" IVar="-1" Cut="0.0000000000000000e+00" cType="1" res="1.5450789360329509e-03" rms="2.4895218014717102e-01" purity="5.6922799348831177e-01" nType="-99"/>
          <Node pos="r" depth="2" NCoef="0" IVar="-1" Cut="0.0000000000000000e+00" cType="1" res="-1.0220481082797050e-02" rms="2.0562997460365295e-01" purity="3.2184846699237823e-02" nType="-99"/>
        </Node>
        <Node pos="r" depth="1" NCoef="0" IVar="45" Cut="1.6808028221130371e+00" cType="1" res="-3.9431843906641006e-02" rms="2.2188918292522430e-01" purity="3.4791341423988342e-01" nType="0">
          <Node pos="l" depth="2" NCoef="0" IVar="-1" Cut="0.0000000000000000e+00" cType="1" res="-8.7486179545521736e-03" rms="6.7910023033618927e-02" purity="8.0789856612682343e-02" nType="-99"/>
          <Node pos="r" depth="2" NCoef="0" IVar="-1" Cut="0.0000000000000000e+00" cType="1" res="-9.8052888642996550e-04" rms="2.7922776341438293e-01" purity="5.2952378988265991e-01" nType="-99"/>
        </Node>
      </Node>
    </BinaryTree>
    <BinaryTree type="DecisionTree" boostWeight="1.0000000000000000e+00" itree="517">
      <Node pos="s" depth="0" NCoef="0" IVar="0" Cut="6.1712253093719482e-01" cType="1" res="2.4332983884960413e-03" rms="2.4552598595619202e-01" purity="5.0077748298645020e-01" nType="0">
        <Node pos="l" depth="1" NCoef="0" IVar="32" Cut="1.2074580192565918e+00" cType="1" res="2.0414866507053375e-02" rms="2.5038462877273560e-01" purity="5.6476122140884399e-01" nType="0">
          <Node pos="l" depth="2" NCoef="0" IVar="-1" Cut="0.0000000000000000e+00" cType="1" res="2.1861495915800333e-03" rms="2.4924445152282715e-01" purity="6.2557202577590942e-01" nType="-99"/>
          <Node pos="r" depth="2" NCoef="0" IVar="-1" Cut="0.0000000000000000e+00" cType="1" res="-4.0871659293770790e-03" rms="2.4669869244098663e-01" purity="1.7141652107238770e-01" nType="-99"/>
        </Node>
        <Node pos="r" depth="1" NCoef="0" IVar="29" Cut="2.7785151004791260e+00" cType="1" res="-2.6921596378087997e-02" rms="2.3443552851676941e-01" purity="3.9632409811019897e-01" nType="0">
          <Node pos="l" depth="2" NCoef="0" IVar="-1" Cut="0.0000000000000000e+00" cType="1" res="-8.0081904307007790e-03" rms="1.7367151379585266e-01" purity="1.8809938430786133e-01" nType="-99"/>
          <Node pos="r" depth="2" NCoef="0" IVar="-1" Cut="0.0000000000000000e+00" cType="1" res="-7.0906482869759202e-04" rms="2.4969497323036194e-01" purity="4.6885219216346741e-01" nType="-99"/>
        </Node>
      </Node>
    </BinaryTree>
    <BinaryTree type="DecisionTree" boostWeight="1.0000000000000000e+00" itree="518">
      <Node pos="s" depth="0" NCoef="0" IVar="57" Cut="-1.3048570156097412e+00" cType="1" res="1.6711183125153184e-03" rms="2.4397601187229156e-01" purity="5.0103032588958740e-01" nType="0">
        <Node pos="l" depth="1" NCoef="0" IVar="36" Cut="1.5245062112808228e+00" cType="1" res="1.2360014021396637e-02" rms="2.4713729321956635e-01" purity="5.4164743423461914e-01" nType="0">
          <Node pos="l" depth="2" NCoef="0" IVar="-1" Cut="0.0000000000000000e+00" cType="1" res="1.2484653852880001e-03" rms="2.4713532626628876e-01" purity="5.6137526035308838e-01" nType="-99"/>
          <Node pos="r" depth="2" NCoef="0" IVar="-1" Cut="0.0000000000000000e+00" cType="1" res="-1.0432538576424122e-02" rms="2.1451847255229950e-01" purity="3.3005189150571823e-02" nType="-99"/>
        </Node>
        <Node pos="r" depth="1" NCoef="0" IVar="45" Cut="2.6217536926269531e+00" cType="1" res="-4.7650475054979324e-02" rms="2.2226245701313019e-01" purity="3.1361109018325806e-01" nType="0">
          <Node pos="l" depth="2" NCoef="0" IVar="-1" Cut="0.0000000000000000e+00" cType="1" res="-5.8904415927827358e-03" rms="1.8139447271823883e-01" purity="1.9629746675491333e-01" nType="-99"/>
          <Node pos="r" depth="2" NCoef="0" IVar="-1" Cut="0.0000000000000000e+00" cType="1" res="-1.1584039020817727e-04" rms="3.1334391236305237e-01" purity="6.8036252260208130e-01" nType="-99"/>
        </Node>
      </Node>
    </BinaryTree>
    <BinaryTree type="DecisionTree" boostWeight="1.0000000000000000e+00" itree="519">
      <Node pos="s" depth="0" NCoef="0" IVar="57" Cut="-1.3652925491333008e+00" cType="1" res="-1.9604377448558807e-03" rms="2.4133984744548798e-01" purity="4.9752506613731384e-01" nType="0">
        <Node pos="l" depth="1" NCoef="0" IVar="36" Cut="1.4856008291244507e+00" cType="1" res="9.4677070155739784e-03" rms="2.4544833600521088e-01" purity="5.4056715965270996e-01" nType="0">
          <Node pos="l" depth="2" NCoef="0" IVar="-1" Cut="0.0000000000000000e+00" cType="1" res="1.1448338627815247e-03" rms="2.4615328013896942e-01" purity="5.7329416275024414e-01" nType="-99"/>
          <Node pos="r" depth="2" NCoef="0" IVar="-1" Cut="0.0000000000000000e+00" cType="1" res="-8.4956148639321327e-03" rms="2.1398200094699860e-01" purity="5.1973387598991394e-02" nType="-99"/>
        </Node>
        <Node pos="r" depth="1" NCoef="0" IVar="45" Cut="2.3408250808715820e+00" cType="1" res="-4.8186704516410828e-02" rms="2.1792207658290863e-01" purity="3.2342174649238586e-01" nType="0">
          <Node pos="l" depth="2" NCoef="0" IVar="-1" Cut="0.0000000000000000e+00" cType="1" res="-6.6726519726216793e-03" rms="1.6349993646144867e-01" purity="1.6293209791183472e-01" nType="-99"/>
          <Node pos="r" depth="2" NCoef="0" IVar="-1" Cut="0.0000000000000000e+00" cType="1" res="-5.3599651437252760e-04" rms="2.9429796338081360e-01" purity="6.4475148916244507e-01" nType="-99"/>
        </Node>
      </Node>
    </BinaryTree>
    <BinaryTree type="DecisionTree" boostWeight="1.0000000000000000e+00" itree="520">
      <Node pos="s" depth="0" NCoef="0" IVar="64" Cut="1.2345679104328156e-02" cType="1" res="1.5044827014207840e-03" rms="2.4432758986949921e-01" purity="4.9971672892570496e-01" nType="0">
        <Node pos="l" depth="1" NCoef="0" IVar="44" Cut="1.2345679104328156e-02" cType="1" res="6.4572058618068695e-03" rms="2.4360939860343933e-01" purity="5.0970017910003662e-01" nType="0">
          <Node pos="l" depth="2" NCoef="0" IVar="-1" Cut="0.0000000000000000e+00" cType="1" res="8.6790486238896847e-04" rms="2.4106661975383759e-01" purity="5.2052402496337891e-01" nType="-99"/>
          <Node pos="r" depth="2" NCoef="0" IVar="-1" Cut="0.0000000000000000e+00" cType="1" res="-8.3367899060249329e-03" rms="2.7089151740074158e-01" purity="2.8714501857757568e-01" nType="-99"/>
        </Node>
        <Node pos="r" depth="1" NCoef="0" IVar="53" Cut="-1.4154661893844604e+00" cType="1" res="-1.1031448096036911e-01" rms="2.3356066644191742e-01" purity="2.7431872487068176e-01" nType="0">
          <Node pos="l" depth="2" NCoef="0" IVar="-1" Cut="0.0000000000000000e+00" cType="1" res="-4.1167940944433212e-03" rms="2.3229722678661346e-01" purity="4.3233054876327515e-01" nType="-99"/>
          <Node pos="r" depth="2" NCoef="0" IVar="-1" Cut="0.0000000000000000e+00" cType="1" res="-1.6425557434558868e-02" rms="2.1871846914291382e-01" purity="1.1958463490009308e-01" nType="-99"/>
        </Node>
      </Node>
    </BinaryTree>
    <BinaryTree type="DecisionTree" boostWeight="1.0000000000000000e+00" itree="521">
      <Node pos="s" depth="0" NCoef="0" IVar="14" Cut="1.4871129989624023e+00" cType="1" res="1.8157399026677012e-03" rms="2.4647933244705200e-01" purity="5.0149559974670410e-01" nType="0">
        <Node pos="l" depth="1" NCoef="0" IVar="65" Cut="6.6238898038864136e-01" cType="1" res="-2.0058931782841682e-02" rms="2.3216053843498230e-01" purity="2.4408629536628723e-01" nType="0">
          <Node pos="l" depth="2" NCoef="0" IVar="-1" Cut="0.0000000000000000e+00" cType="1" res="-3.6290005664341152e-04" rms="2.5253379344940186e-01" purity="2.8902137279510498e-01" nType="-99"/>
          <Node pos="r" depth="2" NCoef="0" IVar="-1" Cut="0.0000000000000000e+00" cType="1" res="-8.0894716084003448e-03" rms="1.3182228803634644e-01" purity="9.4379208981990814e-02" nType="-99"/>
        </Node>
        <Node pos="r" depth="1" NCoef="0" IVar="56" Cut="1.5240936279296875e+00" cType="1" res="2.3539023473858833e-02" rms="2.5809124112129211e-01" purity="7.5712341070175171e-01" nType="0">
          <Node pos="l" depth="2" NCoef="0" IVar="-1" Cut="0.0000000000000000e+00" cType="1" res="1.9694860093295574e-03" rms="2.5597912073135376e-01" purity="7.8694814443588257e-01" nType="-99"/>
          <Node pos="r" depth="2" NCoef="0" IVar="-1" Cut="0.0000000000000000e+00" cType="1" res="-9.1962991282343864e-03" rms="2.6002788543701172e-01" purity="5.8562166988849640e-02" nType="-99"/>
        </Node>
      </Node>
    </BinaryTree>
    <BinaryTree type="DecisionTree" boostWeight="1.0000000000000000e+00" itree="522">
      <Node pos="s" depth="0" NCoef="0" IVar="36" Cut="1.3695731163024902e+00" cType="1" res="8.7429897394031286e-04" rms="2.4591819941997528e-01" purity="5.0016307830810547e-01" nType="0">
        <Node pos="l" depth="1" NCoef="0" IVar="65" Cut="7.5202912092208862e-01" cType="1" res="8.8190939277410507e-03" rms="2.4966418743133545e-01" purity="5.4997718334197998e-01" nType="0">
          <Node pos="l" depth="2" NCoef="0" IVar="-1" Cut="0.0000000000000000e+00" cType="1" res="1.1425662087276578e-03" rms="2.5359025597572327e-01" purity="5.7821774482727051e-01" nType="-99"/>
          <Node pos="r" depth="2" NCoef="0" IVar="-1" Cut="0.0000000000000000e+00" cType="1" res="-6.9496952928602695e-03" rms="1.6693301498889923e-01" purity="1.7749738693237305e-01" nType="-99"/>
        </Node>
        <Node pos="r" depth="1" NCoef="0" IVar="29" Cut="3.4402599334716797e+00" cType="1" res="-6.5278679132461548e-02" rms="2.0028996467590332e-01" purity="8.5382066667079926e-02" nType="0">
          <Node pos="l" depth="2" NCoef="0" IVar="-1" Cut="0.0000000000000000e+00" cType="1" res="-4.5247245579957962e-03" rms="1.9734990596771240e-01" purity="9.7996070981025696e-02" nType="-99"/>
          <Node pos="r" depth="2" NCoef="0" IVar="-1" Cut="0.0000000000000000e+00" cType="1" res="-1.1313959956169128e-02" rms="1.9221130013465881e-01" purity="4.9075510352849960e-02" nType="-99"/>
        </Node>
      </Node>
    </BinaryTree>
    <BinaryTree type="DecisionTree" boostWeight="1.0000000000000000e+00" itree="523">
      <Node pos="s" depth="0" NCoef="0" IVar="2" Cut="6.0483932495117188e-01" cType="1" res="-4.4130921014584601e-04" rms="2.4529950320720673e-01" purity="4.9900293350219727e-01" nType="0">
        <Node pos="l" depth="1" NCoef="0" IVar="-1" Cut="0.0000000000000000e+00" cType="1" res="-8.9807426556944847e-03" rms="0.0000000000000000e+00" purity="-4.8082422465085983e-02" nType="-99"/>
        <Node pos="r" depth="1" NCoef="0" IVar="36" Cut="-1.4924387931823730e+00" cType="1" res="3.3790033776313066e-03" rms="2.4901662766933441e-01" purity="5.1305407285690308e-01" nType="0">
          <Node pos="l" depth="2" NCoef="0" IVar="-1" Cut="0.0000000000000000e+00" cType="1" res="1.6433013370260596e-03" rms="2.4038177728652954e-01" purity="6.4546775817871094e-01" nType="-99"/>
          <Node pos="r" depth="2" NCoef="0" IVar="-1" Cut="0.0000000000000000e+00" cType="1" res="-1.9552737940102816e-03" rms="2.5903487205505371e-01" purity="3.1305912137031555e-01" nType="-99"/>
        </Node>
      </Node>
    </BinaryTree>
    <BinaryTree type="DecisionTree" boostWeight="1.0000000000000000e+00" itree="524">
      <Node pos="s" depth="0" NCoef="0" IVar="14" Cut="-1.4537111520767212e+00" cType="1" res="1.4869335573166609e-03" rms="2.4587319791316986e-01" purity="5.0207322835922241e-01" nType="0">
        <Node pos="l" depth="1" NCoef="0" IVar="56" Cut="-1.5311424732208252e+00" cType="1" res="-1.5439197421073914e-02" rms="0.0000000000000000e+00" purity="-1.7336547374725342e-02" nType="-99"/>
        <Node pos="r" depth="1" NCoef="0" IVar="36" Cut="1.5242170095443726e+00" cType="1" res="1.2142295017838478e-02" rms="2.7996394038200378e-01" purity="6.2112712860107422e-01" nType="0">
          <Node pos="l" depth="2" NCoef="0" IVar="-1" Cut="0.0000000000000000e+00" cType="1" res="1.0964798275381327e-03" rms="2.8086543083190918e-01" purity="6.4205771684646606e-01" nType="-99"/>
          <Node pos="r" depth="2" NCoef="0" IVar="-1" Cut="0.0000000000000000e+00" cType="1" res="-9.7823124378919601e-03" rms="2.1453754603862762e-01" purity="4.0503565222024918e-02" nType="-99"/>
        </Node>
      </Node>
    </BinaryTree>
    <BinaryTree type="DecisionTree" boostWeight="1.0000000000000000e+00" itree="525">
      <Node pos="s" depth="0" NCoef="0" IVar="17" Cut="-1.3202137947082520e+00" cType="1" res="-5.9590989258140326e-04" rms="2.4408046901226044e-01" purity="4.9633255600929260e-01" nType="0">
        <Node pos="l" depth="1" NCoef="0" IVar="0" Cut="8.1006097793579102e-01" cType="1" res="9.5907906070351601e-03" rms="2.4731935560703278e-01" purity="5.3086298704147339e-01" nType="0">
          <Node pos="l" depth="2" NCoef="0" IVar="-1" Cut="0.0000000000000000e+00" cType="1" res="1.5738544752821326e-03" rms="2.4734957516193390e-01" purity="5.6948035955429077e-01" nType="-99"/>
          <Node pos="r" depth="2" NCoef="0" IVar="-1" Cut="0.0000000000000000e+00" cType="1" res="-2.9455265030264854e-03" rms="2.4216133356094360e-01" purity="3.8602375984191895e-01" nType="-99"/>
        </Node>
        <Node pos="r" depth="1" NCoef="0" IVar="14" Cut="1.4858462810516357e+00" cType="1" res="-5.0805840641260147e-02" rms="2.2067593038082123e-01" purity="3.2613322138786316e-01" nType="0">
          <Node pos="l" depth="2" NCoef="0" IVar="-1" Cut="0.0000000000000000e+00" cType="1" res="-7.7387089841067791e-03" rms="1.5347170829772949e-01" purity="1.2234035134315491e-01" nType="-99"/>
          <Node pos="r" depth="2" NCoef="0" IVar="-1" Cut="0.0000000000000000e+00" cType="1" res="-8.5456675151363015e-04" rms="2.9471188783645630e-01" purity="6.5384733676910400e-01" nType="-99"/>
        </Node>
      </Node>
    </BinaryTree>
    <BinaryTree type="DecisionTree" boostWeight="1.0000000000000000e+00" itree="526">
      <Node pos="s" depth="0" NCoef="0" IVar="25" Cut="1.0536981821060181e+00" cType="1" res="1.1415960034355521e-03" rms="2.4509973824024200e-01" purity="4.9787068367004395e-01" nType="0">
        <Node pos="l" depth="1" NCoef="0" IVar="29" Cut="2.9382455348968506e+00" cType="1" res="-5.9927359223365784e-02" rms="1.3398809731006622e-01" purity="7.5197346508502960e-02" nType="0">
          <Node pos="l" depth="2" NCoef="0" IVar="-1" Cut="0.0000000000000000e+00" cType="1" res="-1.0015819221735001e-02" rms="1.0022156685590744e-01" purity="4.1046239435672760e-02" nType="-99"/>
          <Node pos="r" depth="2" NCoef="0" IVar="-1" Cut="0.0000000000000000e+00" cType="1" res="1.0949419811367989e-04" rms="2.0818342268466949e-01" purity="2.0518776774406433e-01" nType="-99"/>
        </Node>
        <Node pos="r" depth="1" NCoef="0" IVar="2" Cut="1.6382122039794922e+00" cType="1" res="9.5072705298662186e-03" rms="2.5546637177467346e-01" purity="5.5577158927917480e-01" nType="0">
          <Node pos="l" depth="2" NCoef="0" IVar="-1" Cut="0.0000000000000000e+00" cType="1" res="-2.6842376682907343e-03" rms="2.2969765961170197e-01" purity="2.1639072895050049e-01" nType="-99"/>
          <Node pos="r" depth="2" NCoef="0" IVar="-1" Cut="0.0000000000000000e+00" cType="1" res="1.4958161627873778e-03" rms="2.5977644324302673e-01" purity="6.3331913948059082e-01" nType="-99"/>
        </Node>
      </Node>
    </BinaryTree>
    <BinaryTree type="DecisionTree" boostWeight="1.0000000000000000e+00" itree="527">
      <Node pos="s" depth="0" NCoef="0" IVar="57" Cut="-1.5164396762847900e+00" cType="1" res="1.1083041317760944e-03" rms="2.4188326299190521e-01" purity="5.0291550159454346e-01" nType="0">
        <Node pos="l" depth="1" NCoef="0" IVar="54" Cut="1.4081825017929077e+00" cType="1" res="1.3997106812894344e-02" rms="2.4353562295436859e-01" purity="5.5141818523406982e-01" nType="0">
          <Node pos="l" depth="2" NCoef="0" IVar="-1" Cut="0.0000000000000000e+00" cType="1" res="1.5952602261677384e-03" rms="2.4280641973018646e-01" purity="5.9866911172866821e-01" nType="-99"/>
          <Node pos="r" depth="2" NCoef="0" IVar="-1" Cut="0.0000000000000000e+00" cType="1" res="-6.4658559858798981e-03" rms="2.3690494894981384e-01" purity="9.3904457986354828e-02" nType="-99"/>
        </Node>
        <Node pos="r" depth="1" NCoef="0" IVar="2" Cut="1.9365420341491699e+00" cType="1" res="-3.7361606955528259e-02" rms="2.3267513513565063e-01" purity="3.5814693570137024e-01" nType="0">
          <Node pos="l" depth="2" NCoef="0" IVar="-1" Cut="0.0000000000000000e+00" cType="1" res="-7.7694989740848541e-03" rms="7.9946056008338928e-02" purity="9.5534838736057281e-02" nType="-99"/>
          <Node pos="r" depth="2" NCoef="0" IVar="-1" Cut="0.0000000000000000e+00" cType="1" res="-1.2151262490078807e-03" rms="2.8721007704734802e-01" purity="5.2039283514022827e-01" nType="-99"/>
        </Node>
      </Node>
    </BinaryTree>
    <BinaryTree type="DecisionTree" boostWeight="1.0000000000000000e+00" itree="528">
      <Node pos="s" depth="0" NCoef="0" IVar="2" Cut="5.7250368595123291e-01" cType="1" res="-2.8289309702813625e-03" rms="2.4182909727096558e-01" purity="4.9291062355041504e-01" nType="0">
        <Node pos="l" depth="1" NCoef="0" IVar="-1" Cut="0.0000000000000000e+00" cType="1" res="-8.7066181004047394e-03" rms="0.0000000000000000e+00" purity="-5.0808623433113098e-02" nType="-99"/>
        <Node pos="r" depth="1" NCoef="0" IVar="0" Cut="9.1096913814544678e-01" cType="1" res="6.0025515267625451e-04" rms="2.4576109647750854e-01" purity="5.0553053617477417e-01" nType="0">
          <Node pos="l" depth="2" NCoef="0" IVar="-1" Cut="0.0000000000000000e+00" cType="1" res="7.5488863512873650e-04" rms="2.4684533476829529e-01" purity="5.3566688299179077e-01" nType="-99"/>
          <Node pos="r" depth="2" NCoef="0" IVar="-1" Cut="0.0000000000000000e+00" cType="1" res="-4.5340689830482006e-03" rms="2.3273797333240509e-01" purity="3.3618035912513733e-01" nType="-99"/>
        </Node>
      </Node>
    </BinaryTree>
    <BinaryTree type="DecisionTree" boostWeight="1.0000000000000000e+00" itree="529">
      <Node pos="s" depth="0" NCoef="0" IVar="37" Cut="-8.4396415948867798e-01" cType="1" res="1.2001300929114223e-03" rms="2.4683162569999695e-01" purity="4.9919974803924561e-01" nType="0">
        <Node pos="l" depth="1" NCoef="0" IVar="45" Cut="1.0718322992324829e+00" cType="1" res="7.6961056329309940e-03" rms="2.5007814168930054e-01" purity="5.2260702848434448e-01" nType="0">
          <Node pos="l" depth="2" NCoef="0" IVar="-1" Cut="0.0000000000000000e+00" cType="1" res="-5.9447651728987694e-03" rms="1.5220582485198975e-01" purity="9.0968258678913116e-02" nType="-99"/>
          <Node pos="r" depth="2" NCoef="0" IVar="-1" Cut="0.0000000000000000e+00" cType="1" res="1.1365772224962711e-03" rms="2.5928661227226257e-01" purity="5.7996076345443726e-01" nType="-99"/>
        </Node>
        <Node pos="r" depth="1" NCoef="0" IVar="25" Cut="2.2169415950775146e+00" cType="1" res="-7.7287264168262482e-02" rms="1.8645094335079193e-01" purity="2.1638168394565582e-01" nType="0">
          <Node pos="l" depth="2" NCoef="0" IVar="-1" Cut="0.0000000000000000e+00" cType="1" res="-1.1897307820618153e-02" rms="0.0000000000000000e+00" purity="7.4691154062747955e-02" nType="-99"/>
          <Node pos="r" depth="2" NCoef="0" IVar="-1" Cut="0.0000000000000000e+00" cType="1" res="-2.0191899966448545e-03" rms="3.3343669772148132e-01" purity="5.3381001949310303e-01" nType="-99"/>
        </Node>
      </Node>
    </BinaryTree>
    <BinaryTree type="DecisionTree" boostWeight="1.0000000000000000e+00" itree="530">
      <Node pos="s" depth="0" NCoef="0" IVar="0" Cut="8.3210808038711548e-01" cType="1" res="2.2076868917793036e-03" rms="2.4513688683509827e-01" purity="5.0027251243591309e-01" nType="0">
        <Node pos="l" depth="1" NCoef="0" IVar="2" Cut="1.6189798116683960e+00" cType="1" res="1.3634672388434410e-02" rms="2.4953207373619080e-01" purity="5.3736370801925659e-01" nType="0">
          <Node pos="l" depth="2" NCoef="0" IVar="-1" Cut="0.0000000000000000e+00" cType="1" res="-2.4681994691491127e-03" rms="2.3100312054157257e-01" purity="1.9918787479400635e-01" nType="-99"/>
          <Node pos="r" depth="2" NCoef="0" IVar="-1" Cut="0.0000000000000000e+00" cType="1" res="1.9020433537662029e-03" rms="2.5270363688468933e-01" purity="6.2416487932205200e-01" nType="-99"/>
        </Node>
        <Node pos="r" depth="1" NCoef="0" IVar="4" Cut="3.4283668994903564e+00" cType="1" res="-4.2210567742586136e-02" rms="2.2172112762928009e-01" purity="3.5609379410743713e-01" nType="0">
          <Node pos="l" depth="2" NCoef="0" IVar="-1" Cut="0.0000000000000000e+00" cType="1" res="-1.2331685982644558e-02" rms="0.0000000000000000e+00" purity="1.0813256353139877e-01" nType="-99"/>
          <Node pos="r" depth="2" NCoef="0" IVar="-1" Cut="0.0000000000000000e+00" cType="1" res="-2.1073354873806238e-03" rms="2.4445702135562897e-01" purity="4.1611531376838684e-01" nType="-99"/>
        </Node>
      </Node>
    </BinaryTree>
    <BinaryTree type="DecisionTree" boostWeight="1.0000000000000000e+00" itree="531">
      <Node pos="s" depth="0" NCoef="0" IVar="45" Cut="1.1306993961334229e+00" cType="1" res="-1.6489621484652162e-03" rms="2.4265332520008087e-01" purity="4.9708563089370728e-01" nType="0">
        <Node pos="l" depth="1" NCoef="0" IVar="49" Cut="2.9905438423156738e+00" cType="1" res="-5.9334650635719299e-02" rms="1.1199377477169037e-01" purity="8.8474504649639130e-02" nType="0">
          <Node pos="l" depth="2" NCoef="0" IVar="-1" Cut="0.0000000000000000e+00" cType="1" res="-1.0126375593245029e-02" rms="8.5722422227263451e-03" purity="4.6727549284696579e-02" nType="-99"/>
          <Node pos="r" depth="2" NCoef="0" IVar="-1" Cut="0.0000000000000000e+00" cType="1" res="1.7185360193252563e-03" rms="2.3278261721134186e-01" purity="2.5442904233932495e-01" nType="-99"/>
        </Node>
        <Node pos="r" depth="1" NCoef="0" IVar="65" Cut="7.5187700986862183e-01" cType="1" res="7.5274854898452759e-03" rms="2.5619989633560181e-01" purity="5.6208610534667969e-01" nType="0">
          <Node pos="l" depth="2" NCoef="0" IVar="-1" Cut="0.0000000000000000e+00" cType="1" res="1.0694890515878797e-03" rms="2.6068332791328430e-01" purity="5.9417450428009033e-01" nType="-99"/>
          <Node pos="r" depth="2" NCoef="0" IVar="-1" Cut="0.0000000000000000e+00" cType="1" res="-7.2634606622159481e-03" rms="1.7083044350147247e-01" purity="1.7436060309410095e-01" nType="-99"/>
        </Node>
      </Node>
    </BinaryTree>
    <BinaryTree type="DecisionTree" boostWeight="1.0000000000000000e+00" itree="532">
      <Node pos="s" depth="0" NCoef="0" IVar="2" Cut="5.5746024847030640e-01" cType="1" res="1.4741044724360108e-03" rms="2.4405458569526672e-01" purity="5.0251555442810059e-01" nType="0">
        <Node pos="l" depth="1" NCoef="0" IVar="-1" Cut="0.0000000000000000e+00" cType="1" res="-9.3927718698978424e-03" rms="0.0000000000000000e+00" purity="-5.5520091205835342e-02" nType="-99"/>
        <Node pos="r" depth="1" NCoef="0" IVar="14" Cut="-1.4150193929672241e+00" cType="1" res="5.2069360390305519e-03" rms="2.4824070930480957e-01" purity="5.1563858985900879e-01" nType="0">
          <Node pos="l" depth="2" NCoef="0" IVar="-1" Cut="0.0000000000000000e+00" cType="1" res="-1.3608543202280998e-02" rms="0.0000000000000000e+00" purity="-1.2603842653334141e-02" nType="-99"/>
          <Node pos="r" depth="2" NCoef="0" IVar="-1" Cut="0.0000000000000000e+00" cType="1" res="1.0946283582597971e-03" rms="2.8416639566421509e-01" purity="6.4949804544448853e-01" nType="-99"/>
        </Node>
      </Node>
    </BinaryTree>
    <BinaryTree type="DecisionTree" boostWeight="1.0000000000000000e+00" itree="533">
      <Node pos="s" depth="0" NCoef="0" IVar="14" Cut="5.5395957082509995e-02" cType="1" res="7.3667522519826889e-04" rms="2.4473160505294800e-01" purity="5.0047093629837036e-01" nType="0">
        <Node pos="l" depth="1" NCoef="0" IVar="2" Cut="2.1262755393981934e+00" cType="1" res="-3.4188896417617798e-02" rms="1.0161735862493515e-01" purity="5.3103230893611908e-02" nType="0">
          <Node pos="l" depth="2" NCoef="0" IVar="-1" Cut="0.0000000000000000e+00" cType="1" res="-1.5628004446625710e-02" rms="0.0000000000000000e+00" purity="-1.6354473307728767e-02" nType="-99"/>
          <Node pos="r" depth="2" NCoef="0" IVar="-1" Cut="0.0000000000000000e+00" cType="1" res="2.5890491087920964e-04" rms="2.6844030618667603e-01" purity="1.5488581359386444e-01" nType="-99"/>
        </Node>
        <Node pos="r" depth="1" NCoef="0" IVar="54" Cut="1.2534822225570679e+00" cType="1" res="1.5468188561499119e-02" rms="2.8296548128128052e-01" purity="6.8916940689086914e-01" nType="0">
          <Node pos="l" depth="2" NCoef="0" IVar="-1" Cut="0.0000000000000000e+00" cType="1" res="1.5740059316158295e-03" rms="2.7560484409332275e-01" purity="7.4463450908660889e-01" nType="-99"/>
          <Node pos="r" depth="2" NCoef="0" IVar="-1" Cut="0.0000000000000000e+00" cType="1" res="-3.8721247110515833e-03" rms="3.2877674698829651e-01" purity="2.1898420155048370e-01" nType="-99"/>
        </Node>
      </Node>
    </BinaryTree>
    <BinaryTree type="DecisionTree" boostWeight="1.0000000000000000e+00" itree="534">
      <Node pos="s" depth="0" NCoef="0" IVar="44" Cut="1.2345679104328156e-02" cType="1" res="1.2097227590857074e-04" rms="2.4579483270645142e-01" purity="4.9958866834640503e-01" nType="0">
        <Node pos="l" depth="1" NCoef="0" IVar="32" Cut="-1.5312128067016602e+00" cType="1" res="5.1590059883892536e-03" rms="2.4367181956768036e-01" purity="5.1079022884368896e-01" nType="0">
          <Node pos="l" depth="2" NCoef="0" IVar="-1" Cut="0.0000000000000000e+00" cType="1" res="2.5444482453167439e-03" rms="2.2896791994571686e-01" purity="6.9960206747055054e-01" nType="-99"/>
          <Node pos="r" depth="2" NCoef="0" IVar="-1" Cut="0.0000000000000000e+00" cType="1" res="-1.0606301948428154e-03" rms="2.5106495618820190e-01" purity="3.8729688525199890e-01" nType="-99"/>
        </Node>
        <Node pos="r" depth="1" NCoef="0" IVar="29" Cut="3.0923678874969482e+00" cType="1" res="-1.0011649876832962e-01" rms="2.6558920741081238e-01" purity="2.7672001719474792e-01" nType="0">
          <Node pos="l" depth="2" NCoef="0" IVar="-1" Cut="0.0000000000000000e+00" cType="1" res="-4.4612721540033817e-03" rms="2.2550933063030243e-01" purity="3.5378062725067139e-01" nType="-99"/>
          <Node pos="r" depth="2" NCoef="0" IVar="-1" Cut="0.0000000000000000e+00" cType="1" res="-1.4543142169713974e-02" rms="2.9595986008644104e-01" purity="1.8671353161334991e-01" nType="-99"/>
        </Node>
      </Node>
    </BinaryTree>
    <BinaryTree type="DecisionTree" boostWeight="1.0000000000000000e+00" itree="535">
      <Node pos="s" depth="0" NCoef="0" IVar="54" Cut="1.4092055559158325e+00" cType="1" res="5.3385482169687748e-04" rms="2.4216999113559723e-01" purity="4.9767461419105530e-01" nType="0">
        <Node pos="l" depth="1" NCoef="0" IVar="44" Cut="1.2345679104328156e-02" cType="1" res="7.9666785895824432e-03" rms="2.4521994590759277e-01" purity="5.4441905021667480e-01" nType="0">
          <Node pos="l" depth="2" NCoef="0" IVar="-1" Cut="0.0000000000000000e+00" cType="1" res="1.0178696829825640e-03" rms="2.4304047226905823e-01" purity="5.5459111928939819e-01" nType="-99"/>
          <Node pos="r" depth="2" NCoef="0" IVar="-1" Cut="0.0000000000000000e+00" cType="1" res="-9.3296775594353676e-03" rms="2.6012024283409119e-01" purity="3.2257273793220520e-01" nType="-99"/>
        </Node>
        <Node pos="r" depth="1" NCoef="0" IVar="49" Cut="3.3199324607849121e+00" cType="1" res="-6.6211305558681488e-02" rms="2.0086485147476196e-01" purity="7.7919818460941315e-02" nType="0">
          <Node pos="l" depth="2" NCoef="0" IVar="-1" Cut="0.0000000000000000e+00" cType="1" res="-3.3104447647929192e-03" rms="2.0121796429157257e-01" purity="8.0806493759155273e-02" nType="-99"/>
          <Node pos="r" depth="2" NCoef="0" IVar="-1" Cut="0.0000000000000000e+00" cType="1" res="-1.0477073490619659e-02" rms="1.8958023190498352e-01" purity="7.4428133666515350e-02" nType="-99"/>
        </Node>
      </Node>
    </BinaryTree>
    <BinaryTree type="DecisionTree" boostWeight="1.0000000000000000e+00" itree="536">
      <Node pos="s" depth="0" NCoef="0" IVar="14" Cut="-1.4537111520767212e+00" cType="1" res="2.4925314355641603e-03" rms="2.4490654468536377e-01" purity="5.0302648544311523e-01" nType="0">
        <Node pos="l" depth="1" NCoef="0" IVar="0" Cut="6.9940119981765747e-01" cType="1" res="-1.6067033633589745e-02" rms="0.0000000000000000e+00" purity="-1.8291763961315155e-02" nType="-99"/>
        <Node pos="r" depth="1" NCoef="0" IVar="44" Cut="1.2345679104328156e-02" cType="1" res="1.3218166306614876e-02" rms="2.7928140759468079e-01" purity="6.2293964624404907e-01" nType="0">
          <Node pos="l" depth="2" NCoef="0" IVar="-1" Cut="0.0000000000000000e+00" cType="1" res="1.2024715542793274e-03" rms="2.7487143874168396e-01" purity="6.3289171457290649e-01" nType="-99"/>
          <Node pos="r" depth="2" NCoef="0" IVar="-1" Cut="0.0000000000000000e+00" cType="1" res="-6.8047866225242615e-03" rms="3.4490257501602173e-01" purity="4.0031033754348755e-01" nType="-99"/>
        </Node>
      </Node>
    </BinaryTree>
    <BinaryTree type="DecisionTree" boostWeight="1.0000000000000000e+00" itree="537">
      <Node pos="s" depth="0" NCoef="0" IVar="2" Cut="1.6382122039794922e+00" cType="1" res="1.0771478991955519e-03" rms="2.4396881461143494e-01" purity="5.0108486413955688e-01" nType="0">
        <Node pos="l" depth="1" NCoef="0" IVar="1" Cut="2.8635997772216797e+00" cType="1" res="-4.0557865053415298e-02" rms="1.9743362069129944e-01" purity="1.7479784786701202e-01" nType="0">
          <Node pos="l" depth="2" NCoef="0" IVar="-1" Cut="0.0000000000000000e+00" cType="1" res="-2.4026082828640938e-03" rms="1.5795820951461792e-01" purity="1.2218876928091049e-01" nType="-99"/>
          <Node pos="r" depth="2" NCoef="0" IVar="-1" Cut="0.0000000000000000e+00" cType="1" res="-4.7982907854020596e-03" rms="2.8625017404556274e-01" purity="3.5071948170661926e-01" nType="-99"/>
        </Node>
        <Node pos="r" depth="1" NCoef="0" IVar="65" Cut="7.2948127985000610e-01" cType="1" res="1.2111324816942215e-02" rms="2.5373876094818115e-01" purity="5.8755791187286377e-01" nType="0">
          <Node pos="l" depth="2" NCoef="0" IVar="-1" Cut="0.0000000000000000e+00" cType="1" res="1.5264184912666678e-03" rms="2.5798577070236206e-01" purity="6.2482994794845581e-01" nType="-99"/>
          <Node pos="r" depth="2" NCoef="0" IVar="-1" Cut="0.0000000000000000e+00" cType="1" res="-5.8649182319641113e-03" rms="1.9074948132038116e-01" purity="2.2565299272537231e-01" nType="-99"/>
        </Node>
      </Node>
    </BinaryTree>
    <BinaryTree type="DecisionTree" boostWeight="1.0000000000000000e+00" itree="538">
      <Node pos="s" depth="0" NCoef="0" IVar="37" Cut="-1.7954576015472412e+00" cType="1" res="3.6061560967937112e-04" rms="2.4226111173629761e-01" purity="4.9828788638114929e-01" nType="0">
        <Node pos="l" depth="1" NCoef="0" IVar="34" Cut="1.3313064575195312e+00" cType="1" res="1.7059845849871635e-02" rms="2.4647995829582214e-01" purity="5.5555540323257446e-01" nType="0">
          <Node pos="l" depth="2" NCoef="0" IVar="-1" Cut="0.0000000000000000e+00" cType="1" res="1.8758838996291161e-03" rms="2.4431706964969635e-01" purity="6.0769248008728027e-01" nType="-99"/>
          <Node pos="r" depth="2" NCoef="0" IVar="-1" Cut="0.0000000000000000e+00" cType="1" res="-4.8448508605360985e-03" rms="2.5328484177589417e-01" purity="1.3050235807895660e-01" nType="-99"/>
        </Node>
        <Node pos="r" depth="1" NCoef="0" IVar="14" Cut="1.4864721298217773e+00" cType="1" res="-2.8616931289434433e-02" rms="2.3192423582077026e-01" purity="3.9891377091407776e-01" nType="0">
          <Node pos="l" depth="2" NCoef="0" IVar="-1" Cut="0.0000000000000000e+00" cType="1" res="-5.3501529619097710e-03" rms="1.6126452386379242e-01" purity="1.5945047140121460e-01" nType="-99"/>
          <Node pos="r" depth="2" NCoef="0" IVar="-1" Cut="0.0000000000000000e+00" cType="1" res="-2.2130228171590716e-04" rms="2.9283544421195984e-01" purity="6.8447434902191162e-01" nType="-99"/>
        </Node>
      </Node>
    </BinaryTree>
    <BinaryTree type="DecisionTree" boostWeight="1.0000000000000000e+00" itree="539">
      <Node pos="s" depth="0" NCoef="0" IVar="14" Cut="1.4871129989624023e+00" cType="1" res="-1.8248130800202489e-03" rms="2.3954305052757263e-01" purity="4.9698999524116516e-01" nType="0">
        <Node pos="l" depth="1" NCoef="0" IVar="5" Cut="1.1417669057846069e+00" cType="1" res="-2.4042716249823570e-02" rms="2.1652698516845703e-01" purity="2.3882585763931274e-01" nType="0">
          <Node pos="l" depth="2" NCoef="0" IVar="-1" Cut="0.0000000000000000e+00" cType="1" res="-1.0701954364776611e-02" rms="0.0000000000000000e+00" purity="3.6915004253387451e-02" nType="-99"/>
          <Node pos="r" depth="2" NCoef="0" IVar="-1" Cut="0.0000000000000000e+00" cType="1" res="-1.1015161871910095e-03" rms="2.4197390675544739e-01" purity="2.8287759423255920e-01" nType="-99"/>
        </Node>
        <Node pos="r" depth="1" NCoef="0" IVar="56" Cut="1.4849827289581299e+00" cType="1" res="2.0422719419002533e-02" rms="2.5865530967712402e-01" purity="7.5549834966659546e-01" nType="0">
          <Node pos="l" depth="2" NCoef="0" IVar="-1" Cut="0.0000000000000000e+00" cType="1" res="1.9180201925337315e-03" rms="2.5464174151420593e-01" purity="7.9723733663558960e-01" nType="-99"/>
          <Node pos="r" depth="2" NCoef="0" IVar="-1" Cut="0.0000000000000000e+00" cType="1" res="-7.8378366306424141e-03" rms="2.8413182497024536e-01" purity="8.6895227432250977e-02" nType="-99"/>
        </Node>
      </Node>
    </BinaryTree>
    <BinaryTree type="DecisionTree" boostWeight="1.0000000000000000e+00" itree="540">
      <Node pos="s" depth="0" NCoef="0" IVar="32" Cut="-1.4926292896270752e+00" cType="1" res="-1.3933342415839434e-03" rms="2.4551503360271454e-01" purity="4.9616137146949768e-01" nType="0">
        <Node pos="l" depth="1" NCoef="0" IVar="56" Cut="1.5237022638320923e+00" cType="1" res="1.7163719981908798e-02" rms="2.4534294009208679e-01" purity="6.2522649765014648e-01" nType="0">
          <Node pos="l" depth="2" NCoef="0" IVar="-1" Cut="0.0000000000000000e+00" cType="1" res="1.6492047579959035e-03" rms="2.4527414143085480e-01" purity="6.4930427074432373e-01" nType="-99"/>
          <Node pos="r" depth="2" NCoef="0" IVar="-1" Cut="0.0000000000000000e+00" cType="1" res="-1.0035653598606586e-02" rms="2.1236580610275269e-01" purity="3.3778954297304153e-02" nType="-99"/>
        </Node>
        <Node pos="r" depth="1" NCoef="0" IVar="36" Cut="1.5244674682617188e+00" cType="1" res="-2.8899878263473511e-02" rms="2.4317850172519684e-01" purity="3.0485206842422485e-01" nType="0">
          <Node pos="l" depth="2" NCoef="0" IVar="-1" Cut="0.0000000000000000e+00" cType="1" res="-1.7112771747633815e-03" rms="2.4791233241558075e-01" purity="3.3401966094970703e-01" nType="-99"/>
          <Node pos="r" depth="2" NCoef="0" IVar="-1" Cut="0.0000000000000000e+00" cType="1" res="-1.0832120664417744e-02" rms="1.7467051744461060e-01" purity="2.3428916931152344e-02" nType="-99"/>
        </Node>
      </Node>
    </BinaryTree>
    <BinaryTree type="DecisionTree" boostWeight="1.0000000000000000e+00" itree="541">
      <Node pos="s" depth="0" NCoef="0" IVar="2" Cut="6.7771565914154053e-01" cType="1" res="-4.0289148455485702e-04" rms="2.4403721094131470e-01" purity="4.9763175845146179e-01" nType="0">
        <Node pos="l" depth="1" NCoef="0" IVar="-1" Cut="0.0000000000000000e+00" cType="1" res="-8.4101185202598572e-03" rms="0.0000000000000000e+00" purity="-3.0628060922026634e-02" nType="-99"/>
        <Node pos="r" depth="1" NCoef="0" IVar="14" Cut="-1.4537111520767212e+00" cType="1" res="3.4968049731105566e-03" rms="2.4797342717647552e-01" purity="5.1333481073379517e-01" nType="0">
          <Node pos="l" depth="2" NCoef="0" IVar="-1" Cut="0.0000000000000000e+00" cType="1" res="-1.6663050279021263e-02" rms="0.0000000000000000e+00" purity="-1.9667832180857658e-02" nType="-99"/>
          <Node pos="r" depth="2" NCoef="0" IVar="-1" Cut="0.0000000000000000e+00" cType="1" res="9.7534951055422425e-04" rms="2.8325805068016052e-01" purity="6.3569825887680054e-01" nType="-99"/>
        </Node>
      </Node>
    </BinaryTree>
    <BinaryTree type="DecisionTree" boostWeight="1.0000000000000000e+00" itree="542">
      <Node pos="s" depth="0" NCoef="0" IVar="25" Cut="1.1008189916610718e+00" cType="1" res="-2.2672917111776769e-04" rms="2.3976187407970428e-01" purity="4.9818906188011169e-01" nType="0">
        <Node pos="l" depth="1" NCoef="0" IVar="29" Cut="2.8588795661926270e+00" cType="1" res="-5.8668095618486404e-02" rms="1.1587730795145035e-01" purity="7.5784660875797272e-02" nType="0">
          <Node pos="l" depth="2" NCoef="0" IVar="-1" Cut="0.0000000000000000e+00" cType="1" res="-1.0946521535515785e-02" rms="0.0000000000000000e+00" purity="3.2799243927001953e-02" nType="-99"/>
          <Node pos="r" depth="2" NCoef="0" IVar="-1" Cut="0.0000000000000000e+00" cType="1" res="7.1649381425231695e-05" rms="2.1537180244922638e-01" purity="1.9538624584674835e-01" nType="-99"/>
        </Node>
        <Node pos="r" depth="1" NCoef="0" IVar="34" Cut="1.2536866664886475e+00" cType="1" res="8.2835033535957336e-03" rms="2.5165799260139465e-01" purity="5.5969959497451782e-01" nType="0">
          <Node pos="l" depth="2" NCoef="0" IVar="-1" Cut="0.0000000000000000e+00" cType="1" res="1.2060741428285837e-03" rms="2.5074514746665955e-01" purity="6.2089067697525024e-01" nType="-99"/>
          <Node pos="r" depth="2" NCoef="0" IVar="-1" Cut="0.0000000000000000e+00" cType="1" res="-4.3417001143097878e-03" rms="2.5048214197158813e-01" purity="1.4359663426876068e-01" nType="-99"/>
        </Node>
      </Node>
    </BinaryTree>
    <BinaryTree type="DecisionTree" boostWeight="1.0000000000000000e+00" itree="543">
      <Node pos="s" depth="0" NCoef="0" IVar="14" Cut="1.4484179019927979e+00" cType="1" res="2.9267426580190659e-03" rms="2.4468277394771576e-01" purity="5.0209641456604004e-01" nType="0">
        <Node pos="l" depth="1" NCoef="0" IVar="3" Cut="5.1424551010131836e+00" cType="1" res="-2.0019283518195152e-02" rms="2.1632558107376099e-01" purity="1.9724084436893463e-01" nType="0">
          <Node pos="l" depth="2" NCoef="0" IVar="-1" Cut="0.0000000000000000e+00" cType="1" res="-4.3915961869060993e-03" rms="1.5669821202754974e-01" purity="1.3355883955955505e-01" nType="-99"/>
          <Node pos="r" depth="2" NCoef="0" IVar="-1" Cut="0.0000000000000000e+00" cType="1" res="1.7534232465550303e-03" rms="3.3065709471702576e-01" purity="3.8473820686340332e-01" nType="-99"/>
        </Node>
        <Node pos="r" depth="1" NCoef="0" IVar="54" Cut="-1.2215960025787354e+00" cType="1" res="2.1387754008173943e-02" rms="2.6386156678199768e-01" purity="7.4736517667770386e-01" nType="0">
          <Node pos="l" depth="2" NCoef="0" IVar="-1" Cut="0.0000000000000000e+00" cType="1" res="2.4361887481063604e-03" rms="2.3184557259082794e-01" purity="8.3315271139144897e-01" nType="-99"/>
          <Node pos="r" depth="2" NCoef="0" IVar="-1" Cut="0.0000000000000000e+00" cType="1" res="-1.4072792837396264e-03" rms="3.4760937094688416e-01" purity="4.5570969581604004e-01" nType="-99"/>
        </Node>
      </Node>
    </BinaryTree>
    <BinaryTree type="DecisionTree" boostWeight="1.0000000000000000e+00" itree="544">
      <Node pos="s" depth="0" NCoef="0" IVar="1" Cut="2.0424420833587646e+00" cType="1" res="3.7661930546164513e-03" rms="2.4644087255001068e-01" purity="5.0133717060089111e-01" nType="0">
        <Node pos="l" depth="1" NCoef="0" IVar="65" Cut="-2.3152813315391541e-01" cType="1" res="-1.0290447622537613e-02" rms="0.0000000000000000e+00" purity="8.2402564585208893e-03" nType="-99"/>
        <Node pos="r" depth="1" NCoef="0" IVar="56" Cut="1.5240936279296875e+00" cType="1" res="1.1641944758594036e-02" rms="2.6517775654792786e-01" purity="5.6518185138702393e-01" nType="0">
          <Node pos="l" depth="2" NCoef="0" IVar="-1" Cut="0.0000000000000000e+00" cType="1" res="1.1465892894193530e-03" rms="2.6645883917808533e-01" purity="5.8543080091476440e-01" nType="-99"/>
          <Node pos="r" depth="2" NCoef="0" IVar="-1" Cut="0.0000000000000000e+00" cType="1" res="-1.0118868201971054e-02" rms="1.9658671319484711e-01" purity="2.8975982218980789e-02" nType="-99"/>
        </Node>
      </Node>
    </BinaryTree>
    <BinaryTree type="DecisionTree" boostWeight="1.0000000000000000e+00" itree="545">
      <Node pos="s" depth="0" NCoef="0" IVar="1" Cut="2.0461773872375488e+00" cType="1" res="1.2478795542847365e-04" rms="2.4231967329978943e-01" purity="4.9825048446655273e-01" nType="0">
        <Node pos="l" depth="1" NCoef="0" IVar="49" Cut="3.0041337013244629e+00" cType="1" res="-1.1397670954465866e-02" rms="0.0000000000000000e+00" purity="1.8438268452882767e-03" nType="-99"/>
        <Node pos="r" depth="1" NCoef="0" IVar="2" Cut="1.2059113979339600e+00" cType="1" res="8.4304185584187508e-03" rms="2.6204144954681396e-01" purity="5.6261098384857178e-01" nType="0">
          <Node pos="l" depth="2" NCoef="0" IVar="-1" Cut="0.0000000000000000e+00" cType="1" res="-4.5625981874763966e-03" rms="2.2536361217498779e-01" purity="1.3585314154624939e-01" nType="-99"/>
          <Node pos="r" depth="2" NCoef="0" IVar="-1" Cut="0.0000000000000000e+00" cType="1" res="1.0722113074734807e-03" rms="2.6343727111816406e-01" purity="5.9318435192108154e-01" nType="-99"/>
        </Node>
      </Node>
    </BinaryTree>
    <BinaryTree type="DecisionTree" boostWeight="1.0000000000000000e+00" itree="546">
      <Node pos="s" depth="0" NCoef="0" IVar="64" Cut="1.2345679104328156e-02" cType="1" res="1.1133692460134625e-03" rms="2.4531397223472595e-01" purity="5.0014770030975342e-01" nType="0">
        <Node pos="l" depth="1" NCoef="0" IVar="14" Cut="-1.2989367246627808e+00" cType="1" res="5.9055974707007408e-03" rms="2.4476760625839233e-01" purity="5.1000952720642090e-01" nType="0">
          <Node pos="l" depth="2" NCoef="0" IVar="-1" Cut="0.0000000000000000e+00" cType="1" res="-9.9341282621026039e-03" rms="0.0000000000000000e+00" purity="3.4396862611174583e-04" nType="-99"/>
          <Node pos="r" depth="2" NCoef="0" IVar="-1" Cut="0.0000000000000000e+00" cType="1" res="1.1190425138920546e-03" rms="2.8137627243995667e-01" purity="6.5528988838195801e-01" nType="-99"/>
        </Node>
        <Node pos="r" depth="1" NCoef="0" IVar="55" Cut="-7.5926250219345093e-01" cType="1" res="-1.0689213126897812e-01" rms="2.3244564235210419e-01" purity="2.7788564562797546e-01" nType="0">
          <Node pos="l" depth="2" NCoef="0" IVar="-1" Cut="0.0000000000000000e+00" cType="1" res="-4.1915015317499638e-03" rms="2.4478834867477417e-01" purity="4.3531101942062378e-01" nType="-99"/>
          <Node pos="r" depth="2" NCoef="0" IVar="-1" Cut="0.0000000000000000e+00" cType="1" res="-1.5771990641951561e-02" rms="2.0302288234233856e-01" purity="1.1885518580675125e-01" nType="-99"/>
        </Node>
      </Node>
    </BinaryTree>
    <BinaryTree type="DecisionTree" boostWeight="1.0000000000000000e+00" itree="547">
      <Node pos="s" depth="0" NCoef="0" IVar="64" Cut="1.2345679104328156e-02" cType="1" res="1.6153926262632012e-03" rms="2.4333396553993225e-01" purity="4.9853315949440002e-01" nType="0">
        <Node pos="l" depth="1" NCoef="0" IVar="56" Cut="1.5240936279296875e+00" cType="1" res="5.9399181045591831e-03" rms="2.4231073260307312e-01" purity="5.0790423154830933e-01" nType="0">
          <Node pos="l" depth="2" NCoef="0" IVar="-1" Cut="0.0000000000000000e+00" cType="1" res="8.0132932635024190e-04" rms="2.4475495517253876e-01" purity="5.2885621786117554e-01" nType="-99"/>
          <Node pos="r" depth="2" NCoef="0" IVar="-1" Cut="0.0000000000000000e+00" cType="1" res="-1.1446401476860046e-02" rms="1.3768358528614044e-01" purity="1.1131108738481998e-02" nType="-99"/>
        </Node>
        <Node pos="r" depth="1" NCoef="0" IVar="46" Cut="-1.1409001350402832e+00" cType="1" res="-9.6141166985034943e-02" rms="2.4589718878269196e-01" purity="2.8669783473014832e-01" nType="0">
          <Node pos="l" depth="2" NCoef="0" IVar="-1" Cut="0.0000000000000000e+00" cType="1" res="-1.5449099242687225e-02" rms="2.5868788361549377e-01" purity="1.6942264139652252e-01" nType="-99"/>
          <Node pos="r" depth="2" NCoef="0" IVar="-1" Cut="0.0000000000000000e+00" cType="1" res="-2.2433933336287737e-03" rms="2.0982199907302856e-01" purity="4.1355657577514648e-01" nType="-99"/>
        </Node>
      </Node>
    </BinaryTree>
    <BinaryTree type="DecisionTree" boostWeight="1.0000000000000000e+00" itree="548">
      <Node pos="s" depth="0" NCoef="0" IVar="2" Cut="5.0748854875564575e-01" cType="1" res="1.9840188324451447e-03" rms="2.4631997942924500e-01" purity="4.9787253141403198e-01" nType="0">
        <Node pos="l" depth="1" NCoef="0" IVar="-1" Cut="0.0000000000000000e+00" cType="1" res="-9.2244176194071770e-03" rms="0.0000000000000000e+00" purity="-5.2322145551443100e-02" nType="-99"/>
        <Node pos="r" depth="1" NCoef="0" IVar="57" Cut="-1.0025402307510376e+00" cType="1" res="5.2364980801939964e-03" rms="2.5004729628562927e-01" purity="5.0982624292373657e-01" nType="0">
          <Node pos="l" depth="2" NCoef="0" IVar="-1" Cut="0.0000000000000000e+00" cType="1" res="9.8621612414717674e-04" rms="2.5228857994079590e-01" purity="5.3912609815597534e-01" nType="-99"/>
          <Node pos="r" depth="2" NCoef="0" IVar="-1" Cut="0.0000000000000000e+00" cType="1" res="-5.3918757475912571e-03" rms="2.2097629308700562e-01" purity="2.6496195793151855e-01" nType="-99"/>
        </Node>
      </Node>
    </BinaryTree>
    <BinaryTree type="DecisionTree" boostWeight="1.0000000000000000e+00" itree="549">
      <Node pos="s" depth="0" NCoef="0" IVar="37" Cut="-1.3494451045989990e+00" cType="1" res="1.3234902871772647e-03" rms="2.4492222070693970e-01" purity="4.9945691227912903e-01" nType="0">
        <Node pos="l" depth="1" NCoef="0" IVar="54" Cut="1.4080055952072144e+00" cType="1" res="1.1936826631426811e-02" rms="2.4922706186771393e-01" purity="5.4124474525451660e-01" nType="0">
          <Node pos="l" depth="2" NCoef="0" IVar="-1" Cut="0.0000000000000000e+00" cType="1" res="1.4113672077655792e-03" rms="2.4925173819065094e-01" purity="5.8585190773010254e-01" nType="-99"/>
          <Node pos="r" depth="2" NCoef="0" IVar="-1" Cut="0.0000000000000000e+00" cType="1" res="-5.7329153642058372e-03" rms="2.3849622905254364e-01" purity="9.9189542233943939e-02" nType="-99"/>
        </Node>
        <Node pos="r" depth="1" NCoef="0" IVar="37" Cut="-6.2113916873931885e-01" cType="1" res="-4.2694978415966034e-02" rms="2.2081537544727325e-01" purity="3.2614293694496155e-01" nType="0">
          <Node pos="l" depth="2" NCoef="0" IVar="-1" Cut="0.0000000000000000e+00" cType="1" res="-2.6576113887131214e-03" rms="2.3226252198219299e-01" purity="3.6460518836975098e-01" nType="-99"/>
          <Node pos="r" depth="2" NCoef="0" IVar="-1" Cut="0.0000000000000000e+00" cType="1" res="-1.0452223941683769e-02" rms="1.4795199036598206e-01" purity="1.5200033783912659e-01" nType="-99"/>
        </Node>
      </Node>
    </BinaryTree>
    <BinaryTree type="DecisionTree" boostWeight="1.0000000000000000e+00" itree="550">
      <Node pos="s" depth="0" NCoef="0" IVar="34" Cut="-1.1829825639724731e+00" cType="1" res="3.1283728312700987e-03" rms="2.4262149631977081e-01" purity="5.0285750627517700e-01" nType="0">
        <Node pos="l" depth="1" NCoef="0" IVar="54" Cut="-1.4150406122207642e+00" cType="1" res="1.6718072816729546e-02" rms="2.3716861009597778e-01" purity="6.0099989175796509e-01" nType="0">
          <Node pos="l" depth="2" NCoef="0" IVar="-1" Cut="0.0000000000000000e+00" cType="1" res="2.6902190875262022e-03" rms="2.1171249449253082e-01" purity="7.2365224361419678e-01" nType="-99"/>
          <Node pos="r" depth="2" NCoef="0" IVar="-1" Cut="0.0000000000000000e+00" cType="1" res="-1.4002145035192370e-03" rms="2.7704206109046936e-01" purity="3.6048829555511475e-01" nType="-99"/>
        </Node>
        <Node pos="r" depth="1" NCoef="0" IVar="3" Cut="5.3096141815185547e+00" cType="1" res="-3.1871583312749863e-02" rms="2.5278970599174500e-01" purity="2.5009414553642273e-01" nType="0">
          <Node pos="l" depth="2" NCoef="0" IVar="-1" Cut="0.0000000000000000e+00" cType="1" res="-3.6624195054173470e-03" rms="2.3158884048461914e-01" purity="2.2734992206096649e-01" nType="-99"/>
          <Node pos="r" depth="2" NCoef="0" IVar="-1" Cut="0.0000000000000000e+00" cType="1" res="1.5825367299839854e-03" rms="3.5705840587615967e-01" purity="3.9909619092941284e-01" nType="-99"/>
        </Node>
      </Node>
    </BinaryTree>
    <BinaryTree type="DecisionTree" boostWeight="1.0000000000000000e+00" itree="551">
      <Node pos="s" depth="0" NCoef="0" IVar="57" Cut="-8.5144233703613281e-01" cType="1" res="1.4900385576765984e-04" rms="2.4233680963516235e-01" purity="4.9598807096481323e-01" nType="0">
        <Node pos="l" depth="1" NCoef="0" IVar="65" Cut="7.7445060014724731e-01" cType="1" res="6.1784773133695126e-03" rms="2.4486869573593140e-01" purity="5.1854860782623291e-01" nType="0">
          <Node pos="l" depth="2" NCoef="0" IVar="-1" Cut="0.0000000000000000e+00" cType="1" res="8.6016493150964379e-04" rms="2.4805520474910736e-01" purity="5.4098314046859741e-01" nType="-99"/>
          <Node pos="r" depth="2" NCoef="0" IVar="-1" Cut="0.0000000000000000e+00" cType="1" res="-8.0547342076897621e-03" rms="1.5659627318382263e-01" purity="1.2815733253955841e-01" nType="-99"/>
        </Node>
        <Node pos="r" depth="1" NCoef="0" IVar="45" Cut="1.6942007541656494e+00" cType="1" res="-7.2574757039546967e-02" rms="1.9524747133255005e-01" purity="2.2387655079364777e-01" nType="0">
          <Node pos="l" depth="2" NCoef="0" IVar="-1" Cut="0.0000000000000000e+00" cType="1" res="-1.4068040065467358e-02" rms="0.0000000000000000e+00" purity="1.6512636095285416e-02" nType="-99"/>
          <Node pos="r" depth="2" NCoef="0" IVar="-1" Cut="0.0000000000000000e+00" cType="1" res="-3.6693795118480921e-03" rms="3.0482208728790283e-01" purity="4.2238253355026245e-01" nType="-99"/>
        </Node>
      </Node>
    </BinaryTree>
    <BinaryTree type="DecisionTree" boostWeight="1.0000000000000000e+00" itree="552">
      <Node pos="s" depth="0" NCoef="0" IVar="57" Cut="-8.8162171840667725e-01" cType="1" res="1.6433995915576816e-03" rms="2.4293595552444458e-01" purity="5.0067973136901855e-01" nType="0">
        <Node pos="l" depth="1" NCoef="0" IVar="17" Cut="-9.6300363540649414e-01" cType="1" res="8.0765066668391228e-03" rms="2.4633535742759705e-01" purity="5.2460676431655884e-01" nType="0">
          <Node pos="l" depth="2" NCoef="0" IVar="-1" Cut="0.0000000000000000e+00" cType="1" res="1.1008308501914144e-03" rms="2.4662633240222931e-01" purity="5.4573649168014526e-01" nType="-99"/>
          <Node pos="r" depth="2" NCoef="0" IVar="-1" Cut="0.0000000000000000e+00" cType="1" res="-5.5322907865047455e-03" rms="2.3159424960613251e-01" purity="2.8770419955253601e-01" nType="-99"/>
        </Node>
        <Node pos="r" depth="1" NCoef="0" IVar="53" Cut="-1.4925171136856079e+00" cType="1" res="-7.1280859410762787e-02" rms="1.8540988862514496e-01" purity="2.2944866120815277e-01" nType="0">
          <Node pos="l" depth="2" NCoef="0" IVar="-1" Cut="0.0000000000000000e+00" cType="1" res="-2.1513428073376417e-03" rms="2.6132726669311523e-01" purity="4.3256717920303345e-01" nType="-99"/>
          <Node pos="r" depth="2" NCoef="0" IVar="-1" Cut="0.0000000000000000e+00" cType="1" res="-9.0782623738050461e-03" rms="1.4770536124706268e-01" purity="1.5979857742786407e-01" nType="-99"/>
        </Node>
      </Node>
    </BinaryTree>
    <BinaryTree type="DecisionTree" boostWeight="1.0000000000000000e+00" itree="553">
      <Node pos="s" depth="0" NCoef="0" IVar="14" Cut="-1.4537323713302612e+00" cType="1" res="1.1286680819466710e-03" rms="2.4006696045398712e-01" purity="5.0045430660247803e-01" nType="0">
        <Node pos="l" depth="1" NCoef="0" IVar="9" Cut="3.2400486469268799e+00" cType="1" res="-1.7793782055377960e-02" rms="0.0000000000000000e+00" purity="-2.0470619201660156e-02" nType="-99"/>
        <Node pos="r" depth="1" NCoef="0" IVar="0" Cut="9.1093313694000244e-01" cType="1" res="1.1590936221182346e-02" rms="2.7550292015075684e-01" purity="6.2123191356658936e-01" nType="0">
          <Node pos="l" depth="2" NCoef="0" IVar="-1" Cut="0.0000000000000000e+00" cType="1" res="1.4229884836822748e-03" rms="2.7591523528099060e-01" purity="6.4881116151809692e-01" nType="-99"/>
          <Node pos="r" depth="2" NCoef="0" IVar="-1" Cut="0.0000000000000000e+00" cType="1" res="-3.5387089010328054e-03" rms="2.6487988233566284e-01" purity="4.5350220799446106e-01" nType="-99"/>
        </Node>
      </Node>
    </BinaryTree>
    <BinaryTree type="DecisionTree" boostWeight="1.0000000000000000e+00" itree="554">
      <Node pos="s" depth="0" NCoef="0" IVar="17" Cut="-1.2912192344665527e+00" cType="1" res="1.4718738384544849e-03" rms="2.4434415996074677e-01" purity="4.9690237641334534e-01" nType="0">
        <Node pos="l" depth="1" NCoef="0" IVar="2" Cut="5.7250368595123291e-01" cType="1" res="1.1116320267319679e-02" rms="2.4581246078014374e-01" purity="5.3176718950271606e-01" nType="0">
          <Node pos="l" depth="2" NCoef="0" IVar="-1" Cut="0.0000000000000000e+00" cType="1" res="-7.3842220008373260e-03" rms="0.0000000000000000e+00" purity="-2.3894486948847771e-02" nType="-99"/>
          <Node pos="r" depth="2" NCoef="0" IVar="-1" Cut="0.0000000000000000e+00" cType="1" res="1.1399297509342432e-03" rms="2.4912996590137482e-01" purity="5.4592746496200562e-01" nType="-99"/>
        </Node>
        <Node pos="r" depth="1" NCoef="0" IVar="17" Cut="-6.5163064002990723e-01" cType="1" res="-4.8764146864414215e-02" rms="2.3010249435901642e-01" purity="3.1529808044433594e-01" nType="0">
          <Node pos="l" depth="2" NCoef="0" IVar="-1" Cut="0.0000000000000000e+00" cType="1" res="-2.8058481402695179e-03" rms="2.4073570966720581e-01" purity="3.5554543137550354e-01" nType="-99"/>
          <Node pos="r" depth="2" NCoef="0" IVar="-1" Cut="0.0000000000000000e+00" cType="1" res="-1.0326910763978958e-02" rms="1.7512181401252747e-01" purity="1.7001153528690338e-01" nType="-99"/>
        </Node>
      </Node>
    </BinaryTree>
    <BinaryTree type="DecisionTree" boostWeight="1.0000000000000000e+00" itree="555">
      <Node pos="s" depth="0" NCoef="0" IVar="45" Cut="9.7370779514312744e-01" cType="1" res="2.1952879615128040e-03" rms="2.4271237850189209e-01" purity="5.0095671415328979e-01" nType="0">
        <Node pos="l" depth="1" NCoef="0" IVar="49" Cut="2.7125923633575439e+00" cType="1" res="-5.9414863586425781e-02" rms="1.0460729151964188e-01" purity="6.2561206519603729e-02" nType="0">
          <Node pos="l" depth="2" NCoef="0" IVar="-1" Cut="0.0000000000000000e+00" cType="1" res="-1.2945964932441711e-02" rms="0.0000000000000000e+00" purity="1.3503636233508587e-02" nType="-99"/>
          <Node pos="r" depth="2" NCoef="0" IVar="-1" Cut="0.0000000000000000e+00" cType="1" res="-8.8398298248648643e-04" rms="1.8482576310634613e-01" purity="1.5340963006019592e-01" nType="-99"/>
        </Node>
        <Node pos="r" depth="1" NCoef="0" IVar="54" Cut="7.5068396329879761e-01" cType="1" res="9.3647455796599388e-03" rms="2.5297820568084717e-01" purity="5.5197191238403320e-01" nType="0">
          <Node pos="l" depth="2" NCoef="0" IVar="-1" Cut="0.0000000000000000e+00" cType="1" res="1.4009936712682247e-03" rms="2.5016844272613525e-01" purity="6.2326604127883911e-01" nType="-99"/>
          <Node pos="r" depth="2" NCoef="0" IVar="-1" Cut="0.0000000000000000e+00" cType="1" res="-3.4087174572050571e-03" rms="2.6141226291656494e-01" purity="1.8623605370521545e-01" nType="-99"/>
        </Node>
      </Node>
    </BinaryTree>
    <BinaryTree type="DecisionTree" boostWeight="1.0000000000000000e+00" itree="556">
      <Node pos="s" depth="0" NCoef="0" IVar="25" Cut="1.3412162065505981e+00" cType="1" res="2.6949101593345404e-03" rms="2.4381254613399506e-01" purity="5.0026375055313110e-01" nType="0">
        <Node pos="l" depth="1" NCoef="0" IVar="29" Cut="2.9248681068420410e+00" cType="1" res="-4.1833352297544479e-02" rms="1.7536032199859619e-01" purity="1.3228744268417358e-01" nType="0">
          <Node pos="l" depth="2" NCoef="0" IVar="-1" Cut="0.0000000000000000e+00" cType="1" res="-8.0527542158961296e-03" rms="1.2774464488029480e-01" purity="8.2700975239276886e-02" nType="-99"/>
          <Node pos="r" depth="2" NCoef="0" IVar="-1" Cut="0.0000000000000000e+00" cType="1" res="1.3018297031521797e-03" rms="2.3910735547542572e-01" purity="2.3897260427474976e-01" nType="-99"/>
        </Node>
        <Node pos="r" depth="1" NCoef="0" IVar="65" Cut="7.5229310989379883e-01" cType="1" res="1.2872127816081047e-02" rms="2.5582385063171387e-01" purity="5.8436709642410278e-01" nType="0">
          <Node pos="l" depth="2" NCoef="0" IVar="-1" Cut="0.0000000000000000e+00" cType="1" res="1.4058232773095369e-03" rms="2.5979962944984436e-01" purity="6.1680728197097778e-01" nType="-99"/>
          <Node pos="r" depth="2" NCoef="0" IVar="-1" Cut="0.0000000000000000e+00" cType="1" res="-6.0816039331257343e-03" rms="1.8350912630558014e-01" purity="1.8571168184280396e-01" nType="-99"/>
        </Node>
      </Node>
    </BinaryTree>
    <BinaryTree type="DecisionTree" boostWeight="1.0000000000000000e+00" itree="557">
      <Node pos="s" depth="0" NCoef="0" IVar="25" Cut="1.1127163171768188e+00" cType="1" res="-2.8053889982402325e-03" rms="2.4057170748710632e-01" purity="4.9656966328620911e-01" nType="0">
        <Node pos="l" depth="1" NCoef="0" IVar="29" Cut="2.7216408252716064e+00" cType="1" res="-5.8916095644235611e-02" rms="1.0708088427782059e-01" purity="7.4670158326625824e-02" nType="0">
          <Node pos="l" depth="2" NCoef="0" IVar="-1" Cut="0.0000000000000000e+00" cType="1" res="-1.1711478233337402e-02" rms="0.0000000000000000e+00" purity="2.7143634855747223e-02" nType="-99"/>
          <Node pos="r" depth="2" NCoef="0" IVar="-1" Cut="0.0000000000000000e+00" cType="1" res="-1.8243099329993129e-03" rms="1.7850065231323242e-01" purity="1.5434055030345917e-01" nType="-99"/>
        </Node>
        <Node pos="r" depth="1" NCoef="0" IVar="34" Cut="1.4857536554336548e+00" cType="1" res="5.5318474769592285e-03" rms="2.5344240665435791e-01" purity="5.5925780534744263e-01" nType="0">
          <Node pos="l" depth="2" NCoef="0" IVar="-1" Cut="0.0000000000000000e+00" cType="1" res="8.7016134057193995e-04" rms="2.5665089488029480e-01" purity="5.9533596038818359e-01" nType="-99"/>
          <Node pos="r" depth="2" NCoef="0" IVar="-1" Cut="0.0000000000000000e+00" cType="1" res="-8.9105730876326561e-03" rms="1.8350815773010254e-01" purity="6.1687208712100983e-02" nType="-99"/>
        </Node>
      </Node>
    </BinaryTree>
    <BinaryTree type="DecisionTree" boostWeight="1.0000000000000000e+00" itree="558">
      <Node pos="s" depth="0" NCoef="0" IVar="2" Cut="1.5194114446640015e+00" cType="1" res="9.3619819381274283e-06" rms="2.4172520637512207e-01" purity="5.0144696235656738e-01" nType="0">
        <Node pos="l" depth="1" NCoef="0" IVar="1" Cut="3.0147161483764648e+00" cType="1" res="-4.9295820295810699e-02" rms="1.9115346670150757e-01" purity="1.5836571156978607e-01" nType="0">
          <Node pos="l" depth="2" NCoef="0" IVar="-1" Cut="0.0000000000000000e+00" cType="1" res="-3.1048725359141827e-03" rms="1.5996341407299042e-01" purity="1.2340416014194489e-01" nType="-99"/>
          <Node pos="r" depth="2" NCoef="0" IVar="-1" Cut="0.0000000000000000e+00" cType="1" res="-5.6250025518238544e-03" rms="2.8072956204414368e-01" purity="3.1404048204421997e-01" nType="-99"/>
        </Node>
        <Node pos="r" depth="1" NCoef="0" IVar="1" Cut="2.1978664398193359e+00" cType="1" res="9.2566022649407387e-03" rms="2.4898871779441833e-01" purity="5.6579220294952393e-01" nType="0">
          <Node pos="l" depth="2" NCoef="0" IVar="-1" Cut="0.0000000000000000e+00" cType="1" res="-8.1422431394457817e-03" rms="0.0000000000000000e+00" purity="3.5136826336383820e-02" nType="-99"/>
          <Node pos="r" depth="2" NCoef="0" IVar="-1" Cut="0.0000000000000000e+00" cType="1" res="1.3165127020329237e-03" rms="2.6427266001701355e-01" purity="6.3574343919754028e-01" nType="-99"/>
        </Node>
      </Node>
    </BinaryTree>
    <BinaryTree type="DecisionTree" boostWeight="1.0000000000000000e+00" itree="559">
      <Node pos="s" depth="0" NCoef="0" IVar="32" Cut="1.3247625827789307e+00" cType="1" res="1.3005216605961323e-03" rms="2.4070234596729279e-01" purity="5.0202113389968872e-01" nType="0">
        <Node pos="l" depth="1" NCoef="0" IVar="56" Cut="1.4854199886322021e+00" cType="1" res="9.7083821892738342e-03" rms="2.4437968432903290e-01" purity="5.5551409721374512e-01" nType="0">
          <Node pos="l" depth="2" NCoef="0" IVar="-1" Cut="0.0000000000000000e+00" cType="1" res="1.2296271743252873e-03" rms="2.4577482044696808e-01" purity="5.9255099296569824e-01" nType="-99"/>
          <Node pos="r" depth="2" NCoef="0" IVar="-1" Cut="0.0000000000000000e+00" cType="1" res="-8.4679368883371353e-03" rms="2.0372234284877777e-01" purity="4.6302299946546555e-02" nType="-99"/>
        </Node>
        <Node pos="r" depth="1" NCoef="0" IVar="29" Cut="3.3479950428009033e+00" cType="1" res="-5.7640731334686279e-02" rms="2.0362456142902374e-01" purity="1.2702187895774841e-01" nType="0">
          <Node pos="l" depth="2" NCoef="0" IVar="-1" Cut="0.0000000000000000e+00" cType="1" res="-3.5920792724937201e-03" rms="1.8546305596828461e-01" purity="1.1753320693969727e-01" nType="-99"/>
          <Node pos="r" depth="2" NCoef="0" IVar="-1" Cut="0.0000000000000000e+00" cType="1" res="-8.1495698541402817e-03" rms="2.2224131226539612e-01" purity="1.4084403216838837e-01" nType="-99"/>
        </Node>
      </Node>
    </BinaryTree>
    <BinaryTree type="DecisionTree" boostWeight="1.0000000000000000e+00" itree="560">
      <Node pos="s" depth="0" NCoef="0" IVar="37" Cut="-1.2602425813674927e+00" cType="1" res="2.2220443934202194e-03" rms="2.4393482506275177e-01" purity="5.0156533718109131e-01" nType="0">
        <Node pos="l" depth="1" NCoef="0" IVar="36" Cut="1.4858274459838867e+00" cType="1" res="1.1559305712580681e-02" rms="2.4774764478206635e-01" purity="5.3821676969528198e-01" nType="0">
          <Node pos="l" depth="2" NCoef="0" IVar="-1" Cut="0.0000000000000000e+00" cType="1" res="1.3160465750843287e-03" rms="2.4830348789691925e-01" purity="5.7109743356704712e-01" nType="-99"/>
          <Node pos="r" depth="2" NCoef="0" IVar="-1" Cut="0.0000000000000000e+00" cType="1" res="-7.6945554465055466e-03" rms="2.2304302453994751e-01" purity="5.6165631860494614e-02" nType="-99"/>
        </Node>
        <Node pos="r" depth="1" NCoef="0" IVar="33" Cut="-1.4925332069396973e+00" cType="1" res="-4.4015306979417801e-02" rms="2.1829167008399963e-01" purity="3.2007044553756714e-01" nType="0">
          <Node pos="l" depth="2" NCoef="0" IVar="-1" Cut="0.0000000000000000e+00" cType="1" res="-2.9960356187075377e-04" rms="2.3850657045841217e-01" purity="4.9396392703056335e-01" nType="-99"/>
          <Node pos="r" depth="2" NCoef="0" IVar="-1" Cut="0.0000000000000000e+00" cType="1" res="-5.6024012155830860e-03" rms="2.0811091363430023e-01" purity="2.5426810979843140e-01" nType="-99"/>
        </Node>
      </Node>
    </BinaryTree>
    <BinaryTree type="DecisionTree" boostWeight="1.0000000000000000e+00" itree="561">
      <Node pos="s" depth="0" NCoef="0" IVar="25" Cut="8.1603050231933594e-01" cType="1" res="1.1483647540444508e-04" rms="2.4037152528762817e-01" purity="4.9987533688545227e-01" nType="0">
        <Node pos="l" depth="1" NCoef="0" IVar="13" Cut="-6.0360777378082275e-01" cType="1" res="-1.1326920241117477e-02" rms="0.0000000000000000e+00" purity="3.1767137348651886e-02" nType="-99"/>
        <Node pos="r" depth="1" NCoef="0" IVar="34" Cut="1.4473505020141602e+00" cType="1" res="5.5441418662667274e-03" rms="2.4752323329448700e-01" purity="5.3174471855163574e-01" nType="0">
          <Node pos="l" depth="2" NCoef="0" IVar="-1" Cut="0.0000000000000000e+00" cType="1" res="9.2861772282049060e-04" rms="2.5094833970069885e-01" purity="5.7409071922302246e-01" nType="-99"/>
          <Node pos="r" depth="2" NCoef="0" IVar="-1" Cut="0.0000000000000000e+00" cType="1" res="-7.6456228271126747e-03" rms="1.9185917079448700e-01" purity="7.1623213589191437e-02" nType="-99"/>
        </Node>
      </Node>
    </BinaryTree>
    <BinaryTree type="DecisionTree" boostWeight="1.0000000000000000e+00" itree="562">
      <Node pos="s" depth="0" NCoef="0" IVar="54" Cut="1.4468575716018677e+00" cType="1" res="4.0929149836301804e-03" rms="2.4503618478775024e-01" purity="5.0307315587997437e-01" nType="0">
        <Node pos="l" depth="1" NCoef="0" IVar="44" Cut="1.2345679104328156e-02" cType="1" res="1.0559069924056530e-02" rms="2.4798375368118286e-01" purity="5.4378300905227661e-01" nType="0">
          <Node pos="l" depth="2" NCoef="0" IVar="-1" Cut="0.0000000000000000e+00" cType="1" res="1.2117899022996426e-03" rms="2.4483762681484222e-01" purity="5.5482697486877441e-01" nType="-99"/>
          <Node pos="r" depth="2" NCoef="0" IVar="-1" Cut="0.0000000000000000e+00" cType="1" res="-8.4914397448301315e-03" rms="2.8512626886367798e-01" purity="3.1135839223861694e-01" nType="-99"/>
        </Node>
        <Node pos="r" depth="1" NCoef="0" IVar="49" Cut="3.4271712303161621e+00" cType="1" res="-6.4898602664470673e-02" rms="1.9832196831703186e-01" purity="6.8714536726474762e-02" nType="0">
          <Node pos="l" depth="2" NCoef="0" IVar="-1" Cut="0.0000000000000000e+00" cType="1" res="-4.3880217708647251e-03" rms="1.9654589891433716e-01" purity="6.9475322961807251e-02" nType="-99"/>
          <Node pos="r" depth="2" NCoef="0" IVar="-1" Cut="0.0000000000000000e+00" cType="1" res="-1.2208860367536545e-02" rms="1.8629309535026550e-01" purity="6.7137025296688080e-02" nType="-99"/>
        </Node>
      </Node>
    </BinaryTree>
    <BinaryTree type="DecisionTree" boostWeight="1.0000000000000000e+00" itree="563">
      <Node pos="s" depth="0" NCoef="0" IVar="14" Cut="-1.4150193929672241e+00" cType="1" res="2.8115340974181890e-03" rms="2.4564363062381744e-01" purity="5.0170177221298218e-01" nType="0">
        <Node pos="l" depth="1" NCoef="0" IVar="17" Cut="-1.9741370677947998e+00" cType="1" res="-1.5009405091404915e-02" rms="0.0000000000000000e+00" purity="-1.4660632237792015e-02" nType="-99"/>
        <Node pos="r" depth="1" NCoef="0" IVar="0" Cut="8.4798896312713623e-01" cType="1" res="1.3122670352458954e-02" rms="2.8195184469223022e-01" purity="6.3130587339401245e-01" nType="0">
          <Node pos="l" depth="2" NCoef="0" IVar="-1" Cut="0.0000000000000000e+00" cType="1" res="1.5849063638597727e-03" rms="2.7977833151817322e-01" purity="6.6644644737243652e-01" nType="-99"/>
          <Node pos="r" depth="2" NCoef="0" IVar="-1" Cut="0.0000000000000000e+00" cType="1" res="-2.6918370276689529e-03" rms="2.8598570823669434e-01" purity="4.7302401065826416e-01" nType="-99"/>
        </Node>
      </Node>
    </BinaryTree>
    <BinaryTree type="DecisionTree" boostWeight="1.0000000000000000e+00" itree="564">
      <Node pos="s" depth="0" NCoef="0" IVar="2" Cut="5.5746024847030640e-01" cType="1" res="4.1435181628912687e-04" rms="2.4081653356552124e-01" purity="4.9795931577682495e-01" nType="0">
        <Node pos="l" depth="1" NCoef="0" IVar="-1" Cut="0.0000000000000000e+00" cType="1" res="-9.2806639149785042e-03" rms="0.0000000000000000e+00" purity="-4.7462902963161469e-02" nType="-99"/>
        <Node pos="r" depth="1" NCoef="0" IVar="14" Cut="-1.4537111520767212e+00" cType="1" res="3.8486567791551352e-03" rms="2.4480466544628143e-01" purity="5.1107722520828247e-01" nType="0">
          <Node pos="l" depth="2" NCoef="0" IVar="-1" Cut="0.0000000000000000e+00" cType="1" res="-1.7117984592914581e-02" rms="0.0000000000000000e+00" purity="-1.9311428070068359e-02" nType="-99"/>
          <Node pos="r" depth="2" NCoef="0" IVar="-1" Cut="0.0000000000000000e+00" cType="1" res="9.8388432525098324e-04" rms="2.8005352616310120e-01" purity="6.3336926698684692e-01" nType="-99"/>
        </Node>
      </Node>
    </BinaryTree>
    <BinaryTree type="DecisionTree" boostWeight="1.0000000000000000e+00" itree="565">
      <Node pos="s" depth="0" NCoef="0" IVar="57" Cut="-1.9396517276763916e+00" cType="1" res="-1.3653720961883664e-03" rms="2.4050177633762360e-01" purity="4.9811205267906189e-01" nType="0">
        <Node pos="l" depth="1" NCoef="0" IVar="56" Cut="1.4854199886322021e+00" cType="1" res="1.8344657495617867e-02" rms="2.4778223037719727e-01" purity="5.6399971246719360e-01" nType="0">
          <Node pos="l" depth="2" NCoef="0" IVar="-1" Cut="0.0000000000000000e+00" cType="1" res="1.8369217868894339e-03" rms="2.4827092885971069e-01" purity="5.9845405817031860e-01" nType="-99"/>
          <Node pos="r" depth="2" NCoef="0" IVar="-1" Cut="0.0000000000000000e+00" cType="1" res="-7.5272456742823124e-03" rms="2.2202433645725250e-01" purity="5.8723095804452896e-02" nType="-99"/>
        </Node>
        <Node pos="r" depth="1" NCoef="0" IVar="65" Cut="7.5197696685791016e-01" cType="1" res="-2.6970297098159790e-02" rms="2.2817246615886688e-01" purity="4.1251865029335022e-01" nType="0">
          <Node pos="l" depth="2" NCoef="0" IVar="-1" Cut="0.0000000000000000e+00" cType="1" res="-1.6469495603814721e-03" rms="2.3885220289230347e-01" purity="4.4181028008460999e-01" nType="-99"/>
          <Node pos="r" depth="2" NCoef="0" IVar="-1" Cut="0.0000000000000000e+00" cType="1" res="-1.3323431834578514e-02" rms="0.0000000000000000e+00" purity="5.6760270148515701e-02" nType="-99"/>
        </Node>
      </Node>
    </BinaryTree>
    <BinaryTree type="DecisionTree" boostWeight="1.0000000000000000e+00" itree="566">
      <Node pos="s" depth="0" NCoef="0" IVar="25" Cut="1.1203368902206421e+00" cType="1" res="2.5832533719949424e-04" rms="2.4221369624137878e-01" purity="4.9919489026069641e-01" nType="0">
        <Node pos="l" depth="1" NCoef="0" IVar="29" Cut="2.7599587440490723e+00" cType="1" res="-5.3437288850545883e-02" rms="1.1524281650781631e-01" purity="8.4788069128990173e-02" nType="0">
          <Node pos="l" depth="2" NCoef="0" IVar="-1" Cut="0.0000000000000000e+00" cType="1" res="-1.1284017004072666e-02" rms="0.0000000000000000e+00" purity="3.0204951763153076e-02" nType="-99"/>
          <Node pos="r" depth="2" NCoef="0" IVar="-1" Cut="0.0000000000000000e+00" cType="1" res="-2.5953541626222432e-04" rms="2.0594723522663116e-01" purity="1.8689942359924316e-01" nType="-99"/>
        </Node>
        <Node pos="r" depth="1" NCoef="0" IVar="2" Cut="1.0027880668640137e+00" cType="1" res="8.4048341959714890e-03" rms="2.5504815578460693e-01" purity="5.6206727027893066e-01" nType="0">
          <Node pos="l" depth="2" NCoef="0" IVar="-1" Cut="0.0000000000000000e+00" cType="1" res="-5.7805180549621582e-03" rms="1.6232410073280334e-01" purity="5.3583946079015732e-02" nType="-99"/>
          <Node pos="r" depth="2" NCoef="0" IVar="-1" Cut="0.0000000000000000e+00" cType="1" res="1.0408137459307909e-03" rms="2.5789296627044678e-01" purity="5.8824849128723145e-01" nType="-99"/>
        </Node>
      </Node>
    </BinaryTree>
    <BinaryTree type="DecisionTree" boostWeight="1.0000000000000000e+00" itree="567">
      <Node pos="s" depth="0" NCoef="0" IVar="2" Cut="1.7217365503311157e+00" cType="1" res="-1.8579280003905296e-04" rms="2.4187631905078888e-01" purity="4.9829727411270142e-01" nType="0">
        <Node pos="l" depth="1" NCoef="0" IVar="14" Cut="-9.9733345210552216e-02" cType="1" res="-4.0240775793790817e-02" rms="1.8297165632247925e-01" purity="1.7986260354518890e-01" nType="0">
          <Node pos="l" depth="2" NCoef="0" IVar="-1" Cut="0.0000000000000000e+00" cType="1" res="-2.5980889797210693e-02" rms="0.0000000000000000e+00" purity="-4.4159874320030212e-02" nType="-99"/>
          <Node pos="r" depth="2" NCoef="0" IVar="-1" Cut="0.0000000000000000e+00" cType="1" res="-6.8814260885119438e-04" rms="3.1908348202705383e-01" purity="3.5437405109405518e-01" nType="-99"/>
        </Node>
        <Node pos="r" depth="1" NCoef="0" IVar="0" Cut="8.4798896312713623e-01" cType="1" res="1.2623717077076435e-02" rms="2.5657376646995544e-01" purity="6.0013210773468018e-01" nType="0">
          <Node pos="l" depth="2" NCoef="0" IVar="-1" Cut="0.0000000000000000e+00" cType="1" res="1.8237967742606997e-03" rms="2.5396466255187988e-01" purity="6.3929527997970581e-01" nType="-99"/>
          <Node pos="r" depth="2" NCoef="0" IVar="-1" Cut="0.0000000000000000e+00" cType="1" res="-2.7928552590310574e-03" rms="2.6235616207122803e-01" purity="4.3462702631950378e-01" nType="-99"/>
        </Node>
      </Node>
    </BinaryTree>
    <BinaryTree type="DecisionTree" boostWeight="1.0000000000000000e+00" itree="568">
      <Node pos="s" depth="0" NCoef="0" IVar="37" Cut="-1.6467868089675903e+00" cType="1" res="2.1913486998528242e-03" rms="2.3958225548267365e-01" purity="4.9958363175392151e-01" nType="0">
        <Node pos="l" depth="1" NCoef="0" IVar="2" Cut="7.1139717102050781e-01" cType="1" res="1.5828179195523262e-02" rms="2.4780346453189850e-01" purity="5.5147808790206909e-01" nType="0">
          <Node pos="l" depth="2" NCoef="0" IVar="-1" Cut="0.0000000000000000e+00" cType="1" res="-6.7089996300637722e-03" rms="4.2268492281436920e-02" purity="-2.6575740776024759e-04" nType="-99"/>
          <Node pos="r" depth="2" NCoef="0" IVar="-1" Cut="0.0000000000000000e+00" cType="1" res="1.5636107418686152e-03" rms="2.5039410591125488e-01" purity="5.6858593225479126e-01" nType="-99"/>
        </Node>
        <Node pos="r" depth="1" NCoef="0" IVar="25" Cut="1.9156509637832642e+00" cType="1" res="-2.9186630621552467e-02" rms="2.1625775098800659e-01" purity="3.8017585873603821e-01" nType="0">
          <Node pos="l" depth="2" NCoef="0" IVar="-1" Cut="0.0000000000000000e+00" cType="1" res="-6.5347868949174881e-03" rms="1.1372835934162140e-01" purity="1.4459753036499023e-01" nType="-99"/>
          <Node pos="r" depth="2" NCoef="0" IVar="-1" Cut="0.0000000000000000e+00" cType="1" res="-7.7246826549526304e-05" rms="2.7506548166275024e-01" purity="5.9296596050262451e-01" nType="-99"/>
        </Node>
      </Node>
    </BinaryTree>
    <BinaryTree type="DecisionTree" boostWeight="1.0000000000000000e+00" itree="569">
      <Node pos="s" depth="0" NCoef="0" IVar="2" Cut="4.9828153848648071e-01" cType="1" res="1.3875879812985659e-03" rms="2.4046663939952850e-01" purity="4.9880009889602661e-01" nType="0">
        <Node pos="l" depth="1" NCoef="0" IVar="-1" Cut="0.0000000000000000e+00" cType="1" res="-9.5042176544666290e-03" rms="0.0000000000000000e+00" purity="-6.2988087534904480e-02" nType="-99"/>
        <Node pos="r" depth="1" NCoef="0" IVar="17" Cut="-8.1446486711502075e-01" cType="1" res="4.5177768915891647e-03" rms="2.4435167014598846e-01" purity="5.1064169406890869e-01" nType="0">
          <Node pos="l" depth="2" NCoef="0" IVar="-1" Cut="0.0000000000000000e+00" cType="1" res="7.7738863183185458e-04" rms="2.4540679156780243e-01" purity="5.2772665023803711e-01" nType="-99"/>
          <Node pos="r" depth="2" NCoef="0" IVar="-1" Cut="0.0000000000000000e+00" cType="1" res="-7.0384913124144077e-03" rms="2.1142353117465973e-01" purity="2.4513520300388336e-01" nType="-99"/>
        </Node>
      </Node>
    </BinaryTree>
    <BinaryTree type="DecisionTree" boostWeight="1.0000000000000000e+00" itree="570">
      <Node pos="s" depth="0" NCoef="0" IVar="32" Cut="-1.5312021970748901e+00" cType="1" res="7.7132787555456161e-04" rms="2.4139080941677094e-01" purity="4.9953535199165344e-01" nType="0">
        <Node pos="l" depth="1" NCoef="0" IVar="27" Cut="-1.4155658483505249e+00" cType="1" res="2.6537219062447548e-02" rms="2.3350225389003754e-01" purity="6.8388611078262329e-01" nType="0">
          <Node pos="l" depth="2" NCoef="0" IVar="-1" Cut="0.0000000000000000e+00" cType="1" res="2.5896662846207619e-03" rms="2.2464795410633087e-01" purity="7.0170789957046509e-01" nType="-99"/>
          <Node pos="r" depth="2" NCoef="0" IVar="-1" Cut="0.0000000000000000e+00" cType="1" res="-6.0192435048520565e-03" rms="3.2250946760177612e-01" purity="4.2354539036750793e-01" nType="-99"/>
        </Node>
        <Node pos="r" depth="1" NCoef="0" IVar="2" Cut="8.2978957891464233e-01" cType="1" res="-1.6046980395913124e-02" rms="2.4494615197181702e-01" purity="3.7920302152633667e-01" nType="0">
          <Node pos="l" depth="2" NCoef="0" IVar="-1" Cut="0.0000000000000000e+00" cType="1" res="-1.0701282881200314e-02" rms="0.0000000000000000e+00" purity="-3.9259046316146851e-02" nType="-99"/>
          <Node pos="r" depth="2" NCoef="0" IVar="-1" Cut="0.0000000000000000e+00" cType="1" res="-9.4117055414244533e-04" rms="2.5310683250427246e-01" purity="3.9711496233940125e-01" nType="-99"/>
        </Node>
      </Node>
    </BinaryTree>
    <BinaryTree type="DecisionTree" boostWeight="1.0000000000000000e+00" itree="571">
      <Node pos="s" depth="0" NCoef="0" IVar="2" Cut="5.5746024847030640e-01" cType="1" res="2.1533018443733454e-03" rms="2.3904684185981750e-01" purity="5.0260043144226074e-01" nType="0">
        <Node pos="l" depth="1" NCoef="0" IVar="-1" Cut="0.0000000000000000e+00" cType="1" res="-8.9994110167026520e-03" rms="0.0000000000000000e+00" purity="-4.9593705683946609e-02" nType="-99"/>
        <Node pos="r" depth="1" NCoef="0" IVar="54" Cut="-3.7088152766227722e-01" cType="1" res="5.3667686879634857e-03" rms="2.4278675019741058e-01" purity="5.1515507698059082e-01" nType="0">
          <Node pos="l" depth="2" NCoef="0" IVar="-1" Cut="0.0000000000000000e+00" cType="1" res="1.3258138205856085e-03" rms="2.3953631520271301e-01" purity="6.0139954090118408e-01" nType="-99"/>
          <Node pos="r" depth="2" NCoef="0" IVar="-1" Cut="0.0000000000000000e+00" cType="1" res="-2.9386829119175673e-03" rms="2.4957656860351562e-01" purity="2.2570408880710602e-01" nType="-99"/>
        </Node>
      </Node>
    </BinaryTree>
    <BinaryTree type="DecisionTree" boostWeight="1.0000000000000000e+00" itree="572">
      <Node pos="s" depth="0" NCoef="0" IVar="37" Cut="-1.0497976541519165e+00" cType="1" res="1.6257733805105090e-03" rms="2.3827430605888367e-01" purity="4.9969452619552612e-01" nType="0">
        <Node pos="l" depth="1" NCoef="0" IVar="34" Cut="1.4480490684509277e+00" cType="1" res="9.3113780021667480e-03" rms="2.4105814099311829e-01" purity="5.3026330471038818e-01" nType="0">
          <Node pos="l" depth="2" NCoef="0" IVar="-1" Cut="0.0000000000000000e+00" cType="1" res="1.1929130414500833e-03" rms="2.4235516786575317e-01" purity="5.6921827793121338e-01" nType="-99"/>
          <Node pos="r" depth="2" NCoef="0" IVar="-1" Cut="0.0000000000000000e+00" cType="1" res="-6.8693449720740318e-03" rms="2.1288116276264191e-01" purity="8.1903539597988129e-02" nType="-99"/>
        </Node>
        <Node pos="r" depth="1" NCoef="0" IVar="33" Cut="-9.5126414299011230e-01" cType="1" res="-5.6172855198383331e-02" rms="2.0725506544113159e-01" purity="2.6980569958686829e-01" nType="0">
          <Node pos="l" depth="2" NCoef="0" IVar="-1" Cut="0.0000000000000000e+00" cType="1" res="-3.2123902346938848e-03" rms="2.3210519552230835e-01" purity="3.4005048871040344e-01" nType="-99"/>
          <Node pos="r" depth="2" NCoef="0" IVar="-1" Cut="0.0000000000000000e+00" cType="1" res="-9.1506438329815865e-03" rms="1.5722289681434631e-01" purity="1.6347785294055939e-01" nType="-99"/>
        </Node>
      </Node>
    </BinaryTree>
    <BinaryTree type="DecisionTree" boostWeight="1.0000000000000000e+00" itree="573">
      <Node pos="s" depth="0" NCoef="0" IVar="37" Cut="-1.6467981338500977e+00" cType="1" res="2.7268531266599894e-03" rms="2.4510464072227478e-01" purity="5.0154864788055420e-01" nType="0">
        <Node pos="l" depth="1" NCoef="0" IVar="54" Cut="1.3318732976913452e+00" cType="1" res="1.5388993546366692e-02" rms="2.5075060129165649e-01" purity="5.5122447013854980e-01" nType="0">
          <Node pos="l" depth="2" NCoef="0" IVar="-1" Cut="0.0000000000000000e+00" cType="1" res="1.7649355577304959e-03" rms="2.4873644113540649e-01" purity="6.0346543788909912e-01" nType="-99"/>
          <Node pos="r" depth="2" NCoef="0" IVar="-1" Cut="0.0000000000000000e+00" cType="1" res="-4.5212549157440662e-03" rms="2.5816464424133301e-01" purity="1.2772971391677856e-01" nType="-99"/>
        </Node>
        <Node pos="r" depth="1" NCoef="0" IVar="45" Cut="1.7599444389343262e+00" cType="1" res="-2.6452997699379921e-02" rms="2.2891861200332642e-01" purity="3.8707068562507629e-01" nType="0">
          <Node pos="l" depth="2" NCoef="0" IVar="-1" Cut="0.0000000000000000e+00" cType="1" res="-6.8696741946041584e-03" rms="1.0749071091413498e-01" purity="1.1174011230468750e-01" nType="-99"/>
          <Node pos="r" depth="2" NCoef="0" IVar="-1" Cut="0.0000000000000000e+00" cType="1" res="-5.9246312594041228e-04" rms="2.7446612715721130e-01" purity="5.4790276288986206e-01" nType="-99"/>
        </Node>
      </Node>
    </BinaryTree>
    <BinaryTree type="DecisionTree" boostWeight="1.0000000000000000e+00" itree="574">
      <Node pos="s" depth="0" NCoef="0" IVar="45" Cut="1.2995678186416626e+00" cType="1" res="1.5616751043125987e-03" rms="2.4246320128440857e-01" purity="4.9927297234535217e-01" nType="0">
        <Node pos="l" depth="1" NCoef="0" IVar="49" Cut="2.8398251533508301e+00" cType="1" res="-4.1345212608575821e-02" rms="1.6018116474151611e-01" purity="1.2511539459228516e-01" nType="0">
          <Node pos="l" depth="2" NCoef="0" IVar="-1" Cut="0.0000000000000000e+00" cType="1" res="-8.4636742249131203e-03" rms="9.8701544106006622e-02" purity="6.9329395890235901e-02" nType="-99"/>
          <Node pos="r" depth="2" NCoef="0" IVar="-1" Cut="0.0000000000000000e+00" cType="1" res="7.5450708391144872e-04" rms="2.2757655382156372e-01" purity="2.2987590730190277e-01" nType="-99"/>
        </Node>
        <Node pos="r" depth="1" NCoef="0" IVar="65" Cut="7.5187700986862183e-01" cType="1" res="1.0671230964362621e-02" rms="2.5563347339630127e-01" purity="5.7871031761169434e-01" nType="0">
          <Node pos="l" depth="2" NCoef="0" IVar="-1" Cut="0.0000000000000000e+00" cType="1" res="1.2712019961327314e-03" rms="2.5971373915672302e-01" purity="6.1108839511871338e-01" nType="-99"/>
          <Node pos="r" depth="2" NCoef="0" IVar="-1" Cut="0.0000000000000000e+00" cType="1" res="-6.2443264760077000e-03" rms="1.8328686058521271e-01" purity="1.8528322875499725e-01" nType="-99"/>
        </Node>
      </Node>
    </BinaryTree>
    <BinaryTree type="DecisionTree" boostWeight="1.0000000000000000e+00" itree="575">
      <Node pos="s" depth="0" NCoef="0" IVar="57" Cut="-1.0629991292953491e+00" cType="1" res="-5.6787265930324793e-04" rms="2.4002312123775482e-01" purity="4.9754559993743896e-01" nType="0">
        <Node pos="l" depth="1" NCoef="0" IVar="65" Cut="7.5217729806900024e-01" cType="1" res="7.5284112244844437e-03" rms="2.4352438747882843e-01" purity="5.2977508306503296e-01" nType="0">
          <Node pos="l" depth="2" NCoef="0" IVar="-1" Cut="0.0000000000000000e+00" cType="1" res="1.0280351852998137e-03" rms="2.4757196009159088e-01" purity="5.5810821056365967e-01" nType="-99"/>
          <Node pos="r" depth="2" NCoef="0" IVar="-1" Cut="0.0000000000000000e+00" cType="1" res="-6.3287308439612389e-03" rms="1.6967877745628357e-01" purity="1.7297591269016266e-01" nType="-99"/>
        </Node>
        <Node pos="r" depth="1" NCoef="0" IVar="17" Cut="-2.1532261371612549e+00" cType="1" res="-5.9901960194110870e-02" rms="2.0298451185226440e-01" purity="2.6135015487670898e-01" nType="0">
          <Node pos="l" depth="2" NCoef="0" IVar="-1" Cut="0.0000000000000000e+00" cType="1" res="-2.3363695945590734e-03" rms="2.6882746815681458e-01" purity="3.3740404248237610e-01" nType="-99"/>
          <Node pos="r" depth="2" NCoef="0" IVar="-1" Cut="0.0000000000000000e+00" cType="1" res="-8.0704772844910622e-03" rms="1.4235872030258179e-01" purity="2.1293352544307709e-01" nType="-99"/>
        </Node>
      </Node>
    </BinaryTree>
    <BinaryTree type="DecisionTree" boostWeight="1.0000000000000000e+00" itree="576">
      <Node pos="s" depth="0" NCoef="0" IVar="2" Cut="1.6704173088073730e+00" cType="1" res="4.6949731768108904e-04" rms="2.3956549167633057e-01" purity="4.9983268976211548e-01" nType="0">
        <Node pos="l" depth="1" NCoef="0" IVar="37" Cut="-2.0521779060363770e+00" cType="1" res="-3.7510484457015991e-02" rms="1.8709765374660492e-01" purity="1.7533218860626221e-01" nType="0">
          <Node pos="l" depth="2" NCoef="0" IVar="-1" Cut="0.0000000000000000e+00" cType="1" res="-5.1052181515842676e-04" rms="2.4151007831096649e-01" purity="2.4804347753524780e-01" nType="-99"/>
          <Node pos="r" depth="2" NCoef="0" IVar="-1" Cut="0.0000000000000000e+00" cType="1" res="-6.6094133071601391e-03" rms="1.1270674318075180e-01" purity="1.1070396751165390e-01" nType="-99"/>
        </Node>
        <Node pos="r" depth="1" NCoef="0" IVar="1" Cut="2.2684001922607422e+00" cType="1" res="1.1317193508148193e-02" rms="2.5150701403617859e-01" purity="5.9251523017883301e-01" nType="0">
          <Node pos="l" depth="2" NCoef="0" IVar="-1" Cut="0.0000000000000000e+00" cType="1" res="-7.2545581497251987e-03" rms="7.6741568744182587e-02" purity="5.3837534040212631e-02" nType="-99"/>
          <Node pos="r" depth="2" NCoef="0" IVar="-1" Cut="0.0000000000000000e+00" cType="1" res="1.4152654912322760e-03" rms="2.6310068368911743e-01" purity="6.5358054637908936e-01" nType="-99"/>
        </Node>
      </Node>
    </BinaryTree>
    <BinaryTree type="DecisionTree" boostWeight="1.0000000000000000e+00" itree="577">
      <Node pos="s" depth="0" NCoef="0" IVar="52" Cut="-1.5312020778656006e+00" cType="1" res="1.1298010358586907e-03" rms="2.4345654249191284e-01" purity="4.9945190548896790e-01" nType="0">
        <Node pos="l" depth="1" NCoef="0" IVar="47" Cut="-1.4155658483505249e+00" cType="1" res="2.6946248486638069e-02" rms="2.3772129416465759e-01" purity="6.8466037511825562e-01" nType="0">
          <Node pos="l" depth="2" NCoef="0" IVar="-1" Cut="0.0000000000000000e+00" cType="1" res="2.6373264845460653e-03" rms="2.3236833512783051e-01" purity="6.9865638017654419e-01" nType="-99"/>
          <Node pos="r" depth="2" NCoef="0" IVar="-1" Cut="0.0000000000000000e+00" cType="1" res="-6.8932394497096539e-03" rms="2.9418370127677917e-01" purity="4.5068541169166565e-01" nType="-99"/>
        </Node>
        <Node pos="r" depth="1" NCoef="0" IVar="17" Cut="-1.0224813222885132e+00" cType="1" res="-1.5686128288507462e-02" rms="2.4566590785980225e-01" purity="3.7881356477737427e-01" nType="0">
          <Node pos="l" depth="2" NCoef="0" IVar="-1" Cut="0.0000000000000000e+00" cType="1" res="-6.3257792498916388e-04" rms="2.5307604670524597e-01" purity="4.0489158034324646e-01" nType="-99"/>
          <Node pos="r" depth="2" NCoef="0" IVar="-1" Cut="0.0000000000000000e+00" cType="1" res="-7.7785113826394081e-03" rms="1.6121479868888855e-01" purity="1.6743996739387512e-01" nType="-99"/>
        </Node>
      </Node>
    </BinaryTree>
    <BinaryTree type="DecisionTree" boostWeight="1.0000000000000000e+00" itree="578">
      <Node pos="s" depth="0" NCoef="0" IVar="2" Cut="5.5746024847030640e-01" cType="1" res="2.0035034976899624e-03" rms="2.4282394349575043e-01" purity="5.0185656547546387e-01" nType="0">
        <Node pos="l" depth="1" NCoef="0" IVar="-1" Cut="0.0000000000000000e+00" cType="1" res="-8.5249114781618118e-03" rms="0.0000000000000000e+00" purity="-3.9960704743862152e-02" nType="-99"/>
        <Node pos="r" depth="1" NCoef="0" IVar="25" Cut="9.7556680440902710e-01" cType="1" res="5.1931012421846390e-03" rms="2.4674096703529358e-01" purity="5.1499396562576294e-01" nType="0">
          <Node pos="l" depth="2" NCoef="0" IVar="-1" Cut="0.0000000000000000e+00" cType="1" res="-7.3582627810537815e-03" rms="1.0618676245212555e-01" purity="6.8474240601062775e-02" nType="-99"/>
          <Node pos="r" depth="2" NCoef="0" IVar="-1" Cut="0.0000000000000000e+00" cType="1" res="9.3451043358072639e-04" rms="2.5692754983901978e-01" purity="5.6534779071807861e-01" nType="-99"/>
        </Node>
      </Node>
    </BinaryTree>
    <BinaryTree type="DecisionTree" boostWeight="1.0000000000000000e+00" itree="579">
      <Node pos="s" depth="0" NCoef="0" IVar="17" Cut="-9.3390363454818726e-01" cType="1" res="1.6466911183670163e-03" rms="2.4213346838951111e-01" purity="5.0159662961959839e-01" nType="0">
        <Node pos="l" depth="1" NCoef="0" IVar="36" Cut="1.4856319427490234e+00" cType="1" res="8.5761873051524162e-03" rms="2.4517610669136047e-01" purity="5.2421724796295166e-01" nType="0">
          <Node pos="l" depth="2" NCoef="0" IVar="-1" Cut="0.0000000000000000e+00" cType="1" res="1.0958047350868583e-03" rms="2.4635407328605652e-01" purity="5.5678850412368774e-01" nType="-99"/>
          <Node pos="r" depth="2" NCoef="0" IVar="-1" Cut="0.0000000000000000e+00" cType="1" res="-7.7007762156426907e-03" rms="2.1257366240024567e-01" purity="5.2422516047954559e-02" nType="-99"/>
        </Node>
        <Node pos="r" depth="1" NCoef="0" IVar="14" Cut="1.4846410751342773e+00" cType="1" res="-7.8578822314739227e-02" rms="1.8566292524337769e-01" purity="2.3970875144004822e-01" nType="0">
          <Node pos="l" depth="2" NCoef="0" IVar="-1" Cut="0.0000000000000000e+00" cType="1" res="-1.1462533846497536e-02" rms="5.5008690804243088e-02" purity="6.6897578537464142e-02" nType="-99"/>
          <Node pos="r" depth="2" NCoef="0" IVar="-1" Cut="0.0000000000000000e+00" cType="1" res="-3.0632286798208952e-03" rms="3.0510047078132629e-01" purity="5.7093304395675659e-01" nType="-99"/>
        </Node>
      </Node>
    </BinaryTree>
    <BinaryTree type="DecisionTree" boostWeight="1.0000000000000000e+00" itree="580">
      <Node pos="s" depth="0" NCoef="0" IVar="45" Cut="9.1266185045242310e-01" cType="1" res="2.0446532871574163e-03" rms="2.4230740964412689e-01" purity="5.0039350986480713e-01" nType="0">
        <Node pos="l" depth="1" NCoef="0" IVar="49" Cut="2.8538613319396973e+00" cType="1" res="-6.7523583769798279e-02" rms="7.3582664132118225e-02" purity="4.8316851258277893e-02" nType="0">
          <Node pos="l" depth="2" NCoef="0" IVar="-1" Cut="0.0000000000000000e+00" cType="1" res="-1.3614445924758911e-02" rms="0.0000000000000000e+00" purity="7.5377044267952442e-03" nType="-99"/>
          <Node pos="r" depth="2" NCoef="0" IVar="-1" Cut="0.0000000000000000e+00" cType="1" res="-6.1587884556502104e-04" rms="2.0200684666633606e-01" purity="1.8276387453079224e-01" nType="-99"/>
        </Node>
        <Node pos="r" depth="1" NCoef="0" IVar="65" Cut="7.2957998514175415e-01" cType="1" res="8.8034979999065399e-03" rms="2.5174424052238464e-01" purity="5.4431462287902832e-01" nType="0">
          <Node pos="l" depth="2" NCoef="0" IVar="-1" Cut="0.0000000000000000e+00" cType="1" res="1.1991497594863176e-03" rms="2.5766658782958984e-01" purity="5.7987225055694580e-01" nType="-99"/>
          <Node pos="r" depth="2" NCoef="0" IVar="-1" Cut="0.0000000000000000e+00" cType="1" res="-5.4864054545760155e-03" rms="1.7297562956809998e-01" purity="2.0623186230659485e-01" nType="-99"/>
        </Node>
      </Node>
    </BinaryTree>
    <BinaryTree type="DecisionTree" boostWeight="1.0000000000000000e+00" itree="581">
      <Node pos="s" depth="0" NCoef="0" IVar="37" Cut="-8.4240269660949707e-01" cType="1" res="1.0322232265025377e-03" rms="2.4047279357910156e-01" purity="5.0125652551651001e-01" nType="0">
        <Node pos="l" depth="1" NCoef="0" IVar="2" Cut="9.7726738452911377e-01" cType="1" res="7.1134925819933414e-03" rms="2.4355308711528778e-01" purity="5.2416813373565674e-01" nType="0">
          <Node pos="l" depth="2" NCoef="0" IVar="-1" Cut="0.0000000000000000e+00" cType="1" res="-5.7085906155407429e-03" rms="9.4713099300861359e-02" purity="5.1976449787616730e-02" nType="-99"/>
          <Node pos="r" depth="2" NCoef="0" IVar="-1" Cut="0.0000000000000000e+00" cType="1" res="9.5520360628142953e-04" rms="2.4773578345775604e-01" purity="5.4788237810134888e-01" nType="-99"/>
        </Node>
        <Node pos="r" depth="1" NCoef="0" IVar="29" Cut="2.6016099452972412e+00" cType="1" res="-7.4867472052574158e-02" rms="1.8164949119091034e-01" purity="2.1529789268970490e-01" nType="0">
          <Node pos="l" depth="2" NCoef="0" IVar="-1" Cut="0.0000000000000000e+00" cType="1" res="-1.4657307416200638e-02" rms="0.0000000000000000e+00" purity="6.5547935664653778e-02" nType="-99"/>
          <Node pos="r" depth="2" NCoef="0" IVar="-1" Cut="0.0000000000000000e+00" cType="1" res="-5.6542321108281612e-03" rms="2.2596971690654755e-01" purity="2.7756014466285706e-01" nType="-99"/>
        </Node>
      </Node>
    </BinaryTree>
    <BinaryTree type="DecisionTree" boostWeight="1.0000000000000000e+00" itree="582">
      <Node pos="s" depth="0" NCoef="0" IVar="2" Cut="4.6350896358489990e-01" cType="1" res="-5.9151716413907707e-05" rms="2.4257814884185791e-01" purity="4.9784871935844421e-01" nType="0">
        <Node pos="l" depth="1" NCoef="0" IVar="-1" Cut="0.0000000000000000e+00" cType="1" res="-9.3143247067928314e-03" rms="0.0000000000000000e+00" purity="-5.4502021521329880e-02" nType="-99"/>
        <Node pos="r" depth="1" NCoef="0" IVar="44" Cut="1.2345679104328156e-02" cType="1" res="2.8817276470363140e-03" rms="2.4587956070899963e-01" purity="5.0940620899200439e-01" nType="0">
          <Node pos="l" depth="2" NCoef="0" IVar="-1" Cut="0.0000000000000000e+00" cType="1" res="6.2204035930335522e-04" rms="2.4257077276706696e-01" purity="5.2120512723922729e-01" nType="-99"/>
          <Node pos="r" depth="2" NCoef="0" IVar="-1" Cut="0.0000000000000000e+00" cType="1" res="-8.1888549029827118e-03" rms="2.8690847754478455e-01" purity="2.8462159633636475e-01" nType="-99"/>
        </Node>
      </Node>
    </BinaryTree>
    <BinaryTree type="DecisionTree" boostWeight="1.0000000000000000e+00" itree="583">
      <Node pos="s" depth="0" NCoef="0" IVar="2" Cut="5.6514984369277954e-01" cType="1" res="5.7347450638189912e-04" rms="2.3867253959178925e-01" purity="4.9914997816085815e-01" nType="0">
        <Node pos="l" depth="1" NCoef="0" IVar="-1" Cut="0.0000000000000000e+00" cType="1" res="-9.3368412926793098e-03" rms="0.0000000000000000e+00" purity="-5.9024553745985031e-02" nType="-99"/>
        <Node pos="r" depth="1" NCoef="0" IVar="64" Cut="1.2345679104328156e-02" cType="1" res="3.8170102052390575e-03" rms="2.4293173849582672e-01" purity="5.1234346628189087e-01" nType="0">
          <Node pos="l" depth="2" NCoef="0" IVar="-1" Cut="0.0000000000000000e+00" cType="1" res="6.7151943221688271e-04" rms="2.4287183582782745e-01" purity="5.2238130569458008e-01" nType="-99"/>
          <Node pos="r" depth="2" NCoef="0" IVar="-1" Cut="0.0000000000000000e+00" cType="1" res="-9.2521635815501213e-03" rms="2.2036036849021912e-01" purity="2.8190746903419495e-01" nType="-99"/>
        </Node>
      </Node>
    </BinaryTree>
    <BinaryTree type="DecisionTree" boostWeight="1.0000000000000000e+00" itree="584">
      <Node pos="s" depth="0" NCoef="0" IVar="2" Cut="5.5746024847030640e-01" cType="1" res="-1.6975645849015564e-04" rms="2.3807701468467712e-01" purity="4.9931725859642029e-01" nType="0">
        <Node pos="l" depth="1" NCoef="0" IVar="-1" Cut="0.0000000000000000e+00" cType="1" res="-1.1599273420870304e-02" rms="0.0000000000000000e+00" purity="-9.3572437763214111e-02" nType="-99"/>
        <Node pos="r" depth="1" NCoef="0" IVar="14" Cut="1.3710278272628784e+00" cType="1" res="3.6845761351287365e-03" rms="2.4355806410312653e-01" purity="5.1297414302825928e-01" nType="0">
          <Node pos="l" depth="2" NCoef="0" IVar="-1" Cut="0.0000000000000000e+00" cType="1" res="-2.5515030138194561e-03" rms="2.0126108825206757e-01" purity="1.5375131368637085e-01" nType="-99"/>
          <Node pos="r" depth="2" NCoef="0" IVar="-1" Cut="0.0000000000000000e+00" cType="1" res="1.4145408058539033e-03" rms="2.6601576805114746e-01" purity="7.4535185098648071e-01" nType="-99"/>
        </Node>
      </Node>
    </BinaryTree>
    <BinaryTree type="DecisionTree" boostWeight="1.0000000000000000e+00" itree="585">
      <Node pos="s" depth="0" NCoef="0" IVar="57" Cut="-1.9396743774414062e+00" cType="1" res="1.4891758328303695e-03" rms="2.4435181915760040e-01" purity="4.9780777096748352e-01" nType="0">
        <Node pos="l" depth="1" NCoef="0" IVar="37" Cut="-1.1116389036178589e+00" cType="1" res="2.0354773849248886e-02" rms="2.5026345252990723e-01" purity="5.6445044279098511e-01" nType="0">
          <Node pos="l" depth="2" NCoef="0" IVar="-1" Cut="0.0000000000000000e+00" cType="1" res="2.1564322523772717e-03" rms="2.5107178092002869e-01" purity="5.9109586477279663e-01" nType="-99"/>
          <Node pos="r" depth="2" NCoef="0" IVar="-1" Cut="0.0000000000000000e+00" cType="1" res="-3.3601231407374144e-03" rms="2.3584103584289551e-01" purity="3.5852706432342529e-01" nType="-99"/>
        </Node>
        <Node pos="r" depth="1" NCoef="0" IVar="2" Cut="1.1051731109619141e+00" cType="1" res="-2.3308753967285156e-02" rms="2.3405469954013824e-01" purity="4.1020900011062622e-01" nType="0">
          <Node pos="l" depth="2" NCoef="0" IVar="-1" Cut="0.0000000000000000e+00" cType="1" res="-1.1083044111728668e-02" rms="0.0000000000000000e+00" purity="1.4961026608943939e-03" nType="-99"/>
          <Node pos="r" depth="2" NCoef="0" IVar="-1" Cut="0.0000000000000000e+00" cType="1" res="-1.3904095394536853e-03" rms="2.4537600576877594e-01" purity="4.3884330987930298e-01" nType="-99"/>
        </Node>
      </Node>
    </BinaryTree>
    <BinaryTree type="DecisionTree" boostWeight="1.0000000000000000e+00" itree="586">
      <Node pos="s" depth="0" NCoef="0" IVar="45" Cut="9.7370779514312744e-01" cType="1" res="-8.0458084994461387e-05" rms="2.3744846880435944e-01" purity="5.0038713216781616e-01" nType="0">
        <Node pos="l" depth="1" NCoef="0" IVar="49" Cut="2.5830340385437012e+00" cType="1" res="-6.6726081073284149e-02" rms="5.4199211299419403e-02" purity="5.4739698767662048e-02" nType="0">
          <Node pos="l" depth="2" NCoef="0" IVar="-1" Cut="0.0000000000000000e+00" cType="1" res="-1.4532322064042091e-02" rms="0.0000000000000000e+00" purity="1.7874011537060142e-03" nType="-99"/>
          <Node pos="r" depth="2" NCoef="0" IVar="-1" Cut="0.0000000000000000e+00" cType="1" res="-4.1417921893298626e-03" rms="1.4675842225551605e-01" purity="1.1758664995431900e-01" nType="-99"/>
        </Node>
        <Node pos="r" depth="1" NCoef="0" IVar="34" Cut="1.4480490684509277e+00" cType="1" res="7.5175664387643337e-03" rms="2.4881850183010101e-01" purity="5.5119383335113525e-01" nType="0">
          <Node pos="l" depth="2" NCoef="0" IVar="-1" Cut="0.0000000000000000e+00" cType="1" res="1.0263044387102127e-03" rms="2.4968278408050537e-01" purity="5.9061717987060547e-01" nType="-99"/>
          <Node pos="r" depth="2" NCoef="0" IVar="-1" Cut="0.0000000000000000e+00" cType="1" res="-6.7234053276479244e-03" rms="2.2682783007621765e-01" purity="8.7744452059268951e-02" nType="-99"/>
        </Node>
      </Node>
    </BinaryTree>
    <BinaryTree type="DecisionTree" boostWeight="1.0000000000000000e+00" itree="587">
      <Node pos="s" depth="0" NCoef="0" IVar="2" Cut="5.6514984369277954e-01" cType="1" res="-1.2637627078220248e-03" rms="2.3713850975036621e-01" purity="4.9824568629264832e-01" nType="0">
        <Node pos="l" depth="1" NCoef="0" IVar="-1" Cut="0.0000000000000000e+00" cType="1" res="-1.0640793479979038e-02" rms="0.0000000000000000e+00" purity="-7.6443716883659363e-02" nType="-99"/>
        <Node pos="r" depth="1" NCoef="0" IVar="1" Cut="1.9922486543655396e+00" cType="1" res="2.3446807172149420e-03" rms="2.4235068261623383e-01" purity="5.1130348443984985e-01" nType="0">
          <Node pos="l" depth="2" NCoef="0" IVar="-1" Cut="0.0000000000000000e+00" cType="1" res="-1.2661337852478027e-02" rms="0.0000000000000000e+00" purity="-5.0505544058978558e-03" nType="-99"/>
          <Node pos="r" depth="2" NCoef="0" IVar="-1" Cut="0.0000000000000000e+00" cType="1" res="7.1659695822745562e-04" rms="2.6008337736129761e-01" purity="5.6746685504913330e-01" nType="-99"/>
        </Node>
      </Node>
    </BinaryTree>
    <BinaryTree type="DecisionTree" boostWeight="1.0000000000000000e+00" itree="588">
      <Node pos="s" depth="0" NCoef="0" IVar="14" Cut="1.5257415771484375e+00" cType="1" res="-1.1353135341778398e-03" rms="2.3749257624149323e-01" purity="4.9600973725318909e-01" nType="0">
        <Node pos="l" depth="1" NCoef="0" IVar="17" Cut="-1.1119642257690430e+00" cType="1" res="-1.6206085681915283e-02" rms="2.3104085028171539e-01" purity="3.4512543678283691e-01" nType="0">
          <Node pos="l" depth="2" NCoef="0" IVar="-1" Cut="0.0000000000000000e+00" cType="1" res="-6.2145176343619823e-04" rms="2.3711737990379333e-01" purity="3.7220606207847595e-01" nType="-99"/>
          <Node pos="r" depth="2" NCoef="0" IVar="-1" Cut="0.0000000000000000e+00" cType="1" res="-7.2940210811793804e-03" rms="1.7999385297298431e-01" purity="1.7913009226322174e-01" nType="-99"/>
        </Node>
        <Node pos="r" depth="1" NCoef="0" IVar="56" Cut="1.4848126173019409e+00" cType="1" res="2.7140362188220024e-02" rms="2.4667493999004364e-01" purity="7.7909767627716064e-01" nType="0">
          <Node pos="l" depth="2" NCoef="0" IVar="-1" Cut="0.0000000000000000e+00" cType="1" res="2.5161956436932087e-03" rms="2.4001109600067139e-01" purity="8.2229894399642944e-01" nType="-99"/>
          <Node pos="r" depth="2" NCoef="0" IVar="-1" Cut="0.0000000000000000e+00" cType="1" res="-7.0421784184873104e-03" rms="3.0705657601356506e-01" purity="1.0308735072612762e-01" nType="-99"/>
        </Node>
      </Node>
    </BinaryTree>
    <BinaryTree type="DecisionTree" boostWeight="1.0000000000000000e+00" itree="589">
      <Node pos="s" depth="0" NCoef="0" IVar="64" Cut="1.2345679104328156e-02" cType="1" res="3.6210755351930857e-03" rms="2.4459004402160645e-01" purity="5.0098937749862671e-01" nType="0">
        <Node pos="l" depth="1" NCoef="0" IVar="45" Cut="9.2584824562072754e-01" cType="1" res="7.9963700845837593e-03" rms="2.4408218264579773e-01" purity="5.1102983951568604e-01" nType="0">
          <Node pos="l" depth="2" NCoef="0" IVar="-1" Cut="0.0000000000000000e+00" cType="1" res="-7.3892842046916485e-03" rms="1.1101944744586945e-01" purity="6.5199345350265503e-02" nType="-99"/>
          <Node pos="r" depth="2" NCoef="0" IVar="-1" Cut="0.0000000000000000e+00" cType="1" res="1.1030659079551697e-03" rms="2.5266131758689880e-01" purity="5.5520331859588623e-01" nType="-99"/>
        </Node>
        <Node pos="r" depth="1" NCoef="0" IVar="46" Cut="-1.1405715942382812e+00" cType="1" res="-9.6035018563270569e-02" rms="2.3475456237792969e-01" purity="2.7229738235473633e-01" nType="0">
          <Node pos="l" depth="2" NCoef="0" IVar="-1" Cut="0.0000000000000000e+00" cType="1" res="-1.5592497773468494e-02" rms="2.4158388376235962e-01" purity="1.6248120367527008e-01" nType="-99"/>
          <Node pos="r" depth="2" NCoef="0" IVar="-1" Cut="0.0000000000000000e+00" cType="1" res="-2.6121211703866720e-03" rms="2.0647507905960083e-01" purity="3.9149293303489685e-01" nType="-99"/>
        </Node>
      </Node>
    </BinaryTree>
    <BinaryTree type="DecisionTree" boostWeight="1.0000000000000000e+00" itree="590">
      <Node pos="s" depth="0" NCoef="0" IVar="2" Cut="9.9335157871246338e-01" cType="1" res="-6.8134494358673692e-04" rms="2.3840022087097168e-01" purity="4.9646452069282532e-01" nType="0">
        <Node pos="l" depth="1" NCoef="0" IVar="3" Cut="5.1401162147521973e+00" cType="1" res="-6.4673265442252159e-03" rms="0.0000000000000000e+00" purity="3.8162693381309509e-02" nType="-99"/>
        <Node pos="r" depth="1" NCoef="0" IVar="1" Cut="2.1335844993591309e+00" cType="1" res="4.0101753547787666e-03" rms="2.4382865428924561e-01" purity="5.2056968212127686e-01" nType="0">
          <Node pos="l" depth="2" NCoef="0" IVar="-1" Cut="0.0000000000000000e+00" cType="1" res="-7.9364553093910217e-03" rms="0.0000000000000000e+00" purity="2.7510851621627808e-02" nType="-99"/>
          <Node pos="r" depth="2" NCoef="0" IVar="-1" Cut="0.0000000000000000e+00" cType="1" res="9.1964477906003594e-04" rms="2.6348325610160828e-01" purity="5.9813737869262695e-01" nType="-99"/>
        </Node>
      </Node>
    </BinaryTree>
    <BinaryTree type="DecisionTree" boostWeight="1.0000000000000000e+00" itree="591">
      <Node pos="s" depth="0" NCoef="0" IVar="2" Cut="5.2104693651199341e-01" cType="1" res="1.3356762938201427e-03" rms="2.4233007431030273e-01" purity="5.0249844789505005e-01" nType="0">
        <Node pos="l" depth="1" NCoef="0" IVar="-1" Cut="0.0000000000000000e+00" cType="1" res="-1.1546837165951729e-02" rms="0.0000000000000000e+00" purity="-8.4633305668830872e-02" nType="-99"/>
        <Node pos="r" depth="1" NCoef="0" IVar="57" Cut="-9.6064025163650513e-01" cType="1" res="4.8616128042340279e-03" rms="2.4714437127113342e-01" purity="5.1508134603500366e-01" nType="0">
          <Node pos="l" depth="2" NCoef="0" IVar="-1" Cut="0.0000000000000000e+00" cType="1" res="9.0840732445940375e-04" rms="2.5016489624977112e-01" purity="5.4267811775207520e-01" nType="-99"/>
          <Node pos="r" depth="2" NCoef="0" IVar="-1" Cut="0.0000000000000000e+00" cType="1" res="-5.4855020716786385e-03" rms="2.0731189846992493e-01" purity="2.5653633475303650e-01" nType="-99"/>
        </Node>
      </Node>
    </BinaryTree>
    <BinaryTree type="DecisionTree" boostWeight="1.0000000000000000e+00" itree="592">
      <Node pos="s" depth="0" NCoef="0" IVar="65" Cut="7.9680645465850830e-01" cType="1" res="1.6141157830134034e-03" rms="2.4136497080326080e-01" purity="4.9863553047180176e-01" nType="0">
        <Node pos="l" depth="1" NCoef="0" IVar="25" Cut="1.0032075643539429e+00" cType="1" res="5.4681566543877125e-03" rms="2.4390308558940887e-01" purity="5.1487660408020020e-01" nType="0">
          <Node pos="l" depth="2" NCoef="0" IVar="-1" Cut="0.0000000000000000e+00" cType="1" res="-7.1313683874905109e-03" rms="1.1980503797531128e-01" purity="7.0221260190010071e-02" nType="-99"/>
          <Node pos="r" depth="2" NCoef="0" IVar="-1" Cut="0.0000000000000000e+00" cType="1" res="9.7077206009998918e-04" rms="2.5403249263763428e-01" purity="5.6911897659301758e-01" nType="-99"/>
        </Node>
        <Node pos="r" depth="1" NCoef="0" IVar="-1" Cut="0.0000000000000000e+00" cType="1" res="-1.0019357316195965e-02" rms="1.3070337474346161e-01" purity="8.6687974631786346e-02" nType="-99"/>
      </Node>
    </BinaryTree>
    <BinaryTree type="DecisionTree" boostWeight="1.0000000000000000e+00" itree="593">
      <Node pos="s" depth="0" NCoef="0" IVar="17" Cut="-8.7396472692489624e-01" cType="1" res="2.7888421900570393e-03" rms="2.4208119511604309e-01" purity="5.0137573480606079e-01" nType="0">
        <Node pos="l" depth="1" NCoef="0" IVar="54" Cut="7.5153940916061401e-01" cType="1" res="8.0064376816153526e-03" rms="2.4365009367465973e-01" purity="5.2085280418395996e-01" nType="0">
          <Node pos="l" depth="2" NCoef="0" IVar="-1" Cut="0.0000000000000000e+00" cType="1" res="1.2997767189517617e-03" rms="2.4154719710350037e-01" purity="5.8857536315917969e-01" nType="-99"/>
          <Node pos="r" depth="2" NCoef="0" IVar="-1" Cut="0.0000000000000000e+00" cType="1" res="-3.3424547873437405e-03" rms="2.4975493550300598e-01" purity="1.7106901109218597e-01" nType="-99"/>
        </Node>
        <Node pos="r" depth="1" NCoef="0" IVar="65" Cut="2.1400828659534454e-01" cType="1" res="-6.6634915769100189e-02" rms="2.0804223418235779e-01" purity="2.4221913516521454e-01" nType="0">
          <Node pos="l" depth="2" NCoef="0" IVar="-1" Cut="0.0000000000000000e+00" cType="1" res="-1.0871632024645805e-02" rms="1.5760494768619537e-01" purity="1.9179837405681610e-01" nType="-99"/>
          <Node pos="r" depth="2" NCoef="0" IVar="-1" Cut="0.0000000000000000e+00" cType="1" res="-4.5397919602692127e-03" rms="2.2495998442173004e-01" purity="2.6494950056076050e-01" nType="-99"/>
        </Node>
      </Node>
    </BinaryTree>
    <BinaryTree type="DecisionTree" boostWeight="1.0000000000000000e+00" itree="594">
      <Node pos="s" depth="0" NCoef="0" IVar="1" Cut="2.0055682659149170e+00" cType="1" res="9.3217723770067096e-04" rms="2.3443813621997833e-01" purity="5.0079941749572754e-01" nType="0">
        <Node pos="l" depth="1" NCoef="0" IVar="34" Cut="1.0581583976745605e+00" cType="1" res="-1.2948874384164810e-02" rms="0.0000000000000000e+00" purity="-7.9230749979615211e-03" nType="-99"/>
        <Node pos="r" depth="1" NCoef="0" IVar="2" Cut="1.0978362560272217e+00" cType="1" res="8.1593841314315796e-03" rms="2.5340598821640015e-01" purity="5.5920255184173584e-01" nType="0">
          <Node pos="l" depth="2" NCoef="0" IVar="-1" Cut="0.0000000000000000e+00" cType="1" res="-5.3331167437136173e-03" rms="1.5047207474708557e-01" purity="9.7189947962760925e-02" nType="-99"/>
          <Node pos="r" depth="2" NCoef="0" IVar="-1" Cut="0.0000000000000000e+00" cType="1" res="1.0456138988956809e-03" rms="2.5724142789840698e-01" purity="5.8670705556869507e-01" nType="-99"/>
        </Node>
      </Node>
    </BinaryTree>
    <BinaryTree type="DecisionTree" boostWeight="1.0000000000000000e+00" itree="595">
      <Node pos="s" depth="0" NCoef="0" IVar="45" Cut="1.7062592506408691e+00" cType="1" res="6.6604191670194268e-04" rms="2.3865386843681335e-01" purity="4.9921485781669617e-01" nType="0">
        <Node pos="l" depth="1" NCoef="0" IVar="0" Cut="7.2353863716125488e-01" cType="1" res="-2.9255382716655731e-02" rms="1.9319657981395721e-01" purity="1.9675298035144806e-01" nType="0">
          <Node pos="l" depth="2" NCoef="0" IVar="-1" Cut="0.0000000000000000e+00" cType="1" res="-5.5037159472703934e-04" rms="2.3026354610919952e-01" purity="2.6533117890357971e-01" nType="-99"/>
          <Node pos="r" depth="2" NCoef="0" IVar="-1" Cut="0.0000000000000000e+00" cType="1" res="-9.1271605342626572e-03" rms="7.8548721969127655e-02" purity="7.2274096310138702e-02" nType="-99"/>
        </Node>
        <Node pos="r" depth="1" NCoef="0" IVar="36" Cut="1.5245062112808228e+00" cType="1" res="1.3840126805007458e-02" rms="2.5501203536987305e-01" purity="6.3238555192947388e-01" nType="0">
          <Node pos="l" depth="2" NCoef="0" IVar="-1" Cut="0.0000000000000000e+00" cType="1" res="1.3876176672056317e-03" rms="2.5391104817390442e-01" purity="6.5102958679199219e-01" nType="-99"/>
          <Node pos="r" depth="2" NCoef="0" IVar="-1" Cut="0.0000000000000000e+00" cType="1" res="-9.4404332339763641e-03" rms="2.5445240736007690e-01" purity="5.4931532591581345e-02" nType="-99"/>
        </Node>
      </Node>
    </BinaryTree>
    <BinaryTree type="DecisionTree" boostWeight="1.0000000000000000e+00" itree="596">
      <Node pos="s" depth="0" NCoef="0" IVar="17" Cut="-8.7396472692489624e-01" cType="1" res="6.4519705483689904e-04" rms="2.4406142532825470e-01" purity="5.0140178203582764e-01" nType="0">
        <Node pos="l" depth="1" NCoef="0" IVar="45" Cut="8.9712131023406982e-01" cType="1" res="5.9279981069266796e-03" rms="2.4631644785404205e-01" purity="5.2052086591720581e-01" nType="0">
          <Node pos="l" depth="2" NCoef="0" IVar="-1" Cut="0.0000000000000000e+00" cType="1" res="-8.1967646256089211e-03" rms="7.3970496654510498e-02" purity="6.1395451426506042e-02" nType="-99"/>
          <Node pos="r" depth="2" NCoef="0" IVar="-1" Cut="0.0000000000000000e+00" cType="1" res="9.1351818991824985e-04" rms="2.5503554940223694e-01" purity="5.6033521890640259e-01" nType="-99"/>
        </Node>
        <Node pos="r" depth="1" NCoef="0" IVar="5" Cut="1.3338103294372559e+00" cType="1" res="-6.9816567003726959e-02" rms="1.9869463145732880e-01" purity="2.4639244377613068e-01" nType="0">
          <Node pos="l" depth="2" NCoef="0" IVar="-1" Cut="0.0000000000000000e+00" cType="1" res="-1.5023094601929188e-02" rms="0.0000000000000000e+00" purity="2.1247358992695808e-02" nType="-99"/>
          <Node pos="r" depth="2" NCoef="0" IVar="-1" Cut="0.0000000000000000e+00" cType="1" res="-4.5077153481543064e-03" rms="2.4743145704269409e-01" purity="3.4040096402168274e-01" nType="-99"/>
        </Node>
      </Node>
    </BinaryTree>
    <BinaryTree type="DecisionTree" boostWeight="1.0000000000000000e+00" itree="597">
      <Node pos="s" depth="0" NCoef="0" IVar="14" Cut="1.6700902953743935e-02" cType="1" res="2.0760288462042809e-03" rms="2.4112734198570251e-01" purity="5.0282496213912964e-01" nType="0">
        <Node pos="l" depth="1" NCoef="0" IVar="65" Cut="7.0762556791305542e-01" cType="1" res="-2.6627162471413612e-02" rms="1.1673071235418320e-01" purity="5.6249514222145081e-02" nType="0">
          <Node pos="l" depth="2" NCoef="0" IVar="-1" Cut="0.0000000000000000e+00" cType="1" res="-2.0952676422894001e-03" rms="1.4898115396499634e-01" purity="7.5130149722099304e-02" nType="-99"/>
          <Node pos="r" depth="2" NCoef="0" IVar="-1" Cut="0.0000000000000000e+00" cType="1" res="-1.4280896633863449e-02" rms="0.0000000000000000e+00" purity="-1.0063417255878448e-02" nType="-99"/>
        </Node>
        <Node pos="r" depth="1" NCoef="0" IVar="56" Cut="1.5237022638320923e+00" cType="1" res="1.4093682169914246e-02" rms="2.7620905637741089e-01" purity="6.8980038166046143e-01" nType="0">
          <Node pos="l" depth="2" NCoef="0" IVar="-1" Cut="0.0000000000000000e+00" cType="1" res="1.2399974511936307e-03" rms="2.7605351805686951e-01" purity="7.1342915296554565e-01" nType="-99"/>
          <Node pos="r" depth="2" NCoef="0" IVar="-1" Cut="0.0000000000000000e+00" cType="1" res="-8.6927162483334541e-03" rms="2.5156441330909729e-01" purity="5.4317746311426163e-02" nType="-99"/>
        </Node>
      </Node>
    </BinaryTree>
    <BinaryTree type="DecisionTree" boostWeight="1.0000000000000000e+00" itree="598">
      <Node pos="s" depth="0" NCoef="0" IVar="32" Cut="-1.5312049388885498e+00" cType="1" res="-2.4441590066999197e-03" rms="2.3804077506065369e-01" purity="4.9623271822929382e-01" nType="0">
        <Node pos="l" depth="1" NCoef="0" IVar="54" Cut="-1.4150406122207642e+00" cType="1" res="2.2952577099204063e-02" rms="2.3442257940769196e-01" purity="6.7882901430130005e-01" nType="0">
          <Node pos="l" depth="2" NCoef="0" IVar="-1" Cut="0.0000000000000000e+00" cType="1" res="3.4025956410914660e-03" rms="2.0052629709243774e-01" purity="7.8667682409286499e-01" nType="-99"/>
          <Node pos="r" depth="2" NCoef="0" IVar="-1" Cut="0.0000000000000000e+00" cType="1" res="-1.3940432108938694e-03" rms="2.9714357852935791e-01" purity="4.1675335168838501e-01" nType="-99"/>
        </Node>
        <Node pos="r" depth="1" NCoef="0" IVar="36" Cut="1.4862533807754517e+00" cType="1" res="-1.9254656508564949e-02" rms="2.3892551660537720e-01" purity="3.7536934018135071e-01" nType="0">
          <Node pos="l" depth="2" NCoef="0" IVar="-1" Cut="0.0000000000000000e+00" cType="1" res="-9.6076028421521187e-04" rms="2.4462674558162689e-01" purity="4.1691976785659790e-01" nType="-99"/>
          <Node pos="r" depth="2" NCoef="0" IVar="-1" Cut="0.0000000000000000e+00" cType="1" res="-8.8620120659470558e-03" rms="1.7584525048732758e-01" purity="4.0246631950139999e-02" nType="-99"/>
        </Node>
      </Node>
    </BinaryTree>
    <BinaryTree type="DecisionTree" boostWeight="1.0000000000000000e+00" itree="599">
      <Node pos="s" depth="0" NCoef="0" IVar="54" Cut="1.4866290092468262e+00" cType="1" res="1.5115814749151468e-03" rms="2.3789793252944946e-01" purity="4.9995324015617371e-01" nType="0">
        <Node pos="l" depth="1" NCoef="0" IVar="36" Cut="-1.4150811433792114e+00" cType="1" res="7.0871254429221153e-03" rms="2.4109812080860138e-01" purity="5.3119277954101562e-01" nType="0">
          <Node pos="l" depth="2" NCoef="0" IVar="-1" Cut="0.0000000000000000e+00" cType="1" res="1.6811864916235209e-03" rms="2.3707841336727142e-01" purity="6.3938409090042114e-01" nType="-99"/>
          <Node pos="r" depth="2" NCoef="0" IVar="-1" Cut="0.0000000000000000e+00" cType="1" res="-2.3218509741127491e-03" rms="2.4697624146938324e-01" purity="2.7658733725547791e-01" nType="-99"/>
        </Node>
        <Node pos="r" depth="1" NCoef="0" IVar="56" Cut="1.4852572679519653e+00" cType="1" res="-7.8610859811306000e-02" rms="1.6643676161766052e-01" purity="5.1030658185482025e-02" nType="0">
          <Node pos="l" depth="2" NCoef="0" IVar="-1" Cut="0.0000000000000000e+00" cType="1" res="-1.1471713893115520e-02" rms="2.2239874303340912e-01" purity="9.4507113099098206e-02" nType="-99"/>
          <Node pos="r" depth="2" NCoef="0" IVar="-1" Cut="0.0000000000000000e+00" cType="1" res="-7.4739721603691578e-03" rms="1.0990218818187714e-01" purity="2.4904435500502586e-02" nType="-99"/>
        </Node>
      </Node>
    </BinaryTree>
    <BinaryTree type="DecisionTree" boostWeight="1.0000000000000000e+00" itree="600">
      <Node pos="s" depth="0" NCoef="0" IVar="52" Cut="-1.4154193401336670e+00" cType="1" res="-9.5601152861490846e-04" rms="2.4162481725215912e-01" purity="4.9830502271652222e-01" nType="0">
        <Node pos="l" depth="1" NCoef="0" IVar="34" Cut="-1.0283747911453247e+00" cType="1" res="1.1824753135442734e-02" rms="2.4744871258735657e-01" purity="6.0070347785949707e-01" nType="0">
          <Node pos="l" depth="2" NCoef="0" IVar="-1" Cut="0.0000000000000000e+00" cType="1" res="2.0381500944495201e-03" rms="2.3498111963272095e-01" purity="6.9608330726623535e-01" nType="-99"/>
          <Node pos="r" depth="2" NCoef="0" IVar="-1" Cut="0.0000000000000000e+00" cType="1" res="-2.3447372950613499e-03" rms="2.7836880087852478e-01" purity="3.0569675564765930e-01" nType="-99"/>
        </Node>
        <Node pos="r" depth="1" NCoef="0" IVar="1" Cut="3.7211041450500488e+00" cType="1" res="-2.9843062162399292e-02" rms="2.2525796294212341e-01" purity="2.6686426997184753e-01" nType="0">
          <Node pos="l" depth="2" NCoef="0" IVar="-1" Cut="0.0000000000000000e+00" cType="1" res="-3.7362754810601473e-03" rms="2.1356712281703949e-01" purity="2.0538529753684998e-01" nType="-99"/>
          <Node pos="r" depth="2" NCoef="0" IVar="-1" Cut="0.0000000000000000e+00" cType="1" res="2.0317684393376112e-03" rms="2.8777307271957397e-01" purity="7.0418965816497803e-01" nType="-99"/>
        </Node>
      </Node>
    </BinaryTree>
    <BinaryTree type="DecisionTree" boostWeight="1.0000000000000000e+00" itree="601">
      <Node pos="s" depth="0" NCoef="0" IVar="0" Cut="1.0582621097564697e+00" cType="1" res="8.3219975931569934e-04" rms="2.4234369397163391e-01" purity="5.0033009052276611e-01" nType="0">
        <Node pos="l" depth="1" NCoef="0" IVar="2" Cut="9.8976099491119385e-01" cType="1" res="6.2896134331822395e-03" rms="2.4085022509098053e-01" purity="5.1439285278320312e-01" nType="0">
          <Node pos="l" depth="2" NCoef="0" IVar="-1" Cut="0.0000000000000000e+00" cType="1" res="-5.8695157058537006e-03" rms="1.2000034004449844e-01" purity="5.4382547736167908e-02" nType="-99"/>
          <Node pos="r" depth="2" NCoef="0" IVar="-1" Cut="0.0000000000000000e+00" cType="1" res="9.1405550483614206e-04" rms="2.4505011737346649e-01" purity="5.4054903984069824e-01" nType="-99"/>
        </Node>
        <Node pos="r" depth="1" NCoef="0" IVar="29" Cut="2.8026905059814453e+00" cType="1" res="-6.8585723638534546e-02" rms="2.5042364001274109e-01" purity="3.2145389914512634e-01" nType="0">
          <Node pos="l" depth="2" NCoef="0" IVar="-1" Cut="0.0000000000000000e+00" cType="1" res="-1.5188558027148247e-02" rms="1.2009166181087494e-01" purity="1.0829750448465347e-01" nType="-99"/>
          <Node pos="r" depth="2" NCoef="0" IVar="-1" Cut="0.0000000000000000e+00" cType="1" res="-3.8092455361038446e-03" rms="2.8084662556648254e-01" purity="4.0323814749717712e-01" nType="-99"/>
        </Node>
      </Node>
    </BinaryTree>
    <BinaryTree type="DecisionTree" boostWeight="1.0000000000000000e+00" itree="602">
      <Node pos="s" depth="0" NCoef="0" IVar="44" Cut="1.2345679104328156e-02" cType="1" res="7.4954214505851269e-04" rms="2.4204599857330322e-01" purity="4.9845272302627563e-01" nType="0">
        <Node pos="l" depth="1" NCoef="0" IVar="36" Cut="1.3309267759323120e+00" cType="1" res="5.1746494136750698e-03" rms="2.3994198441505432e-01" purity="5.1005482673645020e-01" nType="0">
          <Node pos="l" depth="2" NCoef="0" IVar="-1" Cut="0.0000000000000000e+00" cType="1" res="9.9224306177347898e-04" rms="2.4078176915645599e-01" purity="5.6281071901321411e-01" nType="-99"/>
          <Node pos="r" depth="2" NCoef="0" IVar="-1" Cut="0.0000000000000000e+00" cType="1" res="-5.2729984745383263e-03" rms="2.2556991875171661e-01" purity="1.0306347161531448e-01" nType="-99"/>
        </Node>
        <Node pos="r" depth="1" NCoef="0" IVar="35" Cut="-9.1275370121002197e-01" cType="1" res="-8.4527499973773956e-02" rms="2.6548027992248535e-01" purity="2.7486622333526611e-01" nType="0">
          <Node pos="l" depth="2" NCoef="0" IVar="-1" Cut="0.0000000000000000e+00" cType="1" res="-1.7080339603126049e-03" rms="2.1298934519290924e-01" purity="4.4548231363296509e-01" nType="-99"/>
          <Node pos="r" depth="2" NCoef="0" IVar="-1" Cut="0.0000000000000000e+00" cType="1" res="-1.3310320675373077e-02" rms="2.8843197226524353e-01" purity="1.5581710636615753e-01" nType="-99"/>
        </Node>
      </Node>
    </BinaryTree>
    <BinaryTree type="DecisionTree" boostWeight="1.0000000000000000e+00" itree="603">
      <Node pos="s" depth="0" NCoef="0" IVar="44" Cut="1.2345679104328156e-02" cType="1" res="4.5963504817336798e-04" rms="2.4038748443126678e-01" purity="4.9753761291503906e-01" nType="0">
        <Node pos="l" depth="1" NCoef="0" IVar="54" Cut="5.9675049781799316e-01" cType="1" res="4.8547186888754368e-03" rms="2.3836694657802582e-01" purity="5.0910937786102295e-01" nType="0">
          <Node pos="l" depth="2" NCoef="0" IVar="-1" Cut="0.0000000000000000e+00" cType="1" res="1.1374715249985456e-03" rms="2.3833175003528595e-01" purity="5.7790356874465942e-01" nType="-99"/>
          <Node pos="r" depth="2" NCoef="0" IVar="-1" Cut="0.0000000000000000e+00" cType="1" res="-3.8374774158000946e-03" rms="2.3317420482635498e-01" purity="1.7158031463623047e-01" nType="-99"/>
        </Node>
        <Node pos="r" depth="1" NCoef="0" IVar="35" Cut="-6.8062078952789307e-01" cType="1" res="-8.6237318813800812e-02" rms="2.6262226700782776e-01" purity="2.6927402615547180e-01" nType="0">
          <Node pos="l" depth="2" NCoef="0" IVar="-1" Cut="0.0000000000000000e+00" cType="1" res="-2.7709652204066515e-03" rms="2.2008605301380157e-01" purity="4.1930761933326721e-01" nType="-99"/>
          <Node pos="r" depth="2" NCoef="0" IVar="-1" Cut="0.0000000000000000e+00" cType="1" res="-1.3756058178842068e-02" rms="2.8618186712265015e-01" purity="1.4270348846912384e-01" nType="-99"/>
        </Node>
      </Node>
    </BinaryTree>
    <BinaryTree type="DecisionTree" boostWeight="1.0000000000000000e+00" itree="604">
      <Node pos="s" depth="0" NCoef="0" IVar="52" Cut="-1.5312165021896362e+00" cType="1" res="2.3451456800103188e-03" rms="2.4464409053325653e-01" purity="5.0088310241699219e-01" nType="0">
        <Node pos="l" depth="1" NCoef="0" IVar="27" Cut="-1.3961745500564575e+00" cType="1" res="2.5656972080469131e-02" rms="2.3252004384994507e-01" purity="6.8481361865997314e-01" nType="0">
          <Node pos="l" depth="2" NCoef="0" IVar="-1" Cut="0.0000000000000000e+00" cType="1" res="2.6136648375540972e-03" rms="2.2685983777046204e-01" purity="6.9454336166381836e-01" nType="-99"/>
          <Node pos="r" depth="2" NCoef="0" IVar="-1" Cut="0.0000000000000000e+00" cType="1" res="-6.6226213239133358e-03" rms="2.9299357533454895e-01" purity="5.2194148302078247e-01" nType="-99"/>
        </Node>
        <Node pos="r" depth="1" NCoef="0" IVar="56" Cut="1.5243086814880371e+00" cType="1" res="-1.2728901579976082e-02" rms="2.5102376937866211e-01" purity="3.8194870948791504e-01" nType="0">
          <Node pos="l" depth="2" NCoef="0" IVar="-1" Cut="0.0000000000000000e+00" cType="1" res="-6.2644534045830369e-04" rms="2.5591868162155151e-01" purity="4.0667411684989929e-01" nType="-99"/>
          <Node pos="r" depth="2" NCoef="0" IVar="-1" Cut="0.0000000000000000e+00" cType="1" res="-1.0991519317030907e-02" rms="1.4137741923332214e-01" purity="1.3518016785383224e-02" nType="-99"/>
        </Node>
      </Node>
    </BinaryTree>
    <BinaryTree type="DecisionTree" boostWeight="1.0000000000000000e+00" itree="605">
      <Node pos="s" depth="0" NCoef="0" IVar="57" Cut="-1.9396520853042603e+00" cType="1" res="-3.4365252940915525e-04" rms="2.4041610956192017e-01" purity="4.9836787581443787e-01" nType="0">
        <Node pos="l" depth="1" NCoef="0" IVar="56" Cut="1.4854199886322021e+00" cType="1" res="1.6938766464591026e-02" rms="2.4618844687938690e-01" purity="5.6391453742980957e-01" nType="0">
          <Node pos="l" depth="2" NCoef="0" IVar="-1" Cut="0.0000000000000000e+00" cType="1" res="1.7564758891239762e-03" rms="2.4647358059883118e-01" purity="5.9726309776306152e-01" nType="-99"/>
          <Node pos="r" depth="2" NCoef="0" IVar="-1" Cut="0.0000000000000000e+00" cType="1" res="-7.4206856079399586e-03" rms="2.2621890902519226e-01" purity="5.4659873247146606e-02" nType="-99"/>
        </Node>
        <Node pos="r" depth="1" NCoef="0" IVar="2" Cut="1.0384994745254517e+00" cType="1" res="-2.2721327841281891e-02" rms="2.3081472516059875e-01" purity="4.1349649429321289e-01" nType="0">
          <Node pos="l" depth="2" NCoef="0" IVar="-1" Cut="0.0000000000000000e+00" cType="1" res="-9.9552525207400322e-03" rms="0.0000000000000000e+00" purity="5.2021478768438101e-04" nType="-99"/>
          <Node pos="r" depth="2" NCoef="0" IVar="-1" Cut="0.0000000000000000e+00" cType="1" res="-1.4974353834986687e-03" rms="2.4146145582199097e-01" purity="4.3829667568206787e-01" nType="-99"/>
        </Node>
      </Node>
    </BinaryTree>
    <BinaryTree type="DecisionTree" boostWeight="1.0000000000000000e+00" itree="606">
      <Node pos="s" depth="0" NCoef="0" IVar="14" Cut="-1.3763210773468018e+00" cType="1" res="1.7808852717280388e-03" rms="2.3873651027679443e-01" purity="5.0024771690368652e-01" nType="0">
        <Node pos="l" depth="1" NCoef="0" IVar="15" Cut="-4.5008426904678345e-01" cType="1" res="-1.3224713504314423e-02" rms="0.0000000000000000e+00" purity="-9.7557995468378067e-03" nType="-99"/>
        <Node pos="r" depth="1" NCoef="0" IVar="17" Cut="-6.9456684589385986e-01" cType="1" res="1.2007868848741055e-02" rms="2.7618324756622314e-01" purity="6.4043140411376953e-01" nType="0">
          <Node pos="l" depth="2" NCoef="0" IVar="-1" Cut="0.0000000000000000e+00" cType="1" res="1.1259972816333175e-03" rms="2.7692180871963501e-01" purity="6.5571403503417969e-01" nType="-99"/>
          <Node pos="r" depth="2" NCoef="0" IVar="-1" Cut="0.0000000000000000e+00" cType="1" res="-8.3049414679408073e-03" rms="2.2815586626529694e-01" purity="2.5586819648742676e-01" nType="-99"/>
        </Node>
      </Node>
    </BinaryTree>
    <BinaryTree type="DecisionTree" boostWeight="1.0000000000000000e+00" itree="607">
      <Node pos="s" depth="0" NCoef="0" IVar="44" Cut="1.2345679104328156e-02" cType="1" res="4.6095112338662148e-04" rms="2.3801262676715851e-01" purity="4.9970960617065430e-01" nType="0">
        <Node pos="l" depth="1" NCoef="0" IVar="14" Cut="-1.3763252496719360e+00" cType="1" res="4.9401656724512577e-03" rms="2.3506529629230499e-01" purity="5.1178675889968872e-01" nType="0">
          <Node pos="l" depth="2" NCoef="0" IVar="-1" Cut="0.0000000000000000e+00" cType="1" res="-1.4041580259799957e-02" rms="0.0000000000000000e+00" purity="-1.1822777800261974e-02" nType="-99"/>
          <Node pos="r" depth="2" NCoef="0" IVar="-1" Cut="0.0000000000000000e+00" cType="1" res="1.0903588263317943e-03" rms="2.7167379856109619e-01" purity="6.4951455593109131e-01" nType="-99"/>
        </Node>
        <Node pos="r" depth="1" NCoef="0" IVar="26" Cut="-1.1984502077102661e+00" cType="1" res="-8.7206616997718811e-02" rms="2.7542960643768311e-01" purity="2.6333451271057129e-01" nType="0">
          <Node pos="l" depth="2" NCoef="0" IVar="-1" Cut="0.0000000000000000e+00" cType="1" res="-1.4891737140715122e-02" rms="2.8886389732360840e-01" purity="1.6254526376724243e-01" nType="-99"/>
          <Node pos="r" depth="2" NCoef="0" IVar="-1" Cut="0.0000000000000000e+00" cType="1" res="-1.4869911829009652e-03" rms="2.4024958908557892e-01" purity="3.8281750679016113e-01" nType="-99"/>
        </Node>
      </Node>
    </BinaryTree>
    <BinaryTree type="DecisionTree" boostWeight="1.0000000000000000e+00" itree="608">
      <Node pos="s" depth="0" NCoef="0" IVar="57" Cut="-9.7231090068817139e-01" cType="1" res="-7.0790934842079878e-04" rms="2.4204540252685547e-01" purity="4.9908858537673950e-01" nType="0">
        <Node pos="l" depth="1" NCoef="0" IVar="34" Cut="5.5767905712127686e-01" cType="1" res="5.9663997963070869e-03" rms="2.4510294198989868e-01" purity="5.2693605422973633e-01" nType="0">
          <Node pos="l" depth="2" NCoef="0" IVar="-1" Cut="0.0000000000000000e+00" cType="1" res="1.1473303893581033e-03" rms="2.4324733018875122e-01" purity="5.9467375278472900e-01" nType="-99"/>
          <Node pos="r" depth="2" NCoef="0" IVar="-1" Cut="0.0000000000000000e+00" cType="1" res="-3.1916415318846703e-03" rms="2.4997252225875854e-01" purity="1.9105416536331177e-01" nType="-99"/>
        </Node>
        <Node pos="r" depth="1" NCoef="0" IVar="53" Cut="-7.5807374715805054e-01" cType="1" res="-6.1285853385925293e-02" rms="2.0246736705303192e-01" purity="2.4633726477622986e-01" nType="0">
          <Node pos="l" depth="2" NCoef="0" IVar="-1" Cut="0.0000000000000000e+00" cType="1" res="-4.0450305677950382e-03" rms="2.2196391224861145e-01" purity="3.1173428893089294e-01" nType="-99"/>
          <Node pos="r" depth="2" NCoef="0" IVar="-1" Cut="0.0000000000000000e+00" cType="1" res="-1.0362992063164711e-02" rms="1.5996544063091278e-01" purity="1.3644881546497345e-01" nType="-99"/>
        </Node>
      </Node>
    </BinaryTree>
    <BinaryTree type="DecisionTree" boostWeight="1.0000000000000000e+00" itree="609">
      <Node pos="s" depth="0" NCoef="0" IVar="25" Cut="8.2207101583480835e-01" cType="1" res="-1.2380339903756976e-03" rms="2.3395577073097229e-01" purity="4.9864801764488220e-01" nType="0">
        <Node pos="l" depth="1" NCoef="0" IVar="54" Cut="-2.2998925298452377e-02" cType="1" res="-1.1019869707524776e-02" rms="0.0000000000000000e+00" purity="3.2963067293167114e-02" nType="-99"/>
        <Node pos="r" depth="1" NCoef="0" IVar="2" Cut="6.6553544998168945e-01" cType="1" res="3.8626703899353743e-03" rms="2.4161289632320404e-01" purity="5.3126353025436401e-01" nType="0">
          <Node pos="l" depth="2" NCoef="0" IVar="-1" Cut="0.0000000000000000e+00" cType="1" res="-8.1924730911850929e-03" rms="0.0000000000000000e+00" purity="-2.8293242678046227e-02" nType="-99"/>
          <Node pos="r" depth="2" NCoef="0" IVar="-1" Cut="0.0000000000000000e+00" cType="1" res="6.0568749904632568e-04" rms="2.4569855630397797e-01" purity="5.4759675264358521e-01" nType="-99"/>
        </Node>
      </Node>
    </BinaryTree>
    <BinaryTree type="DecisionTree" boostWeight="1.0000000000000000e+00" itree="610">
      <Node pos="s" depth="0" NCoef="0" IVar="2" Cut="1.6490341424942017e+00" cType="1" res="1.1291238479316235e-03" rms="2.3598232865333557e-01" purity="4.9966031312942505e-01" nType="0">
        <Node pos="l" depth="1" NCoef="0" IVar="2" Cut="5.2134186029434204e-01" cType="1" res="-3.9838388562202454e-02" rms="1.7481501400470734e-01" purity="1.6833786666393280e-01" nType="0">
          <Node pos="l" depth="2" NCoef="0" IVar="-1" Cut="0.0000000000000000e+00" cType="1" res="-9.5545556396245956e-03" rms="0.0000000000000000e+00" purity="-6.1415623873472214e-02" nType="-99"/>
          <Node pos="r" depth="2" NCoef="0" IVar="-1" Cut="0.0000000000000000e+00" cType="1" res="-2.6059427764266729e-03" rms="2.0085470378398895e-01" purity="1.9406425952911377e-01" nType="-99"/>
        </Node>
        <Node pos="r" depth="1" NCoef="0" IVar="36" Cut="1.5242170095443726e+00" cType="1" res="1.2137919664382935e-02" rms="2.4873216450214386e-01" purity="5.8869338035583496e-01" nType="0">
          <Node pos="l" depth="2" NCoef="0" IVar="-1" Cut="0.0000000000000000e+00" cType="1" res="1.3068153057247400e-03" rms="2.4824129045009613e-01" purity="6.1029136180877686e-01" nType="-99"/>
          <Node pos="r" depth="2" NCoef="0" IVar="-1" Cut="0.0000000000000000e+00" cType="1" res="-8.6313737556338310e-03" rms="2.3972649872303009e-01" purity="4.6554461121559143e-02" nType="-99"/>
        </Node>
      </Node>
    </BinaryTree>
    <BinaryTree type="DecisionTree" boostWeight="1.0000000000000000e+00" itree="611">
      <Node pos="s" depth="0" NCoef="0" IVar="25" Cut="1.0854622125625610e+00" cType="1" res="9.2169793788343668e-04" rms="2.3818230628967285e-01" purity="4.9960646033287048e-01" nType="0">
        <Node pos="l" depth="1" NCoef="0" IVar="29" Cut="2.9705944061279297e+00" cType="1" res="-5.1397778093814850e-02" rms="1.2448488175868988e-01" purity="7.6872780919075012e-02" nType="0">
          <Node pos="l" depth="2" NCoef="0" IVar="-1" Cut="0.0000000000000000e+00" cType="1" res="-1.0030389763414860e-02" rms="5.4457418620586395e-02" purity="4.0592499077320099e-02" nType="-99"/>
          <Node pos="r" depth="2" NCoef="0" IVar="-1" Cut="0.0000000000000000e+00" cType="1" res="2.2505018860101700e-03" rms="2.4005682766437531e-01" purity="2.1891739964485168e-01" nType="-99"/>
        </Node>
        <Node pos="r" depth="1" NCoef="0" IVar="36" Cut="1.0215163230895996e+00" cType="1" res="8.4890443831682205e-03" rms="2.4948275089263916e-01" purity="5.6074953079223633e-01" nType="0">
          <Node pos="l" depth="2" NCoef="0" IVar="-1" Cut="0.0000000000000000e+00" cType="1" res="1.3124134857207537e-03" rms="2.4878129363059998e-01" purity="6.2306511402130127e-01" nType="-99"/>
          <Node pos="r" depth="2" NCoef="0" IVar="-1" Cut="0.0000000000000000e+00" cType="1" res="-4.1595622897148132e-03" rms="2.4712781608104706e-01" purity="1.5842767059803009e-01" nType="-99"/>
        </Node>
      </Node>
    </BinaryTree>
    <BinaryTree type="DecisionTree" boostWeight="1.0000000000000000e+00" itree="612">
      <Node pos="s" depth="0" NCoef="0" IVar="34" Cut="1.4480490684509277e+00" cType="1" res="1.5650400891900063e-03" rms="2.3958709836006165e-01" purity="4.9923390150070190e-01" nType="0">
        <Node pos="l" depth="1" NCoef="0" IVar="14" Cut="1.5251590013504028e+00" cType="1" res="7.2504612617194653e-03" rms="2.4275936186313629e-01" purity="5.3956747055053711e-01" nType="0">
          <Node pos="l" depth="2" NCoef="0" IVar="-1" Cut="0.0000000000000000e+00" cType="1" res="-6.5761059522628784e-04" rms="2.4715663492679596e-01" purity="3.8079512119293213e-01" nType="-99"/>
          <Node pos="r" depth="2" NCoef="0" IVar="-1" Cut="0.0000000000000000e+00" cType="1" res="2.4746735580265522e-03" rms="2.3250913619995117e-01" purity="8.1826466321945190e-01" nType="-99"/>
        </Node>
        <Node pos="r" depth="1" NCoef="0" IVar="3" Cut="4.7150058746337891e+00" cType="1" res="-5.9742756187915802e-02" rms="1.9181983172893524e-01" purity="6.4303390681743622e-02" nType="0">
          <Node pos="l" depth="2" NCoef="0" IVar="-1" Cut="0.0000000000000000e+00" cType="1" res="-1.3111456064507365e-03" rms="2.2691118717193604e-01" purity="8.0728724598884583e-02" nType="-99"/>
          <Node pos="r" depth="2" NCoef="0" IVar="-1" Cut="0.0000000000000000e+00" cType="1" res="-1.1440595611929893e-02" rms="1.4718186855316162e-01" purity="5.1371417939662933e-02" nType="-99"/>
        </Node>
      </Node>
    </BinaryTree>
    <BinaryTree type="DecisionTree" boostWeight="1.0000000000000000e+00" itree="613">
      <Node pos="s" depth="0" NCoef="0" IVar="57" Cut="-1.1234571933746338e+00" cType="1" res="-2.7544397744350135e-04" rms="2.3846098780632019e-01" purity="4.9928012490272522e-01" nType="0">
        <Node pos="l" depth="1" NCoef="0" IVar="65" Cut="7.7453422546386719e-01" cType="1" res="7.4108764529228210e-03" rms="2.4146544933319092e-01" purity="5.3338593244552612e-01" nType="0">
          <Node pos="l" depth="2" NCoef="0" IVar="-1" Cut="0.0000000000000000e+00" cType="1" res="9.7793352324515581e-04" rms="2.4423433840274811e-01" purity="5.5550265312194824e-01" nType="-99"/>
          <Node pos="r" depth="2" NCoef="0" IVar="-1" Cut="0.0000000000000000e+00" cType="1" res="-7.9869404435157776e-03" rms="1.6279411315917969e-01" purity="1.3626319169998169e-01" nType="-99"/>
        </Node>
        <Node pos="r" depth="1" NCoef="0" IVar="53" Cut="-1.2603787183761597e+00" cType="1" res="-4.9899805337190628e-02" rms="2.1144816279411316e-01" purity="2.7908653020858765e-01" nType="0">
          <Node pos="l" depth="2" NCoef="0" IVar="-1" Cut="0.0000000000000000e+00" cType="1" res="-2.0855374168604612e-03" rms="2.4099786579608917e-01" purity="3.6657217144966125e-01" nType="-99"/>
          <Node pos="r" depth="2" NCoef="0" IVar="-1" Cut="0.0000000000000000e+00" cType="1" res="-8.2875704392790794e-03" rms="1.7098078131675720e-01" purity="1.8800215423107147e-01" nType="-99"/>
        </Node>
      </Node>
    </BinaryTree>
    <BinaryTree type="DecisionTree" boostWeight="1.0000000000000000e+00" itree="614">
      <Node pos="s" depth="0" NCoef="0" IVar="65" Cut="7.5197696685791016e-01" cType="1" res="6.0711038531735539e-04" rms="2.4005271494388580e-01" purity="5.0056773424148560e-01" nType="0">
        <Node pos="l" depth="1" NCoef="0" IVar="2" Cut="6.1853700876235962e-01" cType="1" res="6.4255530014634132e-03" rms="2.4578104913234711e-01" purity="5.2880591154098511e-01" nType="0">
          <Node pos="l" depth="2" NCoef="0" IVar="-1" Cut="0.0000000000000000e+00" cType="1" res="-8.1587610766291618e-03" rms="0.0000000000000000e+00" purity="-3.4116499125957489e-02" nType="-99"/>
          <Node pos="r" depth="2" NCoef="0" IVar="-1" Cut="0.0000000000000000e+00" cType="1" res="8.1152282655239105e-04" rms="2.5017479062080383e-01" purity="5.4383605718612671e-01" nType="-99"/>
        </Node>
        <Node pos="r" depth="1" NCoef="0" IVar="14" Cut="1.2905305624008179e+00" cType="1" res="-7.1817085146903992e-02" rms="1.3159589469432831e-01" purity="1.4907741546630859e-01" nType="0">
          <Node pos="l" depth="2" NCoef="0" IVar="-1" Cut="0.0000000000000000e+00" cType="1" res="-1.4762807637453079e-02" rms="0.0000000000000000e+00" purity="-6.5894545987248421e-03" nType="-99"/>
          <Node pos="r" depth="2" NCoef="0" IVar="-1" Cut="0.0000000000000000e+00" cType="1" res="-8.1361935008317232e-04" rms="2.8339052200317383e-01" purity="5.4155850410461426e-01" nType="-99"/>
        </Node>
      </Node>
    </BinaryTree>
    <BinaryTree type="DecisionTree" boostWeight="1.0000000000000000e+00" itree="615">
      <Node pos="s" depth="0" NCoef="0" IVar="34" Cut="-1.2602736949920654e+00" cType="1" res="3.8493380416184664e-03" rms="2.4112382531166077e-01" purity="4.9986985325813293e-01" nType="0">
        <Node pos="l" depth="1" NCoef="0" IVar="45" Cut="9.8299908638000488e-01" cType="1" res="1.6712253913283348e-02" rms="2.3254111409187317e-01" purity="6.0063129663467407e-01" nType="0">
          <Node pos="l" depth="2" NCoef="0" IVar="-1" Cut="0.0000000000000000e+00" cType="1" res="-6.2107513658702374e-03" rms="1.4555393159389496e-01" purity="1.0930597782135010e-01" nType="-99"/>
          <Node pos="r" depth="2" NCoef="0" IVar="-1" Cut="0.0000000000000000e+00" cType="1" res="1.9181346287950873e-03" rms="2.3803472518920898e-01" purity="6.4847147464752197e-01" nType="-99"/>
        </Node>
        <Node pos="r" depth="1" NCoef="0" IVar="3" Cut="5.2446908950805664e+00" cType="1" res="-2.7035873383283615e-02" rms="2.5797441601753235e-01" purity="2.5793111324310303e-01" nType="0">
          <Node pos="l" depth="2" NCoef="0" IVar="-1" Cut="0.0000000000000000e+00" cType="1" res="-3.5483748652040958e-03" rms="2.3341277241706848e-01" purity="2.2848580777645111e-01" nType="-99"/>
          <Node pos="r" depth="2" NCoef="0" IVar="-1" Cut="0.0000000000000000e+00" cType="1" res="1.4163000741973519e-03" rms="3.4807914495468140e-01" purity="3.9787977933883667e-01" nType="-99"/>
        </Node>
      </Node>
    </BinaryTree>
    <BinaryTree type="DecisionTree" boostWeight="1.0000000000000000e+00" itree="616">
      <Node pos="s" depth="0" NCoef="0" IVar="37" Cut="-1.9738626480102539e+00" cType="1" res="1.2417885009199381e-03" rms="2.3779898881912231e-01" purity="5.0145900249481201e-01" nType="0">
        <Node pos="l" depth="1" NCoef="0" IVar="34" Cut="1.4860318899154663e+00" cType="1" res="1.9396249204874039e-02" rms="2.4659021198749542e-01" purity="5.6883996725082397e-01" nType="0">
          <Node pos="l" depth="2" NCoef="0" IVar="-1" Cut="0.0000000000000000e+00" cType="1" res="1.9372134702280164e-03" rms="2.4605090916156769e-01" purity="6.0346245765686035e-01" nType="-99"/>
          <Node pos="r" depth="2" NCoef="0" IVar="-1" Cut="0.0000000000000000e+00" cType="1" res="-6.3114208169281483e-03" rms="2.4234580993652344e-01" purity="8.3782717585563660e-02" nType="-99"/>
        </Node>
        <Node pos="r" depth="1" NCoef="0" IVar="1" Cut="3.6122226715087891e+00" cType="1" res="-2.0794121548533440e-02" rms="2.2470851242542267e-01" purity="4.1967192292213440e-01" nType="0">
          <Node pos="l" depth="2" NCoef="0" IVar="-1" Cut="0.0000000000000000e+00" cType="1" res="-2.9355254955589771e-03" rms="2.1906925737857819e-01" purity="3.1953993439674377e-01" nType="-99"/>
          <Node pos="r" depth="2" NCoef="0" IVar="-1" Cut="0.0000000000000000e+00" cType="1" res="2.1370290778577328e-03" rms="2.3990955948829651e-01" purity="8.1447929143905640e-01" nType="-99"/>
        </Node>
      </Node>
    </BinaryTree>
    <BinaryTree type="DecisionTree" boostWeight="1.0000000000000000e+00" itree="617">
      <Node pos="s" depth="0" NCoef="0" IVar="14" Cut="1.4865543842315674e+00" cType="1" res="1.7802874790504575e-03" rms="2.3733562231063843e-01" purity="4.9954813718795776e-01" nType="0">
        <Node pos="l" depth="1" NCoef="0" IVar="65" Cut="6.1770963668823242e-01" cType="1" res="-1.7522918060421944e-02" rms="2.1854119002819061e-01" purity="2.3998558521270752e-01" nType="0">
          <Node pos="l" depth="2" NCoef="0" IVar="-1" Cut="0.0000000000000000e+00" cType="1" res="-2.5052702403627336e-04" rms="2.4287103116512299e-01" purity="2.9030156135559082e-01" nType="-99"/>
          <Node pos="r" depth="2" NCoef="0" IVar="-1" Cut="0.0000000000000000e+00" cType="1" res="-6.8646208383142948e-03" rms="1.2872475385665894e-01" purity="1.0939454287290573e-01" nType="-99"/>
        </Node>
        <Node pos="r" depth="1" NCoef="0" IVar="56" Cut="1.4854199886322021e+00" cType="1" res="2.1029397845268250e-02" rms="2.5323909521102905e-01" purity="7.5838327407836914e-01" nType="0">
          <Node pos="l" depth="2" NCoef="0" IVar="-1" Cut="0.0000000000000000e+00" cType="1" res="1.9274303922429681e-03" rms="2.4811418354511261e-01" purity="7.9823184013366699e-01" nType="-99"/>
          <Node pos="r" depth="2" NCoef="0" IVar="-1" Cut="0.0000000000000000e+00" cType="1" res="-5.3766076453030109e-03" rms="3.1019353866577148e-01" purity="1.1021973192691803e-01" nType="-99"/>
        </Node>
      </Node>
    </BinaryTree>
    <BinaryTree type="DecisionTree" boostWeight="1.0000000000000000e+00" itree="618">
      <Node pos="s" depth="0" NCoef="0" IVar="37" Cut="-8.4238696098327637e-01" cType="1" res="3.4087151288986206e-03" rms="2.4031591415405273e-01" purity="5.0187975168228149e-01" nType="0">
        <Node pos="l" depth="1" NCoef="0" IVar="54" Cut="5.5809479951858521e-01" cType="1" res="9.1598611325025558e-03" rms="2.4357293546199799e-01" purity="5.2452266216278076e-01" nType="0">
          <Node pos="l" depth="2" NCoef="0" IVar="-1" Cut="0.0000000000000000e+00" cType="1" res="1.4553529908880591e-03" rms="2.3995807766914368e-01" purity="5.9535318613052368e-01" nType="-99"/>
          <Node pos="r" depth="2" NCoef="0" IVar="-1" Cut="0.0000000000000000e+00" cType="1" res="-3.2500883098691702e-03" rms="2.5595611333847046e-01" purity="1.7920148372650146e-01" nType="-99"/>
        </Node>
        <Node pos="r" depth="1" NCoef="0" IVar="29" Cut="2.6350126266479492e+00" cType="1" res="-6.7942082881927490e-02" rms="1.8082466721534729e-01" purity="2.2096343338489532e-01" nType="0">
          <Node pos="l" depth="2" NCoef="0" IVar="-1" Cut="0.0000000000000000e+00" cType="1" res="-1.4438653364777565e-02" rms="0.0000000000000000e+00" purity="6.7450918257236481e-02" nType="-99"/>
          <Node pos="r" depth="2" NCoef="0" IVar="-1" Cut="0.0000000000000000e+00" cType="1" res="-4.6729184687137604e-03" rms="2.2668309509754181e-01" purity="2.8841421008110046e-01" nType="-99"/>
        </Node>
      </Node>
    </BinaryTree>
    <BinaryTree type="DecisionTree" boostWeight="1.0000000000000000e+00" itree="619">
      <Node pos="s" depth="0" NCoef="0" IVar="1" Cut="1.9843956232070923e+00" cType="1" res="2.6779454201459885e-03" rms="2.3701755702495575e-01" purity="5.0238335132598877e-01" nType="0">
        <Node pos="l" depth="1" NCoef="0" IVar="56" Cut="-1.4924885034561157e+00" cType="1" res="-1.2626996263861656e-02" rms="0.0000000000000000e+00" purity="-5.6805904023349285e-03" nType="-99"/>
        <Node pos="r" depth="1" NCoef="0" IVar="56" Cut="1.5240936279296875e+00" cType="1" res="9.1541865840554237e-03" rms="2.5465151667594910e-01" purity="5.5742669105529785e-01" nType="0">
          <Node pos="l" depth="2" NCoef="0" IVar="-1" Cut="0.0000000000000000e+00" cType="1" res="1.0012995917350054e-03" rms="2.5598403811454773e-01" purity="5.7775628566741943e-01" nType="-99"/>
          <Node pos="r" depth="2" NCoef="0" IVar="-1" Cut="0.0000000000000000e+00" cType="1" res="-9.8459813743829727e-03" rms="1.9192594289779663e-01" purity="2.8287718072533607e-02" nType="-99"/>
        </Node>
      </Node>
    </BinaryTree>
    <BinaryTree type="DecisionTree" boostWeight="1.0000000000000000e+00" itree="620">
      <Node pos="s" depth="0" NCoef="0" IVar="2" Cut="5.5746024847030640e-01" cType="1" res="-5.6814128765836358e-04" rms="2.3656138777732849e-01" purity="4.9449333548545837e-01" nType="0">
        <Node pos="l" depth="1" NCoef="0" IVar="-1" Cut="0.0000000000000000e+00" cType="1" res="-9.9213523790240288e-03" rms="0.0000000000000000e+00" purity="-6.2836907804012299e-02" nType="-99"/>
        <Node pos="r" depth="1" NCoef="0" IVar="37" Cut="-9.3130117654800415e-01" cType="1" res="2.5372437667101622e-03" rms="2.4119192361831665e-01" purity="5.0768929719924927e-01" nType="0">
          <Node pos="l" depth="2" NCoef="0" IVar="-1" Cut="0.0000000000000000e+00" cType="1" res="7.3982501635327935e-04" rms="2.4373468756675720e-01" purity="5.3534793853759766e-01" nType="-99"/>
          <Node pos="r" depth="2" NCoef="0" IVar="-1" Cut="0.0000000000000000e+00" cType="1" res="-6.2255933880805969e-03" rms="2.0466543734073639e-01" purity="2.3822416365146637e-01" nType="-99"/>
        </Node>
      </Node>
    </BinaryTree>
    <BinaryTree type="DecisionTree" boostWeight="1.0000000000000000e+00" itree="621">
      <Node pos="s" depth="0" NCoef="0" IVar="2" Cut="1.2037755250930786e+00" cType="1" res="7.6111819362267852e-04" rms="2.4104629456996918e-01" purity="4.9792531132698059e-01" nType="0">
        <Node pos="l" depth="1" NCoef="0" IVar="1" Cut="2.8654806613922119e+00" cType="1" res="-6.5190754830837250e-02" rms="1.4999270439147949e-01" purity="9.8833568394184113e-02" nType="0">
          <Node pos="l" depth="2" NCoef="0" IVar="-1" Cut="0.0000000000000000e+00" cType="1" res="-3.8336385041475296e-03" rms="8.4919735789299011e-02" purity="7.1997232735157013e-02" nType="-99"/>
          <Node pos="r" depth="2" NCoef="0" IVar="-1" Cut="0.0000000000000000e+00" cType="1" res="-6.3670021481812000e-03" rms="2.2915893793106079e-01" purity="1.6547292470932007e-01" nType="-99"/>
        </Node>
        <Node pos="r" depth="1" NCoef="0" IVar="45" Cut="1.0744315385818481e+00" cType="1" res="6.4330827444791794e-03" rms="2.4649381637573242e-01" purity="5.3224784135818481e-01" nType="0">
          <Node pos="l" depth="2" NCoef="0" IVar="-1" Cut="0.0000000000000000e+00" cType="1" res="-6.1319228261709213e-03" rms="1.2902185320854187e-01" purity="9.0813226997852325e-02" nType="-99"/>
          <Node pos="r" depth="2" NCoef="0" IVar="-1" Cut="0.0000000000000000e+00" cType="1" res="1.1158299166709185e-03" rms="2.5749331712722778e-01" purity="5.9228736162185669e-01" nType="-99"/>
        </Node>
      </Node>
    </BinaryTree>
    <BinaryTree type="DecisionTree" boostWeight="1.0000000000000000e+00" itree="622">
      <Node pos="s" depth="0" NCoef="0" IVar="45" Cut="9.6710389852523804e-01" cType="1" res="-2.6568226167000830e-04" rms="2.3636174201965332e-01" purity="4.9775886535644531e-01" nType="0">
        <Node pos="l" depth="1" NCoef="0" IVar="16" Cut="9.4069409370422363e-01" cType="1" res="-9.1083068400621414e-03" rms="0.0000000000000000e+00" purity="5.3234364837408066e-02" nType="-99"/>
        <Node pos="r" depth="1" NCoef="0" IVar="64" Cut="1.2345679104328156e-02" cType="1" res="6.9157583639025688e-03" rms="2.4870955944061279e-01" purity="5.4714578390121460e-01" nType="0">
          <Node pos="l" depth="2" NCoef="0" IVar="-1" Cut="0.0000000000000000e+00" cType="1" res="8.7782030459493399e-04" rms="2.4712589383125305e-01" purity="5.5718326568603516e-01" nType="-99"/>
          <Node pos="r" depth="2" NCoef="0" IVar="-1" Cut="0.0000000000000000e+00" cType="1" res="-7.8846514225006104e-03" rms="2.6573047041893005e-01" purity="3.1811109185218811e-01" nType="-99"/>
        </Node>
      </Node>
    </BinaryTree>
    <BinaryTree type="DecisionTree" boostWeight="1.0000000000000000e+00" itree="623">
      <Node pos="s" depth="0" NCoef="0" IVar="25" Cut="9.7556680440902710e-01" cType="1" res="2.4264957755804062e-04" rms="2.3697613179683685e-01" purity="4.9941784143447876e-01" nType="0">
        <Node pos="l" depth="1" NCoef="0" IVar="29" Cut="2.6275167465209961e+00" cType="1" res="-5.9055104851722717e-02" rms="5.8160837739706039e-02" purity="5.3191199898719788e-02" nType="0">
          <Node pos="l" depth="2" NCoef="0" IVar="-1" Cut="0.0000000000000000e+00" cType="1" res="-1.4477775432169437e-02" rms="0.0000000000000000e+00" purity="2.7021048590540886e-03" nType="-99"/>
          <Node pos="r" depth="2" NCoef="0" IVar="-1" Cut="0.0000000000000000e+00" cType="1" res="-1.9942801445722580e-03" rms="1.7743270099163055e-01" purity="1.2210043519735336e-01" nType="-99"/>
        </Node>
        <Node pos="r" depth="1" NCoef="0" IVar="2" Cut="6.2503719329833984e-01" cType="1" res="6.9871437735855579e-03" rms="2.4842476844787598e-01" purity="5.5017143487930298e-01" nType="0">
          <Node pos="l" depth="2" NCoef="0" IVar="-1" Cut="0.0000000000000000e+00" cType="1" res="-7.7430042438209057e-03" rms="0.0000000000000000e+00" purity="-2.5364859029650688e-02" nType="-99"/>
          <Node pos="r" depth="2" NCoef="0" IVar="-1" Cut="0.0000000000000000e+00" cType="1" res="8.2235422451049089e-04" rms="2.5225275754928589e-01" purity="5.6536012887954712e-01" nType="-99"/>
        </Node>
      </Node>
    </BinaryTree>
    <BinaryTree type="DecisionTree" boostWeight="1.0000000000000000e+00" itree="624">
      <Node pos="s" depth="0" NCoef="0" IVar="26" Cut="-1.5511420965194702e+00" cType="1" res="1.2013624655082822e-04" rms="2.3687134683132172e-01" purity="4.9929887056350708e-01" nType="0">
        <Node pos="l" depth="1" NCoef="0" IVar="14" Cut="-1.4150160551071167e+00" cType="1" res="5.4331296123564243e-03" rms="2.3427569866180420e-01" purity="5.1283818483352661e-01" nType="0">
          <Node pos="l" depth="2" NCoef="0" IVar="-1" Cut="0.0000000000000000e+00" cType="1" res="-1.4896593987941742e-02" rms="0.0000000000000000e+00" purity="-1.3647739775478840e-02" nType="-99"/>
          <Node pos="r" depth="2" NCoef="0" IVar="-1" Cut="0.0000000000000000e+00" cType="1" res="1.0843494674190879e-03" rms="2.6877292990684509e-01" purity="6.4261716604232788e-01" nType="-99"/>
        </Node>
        <Node pos="r" depth="1" NCoef="0" IVar="33" Cut="-1.4925334453582764e+00" cType="1" res="-7.0217907428741455e-02" rms="2.5879937410354614e-01" purity="3.2005435228347778e-01" nType="0">
          <Node pos="l" depth="2" NCoef="0" IVar="-1" Cut="0.0000000000000000e+00" cType="1" res="-2.4483024026267231e-04" rms="2.4602265655994415e-01" purity="5.4621034860610962e-01" nType="-99"/>
          <Node pos="r" depth="2" NCoef="0" IVar="-1" Cut="0.0000000000000000e+00" cType="1" res="-1.0472890920937061e-02" rms="2.5841116905212402e-01" purity="2.0369373261928558e-01" nType="-99"/>
        </Node>
      </Node>
    </BinaryTree>
    <BinaryTree type="DecisionTree" boostWeight="1.0000000000000000e+00" itree="625">
      <Node pos="s" depth="0" NCoef="0" IVar="64" Cut="1.2345679104328156e-02" cType="1" res="1.4319750480353832e-03" rms="2.3957408964633942e-01" purity="5.0009828805923462e-01" nType="0">
        <Node pos="l" depth="1" NCoef="0" IVar="36" Cut="1.5245062112808228e+00" cType="1" res="6.0020824894309044e-03" rms="2.3871643841266632e-01" purity="5.1016706228256226e-01" nType="0">
          <Node pos="l" depth="2" NCoef="0" IVar="-1" Cut="0.0000000000000000e+00" cType="1" res="8.5705524543300271e-04" rms="2.4056765437126160e-01" purity="5.2950620651245117e-01" nType="-99"/>
          <Node pos="r" depth="2" NCoef="0" IVar="-1" Cut="0.0000000000000000e+00" cType="1" res="-1.2208053842186928e-02" rms="1.4429396390914917e-01" purity="1.1713706888258457e-02" nType="-99"/>
        </Node>
        <Node pos="r" depth="1" NCoef="0" IVar="46" Cut="-1.1449553966522217e+00" cType="1" res="-1.0179375112056732e-01" rms="2.3565618693828583e-01" purity="2.7267247438430786e-01" nType="0">
          <Node pos="l" depth="2" NCoef="0" IVar="-1" Cut="0.0000000000000000e+00" cType="1" res="-1.8662786111235619e-02" rms="2.0764160156250000e-01" purity="1.4431022107601166e-01" nType="-99"/>
          <Node pos="r" depth="2" NCoef="0" IVar="-1" Cut="0.0000000000000000e+00" cType="1" res="-1.7179375281557441e-03" rms="2.3614816367626190e-01" purity="4.1426336765289307e-01" nType="-99"/>
        </Node>
      </Node>
    </BinaryTree>
    <BinaryTree type="DecisionTree" boostWeight="1.0000000000000000e+00" itree="626">
      <Node pos="s" depth="0" NCoef="0" IVar="32" Cut="-1.5312128067016602e+00" cType="1" res="-7.6735421316698194e-04" rms="2.4068115651607513e-01" purity="4.9873295426368713e-01" nType="0">
        <Node pos="l" depth="1" NCoef="0" IVar="54" Cut="-1.4150406122207642e+00" cType="1" res="2.2041969001293182e-02" rms="2.3167464137077332e-01" purity="6.7906469106674194e-01" nType="0">
          <Node pos="l" depth="2" NCoef="0" IVar="-1" Cut="0.0000000000000000e+00" cType="1" res="3.3300006762146950e-03" rms="1.9082714617252350e-01" purity="7.8649294376373291e-01" nType="-99"/>
          <Node pos="r" depth="2" NCoef="0" IVar="-1" Cut="0.0000000000000000e+00" cType="1" res="-1.2126843212172389e-03" rms="3.0464750528335571e-01" purity="4.2235681414604187e-01" nType="-99"/>
        </Node>
        <Node pos="r" depth="1" NCoef="0" IVar="37" Cut="-7.2390568256378174e-01" cType="1" res="-1.5752352774143219e-02" rms="2.4526718258857727e-01" purity="3.8026076555252075e-01" nType="0">
          <Node pos="l" depth="2" NCoef="0" IVar="-1" Cut="0.0000000000000000e+00" cType="1" res="-8.7451958097517490e-04" rms="2.5164970755577087e-01" purity="3.9964616298675537e-01" nType="-99"/>
          <Node pos="r" depth="2" NCoef="0" IVar="-1" Cut="0.0000000000000000e+00" cType="1" res="-9.7871413454413414e-03" rms="1.2202108651399612e-01" purity="1.3222819566726685e-01" nType="-99"/>
        </Node>
      </Node>
    </BinaryTree>
    <BinaryTree type="DecisionTree" boostWeight="1.0000000000000000e+00" itree="627">
      <Node pos="s" depth="0" NCoef="0" IVar="1" Cut="3.5791230201721191e+00" cType="1" res="1.0728193446993828e-03" rms="2.3524041473865509e-01" purity="5.0088852643966675e-01" nType="0">
        <Node pos="l" depth="1" NCoef="0" IVar="0" Cut="6.1715704202651978e-01" cType="1" res="-1.0100053623318672e-02" rms="2.3913308978080750e-01" purity="3.9519786834716797e-01" nType="0">
          <Node pos="l" depth="2" NCoef="0" IVar="-1" Cut="0.0000000000000000e+00" cType="1" res="4.6939283492974937e-04" rms="2.5070732831954956e-01" purity="4.6681547164916992e-01" nType="-99"/>
          <Node pos="r" depth="2" NCoef="0" IVar="-1" Cut="0.0000000000000000e+00" cType="1" res="-3.3401940017938614e-03" rms="2.1783453226089478e-01" purity="2.8510263562202454e-01" nType="-99"/>
        </Node>
        <Node pos="r" depth="1" NCoef="0" IVar="3" Cut="4.8139896392822266e+00" cType="1" res="3.7303436547517776e-02" rms="2.1824903786182404e-01" purity="8.4361487627029419e-01" nType="0">
          <Node pos="l" depth="2" NCoef="0" IVar="-1" Cut="0.0000000000000000e+00" cType="1" res="5.3238198161125183e-03" rms="1.6616883873939514e-01" purity="8.5316324234008789e-01" nType="-99"/>
          <Node pos="r" depth="2" NCoef="0" IVar="-1" Cut="0.0000000000000000e+00" cType="1" res="1.3540763175114989e-03" rms="2.6080963015556335e-01" purity="8.3350270986557007e-01" nType="-99"/>
        </Node>
      </Node>
    </BinaryTree>
    <BinaryTree type="DecisionTree" boostWeight="1.0000000000000000e+00" itree="628">
      <Node pos="s" depth="0" NCoef="0" IVar="64" Cut="1.2345679104328156e-02" cType="1" res="5.4319284572557081e-06" rms="2.3721209168434143e-01" purity="4.9769636988639832e-01" nType="0">
        <Node pos="l" depth="1" NCoef="0" IVar="2" Cut="1.7340836524963379e+00" cType="1" res="4.0485123172402382e-03" rms="2.3598241806030273e-01" purity="5.0781780481338501e-01" nType="0">
          <Node pos="l" depth="2" NCoef="0" IVar="-1" Cut="0.0000000000000000e+00" cType="1" res="-2.5741709396243095e-03" rms="1.8665055930614471e-01" purity="1.9180856645107269e-01" nType="-99"/>
          <Node pos="r" depth="2" NCoef="0" IVar="-1" Cut="0.0000000000000000e+00" cType="1" res="1.2236624024808407e-03" rms="2.4914474785327911e-01" purity="6.1171388626098633e-01" nType="-99"/>
        </Node>
        <Node pos="r" depth="1" NCoef="0" IVar="46" Cut="-1.1461304426193237e+00" cType="1" res="-9.1396503150463104e-02" rms="2.4637405574321747e-01" purity="2.6888042688369751e-01" nType="0">
          <Node pos="l" depth="2" NCoef="0" IVar="-1" Cut="0.0000000000000000e+00" cType="1" res="-1.4771060086786747e-02" rms="2.4876368045806885e-01" purity="1.5609456598758698e-01" nType="-99"/>
          <Node pos="r" depth="2" NCoef="0" IVar="-1" Cut="0.0000000000000000e+00" cType="1" res="-2.8039081953465939e-03" rms="2.2835177183151245e-01" purity="3.9497607946395874e-01" nType="-99"/>
        </Node>
      </Node>
    </BinaryTree>
    <BinaryTree type="DecisionTree" boostWeight="1.0000000000000000e+00" itree="629">
      <Node pos="s" depth="0" NCoef="0" IVar="53" Cut="1.4083480834960938e+00" cType="1" res="-1.2170576956123114e-03" rms="2.3733898997306824e-01" purity="4.9739724397659302e-01" nType="0">
        <Node pos="l" depth="1" NCoef="0" IVar="64" Cut="1.2345679104328156e-02" cType="1" res="1.8059592694044113e-03" rms="2.3928174376487732e-01" purity="5.0656867027282715e-01" nType="0">
          <Node pos="l" depth="2" NCoef="0" IVar="-1" Cut="0.0000000000000000e+00" cType="1" res="4.7098819050006568e-04" rms="2.3867875337600708e-01" purity="5.1633775234222412e-01" nType="-99"/>
          <Node pos="r" depth="2" NCoef="0" IVar="-1" Cut="0.0000000000000000e+00" cType="1" res="-8.7518710643053055e-03" rms="2.3585268855094910e-01" purity="2.8061619400978088e-01" nType="-99"/>
        </Node>
        <Node pos="r" depth="1" NCoef="0" IVar="-1" Cut="0.0000000000000000e+00" cType="1" res="-1.4797403477132320e-02" rms="1.8141875043511391e-02" purity="1.0894137620925903e-01" nType="-99"/>
      </Node>
    </BinaryTree>
    <BinaryTree type="DecisionTree" boostWeight="1.0000000000000000e+00" itree="630">
      <Node pos="s" depth="0" NCoef="0" IVar="25" Cut="2.2410314083099365e+00" cType="1" res="5.6925223907455802e-04" rms="2.3679372668266296e-01" purity="4.9812123179435730e-01" nType="0">
        <Node pos="l" depth="1" NCoef="0" IVar="0" Cut="6.9688224792480469e-01" cType="1" res="-1.7748506739735603e-02" rms="2.2242900729179382e-01" purity="3.0207067728042603e-01" nType="0">
          <Node pos="l" depth="2" NCoef="0" IVar="-1" Cut="0.0000000000000000e+00" cType="1" res="-9.8035467090085149e-05" rms="2.4375198781490326e-01" purity="3.6770597100257874e-01" nType="-99"/>
          <Node pos="r" depth="2" NCoef="0" IVar="-1" Cut="0.0000000000000000e+00" cType="1" res="-5.4908706806600094e-03" rms="1.6942715644836426e-01" purity="1.7517992854118347e-01" nType="-99"/>
        </Node>
        <Node pos="r" depth="1" NCoef="0" IVar="2" Cut="1.3557507991790771e+00" cType="1" res="2.0853104069828987e-02" rms="2.5018575787544250e-01" purity="7.1521443128585815e-01" nType="0">
          <Node pos="l" depth="2" NCoef="0" IVar="-1" Cut="0.0000000000000000e+00" cType="1" res="-4.4785626232624054e-03" rms="2.9845717549324036e-01" purity="2.5398761034011841e-01" nType="-99"/>
          <Node pos="r" depth="2" NCoef="0" IVar="-1" Cut="0.0000000000000000e+00" cType="1" res="2.1499968133866787e-03" rms="2.4649256467819214e-01" purity="7.3626500368118286e-01" nType="-99"/>
        </Node>
      </Node>
    </BinaryTree>
    <BinaryTree type="DecisionTree" boostWeight="1.0000000000000000e+00" itree="631">
      <Node pos="s" depth="0" NCoef="0" IVar="64" Cut="1.2345679104328156e-02" cType="1" res="1.7121920827776194e-03" rms="2.4038392305374146e-01" purity="5.0048339366912842e-01" nType="0">
        <Node pos="l" depth="1" NCoef="0" IVar="57" Cut="-1.8791928291320801e+00" cType="1" res="5.6428597308695316e-03" rms="2.4032133817672729e-01" purity="5.1053029298782349e-01" nType="0">
          <Node pos="l" depth="2" NCoef="0" IVar="-1" Cut="0.0000000000000000e+00" cType="1" res="1.7125062877312303e-03" rms="2.4503715336322784e-01" purity="5.7302969694137573e-01" nType="-99"/>
          <Node pos="r" depth="2" NCoef="0" IVar="-1" Cut="0.0000000000000000e+00" cType="1" res="-1.5326470602303743e-03" rms="2.3121802508831024e-01" purity="4.1715863347053528e-01" nType="-99"/>
        </Node>
        <Node pos="r" depth="1" NCoef="0" IVar="46" Cut="-1.1797550916671753e+00" cType="1" res="-8.8632032275199890e-02" rms="2.2351469099521637e-01" purity="2.6956135034561157e-01" nType="0">
          <Node pos="l" depth="2" NCoef="0" IVar="-1" Cut="0.0000000000000000e+00" cType="1" res="-1.5231598168611526e-02" rms="2.3881557583808899e-01" purity="1.4756827056407928e-01" nType="-99"/>
          <Node pos="r" depth="2" NCoef="0" IVar="-1" Cut="0.0000000000000000e+00" cType="1" res="-2.4983263574540615e-03" rms="1.8711759150028229e-01" purity="3.9685279130935669e-01" nType="-99"/>
        </Node>
      </Node>
    </BinaryTree>
    <BinaryTree type="DecisionTree" boostWeight="1.0000000000000000e+00" itree="632">
      <Node pos="s" depth="0" NCoef="0" IVar="17" Cut="-1.0227296352386475e+00" cType="1" res="-5.1983218872919679e-04" rms="2.3713067173957825e-01" purity="4.9778854846954346e-01" nType="0">
        <Node pos="l" depth="1" NCoef="0" IVar="14" Cut="-1.4150160551071167e+00" cType="1" res="5.8518233709037304e-03" rms="2.3894688487052917e-01" purity="5.2237004041671753e-01" nType="0">
          <Node pos="l" depth="2" NCoef="0" IVar="-1" Cut="0.0000000000000000e+00" cType="1" res="-1.4438518323004246e-02" rms="0.0000000000000000e+00" purity="-1.2231606058776379e-02" nType="-99"/>
          <Node pos="r" depth="2" NCoef="0" IVar="-1" Cut="0.0000000000000000e+00" cType="1" res="1.1222532484680414e-03" rms="2.7398535609245300e-01" purity="6.5651077032089233e-01" nType="-99"/>
        </Node>
        <Node pos="r" depth="1" NCoef="0" IVar="65" Cut="6.8416738510131836e-01" cType="1" res="-5.8451298624277115e-02" rms="2.1129183471202850e-01" purity="2.7429249882698059e-01" nType="0">
          <Node pos="l" depth="2" NCoef="0" IVar="-1" Cut="0.0000000000000000e+00" cType="1" res="-4.2828768491744995e-03" rms="2.3906977474689484e-01" purity="3.3097776770591736e-01" nType="-99"/>
          <Node pos="r" depth="2" NCoef="0" IVar="-1" Cut="0.0000000000000000e+00" cType="1" res="-1.2008561752736568e-02" rms="0.0000000000000000e+00" purity="7.8026950359344482e-02" nType="-99"/>
        </Node>
      </Node>
    </BinaryTree>
    <BinaryTree type="DecisionTree" boostWeight="1.0000000000000000e+00" itree="633">
      <Node pos="s" depth="0" NCoef="0" IVar="44" Cut="1.2345679104328156e-02" cType="1" res="-1.8296502530574799e-03" rms="2.3965893685817719e-01" purity="4.9655398726463318e-01" nType="0">
        <Node pos="l" depth="1" NCoef="0" IVar="54" Cut="1.4478938579559326e+00" cType="1" res="2.5757462717592716e-03" rms="2.3649255931377411e-01" purity="5.0804859399795532e-01" nType="0">
          <Node pos="l" depth="2" NCoef="0" IVar="-1" Cut="0.0000000000000000e+00" cType="1" res="7.4702146230265498e-04" rms="2.3993493616580963e-01" purity="5.4809796810150146e-01" nType="-99"/>
          <Node pos="r" depth="2" NCoef="0" IVar="-1" Cut="0.0000000000000000e+00" cType="1" res="-8.4355194121599197e-03" rms="1.7888914048671722e-01" purity="6.2993079423904419e-02" nType="-99"/>
        </Node>
        <Node pos="r" depth="1" NCoef="0" IVar="14" Cut="6.7340081930160522e-01" cType="1" res="-8.8500738143920898e-02" rms="2.8143301606178284e-01" purity="2.7041107416152954e-01" nType="0">
          <Node pos="l" depth="2" NCoef="0" IVar="-1" Cut="0.0000000000000000e+00" cType="1" res="-7.4441186152398586e-03" rms="6.7953914403915405e-02" purity="2.3502776399254799e-02" nType="-99"/>
          <Node pos="r" depth="2" NCoef="0" IVar="-1" Cut="0.0000000000000000e+00" cType="1" res="-8.8418731465935707e-03" rms="3.5830837488174438e-01" purity="4.4634306430816650e-01" nType="-99"/>
        </Node>
      </Node>
    </BinaryTree>
    <BinaryTree type="DecisionTree" boostWeight="1.0000000000000000e+00" itree="634">
      <Node pos="s" depth="0" NCoef="0" IVar="17" Cut="-1.4400670528411865e+00" cType="1" res="2.4371464678552002e-04" rms="2.3760166764259338e-01" purity="4.9649617075920105e-01" nType="0">
        <Node pos="l" depth="1" NCoef="0" IVar="54" Cut="1.1771175861358643e+00" cType="1" res="1.0127829387784004e-02" rms="2.3956207931041718e-01" purity="5.3612881898880005e-01" nType="0">
          <Node pos="l" depth="2" NCoef="0" IVar="-1" Cut="0.0000000000000000e+00" cType="1" res="1.4905220596119761e-03" rms="2.3866820335388184e-01" purity="5.9865576028823853e-01" nType="-99"/>
          <Node pos="r" depth="2" NCoef="0" IVar="-1" Cut="0.0000000000000000e+00" cType="1" res="-4.2294906452298164e-03" rms="2.3837438225746155e-01" purity="1.4079764485359192e-01" nType="-99"/>
        </Node>
        <Node pos="r" depth="1" NCoef="0" IVar="5" Cut="1.5484069585800171e+00" cType="1" res="-3.7932306528091431e-02" rms="2.2584685683250427e-01" purity="3.4342044591903687e-01" nType="0">
          <Node pos="l" depth="2" NCoef="0" IVar="-1" Cut="0.0000000000000000e+00" cType="1" res="-9.5892800018191338e-03" rms="3.9962727576494217e-02" purity="8.4077991545200348e-02" nType="-99"/>
          <Node pos="r" depth="2" NCoef="0" IVar="-1" Cut="0.0000000000000000e+00" cType="1" res="-1.6116343904286623e-03" rms="2.7191448211669922e-01" purity="4.6894070506095886e-01" nType="-99"/>
        </Node>
      </Node>
    </BinaryTree>
    <BinaryTree type="DecisionTree" boostWeight="1.0000000000000000e+00" itree="635">
      <Node pos="s" depth="0" NCoef="0" IVar="64" Cut="1.2345679104328156e-02" cType="1" res="1.0898479958996177e-03" rms="2.3616993427276611e-01" purity="5.0071877241134644e-01" nType="0">
        <Node pos="l" depth="1" NCoef="0" IVar="54" Cut="1.2534822225570679e+00" cType="1" res="5.1627103239297867e-03" rms="2.3537483811378479e-01" purity="5.1007717847824097e-01" nType="0">
          <Node pos="l" depth="2" NCoef="0" IVar="-1" Cut="0.0000000000000000e+00" cType="1" res="1.0887316893786192e-03" rms="2.3677860200405121e-01" purity="5.7054734230041504e-01" nType="-99"/>
          <Node pos="r" depth="2" NCoef="0" IVar="-1" Cut="0.0000000000000000e+00" cType="1" res="-5.0291265361011028e-03" rms="2.1862505376338959e-01" purity="1.1399485170841217e-01" nType="-99"/>
        </Node>
        <Node pos="r" depth="1" NCoef="0" IVar="46" Cut="-1.1616406440734863e+00" cType="1" res="-9.1699525713920593e-02" rms="2.3522345721721649e-01" purity="2.8751206398010254e-01" nType="0">
          <Node pos="l" depth="2" NCoef="0" IVar="-1" Cut="0.0000000000000000e+00" cType="1" res="-1.5192567370831966e-02" rms="2.3815637826919556e-01" purity="1.6939879953861237e-01" nType="-99"/>
          <Node pos="r" depth="2" NCoef="0" IVar="-1" Cut="0.0000000000000000e+00" cType="1" res="-2.8407708741724491e-03" rms="2.1652798354625702e-01" purity="4.1789373755455017e-01" nType="-99"/>
        </Node>
      </Node>
    </BinaryTree>
    <BinaryTree type="DecisionTree" boostWeight="1.0000000000000000e+00" itree="636">
      <Node pos="s" depth="0" NCoef="0" IVar="65" Cut="7.5197696685791016e-01" cType="1" res="2.8904455248266459e-03" rms="2.3683615028858185e-01" purity="5.0208306312561035e-01" nType="0">
        <Node pos="l" depth="1" NCoef="0" IVar="25" Cut="9.6686375141143799e-01" cType="1" res="8.1675322726368904e-03" rms="2.4336309731006622e-01" purity="5.3063726425170898e-01" nType="0">
          <Node pos="l" depth="2" NCoef="0" IVar="-1" Cut="0.0000000000000000e+00" cType="1" res="-6.9705215282738209e-03" rms="1.1324039846658707e-01" purity="6.6020913422107697e-02" nType="-99"/>
          <Node pos="r" depth="2" NCoef="0" IVar="-1" Cut="0.0000000000000000e+00" cType="1" res="1.1537047103047371e-03" rms="2.5295019149780273e-01" purity="5.8236712217330933e-01" nType="-99"/>
        </Node>
        <Node pos="r" depth="1" NCoef="0" IVar="23" Cut="9.2283946275711060e-01" cType="1" res="-6.3695192337036133e-02" rms="1.0843878984451294e-01" purity="1.4178983867168427e-01" nType="0">
          <Node pos="l" depth="2" NCoef="0" IVar="-1" Cut="0.0000000000000000e+00" cType="1" res="-1.9293989753350616e-03" rms="2.0310184359550476e-01" purity="2.1914936602115631e-01" nType="-99"/>
          <Node pos="r" depth="2" NCoef="0" IVar="-1" Cut="0.0000000000000000e+00" cType="1" res="-1.0867309756577015e-02" rms="0.0000000000000000e+00" purity="9.1517925262451172e-02" nType="-99"/>
        </Node>
      </Node>
    </BinaryTree>
    <BinaryTree type="DecisionTree" boostWeight="1.0000000000000000e+00" itree="637">
      <Node pos="s" depth="0" NCoef="0" IVar="45" Cut="9.2486190795898438e-01" cType="1" res="1.7703336197882891e-03" rms="2.3836456239223480e-01" purity="5.0033003091812134e-01" nType="0">
        <Node pos="l" depth="1" NCoef="0" IVar="49" Cut="2.8244237899780273e+00" cType="1" res="-5.6100603193044662e-02" rms="9.7317427396774292e-02" purity="5.7878814637660980e-02" nType="0">
          <Node pos="l" depth="2" NCoef="0" IVar="-1" Cut="0.0000000000000000e+00" cType="1" res="-1.2326224707067013e-02" rms="0.0000000000000000e+00" purity="1.6752520576119423e-02" nType="-99"/>
          <Node pos="r" depth="2" NCoef="0" IVar="-1" Cut="0.0000000000000000e+00" cType="1" res="2.4146129726432264e-04" rms="2.0156371593475342e-01" purity="1.8040169775485992e-01" nType="-99"/>
        </Node>
        <Node pos="r" depth="1" NCoef="0" IVar="54" Cut="5.9678369760513306e-01" cType="1" res="7.5997659005224705e-03" rms="2.4741798639297485e-01" purity="5.4489886760711670e-01" nType="0">
          <Node pos="l" depth="2" NCoef="0" IVar="-1" Cut="0.0000000000000000e+00" cType="1" res="1.3211091281846166e-03" rms="2.4430590867996216e-01" purity="6.1834716796875000e-01" nType="-99"/>
          <Node pos="r" depth="2" NCoef="0" IVar="-1" Cut="0.0000000000000000e+00" cType="1" res="-3.2317093573510647e-03" rms="2.5757625699043274e-01" purity="1.8813456594944000e-01" nType="-99"/>
        </Node>
      </Node>
    </BinaryTree>
    <BinaryTree type="DecisionTree" boostWeight="1.0000000000000000e+00" itree="638">
      <Node pos="s" depth="0" NCoef="0" IVar="2" Cut="1.6246234178543091e+00" cType="1" res="9.5714331837370992e-04" rms="2.3423473536968231e-01" purity="5.0059431791305542e-01" nType="0">
        <Node pos="l" depth="1" NCoef="0" IVar="2" Cut="5.0235676765441895e-01" cType="1" res="-3.8651466369628906e-02" rms="1.6967351734638214e-01" purity="1.6530723869800568e-01" nType="0">
          <Node pos="l" depth="2" NCoef="0" IVar="-1" Cut="0.0000000000000000e+00" cType="1" res="-8.2175992429256439e-03" rms="0.0000000000000000e+00" purity="-3.8631472736597061e-02" nType="-99"/>
          <Node pos="r" depth="2" NCoef="0" IVar="-1" Cut="0.0000000000000000e+00" cType="1" res="-2.7788793668150902e-03" rms="1.9018222391605377e-01" purity="1.8914358317852020e-01" nType="-99"/>
        </Node>
        <Node pos="r" depth="1" NCoef="0" IVar="1" Cut="2.2872858047485352e+00" cType="1" res="1.0889182798564434e-02" rms="2.4680508673191071e-01" purity="5.8466911315917969e-01" nType="0">
          <Node pos="l" depth="2" NCoef="0" IVar="-1" Cut="0.0000000000000000e+00" cType="1" res="-6.6292751580476761e-03" rms="8.1473901867866516e-02" purity="5.5971968919038773e-02" nType="-99"/>
          <Node pos="r" depth="2" NCoef="0" IVar="-1" Cut="0.0000000000000000e+00" cType="1" res="1.4683197950944304e-03" rms="2.6026654243469238e-01" purity="6.5587896108627319e-01" nType="-99"/>
        </Node>
      </Node>
    </BinaryTree>
    <BinaryTree type="DecisionTree" boostWeight="1.0000000000000000e+00" itree="639">
      <Node pos="s" depth="0" NCoef="0" IVar="44" Cut="1.2345679104328156e-02" cType="1" res="2.6731742545962334e-03" rms="2.3971794545650482e-01" purity="4.9930107593536377e-01" nType="0">
        <Node pos="l" depth="1" NCoef="0" IVar="0" Cut="9.7538942098617554e-01" cType="1" res="6.7643974907696247e-03" rms="2.3771136999130249e-01" purity="5.1137149333953857e-01" nType="0">
          <Node pos="l" depth="2" NCoef="0" IVar="-1" Cut="0.0000000000000000e+00" cType="1" res="1.0897469474002719e-03" rms="2.3713132739067078e-01" purity="5.3296238183975220e-01" nType="-99"/>
          <Node pos="r" depth="2" NCoef="0" IVar="-1" Cut="0.0000000000000000e+00" cType="1" res="-4.2247003875672817e-03" rms="2.3630905151367188e-01" purity="3.3814150094985962e-01" nType="-99"/>
        </Node>
        <Node pos="r" depth="1" NCoef="0" IVar="26" Cut="-1.1984502077102661e+00" cType="1" res="-7.9451940953731537e-02" rms="2.6384556293487549e-01" purity="2.5700530409812927e-01" nType="0">
          <Node pos="l" depth="2" NCoef="0" IVar="-1" Cut="0.0000000000000000e+00" cType="1" res="-1.2658094987273216e-02" rms="2.8655228018760681e-01" purity="1.7317092418670654e-01" nType="-99"/>
          <Node pos="r" depth="2" NCoef="0" IVar="-1" Cut="0.0000000000000000e+00" cType="1" res="-1.8936485284939408e-03" rms="2.1732813119888306e-01" purity="3.6533749103546143e-01" nType="-99"/>
        </Node>
      </Node>
    </BinaryTree>
    <BinaryTree type="DecisionTree" boostWeight="1.0000000000000000e+00" itree="640">
      <Node pos="s" depth="0" NCoef="0" IVar="34" Cut="-8.3500993251800537e-01" cType="1" res="7.8402098733931780e-04" rms="2.3763650655746460e-01" purity="4.9736914038658142e-01" nType="0">
        <Node pos="l" depth="1" NCoef="0" IVar="65" Cut="7.7474576234817505e-01" cType="1" res="1.2226558290421963e-02" rms="2.3537561297416687e-01" purity="5.8853781223297119e-01" nType="0">
          <Node pos="l" depth="2" NCoef="0" IVar="-1" Cut="0.0000000000000000e+00" cType="1" res="1.4188498025760055e-03" rms="2.3656965792179108e-01" purity="6.1179679632186890e-01" nType="-99"/>
          <Node pos="r" depth="2" NCoef="0" IVar="-1" Cut="0.0000000000000000e+00" cType="1" res="-7.1625276468694210e-03" rms="1.9162164628505707e-01" purity="1.6673529148101807e-01" nType="-99"/>
        </Node>
        <Node pos="r" depth="1" NCoef="0" IVar="34" Cut="1.4739125967025757e+00" cType="1" res="-3.3480565994977951e-02" rms="2.4105471372604370e-01" purity="2.2436524927616119e-01" nType="0">
          <Node pos="l" depth="2" NCoef="0" IVar="-1" Cut="0.0000000000000000e+00" cType="1" res="-1.5054433606564999e-03" rms="2.6406493782997131e-01" purity="2.9703846573829651e-01" nType="-99"/>
          <Node pos="r" depth="2" NCoef="0" IVar="-1" Cut="0.0000000000000000e+00" cType="1" res="-9.3680573627352715e-03" rms="1.6808910667896271e-01" purity="4.9732949584722519e-02" nType="-99"/>
        </Node>
      </Node>
    </BinaryTree>
    <BinaryTree type="DecisionTree" boostWeight="1.0000000000000000e+00" itree="641">
      <Node pos="s" depth="0" NCoef="0" IVar="0" Cut="9.0380644798278809e-01" cType="1" res="1.3498914195224643e-03" rms="2.3633341491222382e-01" purity="4.9999457597732544e-01" nType="0">
        <Node pos="l" depth="1" NCoef="0" IVar="14" Cut="-1.4537136554718018e+00" cType="1" res="9.4260582700371742e-03" rms="2.3723259568214417e-01" purity="5.2880835533142090e-01" nType="0">
          <Node pos="l" depth="2" NCoef="0" IVar="-1" Cut="0.0000000000000000e+00" cType="1" res="-1.5318986959755421e-02" rms="0.0000000000000000e+00" purity="-1.3515408150851727e-02" nType="-99"/>
          <Node pos="r" depth="2" NCoef="0" IVar="-1" Cut="0.0000000000000000e+00" cType="1" res="1.3518439373001456e-03" rms="2.6793453097343445e-01" purity="6.4850550889968872e-01" nType="-99"/>
        </Node>
        <Node pos="r" depth="1" NCoef="0" IVar="4" Cut="3.5683381557464600e+00" cType="1" res="-4.3688338249921799e-02" rms="2.2602345049381256e-01" purity="3.3930930495262146e-01" nType="0">
          <Node pos="l" depth="2" NCoef="0" IVar="-1" Cut="0.0000000000000000e+00" cType="1" res="-1.1388310231268406e-02" rms="9.8191402852535248e-02" purity="1.3865448534488678e-01" nType="-99"/>
          <Node pos="r" depth="2" NCoef="0" IVar="-1" Cut="0.0000000000000000e+00" cType="1" res="-1.5515092527493834e-03" rms="2.6460227370262146e-01" purity="4.4052934646606445e-01" nType="-99"/>
        </Node>
      </Node>
    </BinaryTree>
    <BinaryTree type="DecisionTree" boostWeight="1.0000000000000000e+00" itree="642">
      <Node pos="s" depth="0" NCoef="0" IVar="37" Cut="-9.3128281831741333e-01" cType="1" res="8.3477312000468373e-04" rms="2.3739588260650635e-01" purity="4.9831286072731018e-01" nType="0">
        <Node pos="l" depth="1" NCoef="0" IVar="36" Cut="1.4469249248504639e+00" cType="1" res="7.6097468845546246e-03" rms="2.4235875904560089e-01" purity="5.2428257465362549e-01" nType="0">
          <Node pos="l" depth="2" NCoef="0" IVar="-1" Cut="0.0000000000000000e+00" cType="1" res="1.0777506977319717e-03" rms="2.4326981604099274e-01" purity="5.6332373619079590e-01" nType="-99"/>
          <Node pos="r" depth="2" NCoef="0" IVar="-1" Cut="0.0000000000000000e+00" cType="1" res="-6.1622224748134613e-03" rms="2.2179685533046722e-01" purity="7.3149971663951874e-02" nType="-99"/>
        </Node>
        <Node pos="r" depth="1" NCoef="0" IVar="25" Cut="1.4761755466461182e+00" cType="1" res="-6.6300630569458008e-02" rms="1.6673657298088074e-01" purity="2.4097044765949249e-01" nType="0">
          <Node pos="l" depth="2" NCoef="0" IVar="-1" Cut="0.0000000000000000e+00" cType="1" res="-1.6597509384155273e-02" rms="0.0000000000000000e+00" purity="3.6538226995617151e-03" nType="-99"/>
          <Node pos="r" depth="2" NCoef="0" IVar="-1" Cut="0.0000000000000000e+00" cType="1" res="-3.5774274729192257e-03" rms="2.6480716466903687e-01" purity="3.9168787002563477e-01" nType="-99"/>
        </Node>
      </Node>
    </BinaryTree>
    <BinaryTree type="DecisionTree" boostWeight="1.0000000000000000e+00" itree="643">
      <Node pos="s" depth="0" NCoef="0" IVar="25" Cut="1.1411215066909790e+00" cType="1" res="1.7921918770298362e-03" rms="2.3568929731845856e-01" purity="5.0025999546051025e-01" nType="0">
        <Node pos="l" depth="1" NCoef="0" IVar="29" Cut="2.8588795661926270e+00" cType="1" res="-4.7951478511095047e-02" rms="1.0606048256158829e-01" purity="8.8917508721351624e-02" nType="0">
          <Node pos="l" depth="2" NCoef="0" IVar="-1" Cut="0.0000000000000000e+00" cType="1" res="-1.0462131351232529e-02" rms="0.0000000000000000e+00" purity="3.8282278925180435e-02" nType="-99"/>
          <Node pos="r" depth="2" NCoef="0" IVar="-1" Cut="0.0000000000000000e+00" cType="1" res="1.2106855865567923e-03" rms="2.3018164932727814e-01" purity="2.1504040062427521e-01" nType="-99"/>
        </Node>
        <Node pos="r" depth="1" NCoef="0" IVar="65" Cut="7.7441567182540894e-01" cType="1" res="9.7118588164448738e-03" rms="2.4929070472717285e-01" purity="5.6574970483779907e-01" nType="0">
          <Node pos="l" depth="2" NCoef="0" IVar="-1" Cut="0.0000000000000000e+00" cType="1" res="1.1704262578859925e-03" rms="2.5230169296264648e-01" purity="5.9139394760131836e-01" nType="-99"/>
          <Node pos="r" depth="2" NCoef="0" IVar="-1" Cut="0.0000000000000000e+00" cType="1" res="-7.5916512869298458e-03" rms="1.7276684939861298e-01" purity="1.3832074403762817e-01" nType="-99"/>
        </Node>
      </Node>
    </BinaryTree>
    <BinaryTree type="DecisionTree" boostWeight="1.0000000000000000e+00" itree="644">
      <Node pos="s" depth="0" NCoef="0" IVar="2" Cut="5.7250368595123291e-01" cType="1" res="2.6223419699817896e-03" rms="2.4129529297351837e-01" purity="4.9765211343765259e-01" nType="0">
        <Node pos="l" depth="1" NCoef="0" IVar="-1" Cut="0.0000000000000000e+00" cType="1" res="-8.9635495096445084e-03" rms="0.0000000000000000e+00" purity="-4.4916197657585144e-02" nType="-99"/>
        <Node pos="r" depth="1" NCoef="0" IVar="65" Cut="7.7441567182540894e-01" cType="1" res="5.6860316544771194e-03" rms="2.4555800855159760e-01" purity="5.1080435514450073e-01" nType="0">
          <Node pos="l" depth="2" NCoef="0" IVar="-1" Cut="0.0000000000000000e+00" cType="1" res="8.7686709593981504e-04" rms="2.4937593936920166e-01" purity="5.3440892696380615e-01" nType="-99"/>
          <Node pos="r" depth="2" NCoef="0" IVar="-1" Cut="0.0000000000000000e+00" cType="1" res="-7.7616563066840172e-03" rms="1.5171405673027039e-01" purity="1.2216088920831680e-01" nType="-99"/>
        </Node>
      </Node>
    </BinaryTree>
    <BinaryTree type="DecisionTree" boostWeight="1.0000000000000000e+00" itree="645">
      <Node pos="s" depth="0" NCoef="0" IVar="25" Cut="1.1203368902206421e+00" cType="1" res="3.1434257980436087e-03" rms="2.3859645426273346e-01" purity="4.9958559870719910e-01" nType="0">
        <Node pos="l" depth="1" NCoef="0" IVar="29" Cut="2.9579660892486572e+00" cType="1" res="-4.4027809053659439e-02" rms="1.2080341577529907e-01" purity="8.6942121386528015e-02" nType="0">
          <Node pos="l" depth="2" NCoef="0" IVar="-1" Cut="0.0000000000000000e+00" cType="1" res="-9.3281874433159828e-03" rms="5.4014556109905243e-02" purity="4.5548152178525925e-02" nType="-99"/>
          <Node pos="r" depth="2" NCoef="0" IVar="-1" Cut="0.0000000000000000e+00" cType="1" res="2.5074568111449480e-03" rms="2.2700192034244537e-01" purity="2.4020333588123322e-01" nType="-99"/>
        </Node>
        <Node pos="r" depth="1" NCoef="0" IVar="34" Cut="7.5087457895278931e-01" cType="1" res="1.0440270416438580e-02" rms="2.5115638971328735e-01" purity="5.6341671943664551e-01" nType="0">
          <Node pos="l" depth="2" NCoef="0" IVar="-1" Cut="0.0000000000000000e+00" cType="1" res="1.5446136239916086e-03" rms="2.4904991686344147e-01" purity="6.3403040170669556e-01" nType="-99"/>
          <Node pos="r" depth="2" NCoef="0" IVar="-1" Cut="0.0000000000000000e+00" cType="1" res="-3.1830666121095419e-03" rms="2.5697949528694153e-01" purity="1.9283863902091980e-01" nType="-99"/>
        </Node>
      </Node>
    </BinaryTree>
    <BinaryTree type="DecisionTree" boostWeight="1.0000000000000000e+00" itree="646">
      <Node pos="s" depth="0" NCoef="0" IVar="14" Cut="1.5258079767227173e+00" cType="1" res="2.6421262882649899e-03" rms="2.3575046658515930e-01" purity="5.0050032138824463e-01" nType="0">
        <Node pos="l" depth="1" NCoef="0" IVar="1" Cut="1.9922486543655396e+00" cType="1" res="-1.2055747210979462e-02" rms="2.3403733968734741e-01" purity="3.4863981604576111e-01" nType="0">
          <Node pos="l" depth="2" NCoef="0" IVar="-1" Cut="0.0000000000000000e+00" cType="1" res="-2.0664205774664879e-02" rms="0.0000000000000000e+00" purity="-2.9867175966501236e-02" nType="-99"/>
          <Node pos="r" depth="2" NCoef="0" IVar="-1" Cut="0.0000000000000000e+00" cType="1" res="-3.4068565582856536e-04" rms="2.6331481337547302e-01" purity="4.0761798620223999e-01" nType="-99"/>
        </Node>
        <Node pos="r" depth="1" NCoef="0" IVar="36" Cut="1.4858274459838867e+00" cType="1" res="2.9806846752762794e-02" rms="2.3649214208126068e-01" purity="7.8117007017135620e-01" nType="0">
          <Node pos="l" depth="2" NCoef="0" IVar="-1" Cut="0.0000000000000000e+00" cType="1" res="2.7681500650942326e-03" rms="2.2594432532787323e-01" purity="8.2212173938751221e-01" nType="-99"/>
          <Node pos="r" depth="2" NCoef="0" IVar="-1" Cut="0.0000000000000000e+00" cType="1" res="-5.2629178389906883e-03" rms="3.4918963909149170e-01" purity="1.2610156834125519e-01" nType="-99"/>
        </Node>
      </Node>
    </BinaryTree>
    <BinaryTree type="DecisionTree" boostWeight="1.0000000000000000e+00" itree="647">
      <Node pos="s" depth="0" NCoef="0" IVar="34" Cut="1.4473505020141602e+00" cType="1" res="3.0345469713211060e-03" rms="2.3729361593723297e-01" purity="5.0385403633117676e-01" nType="0">
        <Node pos="l" depth="1" NCoef="0" IVar="0" Cut="6.2816345691680908e-01" cType="1" res="8.5460664704442024e-03" rms="2.4018450081348419e-01" purity="5.4484158754348755e-01" nType="0">
          <Node pos="l" depth="2" NCoef="0" IVar="-1" Cut="0.0000000000000000e+00" cType="1" res="1.8833142239600420e-03" rms="2.4216970801353455e-01" purity="6.1107724905014038e-01" nType="-99"/>
          <Node pos="r" depth="2" NCoef="0" IVar="-1" Cut="0.0000000000000000e+00" cType="1" res="-1.5909655485302210e-03" rms="2.3449075222015381e-01" purity="4.3243309855461121e-01" nType="-99"/>
        </Node>
        <Node pos="r" depth="1" NCoef="0" IVar="36" Cut="1.4087480306625366e+00" cType="1" res="-5.5695198476314545e-02" rms="1.9449131190776825e-01" purity="6.7098006606101990e-02" nType="0">
          <Node pos="l" depth="2" NCoef="0" IVar="-1" Cut="0.0000000000000000e+00" cType="1" res="-1.0988747701048851e-02" rms="2.3691476881504059e-01" purity="1.1201225221157074e-01" nType="-99"/>
          <Node pos="r" depth="2" NCoef="0" IVar="-1" Cut="0.0000000000000000e+00" cType="1" res="-4.6602636575698853e-03" rms="1.6854864358901978e-01" purity="4.9039419740438461e-02" nType="-99"/>
        </Node>
      </Node>
    </BinaryTree>
    <BinaryTree type="DecisionTree" boostWeight="1.0000000000000000e+00" itree="648">
      <Node pos="s" depth="0" NCoef="0" IVar="32" Cut="-1.5312021970748901e+00" cType="1" res="2.6274018455296755e-03" rms="2.3891812562942505e-01" purity="5.0130134820938110e-01" nType="0">
        <Node pos="l" depth="1" NCoef="0" IVar="56" Cut="1.2920519113540649e+00" cType="1" res="2.4780433624982834e-02" rms="2.2595143318176270e-01" purity="6.8654531240463257e-01" nType="0">
          <Node pos="l" depth="2" NCoef="0" IVar="-1" Cut="0.0000000000000000e+00" cType="1" res="2.7070278301835060e-03" rms="2.1874730288982391e-01" purity="7.3801541328430176e-01" nType="-99"/>
          <Node pos="r" depth="2" NCoef="0" IVar="-1" Cut="0.0000000000000000e+00" cType="1" res="-3.8997824303805828e-03" rms="2.7818244695663452e-01" purity="1.7128939926624298e-01" nType="-99"/>
        </Node>
        <Node pos="r" depth="1" NCoef="0" IVar="2" Cut="2.6294374465942383e+00" cType="1" res="-1.1861675418913364e-02" rms="2.4595411121845245e-01" purity="3.8014349341392517e-01" nType="0">
          <Node pos="l" depth="2" NCoef="0" IVar="-1" Cut="0.0000000000000000e+00" cType="1" res="-2.1154675632715225e-03" rms="2.2275157272815704e-01" purity="2.6270401477813721e-01" nType="-99"/>
          <Node pos="r" depth="2" NCoef="0" IVar="-1" Cut="0.0000000000000000e+00" cType="1" res="1.2962442124262452e-03" rms="2.9524257779121399e-01" purity="6.8091994524002075e-01" nType="-99"/>
        </Node>
      </Node>
    </BinaryTree>
    <BinaryTree type="DecisionTree" boostWeight="1.0000000000000000e+00" itree="649">
      <Node pos="s" depth="0" NCoef="0" IVar="14" Cut="1.4865543842315674e+00" cType="1" res="2.3093202617019415e-03" rms="2.3727633059024811e-01" purity="5.0170171260833740e-01" nType="0">
        <Node pos="l" depth="1" NCoef="0" IVar="65" Cut="6.1751896142959595e-01" cType="1" res="-1.5838555991649628e-02" rms="2.2236968576908112e-01" purity="2.4174585938453674e-01" nType="0">
          <Node pos="l" depth="2" NCoef="0" IVar="-1" Cut="0.0000000000000000e+00" cType="1" res="-2.3807115212548524e-04" rms="2.4547556042671204e-01" purity="2.8905645012855530e-01" nType="-99"/>
          <Node pos="r" depth="2" NCoef="0" IVar="-1" Cut="0.0000000000000000e+00" cType="1" res="-6.3544269651174545e-03" rms="1.3934741914272308e-01" purity="1.1772191524505615e-01" nType="-99"/>
        </Node>
        <Node pos="r" depth="1" NCoef="0" IVar="56" Cut="1.4854199886322021e+00" cType="1" res="2.0262774080038071e-02" rms="2.4986054003238678e-01" purity="7.5887256860733032e-01" nType="0">
          <Node pos="l" depth="2" NCoef="0" IVar="-1" Cut="0.0000000000000000e+00" cType="1" res="1.9552342128008604e-03" rms="2.4502861499786377e-01" purity="8.0043542385101318e-01" nType="-99"/>
          <Node pos="r" depth="2" NCoef="0" IVar="-1" Cut="0.0000000000000000e+00" cType="1" res="-5.8882716111838818e-03" rms="3.0030310153961182e-01" purity="1.0029030591249466e-01" nType="-99"/>
        </Node>
      </Node>
    </BinaryTree>
    <BinaryTree type="DecisionTree" boostWeight="1.0000000000000000e+00" itree="650">
      <Node pos="s" depth="0" NCoef="0" IVar="14" Cut="1.6666870564222336e-02" cType="1" res="3.1589446007274091e-04" rms="2.3433333635330200e-01" purity="5.0008463859558105e-01" nType="0">
        <Node pos="l" depth="1" NCoef="0" IVar="2" Cut="2.1215436458587646e+00" cType="1" res="-2.8969939798116684e-02" rms="9.4197869300842285e-02" purity="5.0897851586341858e-02" nType="0">
          <Node pos="l" depth="2" NCoef="0" IVar="-1" Cut="0.0000000000000000e+00" cType="1" res="-1.7927385866641998e-02" rms="0.0000000000000000e+00" purity="-1.8533570691943169e-02" nType="-99"/>
          <Node pos="r" depth="2" NCoef="0" IVar="-1" Cut="0.0000000000000000e+00" cType="1" res="1.1956042144447565e-03" rms="2.6691311597824097e-01" purity="1.5153908729553223e-01" nType="-99"/>
        </Node>
        <Node pos="r" depth="1" NCoef="0" IVar="56" Cut="1.5240936279296875e+00" cType="1" res="1.2574417516589165e-02" rms="2.7142933011054993e-01" purity="6.8810617923736572e-01" nType="0">
          <Node pos="l" depth="2" NCoef="0" IVar="-1" Cut="0.0000000000000000e+00" cType="1" res="1.1622272431850433e-03" rms="2.7152460813522339e-01" purity="7.1078521013259888e-01" nType="-99"/>
          <Node pos="r" depth="2" NCoef="0" IVar="-1" Cut="0.0000000000000000e+00" cType="1" res="-8.9578200131654739e-03" rms="2.4131441116333008e-01" purity="4.5395988970994949e-02" nType="-99"/>
        </Node>
      </Node>
    </BinaryTree>
    <BinaryTree type="DecisionTree" boostWeight="1.0000000000000000e+00" itree="651">
      <Node pos="s" depth="0" NCoef="0" IVar="57" Cut="-1.6071280241012573e+00" cType="1" res="1.3890315312892199e-03" rms="2.3731355369091034e-01" purity="5.0191831588745117e-01" nType="0">
        <Node pos="l" depth="1" NCoef="0" IVar="56" Cut="1.4850335121154785e+00" cType="1" res="1.3302625156939030e-02" rms="2.4140918254852295e-01" purity="5.5228430032730103e-01" nType="0">
          <Node pos="l" depth="2" NCoef="0" IVar="-1" Cut="0.0000000000000000e+00" cType="1" res="1.5198072651401162e-03" rms="2.4212230741977692e-01" purity="5.8560675382614136e-01" nType="-99"/>
          <Node pos="r" depth="2" NCoef="0" IVar="-1" Cut="0.0000000000000000e+00" cType="1" res="-7.2935903444886208e-03" rms="2.1618045866489410e-01" purity="5.5579423904418945e-02" nType="-99"/>
        </Node>
        <Node pos="r" depth="1" NCoef="0" IVar="2" Cut="1.1742126941680908e+00" cType="1" res="-2.8785806149244308e-02" rms="2.2378940880298615e-01" purity="3.7435075640678406e-01" nType="0">
          <Node pos="l" depth="2" NCoef="0" IVar="-1" Cut="0.0000000000000000e+00" cType="1" res="-1.2537701055407524e-02" rms="0.0000000000000000e+00" purity="-9.9222455173730850e-03" nType="-99"/>
          <Node pos="r" depth="2" NCoef="0" IVar="-1" Cut="0.0000000000000000e+00" cType="1" res="-1.9984783139079809e-03" rms="2.3916178941726685e-01" purity="4.0620473027229309e-01" nType="-99"/>
        </Node>
      </Node>
    </BinaryTree>
    <BinaryTree type="DecisionTree" boostWeight="1.0000000000000000e+00" itree="652">
      <Node pos="s" depth="0" NCoef="0" IVar="17" Cut="-1.4388250112533569e+00" cType="1" res="4.1097826324403286e-03" rms="2.3806931078433990e-01" purity="5.0383794307708740e-01" nType="0">
        <Node pos="l" depth="1" NCoef="0" IVar="14" Cut="-1.4537136554718018e+00" cType="1" res="1.3126293197274208e-02" rms="2.3853690922260284e-01" purity="5.4157108068466187e-01" nType="0">
          <Node pos="l" depth="2" NCoef="0" IVar="-1" Cut="0.0000000000000000e+00" cType="1" res="-1.2046260759234428e-02" rms="0.0000000000000000e+00" purity="-5.6648049503564835e-03" nType="-99"/>
          <Node pos="r" depth="2" NCoef="0" IVar="-1" Cut="0.0000000000000000e+00" cType="1" res="1.5725797275081277e-03" rms="2.6727992296218872e-01" purity="6.6732746362686157e-01" nType="-99"/>
        </Node>
        <Node pos="r" depth="1" NCoef="0" IVar="45" Cut="2.8594326972961426e+00" cType="1" res="-3.0211506411433220e-02" rms="2.3311211168766022e-01" purity="3.6020690202713013e-01" nType="0">
          <Node pos="l" depth="2" NCoef="0" IVar="-1" Cut="0.0000000000000000e+00" cType="1" res="-4.0812790393829346e-03" rms="2.1423316001892090e-01" purity="2.7219986915588379e-01" nType="-99"/>
          <Node pos="r" depth="2" NCoef="0" IVar="-1" Cut="0.0000000000000000e+00" cType="1" res="1.2693748576566577e-03" rms="2.9236382246017456e-01" purity="7.1255242824554443e-01" nType="-99"/>
        </Node>
      </Node>
    </BinaryTree>
    <BinaryTree type="DecisionTree" boostWeight="1.0000000000000000e+00" itree="653">
      <Node pos="s" depth="0" NCoef="0" IVar="37" Cut="-1.0498083829879761e+00" cType="1" res="2.1723066456615925e-03" rms="2.3932769894599915e-01" purity="5.0310450792312622e-01" nType="0">
        <Node pos="l" depth="1" NCoef="0" IVar="64" Cut="1.2345679104328156e-02" cType="1" res="8.9436238631606102e-03" rms="2.4311988055706024e-01" purity="5.3328025341033936e-01" nType="0">
          <Node pos="l" depth="2" NCoef="0" IVar="-1" Cut="0.0000000000000000e+00" cType="1" res="1.0804939083755016e-03" rms="2.4251875281333923e-01" purity="5.4299390316009521e-01" nType="-99"/>
          <Node pos="r" depth="2" NCoef="0" IVar="-1" Cut="0.0000000000000000e+00" cType="1" res="-8.1595703959465027e-03" rms="2.3869006335735321e-01" purity="2.9936432838439941e-01" nType="-99"/>
        </Node>
        <Node pos="r" depth="1" NCoef="0" IVar="37" Cut="-6.1524254083633423e-01" cType="1" res="-4.7889396548271179e-02" rms="2.0225372910499573e-01" purity="2.8000915050506592e-01" nType="0">
          <Node pos="l" depth="2" NCoef="0" IVar="-1" Cut="0.0000000000000000e+00" cType="1" res="-3.2410155981779099e-03" rms="2.1646618843078613e-01" purity="3.3142024278640747e-01" nType="-99"/>
          <Node pos="r" depth="2" NCoef="0" IVar="-1" Cut="0.0000000000000000e+00" cType="1" res="-9.9397031590342522e-03" rms="1.5747524797916412e-01" purity="1.5594474971294403e-01" nType="-99"/>
        </Node>
      </Node>
    </BinaryTree>
    <BinaryTree type="DecisionTree" boostWeight="1.0000000000000000e+00" itree="654">
      <Node pos="s" depth="0" NCoef="0" IVar="14" Cut="-1.4537111520767212e+00" cType="1" res="1.0151551105082035e-03" rms="2.3862853646278381e-01" purity="4.9868556857109070e-01" nType="0">
        <Node pos="l" depth="1" NCoef="0" IVar="15" Cut="4.3796318769454956e-01" cType="1" res="-1.7086226493120193e-02" rms="0.0000000000000000e+00" purity="-1.5787685289978981e-02" nType="-99"/>
        <Node pos="r" depth="1" NCoef="0" IVar="36" Cut="1.4856319427490234e+00" cType="1" res="9.3013355508446693e-03" rms="2.7236530184745789e-01" purity="6.1854499578475952e-01" nType="0">
          <Node pos="l" depth="2" NCoef="0" IVar="-1" Cut="0.0000000000000000e+00" cType="1" res="1.0484433732926846e-03" rms="2.7241548895835876e-01" purity="6.5277045965194702e-01" nType="-99"/>
          <Node pos="r" depth="2" NCoef="0" IVar="-1" Cut="0.0000000000000000e+00" cType="1" res="-6.6822376102209091e-03" rms="2.5718006491661072e-01" purity="7.7966861426830292e-02" nType="-99"/>
        </Node>
      </Node>
    </BinaryTree>
    <BinaryTree type="DecisionTree" boostWeight="1.0000000000000000e+00" itree="655">
      <Node pos="s" depth="0" NCoef="0" IVar="52" Cut="-1.5312165021896362e+00" cType="1" res="1.0144249536097050e-03" rms="2.3814506828784943e-01" purity="5.0143200159072876e-01" nType="0">
        <Node pos="l" depth="1" NCoef="0" IVar="34" Cut="-4.8646721243858337e-01" cType="1" res="2.4170810356736183e-02" rms="2.2988112270832062e-01" purity="6.8918526172637939e-01" nType="0">
          <Node pos="l" depth="2" NCoef="0" IVar="-1" Cut="0.0000000000000000e+00" cType="1" res="2.9720854945480824e-03" rms="2.0899932086467743e-01" purity="7.7123773097991943e-01" nType="-99"/>
          <Node pos="r" depth="2" NCoef="0" IVar="-1" Cut="0.0000000000000000e+00" cType="1" res="-1.2025646865367889e-03" rms="2.9967567324638367e-01" purity="3.4066429734230042e-01" nType="-99"/>
        </Node>
        <Node pos="r" depth="1" NCoef="0" IVar="1" Cut="3.4919652938842773e+00" cType="1" res="-1.4204175211489201e-02" rms="2.4222092330455780e-01" purity="3.7803876399993896e-01" nType="0">
          <Node pos="l" depth="2" NCoef="0" IVar="-1" Cut="0.0000000000000000e+00" cType="1" res="-2.1781816612929106e-03" rms="2.3064112663269043e-01" purity="2.7257016301155090e-01" nType="-99"/>
          <Node pos="r" depth="2" NCoef="0" IVar="-1" Cut="0.0000000000000000e+00" cType="1" res="1.5337789664044976e-03" rms="2.7648067474365234e-01" purity="7.4993979930877686e-01" nType="-99"/>
        </Node>
      </Node>
    </BinaryTree>
    <BinaryTree type="DecisionTree" boostWeight="1.0000000000000000e+00" itree="656">
      <Node pos="s" depth="0" NCoef="0" IVar="2" Cut="6.0483932495117188e-01" cType="1" res="-5.2549462998285890e-04" rms="2.3877114057540894e-01" purity="4.9903824925422668e-01" nType="0">
        <Node pos="l" depth="1" NCoef="0" IVar="-1" Cut="0.0000000000000000e+00" cType="1" res="-9.0690674260258675e-03" rms="0.0000000000000000e+00" purity="-4.6652097254991531e-02" nType="-99"/>
        <Node pos="r" depth="1" NCoef="0" IVar="36" Cut="-1.5311175584793091e+00" cType="1" res="2.4662332143634558e-03" rms="2.4303479492664337e-01" purity="5.1285070180892944e-01" nType="0">
          <Node pos="l" depth="2" NCoef="0" IVar="-1" Cut="0.0000000000000000e+00" cType="1" res="2.0910496823489666e-03" rms="2.2597552835941315e-01" purity="6.9649767875671387e-01" nType="-99"/>
          <Node pos="r" depth="2" NCoef="0" IVar="-1" Cut="0.0000000000000000e+00" cType="1" res="-1.0388726368546486e-03" rms="2.5302392244338989e-01" purity="3.8711065053939819e-01" nType="-99"/>
        </Node>
      </Node>
    </BinaryTree>
    <BinaryTree type="DecisionTree" boostWeight="1.0000000000000000e+00" itree="657">
      <Node pos="s" depth="0" NCoef="0" IVar="45" Cut="9.2486190795898438e-01" cType="1" res="-1.9824141636490822e-03" rms="2.3660220205783844e-01" purity="4.9594527482986450e-01" nType="0">
        <Node pos="l" depth="1" NCoef="0" IVar="40" Cut="-6.9128230214118958e-02" cType="1" res="-5.9827696532011032e-02" rms="5.5758204311132431e-02" purity="5.0550874322652817e-02" nType="0">
          <Node pos="l" depth="2" NCoef="0" IVar="-1" Cut="0.0000000000000000e+00" cType="1" res="-4.9310526810586452e-03" rms="1.7566832900047302e-01" purity="8.8003300130367279e-02" nType="-99"/>
          <Node pos="r" depth="2" NCoef="0" IVar="-1" Cut="0.0000000000000000e+00" cType="1" res="-1.6380621120333672e-02" rms="0.0000000000000000e+00" purity="-1.8367840675637126e-03" nType="-99"/>
        </Node>
        <Node pos="r" depth="1" NCoef="0" IVar="56" Cut="1.4849827289581299e+00" cType="1" res="3.8785692304372787e-03" rms="2.4690942466259003e-01" purity="5.4107338190078735e-01" nType="0">
          <Node pos="l" depth="2" NCoef="0" IVar="-1" Cut="0.0000000000000000e+00" cType="1" res="7.2437251219525933e-04" rms="2.4964751303195953e-01" purity="5.7801347970962524e-01" nType="-99"/>
          <Node pos="r" depth="2" NCoef="0" IVar="-1" Cut="0.0000000000000000e+00" cType="1" res="-7.6745077967643738e-03" rms="1.9464974105358124e-01" purity="4.8079121857881546e-02" nType="-99"/>
        </Node>
      </Node>
    </BinaryTree>
    <BinaryTree type="DecisionTree" boostWeight="1.0000000000000000e+00" itree="658">
      <Node pos="s" depth="0" NCoef="0" IVar="34" Cut="1.4473505020141602e+00" cType="1" res="8.3329022163525224e-04" rms="2.3681031167507172e-01" purity="4.9735593795776367e-01" nType="0">
        <Node pos="l" depth="1" NCoef="0" IVar="1" Cut="1.8008296489715576e+00" cType="1" res="6.5091168507933617e-03" rms="2.4040342867374420e-01" purity="5.3812968730926514e-01" nType="0">
          <Node pos="l" depth="2" NCoef="0" IVar="-1" Cut="0.0000000000000000e+00" cType="1" res="-2.3349178954958916e-02" rms="0.0000000000000000e+00" purity="-4.1093423962593079e-02" nType="-99"/>
          <Node pos="r" depth="2" NCoef="0" IVar="-1" Cut="0.0000000000000000e+00" cType="1" res="8.8077725376933813e-04" rms="2.5067225098609924e-01" purity="5.6692719459533691e-01" nType="-99"/>
        </Node>
        <Node pos="r" depth="1" NCoef="0" IVar="4" Cut="3.6298167705535889e+00" cType="1" res="-5.9824783354997635e-02" rms="1.8365849554538727e-01" purity="6.1603322625160217e-02" nType="0">
          <Node pos="l" depth="2" NCoef="0" IVar="-1" Cut="0.0000000000000000e+00" cType="1" res="-5.6869717082008719e-04" rms="2.1675154566764832e-01" purity="8.2175537943840027e-02" nType="-99"/>
          <Node pos="r" depth="2" NCoef="0" IVar="-1" Cut="0.0000000000000000e+00" cType="1" res="-1.1366431601345539e-02" rms="1.4395682513713837e-01" purity="4.7240249812602997e-02" nType="-99"/>
        </Node>
      </Node>
    </BinaryTree>
    <BinaryTree type="DecisionTree" boostWeight="1.0000000000000000e+00" itree="659">
      <Node pos="s" depth="0" NCoef="0" IVar="45" Cut="8.8285017013549805e-01" cType="1" res="7.8532943734899163e-04" rms="2.3569606244564056e-01" purity="4.9897697567939758e-01" nType="0">
        <Node pos="l" depth="1" NCoef="0" IVar="49" Cut="2.4711055755615234e+00" cType="1" res="-5.9205014258623123e-02" rms="4.5546840876340866e-02" purity="4.6267900615930557e-02" nType="0">
          <Node pos="l" depth="2" NCoef="0" IVar="-1" Cut="0.0000000000000000e+00" cType="1" res="-1.5492329373955727e-02" rms="0.0000000000000000e+00" purity="-3.3953648526221514e-03" nType="-99"/>
          <Node pos="r" depth="2" NCoef="0" IVar="-1" Cut="0.0000000000000000e+00" cType="1" res="-4.9467529170215130e-03" rms="1.3233828544616699e-01" purity="8.5902012884616852e-02" nType="-99"/>
        </Node>
        <Node pos="r" depth="1" NCoef="0" IVar="56" Cut="1.5240936279296875e+00" cType="1" res="6.1168912798166275e-03" rms="2.4486151337623596e-01" purity="5.3921091556549072e-01" nType="0">
          <Node pos="l" depth="2" NCoef="0" IVar="-1" Cut="0.0000000000000000e+00" cType="1" res="8.0552033614367247e-04" rms="2.4700902402400970e-01" purity="5.6115400791168213e-01" nType="-99"/>
          <Node pos="r" depth="2" NCoef="0" IVar="-1" Cut="0.0000000000000000e+00" cType="1" res="-1.0172176174819469e-02" rms="1.6495285928249359e-01" purity="2.0790746435523033e-02" nType="-99"/>
        </Node>
      </Node>
    </BinaryTree>
    <BinaryTree type="DecisionTree" boostWeight="1.0000000000000000e+00" itree="660">
      <Node pos="s" depth="0" NCoef="0" IVar="14" Cut="-1.4537111520767212e+00" cType="1" res="2.0828989800065756e-03" rms="2.3854146897792816e-01" purity="5.0309234857559204e-01" nType="0">
        <Node pos="l" depth="1" NCoef="0" IVar="13" Cut="-1.2995349168777466e+00" cType="1" res="-1.9517075270414352e-02" rms="0.0000000000000000e+00" purity="-2.0370516926050186e-02" nType="-99"/>
        <Node pos="r" depth="1" NCoef="0" IVar="44" Cut="1.2345679104328156e-02" cType="1" res="1.1402803473174572e-02" rms="2.7334582805633545e-01" purity="6.2194460630416870e-01" nType="0">
          <Node pos="l" depth="2" NCoef="0" IVar="-1" Cut="0.0000000000000000e+00" cType="1" res="1.1516771046444774e-03" rms="2.6950848102569580e-01" purity="6.3288718461990356e-01" nType="-99"/>
          <Node pos="r" depth="2" NCoef="0" IVar="-1" Cut="0.0000000000000000e+00" cType="1" res="-6.1135934665799141e-03" rms="3.3072969317436218e-01" purity="3.9090734720230103e-01" nType="-99"/>
        </Node>
      </Node>
    </BinaryTree>
    <BinaryTree type="DecisionTree" boostWeight="1.0000000000000000e+00" itree="661">
      <Node pos="s" depth="0" NCoef="0" IVar="45" Cut="1.1568456888198853e+00" cType="1" res="1.7237961292266846e-03" rms="2.3657433688640594e-01" purity="5.0154322385787964e-01" nType="0">
        <Node pos="l" depth="1" NCoef="0" IVar="49" Cut="2.9717092514038086e+00" cType="1" res="-4.3633539229631424e-02" rms="1.2317919731140137e-01" purity="9.7871214151382446e-02" nType="0">
          <Node pos="l" depth="2" NCoef="0" IVar="-1" Cut="0.0000000000000000e+00" cType="1" res="-9.7773121669888496e-03" rms="0.0000000000000000e+00" purity="4.6065922826528549e-02" nType="-99"/>
          <Node pos="r" depth="2" NCoef="0" IVar="-1" Cut="0.0000000000000000e+00" cType="1" res="3.5728970542550087e-03" rms="2.5225585699081421e-01" purity="2.8181007504463196e-01" nType="-99"/>
        </Node>
        <Node pos="r" depth="1" NCoef="0" IVar="52" Cut="1.4013118743896484e+00" cType="1" res="9.1453911736607552e-03" rms="2.4950085580348969e-01" purity="5.6759405136108398e-01" nType="0">
          <Node pos="l" depth="2" NCoef="0" IVar="-1" Cut="0.0000000000000000e+00" cType="1" res="1.2665897374972701e-03" rms="2.5085490942001343e-01" purity="6.2122863531112671e-01" nType="-99"/>
          <Node pos="r" depth="2" NCoef="0" IVar="-1" Cut="0.0000000000000000e+00" cType="1" res="-4.8135989345610142e-03" rms="2.3061783611774445e-01" purity="1.2125416100025177e-01" nType="-99"/>
        </Node>
      </Node>
    </BinaryTree>
    <BinaryTree type="DecisionTree" boostWeight="1.0000000000000000e+00" itree="662">
      <Node pos="s" depth="0" NCoef="0" IVar="57" Cut="-8.8165140151977539e-01" cType="1" res="1.3973550267110113e-05" rms="2.3932005465030670e-01" purity="4.9910649657249451e-01" nType="0">
        <Node pos="l" depth="1" NCoef="0" IVar="1" Cut="3.5213155746459961e+00" cType="1" res="5.5415057577192783e-03" rms="2.4192051589488983e-01" purity="5.2352476119995117e-01" nType="0">
          <Node pos="l" depth="2" NCoef="0" IVar="-1" Cut="0.0000000000000000e+00" cType="1" res="-4.4762654579244554e-04" rms="2.4820247292518616e-01" purity="4.0774920582771301e-01" nType="-99"/>
          <Node pos="r" depth="2" NCoef="0" IVar="-1" Cut="0.0000000000000000e+00" cType="1" res="3.2313724514096975e-03" rms="2.2105939686298370e-01" purity="8.4088534116744995e-01" nType="-99"/>
        </Node>
        <Node pos="r" depth="1" NCoef="0" IVar="65" Cut="1.9161975383758545e-01" cType="1" res="-6.0888867825269699e-02" rms="1.9859424233436584e-01" purity="2.3006327450275421e-01" nType="0">
          <Node pos="l" depth="2" NCoef="0" IVar="-1" Cut="0.0000000000000000e+00" cType="1" res="-3.9978208951652050e-03" rms="2.3165006935596466e-01" purity="2.4780984222888947e-01" nType="-99"/>
          <Node pos="r" depth="2" NCoef="0" IVar="-1" Cut="0.0000000000000000e+00" cType="1" res="-8.5693066939711571e-03" rms="1.6777190566062927e-01" purity="2.1687689423561096e-01" nType="-99"/>
        </Node>
      </Node>
    </BinaryTree>
    <BinaryTree type="DecisionTree" boostWeight="1.0000000000000000e+00" itree="663">
      <Node pos="s" depth="0" NCoef="0" IVar="53" Cut="1.4075684547424316e+00" cType="1" res="2.5471784174442291e-03" rms="2.3933942615985870e-01" purity="5.0333517789840698e-01" nType="0">
        <Node pos="l" depth="1" NCoef="0" IVar="32" Cut="-1.5312021970748901e+00" cType="1" res="5.2827363833785057e-03" rms="2.4096322059631348e-01" purity="5.1241034269332886e-01" nType="0">
          <Node pos="l" depth="2" NCoef="0" IVar="-1" Cut="0.0000000000000000e+00" cType="1" res="2.2484504152089357e-03" rms="2.2438363730907440e-01" purity="6.9396895170211792e-01" nType="-99"/>
          <Node pos="r" depth="2" NCoef="0" IVar="-1" Cut="0.0000000000000000e+00" cType="1" res="-7.4289744952693582e-04" rms="2.5045168399810791e-01" purity="3.9135622978210449e-01" nType="-99"/>
        </Node>
        <Node pos="r" depth="1" NCoef="0" IVar="-1" Cut="0.0000000000000000e+00" cType="1" res="-1.3365294784307480e-02" rms="1.0680869966745377e-01" purity="1.2471950799226761e-01" nType="-99"/>
      </Node>
    </BinaryTree>
    <BinaryTree type="DecisionTree" boostWeight="1.0000000000000000e+00" itree="664">
      <Node pos="s" depth="0" NCoef="0" IVar="17" Cut="-1.3805184364318848e+00" cType="1" res="3.3010279294103384e-03" rms="2.3898085951805115e-01" purity="5.0416648387908936e-01" nType="0">
        <Node pos="l" depth="1" NCoef="0" IVar="56" Cut="1.3307255506515503e+00" cType="1" res="1.2308695353567600e-02" rms="2.4053624272346497e-01" purity="5.3997904062271118e-01" nType="0">
          <Node pos="l" depth="2" NCoef="0" IVar="-1" Cut="0.0000000000000000e+00" cType="1" res="1.5929389046505094e-03" rms="2.4180640280246735e-01" purity="5.9016728401184082e-01" nType="-99"/>
          <Node pos="r" depth="2" NCoef="0" IVar="-1" Cut="0.0000000000000000e+00" cType="1" res="-4.8008961603045464e-03" rms="2.2124674916267395e-01" purity="1.1698200553655624e-01" nType="-99"/>
        </Node>
        <Node pos="r" depth="1" NCoef="0" IVar="14" Cut="1.4858462810516357e+00" cType="1" res="-3.5888716578483582e-02" rms="2.2798705101013184e-01" purity="3.4835591912269592e-01" nType="0">
          <Node pos="l" depth="2" NCoef="0" IVar="-1" Cut="0.0000000000000000e+00" cType="1" res="-6.4057027921080589e-03" rms="1.7183201014995575e-01" purity="1.4209312200546265e-01" nType="-99"/>
          <Node pos="r" depth="2" NCoef="0" IVar="-1" Cut="0.0000000000000000e+00" cType="1" res="-4.5736078754998744e-04" rms="2.9161536693572998e-01" purity="6.6512346267700195e-01" nType="-99"/>
        </Node>
      </Node>
    </BinaryTree>
    <BinaryTree type="DecisionTree" boostWeight="1.0000000000000000e+00" itree="665">
      <Node pos="s" depth="0" NCoef="0" IVar="1" Cut="3.2906613349914551e+00" cType="1" res="3.3854777575470507e-04" rms="2.3817680776119232e-01" purity="5.0034010410308838e-01" nType="0">
        <Node pos="l" depth="1" NCoef="0" IVar="0" Cut="7.6048177480697632e-01" cType="1" res="-1.3305019587278366e-02" rms="2.3587322235107422e-01" purity="3.2876780629158020e-01" nType="0">
          <Node pos="l" depth="2" NCoef="0" IVar="-1" Cut="0.0000000000000000e+00" cType="1" res="-8.7526044808328152e-05" rms="2.5020876526832581e-01" purity="3.8338363170623779e-01" nType="-99"/>
          <Node pos="r" depth="2" NCoef="0" IVar="-1" Cut="0.0000000000000000e+00" cType="1" res="-4.9896351993083954e-03" rms="1.8974907696247101e-01" purity="1.8597203493118286e-01" nType="-99"/>
        </Node>
        <Node pos="r" depth="1" NCoef="0" IVar="2" Cut="1.7613188028335571e+00" cType="1" res="2.4042906239628792e-02" rms="2.4029183387756348e-01" purity="7.9843002557754517e-01" nType="0">
          <Node pos="l" depth="2" NCoef="0" IVar="-1" Cut="0.0000000000000000e+00" cType="1" res="-3.9782761596143246e-03" rms="3.1690439581871033e-01" purity="4.7808930277824402e-01" nType="-99"/>
          <Node pos="r" depth="2" NCoef="0" IVar="-1" Cut="0.0000000000000000e+00" cType="1" res="2.7663081418722868e-03" rms="2.3294192552566528e-01" purity="8.1973195075988770e-01" nType="-99"/>
        </Node>
      </Node>
    </BinaryTree>
    <BinaryTree type="DecisionTree" boostWeight="1.0000000000000000e+00" itree="666">
      <Node pos="s" depth="0" NCoef="0" IVar="37" Cut="-8.4397262334823608e-01" cType="1" res="1.9732753280550241e-03" rms="2.3811303079128265e-01" purity="4.9930977821350098e-01" nType="0">
        <Node pos="l" depth="1" NCoef="0" IVar="17" Cut="-1.3507565259933472e+00" cType="1" res="7.4340621940791607e-03" rms="2.4103260040283203e-01" purity="5.2219206094741821e-01" nType="0">
          <Node pos="l" depth="2" NCoef="0" IVar="-1" Cut="0.0000000000000000e+00" cType="1" res="1.3251233613118529e-03" rms="2.4303583800792694e-01" purity="5.5491608381271362e-01" nType="-99"/>
          <Node pos="r" depth="2" NCoef="0" IVar="-1" Cut="0.0000000000000000e+00" cType="1" res="-2.9865044634789228e-03" rms="2.2676965594291687e-01" purity="3.6247932910919189e-01" nType="-99"/>
        </Node>
        <Node pos="r" depth="1" NCoef="0" IVar="33" Cut="-7.9719978570938110e-01" cType="1" res="-6.4762093126773834e-02" rms="1.8650494515895844e-01" purity="2.1966896951198578e-01" nType="0">
          <Node pos="l" depth="2" NCoef="0" IVar="-1" Cut="0.0000000000000000e+00" cType="1" res="-4.4965613633394241e-03" rms="2.1648906171321869e-01" purity="2.8254875540733337e-01" nType="-99"/>
          <Node pos="r" depth="2" NCoef="0" IVar="-1" Cut="0.0000000000000000e+00" cType="1" res="-1.1921466328203678e-02" rms="1.2038612365722656e-01" purity="1.2284693866968155e-01" nType="-99"/>
        </Node>
      </Node>
    </BinaryTree>
    <BinaryTree type="DecisionTree" boostWeight="1.0000000000000000e+00" itree="667">
      <Node pos="s" depth="0" NCoef="0" IVar="14" Cut="1.4871129989624023e+00" cType="1" res="1.7213153187185526e-03" rms="2.3494641482830048e-01" purity="5.0200289487838745e-01" nType="0">
        <Node pos="l" depth="1" NCoef="0" IVar="3" Cut="5.3100700378417969e+00" cType="1" res="-1.6892364248633385e-02" rms="2.1907581388950348e-01" purity="2.4089099466800690e-01" nType="0">
          <Node pos="l" depth="2" NCoef="0" IVar="-1" Cut="0.0000000000000000e+00" cType="1" res="-2.8147778939455748e-03" rms="1.8486899137496948e-01" purity="2.1554732322692871e-01" nType="-99"/>
          <Node pos="r" depth="2" NCoef="0" IVar="-1" Cut="0.0000000000000000e+00" cType="1" res="2.7577723376452923e-03" rms="3.8015577197074890e-01" purity="4.2538911104202271e-01" nType="-99"/>
        </Node>
        <Node pos="r" depth="1" NCoef="0" IVar="36" Cut="1.4858274459838867e+00" cType="1" res="2.0166620612144470e-02" rms="2.4830764532089233e-01" purity="7.6075291633605957e-01" nType="0">
          <Node pos="l" depth="2" NCoef="0" IVar="-1" Cut="0.0000000000000000e+00" cType="1" res="1.9874884746968746e-03" rms="2.4132648110389709e-01" purity="8.0067855119705200e-01" nType="-99"/>
          <Node pos="r" depth="2" NCoef="0" IVar="-1" Cut="0.0000000000000000e+00" cType="1" res="-5.5041448213160038e-03" rms="3.2619559764862061e-01" purity="1.1765999346971512e-01" nType="-99"/>
        </Node>
      </Node>
    </BinaryTree>
    <BinaryTree type="DecisionTree" boostWeight="1.0000000000000000e+00" itree="668">
      <Node pos="s" depth="0" NCoef="0" IVar="5" Cut="8.4842032194137573e-01" cType="1" res="2.1218680776655674e-03" rms="2.3966939747333527e-01" purity="5.0059103965759277e-01" nType="0">
        <Node pos="l" depth="1" NCoef="0" IVar="14" Cut="-1.3764038085937500e+00" cType="1" res="-9.9939974024891853e-03" rms="0.0000000000000000e+00" purity="7.5657136738300323e-02" nType="-99"/>
        <Node pos="r" depth="1" NCoef="0" IVar="2" Cut="1.0027880668640137e+00" cType="1" res="6.4139273017644882e-03" rms="2.4645951390266418e-01" purity="5.2520304918289185e-01" nType="0">
          <Node pos="l" depth="2" NCoef="0" IVar="-1" Cut="0.0000000000000000e+00" cType="1" res="-4.9556735903024673e-03" rms="1.3061982393264771e-01" purity="6.8385139107704163e-02" nType="-99"/>
          <Node pos="r" depth="2" NCoef="0" IVar="-1" Cut="0.0000000000000000e+00" cType="1" res="8.9450919767841697e-04" rms="2.5069165229797363e-01" purity="5.5034822225570679e-01" nType="-99"/>
        </Node>
      </Node>
    </BinaryTree>
    <BinaryTree type="DecisionTree" boostWeight="1.0000000000000000e+00" itree="669">
      <Node pos="s" depth="0" NCoef="0" IVar="57" Cut="-1.5071460008621216e+00" cType="1" res="-2.0501061808317900e-03" rms="2.3467484116554260e-01" purity="4.9878329038619995e-01" nType="0">
        <Node pos="l" depth="1" NCoef="0" IVar="36" Cut="1.5245062112808228e+00" cType="1" res="8.6354082450270653e-03" rms="2.3859888315200806e-01" purity="5.4825961589813232e-01" nType="0">
          <Node pos="l" depth="2" NCoef="0" IVar="-1" Cut="0.0000000000000000e+00" cType="1" res="1.0455732699483633e-03" rms="2.3895911872386932e-01" purity="5.6784987449645996e-01" nType="-99"/>
          <Node pos="r" depth="2" NCoef="0" IVar="-1" Cut="0.0000000000000000e+00" cType="1" res="-1.0013640858232975e-02" rms="2.0562124252319336e-01" purity="3.1375542283058167e-02" nType="-99"/>
        </Node>
        <Node pos="r" depth="1" NCoef="0" IVar="2" Cut="2.5307776927947998e+00" cType="1" res="-3.4820679575204849e-02" rms="2.1898099780082703e-01" purity="3.4704846143722534e-01" nType="0">
          <Node pos="l" depth="2" NCoef="0" IVar="-1" Cut="0.0000000000000000e+00" cType="1" res="-5.1495339721441269e-03" rms="1.6812600195407867e-01" purity="2.0324373245239258e-01" nType="-99"/>
          <Node pos="r" depth="2" NCoef="0" IVar="-1" Cut="0.0000000000000000e+00" cType="1" res="-2.4682871298864484e-04" rms="2.9771760106086731e-01" purity="6.5501010417938232e-01" nType="-99"/>
        </Node>
      </Node>
    </BinaryTree>
    <BinaryTree type="DecisionTree" boostWeight="1.0000000000000000e+00" itree="670">
      <Node pos="s" depth="0" NCoef="0" IVar="45" Cut="1.0957996845245361e+00" cType="1" res="1.3962918892502785e-03" rms="2.3682969808578491e-01" purity="4.9905019998550415e-01" nType="0">
        <Node pos="l" depth="1" NCoef="0" IVar="49" Cut="2.6933870315551758e+00" cType="1" res="-4.8993088304996490e-02" rms="1.0295646637678146e-01" purity="7.7093474566936493e-02" nType="0">
          <Node pos="l" depth="2" NCoef="0" IVar="-1" Cut="0.0000000000000000e+00" cType="1" res="-1.1958590708673000e-02" rms="0.0000000000000000e+00" purity="2.4990726262331009e-02" nType="-99"/>
          <Node pos="r" depth="2" NCoef="0" IVar="-1" Cut="0.0000000000000000e+00" cType="1" res="-7.5328006641939282e-04" rms="1.7767795920372009e-01" purity="1.5920247137546539e-01" nType="-99"/>
        </Node>
        <Node pos="r" depth="1" NCoef="0" IVar="64" Cut="1.2345679104328156e-02" cType="1" res="8.8761411607265472e-03" rms="2.4981547892093658e-01" purity="5.6168591976165771e-01" nType="0">
          <Node pos="l" depth="2" NCoef="0" IVar="-1" Cut="0.0000000000000000e+00" cType="1" res="1.0514488676562905e-03" rms="2.4911676347255707e-01" purity="5.7176983356475830e-01" nType="-99"/>
          <Node pos="r" depth="2" NCoef="0" IVar="-1" Cut="0.0000000000000000e+00" cType="1" res="-7.7202240936458111e-03" rms="2.4851538240909576e-01" purity="3.2331156730651855e-01" nType="-99"/>
        </Node>
      </Node>
    </BinaryTree>
    <BinaryTree type="DecisionTree" boostWeight="1.0000000000000000e+00" itree="671">
      <Node pos="s" depth="0" NCoef="0" IVar="17" Cut="-9.9346768856048584e-01" cType="1" res="5.0262762233614922e-03" rms="2.3865139484405518e-01" purity="5.0350707769393921e-01" nType="0">
        <Node pos="l" depth="1" NCoef="0" IVar="14" Cut="-1.4537111520767212e+00" cType="1" res="1.1435723863542080e-02" rms="2.4051178991794586e-01" purity="5.2753323316574097e-01" nType="0">
          <Node pos="l" depth="2" NCoef="0" IVar="-1" Cut="0.0000000000000000e+00" cType="1" res="-1.3409643433988094e-02" rms="0.0000000000000000e+00" purity="-8.0620991066098213e-03" nType="-99"/>
          <Node pos="r" depth="2" NCoef="0" IVar="-1" Cut="0.0000000000000000e+00" cType="1" res="1.4753823634237051e-03" rms="2.7079072594642639e-01" purity="6.5121108293533325e-01" nType="-99"/>
        </Node>
        <Node pos="r" depth="1" NCoef="0" IVar="5" Cut="1.6021958589553833e+00" cType="1" res="-5.7871680706739426e-02" rms="2.0939752459526062e-01" purity="2.6773041486740112e-01" nType="0">
          <Node pos="l" depth="2" NCoef="0" IVar="-1" Cut="0.0000000000000000e+00" cType="1" res="-1.3759424909949303e-02" rms="0.0000000000000000e+00" purity="4.2755793780088425e-02" nType="-99"/>
          <Node pos="r" depth="2" NCoef="0" IVar="-1" Cut="0.0000000000000000e+00" cType="1" res="-2.7895863167941570e-03" rms="2.8217762708663940e-01" purity="4.1450354456901550e-01" nType="-99"/>
        </Node>
      </Node>
    </BinaryTree>
    <BinaryTree type="DecisionTree" boostWeight="1.0000000000000000e+00" itree="672">
      <Node pos="s" depth="0" NCoef="0" IVar="65" Cut="7.5202912092208862e-01" cType="1" res="2.1816624794155359e-03" rms="2.4150437116622925e-01" purity="5.0110852718353271e-01" nType="0">
        <Node pos="l" depth="1" NCoef="0" IVar="25" Cut="9.9240130186080933e-01" cType="1" res="6.8454137071967125e-03" rms="2.4725551903247833e-01" purity="5.2913945913314819e-01" nType="0">
          <Node pos="l" depth="2" NCoef="0" IVar="-1" Cut="0.0000000000000000e+00" cType="1" res="-6.0827620327472687e-03" rms="1.3891477882862091e-01" purity="7.1438096463680267e-02" nType="-99"/>
          <Node pos="r" depth="2" NCoef="0" IVar="-1" Cut="0.0000000000000000e+00" cType="1" res="1.0342581663280725e-03" rms="2.5660520792007446e-01" purity="5.8405220508575439e-01" nType="-99"/>
        </Node>
        <Node pos="r" depth="1" NCoef="0" IVar="29" Cut="3.3531637191772461e+00" cType="1" res="-5.7136766612529755e-02" rms="1.3702818751335144e-01" purity="1.4458271861076355e-01" nType="0">
          <Node pos="l" depth="2" NCoef="0" IVar="-1" Cut="0.0000000000000000e+00" cType="1" res="-9.4630308449268341e-03" rms="1.1139320582151413e-01" purity="9.8983220756053925e-02" nType="-99"/>
          <Node pos="r" depth="2" NCoef="0" IVar="-1" Cut="0.0000000000000000e+00" cType="1" res="-2.5837779976427555e-03" rms="1.6028544306755066e-01" purity="2.0915544033050537e-01" nType="-99"/>
        </Node>
      </Node>
    </BinaryTree>
    <BinaryTree type="DecisionTree" boostWeight="1.0000000000000000e+00" itree="673">
      <Node pos="s" depth="0" NCoef="0" IVar="2" Cut="5.5746024847030640e-01" cType="1" res="2.2242330014705658e-03" rms="2.3754639923572540e-01" purity="5.0065618753433228e-01" nType="0">
        <Node pos="l" depth="1" NCoef="0" IVar="-1" Cut="0.0000000000000000e+00" cType="1" res="-8.9283911511301994e-03" rms="0.0000000000000000e+00" purity="-4.6994935721158981e-02" nType="-99"/>
        <Node pos="r" depth="1" NCoef="0" IVar="0" Cut="9.1096913814544678e-01" cType="1" res="5.0331256352365017e-03" rms="2.4169768393039703e-01" purity="5.1354855298995972e-01" nType="0">
          <Node pos="l" depth="2" NCoef="0" IVar="-1" Cut="0.0000000000000000e+00" cType="1" res="1.1100511765107512e-03" rms="2.4246050417423248e-01" purity="5.4341179132461548e-01" nType="-99"/>
          <Node pos="r" depth="2" NCoef="0" IVar="-1" Cut="0.0000000000000000e+00" cType="1" res="-3.9469874463975430e-03" rms="2.3243518173694611e-01" purity="3.4484004974365234e-01" nType="-99"/>
        </Node>
      </Node>
    </BinaryTree>
    <BinaryTree type="DecisionTree" boostWeight="1.0000000000000000e+00" itree="674">
      <Node pos="s" depth="0" NCoef="0" IVar="36" Cut="1.4856008291244507e+00" cType="1" res="1.2476369738578796e-03" rms="2.3854668438434601e-01" purity="5.0114780664443970e-01" nType="0">
        <Node pos="l" depth="1" NCoef="0" IVar="44" Cut="1.2345679104328156e-02" cType="1" res="5.9765982441604137e-03" rms="2.4117986857891083e-01" purity="5.3412061929702759e-01" nType="0">
          <Node pos="l" depth="2" NCoef="0" IVar="-1" Cut="0.0000000000000000e+00" cType="1" res="8.7937392527237535e-04" rms="2.3789802193641663e-01" purity="5.4733121395111084e-01" nType="-99"/>
          <Node pos="r" depth="2" NCoef="0" IVar="-1" Cut="0.0000000000000000e+00" cType="1" res="-7.2980062104761600e-03" rms="2.8448304533958435e-01" purity="2.8352156281471252e-01" nType="-99"/>
        </Node>
        <Node pos="r" depth="1" NCoef="0" IVar="29" Cut="3.4133729934692383e+00" cType="1" res="-6.4849577844142914e-02" rms="1.8592233955860138e-01" purity="4.0282964706420898e-02" nType="0">
          <Node pos="l" depth="2" NCoef="0" IVar="-1" Cut="0.0000000000000000e+00" cType="1" res="-5.6723160669207573e-03" rms="1.8337115645408630e-01" purity="4.6515665948390961e-02" nType="-99"/>
          <Node pos="r" depth="2" NCoef="0" IVar="-1" Cut="0.0000000000000000e+00" cType="1" res="-1.1256909929215908e-02" rms="1.7795310914516449e-01" purity="2.7288336306810379e-02" nType="-99"/>
        </Node>
      </Node>
    </BinaryTree>
    <BinaryTree type="DecisionTree" boostWeight="1.0000000000000000e+00" itree="675">
      <Node pos="s" depth="0" NCoef="0" IVar="2" Cut="9.9335157871246338e-01" cType="1" res="2.6374792214483023e-03" rms="2.3757630586624146e-01" purity="5.0174212455749512e-01" nType="0">
        <Node pos="l" depth="1" NCoef="0" IVar="5" Cut="1.7644535303115845e+00" cType="1" res="-7.4047081172466278e-02" rms="6.6029131412506104e-02" purity="4.9034826457500458e-02" nType="0">
          <Node pos="l" depth="2" NCoef="0" IVar="-1" Cut="0.0000000000000000e+00" cType="1" res="-3.1953616999089718e-03" rms="1.1689593642950058e-01" purity="6.1107084155082703e-02" nType="-99"/>
          <Node pos="r" depth="2" NCoef="0" IVar="-1" Cut="0.0000000000000000e+00" cType="1" res="-7.8124767169356346e-03" rms="0.0000000000000000e+00" purity="3.1475309282541275e-02" nType="-99"/>
        </Node>
        <Node pos="r" depth="1" NCoef="0" IVar="17" Cut="-8.7381738424301147e-01" cType="1" res="6.8129324354231358e-03" rms="2.4277718365192413e-01" purity="5.2639192342758179e-01" nType="0">
          <Node pos="l" depth="2" NCoef="0" IVar="-1" Cut="0.0000000000000000e+00" cType="1" res="1.0293594095855951e-03" rms="2.4410405755043030e-01" purity="5.4681128263473511e-01" nType="-99"/>
          <Node pos="r" depth="2" NCoef="0" IVar="-1" Cut="0.0000000000000000e+00" cType="1" res="-6.0953195206820965e-03" rms="2.1356579661369324e-01" purity="2.5313377380371094e-01" nType="-99"/>
        </Node>
      </Node>
    </BinaryTree>
    <BinaryTree type="DecisionTree" boostWeight="1.0000000000000000e+00" itree="676">
      <Node pos="s" depth="0" NCoef="0" IVar="2" Cut="5.5746024847030640e-01" cType="1" res="9.8033319227397442e-04" rms="2.3736788332462311e-01" purity="4.9801555275917053e-01" nType="0">
        <Node pos="l" depth="1" NCoef="0" IVar="-1" Cut="0.0000000000000000e+00" cType="1" res="-9.2523032799363136e-03" rms="0.0000000000000000e+00" purity="-5.0656151026487350e-02" nType="-99"/>
        <Node pos="r" depth="1" NCoef="0" IVar="0" Cut="5.9641557931900024e-01" cType="1" res="3.8083940744400024e-03" rms="2.4170012772083282e-01" purity="5.1073068380355835e-01" nType="0">
          <Node pos="l" depth="2" NCoef="0" IVar="-1" Cut="0.0000000000000000e+00" cType="1" res="1.5510598896071315e-03" rms="2.4704749882221222e-01" purity="5.7810372114181519e-01" nType="-99"/>
          <Node pos="r" depth="2" NCoef="0" IVar="-1" Cut="0.0000000000000000e+00" cType="1" res="-1.7659802688285708e-03" rms="2.3167572915554047e-01" purity="4.0962219238281250e-01" nType="-99"/>
        </Node>
      </Node>
    </BinaryTree>
    <BinaryTree type="DecisionTree" boostWeight="1.0000000000000000e+00" itree="677">
      <Node pos="s" depth="0" NCoef="0" IVar="57" Cut="-2.0303523540496826e+00" cType="1" res="1.8615830922499299e-03" rms="2.3786053061485291e-01" purity="5.0010263919830322e-01" nType="0">
        <Node pos="l" depth="1" NCoef="0" IVar="56" Cut="1.4076961278915405e+00" cType="1" res="1.8910463899374008e-02" rms="2.4491159617900848e-01" purity="5.6848424673080444e-01" nType="0">
          <Node pos="l" depth="2" NCoef="0" IVar="-1" Cut="0.0000000000000000e+00" cType="1" res="2.0722539629787207e-03" rms="2.4347679316997528e-01" purity="6.1331105232238770e-01" nType="-99"/>
          <Node pos="r" depth="2" NCoef="0" IVar="-1" Cut="0.0000000000000000e+00" cType="1" res="-4.8611257225275040e-03" rms="2.5039517879486084e-01" purity="1.0098521411418915e-01" nType="-99"/>
        </Node>
        <Node pos="r" depth="1" NCoef="0" IVar="2" Cut="1.7153944969177246e+00" cType="1" res="-1.6695594415068626e-02" rms="2.2849872708320618e-01" purity="4.2567133903503418e-01" nType="0">
          <Node pos="l" depth="2" NCoef="0" IVar="-1" Cut="0.0000000000000000e+00" cType="1" res="-5.8780885301530361e-03" rms="1.0591239482164383e-01" purity="1.1141991615295410e-01" nType="-99"/>
          <Node pos="r" depth="2" NCoef="0" IVar="-1" Cut="0.0000000000000000e+00" cType="1" res="-3.9217644371092319e-04" rms="2.5653356313705444e-01" purity="5.3430128097534180e-01" nType="-99"/>
        </Node>
      </Node>
    </BinaryTree>
    <BinaryTree type="DecisionTree" boostWeight="1.0000000000000000e+00" itree="678">
      <Node pos="s" depth="0" NCoef="0" IVar="64" Cut="1.2345679104328156e-02" cType="1" res="8.9124520309269428e-04" rms="2.3598602414131165e-01" purity="5.0002771615982056e-01" nType="0">
        <Node pos="l" depth="1" NCoef="0" IVar="34" Cut="1.4462656974792480e+00" cType="1" res="4.9040126614272594e-03" rms="2.3547706007957458e-01" purity="5.1018524169921875e-01" nType="0">
          <Node pos="l" depth="2" NCoef="0" IVar="-1" Cut="0.0000000000000000e+00" cType="1" res="9.0143171837553382e-04" rms="2.3857788741588593e-01" purity="5.5079567432403564e-01" nType="-99"/>
          <Node pos="r" depth="2" NCoef="0" IVar="-1" Cut="0.0000000000000000e+00" cType="1" res="-7.4927569366991520e-03" rms="1.8745405972003937e-01" purity="6.7090071737766266e-02" nType="-99"/>
        </Node>
        <Node pos="r" depth="1" NCoef="0" IVar="46" Cut="-1.2191393375396729e+00" cType="1" res="-9.0107820928096771e-02" rms="2.2909601032733917e-01" purity="2.6968103647232056e-01" nType="0">
          <Node pos="l" depth="2" NCoef="0" IVar="-1" Cut="0.0000000000000000e+00" cType="1" res="-1.6864174976944923e-02" rms="2.2935572266578674e-01" purity="1.5348371863365173e-01" nType="-99"/>
          <Node pos="r" depth="2" NCoef="0" IVar="-1" Cut="0.0000000000000000e+00" cType="1" res="-3.2871996518224478e-03" rms="2.1309037506580353e-01" purity="3.7718275189399719e-01" nType="-99"/>
        </Node>
      </Node>
    </BinaryTree>
    <BinaryTree type="DecisionTree" boostWeight="1.0000000000000000e+00" itree="679">
      <Node pos="s" depth="0" NCoef="0" IVar="37" Cut="-6.9529330730438232e-01" cType="1" res="3.5175192169845104e-03" rms="2.3871372640132904e-01" purity="5.0246471166610718e-01" nType="0">
        <Node pos="l" depth="1" NCoef="0" IVar="65" Cut="7.7429032325744629e-01" cType="1" res="7.2731976397335529e-03" rms="2.4138058722019196e-01" purity="5.1890295743942261e-01" nType="0">
          <Node pos="l" depth="2" NCoef="0" IVar="-1" Cut="0.0000000000000000e+00" cType="1" res="9.6936605405062437e-04" rms="2.4521343410015106e-01" purity="5.4142880439758301e-01" nType="-99"/>
          <Node pos="r" depth="2" NCoef="0" IVar="-1" Cut="0.0000000000000000e+00" cType="1" res="-6.7862672731280327e-03" rms="1.4575676620006561e-01" purity="1.3234452903270721e-01" nType="-99"/>
        </Node>
        <Node pos="r" depth="1" NCoef="0" IVar="23" Cut="9.6493965387344360e-01" cType="1" res="-7.2476744651794434e-02" rms="1.5816624462604523e-01" purity="1.6984455287456512e-01" nType="0">
          <Node pos="l" depth="2" NCoef="0" IVar="-1" Cut="0.0000000000000000e+00" cType="1" res="-5.1559805870056152e-03" rms="2.0634441077709198e-01" purity="2.1039581298828125e-01" nType="-99"/>
          <Node pos="r" depth="2" NCoef="0" IVar="-1" Cut="0.0000000000000000e+00" cType="1" res="-1.4069803059101105e-02" rms="4.7867286950349808e-02" purity="1.2173433601856232e-01" nType="-99"/>
        </Node>
      </Node>
    </BinaryTree>
    <BinaryTree type="DecisionTree" boostWeight="1.0000000000000000e+00" itree="680">
      <Node pos="s" depth="0" NCoef="0" IVar="2" Cut="6.0321348905563354e-01" cType="1" res="1.8854747759178281e-03" rms="2.3577183485031128e-01" purity="5.0108599662780762e-01" nType="0">
        <Node pos="l" depth="1" NCoef="0" IVar="-1" Cut="0.0000000000000000e+00" cType="1" res="-9.6831787377595901e-03" rms="0.0000000000000000e+00" purity="-5.9313561767339706e-02" nType="-99"/>
        <Node pos="r" depth="1" NCoef="0" IVar="34" Cut="-1.2989640235900879e+00" cType="1" res="5.0896676257252693e-03" rms="2.4057650566101074e-01" purity="5.1501929759979248e-01" nType="0">
          <Node pos="l" depth="2" NCoef="0" IVar="-1" Cut="0.0000000000000000e+00" cType="1" res="1.4617807464674115e-03" rms="2.3149803280830383e-01" purity="6.1520898342132568e-01" nType="-99"/>
          <Node pos="r" depth="2" NCoef="0" IVar="-1" Cut="0.0000000000000000e+00" cType="1" res="-2.0785178057849407e-03" rms="2.5890275835990906e-01" purity="2.7493777871131897e-01" nType="-99"/>
        </Node>
      </Node>
    </BinaryTree>
    <BinaryTree type="DecisionTree" boostWeight="1.0000000000000000e+00" itree="681">
      <Node pos="s" depth="0" NCoef="0" IVar="45" Cut="2.8475332260131836e+00" cType="1" res="-2.2270990302786231e-04" rms="2.3872770369052887e-01" purity="4.9624103307723999e-01" nType="0">
        <Node pos="l" depth="1" NCoef="0" IVar="0" Cut="9.0372812747955322e-01" cType="1" res="-9.4484426081180573e-03" rms="2.4000817537307739e-01" purity="4.0784773230552673e-01" nType="0">
          <Node pos="l" depth="2" NCoef="0" IVar="-1" Cut="0.0000000000000000e+00" cType="1" res="-1.4407320122700185e-04" rms="2.4508471786975861e-01" purity="4.3983265757560730e-01" nType="-99"/>
          <Node pos="r" depth="2" NCoef="0" IVar="-1" Cut="0.0000000000000000e+00" cType="1" res="-5.4731820710003376e-03" rms="2.0599572360515594e-01" purity="2.3718106746673584e-01" nType="-99"/>
        </Node>
        <Node pos="r" depth="1" NCoef="0" IVar="14" Cut="-2.1612638235092163e-01" cType="1" res="3.1205911189317703e-02" rms="2.3157049715518951e-01" purity="7.9736375808715820e-01" nType="0">
          <Node pos="l" depth="2" NCoef="0" IVar="-1" Cut="0.0000000000000000e+00" cType="1" res="6.2447576783597469e-03" rms="3.4066125750541687e-01" purity="2.8706258535385132e-01" nType="-99"/>
          <Node pos="r" depth="2" NCoef="0" IVar="-1" Cut="0.0000000000000000e+00" cType="1" res="2.2065206430852413e-03" rms="2.0671807229518890e-01" purity="8.8324803113937378e-01" nType="-99"/>
        </Node>
      </Node>
    </BinaryTree>
    <BinaryTree type="DecisionTree" boostWeight="1.0000000000000000e+00" itree="682">
      <Node pos="s" depth="0" NCoef="0" IVar="37" Cut="-1.9683191776275635e+00" cType="1" res="8.9110422413796186e-04" rms="2.3651090264320374e-01" purity="5.0171279907226562e-01" nType="0">
        <Node pos="l" depth="1" NCoef="0" IVar="36" Cut="1.5240087509155273e+00" cType="1" res="1.6993021592497826e-02" rms="2.4172370135784149e-01" purity="5.6712299585342407e-01" nType="0">
          <Node pos="l" depth="2" NCoef="0" IVar="-1" Cut="0.0000000000000000e+00" cType="1" res="1.7684592166915536e-03" rms="2.4221335351467133e-01" purity="5.8877485990524292e-01" nType="-99"/>
          <Node pos="r" depth="2" NCoef="0" IVar="-1" Cut="0.0000000000000000e+00" cType="1" res="-9.0744569897651672e-03" rms="2.0670068264007568e-01" purity="3.8109924644231796e-02" nType="-99"/>
        </Node>
        <Node pos="r" depth="1" NCoef="0" IVar="25" Cut="2.1344408988952637e+00" cType="1" res="-1.8682653084397316e-02" rms="2.2849211096763611e-01" purity="4.2219913005828857e-01" nType="0">
          <Node pos="l" depth="2" NCoef="0" IVar="-1" Cut="0.0000000000000000e+00" cType="1" res="-4.1639660485088825e-03" rms="1.8072727322578430e-01" purity="2.1299163997173309e-01" nType="-99"/>
          <Node pos="r" depth="2" NCoef="0" IVar="-1" Cut="0.0000000000000000e+00" cType="1" res="4.1788941598497331e-04" rms="2.7036052942276001e-01" purity="6.5724319219589233e-01" nType="-99"/>
        </Node>
      </Node>
    </BinaryTree>
    <BinaryTree type="DecisionTree" boostWeight="1.0000000000000000e+00" itree="683">
      <Node pos="s" depth="0" NCoef="0" IVar="36" Cut="-1.4924436807632446e+00" cType="1" res="1.2488400097936392e-03" rms="2.3617875576019287e-01" purity="4.9980461597442627e-01" nType="0">
        <Node pos="l" depth="1" NCoef="0" IVar="54" Cut="-1.4150429964065552e+00" cType="1" res="1.5872353687882423e-02" rms="2.3324060440063477e-01" purity="6.3310569524765015e-01" nType="0">
          <Node pos="l" depth="2" NCoef="0" IVar="-1" Cut="0.0000000000000000e+00" cType="1" res="2.7727843262255192e-03" rms="2.0251855254173279e-01" purity="7.4756634235382080e-01" nType="-99"/>
          <Node pos="r" depth="2" NCoef="0" IVar="-1" Cut="0.0000000000000000e+00" cType="1" res="-1.2832733336836100e-03" rms="2.8564894199371338e-01" purity="3.8783693313598633e-01" nType="-99"/>
        </Node>
        <Node pos="r" depth="1" NCoef="0" IVar="37" Cut="-2.4127266407012939e+00" cType="1" res="-2.0780485123395920e-02" rms="2.3885281383991241e-01" purity="2.9899546504020691e-01" nType="0">
          <Node pos="l" depth="2" NCoef="0" IVar="-1" Cut="0.0000000000000000e+00" cType="1" res="1.6010710969567299e-03" rms="2.9768830537796021e-01" purity="3.9462345838546753e-01" nType="-99"/>
          <Node pos="r" depth="2" NCoef="0" IVar="-1" Cut="0.0000000000000000e+00" cType="1" res="-2.8579535428434610e-03" rms="2.2215987741947174e-01" purity="2.7710786461830139e-01" nType="-99"/>
        </Node>
      </Node>
    </BinaryTree>
    <BinaryTree type="DecisionTree" boostWeight="1.0000000000000000e+00" itree="684">
      <Node pos="s" depth="0" NCoef="0" IVar="17" Cut="-7.5441515445709229e-01" cType="1" res="-3.4896947909146547e-04" rms="2.3573596775531769e-01" purity="4.9863263964653015e-01" nType="0">
        <Node pos="l" depth="1" NCoef="0" IVar="14" Cut="-1.4537136554718018e+00" cType="1" res="3.6223705392330885e-03" rms="2.3629358410835266e-01" purity="5.1367986202239990e-01" nType="0">
          <Node pos="l" depth="2" NCoef="0" IVar="-1" Cut="0.0000000000000000e+00" cType="1" res="-1.7913205549120903e-02" rms="0.0000000000000000e+00" purity="-1.6613531857728958e-02" nType="-99"/>
          <Node pos="r" depth="2" NCoef="0" IVar="-1" Cut="0.0000000000000000e+00" cType="1" res="9.0282404562458396e-04" rms="2.7001124620437622e-01" purity="6.3631707429885864e-01" nType="-99"/>
        </Node>
        <Node pos="r" depth="1" NCoef="0" IVar="15" Cut="-6.8405121564865112e-01" cType="1" res="-7.5278744101524353e-02" rms="2.1140794456005096e-01" purity="2.1472615003585815e-01" nType="0">
          <Node pos="l" depth="2" NCoef="0" IVar="-1" Cut="0.0000000000000000e+00" cType="1" res="-4.8822122626006603e-03" rms="2.3778907954692841e-01" purity="2.6517233252525330e-01" nType="-99"/>
          <Node pos="r" depth="2" NCoef="0" IVar="-1" Cut="0.0000000000000000e+00" cType="1" res="-9.9276779219508171e-03" rms="1.8657551705837250e-01" purity="1.7726482450962067e-01" nType="-99"/>
        </Node>
      </Node>
    </BinaryTree>
    <BinaryTree type="DecisionTree" boostWeight="1.0000000000000000e+00" itree="685">
      <Node pos="s" depth="0" NCoef="0" IVar="0" Cut="7.6044625043869019e-01" cType="1" res="4.2069042101502419e-03" rms="2.4101088941097260e-01" purity="5.0094079971313477e-01" nType="0">
        <Node pos="l" depth="1" NCoef="0" IVar="37" Cut="-8.4168303012847900e-01" cType="1" res="1.4597998932003975e-02" rms="2.4586363136768341e-01" purity="5.4723495244979858e-01" nType="0">
          <Node pos="l" depth="2" NCoef="0" IVar="-1" Cut="0.0000000000000000e+00" cType="1" res="1.6741490690037608e-03" rms="2.4767373502254486e-01" purity="5.6781768798828125e-01" nType="-99"/>
          <Node pos="r" depth="2" NCoef="0" IVar="-1" Cut="0.0000000000000000e+00" cType="1" res="-5.9485333040356636e-03" rms="2.0599296689033508e-01" purity="2.6277765631675720e-01" nType="-99"/>
        </Node>
        <Node pos="r" depth="1" NCoef="0" IVar="4" Cut="3.4686222076416016e+00" cType="1" res="-2.5748785585165024e-02" rms="2.2375532984733582e-01" purity="3.6748304963111877e-01" nType="0">
          <Node pos="l" depth="2" NCoef="0" IVar="-1" Cut="0.0000000000000000e+00" cType="1" res="-9.8042991012334824e-03" rms="1.2392792850732803e-01" purity="1.4679531753063202e-01" nType="-99"/>
          <Node pos="r" depth="2" NCoef="0" IVar="-1" Cut="0.0000000000000000e+00" cType="1" res="-9.4522460130974650e-04" rms="2.4494755268096924e-01" purity="4.3699261546134949e-01" nType="-99"/>
        </Node>
      </Node>
    </BinaryTree>
    <BinaryTree type="DecisionTree" boostWeight="1.0000000000000000e+00" itree="686">
      <Node pos="s" depth="0" NCoef="0" IVar="2" Cut="1.7441931962966919e+00" cType="1" res="-1.5469975187443197e-04" rms="2.3645666241645813e-01" purity="4.9929285049438477e-01" nType="0">
        <Node pos="l" depth="1" NCoef="0" IVar="14" Cut="1.4863872528076172e+00" cType="1" res="-3.2398730516433716e-02" rms="1.8275557458400726e-01" purity="1.8614372611045837e-01" nType="0">
          <Node pos="l" depth="2" NCoef="0" IVar="-1" Cut="0.0000000000000000e+00" cType="1" res="-7.3053413070738316e-03" rms="4.9645807594060898e-02" purity="5.7954456657171249e-02" nType="-99"/>
          <Node pos="r" depth="2" NCoef="0" IVar="-1" Cut="0.0000000000000000e+00" cType="1" res="3.6065056337974966e-04" rms="3.1478899717330933e-01" purity="4.6765333414077759e-01" nType="-99"/>
        </Node>
        <Node pos="r" depth="1" NCoef="0" IVar="0" Cut="1.0366977453231812e+00" cType="1" res="1.0680349543690681e-02" rms="2.5101754069328308e-01" purity="6.0452115535736084e-01" nType="0">
          <Node pos="l" depth="2" NCoef="0" IVar="-1" Cut="0.0000000000000000e+00" cType="1" res="1.4735752483829856e-03" rms="2.4918423593044281e-01" purity="6.2554967403411865e-01" nType="-99"/>
          <Node pos="r" depth="2" NCoef="0" IVar="-1" Cut="0.0000000000000000e+00" cType="1" res="-5.3276596590876579e-03" rms="2.6025772094726562e-01" purity="3.8084301352500916e-01" nType="-99"/>
        </Node>
      </Node>
    </BinaryTree>
    <BinaryTree type="DecisionTree" boostWeight="1.0000000000000000e+00" itree="687">
      <Node pos="s" depth="0" NCoef="0" IVar="63" Cut="1.1957968473434448e+00" cType="1" res="7.8629236668348312e-04" rms="2.3583532869815826e-01" purity="5.0165516138076782e-01" nType="0">
        <Node pos="l" depth="1" NCoef="0" IVar="34" Cut="1.4857536554336548e+00" cType="1" res="4.1787754744291306e-03" rms="2.3851361870765686e-01" purity="5.1148760318756104e-01" nType="0">
          <Node pos="l" depth="2" NCoef="0" IVar="-1" Cut="0.0000000000000000e+00" cType="1" res="7.4984243838116527e-04" rms="2.4070844054222107e-01" purity="5.4287284612655640e-01" nType="-99"/>
          <Node pos="r" depth="2" NCoef="0" IVar="-1" Cut="0.0000000000000000e+00" cType="1" res="-8.3671407774090767e-03" rms="1.9211268424987793e-01" purity="5.5352993309497833e-02" nType="-99"/>
        </Node>
        <Node pos="r" depth="1" NCoef="0" IVar="-1" Cut="0.0000000000000000e+00" cType="1" res="-8.8112009689211845e-03" rms="1.2399468570947647e-01" purity="2.5055938959121704e-01" nType="-99"/>
      </Node>
    </BinaryTree>
    <BinaryTree type="DecisionTree" boostWeight="1.0000000000000000e+00" itree="688">
      <Node pos="s" depth="0" NCoef="0" IVar="57" Cut="-8.7760347127914429e-01" cType="1" res="-2.6402429211884737e-03" rms="2.3772183060646057e-01" purity="4.9601379036903381e-01" nType="0">
        <Node pos="l" depth="1" NCoef="0" IVar="45" Cut="9.7370779514312744e-01" cType="1" res="2.9326695948839188e-03" rms="2.4169199168682098e-01" purity="5.1998251676559448e-01" nType="0">
          <Node pos="l" depth="2" NCoef="0" IVar="-1" Cut="0.0000000000000000e+00" cType="1" res="-7.1381181478500366e-03" rms="9.5510788261890411e-02" purity="7.2198331356048584e-02" nType="-99"/>
          <Node pos="r" depth="2" NCoef="0" IVar="-1" Cut="0.0000000000000000e+00" cType="1" res="7.0374872302636504e-04" rms="2.5131797790527344e-01" purity="5.6595951318740845e-01" nType="-99"/>
        </Node>
        <Node pos="r" depth="1" NCoef="0" IVar="53" Cut="-1.3381602764129639e+00" cType="1" res="-6.6431194543838501e-02" rms="1.7406883835792542e-01" purity="2.2165365517139435e-01" nType="0">
          <Node pos="l" depth="2" NCoef="0" IVar="-1" Cut="0.0000000000000000e+00" cType="1" res="-3.0417479574680328e-03" rms="2.3307079076766968e-01" purity="3.4507596492767334e-01" nType="-99"/>
          <Node pos="r" depth="2" NCoef="0" IVar="-1" Cut="0.0000000000000000e+00" cType="1" res="-1.1557203717529774e-02" rms="9.2257052659988403e-02" purity="1.1978883296251297e-01" nType="-99"/>
        </Node>
      </Node>
    </BinaryTree>
    <BinaryTree type="DecisionTree" boostWeight="1.0000000000000000e+00" itree="689">
      <Node pos="s" depth="0" NCoef="0" IVar="14" Cut="-1.4924079179763794e+00" cType="1" res="-7.2497531073167920e-04" rms="2.3737211525440216e-01" purity="4.9715057015419006e-01" nType="0">
        <Node pos="l" depth="1" NCoef="0" IVar="54" Cut="-6.7996460199356079e-01" cType="1" res="-2.2317335009574890e-02" rms="0.0000000000000000e+00" purity="-2.3882573470473289e-02" nType="-99"/>
        <Node pos="r" depth="1" NCoef="0" IVar="54" Cut="1.4866290092468262e+00" cType="1" res="6.9910837337374687e-03" rms="2.6777702569961548e-01" purity="5.9658497571945190e-01" nType="0">
          <Node pos="l" depth="2" NCoef="0" IVar="-1" Cut="0.0000000000000000e+00" cType="1" res="8.9089205721393228e-04" rms="2.6652097702026367e-01" purity="6.2676817178726196e-01" nType="-99"/>
          <Node pos="r" depth="2" NCoef="0" IVar="-1" Cut="0.0000000000000000e+00" cType="1" res="-6.7722471430897713e-03" rms="2.7580797672271729e-01" purity="1.0337362438440323e-01" nType="-99"/>
        </Node>
      </Node>
    </BinaryTree>
    <BinaryTree type="DecisionTree" boostWeight="1.0000000000000000e+00" itree="690">
      <Node pos="s" depth="0" NCoef="0" IVar="37" Cut="-1.9738662242889404e+00" cType="1" res="1.9073130097240210e-03" rms="2.3442156612873077e-01" purity="5.0101405382156372e-01" nType="0">
        <Node pos="l" depth="1" NCoef="0" IVar="17" Cut="-1.1125495433807373e+00" cType="1" res="1.7538430169224739e-02" rms="2.3980905115604401e-01" purity="5.6405001878738403e-01" nType="0">
          <Node pos="l" depth="2" NCoef="0" IVar="-1" Cut="0.0000000000000000e+00" cType="1" res="2.0368860568851233e-03" rms="2.3822283744812012e-01" purity="5.8724927902221680e-01" nType="-99"/>
          <Node pos="r" depth="2" NCoef="0" IVar="-1" Cut="0.0000000000000000e+00" cType="1" res="-3.7468748632818460e-03" rms="2.4600976705551147e-01" purity="3.5197052359580994e-01" nType="-99"/>
        </Node>
        <Node pos="r" depth="1" NCoef="0" IVar="1" Cut="2.1983921527862549e+00" cType="1" res="-1.6909996047616005e-02" rms="2.2633947432041168e-01" purity="4.2512902617454529e-01" nType="0">
          <Node pos="l" depth="2" NCoef="0" IVar="-1" Cut="0.0000000000000000e+00" cType="1" res="-1.2612131424248219e-02" rms="0.0000000000000000e+00" purity="-7.8763894271105528e-04" nType="-99"/>
          <Node pos="r" depth="2" NCoef="0" IVar="-1" Cut="0.0000000000000000e+00" cType="1" res="-6.0652173124253750e-04" rms="2.6382750272750854e-01" purity="5.2764183282852173e-01" nType="-99"/>
        </Node>
      </Node>
    </BinaryTree>
    <BinaryTree type="DecisionTree" boostWeight="1.0000000000000000e+00" itree="691">
      <Node pos="s" depth="0" NCoef="0" IVar="0" Cut="8.2186543941497803e-01" cType="1" res="2.0008012652397156e-03" rms="2.3746195435523987e-01" purity="5.0110143423080444e-01" nType="0">
        <Node pos="l" depth="1" NCoef="0" IVar="2" Cut="1.2146182060241699e+00" cType="1" res="1.1064174585044384e-02" rms="2.4028949439525604e-01" purity="5.4106903076171875e-01" nType="0">
          <Node pos="l" depth="2" NCoef="0" IVar="-1" Cut="0.0000000000000000e+00" cType="1" res="-4.0256706997752190e-03" rms="1.8764296174049377e-01" purity="1.2181831896305084e-01" nType="-99"/>
          <Node pos="r" depth="2" NCoef="0" IVar="-1" Cut="0.0000000000000000e+00" cType="1" res="1.4471011236310005e-03" rms="2.4362851679325104e-01" purity="5.7832199335098267e-01" nType="-99"/>
        </Node>
        <Node pos="r" depth="1" NCoef="0" IVar="4" Cut="3.4817945957183838e+00" cType="1" res="-3.1911432743072510e-02" rms="2.2333002090454102e-01" purity="3.5155555605888367e-01" nType="0">
          <Node pos="l" depth="2" NCoef="0" IVar="-1" Cut="0.0000000000000000e+00" cType="1" res="-1.2630989775061607e-02" rms="9.2326343059539795e-02" purity="1.1081741750240326e-01" nType="-99"/>
          <Node pos="r" depth="2" NCoef="0" IVar="-1" Cut="0.0000000000000000e+00" cType="1" res="-1.1035850038751960e-03" rms="2.4856583774089813e-01" purity="4.3032521009445190e-01" nType="-99"/>
        </Node>
      </Node>
    </BinaryTree>
    <BinaryTree type="DecisionTree" boostWeight="1.0000000000000000e+00" itree="692">
      <Node pos="s" depth="0" NCoef="0" IVar="2" Cut="5.0748854875564575e-01" cType="1" res="-3.3835176145657897e-04" rms="2.3393042385578156e-01" purity="4.9774956703186035e-01" nType="0">
        <Node pos="l" depth="1" NCoef="0" IVar="-1" Cut="0.0000000000000000e+00" cType="1" res="-9.1762579977512360e-03" rms="0.0000000000000000e+00" purity="-5.5631425231695175e-02" nType="-99"/>
        <Node pos="r" depth="1" NCoef="0" IVar="14" Cut="-1.1054556369781494e+00" cType="1" res="2.2617345675826073e-03" rms="2.3827371001243591e-01" purity="5.0943082571029663e-01" nType="0">
          <Node pos="l" depth="2" NCoef="0" IVar="-1" Cut="0.0000000000000000e+00" cType="1" res="-8.1608537584543228e-03" rms="0.0000000000000000e+00" purity="1.3597014360129833e-02" nType="-99"/>
          <Node pos="r" depth="2" NCoef="0" IVar="-1" Cut="0.0000000000000000e+00" cType="1" res="8.9119008043780923e-04" rms="2.7710103988647461e-01" purity="6.7311310768127441e-01" nType="-99"/>
        </Node>
      </Node>
    </BinaryTree>
    <BinaryTree type="DecisionTree" boostWeight="1.0000000000000000e+00" itree="693">
      <Node pos="s" depth="0" NCoef="0" IVar="37" Cut="-9.0167188644409180e-01" cType="1" res="1.4983273576945066e-03" rms="2.3604838550090790e-01" purity="4.9966901540756226e-01" nType="0">
        <Node pos="l" depth="1" NCoef="0" IVar="2" Cut="8.1908535957336426e-01" cType="1" res="6.7057828418910503e-03" rms="2.3898656666278839e-01" purity="5.2420371770858765e-01" nType="0">
          <Node pos="l" depth="2" NCoef="0" IVar="-1" Cut="0.0000000000000000e+00" cType="1" res="-6.1293435283005238e-03" rms="0.0000000000000000e+00" purity="1.4141554012894630e-02" nType="-99"/>
          <Node pos="r" depth="2" NCoef="0" IVar="-1" Cut="0.0000000000000000e+00" cType="1" res="8.8883860735222697e-04" rms="2.4285615980625153e-01" purity="5.4322558641433716e-01" nType="-99"/>
        </Node>
        <Node pos="r" depth="1" NCoef="0" IVar="35" Cut="-1.3380980491638184e+00" cType="1" res="-5.3136650472879410e-02" rms="1.9443692266941071e-01" purity="2.4225822091102600e-01" nType="0">
          <Node pos="l" depth="2" NCoef="0" IVar="-1" Cut="0.0000000000000000e+00" cType="1" res="-9.8687899298965931e-04" rms="2.4234274029731750e-01" purity="3.8989743590354919e-01" nType="-99"/>
          <Node pos="r" depth="2" NCoef="0" IVar="-1" Cut="0.0000000000000000e+00" cType="1" res="-7.7841859310865402e-03" rms="1.7329566180706024e-01" purity="1.9323505461215973e-01" nType="-99"/>
        </Node>
      </Node>
    </BinaryTree>
    <BinaryTree type="DecisionTree" boostWeight="1.0000000000000000e+00" itree="694">
      <Node pos="s" depth="0" NCoef="0" IVar="37" Cut="-1.8251917362213135e+00" cType="1" res="1.3139980146661401e-03" rms="2.3732069134712219e-01" purity="4.9843129515647888e-01" nType="0">
        <Node pos="l" depth="1" NCoef="0" IVar="56" Cut="1.5237022638320923e+00" cType="1" res="1.4994200319051743e-02" rms="2.4480958282947540e-01" purity="5.5411833524703979e-01" nType="0">
          <Node pos="l" depth="2" NCoef="0" IVar="-1" Cut="0.0000000000000000e+00" cType="1" res="1.5920548466965556e-03" rms="2.4598729610443115e-01" purity="5.7517588138580322e-01" nType="-99"/>
          <Node pos="r" depth="2" NCoef="0" IVar="-1" Cut="0.0000000000000000e+00" cType="1" res="-9.6300458535552025e-03" rms="1.9092687964439392e-01" purity="2.7558131143450737e-02" nType="-99"/>
        </Node>
        <Node pos="r" depth="1" NCoef="0" IVar="45" Cut="1.6084126234054565e+00" cType="1" res="-2.1147843450307846e-02" rms="2.2266773879528046e-01" purity="4.0699738264083862e-01" nType="0">
          <Node pos="l" depth="2" NCoef="0" IVar="-1" Cut="0.0000000000000000e+00" cType="1" res="-7.4901832267642021e-03" rms="4.5578770339488983e-02" purity="9.6136547625064850e-02" nType="-99"/>
          <Node pos="r" depth="2" NCoef="0" IVar="-1" Cut="0.0000000000000000e+00" cType="1" res="-5.3351075621321797e-04" rms="2.6305279135704041e-01" purity="5.4006671905517578e-01" nType="-99"/>
        </Node>
      </Node>
    </BinaryTree>
    <BinaryTree type="DecisionTree" boostWeight="1.0000000000000000e+00" itree="695">
      <Node pos="s" depth="0" NCoef="0" IVar="0" Cut="9.7546881437301636e-01" cType="1" res="1.8186699599027634e-03" rms="2.4081118404865265e-01" purity="5.0273966789245605e-01" nType="0">
        <Node pos="l" depth="1" NCoef="0" IVar="44" Cut="1.2345679104328156e-02" cType="1" res="8.1492839381098747e-03" rms="2.4260322749614716e-01" purity="5.2433037757873535e-01" nType="0">
          <Node pos="l" depth="2" NCoef="0" IVar="-1" Cut="0.0000000000000000e+00" cType="1" res="1.0446615051478148e-03" rms="2.3942753672599792e-01" purity="5.3584891557693481e-01" nType="-99"/>
          <Node pos="r" depth="2" NCoef="0" IVar="-1" Cut="0.0000000000000000e+00" cType="1" res="-6.7080832086503506e-03" rms="2.8823590278625488e-01" purity="2.9543852806091309e-01" nType="-99"/>
        </Node>
        <Node pos="r" depth="1" NCoef="0" IVar="4" Cut="3.4751760959625244e+00" cType="1" res="-4.8537582159042358e-02" rms="2.1964643895626068e-01" purity="3.3099877834320068e-01" nType="0">
          <Node pos="l" depth="2" NCoef="0" IVar="-1" Cut="0.0000000000000000e+00" cType="1" res="-1.7770396545529366e-02" rms="0.0000000000000000e+00" purity="6.5463759005069733e-02" nType="-99"/>
          <Node pos="r" depth="2" NCoef="0" IVar="-1" Cut="0.0000000000000000e+00" cType="1" res="-2.2042228374630213e-03" rms="2.5342527031898499e-01" purity="4.0769937634468079e-01" nType="-99"/>
        </Node>
      </Node>
    </BinaryTree>
    <BinaryTree type="DecisionTree" boostWeight="1.0000000000000000e+00" itree="696">
      <Node pos="s" depth="0" NCoef="0" IVar="14" Cut="1.4484179019927979e+00" cType="1" res="-1.1698818998411298e-03" rms="2.3409748077392578e-01" purity="4.9922257661819458e-01" nType="0">
        <Node pos="l" depth="1" NCoef="0" IVar="2" Cut="2.1437101364135742e+00" cType="1" res="-2.0409217104315758e-02" rms="2.0205955207347870e-01" purity="1.9109934568405151e-01" nType="0">
          <Node pos="l" depth="2" NCoef="0" IVar="-1" Cut="0.0000000000000000e+00" cType="1" res="-6.1369137838482857e-03" rms="6.3376598060131073e-02" purity="7.1166366338729858e-02" nType="-99"/>
          <Node pos="r" depth="2" NCoef="0" IVar="-1" Cut="0.0000000000000000e+00" cType="1" res="5.3838035091757774e-04" rms="2.9806461930274963e-01" purity="3.5159566998481750e-01" nType="-99"/>
        </Node>
        <Node pos="r" depth="1" NCoef="0" IVar="36" Cut="1.5245062112808228e+00" cType="1" res="1.4068011194467545e-02" rms="2.5562390685081482e-01" purity="7.4326157569885254e-01" nType="0">
          <Node pos="l" depth="2" NCoef="0" IVar="-1" Cut="0.0000000000000000e+00" cType="1" res="1.4251262182369828e-03" rms="2.5344517827033997e-01" purity="7.7107107639312744e-01" nType="-99"/>
          <Node pos="r" depth="2" NCoef="0" IVar="-1" Cut="0.0000000000000000e+00" cType="1" res="-7.7867689542472363e-03" rms="2.8046390414237976e-01" purity="7.0725701749324799e-02" nType="-99"/>
        </Node>
      </Node>
    </BinaryTree>
    <BinaryTree type="DecisionTree" boostWeight="1.0000000000000000e+00" itree="697">
      <Node pos="s" depth="0" NCoef="0" IVar="1" Cut="1.9922486543655396e+00" cType="1" res="1.6623529372736812e-03" rms="2.3729115724563599e-01" purity="5.0080966949462891e-01" nType="0">
        <Node pos="l" depth="1" NCoef="0" IVar="25" Cut="1.4073932170867920e+00" cType="1" res="-1.2616405263543129e-02" rms="0.0000000000000000e+00" purity="-5.0050243735313416e-03" nType="-99"/>
        <Node pos="r" depth="1" NCoef="0" IVar="2" Cut="1.3443989753723145e+00" cType="1" res="7.6529290527105331e-03" rms="2.5547474622726440e-01" purity="5.5602115392684937e-01" nType="0">
          <Node pos="l" depth="2" NCoef="0" IVar="-1" Cut="0.0000000000000000e+00" cType="1" res="-3.1851944513618946e-03" rms="2.1936604380607605e-01" purity="1.7554900050163269e-01" nType="-99"/>
          <Node pos="r" depth="2" NCoef="0" IVar="-1" Cut="0.0000000000000000e+00" cType="1" res="1.0973026510328054e-03" rms="2.5829812884330750e-01" purity="5.9487217664718628e-01" nType="-99"/>
        </Node>
      </Node>
    </BinaryTree>
    <BinaryTree type="DecisionTree" boostWeight="1.0000000000000000e+00" itree="698">
      <Node pos="s" depth="0" NCoef="0" IVar="17" Cut="-9.6321457624435425e-01" cType="1" res="1.2893966049887240e-04" rms="2.3391233384609222e-01" purity="4.9909624457359314e-01" nType="0">
        <Node pos="l" depth="1" NCoef="0" IVar="57" Cut="-1.5072096586227417e+00" cType="1" res="5.7614841498434544e-03" rms="2.3747470974922180e-01" purity="5.2317374944686890e-01" nType="0">
          <Node pos="l" depth="2" NCoef="0" IVar="-1" Cut="0.0000000000000000e+00" cType="1" res="1.3584600528702140e-03" rms="2.3842686414718628e-01" purity="5.6746065616607666e-01" nType="-99"/>
          <Node pos="r" depth="2" NCoef="0" IVar="-1" Cut="0.0000000000000000e+00" cType="1" res="-2.4413324426859617e-03" rms="2.3153400421142578e-01" purity="3.8120508193969727e-01" nType="-99"/>
        </Node>
        <Node pos="r" depth="1" NCoef="0" IVar="2" Cut="2.5262565612792969e+00" cType="1" res="-5.8612760156393051e-02" rms="1.8281310796737671e-01" purity="2.4799251556396484e-01" nType="0">
          <Node pos="l" depth="2" NCoef="0" IVar="-1" Cut="0.0000000000000000e+00" cType="1" res="-9.7598135471343994e-03" rms="8.0492660403251648e-02" purity="1.1588180810213089e-01" nType="-99"/>
          <Node pos="r" depth="2" NCoef="0" IVar="-1" Cut="0.0000000000000000e+00" cType="1" res="-7.3313212487846613e-04" rms="3.1062328815460205e-01" purity="5.7351976633071899e-01" nType="-99"/>
        </Node>
      </Node>
    </BinaryTree>
    <BinaryTree type="DecisionTree" boostWeight="1.0000000000000000e+00" itree="699">
      <Node pos="s" depth="0" NCoef="0" IVar="25" Cut="7.8515589237213135e-01" cType="1" res="7.8842620132490993e-04" rms="2.3395854234695435e-01" purity="5.0104272365570068e-01" nType="0">
        <Node pos="l" depth="1" NCoef="0" IVar="53" Cut="-7.5785928964614868e-01" cType="1" res="-1.1836416088044643e-02" rms="0.0000000000000000e+00" purity="2.7484230697154999e-02" nType="-99"/>
        <Node pos="r" depth="1" NCoef="0" IVar="2" Cut="5.6514984369277954e-01" cType="1" res="5.0185797736048698e-03" rms="2.4152505397796631e-01" purity="5.2906441688537598e-01" nType="0">
          <Node pos="l" depth="2" NCoef="0" IVar="-1" Cut="0.0000000000000000e+00" cType="1" res="-8.4496317431330681e-03" rms="0.0000000000000000e+00" purity="-3.9605986326932907e-02" nType="-99"/>
          <Node pos="r" depth="2" NCoef="0" IVar="-1" Cut="0.0000000000000000e+00" cType="1" res="6.8376341369003057e-04" rms="2.4548603594303131e-01" purity="5.4270482063293457e-01" nType="-99"/>
        </Node>
      </Node>
    </BinaryTree>
    <BinaryTree type="DecisionTree" boostWeight="1.0000000000000000e+00" itree="700">
      <Node pos="s" depth="0" NCoef="0" IVar="2" Cut="1.5638595819473267e+00" cType="1" res="3.8950421730987728e-04" rms="2.3582328855991364e-01" purity="4.9769249558448792e-01" nType="0">
        <Node pos="l" depth="1" NCoef="0" IVar="1" Cut="2.7969889640808105e+00" cType="1" res="-3.5189285874366760e-02" rms="1.8820434808731079e-01" purity="1.6805137693881989e-01" nType="0">
          <Node pos="l" depth="2" NCoef="0" IVar="-1" Cut="0.0000000000000000e+00" cType="1" res="-1.9705488812178373e-03" rms="1.4087015390396118e-01" purity="1.1106040328741074e-01" nType="-99"/>
          <Node pos="r" depth="2" NCoef="0" IVar="-1" Cut="0.0000000000000000e+00" cType="1" res="-4.8323571681976318e-03" rms="2.7368959784507751e-01" purity="3.2565757632255554e-01" nType="-99"/>
        </Node>
        <Node pos="r" depth="1" NCoef="0" IVar="45" Cut="1.4240958690643311e+00" cType="1" res="8.0049280077219009e-03" rms="2.4414259195327759e-01" purity="5.6825023889541626e-01" nType="0">
          <Node pos="l" depth="2" NCoef="0" IVar="-1" Cut="0.0000000000000000e+00" cType="1" res="-3.5017493646591902e-03" rms="1.9538156688213348e-01" purity="1.9055880606174469e-01" nType="-99"/>
          <Node pos="r" depth="2" NCoef="0" IVar="-1" Cut="0.0000000000000000e+00" cType="1" res="1.4377671759575605e-03" rms="2.5230321288108826e-01" purity="6.4727801084518433e-01" nType="-99"/>
        </Node>
      </Node>
    </BinaryTree>
    <BinaryTree type="DecisionTree" boostWeight="1.0000000000000000e+00" itree="701">
      <Node pos="s" depth="0" NCoef="0" IVar="14" Cut="-1.3763252496719360e+00" cType="1" res="-4.4031552533851936e-05" rms="2.3796178400516510e-01" purity="4.9919718503952026e-01" nType="0">
        <Node pos="l" depth="1" NCoef="0" IVar="39" Cut="-3.0125033855438232e-01" cType="1" res="-1.4992260374128819e-02" rms="0.0000000000000000e+00" purity="-1.1575783602893353e-02" nType="-99"/>
        <Node pos="r" depth="1" NCoef="0" IVar="9" Cut="2.4609858989715576e+00" cType="1" res="8.6476616561412811e-03" rms="2.7614447474479675e-01" purity="6.3845497369766235e-01" nType="0">
          <Node pos="l" depth="2" NCoef="0" IVar="-1" Cut="0.0000000000000000e+00" cType="1" res="-9.1599738225340843e-03" rms="2.1726019680500031e-01" purity="1.3790000975131989e-01" nType="-99"/>
          <Node pos="r" depth="2" NCoef="0" IVar="-1" Cut="0.0000000000000000e+00" cType="1" res="9.1615953715518117e-04" rms="2.7707114815711975e-01" purity="6.5533214807510376e-01" nType="-99"/>
        </Node>
      </Node>
    </BinaryTree>
    <BinaryTree type="DecisionTree" boostWeight="1.0000000000000000e+00" itree="702">
      <Node pos="s" depth="0" NCoef="0" IVar="17" Cut="-1.3763475418090820e+00" cType="1" res="1.7065256834030151e-03" rms="2.3746751248836517e-01" purity="5.0147992372512817e-01" nType="0">
        <Node pos="l" depth="1" NCoef="0" IVar="52" Cut="-1.5312020778656006e+00" cType="1" res="1.0177048854529858e-02" rms="2.3989266157150269e-01" purity="5.3953450918197632e-01" nType="0">
          <Node pos="l" depth="2" NCoef="0" IVar="-1" Cut="0.0000000000000000e+00" cType="1" res="2.8283414430916309e-03" rms="2.1189840137958527e-01" purity="7.1131354570388794e-01" nType="-99"/>
          <Node pos="r" depth="2" NCoef="0" IVar="-1" Cut="0.0000000000000000e+00" cType="1" res="-3.9418973028659821e-04" rms="2.5666347146034241e-01" purity="4.1928657889366150e-01" nType="-99"/>
        </Node>
        <Node pos="r" depth="1" NCoef="0" IVar="5" Cut="1.6021958589553833e+00" cType="1" res="-3.6441143602132797e-02" rms="2.2225838899612427e-01" purity="3.3009818196296692e-01" nType="0">
          <Node pos="l" depth="2" NCoef="0" IVar="-1" Cut="0.0000000000000000e+00" cType="1" res="-8.8564082980155945e-03" rms="2.8325378894805908e-02" purity="9.3519523739814758e-02" nType="-99"/>
          <Node pos="r" depth="2" NCoef="0" IVar="-1" Cut="0.0000000000000000e+00" cType="1" res="-1.5978595474734902e-03" rms="2.7676120400428772e-01" purity="4.6655237674713135e-01" nType="-99"/>
        </Node>
      </Node>
    </BinaryTree>
    <BinaryTree type="DecisionTree" boostWeight="1.0000000000000000e+00" itree="703">
      <Node pos="s" depth="0" NCoef="0" IVar="37" Cut="-1.0794265270233154e+00" cType="1" res="4.1713435202836990e-03" rms="2.3831789195537567e-01" purity="5.0264531373977661e-01" nType="0">
        <Node pos="l" depth="1" NCoef="0" IVar="34" Cut="1.4480490684509277e+00" cType="1" res="1.0976295918226242e-02" rms="2.4478141963481903e-01" purity="5.3417915105819702e-01" nType="0">
          <Node pos="l" depth="2" NCoef="0" IVar="-1" Cut="0.0000000000000000e+00" cType="1" res="1.4124641893431544e-03" rms="2.4629716575145721e-01" purity="5.7387346029281616e-01" nType="-99"/>
          <Node pos="r" depth="2" NCoef="0" IVar="-1" Cut="0.0000000000000000e+00" cType="1" res="-6.3894153572618961e-03" rms="2.1701914072036743e-01" purity="7.9900398850440979e-02" nType="-99"/>
        </Node>
        <Node pos="r" depth="1" NCoef="0" IVar="1" Cut="2.2397048473358154e+00" cType="1" res="-4.3934341520071030e-02" rms="1.7910915613174438e-01" purity="2.7972570061683655e-01" nType="0">
          <Node pos="l" depth="2" NCoef="0" IVar="-1" Cut="0.0000000000000000e+00" cType="1" res="-2.9596274718642235e-02" rms="0.0000000000000000e+00" purity="-5.4042275995016098e-02" nType="-99"/>
          <Node pos="r" depth="2" NCoef="0" IVar="-1" Cut="0.0000000000000000e+00" cType="1" res="-2.2497440222650766e-03" rms="2.6323822140693665e-01" purity="4.0329945087432861e-01" nType="-99"/>
        </Node>
      </Node>
    </BinaryTree>
    <BinaryTree type="DecisionTree" boostWeight="1.0000000000000000e+00" itree="704">
      <Node pos="s" depth="0" NCoef="0" IVar="52" Cut="-1.4926078319549561e+00" cType="1" res="9.9882960785180330e-04" rms="2.3388350009918213e-01" purity="4.9831095337867737e-01" nType="0">
        <Node pos="l" depth="1" NCoef="0" IVar="34" Cut="-1.1828930377960205e+00" cType="1" res="1.5371028333902359e-02" rms="2.3597526550292969e-01" purity="6.2925243377685547e-01" nType="0">
          <Node pos="l" depth="2" NCoef="0" IVar="-1" Cut="0.0000000000000000e+00" cType="1" res="2.3973186034709215e-03" rms="2.1501263976097107e-01" purity="7.2796380519866943e-01" nType="-99"/>
          <Node pos="r" depth="2" NCoef="0" IVar="-1" Cut="0.0000000000000000e+00" cType="1" res="-1.4839993091300130e-03" rms="2.8652220964431763e-01" purity="3.3774334192276001e-01" nType="-99"/>
        </Node>
        <Node pos="r" depth="1" NCoef="0" IVar="53" Cut="6.7728739976882935e-01" cType="1" res="-2.0076893270015717e-02" rms="2.2915747761726379e-01" purity="3.0629545450210571e-01" nType="0">
          <Node pos="l" depth="2" NCoef="0" IVar="-1" Cut="0.0000000000000000e+00" cType="1" res="-1.0952948359772563e-03" rms="2.3950272798538208e-01" purity="3.3255589008331299e-01" nType="-99"/>
          <Node pos="r" depth="2" NCoef="0" IVar="-1" Cut="0.0000000000000000e+00" cType="1" res="-7.5083603151142597e-03" rms="1.5165990591049194e-01" purity="1.5995253622531891e-01" nType="-99"/>
        </Node>
      </Node>
    </BinaryTree>
    <BinaryTree type="DecisionTree" boostWeight="1.0000000000000000e+00" itree="705">
      <Node pos="s" depth="0" NCoef="0" IVar="34" Cut="1.4480490684509277e+00" cType="1" res="-3.4787296317517757e-04" rms="2.3510481417179108e-01" purity="4.9940806627273560e-01" nType="0">
        <Node pos="l" depth="1" NCoef="0" IVar="57" Cut="-8.8162171840667725e-01" cType="1" res="4.7989315353333950e-03" rms="2.3930752277374268e-01" purity="5.3944718837738037e-01" nType="0">
          <Node pos="l" depth="2" NCoef="0" IVar="-1" Cut="0.0000000000000000e+00" cType="1" res="8.7349582463502884e-04" rms="2.4034538865089417e-01" purity="5.6414783000946045e-01" nType="-99"/>
          <Node pos="r" depth="2" NCoef="0" IVar="-1" Cut="0.0000000000000000e+00" cType="1" res="-5.9211840853095055e-03" rms="2.1770280599594116e-01" purity="2.5374081730842590e-01" nType="-99"/>
        </Node>
        <Node pos="r" depth="1" NCoef="0" IVar="3" Cut="4.5949192047119141e+00" cType="1" res="-5.6924212723970413e-02" rms="1.7281536757946014e-01" purity="5.9277806431055069e-02" nType="0">
          <Node pos="l" depth="2" NCoef="0" IVar="-1" Cut="0.0000000000000000e+00" cType="1" res="1.8138822633773088e-03" rms="2.3129726946353912e-01" purity="8.0319531261920929e-02" nType="-99"/>
          <Node pos="r" depth="2" NCoef="0" IVar="-1" Cut="0.0000000000000000e+00" cType="1" res="-1.0219677351415157e-02" rms="1.3690975308418274e-01" purity="5.1468208432197571e-02" nType="-99"/>
        </Node>
      </Node>
    </BinaryTree>
    <BinaryTree type="DecisionTree" boostWeight="1.0000000000000000e+00" itree="706">
      <Node pos="s" depth="0" NCoef="0" IVar="65" Cut="7.7429032325744629e-01" cType="1" res="1.6507044201716781e-03" rms="2.3656852543354034e-01" purity="5.0029128789901733e-01" nType="0">
        <Node pos="l" depth="1" NCoef="0" IVar="2" Cut="9.8976099491119385e-01" cType="1" res="5.9763449244201183e-03" rms="2.4049967527389526e-01" purity="5.2257430553436279e-01" nType="0">
          <Node pos="l" depth="2" NCoef="0" IVar="-1" Cut="0.0000000000000000e+00" cType="1" res="-5.8835195377469063e-03" rms="6.2781669199466705e-02" purity="4.5473508536815643e-02" nType="-99"/>
          <Node pos="r" depth="2" NCoef="0" IVar="-1" Cut="0.0000000000000000e+00" cType="1" res="9.2698715161532164e-04" rms="2.4567969143390656e-01" purity="5.4824417829513550e-01" nType="-99"/>
        </Node>
        <Node pos="r" depth="1" NCoef="0" IVar="9" Cut="2.6431190967559814e+00" cType="1" res="-7.2800673544406891e-02" rms="1.3349300622940063e-01" purity="1.1676473170518875e-01" nType="0">
          <Node pos="l" depth="2" NCoef="0" IVar="-1" Cut="0.0000000000000000e+00" cType="1" res="-1.2659103609621525e-02" rms="6.5454863011837006e-02" purity="3.6529064178466797e-02" nType="-99"/>
          <Node pos="r" depth="2" NCoef="0" IVar="-1" Cut="0.0000000000000000e+00" cType="1" res="-4.1267783381044865e-03" rms="1.7211687564849854e-01" purity="2.0184643566608429e-01" nType="-99"/>
        </Node>
      </Node>
    </BinaryTree>
    <BinaryTree type="DecisionTree" boostWeight="1.0000000000000000e+00" itree="707">
      <Node pos="s" depth="0" NCoef="0" IVar="25" Cut="2.1940941810607910e+00" cType="1" res="1.1579134734347463e-03" rms="2.3552685976028442e-01" purity="5.0083523988723755e-01" nType="0">
        <Node pos="l" depth="1" NCoef="0" IVar="14" Cut="-1.1054556369781494e+00" cType="1" res="-1.5595325268805027e-02" rms="2.1919241547584534e-01" purity="2.9914045333862305e-01" nType="0">
          <Node pos="l" depth="2" NCoef="0" IVar="-1" Cut="0.0000000000000000e+00" cType="1" res="-2.4632636457681656e-02" rms="0.0000000000000000e+00" purity="-2.5710333138704300e-02" nType="-99"/>
          <Node pos="r" depth="2" NCoef="0" IVar="-1" Cut="0.0000000000000000e+00" cType="1" res="-1.5173910469457041e-05" rms="2.9901105165481567e-01" purity="4.6864151954650879e-01" nType="-99"/>
        </Node>
        <Node pos="r" depth="1" NCoef="0" IVar="54" Cut="1.4865821599960327e+00" cType="1" res="1.8361425027251244e-02" rms="2.5003188848495483e-01" purity="7.0795089006423950e-01" nType="0">
          <Node pos="l" depth="2" NCoef="0" IVar="-1" Cut="0.0000000000000000e+00" cType="1" res="1.9181288080289960e-03" rms="2.4404020607471466e-01" purity="7.3552495241165161e-01" nType="-99"/>
          <Node pos="r" depth="2" NCoef="0" IVar="-1" Cut="0.0000000000000000e+00" cType="1" res="-5.5850148200988770e-03" rms="3.3943784236907959e-01" purity="1.4521773159503937e-01" nType="-99"/>
        </Node>
      </Node>
    </BinaryTree>
    <BinaryTree type="DecisionTree" boostWeight="1.0000000000000000e+00" itree="708">
      <Node pos="s" depth="0" NCoef="0" IVar="45" Cut="1.2901349067687988e+00" cType="1" res="-4.0696535143069923e-04" rms="2.3338910937309265e-01" purity="5.0064021348953247e-01" nType="0">
        <Node pos="l" depth="1" NCoef="0" IVar="49" Cut="2.9070036411285400e+00" cType="1" res="-3.7702199071645737e-02" rms="1.3348002731800079e-01" purity="1.2078957259654999e-01" nType="0">
          <Node pos="l" depth="2" NCoef="0" IVar="-1" Cut="0.0000000000000000e+00" cType="1" res="-8.1405509263277054e-03" rms="9.9368833005428314e-02" purity="6.8400353193283081e-02" nType="-99"/>
          <Node pos="r" depth="2" NCoef="0" IVar="-1" Cut="0.0000000000000000e+00" cType="1" res="6.2833522679284215e-04" rms="1.8467666208744049e-01" purity="2.4652485549449921e-01" nType="-99"/>
        </Node>
        <Node pos="r" depth="1" NCoef="0" IVar="34" Cut="-1.2604280710220337e+00" cType="1" res="7.2906622663140297e-03" rms="2.4837335944175720e-01" purity="5.7904028892517090e-01" nType="0">
          <Node pos="l" depth="2" NCoef="0" IVar="-1" Cut="0.0000000000000000e+00" cType="1" res="1.5192298451438546e-03" rms="2.3372505605220795e-01" purity="6.7287403345108032e-01" nType="-99"/>
          <Node pos="r" depth="2" NCoef="0" IVar="-1" Cut="0.0000000000000000e+00" cType="1" res="-1.6267555765807629e-03" rms="2.8205215930938721e-01" purity="3.2790642976760864e-01" nType="-99"/>
        </Node>
      </Node>
    </BinaryTree>
    <BinaryTree type="DecisionTree" boostWeight="1.0000000000000000e+00" itree="709">
      <Node pos="s" depth="0" NCoef="0" IVar="36" Cut="1.5240087509155273e+00" cType="1" res="1.1137550463899970e-03" rms="2.3422023653984070e-01" purity="5.0238853693008423e-01" nType="0">
        <Node pos="l" depth="1" NCoef="0" IVar="14" Cut="1.5258079767227173e+00" cType="1" res="4.3862215243279934e-03" rms="2.3571664094924927e-01" purity="5.2172523736953735e-01" nType="0">
          <Node pos="l" depth="2" NCoef="0" IVar="-1" Cut="0.0000000000000000e+00" cType="1" res="-8.6389406351372600e-04" rms="2.3730133473873138e-01" purity="3.6514270305633545e-01" nType="-99"/>
          <Node pos="r" depth="2" NCoef="0" IVar="-1" Cut="0.0000000000000000e+00" cType="1" res="2.3541699629276991e-03" rms="2.3069244623184204e-01" purity="8.1185895204544067e-01" nType="-99"/>
        </Node>
        <Node pos="r" depth="1" NCoef="0" IVar="-1" Cut="0.0000000000000000e+00" cType="1" res="-9.9260210990905762e-03" rms="1.7525170743465424e-01" purity="2.5105396285653114e-02" nType="-99"/>
      </Node>
    </BinaryTree>
    <BinaryTree type="DecisionTree" boostWeight="1.0000000000000000e+00" itree="710">
      <Node pos="s" depth="0" NCoef="0" IVar="0" Cut="7.6044625043869019e-01" cType="1" res="2.2416561841964722e-03" rms="2.3623730242252350e-01" purity="5.0145566463470459e-01" nType="0">
        <Node pos="l" depth="1" NCoef="0" IVar="2" Cut="7.7361059188842773e-01" cType="1" res="1.2007527053356171e-02" rms="2.3974376916885376e-01" purity="5.4846900701522827e-01" nType="0">
          <Node pos="l" depth="2" NCoef="0" IVar="-1" Cut="0.0000000000000000e+00" cType="1" res="-6.1791338957846165e-03" rms="0.0000000000000000e+00" purity="1.2838212773203850e-02" nType="-99"/>
          <Node pos="r" depth="2" NCoef="0" IVar="-1" Cut="0.0000000000000000e+00" cType="1" res="1.3901552883908153e-03" rms="2.4396939575672150e-01" purity="5.6884956359863281e-01" nType="-99"/>
        </Node>
        <Node pos="r" depth="1" NCoef="0" IVar="4" Cut="3.4652068614959717e+00" cType="1" res="-2.5632383301854134e-02" rms="2.2359594702720642e-01" purity="3.6726871132850647e-01" nType="0">
          <Node pos="l" depth="2" NCoef="0" IVar="-1" Cut="0.0000000000000000e+00" cType="1" res="-1.1545223183929920e-02" rms="6.8538703024387360e-02" purity="1.2412672489881516e-01" nType="-99"/>
          <Node pos="r" depth="2" NCoef="0" IVar="-1" Cut="0.0000000000000000e+00" cType="1" res="-7.2574714431539178e-04" rms="2.4940781295299530e-01" purity="4.4024038314819336e-01" nType="-99"/>
        </Node>
      </Node>
    </BinaryTree>
    <BinaryTree type="DecisionTree" boostWeight="1.0000000000000000e+00" itree="711">
      <Node pos="s" depth="0" NCoef="0" IVar="57" Cut="-2.2117164134979248e+00" cType="1" res="3.8785007200203836e-04" rms="2.3560705780982971e-01" purity="5.0196033716201782e-01" nType="0">
        <Node pos="l" depth="1" NCoef="0" IVar="56" Cut="1.4076961278915405e+00" cType="1" res="1.9665727391839027e-02" rms="2.4271726608276367e-01" purity="5.8001577854156494e-01" nType="0">
          <Node pos="l" depth="2" NCoef="0" IVar="-1" Cut="0.0000000000000000e+00" cType="1" res="2.1943920291960239e-03" rms="2.4134443700313568e-01" purity="6.2278437614440918e-01" nType="-99"/>
          <Node pos="r" depth="2" NCoef="0" IVar="-1" Cut="0.0000000000000000e+00" cType="1" res="-4.9560298211872578e-03" rms="2.4814413487911224e-01" purity="1.0043430328369141e-01" nType="-99"/>
        </Node>
        <Node pos="r" depth="1" NCoef="0" IVar="14" Cut="1.3704904317855835e+00" cType="1" res="-1.4106978662312031e-02" rms="2.2905020415782928e-01" purity="4.4327130913734436e-01" nType="0">
          <Node pos="l" depth="2" NCoef="0" IVar="-1" Cut="0.0000000000000000e+00" cType="1" res="-5.1701590418815613e-03" rms="1.4699284732341766e-01" purity="1.0986065119504929e-01" nType="-99"/>
          <Node pos="r" depth="2" NCoef="0" IVar="-1" Cut="0.0000000000000000e+00" cType="1" res="1.3333253446035087e-04" rms="2.7273765206336975e-01" purity="6.8661153316497803e-01" nType="-99"/>
        </Node>
      </Node>
    </BinaryTree>
    <BinaryTree type="DecisionTree" boostWeight="1.0000000000000000e+00" itree="712">
      <Node pos="s" depth="0" NCoef="0" IVar="1" Cut="3.6444945335388184e+00" cType="1" res="4.2894869693554938e-04" rms="2.3503078520298004e-01" purity="4.9865448474884033e-01" nType="0">
        <Node pos="l" depth="1" NCoef="0" IVar="57" Cut="-1.7582751512527466e+00" cType="1" res="-8.0769704654812813e-03" rms="2.3838223516941071e-01" purity="4.0576010942459106e-01" nType="0">
          <Node pos="l" depth="2" NCoef="0" IVar="-1" Cut="0.0000000000000000e+00" cType="1" res="3.7352016079239547e-04" rms="2.5216171145439148e-01" purity="4.6687665581703186e-01" nType="-99"/>
          <Node pos="r" depth="2" NCoef="0" IVar="-1" Cut="0.0000000000000000e+00" cType="1" res="-3.0668023973703384e-03" rms="2.0894473791122437e-01" purity="2.9395583271980286e-01" nType="-99"/>
        </Node>
        <Node pos="r" depth="1" NCoef="0" IVar="3" Cut="4.7056808471679688e+00" cType="1" res="3.2471891492605209e-02" rms="2.1900491416454315e-01" purity="8.4859997034072876e-01" nType="0">
          <Node pos="l" depth="2" NCoef="0" IVar="-1" Cut="0.0000000000000000e+00" cType="1" res="5.8794366195797920e-03" rms="1.6903391480445862e-01" purity="8.5210233926773071e-01" nType="-99"/>
          <Node pos="r" depth="2" NCoef="0" IVar="-1" Cut="0.0000000000000000e+00" cType="1" res="1.6540042124688625e-03" rms="2.4253939092159271e-01" purity="8.4653210639953613e-01" nType="-99"/>
        </Node>
      </Node>
    </BinaryTree>
    <BinaryTree type="DecisionTree" boostWeight="1.0000000000000000e+00" itree="713">
      <Node pos="s" depth="0" NCoef="0" IVar="2" Cut="5.7250368595123291e-01" cType="1" res="3.0184073839336634e-03" rms="2.3549793660640717e-01" purity="5.0119298696517944e-01" nType="0">
        <Node pos="l" depth="1" NCoef="0" IVar="-1" Cut="0.0000000000000000e+00" cType="1" res="-8.9078173041343689e-03" rms="0.0000000000000000e+00" purity="-4.6714205294847488e-02" nType="-99"/>
        <Node pos="r" depth="1" NCoef="0" IVar="65" Cut="6.6248279809951782e-01" cType="1" res="5.7814726606011391e-03" rms="2.3997364938259125e-01" purity="5.1474654674530029e-01" nType="0">
          <Node pos="l" depth="2" NCoef="0" IVar="-1" Cut="0.0000000000000000e+00" cType="1" res="1.1803914094343781e-03" rms="2.5025460124015808e-01" purity="5.5943530797958374e-01" nType="-99"/>
          <Node pos="r" depth="2" NCoef="0" IVar="-1" Cut="0.0000000000000000e+00" cType="1" res="-3.8034648168832064e-03" rms="1.6906629502773285e-01" purity="2.7555987238883972e-01" nType="-99"/>
        </Node>
      </Node>
    </BinaryTree>
    <BinaryTree type="DecisionTree" boostWeight="1.0000000000000000e+00" itree="714">
      <Node pos="s" depth="0" NCoef="0" IVar="1" Cut="1.8126446008682251e+00" cType="1" res="-8.0915028229355812e-04" rms="2.3037323355674744e-01" purity="4.9919310212135315e-01" nType="0">
        <Node pos="l" depth="1" NCoef="0" IVar="54" Cut="-9.8970502614974976e-01" cType="1" res="-2.5625700131058693e-02" rms="0.0000000000000000e+00" purity="-4.2425800114870071e-02" nType="-99"/>
        <Node pos="r" depth="1" NCoef="0" IVar="56" Cut="1.5240936279296875e+00" cType="1" res="3.3909203484654427e-03" rms="2.4263307452201843e-01" purity="5.2981090545654297e-01" nType="0">
          <Node pos="l" depth="2" NCoef="0" IVar="-1" Cut="0.0000000000000000e+00" cType="1" res="5.7821499649435282e-04" rms="2.4441562592983246e-01" purity="5.4917412996292114e-01" nType="-99"/>
          <Node pos="r" depth="2" NCoef="0" IVar="-1" Cut="0.0000000000000000e+00" cType="1" res="-1.0123540647327900e-02" rms="1.6809082031250000e-01" purity="2.1693745627999306e-02" nType="-99"/>
        </Node>
      </Node>
    </BinaryTree>
    <BinaryTree type="DecisionTree" boostWeight="1.0000000000000000e+00" itree="715">
      <Node pos="s" depth="0" NCoef="0" IVar="25" Cut="2.1344408988952637e+00" cType="1" res="3.5047954879701138e-03" rms="2.3466500639915466e-01" purity="5.0084096193313599e-01" nType="0">
        <Node pos="l" depth="1" NCoef="0" IVar="14" Cut="-1.3376259803771973e+00" cType="1" res="-1.4918169938027859e-02" rms="2.1456885337829590e-01" purity="2.8585568070411682e-01" nType="0">
          <Node pos="l" depth="2" NCoef="0" IVar="-1" Cut="0.0000000000000000e+00" cType="1" res="-4.7520201653242111e-02" rms="0.0000000000000000e+00" purity="-4.0273670107126236e-02" nType="-99"/>
          <Node pos="r" depth="2" NCoef="0" IVar="-1" Cut="0.0000000000000000e+00" cType="1" res="1.0805791680468246e-04" rms="2.9503324627876282e-01" purity="4.3822461366653442e-01" nType="-99"/>
        </Node>
        <Node pos="r" depth="1" NCoef="0" IVar="2" Cut="1.2396229505538940e+00" cType="1" res="2.0615274086594582e-02" rms="2.5068780779838562e-01" purity="7.0051026344299316e-01" nType="0">
          <Node pos="l" depth="2" NCoef="0" IVar="-1" Cut="0.0000000000000000e+00" cType="1" res="-4.4414047151803970e-03" rms="2.5740700960159302e-01" purity="2.1160572767257690e-01" nType="-99"/>
          <Node pos="r" depth="2" NCoef="0" IVar="-1" Cut="0.0000000000000000e+00" cType="1" res="2.1929095964878798e-03" rms="2.4942386150360107e-01" purity="7.2027581930160522e-01" nType="-99"/>
        </Node>
      </Node>
    </BinaryTree>
    <BinaryTree type="DecisionTree" boostWeight="1.0000000000000000e+00" itree="716">
      <Node pos="s" depth="0" NCoef="0" IVar="37" Cut="-1.7954576015472412e+00" cType="1" res="2.3473608307540417e-03" rms="2.3669160902500153e-01" purity="4.9995100498199463e-01" nType="0">
        <Node pos="l" depth="1" NCoef="0" IVar="44" Cut="1.2345679104328156e-02" cType="1" res="1.4790498651564121e-02" rms="2.4276231229305267e-01" purity="5.5810910463333130e-01" nType="0">
          <Node pos="l" depth="2" NCoef="0" IVar="-1" Cut="0.0000000000000000e+00" cType="1" res="1.6122754896059632e-03" rms="2.4060833454132080e-01" purity="5.6882578134536743e-01" nType="-99"/>
          <Node pos="r" depth="2" NCoef="0" IVar="-1" Cut="0.0000000000000000e+00" cType="1" res="-6.1799166724085808e-03" rms="2.7507448196411133e-01" purity="3.1420940160751343e-01" nType="-99"/>
        </Node>
        <Node pos="r" depth="1" NCoef="0" IVar="45" Cut="2.0214240550994873e+00" cType="1" res="-1.9427927210927010e-02" rms="2.2401842474937439e-01" purity="3.9817520976066589e-01" nType="0">
          <Node pos="l" depth="2" NCoef="0" IVar="-1" Cut="0.0000000000000000e+00" cType="1" res="-4.8926058225333691e-03" rms="1.4314585924148560e-01" purity="1.6955828666687012e-01" nType="-99"/>
          <Node pos="r" depth="2" NCoef="0" IVar="-1" Cut="0.0000000000000000e+00" cType="1" res="-6.3023362599778920e-05" rms="2.7438721060752869e-01" purity="5.9721791744232178e-01" nType="-99"/>
        </Node>
      </Node>
    </BinaryTree>
    <BinaryTree type="DecisionTree" boostWeight="1.0000000000000000e+00" itree="717">
      <Node pos="s" depth="0" NCoef="0" IVar="37" Cut="-1.0794303417205811e+00" cType="1" res="6.8584913387894630e-03" rms="2.4145095050334930e-01" purity="5.0505989789962769e-01" nType="0">
        <Node pos="l" depth="1" NCoef="0" IVar="2" Cut="6.0483932495117188e-01" cType="1" res="1.3335818424820900e-02" rms="2.4488113820552826e-01" purity="5.3691226243972778e-01" nType="0">
          <Node pos="l" depth="2" NCoef="0" IVar="-1" Cut="0.0000000000000000e+00" cType="1" res="-6.2636709772050381e-03" rms="0.0000000000000000e+00" purity="-7.7279489487409592e-03" nType="-99"/>
          <Node pos="r" depth="2" NCoef="0" IVar="-1" Cut="0.0000000000000000e+00" cType="1" res="1.4156015822663903e-03" rms="2.4813176691532135e-01" purity="5.5136775970458984e-01" nType="-99"/>
        </Node>
        <Node pos="r" depth="1" NCoef="0" IVar="65" Cut="6.6234791278839111e-01" cType="1" res="-3.8928259164094925e-02" rms="2.1003191173076630e-01" purity="2.7990308403968811e-01" nType="0">
          <Node pos="l" depth="2" NCoef="0" IVar="-1" Cut="0.0000000000000000e+00" cType="1" res="-2.8546897228807211e-03" rms="2.4052421748638153e-01" purity="3.2362395524978638e-01" nType="-99"/>
          <Node pos="r" depth="2" NCoef="0" IVar="-1" Cut="0.0000000000000000e+00" cType="1" res="-1.4899734407663345e-02" rms="0.0000000000000000e+00" purity="5.4745335131883621e-02" nType="-99"/>
        </Node>
      </Node>
    </BinaryTree>
    <BinaryTree type="DecisionTree" boostWeight="1.0000000000000000e+00" itree="718">
      <Node pos="s" depth="0" NCoef="0" IVar="37" Cut="-1.5831357240676880e+00" cType="1" res="3.2361387275159359e-04" rms="2.3539675772190094e-01" purity="4.9750638008117676e-01" nType="0">
        <Node pos="l" depth="1" NCoef="0" IVar="36" Cut="1.4855418205261230e+00" cType="1" res="1.0663674212992191e-02" rms="2.4141579866409302e-01" purity="5.4689782857894897e-01" nType="0">
          <Node pos="l" depth="2" NCoef="0" IVar="-1" Cut="0.0000000000000000e+00" cType="1" res="1.3597860233858228e-03" rms="2.4229383468627930e-01" purity="5.8041799068450928e-01" nType="-99"/>
          <Node pos="r" depth="2" NCoef="0" IVar="-1" Cut="0.0000000000000000e+00" cType="1" res="-7.4696969240903854e-03" rms="2.1482671797275543e-01" purity="4.9585241824388504e-02" nType="-99"/>
        </Node>
        <Node pos="r" depth="1" NCoef="0" IVar="14" Cut="1.4091784954071045e+00" cType="1" res="-2.6845552027225494e-02" rms="2.1645218133926392e-01" purity="3.6772710084915161e-01" nType="0">
          <Node pos="l" depth="2" NCoef="0" IVar="-1" Cut="0.0000000000000000e+00" cType="1" res="-8.0380756407976151e-03" rms="6.7204132676124573e-02" purity="7.9166658222675323e-02" nType="-99"/>
          <Node pos="r" depth="2" NCoef="0" IVar="-1" Cut="0.0000000000000000e+00" cType="1" res="-4.6206876868382096e-04" rms="2.9157510399818420e-01" purity="6.3376826047897339e-01" nType="-99"/>
        </Node>
      </Node>
    </BinaryTree>
    <BinaryTree type="DecisionTree" boostWeight="1.0000000000000000e+00" itree="719">
      <Node pos="s" depth="0" NCoef="0" IVar="44" Cut="1.2345679104328156e-02" cType="1" res="4.0845968760550022e-03" rms="2.3721536993980408e-01" purity="5.0073504447937012e-01" nType="0">
        <Node pos="l" depth="1" NCoef="0" IVar="54" Cut="-1.3883349299430847e-01" cType="1" res="7.7122757211327553e-03" rms="2.3435950279235840e-01" purity="5.1199948787689209e-01" nType="0">
          <Node pos="l" depth="2" NCoef="0" IVar="-1" Cut="0.0000000000000000e+00" cType="1" res="1.5182890929281712e-03" rms="2.2950556874275208e-01" purity="5.9524959325790405e-01" nType="-99"/>
          <Node pos="r" depth="2" NCoef="0" IVar="-1" Cut="0.0000000000000000e+00" cType="1" res="-2.4502587039023638e-03" rms="2.4770772457122803e-01" purity="2.2291861474514008e-01" nType="-99"/>
        </Node>
        <Node pos="r" depth="1" NCoef="0" IVar="26" Cut="-1.1624009609222412e+00" cType="1" res="-6.7525498569011688e-02" rms="2.7833119034767151e-01" purity="2.7837702631950378e-01" nType="0">
          <Node pos="l" depth="2" NCoef="0" IVar="-1" Cut="0.0000000000000000e+00" cType="1" res="-1.1853110045194626e-02" rms="3.2053649425506592e-01" purity="1.9071492552757263e-01" nType="-99"/>
          <Node pos="r" depth="2" NCoef="0" IVar="-1" Cut="0.0000000000000000e+00" cType="1" res="-9.1156573034822941e-04" rms="1.9198848307132721e-01" purity="3.9940232038497925e-01" nType="-99"/>
        </Node>
      </Node>
    </BinaryTree>
    <BinaryTree type="DecisionTree" boostWeight="1.0000000000000000e+00" itree="720">
      <Node pos="s" depth="0" NCoef="0" IVar="17" Cut="-7.5525766611099243e-01" cType="1" res="-1.7271105898544192e-03" rms="2.3465709388256073e-01" purity="4.9664029479026794e-01" nType="0">
        <Node pos="l" depth="1" NCoef="0" IVar="2" Cut="8.1795495748519897e-01" cType="1" res="2.5979403872042894e-03" rms="2.3743952810764313e-01" purity="5.1215940713882446e-01" nType="0">
          <Node pos="l" depth="2" NCoef="0" IVar="-1" Cut="0.0000000000000000e+00" cType="1" res="-6.7874789237976074e-03" rms="0.0000000000000000e+00" purity="1.1529255658388138e-02" nType="-99"/>
          <Node pos="r" depth="2" NCoef="0" IVar="-1" Cut="0.0000000000000000e+00" cType="1" res="5.4802151862531900e-04" rms="2.4195533990859985e-01" purity="5.3183954954147339e-01" nType="-99"/>
        </Node>
        <Node pos="r" depth="1" NCoef="0" IVar="2" Cut="2.0940973758697510e+00" cType="1" res="-8.5036464035511017e-02" rms="1.4986976981163025e-01" purity="1.9771075248718262e-01" nType="0">
          <Node pos="l" depth="2" NCoef="0" IVar="-1" Cut="0.0000000000000000e+00" cType="1" res="-1.7320113256573677e-02" rms="0.0000000000000000e+00" purity="1.7008103430271149e-02" nType="-99"/>
          <Node pos="r" depth="2" NCoef="0" IVar="-1" Cut="0.0000000000000000e+00" cType="1" res="-5.0001121126115322e-03" rms="2.9598879814147949e-01" purity="3.7251135706901550e-01" nType="-99"/>
        </Node>
      </Node>
    </BinaryTree>
    <BinaryTree type="DecisionTree" boostWeight="1.0000000000000000e+00" itree="721">
      <Node pos="s" depth="0" NCoef="0" IVar="0" Cut="9.4099998474121094e-01" cType="1" res="1.5722750686109066e-03" rms="2.3866441845893860e-01" purity="5.0237894058227539e-01" nType="0">
        <Node pos="l" depth="1" NCoef="0" IVar="14" Cut="-1.4537111520767212e+00" cType="1" res="7.7361445873975754e-03" rms="2.3878943920135498e-01" purity="5.2751338481903076e-01" nType="0">
          <Node pos="l" depth="2" NCoef="0" IVar="-1" Cut="0.0000000000000000e+00" cType="1" res="-1.8016673624515533e-02" rms="0.0000000000000000e+00" purity="-1.5071948058903217e-02" nType="-99"/>
          <Node pos="r" depth="2" NCoef="0" IVar="-1" Cut="0.0000000000000000e+00" cType="1" res="1.2260054936632514e-03" rms="2.7051854133605957e-01" purity="6.4692455530166626e-01" nType="-99"/>
        </Node>
        <Node pos="r" depth="1" NCoef="0" IVar="4" Cut="3.4460849761962891e+00" cType="1" res="-3.9317637681961060e-02" rms="2.3375348746776581e-01" purity="3.3564215898513794e-01" nType="0">
          <Node pos="l" depth="2" NCoef="0" IVar="-1" Cut="0.0000000000000000e+00" cType="1" res="-1.4008584432303905e-02" rms="1.0048180073499680e-01" purity="8.8370770215988159e-02" nType="-99"/>
          <Node pos="r" depth="2" NCoef="0" IVar="-1" Cut="0.0000000000000000e+00" cType="1" res="-2.2650752216577530e-03" rms="2.5530239939689636e-01" purity="4.0077981352806091e-01" nType="-99"/>
        </Node>
      </Node>
    </BinaryTree>
    <BinaryTree type="DecisionTree" boostWeight="1.0000000000000000e+00" itree="722">
      <Node pos="s" depth="0" NCoef="0" IVar="29" Cut="2.7103939056396484e+00" cType="1" res="1.0793624678626657e-03" rms="2.3684409260749817e-01" purity="4.9902129173278809e-01" nType="0">
        <Node pos="l" depth="1" NCoef="0" IVar="0" Cut="6.9920104742050171e-01" cType="1" res="-3.2248307019472122e-02" rms="2.1212443709373474e-01" purity="3.2354626059532166e-01" nType="0">
          <Node pos="l" depth="2" NCoef="0" IVar="-1" Cut="0.0000000000000000e+00" cType="1" res="-2.0208278147038072e-04" rms="2.4775314331054688e-01" purity="4.3523398041725159e-01" nType="-99"/>
          <Node pos="r" depth="2" NCoef="0" IVar="-1" Cut="0.0000000000000000e+00" cType="1" res="-1.0919777676463127e-02" rms="1.1575164645910263e-01" purity="1.3584439456462860e-01" nType="-99"/>
        </Node>
        <Node pos="r" depth="1" NCoef="0" IVar="44" Cut="1.2345679104328156e-02" cType="1" res="8.9269895106554031e-03" rms="2.4163052439689636e-01" purity="5.4034012556076050e-01" nType="0">
          <Node pos="l" depth="2" NCoef="0" IVar="-1" Cut="0.0000000000000000e+00" cType="1" res="1.1560557177290320e-03" rms="2.3797100782394409e-01" purity="5.5290174484252930e-01" nType="-99"/>
          <Node pos="r" depth="2" NCoef="0" IVar="-1" Cut="0.0000000000000000e+00" cType="1" res="-6.9369757547974586e-03" rms="2.9330253601074219e-01" purity="2.9551148414611816e-01" nType="-99"/>
        </Node>
      </Node>
    </BinaryTree>
    <BinaryTree type="DecisionTree" boostWeight="1.0000000000000000e+00" itree="723">
      <Node pos="s" depth="0" NCoef="0" IVar="57" Cut="-1.9268542528152466e+00" cType="1" res="2.4603374768048525e-03" rms="2.3633351922035217e-01" purity="5.0134670734405518e-01" nType="0">
        <Node pos="l" depth="1" NCoef="0" IVar="0" Cut="8.4796762466430664e-01" cType="1" res="1.6540447250008583e-02" rms="2.4170581996440887e-01" purity="5.6720316410064697e-01" nType="0">
          <Node pos="l" depth="2" NCoef="0" IVar="-1" Cut="0.0000000000000000e+00" cType="1" res="2.1334902849048376e-03" rms="2.4170465767383575e-01" purity="5.9965598583221436e-01" nType="-99"/>
          <Node pos="r" depth="2" NCoef="0" IVar="-1" Cut="0.0000000000000000e+00" cType="1" res="-2.1376432850956917e-03" rms="2.3798672854900360e-01" purity="4.0840035676956177e-01" nType="-99"/>
        </Node>
        <Node pos="r" depth="1" NCoef="0" IVar="45" Cut="2.5560946464538574e+00" cType="1" res="-1.6472624614834785e-02" rms="2.2754158079624176e-01" purity="4.1279214620590210e-01" nType="0">
          <Node pos="l" depth="2" NCoef="0" IVar="-1" Cut="0.0000000000000000e+00" cType="1" res="-2.9567661695182323e-03" rms="2.1302038431167603e-01" purity="2.7653837203979492e-01" nType="-99"/>
          <Node pos="r" depth="2" NCoef="0" IVar="-1" Cut="0.0000000000000000e+00" cType="1" res="1.1470770696178079e-03" rms="2.5503006577491760e-01" purity="7.2274070978164673e-01" nType="-99"/>
        </Node>
      </Node>
    </BinaryTree>
    <BinaryTree type="DecisionTree" boostWeight="1.0000000000000000e+00" itree="724">
      <Node pos="s" depth="0" NCoef="0" IVar="52" Cut="-1.4926078319549561e+00" cType="1" res="3.0459318077191710e-04" rms="2.3454698920249939e-01" purity="4.9969306588172913e-01" nType="0">
        <Node pos="l" depth="1" NCoef="0" IVar="36" Cut="1.4471486806869507e+00" cType="1" res="1.3660954311490059e-02" rms="2.3395514488220215e-01" purity="6.3137865066528320e-01" nType="0">
          <Node pos="l" depth="2" NCoef="0" IVar="-1" Cut="0.0000000000000000e+00" cType="1" res="1.6992349410429597e-03" rms="2.2981138527393341e-01" purity="6.7451870441436768e-01" nType="-99"/>
          <Node pos="r" depth="2" NCoef="0" IVar="-1" Cut="0.0000000000000000e+00" cType="1" res="-5.1912073977291584e-03" rms="2.7012354135513306e-01" purity="1.0750685632228851e-01" nType="-99"/>
        </Node>
        <Node pos="r" depth="1" NCoef="0" IVar="53" Cut="7.5483214855194092e-01" cType="1" res="-1.9223229959607124e-02" rms="2.3404175043106079e-01" purity="3.0716070532798767e-01" nType="0">
          <Node pos="l" depth="2" NCoef="0" IVar="-1" Cut="0.0000000000000000e+00" cType="1" res="-1.0255031520500779e-03" rms="2.4425970017910004e-01" purity="3.3292308449745178e-01" nType="-99"/>
          <Node pos="r" depth="2" NCoef="0" IVar="-1" Cut="0.0000000000000000e+00" cType="1" res="-8.1124147400259972e-03" rms="1.4939789474010468e-01" purity="1.5088807046413422e-01" nType="-99"/>
        </Node>
      </Node>
    </BinaryTree>
    <BinaryTree type="DecisionTree" boostWeight="1.0000000000000000e+00" itree="725">
      <Node pos="s" depth="0" NCoef="0" IVar="57" Cut="-9.1185206174850464e-01" cType="1" res="1.2588398531079292e-03" rms="2.3909360170364380e-01" purity="5.0125336647033691e-01" nType="0">
        <Node pos="l" depth="1" NCoef="0" IVar="36" Cut="1.5243083238601685e+00" cType="1" res="6.3627017661929131e-03" rms="2.4161583185195923e-01" purity="5.2675050497055054e-01" nType="0">
          <Node pos="l" depth="2" NCoef="0" IVar="-1" Cut="0.0000000000000000e+00" cType="1" res="8.6124852532520890e-04" rms="2.4286678433418274e-01" purity="5.4565715789794922e-01" nType="-99"/>
          <Node pos="r" depth="2" NCoef="0" IVar="-1" Cut="0.0000000000000000e+00" cType="1" res="-9.8763173446059227e-03" rms="1.8570752441883087e-01" purity="2.8315953910350800e-02" nType="-99"/>
        </Node>
        <Node pos="r" depth="1" NCoef="0" IVar="53" Cut="-1.0283155441284180e+00" cType="1" res="-5.0906706601381302e-02" rms="2.0441594719886780e-01" purity="2.4065294861793518e-01" nType="0">
          <Node pos="l" depth="2" NCoef="0" IVar="-1" Cut="0.0000000000000000e+00" cType="1" res="-2.9494646005332470e-03" rms="2.4231851100921631e-01" purity="3.1549623608589172e-01" nType="-99"/>
          <Node pos="r" depth="2" NCoef="0" IVar="-1" Cut="0.0000000000000000e+00" cType="1" res="-1.0272305458784103e-02" rms="1.3038121163845062e-01" purity="1.3846206665039062e-01" nType="-99"/>
        </Node>
      </Node>
    </BinaryTree>
    <BinaryTree type="DecisionTree" boostWeight="1.0000000000000000e+00" itree="726">
      <Node pos="s" depth="0" NCoef="0" IVar="25" Cut="2.2419390678405762e+00" cType="1" res="8.8438820966985077e-05" rms="2.3503322899341583e-01" purity="5.0004851818084717e-01" nType="0">
        <Node pos="l" depth="1" NCoef="0" IVar="0" Cut="4.6003895998001099e-01" cType="1" res="-1.6177626326680183e-02" rms="2.2360715270042419e-01" purity="3.0299505591392517e-01" nType="0">
          <Node pos="l" depth="2" NCoef="0" IVar="-1" Cut="0.0000000000000000e+00" cType="1" res="5.2513100672513247e-04" rms="2.5775626301765442e-01" purity="3.9830937981605530e-01" nType="-99"/>
          <Node pos="r" depth="2" NCoef="0" IVar="-1" Cut="0.0000000000000000e+00" cType="1" res="-3.7871685344725847e-03" rms="1.8847218155860901e-01" purity="2.2351574897766113e-01" nType="-99"/>
        </Node>
        <Node pos="r" depth="1" NCoef="0" IVar="2" Cut="1.4050663709640503e+00" cType="1" res="1.8118893727660179e-02" rms="2.4582745134830475e-01" purity="7.1847665309906006e-01" nType="0">
          <Node pos="l" depth="2" NCoef="0" IVar="-1" Cut="0.0000000000000000e+00" cType="1" res="-4.5667537488043308e-03" rms="2.6750949025154114e-01" purity="2.8319156169891357e-01" nType="-99"/>
          <Node pos="r" depth="2" NCoef="0" IVar="-1" Cut="0.0000000000000000e+00" cType="1" res="2.1075431723147631e-03" rms="2.4347266554832458e-01" purity="7.4064230918884277e-01" nType="-99"/>
        </Node>
      </Node>
    </BinaryTree>
    <BinaryTree type="DecisionTree" boostWeight="1.0000000000000000e+00" itree="727">
      <Node pos="s" depth="0" NCoef="0" IVar="2" Cut="6.1853700876235962e-01" cType="1" res="-2.3825047537684441e-03" rms="2.3403856158256531e-01" purity="4.9646073579788208e-01" nType="0">
        <Node pos="l" depth="1" NCoef="0" IVar="-1" Cut="0.0000000000000000e+00" cType="1" res="-8.6280172690749168e-03" rms="0.0000000000000000e+00" purity="-4.0831204503774643e-02" nType="-99"/>
        <Node pos="r" depth="1" NCoef="0" IVar="5" Cut="8.4205180406570435e-01" cType="1" res="4.5441775000654161e-04" rms="2.3903219401836395e-01" purity="5.1052582263946533e-01" nType="0">
          <Node pos="l" depth="2" NCoef="0" IVar="-1" Cut="0.0000000000000000e+00" cType="1" res="-1.0873742401599884e-02" rms="0.0000000000000000e+00" purity="7.2676382958889008e-02" nType="-99"/>
          <Node pos="r" depth="2" NCoef="0" IVar="-1" Cut="0.0000000000000000e+00" cType="1" res="4.0374384843744338e-04" rms="2.4600100517272949e-01" purity="5.3522551059722900e-01" nType="-99"/>
        </Node>
      </Node>
    </BinaryTree>
    <BinaryTree type="DecisionTree" boostWeight="1.0000000000000000e+00" itree="728">
      <Node pos="s" depth="0" NCoef="0" IVar="17" Cut="-9.6301937103271484e-01" cType="1" res="4.0903256740421057e-04" rms="2.3058135807514191e-01" purity="5.0053733587265015e-01" nType="0">
        <Node pos="l" depth="1" NCoef="0" IVar="14" Cut="-1.4150160551071167e+00" cType="1" res="5.7007041759788990e-03" rms="2.3245780169963837e-01" purity="5.2331066131591797e-01" nType="0">
          <Node pos="l" depth="2" NCoef="0" IVar="-1" Cut="0.0000000000000000e+00" cType="1" res="-1.5375624410808086e-02" rms="0.0000000000000000e+00" purity="-1.0833755135536194e-02" nType="-99"/>
          <Node pos="r" depth="2" NCoef="0" IVar="-1" Cut="0.0000000000000000e+00" cType="1" res="1.0512209264561534e-03" rms="2.6629149913787842e-01" purity="6.5868294239044189e-01" nType="-99"/>
        </Node>
        <Node pos="r" depth="1" NCoef="0" IVar="65" Cut="2.3621159791946411e-01" cType="1" res="-5.6279055774211884e-02" rms="2.0086397230625153e-01" purity="2.5657379627227783e-01" nType="0">
          <Node pos="l" depth="2" NCoef="0" IVar="-1" Cut="0.0000000000000000e+00" cType="1" res="-1.0161139070987701e-02" rms="1.5458503365516663e-01" purity="2.1300831437110901e-01" nType="-99"/>
          <Node pos="r" depth="2" NCoef="0" IVar="-1" Cut="0.0000000000000000e+00" cType="1" res="-3.9418865926563740e-03" rms="2.1759547293186188e-01" purity="2.7762600779533386e-01" nType="-99"/>
        </Node>
      </Node>
    </BinaryTree>
    <BinaryTree type="DecisionTree" boostWeight="1.0000000000000000e+00" itree="729">
      <Node pos="s" depth="0" NCoef="0" IVar="58" Cut="1.3713681697845459e+00" cType="1" res="3.7077319575473666e-04" rms="2.3218262195587158e-01" purity="4.9888584017753601e-01" nType="0">
        <Node pos="l" depth="1" NCoef="0" IVar="2" Cut="5.1484239101409912e-01" cType="1" res="4.3126931414008141e-03" rms="2.3243528604507446e-01" purity="5.1259720325469971e-01" nType="0">
          <Node pos="l" depth="2" NCoef="0" IVar="-1" Cut="0.0000000000000000e+00" cType="1" res="-9.2421174049377441e-03" rms="0.0000000000000000e+00" purity="-5.3644001483917236e-02" nType="-99"/>
          <Node pos="r" depth="2" NCoef="0" IVar="-1" Cut="0.0000000000000000e+00" cType="1" res="6.2815897399559617e-04" rms="2.3676083981990814e-01" purity="5.2551740407943726e-01" nType="-99"/>
        </Node>
        <Node pos="r" depth="1" NCoef="0" IVar="53" Cut="-1.3765290975570679e+00" cType="1" res="-6.8526633083820343e-02" rms="2.1642197668552399e-01" purity="2.5923702120780945e-01" nType="0">
          <Node pos="l" depth="2" NCoef="0" IVar="-1" Cut="0.0000000000000000e+00" cType="1" res="-2.9482760000973940e-03" rms="2.5238913297653198e-01" purity="3.8011202216148376e-01" nType="-99"/>
          <Node pos="r" depth="2" NCoef="0" IVar="-1" Cut="0.0000000000000000e+00" cType="1" res="-1.2575562112033367e-02" rms="1.7148961126804352e-01" purity="1.5190635621547699e-01" nType="-99"/>
        </Node>
      </Node>
    </BinaryTree>
    <BinaryTree type="DecisionTree" boostWeight="1.0000000000000000e+00" itree="730">
      <Node pos="s" depth="0" NCoef="0" IVar="33" Cut="1.4087238311767578e+00" cType="1" res="8.4245961625128984e-04" rms="2.3415704071521759e-01" purity="4.9988192319869995e-01" nType="0">
        <Node pos="l" depth="1" NCoef="0" IVar="25" Cut="1.0854622125625610e+00" cType="1" res="3.4491266123950481e-03" rms="2.3596848547458649e-01" purity="5.0908035039901733e-01" nType="0">
          <Node pos="l" depth="2" NCoef="0" IVar="-1" Cut="0.0000000000000000e+00" cType="1" res="-5.4277926683425903e-03" rms="1.2300569564104080e-01" purity="8.5257276892662048e-02" nType="-99"/>
          <Node pos="r" depth="2" NCoef="0" IVar="-1" Cut="0.0000000000000000e+00" cType="1" res="7.8399421181529760e-04" rms="2.4692550301551819e-01" purity="5.6711047887802124e-01" nType="-99"/>
        </Node>
        <Node pos="r" depth="1" NCoef="0" IVar="-1" Cut="0.0000000000000000e+00" cType="1" res="-1.4625081792473793e-02" rms="6.8370826542377472e-02" purity="1.0001791268587112e-01" nType="-99"/>
      </Node>
    </BinaryTree>
    <BinaryTree type="DecisionTree" boostWeight="1.0000000000000000e+00" itree="731">
      <Node pos="s" depth="0" NCoef="0" IVar="63" Cut="1.1772487163543701e+00" cType="1" res="7.9886853927746415e-04" rms="2.3090556263923645e-01" purity="5.0148469209671021e-01" nType="0">
        <Node pos="l" depth="1" NCoef="0" IVar="1" Cut="3.6786019802093506e+00" cType="1" res="4.2888391762971878e-03" rms="2.3350532352924347e-01" purity="5.1267546415328979e-01" nType="0">
          <Node pos="l" depth="2" NCoef="0" IVar="-1" Cut="0.0000000000000000e+00" cType="1" res="-3.4434694680385292e-04" rms="2.4083124101161957e-01" purity="4.2261862754821777e-01" nType="-99"/>
          <Node pos="r" depth="2" NCoef="0" IVar="-1" Cut="0.0000000000000000e+00" cType="1" res="3.6015408113598824e-03" rms="1.9902899861335754e-01" purity="8.6590516567230225e-01" nType="-99"/>
        </Node>
        <Node pos="r" depth="1" NCoef="0" IVar="45" Cut="1.7174313068389893e+00" cType="1" res="-7.4838064610958099e-02" rms="1.4548470079898834e-01" purity="2.5895249843597412e-01" nType="0">
          <Node pos="l" depth="2" NCoef="0" IVar="-1" Cut="0.0000000000000000e+00" cType="1" res="-1.5917873010039330e-02" rms="0.0000000000000000e+00" purity="2.2396493703126907e-02" nType="-99"/>
          <Node pos="r" depth="2" NCoef="0" IVar="-1" Cut="0.0000000000000000e+00" cType="1" res="-4.2905025184154510e-03" rms="2.4325276911258698e-01" purity="4.6128728985786438e-01" nType="-99"/>
        </Node>
      </Node>
    </BinaryTree>
    <BinaryTree type="DecisionTree" boostWeight="1.0000000000000000e+00" itree="732">
      <Node pos="s" depth="0" NCoef="0" IVar="44" Cut="1.2345679104328156e-02" cType="1" res="1.8637590110301971e-03" rms="2.3713372647762299e-01" purity="5.0164031982421875e-01" nType="0">
        <Node pos="l" depth="1" NCoef="0" IVar="54" Cut="1.4855325222015381e+00" cType="1" res="5.4877991788089275e-03" rms="2.3487412929534912e-01" purity="5.1313996315002441e-01" nType="0">
          <Node pos="l" depth="2" NCoef="0" IVar="-1" Cut="0.0000000000000000e+00" cType="1" res="9.0126699069514871e-04" rms="2.3636448383331299e-01" purity="5.4419618844985962e-01" nType="-99"/>
          <Node pos="r" depth="2" NCoef="0" IVar="-1" Cut="0.0000000000000000e+00" cType="1" res="-8.1879701465368271e-03" rms="2.0087005198001862e-01" purity="6.4507246017456055e-02" nType="-99"/>
        </Node>
        <Node pos="r" depth="1" NCoef="0" IVar="35" Cut="-5.6490761041641235e-01" cType="1" res="-7.0049002766609192e-02" rms="2.6826122403144836e-01" purity="2.7344954013824463e-01" nType="0">
          <Node pos="l" depth="2" NCoef="0" IVar="-1" Cut="0.0000000000000000e+00" cType="1" res="-1.9324216991662979e-03" rms="2.2659116983413696e-01" purity="4.1945576667785645e-01" nType="-99"/>
          <Node pos="r" depth="2" NCoef="0" IVar="-1" Cut="0.0000000000000000e+00" cType="1" res="-1.2990255840122700e-02" rms="2.9369989037513733e-01" purity="1.4416638016700745e-01" nType="-99"/>
        </Node>
      </Node>
    </BinaryTree>
    <BinaryTree type="DecisionTree" boostWeight="1.0000000000000000e+00" itree="733">
      <Node pos="s" depth="0" NCoef="0" IVar="17" Cut="-1.4392250776290894e+00" cType="1" res="1.3278797268867493e-03" rms="2.3938587307929993e-01" purity="4.9978676438331604e-01" nType="0">
        <Node pos="l" depth="1" NCoef="0" IVar="44" Cut="1.2345679104328156e-02" cType="1" res="1.0000935755670071e-02" rms="2.4297611415386200e-01" purity="5.3893756866455078e-01" nType="0">
          <Node pos="l" depth="2" NCoef="0" IVar="-1" Cut="0.0000000000000000e+00" cType="1" res="1.2282119132578373e-03" rms="2.4020731449127197e-01" purity="5.5103689432144165e-01" nType="-99"/>
          <Node pos="r" depth="2" NCoef="0" IVar="-1" Cut="0.0000000000000000e+00" cType="1" res="-6.7692291922867298e-03" rms="2.8358116745948792e-01" purity="2.8951877355575562e-01" nType="-99"/>
        </Node>
        <Node pos="r" depth="1" NCoef="0" IVar="57" Cut="-1.6052035093307495e+00" cType="1" res="-3.2566200941801071e-02" rms="2.2157391905784607e-01" purity="3.4678646922111511e-01" nType="0">
          <Node pos="l" depth="2" NCoef="0" IVar="-1" Cut="0.0000000000000000e+00" cType="1" res="-1.5069582732394338e-03" rms="2.5859045982360840e-01" purity="4.1294831037521362e-01" nType="-99"/>
          <Node pos="r" depth="2" NCoef="0" IVar="-1" Cut="0.0000000000000000e+00" cType="1" res="-7.0807179436087608e-03" rms="1.2168744206428528e-01" purity="2.2447505593299866e-01" nType="-99"/>
        </Node>
      </Node>
    </BinaryTree>
    <BinaryTree type="DecisionTree" boostWeight="1.0000000000000000e+00" itree="734">
      <Node pos="s" depth="0" NCoef="0" IVar="64" Cut="1.2345679104328156e-02" cType="1" res="2.6329988613724709e-03" rms="2.3742285370826721e-01" purity="4.9979975819587708e-01" nType="0">
        <Node pos="l" depth="1" NCoef="0" IVar="54" Cut="1.2544522285461426e+00" cType="1" res="6.0010491870343685e-03" rms="2.3721788823604584e-01" purity="5.0976431369781494e-01" nType="0">
          <Node pos="l" depth="2" NCoef="0" IVar="-1" Cut="0.0000000000000000e+00" cType="1" res="1.0730942012742162e-03" rms="2.3761026561260223e-01" purity="5.6876444816589355e-01" nType="-99"/>
          <Node pos="r" depth="2" NCoef="0" IVar="-1" Cut="0.0000000000000000e+00" cType="1" res="-3.8567567244172096e-03" rms="2.3073102533817291e-01" purity="1.2306731939315796e-01" nType="-99"/>
        </Node>
        <Node pos="r" depth="1" NCoef="0" IVar="55" Cut="-6.0450404882431030e-01" cType="1" res="-7.1630388498306274e-02" rms="2.2967240214347839e-01" purity="2.8008744120597839e-01" nType="0">
          <Node pos="l" depth="2" NCoef="0" IVar="-1" Cut="0.0000000000000000e+00" cType="1" res="-2.5269456673413515e-03" rms="2.3221063613891602e-01" purity="4.2682987451553345e-01" nType="-99"/>
          <Node pos="r" depth="2" NCoef="0" IVar="-1" Cut="0.0000000000000000e+00" cType="1" res="-1.4928118325769901e-02" rms="2.1436063945293427e-01" purity="1.1231588572263718e-01" nType="-99"/>
        </Node>
      </Node>
    </BinaryTree>
    <BinaryTree type="DecisionTree" boostWeight="1.0000000000000000e+00" itree="735">
      <Node pos="s" depth="0" NCoef="0" IVar="37" Cut="-1.0818449258804321e+00" cType="1" res="1.8169875256717205e-03" rms="2.3577545583248138e-01" purity="5.0060343742370605e-01" nType="0">
        <Node pos="l" depth="1" NCoef="0" IVar="64" Cut="1.2345679104328156e-02" cType="1" res="8.0602858215570450e-03" rms="2.3967258632183075e-01" purity="5.3253549337387085e-01" nType="0">
          <Node pos="l" depth="2" NCoef="0" IVar="-1" Cut="0.0000000000000000e+00" cType="1" res="1.0245926678180695e-03" rms="2.3879668116569519e-01" purity="5.4179257154464722e-01" nType="-99"/>
          <Node pos="r" depth="2" NCoef="0" IVar="-1" Cut="0.0000000000000000e+00" cType="1" res="-7.3298793286085129e-03" rms="2.4625542759895325e-01" purity="3.1108787655830383e-01" nType="-99"/>
        </Node>
        <Node pos="r" depth="1" NCoef="0" IVar="33" Cut="-1.4925332069396973e+00" cType="1" res="-4.1969109326601028e-02" rms="2.0100912451744080e-01" purity="2.7665439248085022e-01" nType="0">
          <Node pos="l" depth="2" NCoef="0" IVar="-1" Cut="0.0000000000000000e+00" cType="1" res="-3.2123029814101756e-04" rms="2.4410022795200348e-01" purity="4.5720922946929932e-01" nType="-99"/>
          <Node pos="r" depth="2" NCoef="0" IVar="-1" Cut="0.0000000000000000e+00" cType="1" res="-6.6138589754700661e-03" rms="1.8095542490482330e-01" purity="2.1143296360969543e-01" nType="-99"/>
        </Node>
      </Node>
    </BinaryTree>
    <BinaryTree type="DecisionTree" boostWeight="1.0000000000000000e+00" itree="736">
      <Node pos="s" depth="0" NCoef="0" IVar="65" Cut="7.7449434995651245e-01" cType="1" res="3.2696156995370984e-04" rms="2.3550722002983093e-01" purity="5.0256198644638062e-01" nType="0">
        <Node pos="l" depth="1" NCoef="0" IVar="25" Cut="1.2672251462936401e+00" cType="1" res="4.6962327323853970e-03" rms="2.4047015607357025e-01" purity="5.2545231580734253e-01" nType="0">
          <Node pos="l" depth="2" NCoef="0" IVar="-1" Cut="0.0000000000000000e+00" cType="1" res="-4.4672731310129166e-03" rms="1.5721267461776733e-01" purity="1.2375280261039734e-01" nType="-99"/>
          <Node pos="r" depth="2" NCoef="0" IVar="-1" Cut="0.0000000000000000e+00" cType="1" res="1.0825344361364841e-03" rms="2.5298658013343811e-01" purity="6.0496520996093750e-01" nType="-99"/>
        </Node>
        <Node pos="r" depth="1" NCoef="0" IVar="35" Cut="-5.3249150514602661e-01" cType="1" res="-7.5861528515815735e-02" rms="9.0192750096321106e-02" purity="1.0341563075780869e-01" nType="0">
          <Node pos="l" depth="2" NCoef="0" IVar="-1" Cut="0.0000000000000000e+00" cType="1" res="-1.2621791101992130e-02" rms="1.4080368913710117e-02" purity="6.8662539124488831e-02" nType="-99"/>
          <Node pos="r" depth="2" NCoef="0" IVar="-1" Cut="0.0000000000000000e+00" cType="1" res="-6.3126012682914734e-03" rms="1.1366182565689087e-01" purity="1.3211116194725037e-01" nType="-99"/>
        </Node>
      </Node>
    </BinaryTree>
    <BinaryTree type="DecisionTree" boostWeight="1.0000000000000000e+00" itree="737">
      <Node pos="s" depth="0" NCoef="0" IVar="2" Cut="8.8813960552215576e-01" cType="1" res="-1.4898868976160884e-03" rms="2.3119921982288361e-01" purity="4.9660694599151611e-01" nType="0">
        <Node pos="l" depth="1" NCoef="0" IVar="3" Cut="5.1368570327758789e+00" cType="1" res="-6.7504611797630787e-03" rms="0.0000000000000000e+00" purity="1.5798544511198997e-02" nType="-99"/>
        <Node pos="r" depth="1" NCoef="0" IVar="36" Cut="-1.4924436807632446e+00" cType="1" res="2.0130290649831295e-03" rms="2.3603369295597076e-01" purity="5.1775598526000977e-01" nType="0">
          <Node pos="l" depth="2" NCoef="0" IVar="-1" Cut="0.0000000000000000e+00" cType="1" res="1.4417549828067422e-03" rms="2.2529597580432892e-01" purity="6.5169233083724976e-01" nType="-99"/>
          <Node pos="r" depth="2" NCoef="0" IVar="-1" Cut="0.0000000000000000e+00" cType="1" res="-1.7268245574086905e-03" rms="2.5000488758087158e-01" purity="3.1524977087974548e-01" nType="-99"/>
        </Node>
      </Node>
    </BinaryTree>
    <BinaryTree type="DecisionTree" boostWeight="1.0000000000000000e+00" itree="738">
      <Node pos="s" depth="0" NCoef="0" IVar="0" Cut="6.5931910276412964e-01" cType="1" res="1.3151243329048157e-03" rms="2.3714628815650940e-01" purity="5.0186789035797119e-01" nType="0">
        <Node pos="l" depth="1" NCoef="0" IVar="36" Cut="1.5245062112808228e+00" cType="1" res="1.2527748011052608e-02" rms="2.4418316781520844e-01" purity="5.6136703491210938e-01" nType="0">
          <Node pos="l" depth="2" NCoef="0" IVar="-1" Cut="0.0000000000000000e+00" cType="1" res="1.4228868531063199e-03" rms="2.4514833092689514e-01" purity="5.8241564035415649e-01" nType="-99"/>
          <Node pos="r" depth="2" NCoef="0" IVar="-1" Cut="0.0000000000000000e+00" cType="1" res="-9.7311139106750488e-03" rms="1.9454215466976166e-01" purity="3.0862376093864441e-02" nType="-99"/>
        </Node>
        <Node pos="r" depth="1" NCoef="0" IVar="29" Cut="2.7112023830413818e+00" cType="1" res="-1.9845642149448395e-02" rms="2.2172319889068604e-01" purity="3.8957947492599487e-01" nType="0">
          <Node pos="l" depth="2" NCoef="0" IVar="-1" Cut="0.0000000000000000e+00" cType="1" res="-8.7702069431543350e-03" rms="1.3114766776561737e-01" purity="1.6313073039054871e-01" nType="-99"/>
          <Node pos="r" depth="2" NCoef="0" IVar="-1" Cut="0.0000000000000000e+00" cType="1" res="-5.3572392789646983e-04" rms="2.3967111110687256e-01" purity="4.5467126369476318e-01" nType="-99"/>
        </Node>
      </Node>
    </BinaryTree>
    <BinaryTree type="DecisionTree" boostWeight="1.0000000000000000e+00" itree="739">
      <Node pos="s" depth="0" NCoef="0" IVar="57" Cut="-2.0908353328704834e+00" cType="1" res="1.5617811586707830e-03" rms="2.3454399406909943e-01" purity="5.0176554918289185e-01" nType="0">
        <Node pos="l" depth="1" NCoef="0" IVar="0" Cut="7.8508603572845459e-01" cType="1" res="1.8910882994532585e-02" rms="2.4248445034027100e-01" purity="5.7591438293457031e-01" nType="0">
          <Node pos="l" depth="2" NCoef="0" IVar="-1" Cut="0.0000000000000000e+00" cType="1" res="2.4294022005051374e-03" rms="2.4565219879150391e-01" purity="6.1774611473083496e-01" nType="-99"/>
          <Node pos="r" depth="2" NCoef="0" IVar="-1" Cut="0.0000000000000000e+00" cType="1" res="-1.3733203522861004e-03" rms="2.2725659608840942e-01" purity="4.1995376348495483e-01" nType="-99"/>
        </Node>
        <Node pos="r" depth="1" NCoef="0" IVar="2" Cut="1.1802119016647339e+00" cType="1" res="-1.5049353241920471e-02" rms="2.2543306648731232e-01" purity="4.3077069520950317e-01" nType="0">
          <Node pos="l" depth="2" NCoef="0" IVar="-1" Cut="0.0000000000000000e+00" cType="1" res="-8.9515643194317818e-03" rms="0.0000000000000000e+00" purity="3.2321304082870483e-02" nType="-99"/>
          <Node pos="r" depth="2" NCoef="0" IVar="-1" Cut="0.0000000000000000e+00" cType="1" res="-8.7962538236752152e-04" rms="2.3676390945911407e-01" purity="4.6307671070098877e-01" nType="-99"/>
        </Node>
      </Node>
    </BinaryTree>
    <BinaryTree type="DecisionTree" boostWeight="1.0000000000000000e+00" itree="740">
      <Node pos="s" depth="0" NCoef="0" IVar="2" Cut="1.1087031364440918e+00" cType="1" res="-2.6402890216559172e-03" rms="2.3183120787143707e-01" purity="4.9577659368515015e-01" nType="0">
        <Node pos="l" depth="1" NCoef="0" IVar="1" Cut="2.8372960090637207e+00" cType="1" res="-6.9747604429721832e-02" rms="1.1173560470342636e-01" purity="6.5985620021820068e-02" nType="0">
          <Node pos="l" depth="2" NCoef="0" IVar="-1" Cut="0.0000000000000000e+00" cType="1" res="-5.5153700523078442e-03" rms="0.0000000000000000e+00" purity="4.2656872421503067e-02" nType="-99"/>
          <Node pos="r" depth="2" NCoef="0" IVar="-1" Cut="0.0000000000000000e+00" cType="1" res="-6.4474879764020443e-03" rms="1.8502256274223328e-01" purity="1.1620357632637024e-01" nType="-99"/>
        </Node>
        <Node pos="r" depth="1" NCoef="0" IVar="53" Cut="1.4075684547424316e+00" cType="1" res="2.0222293678671122e-03" rms="2.3722948133945465e-01" purity="5.2563780546188354e-01" nType="0">
          <Node pos="l" depth="2" NCoef="0" IVar="-1" Cut="0.0000000000000000e+00" cType="1" res="4.2511848732829094e-04" rms="2.3887231945991516e-01" purity="5.3530454635620117e-01" nType="-99"/>
          <Node pos="r" depth="2" NCoef="0" IVar="-1" Cut="0.0000000000000000e+00" cType="1" res="-1.3664831407368183e-02" rms="1.1026833206415176e-01" purity="1.2599188089370728e-01" nType="-99"/>
        </Node>
      </Node>
    </BinaryTree>
    <BinaryTree type="DecisionTree" boostWeight="1.0000000000000000e+00" itree="741">
      <Node pos="s" depth="0" NCoef="0" IVar="65" Cut="7.7427268028259277e-01" cType="1" res="3.1615520128980279e-04" rms="2.3840931057929993e-01" purity="4.9963507056236267e-01" nType="0">
        <Node pos="l" depth="1" NCoef="0" IVar="0" Cut="9.9200022220611572e-01" cType="1" res="4.1350238025188446e-03" rms="2.4238321185112000e-01" purity="5.2258014678955078e-01" nType="0">
          <Node pos="l" depth="2" NCoef="0" IVar="-1" Cut="0.0000000000000000e+00" cType="1" res="8.6909584933891892e-04" rms="2.4278940260410309e-01" purity="5.4210555553436279e-01" nType="-99"/>
          <Node pos="r" depth="2" NCoef="0" IVar="-1" Cut="0.0000000000000000e+00" cType="1" res="-4.4248187914490700e-03" rms="2.3346488177776337e-01" purity="3.5381469130516052e-01" nType="-99"/>
        </Node>
        <Node pos="r" depth="1" NCoef="0" IVar="37" Cut="-2.0618181228637695e+00" cType="1" res="-6.3483335077762604e-02" rms="1.4354582130908966e-01" purity="1.1630642414093018e-01" nType="0">
          <Node pos="l" depth="2" NCoef="0" IVar="-1" Cut="0.0000000000000000e+00" cType="1" res="-3.2208473421633244e-03" rms="2.2956416010856628e-01" purity="1.7985413968563080e-01" nType="-99"/>
          <Node pos="r" depth="2" NCoef="0" IVar="-1" Cut="0.0000000000000000e+00" cType="1" res="-1.2492233887314796e-02" rms="0.0000000000000000e+00" purity="5.5795490741729736e-02" nType="-99"/>
        </Node>
      </Node>
    </BinaryTree>
    <BinaryTree type="DecisionTree" boostWeight="1.0000000000000000e+00" itree="742">
      <Node pos="s" depth="0" NCoef="0" IVar="17" Cut="-1.2607139348983765e+00" cType="1" res="4.8338927445001900e-04" rms="2.3722815513610840e-01" purity="4.9976509809494019e-01" nType="0">
        <Node pos="l" depth="1" NCoef="0" IVar="56" Cut="1.5237022638320923e+00" cType="1" res="7.9328659921884537e-03" rms="2.3942604660987854e-01" purity="5.3312820196151733e-01" nType="0">
          <Node pos="l" depth="2" NCoef="0" IVar="-1" Cut="0.0000000000000000e+00" cType="1" res="1.0311265941709280e-03" rms="2.4142974615097046e-01" purity="5.5332845449447632e-01" nType="-99"/>
          <Node pos="r" depth="2" NCoef="0" IVar="-1" Cut="0.0000000000000000e+00" cType="1" res="-1.0563060641288757e-02" rms="1.5656295418739319e-01" purity="1.8979972228407860e-02" nType="-99"/>
        </Node>
        <Node pos="r" depth="1" NCoef="0" IVar="49" Cut="2.5379450321197510e+00" cType="1" res="-4.0369223803281784e-02" rms="2.2036051750183105e-01" purity="3.1680351495742798e-01" nType="0">
          <Node pos="l" depth="2" NCoef="0" IVar="-1" Cut="0.0000000000000000e+00" cType="1" res="-1.3814821839332581e-02" rms="0.0000000000000000e+00" purity="7.1461245417594910e-02" nType="-99"/>
          <Node pos="r" depth="2" NCoef="0" IVar="-1" Cut="0.0000000000000000e+00" cType="1" res="-3.1648422591388226e-03" rms="2.4154175817966461e-01" purity="3.5436376929283142e-01" nType="-99"/>
        </Node>
      </Node>
    </BinaryTree>
    <BinaryTree type="DecisionTree" boostWeight="1.0000000000000000e+00" itree="743">
      <Node pos="s" depth="0" NCoef="0" IVar="14" Cut="-1.4150160551071167e+00" cType="1" res="-5.5121374316513538e-04" rms="2.3319716751575470e-01" purity="5.0053787231445312e-01" nType="0">
        <Node pos="l" depth="1" NCoef="0" IVar="13" Cut="-2.2005692124366760e-01" cType="1" res="-1.9524618983268738e-02" rms="0.0000000000000000e+00" purity="-1.7406402155756950e-02" nType="-99"/>
        <Node pos="r" depth="1" NCoef="0" IVar="0" Cut="9.9200022220611572e-01" cType="1" res="7.8394757583737373e-03" rms="2.7085065841674805e-01" purity="6.3292270898818970e-01" nType="0">
          <Node pos="l" depth="2" NCoef="0" IVar="-1" Cut="0.0000000000000000e+00" cType="1" res="1.0535353794693947e-03" rms="2.6995348930358887e-01" purity="6.5304750204086304e-01" nType="-99"/>
          <Node pos="r" depth="2" NCoef="0" IVar="-1" Cut="0.0000000000000000e+00" cType="1" res="-3.8606489542871714e-03" rms="2.7265131473541260e-01" purity="4.4617807865142822e-01" nType="-99"/>
        </Node>
      </Node>
    </BinaryTree>
    <BinaryTree type="DecisionTree" boostWeight="1.0000000000000000e+00" itree="744">
      <Node pos="s" depth="0" NCoef="0" IVar="2" Cut="5.0748854875564575e-01" cType="1" res="-1.0274325031787157e-03" rms="2.3623262345790863e-01" purity="4.9975791573524475e-01" nType="0">
        <Node pos="l" depth="1" NCoef="0" IVar="-1" Cut="0.0000000000000000e+00" cType="1" res="-1.0316203348338604e-02" rms="0.0000000000000000e+00" purity="-6.3325583934783936e-02" nType="-99"/>
        <Node pos="r" depth="1" NCoef="0" IVar="25" Cut="1.0895006656646729e+00" cType="1" res="1.5782143454998732e-03" rms="2.4104194343090057e-01" purity="5.1201140880584717e-01" nType="0">
          <Node pos="l" depth="2" NCoef="0" IVar="-1" Cut="0.0000000000000000e+00" cType="1" res="-6.0670138336718082e-03" rms="1.2359261512756348e-01" purity="8.1059873104095459e-02" nType="-99"/>
          <Node pos="r" depth="2" NCoef="0" IVar="-1" Cut="0.0000000000000000e+00" cType="1" res="6.9428636925294995e-04" rms="2.5284239649772644e-01" purity="5.7382404804229736e-01" nType="-99"/>
        </Node>
      </Node>
    </BinaryTree>
    <BinaryTree type="DecisionTree" boostWeight="1.0000000000000000e+00" itree="745">
      <Node pos="s" depth="0" NCoef="0" IVar="57" Cut="-1.0574718713760376e+00" cType="1" res="7.7688088640570641e-04" rms="2.3496752977371216e-01" purity="4.9928382039070129e-01" nType="0">
        <Node pos="l" depth="1" NCoef="0" IVar="45" Cut="8.1538760662078857e-01" cType="1" res="6.6917934454977512e-03" rms="2.3896284401416779e-01" purity="5.3113132715225220e-01" nType="0">
          <Node pos="l" depth="2" NCoef="0" IVar="-1" Cut="0.0000000000000000e+00" cType="1" res="-9.0015269815921783e-03" rms="1.6801130026578903e-02" purity="5.3674135357141495e-02" nType="-99"/>
          <Node pos="r" depth="2" NCoef="0" IVar="-1" Cut="0.0000000000000000e+00" cType="1" res="9.3484576791524887e-04" rms="2.4541486799716949e-01" purity="5.5963569879531860e-01" nType="-99"/>
        </Node>
        <Node pos="r" depth="1" NCoef="0" IVar="45" Cut="1.6740361452102661e+00" cType="1" res="-4.2965605854988098e-02" rms="1.9757190346717834e-01" purity="2.6376253366470337e-01" nType="0">
          <Node pos="l" depth="2" NCoef="0" IVar="-1" Cut="0.0000000000000000e+00" cType="1" res="-1.1651161126792431e-02" rms="0.0000000000000000e+00" purity="3.8412924855947495e-02" nType="-99"/>
          <Node pos="r" depth="2" NCoef="0" IVar="-1" Cut="0.0000000000000000e+00" cType="1" res="-1.9674049690365791e-03" rms="2.7829989790916443e-01" purity="4.5413228869438171e-01" nType="-99"/>
        </Node>
      </Node>
    </BinaryTree>
    <BinaryTree type="DecisionTree" boostWeight="1.0000000000000000e+00" itree="746">
      <Node pos="s" depth="0" NCoef="0" IVar="54" Cut="1.4478938579559326e+00" cType="1" res="1.1447689030319452e-03" rms="2.3402374982833862e-01" purity="5.0114804506301880e-01" nType="0">
        <Node pos="l" depth="1" NCoef="0" IVar="56" Cut="1.4841312170028687e+00" cType="1" res="6.6708656959235668e-03" rms="2.3644651472568512e-01" purity="5.4171574115753174e-01" nType="0">
          <Node pos="l" depth="2" NCoef="0" IVar="-1" Cut="0.0000000000000000e+00" cType="1" res="8.6559401825070381e-04" rms="2.3574507236480713e-01" purity="5.5270570516586304e-01" nType="-99"/>
          <Node pos="r" depth="2" NCoef="0" IVar="-1" Cut="0.0000000000000000e+00" cType="1" res="-1.1013039387762547e-02" rms="2.2956463694572449e-01" purity="5.3723305463790894e-02" nType="-99"/>
        </Node>
        <Node pos="r" depth="1" NCoef="0" IVar="49" Cut="3.4774258136749268e+00" cType="1" res="-5.8424692600965500e-02" rms="1.9647462666034698e-01" purity="6.3842050731182098e-02" nType="0">
          <Node pos="l" depth="2" NCoef="0" IVar="-1" Cut="0.0000000000000000e+00" cType="1" res="-4.4458042830228806e-03" rms="2.0019380748271942e-01" purity="6.6281192004680634e-02" nType="-99"/>
          <Node pos="r" depth="2" NCoef="0" IVar="-1" Cut="0.0000000000000000e+00" cType="1" res="-1.4079590328037739e-02" rms="1.6049347817897797e-01" purity="5.6958522647619247e-02" nType="-99"/>
        </Node>
      </Node>
    </BinaryTree>
    <BinaryTree type="DecisionTree" boostWeight="1.0000000000000000e+00" itree="747">
      <Node pos="s" depth="0" NCoef="0" IVar="1" Cut="1.8126446008682251e+00" cType="1" res="-2.1824124269187450e-03" rms="2.3079609870910645e-01" purity="4.9867662787437439e-01" nType="0">
        <Node pos="l" depth="1" NCoef="0" IVar="12" Cut="-9.5276600122451782e-01" cType="1" res="-2.7749305590987206e-02" rms="0.0000000000000000e+00" purity="-4.6632964164018631e-02" nType="-99"/>
        <Node pos="r" depth="1" NCoef="0" IVar="54" Cut="1.4478938579559326e+00" cType="1" res="2.0336867310106754e-03" rms="2.4347749352455139e-01" purity="5.2867704629898071e-01" nType="0">
          <Node pos="l" depth="2" NCoef="0" IVar="-1" Cut="0.0000000000000000e+00" cType="1" res="5.8114220155403018e-04" rms="2.4412621557712555e-01" purity="5.7046180963516235e-01" nType="-99"/>
          <Node pos="r" depth="2" NCoef="0" IVar="-1" Cut="0.0000000000000000e+00" cType="1" res="-5.9986570850014687e-03" rms="2.3062297701835632e-01" purity="8.1377282738685608e-02" nType="-99"/>
        </Node>
      </Node>
    </BinaryTree>
    <BinaryTree type="DecisionTree" boostWeight="1.0000000000000000e+00" itree="748">
      <Node pos="s" depth="0" NCoef="0" IVar="56" Cut="1.5240936279296875e+00" cType="1" res="6.2968017300590873e-04" rms="2.3263210058212280e-01" purity="4.9960044026374817e-01" nType="0">
        <Node pos="l" depth="1" NCoef="0" IVar="14" Cut="1.5258079767227173e+00" cType="1" res="3.8482181262224913e-03" rms="2.3507890105247498e-01" purity="5.1911085844039917e-01" nType="0">
          <Node pos="l" depth="2" NCoef="0" IVar="-1" Cut="0.0000000000000000e+00" cType="1" res="-8.7223487207666039e-04" rms="2.3605167865753174e-01" purity="3.6287024617195129e-01" nType="-99"/>
          <Node pos="r" depth="2" NCoef="0" IVar="-1" Cut="0.0000000000000000e+00" cType="1" res="2.2645397111773491e-03" rms="2.3138365149497986e-01" purity="8.0964672565460205e-01" nType="-99"/>
        </Node>
        <Node pos="r" depth="1" NCoef="0" IVar="-1" Cut="0.0000000000000000e+00" cType="1" res="-1.1252714321017265e-02" rms="1.3669057190418243e-01" purity="1.0789503343403339e-02" nType="-99"/>
      </Node>
    </BinaryTree>
    <BinaryTree type="DecisionTree" boostWeight="1.0000000000000000e+00" itree="749">
      <Node pos="s" depth="0" NCoef="0" IVar="2" Cut="4.9828153848648071e-01" cType="1" res="-8.3000876475125551e-04" rms="2.3480181396007538e-01" purity="4.9928045272827148e-01" nType="0">
        <Node pos="l" depth="1" NCoef="0" IVar="-1" Cut="0.0000000000000000e+00" cType="1" res="-1.0077645070850849e-02" rms="0.0000000000000000e+00" purity="-5.6308347731828690e-02" nType="-99"/>
        <Node pos="r" depth="1" NCoef="0" IVar="17" Cut="-9.6369361877441406e-01" cType="1" res="1.6686805756762624e-03" rms="2.3926737904548645e-01" purity="5.1141387224197388e-01" nType="0">
          <Node pos="l" depth="2" NCoef="0" IVar="-1" Cut="0.0000000000000000e+00" cType="1" res="5.9458403848111629e-04" rms="2.4037864804267883e-01" purity="5.3457963466644287e-01" nType="-99"/>
          <Node pos="r" depth="2" NCoef="0" IVar="-1" Cut="0.0000000000000000e+00" cType="1" res="-5.1951580680906773e-03" rms="2.2079212963581085e-01" purity="2.6508951187133789e-01" nType="-99"/>
        </Node>
      </Node>
    </BinaryTree>
    <BinaryTree type="DecisionTree" boostWeight="1.0000000000000000e+00" itree="750">
      <Node pos="s" depth="0" NCoef="0" IVar="64" Cut="1.2345679104328156e-02" cType="1" res="-9.1012439224869013e-04" rms="2.3495784401893616e-01" purity="4.9650600552558899e-01" nType="0">
        <Node pos="l" depth="1" NCoef="0" IVar="54" Cut="1.2544955015182495e+00" cType="1" res="2.3601665161550045e-03" rms="2.3452396690845490e-01" purity="5.0599288940429688e-01" nType="0">
          <Node pos="l" depth="2" NCoef="0" IVar="-1" Cut="0.0000000000000000e+00" cType="1" res="7.7213946497067809e-04" rms="2.3539789021015167e-01" purity="5.6458324193954468e-01" nType="-99"/>
          <Node pos="r" depth="2" NCoef="0" IVar="-1" Cut="0.0000000000000000e+00" cType="1" res="-4.3652332387864590e-03" rms="2.2436593472957611e-01" purity="1.1710041016340256e-01" nType="-99"/>
        </Node>
        <Node pos="r" depth="1" NCoef="0" IVar="46" Cut="-1.1449553966522217e+00" cType="1" res="-7.3292508721351624e-02" rms="2.3289014399051666e-01" purity="2.8652837872505188e-01" nType="0">
          <Node pos="l" depth="2" NCoef="0" IVar="-1" Cut="0.0000000000000000e+00" cType="1" res="-1.3955117203295231e-02" rms="2.4772696197032928e-01" purity="1.7160761356353760e-01" nType="-99"/>
          <Node pos="r" depth="2" NCoef="0" IVar="-1" Cut="0.0000000000000000e+00" cType="1" res="-1.6760382568463683e-03" rms="1.9998157024383545e-01" purity="4.1656500101089478e-01" nType="-99"/>
        </Node>
      </Node>
    </BinaryTree>
    <BinaryTree type="DecisionTree" boostWeight="1.0000000000000000e+00" itree="751">
      <Node pos="s" depth="0" NCoef="0" IVar="2" Cut="5.6514984369277954e-01" cType="1" res="1.0804289486259222e-03" rms="2.3554475605487823e-01" purity="5.0130456686019897e-01" nType="0">
        <Node pos="l" depth="1" NCoef="0" IVar="-1" Cut="0.0000000000000000e+00" cType="1" res="-1.0074299760162830e-02" rms="0.0000000000000000e+00" purity="-5.9486512094736099e-02" nType="-99"/>
        <Node pos="r" depth="1" NCoef="0" IVar="1" Cut="2.0054724216461182e+00" cType="1" res="3.7819931749254465e-03" rms="2.4026085436344147e-01" purity="5.1452004909515381e-01" nType="0">
          <Node pos="l" depth="2" NCoef="0" IVar="-1" Cut="0.0000000000000000e+00" cType="1" res="-1.0736147873103619e-02" rms="0.0000000000000000e+00" purity="4.1036321781575680e-03" nType="-99"/>
          <Node pos="r" depth="2" NCoef="0" IVar="-1" Cut="0.0000000000000000e+00" cType="1" res="7.8332284465432167e-04" rms="2.5751620531082153e-01" purity="5.7356494665145874e-01" nType="-99"/>
        </Node>
      </Node>
    </BinaryTree>
    <BinaryTree type="DecisionTree" boostWeight="1.0000000000000000e+00" itree="752">
      <Node pos="s" depth="0" NCoef="0" IVar="52" Cut="-1.5312020778656006e+00" cType="1" res="1.3239409308880568e-03" rms="2.3547041416168213e-01" purity="4.9998569488525391e-01" nType="0">
        <Node pos="l" depth="1" NCoef="0" IVar="34" Cut="-1.0281317234039307e+00" cType="1" res="2.2182803601026535e-02" rms="2.2460623085498810e-01" purity="6.8642932176589966e-01" nType="0">
          <Node pos="l" depth="2" NCoef="0" IVar="-1" Cut="0.0000000000000000e+00" cType="1" res="3.1585611868649721e-03" rms="1.9975374639034271e-01" purity="7.7525025606155396e-01" nType="-99"/>
          <Node pos="r" depth="2" NCoef="0" IVar="-1" Cut="0.0000000000000000e+00" cType="1" res="-1.2033685343340039e-03" rms="2.9336372017860413e-01" purity="3.7164127826690674e-01" nType="-99"/>
        </Node>
        <Node pos="r" depth="1" NCoef="0" IVar="65" Cut="7.0725595951080322e-01" cType="1" res="-1.2418297119438648e-02" rms="2.4137903749942780e-01" purity="3.7715286016464233e-01" nType="0">
          <Node pos="l" depth="2" NCoef="0" IVar="-1" Cut="0.0000000000000000e+00" cType="1" res="-4.8232811968773603e-04" rms="2.5587335228919983e-01" purity="4.1342100501060486e-01" nType="-99"/>
          <Node pos="r" depth="2" NCoef="0" IVar="-1" Cut="0.0000000000000000e+00" cType="1" res="-8.5750902071595192e-03" rms="4.4087588787078857e-02" purity="1.0916611552238464e-01" nType="-99"/>
        </Node>
      </Node>
    </BinaryTree>
    <BinaryTree type="DecisionTree" boostWeight="1.0000000000000000e+00" itree="753">
      <Node pos="s" depth="0" NCoef="0" IVar="2" Cut="4.9828153848648071e-01" cType="1" res="8.7506056297570467e-04" rms="2.3300489783287048e-01" purity="5.0204861164093018e-01" nType="0">
        <Node pos="l" depth="1" NCoef="0" IVar="-1" Cut="0.0000000000000000e+00" cType="1" res="-1.0491261258721352e-02" rms="0.0000000000000000e+00" purity="-6.3842892646789551e-02" nType="-99"/>
        <Node pos="r" depth="1" NCoef="0" IVar="14" Cut="-1.4537111520767212e+00" cType="1" res="3.2919067889451981e-03" rms="2.3735038936138153e-01" purity="5.1393616199493408e-01" nType="0">
          <Node pos="l" depth="2" NCoef="0" IVar="-1" Cut="0.0000000000000000e+00" cType="1" res="-2.1037228405475616e-02" rms="0.0000000000000000e+00" purity="-1.7927575856447220e-02" nType="-99"/>
          <Node pos="r" depth="2" NCoef="0" IVar="-1" Cut="0.0000000000000000e+00" cType="1" res="8.8539411081001163e-04" rms="2.7113452553749084e-01" purity="6.3534557819366455e-01" nType="-99"/>
        </Node>
      </Node>
    </BinaryTree>
    <BinaryTree type="DecisionTree" boostWeight="1.0000000000000000e+00" itree="754">
      <Node pos="s" depth="0" NCoef="0" IVar="34" Cut="1.4480490684509277e+00" cType="1" res="1.3863291824236512e-03" rms="2.3245963454246521e-01" purity="5.0061625242233276e-01" nType="0">
        <Node pos="l" depth="1" NCoef="0" IVar="25" Cut="7.7368789911270142e-01" cType="1" res="6.4602713100612164e-03" rms="2.3566323518753052e-01" purity="5.4067194461822510e-01" nType="0">
          <Node pos="l" depth="2" NCoef="0" IVar="-1" Cut="0.0000000000000000e+00" cType="1" res="-1.0970127768814564e-02" rms="0.0000000000000000e+00" purity="3.6210458725690842e-02" nType="-99"/>
          <Node pos="r" depth="2" NCoef="0" IVar="-1" Cut="0.0000000000000000e+00" cType="1" res="9.3134253984317183e-04" rms="2.4240793287754059e-01" purity="5.6855839490890503e-01" nType="-99"/>
        </Node>
        <Node pos="r" depth="1" NCoef="0" IVar="36" Cut="1.3701910972595215e+00" cType="1" res="-5.4207179695367813e-02" rms="1.8502245843410492e-01" purity="6.1739195138216019e-02" nType="0">
          <Node pos="l" depth="2" NCoef="0" IVar="-1" Cut="0.0000000000000000e+00" cType="1" res="-1.2496514245867729e-02" rms="2.1831806004047394e-01" purity="1.0929865390062332e-01" nType="-99"/>
          <Node pos="r" depth="2" NCoef="0" IVar="-1" Cut="0.0000000000000000e+00" cType="1" res="-4.5160581357777119e-03" rms="1.6348437964916229e-01" purity="4.4817347079515457e-02" nType="-99"/>
        </Node>
      </Node>
    </BinaryTree>
    <BinaryTree type="DecisionTree" boostWeight="1.0000000000000000e+00" itree="755">
      <Node pos="s" depth="0" NCoef="0" IVar="14" Cut="1.5258079767227173e+00" cType="1" res="7.1367534110322595e-04" rms="2.3149909079074860e-01" purity="4.9989271163940430e-01" nType="0">
        <Node pos="l" depth="1" NCoef="0" IVar="2" Cut="1.9624378681182861e+00" cType="1" res="-1.1306733824312687e-02" rms="2.3003804683685303e-01" purity="3.4885433316230774e-01" nType="0">
          <Node pos="l" depth="2" NCoef="0" IVar="-1" Cut="0.0000000000000000e+00" cType="1" res="-4.0594753809273243e-03" rms="1.5252110362052917e-01" purity="1.3354885578155518e-01" nType="-99"/>
          <Node pos="r" depth="2" NCoef="0" IVar="-1" Cut="0.0000000000000000e+00" cType="1" res="3.8029684219509363e-04" rms="2.7180051803588867e-01" purity="5.0519829988479614e-01" nType="-99"/>
        </Node>
        <Node pos="r" depth="1" NCoef="0" IVar="36" Cut="1.4855418205261230e+00" cType="1" res="2.3055706173181534e-02" rms="2.3254559934139252e-01" purity="7.8062391281127930e-01" nType="0">
          <Node pos="l" depth="2" NCoef="0" IVar="-1" Cut="0.0000000000000000e+00" cType="1" res="2.4398863315582275e-03" rms="2.2346217930316925e-01" purity="8.2371640205383301e-01" nType="-99"/>
          <Node pos="r" depth="2" NCoef="0" IVar="-1" Cut="0.0000000000000000e+00" cType="1" res="-5.5151758715510368e-03" rms="3.2838180661201477e-01" purity="1.1445023864507675e-01" nType="-99"/>
        </Node>
      </Node>
    </BinaryTree>
    <BinaryTree type="DecisionTree" boostWeight="1.0000000000000000e+00" itree="756">
      <Node pos="s" depth="0" NCoef="0" IVar="2" Cut="1.3148310184478760e+00" cType="1" res="-4.5311776921153069e-04" rms="2.3371805250644684e-01" purity="5.0023347139358521e-01" nType="0">
        <Node pos="l" depth="1" NCoef="0" IVar="1" Cut="2.7871639728546143e+00" cType="1" res="-4.8994310200214386e-02" rms="1.6344863176345825e-01" purity="1.1969920992851257e-01" nType="0">
          <Node pos="l" depth="2" NCoef="0" IVar="-1" Cut="0.0000000000000000e+00" cType="1" res="-3.2530648168176413e-03" rms="1.0228556394577026e-01" purity="7.9053893685340881e-02" nType="-99"/>
          <Node pos="r" depth="2" NCoef="0" IVar="-1" Cut="0.0000000000000000e+00" cType="1" res="-5.5931308306753635e-03" rms="2.4087662994861603e-01" purity="2.0730635523796082e-01" nType="-99"/>
        </Node>
        <Node pos="r" depth="1" NCoef="0" IVar="1" Cut="1.9922486543655396e+00" cType="1" res="4.9336068332195282e-03" rms="2.3964707553386688e-01" purity="5.4246217012405396e-01" nType="0">
          <Node pos="l" depth="2" NCoef="0" IVar="-1" Cut="0.0000000000000000e+00" cType="1" res="-1.3109329156577587e-02" rms="0.0000000000000000e+00" purity="-5.6052594445645809e-03" nType="-99"/>
          <Node pos="r" depth="2" NCoef="0" IVar="-1" Cut="0.0000000000000000e+00" cType="1" res="8.7695074034854770e-04" rms="2.5467324256896973e-01" purity="5.9308379888534546e-01" nType="-99"/>
        </Node>
      </Node>
    </BinaryTree>
    <BinaryTree type="DecisionTree" boostWeight="1.0000000000000000e+00" itree="757">
      <Node pos="s" depth="0" NCoef="0" IVar="44" Cut="1.2345679104328156e-02" cType="1" res="-9.5345947192981839e-04" rms="2.3673120141029358e-01" purity="4.9929422140121460e-01" nType="0">
        <Node pos="l" depth="1" NCoef="0" IVar="5" Cut="9.5189833641052246e-01" cType="1" res="2.5513367727398872e-03" rms="2.3501604795455933e-01" purity="5.1052093505859375e-01" nType="0">
          <Node pos="l" depth="2" NCoef="0" IVar="-1" Cut="0.0000000000000000e+00" cType="1" res="-7.7141928486526012e-03" rms="7.1416795253753662e-02" purity="9.7059845924377441e-02" nType="-99"/>
          <Node pos="r" depth="2" NCoef="0" IVar="-1" Cut="0.0000000000000000e+00" cType="1" res="6.2622531550005078e-04" rms="2.4248881638050079e-01" purity="5.4211056232452393e-01" nType="-99"/>
        </Node>
        <Node pos="r" depth="1" NCoef="0" IVar="35" Cut="-8.7391984462738037e-01" cType="1" res="-7.0738442242145538e-02" rms="2.5891631841659546e-01" purity="2.7575603127479553e-01" nType="0">
          <Node pos="l" depth="2" NCoef="0" IVar="-1" Cut="0.0000000000000000e+00" cType="1" res="1.2818975665140897e-04" rms="2.2465726733207703e-01" purity="4.5366582274436951e-01" nType="-99"/>
          <Node pos="r" depth="2" NCoef="0" IVar="-1" Cut="0.0000000000000000e+00" cType="1" res="-1.4053425751626492e-02" rms="2.6932895183563232e-01" purity="1.4707207679748535e-01" nType="-99"/>
        </Node>
      </Node>
    </BinaryTree>
    <BinaryTree type="DecisionTree" boostWeight="1.0000000000000000e+00" itree="758">
      <Node pos="s" depth="0" NCoef="0" IVar="0" Cut="5.8359640836715698e-01" cType="1" res="-3.8571882760152221e-04" rms="2.3168867826461792e-01" purity="4.9908104538917542e-01" nType="0">
        <Node pos="l" depth="1" NCoef="0" IVar="56" Cut="1.5237022638320923e+00" cType="1" res="1.3425542972981930e-02" rms="2.4000464379787445e-01" purity="5.6838947534561157e-01" nType="0">
          <Node pos="l" depth="2" NCoef="0" IVar="-1" Cut="0.0000000000000000e+00" cType="1" res="1.5021584695205092e-03" rms="2.4149797856807709e-01" purity="5.9002774953842163e-01" nType="-99"/>
          <Node pos="r" depth="2" NCoef="0" IVar="-1" Cut="0.0000000000000000e+00" cType="1" res="-1.0455414652824402e-02" rms="1.7163892090320587e-01" purity="2.0273547619581223e-02" nType="-99"/>
        </Node>
        <Node pos="r" depth="1" NCoef="0" IVar="29" Cut="2.7015674114227295e+00" cType="1" res="-2.0305961370468140e-02" rms="2.1760073304176331e-01" purity="3.9911606907844543e-01" nType="0">
          <Node pos="l" depth="2" NCoef="0" IVar="-1" Cut="0.0000000000000000e+00" cType="1" res="-8.1835063174366951e-03" rms="1.3948938250541687e-01" purity="1.7749780416488647e-01" nType="-99"/>
          <Node pos="r" depth="2" NCoef="0" IVar="-1" Cut="0.0000000000000000e+00" cType="1" res="-8.0239475937560201e-04" rms="2.3342591524124146e-01" purity="4.6113279461860657e-01" nType="-99"/>
        </Node>
      </Node>
    </BinaryTree>
    <BinaryTree type="DecisionTree" boostWeight="1.0000000000000000e+00" itree="759">
      <Node pos="s" depth="0" NCoef="0" IVar="34" Cut="1.1772167682647705e+00" cType="1" res="1.2768020387738943e-03" rms="2.3831556737422943e-01" purity="4.9965509772300720e-01" nType="0">
        <Node pos="l" depth="1" NCoef="0" IVar="25" Cut="1.1099817752838135e+00" cType="1" res="7.6798195950686932e-03" rms="2.4103616178035736e-01" purity="5.5919289588928223e-01" nType="0">
          <Node pos="l" depth="2" NCoef="0" IVar="-1" Cut="0.0000000000000000e+00" cType="1" res="-4.8427167348563671e-03" rms="1.5450462698936462e-01" purity="1.0652638226747513e-01" nType="-99"/>
          <Node pos="r" depth="2" NCoef="0" IVar="-1" Cut="0.0000000000000000e+00" cType="1" res="1.2251703301444650e-03" rms="2.5044435262680054e-01" purity="6.2458491325378418e-01" nType="-99"/>
        </Node>
        <Node pos="r" depth="1" NCoef="0" IVar="29" Cut="3.4068887233734131e+00" cType="1" res="-3.8200467824935913e-02" rms="2.1666248142719269e-01" purity="1.3257972896099091e-01" nType="0">
          <Node pos="l" depth="2" NCoef="0" IVar="-1" Cut="0.0000000000000000e+00" cType="1" res="-2.0584086887538433e-03" rms="1.9980761408805847e-01" purity="1.1859694123268127e-01" nType="-99"/>
          <Node pos="r" depth="2" NCoef="0" IVar="-1" Cut="0.0000000000000000e+00" cType="1" res="-7.2440439835190773e-03" rms="2.3854291439056396e-01" purity="1.5732902288436890e-01" nType="-99"/>
        </Node>
      </Node>
    </BinaryTree>
    <BinaryTree type="DecisionTree" boostWeight="1.0000000000000000e+00" itree="760">
      <Node pos="s" depth="0" NCoef="0" IVar="45" Cut="9.1266185045242310e-01" cType="1" res="7.2873098542913795e-04" rms="2.3665569722652435e-01" purity="4.9992629885673523e-01" nType="0">
        <Node pos="l" depth="1" NCoef="0" IVar="34" Cut="-6.8084853887557983e-01" cType="1" res="-9.8848529160022736e-03" rms="0.0000000000000000e+00" purity="4.5149702578783035e-02" nType="-99"/>
        <Node pos="r" depth="1" NCoef="0" IVar="57" Cut="-9.6759402751922607e-01" cType="1" res="6.5267495810985565e-03" rms="2.4827277660369873e-01" purity="5.4341435432434082e-01" nType="0">
          <Node pos="l" depth="2" NCoef="0" IVar="-1" Cut="0.0000000000000000e+00" cType="1" res="1.0404553031548858e-03" rms="2.4954010546207428e-01" purity="5.6651306152343750e-01" nType="-99"/>
          <Node pos="r" depth="2" NCoef="0" IVar="-1" Cut="0.0000000000000000e+00" cType="1" res="-4.7701834701001644e-03" rms="2.2760041058063507e-01" purity="3.0234465003013611e-01" nType="-99"/>
        </Node>
      </Node>
    </BinaryTree>
    <BinaryTree type="DecisionTree" boostWeight="1.0000000000000000e+00" itree="761">
      <Node pos="s" depth="0" NCoef="0" IVar="45" Cut="1.0957996845245361e+00" cType="1" res="1.9548793788999319e-03" rms="2.3314268887042999e-01" purity="5.0216525793075562e-01" nType="0">
        <Node pos="l" depth="1" NCoef="0" IVar="49" Cut="2.8745405673980713e+00" cType="1" res="-4.1446004062891006e-02" rms="9.6436932682991028e-02" purity="8.1345841288566589e-02" nType="0">
          <Node pos="l" depth="2" NCoef="0" IVar="-1" Cut="0.0000000000000000e+00" cType="1" res="-1.0852918028831482e-02" rms="0.0000000000000000e+00" purity="3.1537763774394989e-02" nType="-99"/>
          <Node pos="r" depth="2" NCoef="0" IVar="-1" Cut="0.0000000000000000e+00" cType="1" res="3.0149950180202723e-03" rms="2.2794713079929352e-01" purity="2.2603707015514374e-01" nType="-99"/>
        </Node>
        <Node pos="r" depth="1" NCoef="0" IVar="56" Cut="1.5240936279296875e+00" cType="1" res="8.2637732848525047e-03" rms="2.4615301191806793e-01" purity="5.6333696842193604e-01" nType="0">
          <Node pos="l" depth="2" NCoef="0" IVar="-1" Cut="0.0000000000000000e+00" cType="1" res="1.0495141614228487e-03" rms="2.4890641868114471e-01" purity="5.8697867393493652e-01" nType="-99"/>
          <Node pos="r" depth="2" NCoef="0" IVar="-1" Cut="0.0000000000000000e+00" cType="1" res="-1.0616968385875225e-02" rms="1.4590679109096527e-01" purity="1.5334259718656540e-02" nType="-99"/>
        </Node>
      </Node>
    </BinaryTree>
    <BinaryTree type="DecisionTree" boostWeight="1.0000000000000000e+00" itree="762">
      <Node pos="s" depth="0" NCoef="0" IVar="36" Cut="1.4471486806869507e+00" cType="1" res="4.9153121653944254e-04" rms="2.3209688067436218e-01" purity="5.0238555669784546e-01" nType="0">
        <Node pos="l" depth="1" NCoef="0" IVar="34" Cut="1.4838682413101196e+00" cType="1" res="5.5591645650565624e-03" rms="2.3445774614810944e-01" purity="5.4280668497085571e-01" nType="0">
          <Node pos="l" depth="2" NCoef="0" IVar="-1" Cut="0.0000000000000000e+00" cType="1" res="7.7156710904091597e-04" rms="2.3368258774280548e-01" purity="5.5341106653213501e-01" nType="-99"/>
          <Node pos="r" depth="2" NCoef="0" IVar="-1" Cut="0.0000000000000000e+00" cType="1" res="-1.2060632929205894e-02" rms="2.3534761369228363e-01" purity="9.4168730080127716e-02" nType="-99"/>
        </Node>
        <Node pos="r" depth="1" NCoef="0" IVar="29" Cut="3.4068887233734131e+00" cType="1" res="-5.4295502603054047e-02" rms="1.9667619466781616e-01" purity="6.5385840833187103e-02" nType="0">
          <Node pos="l" depth="2" NCoef="0" IVar="-1" Cut="0.0000000000000000e+00" cType="1" res="-3.3937813714146614e-03" rms="1.9370512664318085e-01" purity="7.6439812779426575e-02" nType="-99"/>
          <Node pos="r" depth="2" NCoef="0" IVar="-1" Cut="0.0000000000000000e+00" cType="1" res="-1.1539197526872158e-02" rms="1.8765364587306976e-01" purity="4.2226843535900116e-02" nType="-99"/>
        </Node>
      </Node>
    </BinaryTree>
    <BinaryTree type="DecisionTree" boostWeight="1.0000000000000000e+00" itree="763">
      <Node pos="s" depth="0" NCoef="0" IVar="2" Cut="5.0748854875564575e-01" cType="1" res="4.5251633855514228e-04" rms="2.3432444036006927e-01" purity="4.9998360872268677e-01" nType="0">
        <Node pos="l" depth="1" NCoef="0" IVar="-1" Cut="0.0000000000000000e+00" cType="1" res="-1.1783601716160774e-02" rms="0.0000000000000000e+00" purity="-7.4462167918682098e-02" nType="-99"/>
        <Node pos="r" depth="1" NCoef="0" IVar="54" Cut="1.3705623149871826e+00" cType="1" res="3.1785136088728905e-03" rms="2.3926593363285065e-01" purity="5.1220673322677612e-01" nType="0">
          <Node pos="l" depth="2" NCoef="0" IVar="-1" Cut="0.0000000000000000e+00" cType="1" res="7.8056240454316139e-04" rms="2.4140357971191406e-01" purity="5.6276845932006836e-01" nType="-99"/>
          <Node pos="r" depth="2" NCoef="0" IVar="-1" Cut="0.0000000000000000e+00" cType="1" res="-4.9998369067907333e-03" rms="2.1591198444366455e-01" purity="9.5469869673252106e-02" nType="-99"/>
        </Node>
      </Node>
    </BinaryTree>
    <BinaryTree type="DecisionTree" boostWeight="1.0000000000000000e+00" itree="764">
      <Node pos="s" depth="0" NCoef="0" IVar="14" Cut="1.5258079767227173e+00" cType="1" res="3.7081213667988777e-03" rms="2.3752693831920624e-01" purity="5.0224614143371582e-01" nType="0">
        <Node pos="l" depth="1" NCoef="0" IVar="37" Cut="-1.7905809879302979e+00" cType="1" res="-7.9326471313834190e-03" rms="2.3724475502967834e-01" purity="3.5207036137580872e-01" nType="0">
          <Node pos="l" depth="2" NCoef="0" IVar="-1" Cut="0.0000000000000000e+00" cType="1" res="4.1339659946970642e-04" rms="2.5775617361068726e-01" purity="4.0752464532852173e-01" nType="-99"/>
          <Node pos="r" depth="2" NCoef="0" IVar="-1" Cut="0.0000000000000000e+00" cType="1" res="-3.1005190685391426e-03" rms="1.9844266772270203e-01" purity="2.6317334175109863e-01" nType="-99"/>
        </Node>
        <Node pos="r" depth="1" NCoef="0" IVar="56" Cut="1.4854199886322021e+00" cType="1" res="2.5274407118558884e-02" rms="2.3653981089591980e-01" purity="7.8046953678131104e-01" nType="0">
          <Node pos="l" depth="2" NCoef="0" IVar="-1" Cut="0.0000000000000000e+00" cType="1" res="2.5920618791133165e-03" rms="2.2984309494495392e-01" purity="8.2333135604858398e-01" nType="-99"/>
          <Node pos="r" depth="2" NCoef="0" IVar="-1" Cut="0.0000000000000000e+00" cType="1" res="-5.4495520889759064e-03" rms="3.1034842133522034e-01" purity="9.9997438490390778e-02" nType="-99"/>
        </Node>
      </Node>
    </BinaryTree>
    <BinaryTree type="DecisionTree" boostWeight="1.0000000000000000e+00" itree="765">
      <Node pos="s" depth="0" NCoef="0" IVar="65" Cut="7.7437400817871094e-01" cType="1" res="1.4383601956069469e-03" rms="2.3480871319770813e-01" purity="4.9845772981643677e-01" nType="0">
        <Node pos="l" depth="1" NCoef="0" IVar="36" Cut="-1.4150811433792114e+00" cType="1" res="5.2670333534479141e-03" rms="2.3946744203567505e-01" purity="5.2153170108795166e-01" nType="0">
          <Node pos="l" depth="2" NCoef="0" IVar="-1" Cut="0.0000000000000000e+00" cType="1" res="1.4336908934637904e-03" rms="2.3631477355957031e-01" purity="6.2769740819931030e-01" nType="-99"/>
          <Node pos="r" depth="2" NCoef="0" IVar="-1" Cut="0.0000000000000000e+00" cType="1" res="-1.8625562079250813e-03" rms="2.4492760002613068e-01" purity="2.7339345216751099e-01" nType="-99"/>
        </Node>
        <Node pos="r" depth="1" NCoef="0" IVar="9" Cut="2.5741927623748779e+00" cType="1" res="-6.2144752591848373e-02" rms="1.1897499859333038e-01" purity="1.1526587605476379e-01" nType="0">
          <Node pos="l" depth="2" NCoef="0" IVar="-1" Cut="0.0000000000000000e+00" cType="1" res="-1.3232699595391750e-02" rms="6.0002770274877548e-02" purity="2.1934667602181435e-02" nType="-99"/>
          <Node pos="r" depth="2" NCoef="0" IVar="-1" Cut="0.0000000000000000e+00" cType="1" res="-3.6607910878956318e-03" rms="1.4107027649879456e-01" purity="1.8617716431617737e-01" nType="-99"/>
        </Node>
      </Node>
    </BinaryTree>
    <BinaryTree type="DecisionTree" boostWeight="1.0000000000000000e+00" itree="766">
      <Node pos="s" depth="0" NCoef="0" IVar="32" Cut="-1.5312021970748901e+00" cType="1" res="9.8691077437251806e-04" rms="2.3457315564155579e-01" purity="4.9799385666847229e-01" nType="0">
        <Node pos="l" depth="1" NCoef="0" IVar="54" Cut="-1.4150406122207642e+00" cType="1" res="2.0579343661665916e-02" rms="2.2785738110542297e-01" purity="6.8263828754425049e-01" nType="0">
          <Node pos="l" depth="2" NCoef="0" IVar="-1" Cut="0.0000000000000000e+00" cType="1" res="3.3840588293969631e-03" rms="1.9402155280113220e-01" purity="7.8828781843185425e-01" nType="-99"/>
          <Node pos="r" depth="2" NCoef="0" IVar="-1" Cut="0.0000000000000000e+00" cType="1" res="-8.0335687380284071e-04" rms="2.9091617465019226e-01" purity="4.3085679411888123e-01" nType="-99"/>
        </Node>
        <Node pos="r" depth="1" NCoef="0" IVar="65" Cut="7.2976052761077881e-01" cType="1" res="-1.1900641955435276e-02" rms="2.3801003396511078e-01" purity="3.7653803825378418e-01" nType="0">
          <Node pos="l" depth="2" NCoef="0" IVar="-1" Cut="0.0000000000000000e+00" cType="1" res="-5.3435668814927340e-04" rms="2.4966786801815033e-01" purity="4.0837460756301880e-01" nType="-99"/>
          <Node pos="r" depth="2" NCoef="0" IVar="-1" Cut="0.0000000000000000e+00" cType="1" res="-9.4701619818806648e-03" rms="4.3565854430198669e-02" purity="8.8509179651737213e-02" nType="-99"/>
        </Node>
      </Node>
    </BinaryTree>
    <BinaryTree type="DecisionTree" boostWeight="1.0000000000000000e+00" itree="767">
      <Node pos="s" depth="0" NCoef="0" IVar="64" Cut="1.2345679104328156e-02" cType="1" res="6.9074647035449743e-04" rms="2.3358771204948425e-01" purity="4.9930074810981750e-01" nType="0">
        <Node pos="l" depth="1" NCoef="0" IVar="57" Cut="-1.0025402307510376e+00" cType="1" res="4.0545673109591007e-03" rms="2.3395501077175140e-01" purity="5.0849813222885132e-01" nType="0">
          <Node pos="l" depth="2" NCoef="0" IVar="-1" Cut="0.0000000000000000e+00" cType="1" res="8.7748304940760136e-04" rms="2.3634947836399078e-01" purity="5.3787457942962646e-01" nType="-99"/>
          <Node pos="r" depth="2" NCoef="0" IVar="-1" Cut="0.0000000000000000e+00" cType="1" res="-4.7525055706501007e-03" rms="2.0667096972465515e-01" purity="2.5726222991943359e-01" nType="-99"/>
        </Node>
        <Node pos="r" depth="1" NCoef="0" IVar="55" Cut="-7.5895076990127563e-01" cType="1" res="-7.6227881014347076e-02" rms="2.1085807681083679e-01" purity="2.8899011015892029e-01" nType="0">
          <Node pos="l" depth="2" NCoef="0" IVar="-1" Cut="0.0000000000000000e+00" cType="1" res="-2.4408756289631128e-03" rms="2.1932624280452728e-01" purity="4.4256258010864258e-01" nType="-99"/>
          <Node pos="r" depth="2" NCoef="0" IVar="-1" Cut="0.0000000000000000e+00" cType="1" res="-1.5402860008180141e-02" rms="1.8601156771183014e-01" purity="1.2338512390851974e-01" nType="-99"/>
        </Node>
      </Node>
    </BinaryTree>
    <BinaryTree type="DecisionTree" boostWeight="1.0000000000000000e+00" itree="768">
      <Node pos="s" depth="0" NCoef="0" IVar="2" Cut="5.0748854875564575e-01" cType="1" res="2.6100155082531273e-04" rms="2.3179873824119568e-01" purity="4.9953693151473999e-01" nType="0">
        <Node pos="l" depth="1" NCoef="0" IVar="-1" Cut="0.0000000000000000e+00" cType="1" res="-1.0875123552978039e-02" rms="0.0000000000000000e+00" purity="-6.5211839973926544e-02" nType="-99"/>
        <Node pos="r" depth="1" NCoef="0" IVar="45" Cut="7.3133111000061035e-01" cType="1" res="2.8436817228794098e-03" rms="2.3622044920921326e-01" purity="5.1166462898254395e-01" nType="0">
          <Node pos="l" depth="2" NCoef="0" IVar="-1" Cut="0.0000000000000000e+00" cType="1" res="-1.4235205948352814e-02" rms="0.0000000000000000e+00" purity="1.0659042745828629e-02" nType="-99"/>
          <Node pos="r" depth="2" NCoef="0" IVar="-1" Cut="0.0000000000000000e+00" cType="1" res="5.8681698283180594e-04" rms="2.4254511296749115e-01" purity="5.3281676769256592e-01" nType="-99"/>
        </Node>
      </Node>
    </BinaryTree>
    <BinaryTree type="DecisionTree" boostWeight="1.0000000000000000e+00" itree="769">
      <Node pos="s" depth="0" NCoef="0" IVar="64" Cut="1.2345679104328156e-02" cType="1" res="3.5063545219600201e-03" rms="2.3444792628288269e-01" purity="5.0252556800842285e-01" nType="0">
        <Node pos="l" depth="1" NCoef="0" IVar="14" Cut="-1.4537136554718018e+00" cType="1" res="6.7173568531870842e-03" rms="2.3387739062309265e-01" purity="5.1206213235855103e-01" nType="0">
          <Node pos="l" depth="2" NCoef="0" IVar="-1" Cut="0.0000000000000000e+00" cType="1" res="-1.8320308998227119e-02" rms="0.0000000000000000e+00" purity="-1.3846669346094131e-02" nType="-99"/>
          <Node pos="r" depth="2" NCoef="0" IVar="-1" Cut="0.0000000000000000e+00" cType="1" res="1.1390518629923463e-03" rms="2.6556131243705750e-01" purity="6.3125628232955933e-01" nType="-99"/>
        </Node>
        <Node pos="r" depth="1" NCoef="0" IVar="46" Cut="-1.1638228893280029e+00" cType="1" res="-6.6411361098289490e-02" rms="2.3594664037227631e-01" purity="2.9487287998199463e-01" nType="0">
          <Node pos="l" depth="2" NCoef="0" IVar="-1" Cut="0.0000000000000000e+00" cType="1" res="-1.2007281184196472e-02" rms="2.4716193974018097e-01" purity="1.8899025022983551e-01" nType="-99"/>
          <Node pos="r" depth="2" NCoef="0" IVar="-1" Cut="0.0000000000000000e+00" cType="1" res="-1.7702103359624743e-03" rms="2.1262627840042114e-01" purity="4.0931254625320435e-01" nType="-99"/>
        </Node>
      </Node>
    </BinaryTree>
    <BinaryTree type="DecisionTree" boostWeight="1.0000000000000000e+00" itree="770">
      <Node pos="s" depth="0" NCoef="0" IVar="63" Cut="1.1575114727020264e+00" cType="1" res="8.7428205006290227e-05" rms="2.3375913500785828e-01" purity="5.0097316503524780e-01" nType="0">
        <Node pos="l" depth="1" NCoef="0" IVar="33" Cut="1.3305623531341553e+00" cType="1" res="3.7578719202429056e-03" rms="2.3640437424182892e-01" purity="5.1293563842773438e-01" nType="0">
          <Node pos="l" depth="2" NCoef="0" IVar="-1" Cut="0.0000000000000000e+00" cType="1" res="6.1532034305855632e-04" rms="2.3767337203025818e-01" purity="5.2460587024688721e-01" nType="-99"/>
          <Node pos="r" depth="2" NCoef="0" IVar="-1" Cut="0.0000000000000000e+00" cType="1" res="-9.3033667653799057e-03" rms="1.8045569956302643e-01" purity="1.8750707805156708e-01" nType="-99"/>
        </Node>
        <Node pos="r" depth="1" NCoef="0" IVar="49" Cut="3.1477031707763672e+00" cType="1" res="-6.9147326052188873e-02" rms="1.6166719794273376e-01" purity="2.7532708644866943e-01" nType="0">
          <Node pos="l" depth="2" NCoef="0" IVar="-1" Cut="0.0000000000000000e+00" cType="1" res="-1.2800171039998531e-02" rms="9.4597317278385162e-02" purity="1.5781787037849426e-01" nType="-99"/>
          <Node pos="r" depth="2" NCoef="0" IVar="-1" Cut="0.0000000000000000e+00" cType="1" res="-4.4027655385434628e-03" rms="1.9395181536674500e-01" purity="3.6408686637878418e-01" nType="-99"/>
        </Node>
      </Node>
    </BinaryTree>
    <BinaryTree type="DecisionTree" boostWeight="1.0000000000000000e+00" itree="771">
      <Node pos="s" depth="0" NCoef="0" IVar="2" Cut="1.0310705900192261e+00" cType="1" res="-1.0197573574259877e-03" rms="2.3351249098777771e-01" purity="4.9868768453598022e-01" nType="0">
        <Node pos="l" depth="1" NCoef="0" IVar="57" Cut="-2.0929224491119385e+00" cType="1" res="-6.6255323588848114e-02" rms="7.3520027101039886e-02" purity="5.5562168359756470e-02" nType="0">
          <Node pos="l" depth="2" NCoef="0" IVar="-1" Cut="0.0000000000000000e+00" cType="1" res="-1.8123161280527711e-03" rms="2.3296183347702026e-01" purity="1.1826376616954803e-01" nType="-99"/>
          <Node pos="r" depth="2" NCoef="0" IVar="-1" Cut="0.0000000000000000e+00" cType="1" res="-1.0651100426912308e-02" rms="0.0000000000000000e+00" purity="-3.4142828080803156e-03" nType="-99"/>
        </Node>
        <Node pos="r" depth="1" NCoef="0" IVar="44" Cut="1.2345679104328156e-02" cType="1" res="2.7201347984373569e-03" rms="2.3892737925052643e-01" purity="5.2409166097640991e-01" nType="0">
          <Node pos="l" depth="2" NCoef="0" IVar="-1" Cut="0.0000000000000000e+00" cType="1" res="6.0492265038192272e-04" rms="2.3692817986011505e-01" purity="5.3595232963562012e-01" nType="-99"/>
          <Node pos="r" depth="2" NCoef="0" IVar="-1" Cut="0.0000000000000000e+00" cType="1" res="-6.8178907968103886e-03" rms="2.6486632227897644e-01" purity="2.9775044322013855e-01" nType="-99"/>
        </Node>
      </Node>
    </BinaryTree>
    <BinaryTree type="DecisionTree" boostWeight="1.0000000000000000e+00" itree="772">
      <Node pos="s" depth="0" NCoef="0" IVar="2" Cut="5.1484239101409912e-01" cType="1" res="2.2903001809027046e-04" rms="2.3165692389011383e-01" purity="5.0032192468643188e-01" nType="0">
        <Node pos="l" depth="1" NCoef="0" IVar="-1" Cut="0.0000000000000000e+00" cType="1" res="-1.0202345438301563e-02" rms="0.0000000000000000e+00" purity="-6.3318826258182526e-02" nType="-99"/>
        <Node pos="r" depth="1" NCoef="0" IVar="36" Cut="1.4851015806198120e+00" cType="1" res="2.5736512616276741e-03" rms="2.3600044846534729e-01" purity="5.1242846250534058e-01" nType="0">
          <Node pos="l" depth="2" NCoef="0" IVar="-1" Cut="0.0000000000000000e+00" cType="1" res="6.2470819102600217e-04" rms="2.3819269239902496e-01" purity="5.4633235931396484e-01" nType="-99"/>
          <Node pos="r" depth="2" NCoef="0" IVar="-1" Cut="0.0000000000000000e+00" cType="1" res="-7.3267808184027672e-03" rms="1.9463455677032471e-01" purity="4.6552568674087524e-02" nType="-99"/>
        </Node>
      </Node>
    </BinaryTree>
    <BinaryTree type="DecisionTree" boostWeight="1.0000000000000000e+00" itree="773">
      <Node pos="s" depth="0" NCoef="0" IVar="17" Cut="-8.7396472692489624e-01" cType="1" res="1.5138926682993770e-03" rms="2.3295772075653076e-01" purity="4.9994066357612610e-01" nType="0">
        <Node pos="l" depth="1" NCoef="0" IVar="2" Cut="9.8668181896209717e-01" cType="1" res="5.9562618844211102e-03" rms="2.3457846045494080e-01" purity="5.1946324110031128e-01" nType="0">
          <Node pos="l" depth="2" NCoef="0" IVar="-1" Cut="0.0000000000000000e+00" cType="1" res="-5.4893535561859608e-03" rms="8.5912324488162994e-02" purity="5.0148777663707733e-02" nType="-99"/>
          <Node pos="r" depth="2" NCoef="0" IVar="-1" Cut="0.0000000000000000e+00" cType="1" res="9.1943115694448352e-04" rms="2.3932389914989471e-01" purity="5.4441368579864502e-01" nType="-99"/>
        </Node>
        <Node pos="r" depth="1" NCoef="0" IVar="65" Cut="2.8229960799217224e-01" cType="1" res="-5.7176660746335983e-02" rms="2.0137746632099152e-01" purity="2.4201782047748566e-01" nType="0">
          <Node pos="l" depth="2" NCoef="0" IVar="-1" Cut="0.0000000000000000e+00" cType="1" res="-1.0663707740604877e-02" rms="1.5861329436302185e-01" purity="2.0665796101093292e-01" nType="-99"/>
          <Node pos="r" depth="2" NCoef="0" IVar="-1" Cut="0.0000000000000000e+00" cType="1" res="-3.7735423538833857e-03" rms="2.1859864890575409e-01" purity="2.6167181134223938e-01" nType="-99"/>
        </Node>
      </Node>
    </BinaryTree>
    <BinaryTree type="DecisionTree" boostWeight="1.0000000000000000e+00" itree="774">
      <Node pos="s" depth="0" NCoef="0" IVar="44" Cut="1.2345679104328156e-02" cType="1" res="-9.3586399452760816e-04" rms="2.3527447879314423e-01" purity="4.9803337454795837e-01" nType="0">
        <Node pos="l" depth="1" NCoef="0" IVar="32" Cut="-1.5312021970748901e+00" cType="1" res="2.5003787595778704e-03" rms="2.3295703530311584e-01" purity="5.0930976867675781e-01" nType="0">
          <Node pos="l" depth="2" NCoef="0" IVar="-1" Cut="0.0000000000000000e+00" cType="1" res="2.0153007935732603e-03" rms="2.1727325022220612e-01" purity="6.9427305459976196e-01" nType="-99"/>
          <Node pos="r" depth="2" NCoef="0" IVar="-1" Cut="0.0000000000000000e+00" cType="1" res="-9.0695545077323914e-04" rms="2.4187289178371429e-01" purity="3.8858425617218018e-01" nType="-99"/>
        </Node>
        <Node pos="r" depth="1" NCoef="0" IVar="29" Cut="3.0993785858154297e+00" cType="1" res="-6.8223126232624054e-02" rms="2.6803609728813171e-01" purity="2.7722296118736267e-01" nType="0">
          <Node pos="l" depth="2" NCoef="0" IVar="-1" Cut="0.0000000000000000e+00" cType="1" res="-2.2006756626069546e-03" rms="2.3339237272739410e-01" purity="3.5232749581336975e-01" nType="-99"/>
          <Node pos="r" depth="2" NCoef="0" IVar="-1" Cut="0.0000000000000000e+00" cType="1" res="-1.4061866328120232e-02" rms="2.9525697231292725e-01" purity="1.8671733140945435e-01" nType="-99"/>
        </Node>
      </Node>
    </BinaryTree>
    <BinaryTree type="DecisionTree" boostWeight="1.0000000000000000e+00" itree="775">
      <Node pos="s" depth="0" NCoef="0" IVar="36" Cut="-1.5311200618743896e+00" cType="1" res="4.9738824600353837e-04" rms="2.3292161524295807e-01" purity="5.0183278322219849e-01" nType="0">
        <Node pos="l" depth="1" NCoef="0" IVar="54" Cut="-1.2989779710769653e+00" cType="1" res="1.9247880205512047e-02" rms="2.1689924597740173e-01" purity="6.8932640552520752e-01" nType="0">
          <Node pos="l" depth="2" NCoef="0" IVar="-1" Cut="0.0000000000000000e+00" cType="1" res="3.1020445749163628e-03" rms="1.8578828871250153e-01" purity="7.8299313783645630e-01" nType="-99"/>
          <Node pos="r" depth="2" NCoef="0" IVar="-1" Cut="0.0000000000000000e+00" cType="1" res="-1.3477349421009421e-03" rms="2.8974422812461853e-01" purity="4.0059337019920349e-01" nType="-99"/>
        </Node>
        <Node pos="r" depth="1" NCoef="0" IVar="2" Cut="8.7479454278945923e-01" cType="1" res="-1.2002973817288876e-02" rms="2.4221196770668030e-01" purity="3.7683674693107605e-01" nType="0">
          <Node pos="l" depth="2" NCoef="0" IVar="-1" Cut="0.0000000000000000e+00" cType="1" res="-1.1614442802965641e-02" rms="0.0000000000000000e+00" purity="-3.3967141062021255e-02" nType="-99"/>
          <Node pos="r" depth="2" NCoef="0" IVar="-1" Cut="0.0000000000000000e+00" cType="1" res="-7.4445974314585328e-04" rms="2.5179052352905273e-01" purity="3.9658820629119873e-01" nType="-99"/>
        </Node>
      </Node>
    </BinaryTree>
    <BinaryTree type="DecisionTree" boostWeight="1.0000000000000000e+00" itree="776">
      <Node pos="s" depth="0" NCoef="0" IVar="14" Cut="1.4483531713485718e+00" cType="1" res="3.2842275686562061e-03" rms="2.3084606230258942e-01" purity="5.0219684839248657e-01" nType="0">
        <Node pos="l" depth="1" NCoef="0" IVar="65" Cut="7.0725595951080322e-01" cType="1" res="-1.3817756436765194e-02" rms="2.0649056136608124e-01" purity="1.9458839297294617e-01" nType="0">
          <Node pos="l" depth="2" NCoef="0" IVar="-1" Cut="0.0000000000000000e+00" cType="1" res="-3.1588025740347803e-04" rms="2.2645834088325500e-01" purity="2.2865423560142517e-01" nType="-99"/>
          <Node pos="r" depth="2" NCoef="0" IVar="-1" Cut="0.0000000000000000e+00" cType="1" res="-9.4772623851895332e-03" rms="5.6257713586091995e-02" purity="4.9839429557323456e-02" nType="-99"/>
        </Node>
        <Node pos="r" depth="1" NCoef="0" IVar="56" Cut="1.5240936279296875e+00" cType="1" res="1.6970971599221230e-02" rms="2.4777603149414062e-01" purity="7.4837642908096313e-01" nType="0">
          <Node pos="l" depth="2" NCoef="0" IVar="-1" Cut="0.0000000000000000e+00" cType="1" res="1.7283477354794741e-03" rms="2.4748300015926361e-01" purity="7.7660089731216431e-01" nType="-99"/>
          <Node pos="r" depth="2" NCoef="0" IVar="-1" Cut="0.0000000000000000e+00" cType="1" res="-9.0803755447268486e-03" rms="2.2498567402362823e-01" purity="3.9834842085838318e-02" nType="-99"/>
        </Node>
      </Node>
    </BinaryTree>
    <BinaryTree type="DecisionTree" boostWeight="1.0000000000000000e+00" itree="777">
      <Node pos="s" depth="0" NCoef="0" IVar="14" Cut="1.4484179019927979e+00" cType="1" res="-6.4831203781068325e-04" rms="2.3046790063381195e-01" purity="4.9855187535285950e-01" nType="0">
        <Node pos="l" depth="1" NCoef="0" IVar="65" Cut="6.8478596210479736e-01" cType="1" res="-1.9196797162294388e-02" rms="2.0240375399589539e-01" purity="1.9216990470886230e-01" nType="0">
          <Node pos="l" depth="2" NCoef="0" IVar="-1" Cut="0.0000000000000000e+00" cType="1" res="-8.3313841605558991e-04" rms="2.2546398639678955e-01" purity="2.3168918490409851e-01" nType="-99"/>
          <Node pos="r" depth="2" NCoef="0" IVar="-1" Cut="0.0000000000000000e+00" cType="1" res="-9.7989952191710472e-03" rms="6.1313912272453308e-02" purity="5.2347440272569656e-02" nType="-99"/>
        </Node>
        <Node pos="r" depth="1" NCoef="0" IVar="11" Cut="1.2345679104328156e-02" cType="1" res="1.4264517463743687e-02" rms="2.4976685643196106e-01" purity="7.4488043785095215e-01" nType="0">
          <Node pos="l" depth="2" NCoef="0" IVar="-1" Cut="0.0000000000000000e+00" cType="1" res="3.4069863613694906e-03" rms="2.1334753930568695e-01" purity="7.7508205175399780e-01" nType="-99"/>
          <Node pos="r" depth="2" NCoef="0" IVar="-1" Cut="0.0000000000000000e+00" cType="1" res="-3.9541814476251602e-04" rms="2.7185225486755371e-01" purity="7.2267860174179077e-01" nType="-99"/>
        </Node>
      </Node>
    </BinaryTree>
    <BinaryTree type="DecisionTree" boostWeight="1.0000000000000000e+00" itree="778">
      <Node pos="s" depth="0" NCoef="0" IVar="53" Cut="1.3689013719558716e+00" cType="1" res="8.1782804045360535e-05" rms="2.3350784182548523e-01" purity="4.9911531805992126e-01" nType="0">
        <Node pos="l" depth="1" NCoef="0" IVar="57" Cut="-1.0327696800231934e+00" cType="1" res="3.0222435016185045e-03" rms="2.3552070558071136e-01" purity="5.1014143228530884e-01" nType="0">
          <Node pos="l" depth="2" NCoef="0" IVar="-1" Cut="0.0000000000000000e+00" cType="1" res="8.0798356793820858e-04" rms="2.3642046749591827e-01" purity="5.3853362798690796e-01" nType="-99"/>
          <Node pos="r" depth="2" NCoef="0" IVar="-1" Cut="0.0000000000000000e+00" cType="1" res="-4.7955978661775589e-03" rms="2.2254936397075653e-01" purity="2.7664604783058167e-01" nType="-99"/>
        </Node>
        <Node pos="r" depth="1" NCoef="0" IVar="-1" Cut="0.0000000000000000e+00" cType="1" res="-1.3347014784812927e-02" rms="1.1142990738153458e-01" purity="1.2622565031051636e-01" nType="-99"/>
      </Node>
    </BinaryTree>
    <BinaryTree type="DecisionTree" boostWeight="1.0000000000000000e+00" itree="779">
      <Node pos="s" depth="0" NCoef="0" IVar="33" Cut="1.4079052209854126e+00" cType="1" res="2.5562592782080173e-03" rms="2.3425902426242828e-01" purity="5.0464451313018799e-01" nType="0">
        <Node pos="l" depth="1" NCoef="0" IVar="17" Cut="-8.1482326984405518e-01" cType="1" res="5.0106612034142017e-03" rms="2.3588821291923523e-01" purity="5.1353996992111206e-01" nType="0">
          <Node pos="l" depth="2" NCoef="0" IVar="-1" Cut="0.0000000000000000e+00" cType="1" res="8.2386040594428778e-04" rms="2.3717257380485535e-01" purity="5.3013700246810913e-01" nType="-99"/>
          <Node pos="r" depth="2" NCoef="0" IVar="-1" Cut="0.0000000000000000e+00" cType="1" res="-6.2992423772811890e-03" rms="2.0377233624458313e-01" purity="2.4301864206790924e-01" nType="-99"/>
        </Node>
        <Node pos="r" depth="1" NCoef="0" IVar="-1" Cut="0.0000000000000000e+00" cType="1" res="-1.3335740193724632e-02" rms="1.0374438762664795e-01" purity="1.2365306913852692e-01" nType="-99"/>
      </Node>
    </BinaryTree>
    <BinaryTree type="DecisionTree" boostWeight="1.0000000000000000e+00" itree="780">
      <Node pos="s" depth="0" NCoef="0" IVar="1" Cut="3.7410595417022705e+00" cType="1" res="5.4539955453947186e-04" rms="2.3439376056194305e-01" purity="5.0004744529724121e-01" nType="0">
        <Node pos="l" depth="1" NCoef="0" IVar="57" Cut="-1.5164402723312378e+00" cType="1" res="-6.6757542081177235e-03" rms="2.3880541324615479e-01" purity="4.2255869507789612e-01" nType="0">
          <Node pos="l" depth="2" NCoef="0" IVar="-1" Cut="0.0000000000000000e+00" cType="1" res="2.4453882360830903e-04" rms="2.4648739397525787e-01" purity="4.7291353344917297e-01" nType="-99"/>
          <Node pos="r" depth="2" NCoef="0" IVar="-1" Cut="0.0000000000000000e+00" cType="1" res="-3.5684588365256786e-03" rms="2.1298815310001373e-01" purity="2.7818766236305237e-01" nType="-99"/>
        </Node>
        <Node pos="r" depth="1" NCoef="0" IVar="3" Cut="4.8687648773193359e+00" cType="1" res="3.3957045525312424e-02" rms="2.0957987010478973e-01" purity="8.5858112573623657e-01" nType="0">
          <Node pos="l" depth="2" NCoef="0" IVar="-1" Cut="0.0000000000000000e+00" cType="1" res="5.5079897865653038e-03" rms="1.5640769898891449e-01" purity="8.6563229560852051e-01" nType="-99"/>
          <Node pos="r" depth="2" NCoef="0" IVar="-1" Cut="0.0000000000000000e+00" cType="1" res="1.3064170489087701e-03" rms="2.6299595832824707e-01" purity="8.4919130802154541e-01" nType="-99"/>
        </Node>
      </Node>
    </BinaryTree>
    <BinaryTree type="DecisionTree" boostWeight="1.0000000000000000e+00" itree="781">
      <Node pos="s" depth="0" NCoef="0" IVar="34" Cut="1.4867393970489502e+00" cType="1" res="1.0653785429894924e-03" rms="2.3485359549522400e-01" purity="4.9909234046936035e-01" nType="0">
        <Node pos="l" depth="1" NCoef="0" IVar="57" Cut="-1.7170268297195435e+00" cType="1" res="5.1541863940656185e-03" rms="2.3804403841495514e-01" purity="5.2974551916122437e-01" nType="0">
          <Node pos="l" depth="2" NCoef="0" IVar="-1" Cut="0.0000000000000000e+00" cType="1" res="1.4924808638170362e-03" rms="2.3839478194713593e-01" purity="5.8628356456756592e-01" nType="-99"/>
          <Node pos="r" depth="2" NCoef="0" IVar="-1" Cut="0.0000000000000000e+00" cType="1" res="-1.7879868391901255e-03" rms="2.3557212948799133e-01" purity="4.1200461983680725e-01" nType="-99"/>
        </Node>
        <Node pos="r" depth="1" NCoef="0" IVar="3" Cut="4.8072924613952637e+00" cType="1" res="-5.8066152036190033e-02" rms="1.7204245924949646e-01" purity="5.5792082101106644e-02" nType="0">
          <Node pos="l" depth="2" NCoef="0" IVar="-1" Cut="0.0000000000000000e+00" cType="1" res="-2.8076497837901115e-03" rms="2.0768938958644867e-01" purity="7.4658095836639404e-02" nType="-99"/>
          <Node pos="r" depth="2" NCoef="0" IVar="-1" Cut="0.0000000000000000e+00" cType="1" res="-1.6092197969555855e-02" rms="3.5148162394762039e-02" purity="2.5562139227986336e-02" nType="-99"/>
        </Node>
      </Node>
    </BinaryTree>
    <BinaryTree type="DecisionTree" boostWeight="1.0000000000000000e+00" itree="782">
      <Node pos="s" depth="0" NCoef="0" IVar="57" Cut="-1.8602268695831299e+00" cType="1" res="-2.6471610181033611e-04" rms="2.3291091620922089e-01" purity="4.9897935986518860e-01" nType="0">
        <Node pos="l" depth="1" NCoef="0" IVar="0" Cut="7.8516113758087158e-01" cType="1" res="1.2352506630122662e-02" rms="2.3875163495540619e-01" purity="5.5949413776397705e-01" nType="0">
          <Node pos="l" depth="2" NCoef="0" IVar="-1" Cut="0.0000000000000000e+00" cType="1" res="1.9241118570789695e-03" rms="2.4206376075744629e-01" purity="6.0034865140914917e-01" nType="-99"/>
          <Node pos="r" depth="2" NCoef="0" IVar="-1" Cut="0.0000000000000000e+00" cType="1" res="-2.0051524043083191e-03" rms="2.2372455894947052e-01" purity="4.1487663984298706e-01" nType="-99"/>
        </Node>
        <Node pos="r" depth="1" NCoef="0" IVar="53" Cut="8.6601471900939941e-01" cType="1" res="-1.9486973062157631e-02" rms="2.2234763205051422e-01" purity="4.0678536891937256e-01" nType="0">
          <Node pos="l" depth="2" NCoef="0" IVar="-1" Cut="0.0000000000000000e+00" cType="1" res="-1.2299965601414442e-03" rms="2.2937159240245819e-01" purity="4.3092361092567444e-01" nType="-99"/>
          <Node pos="r" depth="2" NCoef="0" IVar="-1" Cut="0.0000000000000000e+00" cType="1" res="-9.1136060655117035e-03" rms="1.4640985429286957e-01" purity="2.1840779483318329e-01" nType="-99"/>
        </Node>
      </Node>
    </BinaryTree>
    <BinaryTree type="DecisionTree" boostWeight="1.0000000000000000e+00" itree="783">
      <Node pos="s" depth="0" NCoef="0" IVar="53" Cut="1.2923164367675781e+00" cType="1" res="3.0514404643326998e-03" rms="2.3426495492458344e-01" purity="4.9832352995872498e-01" nType="0">
        <Node pos="l" depth="1" NCoef="0" IVar="43" Cut="1.1525523662567139e+00" cType="1" res="6.2730591744184494e-03" rms="2.3696324229240417e-01" purity="5.1090973615646362e-01" nType="0">
          <Node pos="l" depth="2" NCoef="0" IVar="-1" Cut="0.0000000000000000e+00" cType="1" res="9.2609366402029991e-04" rms="2.3880799114704132e-01" purity="5.2148693799972534e-01" nType="-99"/>
          <Node pos="r" depth="2" NCoef="0" IVar="-1" Cut="0.0000000000000000e+00" cType="1" res="-6.1488137580454350e-03" rms="1.8908932805061340e-01" purity="3.1900531053543091e-01" nType="-99"/>
        </Node>
        <Node pos="r" depth="1" NCoef="0" IVar="-1" Cut="0.0000000000000000e+00" cType="1" res="-9.4275427982211113e-03" rms="1.3305382430553436e-01" purity="1.9319711625576019e-01" nType="-99"/>
      </Node>
    </BinaryTree>
    <BinaryTree type="DecisionTree" boostWeight="1.0000000000000000e+00" itree="784">
      <Node pos="s" depth="0" NCoef="0" IVar="36" Cut="1.4468667507171631e+00" cType="1" res="-1.6472945571877062e-04" rms="2.3193611204624176e-01" purity="4.9757319688796997e-01" nType="0">
        <Node pos="l" depth="1" NCoef="0" IVar="34" Cut="1.4852153062820435e+00" cType="1" res="4.6009239740669727e-03" rms="2.3421499133110046e-01" purity="5.3748816251754761e-01" nType="0">
          <Node pos="l" depth="2" NCoef="0" IVar="-1" Cut="0.0000000000000000e+00" cType="1" res="6.9011934101581573e-04" rms="2.3404121398925781e-01" purity="5.4787921905517578e-01" nType="-99"/>
          <Node pos="r" depth="2" NCoef="0" IVar="-1" Cut="0.0000000000000000e+00" cType="1" res="-1.2274367734789848e-02" rms="2.0843118429183960e-01" purity="9.1803684830665588e-02" nType="-99"/>
        </Node>
        <Node pos="r" depth="1" NCoef="0" IVar="34" Cut="1.4093694686889648e+00" cType="1" res="-5.1985431462526321e-02" rms="1.9826932251453400e-01" purity="6.3546814024448395e-02" nType="0">
          <Node pos="l" depth="2" NCoef="0" IVar="-1" Cut="0.0000000000000000e+00" cType="1" res="-9.1606825590133667e-03" rms="2.7012205123901367e-01" purity="1.1612664163112640e-01" nType="-99"/>
          <Node pos="r" depth="2" NCoef="0" IVar="-1" Cut="0.0000000000000000e+00" cType="1" res="-4.7415378503501415e-03" rms="1.5945841372013092e-01" purity="4.5002762228250504e-02" nType="-99"/>
        </Node>
      </Node>
    </BinaryTree>
    <BinaryTree type="DecisionTree" boostWeight="1.0000000000000000e+00" itree="785">
      <Node pos="s" depth="0" NCoef="0" IVar="25" Cut="1.0574520826339722e+00" cType="1" res="1.9026732770726085e-03" rms="2.3428846895694733e-01" purity="5.0130677223205566e-01" nType="0">
        <Node pos="l" depth="1" NCoef="0" IVar="29" Cut="2.7844631671905518e+00" cType="1" res="-4.1479066014289856e-02" rms="1.0740474611520767e-01" purity="7.5545497238636017e-02" nType="0">
          <Node pos="l" depth="2" NCoef="0" IVar="-1" Cut="0.0000000000000000e+00" cType="1" res="-1.1702060699462891e-02" rms="0.0000000000000000e+00" purity="2.4677896872162819e-02" nType="-99"/>
          <Node pos="r" depth="2" NCoef="0" IVar="-1" Cut="0.0000000000000000e+00" cType="1" res="1.3648057356476784e-03" rms="2.0400185883045197e-01" purity="1.8918554484844208e-01" nType="-99"/>
        </Node>
        <Node pos="r" depth="1" NCoef="0" IVar="27" Cut="-1.3573919534683228e+00" cType="1" res="7.7391630038619041e-03" rms="2.4583888053894043e-01" purity="5.5858778953552246e-01" nType="0">
          <Node pos="l" depth="2" NCoef="0" IVar="-1" Cut="0.0000000000000000e+00" cType="1" res="1.0725110769271851e-03" rms="2.4317200481891632e-01" purity="5.7173073291778564e-01" nType="-99"/>
          <Node pos="r" depth="2" NCoef="0" IVar="-1" Cut="0.0000000000000000e+00" cType="1" res="-4.7764526680111885e-03" rms="2.7426403760910034e-01" purity="3.7306171655654907e-01" nType="-99"/>
        </Node>
      </Node>
    </BinaryTree>
    <BinaryTree type="DecisionTree" boostWeight="1.0000000000000000e+00" itree="786">
      <Node pos="s" depth="0" NCoef="0" IVar="25" Cut="2.1940941810607910e+00" cType="1" res="-2.1659482736140490e-03" rms="2.3055183887481689e-01" purity="4.9832940101623535e-01" nType="0">
        <Node pos="l" depth="1" NCoef="0" IVar="0" Cut="6.9940119981765747e-01" cType="1" res="-1.7912348732352257e-02" rms="2.1167722344398499e-01" purity="2.9276689887046814e-01" nType="0">
          <Node pos="l" depth="2" NCoef="0" IVar="-1" Cut="0.0000000000000000e+00" cType="1" res="-1.9471974519547075e-04" rms="2.3691658675670624e-01" purity="3.6249461770057678e-01" nType="-99"/>
          <Node pos="r" depth="2" NCoef="0" IVar="-1" Cut="0.0000000000000000e+00" cType="1" res="-6.1539392918348312e-03" rms="1.4740017056465149e-01" purity="1.5918985009193420e-01" nType="-99"/>
        </Node>
        <Node pos="r" depth="1" NCoef="0" IVar="2" Cut="1.4020910263061523e+00" cType="1" res="1.3923121616244316e-02" rms="2.4732668697834015e-01" purity="7.0836526155471802e-01" nType="0">
          <Node pos="l" depth="2" NCoef="0" IVar="-1" Cut="0.0000000000000000e+00" cType="1" res="-5.0581404939293861e-03" rms="2.4829961359500885e-01" purity="2.6087543368339539e-01" nType="-99"/>
          <Node pos="r" depth="2" NCoef="0" IVar="-1" Cut="0.0000000000000000e+00" cType="1" res="1.7758827889338136e-03" rms="2.4617496132850647e-01" purity="7.3024696111679077e-01" nType="-99"/>
        </Node>
      </Node>
    </BinaryTree>
    <BinaryTree type="DecisionTree" boostWeight="1.0000000000000000e+00" itree="787">
      <Node pos="s" depth="0" NCoef="0" IVar="17" Cut="-7.5531709194183350e-01" cType="1" res="-1.7044768901541829e-03" rms="2.3058959841728210e-01" purity="4.9798026680946350e-01" nType="0">
        <Node pos="l" depth="1" NCoef="0" IVar="34" Cut="9.8261946439743042e-01" cType="1" res="2.0232065580785275e-03" rms="2.3255141079425812e-01" purity="5.1308286190032959e-01" nType="0">
          <Node pos="l" depth="2" NCoef="0" IVar="-1" Cut="0.0000000000000000e+00" cType="1" res="7.9603574704378843e-04" rms="2.3136812448501587e-01" purity="5.7809782028198242e-01" nType="-99"/>
          <Node pos="r" depth="2" NCoef="0" IVar="-1" Cut="0.0000000000000000e+00" cType="1" res="-3.6303922533988953e-03" rms="2.3571753501892090e-01" purity="1.5540710091590881e-01" nType="-99"/>
        </Node>
        <Node pos="r" depth="1" NCoef="0" IVar="5" Cut="1.8654986619949341e+00" cType="1" res="-7.3190696537494659e-02" rms="1.7427144944667816e-01" purity="2.0835652947425842e-01" nType="0">
          <Node pos="l" depth="2" NCoef="0" IVar="-1" Cut="0.0000000000000000e+00" cType="1" res="-1.4614544808864594e-02" rms="0.0000000000000000e+00" purity="5.2827034145593643e-02" nType="-99"/>
          <Node pos="r" depth="2" NCoef="0" IVar="-1" Cut="0.0000000000000000e+00" cType="1" res="-3.9197984151542187e-03" rms="3.0093884468078613e-01" purity="4.0364870429039001e-01" nType="-99"/>
        </Node>
      </Node>
    </BinaryTree>
    <BinaryTree type="DecisionTree" boostWeight="1.0000000000000000e+00" itree="788">
      <Node pos="s" depth="0" NCoef="0" IVar="44" Cut="1.2345679104328156e-02" cType="1" res="4.1360058821737766e-04" rms="2.3439626395702362e-01" purity="4.9759367108345032e-01" nType="0">
        <Node pos="l" depth="1" NCoef="0" IVar="57" Cut="-9.7231000661849976e-01" cType="1" res="3.9334688335657120e-03" rms="2.3175549507141113e-01" purity="5.0916719436645508e-01" nType="0">
          <Node pos="l" depth="2" NCoef="0" IVar="-1" Cut="0.0000000000000000e+00" cType="1" res="8.5385836428031325e-04" rms="2.3368005454540253e-01" purity="5.3746616840362549e-01" nType="-99"/>
          <Node pos="r" depth="2" NCoef="0" IVar="-1" Cut="0.0000000000000000e+00" cType="1" res="-4.9377027899026871e-03" rms="2.0783890783786774e-01" purity="2.5425058603286743e-01" nType="-99"/>
        </Node>
        <Node pos="r" depth="1" NCoef="0" IVar="26" Cut="-1.2887288331985474e+00" cType="1" res="-6.7825935781002045e-02" rms="2.7186399698257446e-01" purity="2.7321848273277283e-01" nType="0">
          <Node pos="l" depth="2" NCoef="0" IVar="-1" Cut="0.0000000000000000e+00" cType="1" res="-1.4465853571891785e-02" rms="2.9599648714065552e-01" purity="1.5874248743057251e-01" nType="-99"/>
          <Node pos="r" depth="2" NCoef="0" IVar="-1" Cut="0.0000000000000000e+00" cType="1" res="-2.3271944373846054e-03" rms="2.4229104816913605e-01" purity="3.6037844419479370e-01" nType="-99"/>
        </Node>
      </Node>
    </BinaryTree>
    <BinaryTree type="DecisionTree" boostWeight="1.0000000000000000e+00" itree="789">
      <Node pos="s" depth="0" NCoef="0" IVar="2" Cut="1.3384133577346802e+00" cType="1" res="-2.1204301447141916e-05" rms="2.3596051335334778e-01" purity="4.9865326285362244e-01" nType="0">
        <Node pos="l" depth="1" NCoef="0" IVar="5" Cut="1.7912514209747314e+00" cType="1" res="-4.5197430998086929e-02" rms="1.6004653275012970e-01" purity="1.2298893183469772e-01" nType="0">
          <Node pos="l" depth="2" NCoef="0" IVar="-1" Cut="0.0000000000000000e+00" cType="1" res="-1.6503541264683008e-03" rms="1.6992317140102386e-01" purity="1.1125393211841583e-01" nType="-99"/>
          <Node pos="r" depth="2" NCoef="0" IVar="-1" Cut="0.0000000000000000e+00" cType="1" res="-6.9192508235573769e-03" rms="1.2555684149265289e-01" purity="1.4288502931594849e-01" nType="-99"/>
        </Node>
        <Node pos="r" depth="1" NCoef="0" IVar="37" Cut="-7.2387087345123291e-01" cType="1" res="5.3370376117527485e-03" rms="2.4284197390079498e-01" purity="5.4320991039276123e-01" nType="0">
          <Node pos="l" depth="2" NCoef="0" IVar="-1" Cut="0.0000000000000000e+00" cType="1" res="8.6561019998043776e-04" rms="2.4503275752067566e-01" purity="5.6066602468490601e-01" nType="-99"/>
          <Node pos="r" depth="2" NCoef="0" IVar="-1" Cut="0.0000000000000000e+00" cType="1" res="-7.3159877210855484e-03" rms="1.8636685609817505e-01" purity="2.2719565033912659e-01" nType="-99"/>
        </Node>
      </Node>
    </BinaryTree>
    <BinaryTree type="DecisionTree" boostWeight="1.0000000000000000e+00" itree="790">
      <Node pos="s" depth="0" NCoef="0" IVar="34" Cut="1.4867393970489502e+00" cType="1" res="2.0764591172337532e-03" rms="2.3630286753177643e-01" purity="5.0025647878646851e-01" nType="0">
        <Node pos="l" depth="1" NCoef="0" IVar="36" Cut="1.4850553274154663e+00" cType="1" res="6.1446838080883026e-03" rms="2.3960648477077484e-01" purity="5.3124582767486572e-01" nType="0">
          <Node pos="l" depth="2" NCoef="0" IVar="-1" Cut="0.0000000000000000e+00" cType="1" res="8.2191830733790994e-04" rms="2.3867924511432648e-01" purity="5.4411196708679199e-01" nType="-99"/>
          <Node pos="r" depth="2" NCoef="0" IVar="-1" Cut="0.0000000000000000e+00" cType="1" res="-8.0036735162138939e-03" rms="2.5342586636543274e-01" purity="7.3051489889621735e-02" nType="-99"/>
        </Node>
        <Node pos="r" depth="1" NCoef="0" IVar="3" Cut="4.6904053688049316e+00" cType="1" res="-5.6466620415449142e-02" rms="1.7189750075340271e-01" purity="5.4309785366058350e-02" nType="0">
          <Node pos="l" depth="2" NCoef="0" IVar="-1" Cut="0.0000000000000000e+00" cType="1" res="-7.1758340345695615e-04" rms="2.1349127590656281e-01" purity="7.1070656180381775e-02" nType="-99"/>
          <Node pos="r" depth="2" NCoef="0" IVar="-1" Cut="0.0000000000000000e+00" cType="1" res="-1.2849020771682262e-02" rms="1.1703433096408844e-01" purity="4.1538204997777939e-02" nType="-99"/>
        </Node>
      </Node>
    </BinaryTree>
    <BinaryTree type="DecisionTree" boostWeight="1.0000000000000000e+00" itree="791">
      <Node pos="s" depth="0" NCoef="0" IVar="53" Cut="1.4083480834960938e+00" cType="1" res="1.3690028572455049e-03" rms="2.3457214236259460e-01" purity="4.9997064471244812e-01" nType="0">
        <Node pos="l" depth="1" NCoef="0" IVar="32" Cut="-1.5312128067016602e+00" cType="1" res="3.8230200298130512e-03" rms="2.3660670220851898e-01" purity="5.0924390554428101e-01" nType="0">
          <Node pos="l" depth="2" NCoef="0" IVar="-1" Cut="0.0000000000000000e+00" cType="1" res="2.1349068265408278e-03" rms="2.2383788228034973e-01" purity="6.9026648998260498e-01" nType="-99"/>
          <Node pos="r" depth="2" NCoef="0" IVar="-1" Cut="0.0000000000000000e+00" cType="1" res="-7.7878369484096766e-04" rms="2.4395079910755157e-01" purity="3.8922002911567688e-01" nType="-99"/>
        </Node>
        <Node pos="r" depth="1" NCoef="0" IVar="-1" Cut="0.0000000000000000e+00" cType="1" res="-1.3545650988817215e-02" rms="6.9512866437435150e-02" purity="1.1648190766572952e-01" nType="-99"/>
      </Node>
    </BinaryTree>
    <BinaryTree type="DecisionTree" boostWeight="1.0000000000000000e+00" itree="792">
      <Node pos="s" depth="0" NCoef="0" IVar="17" Cut="-7.5498247146606445e-01" cType="1" res="1.4349687844514847e-03" rms="2.3725014925003052e-01" purity="5.0297087430953979e-01" nType="0">
        <Node pos="l" depth="1" NCoef="0" IVar="43" Cut="1.2501932382583618e+00" cType="1" res="4.9872142262756824e-03" rms="2.3934279382228851e-01" purity="5.1806712150573730e-01" nType="0">
          <Node pos="l" depth="2" NCoef="0" IVar="-1" Cut="0.0000000000000000e+00" cType="1" res="6.9912412436679006e-04" rms="2.4068944156169891e-01" purity="5.2513462305068970e-01" nType="-99"/>
          <Node pos="r" depth="2" NCoef="0" IVar="-1" Cut="0.0000000000000000e+00" cType="1" res="-9.4416160136461258e-03" rms="1.5483832359313965e-01" purity="2.4709245562553406e-01" nType="-99"/>
        </Node>
        <Node pos="r" depth="1" NCoef="0" IVar="16" Cut="-7.6005107164382935e-01" cType="1" res="-6.6413722932338715e-02" rms="1.7998273670673370e-01" purity="2.1462899446487427e-01" nType="0">
          <Node pos="l" depth="2" NCoef="0" IVar="-1" Cut="0.0000000000000000e+00" cType="1" res="-5.9404000639915466e-03" rms="1.0550631582736969e-01" purity="1.0131634771823883e-01" nType="-99"/>
          <Node pos="r" depth="2" NCoef="0" IVar="-1" Cut="0.0000000000000000e+00" cType="1" res="-8.0666784197092056e-03" rms="2.1286864578723907e-01" purity="2.9111310839653015e-01" nType="-99"/>
        </Node>
      </Node>
    </BinaryTree>
    <BinaryTree type="DecisionTree" boostWeight="1.0000000000000000e+00" itree="793">
      <Node pos="s" depth="0" NCoef="0" IVar="37" Cut="-2.4198768138885498e+00" cType="1" res="6.2312540831044316e-04" rms="2.3342789709568024e-01" purity="5.0060033798217773e-01" nType="0">
        <Node pos="l" depth="1" NCoef="0" IVar="14" Cut="-1.4924246072769165e+00" cType="1" res="3.0026661232113838e-02" rms="2.5369754433631897e-01" purity="5.9390062093734741e-01" nType="0">
          <Node pos="l" depth="2" NCoef="0" IVar="-1" Cut="0.0000000000000000e+00" cType="1" res="-6.5714386291801929e-03" rms="4.3213233351707458e-02" purity="5.3197909146547318e-03" nType="-99"/>
          <Node pos="r" depth="2" NCoef="0" IVar="-1" Cut="0.0000000000000000e+00" cType="1" res="2.9535749927163124e-03" rms="2.7253410220146179e-01" purity="6.9053107500076294e-01" nType="-99"/>
        </Node>
        <Node pos="r" depth="1" NCoef="0" IVar="57" Cut="-1.9160603284835815e+00" cType="1" res="-7.7222450636327267e-03" rms="2.2665201127529144e-01" purity="4.7411960363388062e-01" nType="0">
          <Node pos="l" depth="2" NCoef="0" IVar="-1" Cut="0.0000000000000000e+00" cType="1" res="5.8918999275192618e-04" rms="2.4001714587211609e-01" purity="5.4327130317687988e-01" nType="-99"/>
          <Node pos="r" depth="2" NCoef="0" IVar="-1" Cut="0.0000000000000000e+00" cType="1" res="-2.6321345940232277e-03" rms="2.0681829750537872e-01" purity="3.8517990708351135e-01" nType="-99"/>
        </Node>
      </Node>
    </BinaryTree>
    <BinaryTree type="DecisionTree" boostWeight="1.0000000000000000e+00" itree="794">
      <Node pos="s" depth="0" NCoef="0" IVar="1" Cut="1.8628382682800293e+00" cType="1" res="6.7383382702246308e-04" rms="2.3636931180953979e-01" purity="4.9939310550689697e-01" nType="0">
        <Node pos="l" depth="1" NCoef="0" IVar="5" Cut="1.3600405454635620e+00" cType="1" res="-1.8477773293852806e-02" rms="0.0000000000000000e+00" purity="-2.0931432023644447e-02" nType="-99"/>
        <Node pos="r" depth="1" NCoef="0" IVar="65" Cut="7.9668629169464111e-01" cType="1" res="4.4341580942273140e-03" rms="2.4921415746212006e-01" purity="5.3568512201309204e-01" nType="0">
          <Node pos="l" depth="2" NCoef="0" IVar="-1" Cut="0.0000000000000000e+00" cType="1" res="6.4173887949436903e-04" rms="2.5112363696098328e-01" purity="5.5261850357055664e-01" nType="-99"/>
          <Node pos="r" depth="2" NCoef="0" IVar="-1" Cut="0.0000000000000000e+00" cType="1" res="-7.8266924247145653e-03" rms="1.8115475773811340e-01" purity="1.0553692281246185e-01" nType="-99"/>
        </Node>
      </Node>
    </BinaryTree>
    <BinaryTree type="DecisionTree" boostWeight="1.0000000000000000e+00" itree="795">
      <Node pos="s" depth="0" NCoef="0" IVar="2" Cut="6.0483932495117188e-01" cType="1" res="-7.6436443487182260e-04" rms="2.3353305459022522e-01" purity="5.0190043449401855e-01" nType="0">
        <Node pos="l" depth="1" NCoef="0" IVar="-1" Cut="0.0000000000000000e+00" cType="1" res="-9.8039107397198677e-03" rms="0.0000000000000000e+00" purity="-5.3386811167001724e-02" nType="-99"/>
        <Node pos="r" depth="1" NCoef="0" IVar="54" Cut="1.4468280076980591e+00" cType="1" res="1.8761242972686887e-03" rms="2.3855602741241455e-01" purity="5.1581293344497681e-01" nType="0">
          <Node pos="l" depth="2" NCoef="0" IVar="-1" Cut="0.0000000000000000e+00" cType="1" res="5.9802085161209106e-04" rms="2.4039882421493530e-01" purity="5.5738377571105957e-01" nType="-99"/>
          <Node pos="r" depth="2" NCoef="0" IVar="-1" Cut="0.0000000000000000e+00" cType="1" res="-6.5150042064487934e-03" rms="2.1193479001522064e-01" purity="7.2759576141834259e-02" nType="-99"/>
        </Node>
      </Node>
    </BinaryTree>
    <BinaryTree type="DecisionTree" boostWeight="1.0000000000000000e+00" itree="796">
      <Node pos="s" depth="0" NCoef="0" IVar="14" Cut="6.7451679706573486e-01" cType="1" res="-3.5982208792120218e-03" rms="2.2749535739421844e-01" purity="4.9744158983230591e-01" nType="0">
        <Node pos="l" depth="1" NCoef="0" IVar="2" Cut="2.1262755393981934e+00" cType="1" res="-2.8108591213822365e-02" rms="1.0697250813245773e-01" purity="6.7486904561519623e-02" nType="0">
          <Node pos="l" depth="2" NCoef="0" IVar="-1" Cut="0.0000000000000000e+00" cType="1" res="-1.5115742571651936e-02" rms="0.0000000000000000e+00" purity="-4.2736339382827282e-03" nType="-99"/>
          <Node pos="r" depth="2" NCoef="0" IVar="-1" Cut="0.0000000000000000e+00" cType="1" res="7.3166307993233204e-04" rms="2.6969695091247559e-01" purity="1.7299337685108185e-01" nType="-99"/>
        </Node>
        <Node pos="r" depth="1" NCoef="0" IVar="54" Cut="1.4468280076980591e+00" cType="1" res="7.7849924564361572e-03" rms="2.6470166444778442e-01" purity="6.9712305068969727e-01" nType="0">
          <Node pos="l" depth="2" NCoef="0" IVar="-1" Cut="0.0000000000000000e+00" cType="1" res="1.0113087482750416e-03" rms="2.6029759645462036e-01" purity="7.3594439029693604e-01" nType="-99"/>
          <Node pos="r" depth="2" NCoef="0" IVar="-1" Cut="0.0000000000000000e+00" cType="1" res="-4.9916259013116360e-03" rms="3.1133902072906494e-01" purity="1.5454952418804169e-01" nType="-99"/>
        </Node>
      </Node>
    </BinaryTree>
    <BinaryTree type="DecisionTree" boostWeight="1.0000000000000000e+00" itree="797">
      <Node pos="s" depth="0" NCoef="0" IVar="2" Cut="5.5746024847030640e-01" cType="1" res="-4.9171387217938900e-05" rms="2.3460246622562408e-01" purity="5.0074875354766846e-01" nType="0">
        <Node pos="l" depth="1" NCoef="0" IVar="-1" Cut="0.0000000000000000e+00" cType="1" res="-1.0081858374178410e-02" rms="0.0000000000000000e+00" purity="-4.8174213618040085e-02" nType="-99"/>
        <Node pos="r" depth="1" NCoef="0" IVar="63" Cut="1.1575114727020264e+00" cType="1" res="2.4427347816526890e-03" rms="2.3962354660034180e-01" purity="5.1406604051589966e-01" nType="0">
          <Node pos="l" depth="2" NCoef="0" IVar="-1" Cut="0.0000000000000000e+00" cType="1" res="5.6208175374194980e-04" rms="2.4135072529315948e-01" purity="5.2495878934860229e-01" nType="-99"/>
          <Node pos="r" depth="2" NCoef="0" IVar="-1" Cut="0.0000000000000000e+00" cType="1" res="-6.8305865861475468e-03" rms="1.9243036210536957e-01" purity="3.0653288960456848e-01" nType="-99"/>
        </Node>
      </Node>
    </BinaryTree>
    <BinaryTree type="DecisionTree" boostWeight="1.0000000000000000e+00" itree="798">
      <Node pos="s" depth="0" NCoef="0" IVar="0" Cut="6.2820184230804443e-01" cType="1" res="1.5339626697823405e-03" rms="2.3317378759384155e-01" purity="4.9937683343887329e-01" nType="0">
        <Node pos="l" depth="1" NCoef="0" IVar="4" Cut="3.6876327991485596e+00" cType="1" res="1.3533943332731724e-02" rms="2.3883433640003204e-01" purity="5.6194758415222168e-01" nType="0">
          <Node pos="l" depth="2" NCoef="0" IVar="-1" Cut="0.0000000000000000e+00" cType="1" res="3.2819849438965321e-03" rms="2.3348505795001984e-01" purity="5.6511563062667847e-01" nType="-99"/>
          <Node pos="r" depth="2" NCoef="0" IVar="-1" Cut="0.0000000000000000e+00" cType="1" res="-3.1011135433800519e-04" rms="2.4174000322818756e-01" purity="5.5937945842742920e-01" nType="-99"/>
        </Node>
        <Node pos="r" depth="1" NCoef="0" IVar="4" Cut="3.4335005283355713e+00" cType="1" res="-1.8554115667939186e-02" rms="2.2192965447902679e-01" purity="3.9463272690773010e-01" nType="0">
          <Node pos="l" depth="2" NCoef="0" IVar="-1" Cut="0.0000000000000000e+00" cType="1" res="-8.8449502363801003e-03" rms="1.2160484492778778e-01" purity="1.6508659720420837e-01" nType="-99"/>
          <Node pos="r" depth="2" NCoef="0" IVar="-1" Cut="0.0000000000000000e+00" cType="1" res="-7.2451174492016435e-04" rms="2.3856791853904724e-01" purity="4.4999155402183533e-01" nType="-99"/>
        </Node>
      </Node>
    </BinaryTree>
    <BinaryTree type="DecisionTree" boostWeight="1.0000000000000000e+00" itree="799">
      <Node pos="s" depth="0" NCoef="0" IVar="64" Cut="1.2345679104328156e-02" cType="1" res="7.0918258279561996e-04" rms="2.3268662393093109e-01" purity="4.9940186738967896e-01" nType="0">
        <Node pos="l" depth="1" NCoef="0" IVar="54" Cut="8.6670792102813721e-01" cType="1" res="4.0652048774063587e-03" rms="2.3269651830196381e-01" purity="5.0877779722213745e-01" nType="0">
          <Node pos="l" depth="2" NCoef="0" IVar="-1" Cut="0.0000000000000000e+00" cType="1" res="1.0318928398191929e-03" rms="2.3188310861587524e-01" purity="5.7794791460037231e-01" nType="-99"/>
          <Node pos="r" depth="2" NCoef="0" IVar="-1" Cut="0.0000000000000000e+00" cType="1" res="-3.4407295752316713e-03" rms="2.3354148864746094e-01" purity="1.5667857229709625e-01" nType="-99"/>
        </Node>
        <Node pos="r" depth="1" NCoef="0" IVar="46" Cut="-1.1630921363830566e+00" cType="1" res="-7.5461260974407196e-02" rms="2.1904595196247101e-01" purity="2.8660020232200623e-01" nType="0">
          <Node pos="l" depth="2" NCoef="0" IVar="-1" Cut="0.0000000000000000e+00" cType="1" res="-1.3681180775165558e-02" rms="2.3275427520275116e-01" purity="1.7217126488685608e-01" nType="-99"/>
          <Node pos="r" depth="2" NCoef="0" IVar="-1" Cut="0.0000000000000000e+00" cType="1" res="-3.1176772899925709e-03" rms="1.9357158243656158e-01" purity="4.0870469808578491e-01" nType="-99"/>
        </Node>
      </Node>
    </BinaryTree>
    <BinaryTree type="DecisionTree" boostWeight="1.0000000000000000e+00" itree="800">
      <Node pos="s" depth="0" NCoef="0" IVar="57" Cut="-2.3024301528930664e+00" cType="1" res="-1.3595137279480696e-03" rms="2.3211029171943665e-01" purity="4.9983131885528564e-01" nType="0">
        <Node pos="l" depth="1" NCoef="0" IVar="34" Cut="1.2533302307128906e+00" cType="1" res="1.8471805378794670e-02" rms="2.4012909829616547e-01" purity="5.8310312032699585e-01" nType="0">
          <Node pos="l" depth="2" NCoef="0" IVar="-1" Cut="0.0000000000000000e+00" cType="1" res="2.2826995700597763e-03" rms="2.3786300420761108e-01" purity="6.3829761743545532e-01" nType="-99"/>
          <Node pos="r" depth="2" NCoef="0" IVar="-1" Cut="0.0000000000000000e+00" cType="1" res="-3.4695821814239025e-03" rms="2.5140416622161865e-01" purity="1.4766687154769897e-01" nType="-99"/>
        </Node>
        <Node pos="r" depth="1" NCoef="0" IVar="5" Cut="8.4842032194137573e-01" cType="1" res="-1.3898084871470928e-02" rms="2.2599793970584869e-01" purity="4.4718173146247864e-01" nType="0">
          <Node pos="l" depth="2" NCoef="0" IVar="-1" Cut="0.0000000000000000e+00" cType="1" res="-1.5479302965104580e-02" rms="0.0000000000000000e+00" purity="2.5264753028750420e-02" nType="-99"/>
          <Node pos="r" depth="2" NCoef="0" IVar="-1" Cut="0.0000000000000000e+00" cType="1" res="-8.9953886345028877e-04" rms="2.3674167692661285e-01" purity="4.7325217723846436e-01" nType="-99"/>
        </Node>
      </Node>
    </BinaryTree>
    <BinaryTree type="DecisionTree" boostWeight="1.0000000000000000e+00" itree="801">
      <Node pos="s" depth="0" NCoef="0" IVar="45" Cut="9.4284027814865112e-01" cType="1" res="8.0015853745862842e-04" rms="2.3172603547573090e-01" purity="5.0091356039047241e-01" nType="0">
        <Node pos="l" depth="1" NCoef="0" IVar="49" Cut="2.8584794998168945e+00" cType="1" res="-4.7852393239736557e-02" rms="5.6784160435199738e-02" purity="5.4570700973272324e-02" nType="0">
          <Node pos="l" depth="2" NCoef="0" IVar="-1" Cut="0.0000000000000000e+00" cType="1" res="-1.2696684338152409e-02" rms="0.0000000000000000e+00" purity="1.4351914636790752e-02" nType="-99"/>
          <Node pos="r" depth="2" NCoef="0" IVar="-1" Cut="0.0000000000000000e+00" cType="1" res="1.8599134637042880e-03" rms="2.1172186732292175e-01" purity="1.9831120967864990e-01" nType="-99"/>
        </Node>
        <Node pos="r" depth="1" NCoef="0" IVar="56" Cut="1.5236508846282959e+00" cType="1" res="5.9405965730547905e-03" rms="2.4239051342010498e-01" purity="5.4807239770889282e-01" nType="0">
          <Node pos="l" depth="2" NCoef="0" IVar="-1" Cut="0.0000000000000000e+00" cType="1" res="8.3703338168561459e-04" rms="2.4496920406818390e-01" purity="5.7130867242813110e-01" nType="-99"/>
          <Node pos="r" depth="2" NCoef="0" IVar="-1" Cut="0.0000000000000000e+00" cType="1" res="-1.0214271955192089e-02" rms="1.5494388341903687e-01" purity="1.8315322697162628e-02" nType="-99"/>
        </Node>
      </Node>
    </BinaryTree>
    <BinaryTree type="DecisionTree" boostWeight="1.0000000000000000e+00" itree="802">
      <Node pos="s" depth="0" NCoef="0" IVar="14" Cut="-1.4537111520767212e+00" cType="1" res="-9.1095035895705223e-04" rms="2.3088303208351135e-01" purity="4.9526679515838623e-01" nType="0">
        <Node pos="l" depth="1" NCoef="0" IVar="56" Cut="-3.7167134881019592e-01" cType="1" res="-2.3154394701123238e-02" rms="0.0000000000000000e+00" purity="-1.9737392663955688e-02" nType="-99"/>
        <Node pos="r" depth="1" NCoef="0" IVar="0" Cut="1.1624506711959839e+00" cType="1" res="6.5233795903623104e-03" rms="2.6598584651947021e-01" purity="6.1599683761596680e-01" nType="0">
          <Node pos="l" depth="2" NCoef="0" IVar="-1" Cut="0.0000000000000000e+00" cType="1" res="8.0138165503740311e-04" rms="2.6425284147262573e-01" purity="6.2530738115310669e-01" nType="-99"/>
          <Node pos="r" depth="2" NCoef="0" IVar="-1" Cut="0.0000000000000000e+00" cType="1" res="-6.3756168819963932e-03" rms="2.9244065284729004e-01" purity="3.9194044470787048e-01" nType="-99"/>
        </Node>
      </Node>
    </BinaryTree>
    <BinaryTree type="DecisionTree" boostWeight="1.0000000000000000e+00" itree="803">
      <Node pos="s" depth="0" NCoef="0" IVar="2" Cut="5.2104693651199341e-01" cType="1" res="6.1257655033841729e-04" rms="2.3274604976177216e-01" purity="4.9931481480598450e-01" nType="0">
        <Node pos="l" depth="1" NCoef="0" IVar="-1" Cut="0.0000000000000000e+00" cType="1" res="-1.0339048691093922e-02" rms="0.0000000000000000e+00" purity="-6.3068486750125885e-02" nType="-99"/>
        <Node pos="r" depth="1" NCoef="0" IVar="34" Cut="-8.3485031127929688e-01" cType="1" res="2.9360246844589710e-03" rms="2.3732909560203552e-01" purity="5.1124453544616699e-01" nType="0">
          <Node pos="l" depth="2" NCoef="0" IVar="-1" Cut="0.0000000000000000e+00" cType="1" res="1.1254393029958010e-03" rms="2.3363266885280609e-01" purity="6.0225194692611694e-01" nType="-99"/>
          <Node pos="r" depth="2" NCoef="0" IVar="-1" Cut="0.0000000000000000e+00" cType="1" res="-2.4651822168380022e-03" rms="2.4625667929649353e-01" purity="2.3434557020664215e-01" nType="-99"/>
        </Node>
      </Node>
    </BinaryTree>
    <BinaryTree type="DecisionTree" boostWeight="1.0000000000000000e+00" itree="804">
      <Node pos="s" depth="0" NCoef="0" IVar="37" Cut="-1.0498073101043701e+00" cType="1" res="9.3625590670853853e-04" rms="2.3505835235118866e-01" purity="5.0089442729949951e-01" nType="0">
        <Node pos="l" depth="1" NCoef="0" IVar="36" Cut="1.5245062112808228e+00" cType="1" res="6.6597685217857361e-03" rms="2.3887711763381958e-01" purity="5.3222572803497314e-01" nType="0">
          <Node pos="l" depth="2" NCoef="0" IVar="-1" Cut="0.0000000000000000e+00" cType="1" res="8.9414976537227631e-04" rms="2.3900158703327179e-01" purity="5.5152058601379395e-01" nType="-99"/>
          <Node pos="r" depth="2" NCoef="0" IVar="-1" Cut="0.0000000000000000e+00" cType="1" res="-8.1476951017975807e-03" rms="2.2329148650169373e-01" purity="4.2375523597002029e-02" nType="-99"/>
        </Node>
        <Node pos="r" depth="1" NCoef="0" IVar="25" Cut="2.2537472248077393e+00" cType="1" res="-4.2211871594190598e-02" rms="1.9874529540538788e-01" purity="2.6469513773918152e-01" nType="0">
          <Node pos="l" depth="2" NCoef="0" IVar="-1" Cut="0.0000000000000000e+00" cType="1" res="-8.5052074864506721e-03" rms="1.1205037683248520e-01" purity="1.0943992435932159e-01" nType="-99"/>
          <Node pos="r" depth="2" NCoef="0" IVar="-1" Cut="0.0000000000000000e+00" cType="1" res="-6.0990615747869015e-04" rms="3.0322045087814331e-01" purity="5.7727909088134766e-01" nType="-99"/>
        </Node>
      </Node>
    </BinaryTree>
    <BinaryTree type="DecisionTree" boostWeight="1.0000000000000000e+00" itree="805">
      <Node pos="s" depth="0" NCoef="0" IVar="54" Cut="4.4199714064598083e-01" cType="1" res="1.5797637170180678e-03" rms="2.3441453278064728e-01" purity="5.0070476531982422e-01" nType="0">
        <Node pos="l" depth="1" NCoef="0" IVar="37" Cut="-8.4240269660949707e-01" cType="1" res="9.3125626444816589e-03" rms="2.3403270542621613e-01" purity="5.7202851772308350e-01" nType="0">
          <Node pos="l" depth="2" NCoef="0" IVar="-1" Cut="0.0000000000000000e+00" cType="1" res="1.2808478204533458e-03" rms="2.3586726188659668e-01" purity="5.9331583976745605e-01" nType="-99"/>
          <Node pos="r" depth="2" NCoef="0" IVar="-1" Cut="0.0000000000000000e+00" cType="1" res="-5.4748430848121643e-03" rms="1.9805411994457245e-01" purity="2.8347089886665344e-01" nType="-99"/>
        </Node>
        <Node pos="r" depth="1" NCoef="0" IVar="49" Cut="3.2949659824371338e+00" cType="1" res="-3.4430585801601410e-02" rms="2.3282593488693237e-01" purity="1.6856192052364349e-01" nType="0">
          <Node pos="l" depth="2" NCoef="0" IVar="-1" Cut="0.0000000000000000e+00" cType="1" res="-3.6197149893268943e-04" rms="2.0797277987003326e-01" purity="1.5009474754333496e-01" nType="-99"/>
          <Node pos="r" depth="2" NCoef="0" IVar="-1" Cut="0.0000000000000000e+00" cType="1" res="-6.2247435562312603e-03" rms="2.5198340415954590e-01" purity="1.8779635429382324e-01" nType="-99"/>
        </Node>
      </Node>
    </BinaryTree>
    <BinaryTree type="DecisionTree" boostWeight="1.0000000000000000e+00" itree="806">
      <Node pos="s" depth="0" NCoef="0" IVar="37" Cut="-1.7905156612396240e+00" cType="1" res="1.6681537963449955e-03" rms="2.3197472095489502e-01" purity="4.9764755368232727e-01" nType="0">
        <Node pos="l" depth="1" NCoef="0" IVar="34" Cut="1.2152622938156128e+00" cType="1" res="1.3328802771866322e-02" rms="2.3969514667987823e-01" purity="5.5585956573486328e-01" nType="0">
          <Node pos="l" depth="2" NCoef="0" IVar="-1" Cut="0.0000000000000000e+00" cType="1" res="1.7759442562237382e-03" rms="2.3767274618148804e-01" purity="6.1137920618057251e-01" nType="-99"/>
          <Node pos="r" depth="2" NCoef="0" IVar="-1" Cut="0.0000000000000000e+00" cType="1" res="-2.9320740140974522e-03" rms="2.4990791082382202e-01" purity="1.5489317476749420e-01" nType="-99"/>
        </Node>
        <Node pos="r" depth="1" NCoef="0" IVar="25" Cut="2.2714462280273438e+00" cType="1" res="-1.8866172060370445e-02" rms="2.1619091928005219e-01" purity="3.9513665437698364e-01" nType="0">
          <Node pos="l" depth="2" NCoef="0" IVar="-1" Cut="0.0000000000000000e+00" cType="1" res="-3.7935466971248388e-03" rms="1.7950847744941711e-01" purity="2.1224857866764069e-01" nType="-99"/>
          <Node pos="r" depth="2" NCoef="0" IVar="-1" Cut="0.0000000000000000e+00" cType="1" res="1.1605514737311751e-04" rms="2.6010075211524963e-01" purity="6.6723793745040894e-01" nType="-99"/>
        </Node>
      </Node>
    </BinaryTree>
    <BinaryTree type="DecisionTree" boostWeight="1.0000000000000000e+00" itree="807">
      <Node pos="s" depth="0" NCoef="0" IVar="45" Cut="9.1266185045242310e-01" cType="1" res="1.5929262153804302e-03" rms="2.3325546085834503e-01" purity="5.0115424394607544e-01" nType="0">
        <Node pos="l" depth="1" NCoef="0" IVar="0" Cut="6.5867620706558228e-01" cType="1" res="-4.6300966292619705e-02" rms="4.2576685547828674e-02" purity="4.8624340444803238e-02" nType="0">
          <Node pos="l" depth="2" NCoef="0" IVar="-1" Cut="0.0000000000000000e+00" cType="1" res="-2.3509063757956028e-03" rms="1.6393330693244934e-01" purity="1.0881077498197556e-01" nType="-99"/>
          <Node pos="r" depth="2" NCoef="0" IVar="-1" Cut="0.0000000000000000e+00" cType="1" res="-1.6961721703410149e-02" rms="0.0000000000000000e+00" purity="-1.0373097844421864e-02" nType="-99"/>
        </Node>
        <Node pos="r" depth="1" NCoef="0" IVar="36" Cut="1.5242170095443726e+00" cType="1" res="6.2200566753745079e-03" rms="2.4340590834617615e-01" purity="5.4487407207489014e-01" nType="0">
          <Node pos="l" depth="2" NCoef="0" IVar="-1" Cut="0.0000000000000000e+00" cType="1" res="8.7149080354720354e-04" rms="2.4469405412673950e-01" purity="5.6411290168762207e-01" nType="-99"/>
          <Node pos="r" depth="2" NCoef="0" IVar="-1" Cut="0.0000000000000000e+00" cType="1" res="-9.6240630373358727e-03" rms="1.8578524887561798e-01" purity="2.9521018266677856e-02" nType="-99"/>
        </Node>
      </Node>
    </BinaryTree>
    <BinaryTree type="DecisionTree" boostWeight="1.0000000000000000e+00" itree="808">
      <Node pos="s" depth="0" NCoef="0" IVar="54" Cut="1.4092512130737305e+00" cType="1" res="-1.4904567506164312e-03" rms="2.2923798859119415e-01" purity="4.9505221843719482e-01" nType="0">
        <Node pos="l" depth="1" NCoef="0" IVar="44" Cut="1.2345679104328156e-02" cType="1" res="3.6633671261370182e-03" rms="2.3272804915904999e-01" purity="5.4214739799499512e-01" nType="0">
          <Node pos="l" depth="2" NCoef="0" IVar="-1" Cut="0.0000000000000000e+00" cType="1" res="6.7864055745303631e-04" rms="2.3059371113777161e-01" purity="5.5212998390197754e-01" nType="-99"/>
          <Node pos="r" depth="2" NCoef="0" IVar="-1" Cut="0.0000000000000000e+00" cType="1" res="-6.8634171038866043e-03" rms="2.6326066255569458e-01" purity="3.2794895768165588e-01" nType="-99"/>
        </Node>
        <Node pos="r" depth="1" NCoef="0" IVar="49" Cut="3.4418129920959473e+00" cType="1" res="-4.7441598027944565e-02" rms="1.8927918374538422e-01" purity="7.5155101716518402e-02" nType="0">
          <Node pos="l" depth="2" NCoef="0" IVar="-1" Cut="0.0000000000000000e+00" cType="1" res="-3.4908147063106298e-03" rms="1.8633024394512177e-01" purity="7.5028881430625916e-02" nType="-99"/>
          <Node pos="r" depth="2" NCoef="0" IVar="-1" Cut="0.0000000000000000e+00" cType="1" res="-1.0814757086336613e-02" rms="1.8446746468544006e-01" purity="7.5440853834152222e-02" nType="-99"/>
        </Node>
      </Node>
    </BinaryTree>
    <BinaryTree type="DecisionTree" boostWeight="1.0000000000000000e+00" itree="809">
      <Node pos="s" depth="0" NCoef="0" IVar="0" Cut="9.1089189052581787e-01" cType="1" res="-1.1557983234524727e-03" rms="2.2821441292762756e-01" purity="5.0084447860717773e-01" nType="0">
        <Node pos="l" depth="1" NCoef="0" IVar="65" Cut="7.9685807228088379e-01" cType="1" res="5.9276730753481388e-03" rms="2.3138038814067841e-01" purity="5.3000402450561523e-01" nType="0">
          <Node pos="l" depth="2" NCoef="0" IVar="-1" Cut="0.0000000000000000e+00" cType="1" res="8.5671909619122744e-04" rms="2.3429280519485474e-01" purity="5.4647707939147949e-01" nType="-99"/>
          <Node pos="r" depth="2" NCoef="0" IVar="-1" Cut="0.0000000000000000e+00" cType="1" res="-9.8303211852908134e-03" rms="1.0108824819326401e-01" purity="9.2293441295623779e-02" nType="-99"/>
        </Node>
        <Node pos="r" depth="1" NCoef="0" IVar="4" Cut="3.6803152561187744e+00" cType="1" res="-4.1299186646938324e-02" rms="2.0479223132133484e-01" purity="3.3559152483940125e-01" nType="0">
          <Node pos="l" depth="2" NCoef="0" IVar="-1" Cut="0.0000000000000000e+00" cType="1" res="-1.0128583759069443e-02" rms="1.1907322704792023e-01" purity="1.7225618660449982e-01" nType="-99"/>
          <Node pos="r" depth="2" NCoef="0" IVar="-1" Cut="0.0000000000000000e+00" cType="1" res="-1.2587513774633408e-03" rms="2.5398615002632141e-01" purity="4.7823435068130493e-01" nType="-99"/>
        </Node>
      </Node>
    </BinaryTree>
    <BinaryTree type="DecisionTree" boostWeight="1.0000000000000000e+00" itree="810">
      <Node pos="s" depth="0" NCoef="0" IVar="17" Cut="-1.4400670528411865e+00" cType="1" res="2.5159884244203568e-03" rms="2.3950886726379395e-01" purity="4.9838185310363770e-01" nType="0">
        <Node pos="l" depth="1" NCoef="0" IVar="56" Cut="1.5236508846282959e+00" cType="1" res="9.8827704787254333e-03" rms="2.4161095917224884e-01" purity="5.3756392002105713e-01" nType="0">
          <Node pos="l" depth="2" NCoef="0" IVar="-1" Cut="0.0000000000000000e+00" cType="1" res="1.2221420183777809e-03" rms="2.4303764104843140e-01" purity="5.5826818943023682e-01" nType="-99"/>
          <Node pos="r" depth="2" NCoef="0" IVar="-1" Cut="0.0000000000000000e+00" cType="1" res="-9.5980744808912277e-03" rms="1.8609575927257538e-01" purity="2.5882894173264503e-02" nType="-99"/>
        </Node>
        <Node pos="r" depth="1" NCoef="0" IVar="15" Cut="-9.1392207145690918e-01" cType="1" res="-2.5835296139121056e-02" rms="2.2904065251350403e-01" purity="3.4758862853050232e-01" nType="0">
          <Node pos="l" depth="2" NCoef="0" IVar="-1" Cut="0.0000000000000000e+00" cType="1" res="3.6717019975185394e-04" rms="2.2336277365684509e-01" purity="3.5324585437774658e-01" nType="-99"/>
          <Node pos="r" depth="2" NCoef="0" IVar="-1" Cut="0.0000000000000000e+00" cType="1" res="-4.1833203285932541e-03" rms="2.3059397935867310e-01" purity="3.4436100721359253e-01" nType="-99"/>
        </Node>
      </Node>
    </BinaryTree>
    <BinaryTree type="DecisionTree" boostWeight="1.0000000000000000e+00" itree="811">
      <Node pos="s" depth="0" NCoef="0" IVar="64" Cut="1.2345679104328156e-02" cType="1" res="5.0405983347445726e-04" rms="2.3670713603496552e-01" purity="4.9869278073310852e-01" nType="0">
        <Node pos="l" depth="1" NCoef="0" IVar="36" Cut="1.5245062112808228e+00" cType="1" res="3.5453683231025934e-03" rms="2.3634797334671021e-01" purity="5.0884336233139038e-01" nType="0">
          <Node pos="l" depth="2" NCoef="0" IVar="-1" Cut="0.0000000000000000e+00" cType="1" res="6.2783632893115282e-04" rms="2.3781991004943848e-01" purity="5.2796918153762817e-01" nType="-99"/>
          <Node pos="r" depth="2" NCoef="0" IVar="-1" Cut="0.0000000000000000e+00" cType="1" res="-9.7293416038155556e-03" rms="1.7905005812644958e-01" purity="2.4503158405423164e-02" nType="-99"/>
        </Node>
        <Node pos="r" depth="1" NCoef="0" IVar="55" Cut="-7.2046071290969849e-01" cType="1" res="-6.7745566368103027e-02" rms="2.3447258770465851e-01" purity="2.7090454101562500e-01" nType="0">
          <Node pos="l" depth="2" NCoef="0" IVar="-1" Cut="0.0000000000000000e+00" cType="1" res="-2.2091823630034924e-03" rms="2.5707855820655823e-01" purity="4.2834684252738953e-01" nType="-99"/>
          <Node pos="r" depth="2" NCoef="0" IVar="-1" Cut="0.0000000000000000e+00" cType="1" res="-1.4261978678405285e-02" rms="1.9681620597839355e-01" purity="1.0576092451810837e-01" nType="-99"/>
        </Node>
      </Node>
    </BinaryTree>
    <BinaryTree type="DecisionTree" boostWeight="1.0000000000000000e+00" itree="812">
      <Node pos="s" depth="0" NCoef="0" IVar="25" Cut="1.2040605545043945e+00" cType="1" res="-9.4847418949939311e-06" rms="2.3207730054855347e-01" purity="4.9995338916778564e-01" nType="0">
        <Node pos="l" depth="1" NCoef="0" IVar="0" Cut="7.3420077562332153e-01" cType="1" res="-3.8534183055162430e-02" rms="1.2568752467632294e-01" purity="9.9306017160415649e-02" nType="0">
          <Node pos="l" depth="2" NCoef="0" IVar="-1" Cut="0.0000000000000000e+00" cType="1" res="-9.1981422156095505e-04" rms="2.0349851250648499e-01" purity="1.6650320589542389e-01" nType="-99"/>
          <Node pos="r" depth="2" NCoef="0" IVar="-1" Cut="0.0000000000000000e+00" cType="1" res="-1.6915434971451759e-02" rms="0.0000000000000000e+00" purity="-1.7420365475118160e-03" nType="-99"/>
        </Node>
        <Node pos="r" depth="1" NCoef="0" IVar="65" Cut="7.5144928693771362e-01" cType="1" res="6.7308880388736725e-03" rms="2.4538598954677582e-01" purity="5.7005155086517334e-01" nType="0">
          <Node pos="l" depth="2" NCoef="0" IVar="-1" Cut="0.0000000000000000e+00" cType="1" res="1.0284224990755320e-03" rms="2.5050365924835205e-01" purity="6.0217308998107910e-01" nType="-99"/>
          <Node pos="r" depth="2" NCoef="0" IVar="-1" Cut="0.0000000000000000e+00" cType="1" res="-5.8674751780927181e-03" rms="1.5945564210414886e-01" purity="1.7626634240150452e-01" nType="-99"/>
        </Node>
      </Node>
    </BinaryTree>
    <BinaryTree type="DecisionTree" boostWeight="1.0000000000000000e+00" itree="813">
      <Node pos="s" depth="0" NCoef="0" IVar="43" Cut="1.1768795251846313e+00" cType="1" res="3.9982577436603606e-04" rms="2.2958567738533020e-01" purity="5.0113433599472046e-01" nType="0">
        <Node pos="l" depth="1" NCoef="0" IVar="54" Cut="1.2544955015182495e+00" cType="1" res="3.7026065401732922e-03" rms="2.3173171281814575e-01" purity="5.1137655973434448e-01" nType="0">
          <Node pos="l" depth="2" NCoef="0" IVar="-1" Cut="0.0000000000000000e+00" cType="1" res="9.0465456014499068e-04" rms="2.3211954534053802e-01" purity="5.6990605592727661e-01" nType="-99"/>
          <Node pos="r" depth="2" NCoef="0" IVar="-1" Cut="0.0000000000000000e+00" cType="1" res="-4.2548640631139278e-03" rms="2.2507211565971375e-01" purity="1.1734935641288757e-01" nType="-99"/>
        </Node>
        <Node pos="r" depth="1" NCoef="0" IVar="32" Cut="-1.4926735162734985e+00" cType="1" res="-7.2045899927616119e-02" rms="1.5970733761787415e-01" purity="2.7647364139556885e-01" nType="0">
          <Node pos="l" depth="2" NCoef="0" IVar="-1" Cut="0.0000000000000000e+00" cType="1" res="-4.0240278467535973e-03" rms="2.2280254960060120e-01" purity="4.4995349645614624e-01" nType="-99"/>
          <Node pos="r" depth="2" NCoef="0" IVar="-1" Cut="0.0000000000000000e+00" cType="1" res="-1.3118488714098930e-02" rms="1.5063311904668808e-02" purity="1.0900613665580750e-01" nType="-99"/>
        </Node>
      </Node>
    </BinaryTree>
    <BinaryTree type="DecisionTree" boostWeight="1.0000000000000000e+00" itree="814">
      <Node pos="s" depth="0" NCoef="0" IVar="37" Cut="-1.9979486465454102e+00" cType="1" res="9.9518545903265476e-04" rms="2.3279073834419250e-01" purity="4.9999275803565979e-01" nType="0">
        <Node pos="l" depth="1" NCoef="0" IVar="36" Cut="1.5243083238601685e+00" cType="1" res="1.5287665650248528e-02" rms="2.3728901147842407e-01" purity="5.6535935401916504e-01" nType="0">
          <Node pos="l" depth="2" NCoef="0" IVar="-1" Cut="0.0000000000000000e+00" cType="1" res="1.7354935407638550e-03" rms="2.3803594708442688e-01" purity="5.8605021238327026e-01" nType="-99"/>
          <Node pos="r" depth="2" NCoef="0" IVar="-1" Cut="0.0000000000000000e+00" cType="1" res="-8.5845515131950378e-03" rms="1.9915235042572021e-01" purity="3.9093986153602600e-02" nType="-99"/>
        </Node>
        <Node pos="r" depth="1" NCoef="0" IVar="1" Cut="1.9927006959915161e+00" cType="1" res="-1.5132342465221882e-02" rms="2.2652789950370789e-01" purity="4.2623355984687805e-01" nType="0">
          <Node pos="l" depth="2" NCoef="0" IVar="-1" Cut="0.0000000000000000e+00" cType="1" res="-2.4120455607771873e-02" rms="0.0000000000000000e+00" purity="-3.6251246929168701e-02" nType="-99"/>
          <Node pos="r" depth="2" NCoef="0" IVar="-1" Cut="0.0000000000000000e+00" cType="1" res="-7.2445243131369352e-04" rms="2.5509727001190186e-01" purity="4.8893925547599792e-01" nType="-99"/>
        </Node>
      </Node>
    </BinaryTree>
    <BinaryTree type="DecisionTree" boostWeight="1.0000000000000000e+00" itree="815">
      <Node pos="s" depth="0" NCoef="0" IVar="25" Cut="1.3600388765335083e+00" cType="1" res="1.5424515586346388e-03" rms="2.3152074217796326e-01" purity="5.0072723627090454e-01" nType="0">
        <Node pos="l" depth="1" NCoef="0" IVar="29" Cut="3.1560792922973633e+00" cType="1" res="-3.2936766743659973e-02" rms="1.4567734301090240e-01" purity="1.3300152122974396e-01" nType="0">
          <Node pos="l" depth="2" NCoef="0" IVar="-1" Cut="0.0000000000000000e+00" cType="1" res="-6.5180612727999687e-03" rms="1.1896104365587234e-01" purity="1.0352564603090286e-01" nType="-99"/>
          <Node pos="r" depth="2" NCoef="0" IVar="-1" Cut="0.0000000000000000e+00" cType="1" res="2.8582881204783916e-03" rms="2.1456477046012878e-01" purity="2.5561618804931641e-01" nType="-99"/>
        </Node>
        <Node pos="r" depth="1" NCoef="0" IVar="65" Cut="7.5194656848907471e-01" cType="1" res="9.7627649083733559e-03" rms="2.4692240357398987e-01" purity="5.8839809894561768e-01" nType="0">
          <Node pos="l" depth="2" NCoef="0" IVar="-1" Cut="0.0000000000000000e+00" cType="1" res="1.2779647950083017e-03" rms="2.5091165304183960e-01" purity="6.2067741155624390e-01" nType="-99"/>
          <Node pos="r" depth="2" NCoef="0" IVar="-1" Cut="0.0000000000000000e+00" cType="1" res="-5.0607840530574322e-03" rms="1.8204919993877411e-01" purity="1.8948343396186829e-01" nType="-99"/>
        </Node>
      </Node>
    </BinaryTree>
    <BinaryTree type="DecisionTree" boostWeight="1.0000000000000000e+00" itree="816">
      <Node pos="s" depth="0" NCoef="0" IVar="45" Cut="1.1568456888198853e+00" cType="1" res="-1.0101194493472576e-03" rms="2.3046749830245972e-01" purity="4.9865299463272095e-01" nType="0">
        <Node pos="l" depth="1" NCoef="0" IVar="49" Cut="2.8244187831878662e+00" cType="1" res="-3.9240404963493347e-02" rms="1.1213820427656174e-01" purity="9.2474848031997681e-02" nType="0">
          <Node pos="l" depth="2" NCoef="0" IVar="-1" Cut="0.0000000000000000e+00" cType="1" res="-1.0800171643495560e-02" rms="0.0000000000000000e+00" purity="3.7123870104551315e-02" nType="-99"/>
          <Node pos="r" depth="2" NCoef="0" IVar="-1" Cut="0.0000000000000000e+00" cType="1" res="1.9019194878637791e-03" rms="2.2275339066982269e-01" purity="2.1953871846199036e-01" nType="-99"/>
        </Node>
        <Node pos="r" depth="1" NCoef="0" IVar="64" Cut="1.2345679104328156e-02" cType="1" res="5.2883778698742390e-03" rms="2.4395465850830078e-01" purity="5.6557148694992065e-01" nType="0">
          <Node pos="l" depth="2" NCoef="0" IVar="-1" Cut="0.0000000000000000e+00" cType="1" res="7.9775648191571236e-04" rms="2.4351166188716888e-01" purity="5.7623076438903809e-01" nType="-99"/>
          <Node pos="r" depth="2" NCoef="0" IVar="-1" Cut="0.0000000000000000e+00" cType="1" res="-7.6858424581587315e-03" rms="2.4088263511657715e-01" purity="3.1930017471313477e-01" nType="-99"/>
        </Node>
      </Node>
    </BinaryTree>
    <BinaryTree type="DecisionTree" boostWeight="1.0000000000000000e+00" itree="817">
      <Node pos="s" depth="0" NCoef="0" IVar="25" Cut="1.1447613239288330e+00" cType="1" res="1.1218365398235619e-04" rms="2.3167029023170471e-01" purity="4.9716278910636902e-01" nType="0">
        <Node pos="l" depth="1" NCoef="0" IVar="29" Cut="2.8087770938873291e+00" cType="1" res="-3.7127539515495300e-02" rms="1.0615894198417664e-01" purity="8.9763462543487549e-02" nType="0">
          <Node pos="l" depth="2" NCoef="0" IVar="-1" Cut="0.0000000000000000e+00" cType="1" res="-1.0315935127437115e-02" rms="0.0000000000000000e+00" purity="3.6151733249425888e-02" nType="-99"/>
          <Node pos="r" depth="2" NCoef="0" IVar="-1" Cut="0.0000000000000000e+00" cType="1" res="1.2515754206106067e-03" rms="2.2108156979084015e-01" purity="2.0254614949226379e-01" nType="-99"/>
        </Node>
        <Node pos="r" depth="1" NCoef="0" IVar="36" Cut="1.5245062112808228e+00" cType="1" res="6.0115871019661427e-03" rms="2.4522180855274200e-01" purity="5.6170177459716797e-01" nType="0">
          <Node pos="l" depth="2" NCoef="0" IVar="-1" Cut="0.0000000000000000e+00" cType="1" res="8.4709207294508815e-04" rms="2.4689616262912750e-01" purity="5.8521229028701782e-01" nType="-99"/>
          <Node pos="r" depth="2" NCoef="0" IVar="-1" Cut="0.0000000000000000e+00" cType="1" res="-9.0755866840481758e-03" rms="1.8898296356201172e-01" purity="2.9636150225996971e-02" nType="-99"/>
        </Node>
      </Node>
    </BinaryTree>
    <BinaryTree type="DecisionTree" boostWeight="1.0000000000000000e+00" itree="818">
      <Node pos="s" depth="0" NCoef="0" IVar="1" Cut="1.9924771785736084e+00" cType="1" res="2.2012826520949602e-03" rms="2.3218590021133423e-01" purity="5.0273340940475464e-01" nType="0">
        <Node pos="l" depth="1" NCoef="0" IVar="13" Cut="-2.5577992200851440e-01" cType="1" res="-1.2920973822474480e-02" rms="0.0000000000000000e+00" purity="-3.7071895785629749e-03" nType="-99"/>
        <Node pos="r" depth="1" NCoef="0" IVar="65" Cut="7.9687595367431641e-01" cType="1" res="7.4115283787250519e-03" rms="2.4998153746128082e-01" purity="5.5850815773010254e-01" nType="0">
          <Node pos="l" depth="2" NCoef="0" IVar="-1" Cut="0.0000000000000000e+00" cType="1" res="9.1499031987041235e-04" rms="2.5201001763343811e-01" purity="5.7478499412536621e-01" nType="-99"/>
          <Node pos="r" depth="2" NCoef="0" IVar="-1" Cut="0.0000000000000000e+00" cType="1" res="-7.7907685190439224e-03" rms="1.6956746578216553e-01" purity="1.1303921788930893e-01" nType="-99"/>
        </Node>
      </Node>
    </BinaryTree>
    <BinaryTree type="DecisionTree" boostWeight="1.0000000000000000e+00" itree="819">
      <Node pos="s" depth="0" NCoef="0" IVar="63" Cut="1.1784476041793823e+00" cType="1" res="3.8118041120469570e-03" rms="2.3385615646839142e-01" purity="5.0261068344116211e-01" nType="0">
        <Node pos="l" depth="1" NCoef="0" IVar="64" Cut="1.2345679104328156e-02" cType="1" res="7.0712561719119549e-03" rms="2.3586702346801758e-01" purity="5.1263958215713501e-01" nType="0">
          <Node pos="l" depth="2" NCoef="0" IVar="-1" Cut="0.0000000000000000e+00" cType="1" res="9.7137253032997251e-04" rms="2.3478619754314423e-01" purity="5.2227842807769775e-01" nType="-99"/>
          <Node pos="r" depth="2" NCoef="0" IVar="-1" Cut="0.0000000000000000e+00" cType="1" res="-6.6841589286923409e-03" rms="2.4951800704002380e-01" purity="2.9496869444847107e-01" nType="-99"/>
        </Node>
        <Node pos="r" depth="1" NCoef="0" IVar="49" Cut="3.2194402217864990e+00" cType="1" res="-6.7970395088195801e-02" rms="1.6882024705410004e-01" purity="2.8174546360969543e-01" nType="0">
          <Node pos="l" depth="2" NCoef="0" IVar="-1" Cut="0.0000000000000000e+00" cType="1" res="-1.1402168311178684e-02" rms="1.0900947451591492e-01" purity="1.8570843338966370e-01" nType="-99"/>
          <Node pos="r" depth="2" NCoef="0" IVar="-1" Cut="0.0000000000000000e+00" cType="1" res="-4.4955508783459663e-03" rms="2.0488610863685608e-01" purity="3.6693677306175232e-01" nType="-99"/>
        </Node>
      </Node>
    </BinaryTree>
    <BinaryTree type="DecisionTree" boostWeight="1.0000000000000000e+00" itree="820">
      <Node pos="s" depth="0" NCoef="0" IVar="65" Cut="6.8479007482528687e-01" cType="1" res="3.2814007136039436e-04" rms="2.2927710413932800e-01" purity="4.9980288743972778e-01" nType="0">
        <Node pos="l" depth="1" NCoef="0" IVar="2" Cut="1.8207448720932007e+00" cType="1" res="6.2329564243555069e-03" rms="2.3998433351516724e-01" purity="5.4103928804397583e-01" nType="0">
          <Node pos="l" depth="2" NCoef="0" IVar="-1" Cut="0.0000000000000000e+00" cType="1" res="-1.9043409265577793e-03" rms="2.0371726155281067e-01" purity="2.2551128268241882e-01" nType="-99"/>
          <Node pos="r" depth="2" NCoef="0" IVar="-1" Cut="0.0000000000000000e+00" cType="1" res="1.5497783897444606e-03" rms="2.5213122367858887e-01" purity="6.6559052467346191e-01" nType="-99"/>
        </Node>
        <Node pos="r" depth="1" NCoef="0" IVar="14" Cut="1.3305510282516479e+00" cType="1" res="-3.8184117525815964e-02" rms="1.3448710739612579e-01" purity="2.3085218667984009e-01" nType="0">
          <Node pos="l" depth="2" NCoef="0" IVar="-1" Cut="0.0000000000000000e+00" cType="1" res="-1.3400442898273468e-02" rms="0.0000000000000000e+00" purity="7.4907047674059868e-03" nType="-99"/>
          <Node pos="r" depth="2" NCoef="0" IVar="-1" Cut="0.0000000000000000e+00" cType="1" res="1.4354833401739597e-03" rms="2.6286658644676208e-01" purity="6.4772278070449829e-01" nType="-99"/>
        </Node>
      </Node>
    </BinaryTree>
    <BinaryTree type="DecisionTree" boostWeight="1.0000000000000000e+00" itree="821">
      <Node pos="s" depth="0" NCoef="0" IVar="37" Cut="-9.0343248844146729e-01" cType="1" res="-5.7382241357117891e-04" rms="2.3326829075813293e-01" purity="4.9694949388504028e-01" nType="0">
        <Node pos="l" depth="1" NCoef="0" IVar="56" Cut="1.5240936279296875e+00" cType="1" res="4.2501962743699551e-03" rms="2.3742423951625824e-01" purity="5.2197426557540894e-01" nType="0">
          <Node pos="l" depth="2" NCoef="0" IVar="-1" Cut="0.0000000000000000e+00" cType="1" res="6.7095831036567688e-04" rms="2.3916418850421906e-01" purity="5.4146742820739746e-01" nType="-99"/>
          <Node pos="r" depth="2" NCoef="0" IVar="-1" Cut="0.0000000000000000e+00" cType="1" res="-9.7646731883287430e-03" rms="1.7244294285774231e-01" purity="2.2253267467021942e-02" nType="-99"/>
        </Node>
        <Node pos="r" depth="1" NCoef="0" IVar="1" Cut="2.5837593078613281e+00" cType="1" res="-5.1786031574010849e-02" rms="1.7543497681617737e-01" purity="2.3128454387187958e-01" nType="0">
          <Node pos="l" depth="2" NCoef="0" IVar="-1" Cut="0.0000000000000000e+00" cType="1" res="-2.0675066858530045e-02" rms="0.0000000000000000e+00" purity="-2.2440940141677856e-02" nType="-99"/>
          <Node pos="r" depth="2" NCoef="0" IVar="-1" Cut="0.0000000000000000e+00" cType="1" res="-2.7294901665300131e-03" rms="3.1015649437904358e-01" purity="4.3334051966667175e-01" nType="-99"/>
        </Node>
      </Node>
    </BinaryTree>
    <BinaryTree type="DecisionTree" boostWeight="1.0000000000000000e+00" itree="822">
      <Node pos="s" depth="0" NCoef="0" IVar="52" Cut="-1.4926165342330933e+00" cType="1" res="1.3608530862256885e-03" rms="2.3022806644439697e-01" purity="5.0049066543579102e-01" nType="0">
        <Node pos="l" depth="1" NCoef="0" IVar="44" Cut="1.2345679104328156e-02" cType="1" res="1.4261748641729355e-02" rms="2.3417255282402039e-01" purity="6.3108003139495850e-01" nType="0">
          <Node pos="l" depth="2" NCoef="0" IVar="-1" Cut="0.0000000000000000e+00" cType="1" res="1.6992160817608237e-03" rms="2.2989334166049957e-01" purity="6.3925534486770630e-01" nType="-99"/>
          <Node pos="r" depth="2" NCoef="0" IVar="-1" Cut="0.0000000000000000e+00" cType="1" res="-6.3302824273705482e-03" rms="3.0569356679916382e-01" purity="4.4130003452301025e-01" nType="-99"/>
        </Node>
        <Node pos="r" depth="1" NCoef="0" IVar="65" Cut="6.4054715633392334e-01" cType="1" res="-1.7684014514088631e-02" rms="2.2291782498359680e-01" purity="3.0770885944366455e-01" nType="0">
          <Node pos="l" depth="2" NCoef="0" IVar="-1" Cut="0.0000000000000000e+00" cType="1" res="-9.0778310550376773e-04" rms="2.4379982054233551e-01" purity="3.5288563370704651e-01" nType="-99"/>
          <Node pos="r" depth="2" NCoef="0" IVar="-1" Cut="0.0000000000000000e+00" cType="1" res="-7.8863967210054398e-03" rms="7.6449453830718994e-02" purity="1.1148028075695038e-01" nType="-99"/>
        </Node>
      </Node>
    </BinaryTree>
    <BinaryTree type="DecisionTree" boostWeight="1.0000000000000000e+00" itree="823">
      <Node pos="s" depth="0" NCoef="0" IVar="25" Cut="7.6241785287857056e-01" cType="1" res="9.2328706523403525e-04" rms="2.2943495213985443e-01" purity="4.9693727493286133e-01" nType="0">
        <Node pos="l" depth="1" NCoef="0" IVar="14" Cut="-1.0669990777969360e+00" cType="1" res="-1.1849622242152691e-02" rms="0.0000000000000000e+00" purity="2.8029719367623329e-02" nType="-99"/>
        <Node pos="r" depth="1" NCoef="0" IVar="23" Cut="1.1207634210586548e+00" cType="1" res="4.3126232922077179e-03" rms="2.3620866239070892e-01" purity="5.2177965641021729e-01" nType="0">
          <Node pos="l" depth="2" NCoef="0" IVar="-1" Cut="0.0000000000000000e+00" cType="1" res="7.7284692088142037e-04" rms="2.3798739910125732e-01" purity="5.3572177886962891e-01" nType="-99"/>
          <Node pos="r" depth="2" NCoef="0" IVar="-1" Cut="0.0000000000000000e+00" cType="1" res="-5.3453762084245682e-03" rms="2.0249347388744354e-01" purity="3.2887250185012817e-01" nType="-99"/>
        </Node>
      </Node>
    </BinaryTree>
    <BinaryTree type="DecisionTree" boostWeight="1.0000000000000000e+00" itree="824">
      <Node pos="s" depth="0" NCoef="0" IVar="17" Cut="-1.3805408477783203e+00" cType="1" res="3.0882721766829491e-03" rms="2.3462313413619995e-01" purity="5.0293660163879395e-01" nType="0">
        <Node pos="l" depth="1" NCoef="0" IVar="14" Cut="-1.4537111520767212e+00" cType="1" res="1.0325496084988117e-02" rms="2.3740866780281067e-01" purity="5.4007065296173096e-01" nType="0">
          <Node pos="l" depth="2" NCoef="0" IVar="-1" Cut="0.0000000000000000e+00" cType="1" res="-1.6104009002447128e-02" rms="0.0000000000000000e+00" purity="-9.9295331165194511e-03" nType="-99"/>
          <Node pos="r" depth="2" NCoef="0" IVar="-1" Cut="0.0000000000000000e+00" cType="1" res="1.4369159471243620e-03" rms="2.6719930768013000e-01" purity="6.6326242685317993e-01" nType="-99"/>
        </Node>
        <Node pos="r" depth="1" NCoef="0" IVar="2" Cut="2.8414607048034668e+00" cType="1" res="-2.9088066890835762e-02" rms="2.1893836557865143e-01" purity="3.3784034848213196e-01" nType="0">
          <Node pos="l" depth="2" NCoef="0" IVar="-1" Cut="0.0000000000000000e+00" cType="1" res="-4.4275298714637756e-03" rms="1.9662836194038391e-01" purity="2.4679359793663025e-01" nType="-99"/>
          <Node pos="r" depth="2" NCoef="0" IVar="-1" Cut="0.0000000000000000e+00" cType="1" res="1.3133342145010829e-03" rms="2.8777062892913818e-01" purity="7.0396751165390015e-01" nType="-99"/>
        </Node>
      </Node>
    </BinaryTree>
    <BinaryTree type="DecisionTree" boostWeight="1.0000000000000000e+00" itree="825">
      <Node pos="s" depth="0" NCoef="0" IVar="52" Cut="-1.5312020778656006e+00" cType="1" res="2.2449775133281946e-04" rms="2.3063501715660095e-01" purity="4.9832320213317871e-01" nType="0">
        <Node pos="l" depth="1" NCoef="0" IVar="34" Cut="-1.1832048892974854e+00" cType="1" res="1.9159967079758644e-02" rms="2.1938504278659821e-01" purity="6.8755638599395752e-01" nType="0">
          <Node pos="l" depth="2" NCoef="0" IVar="-1" Cut="0.0000000000000000e+00" cType="1" res="2.9545370489358902e-03" rms="1.9137912988662720e-01" purity="7.7799880504608154e-01" nType="-99"/>
          <Node pos="r" depth="2" NCoef="0" IVar="-1" Cut="0.0000000000000000e+00" cType="1" res="-1.1345655657351017e-03" rms="2.9299643635749817e-01" purity="3.8010603189468384e-01" nType="-99"/>
        </Node>
        <Node pos="r" depth="1" NCoef="0" IVar="45" Cut="9.2348778247833252e-01" cType="1" res="-1.2035702355206013e-02" rms="2.3682908713817596e-01" purity="3.7579995393753052e-01" nType="0">
          <Node pos="l" depth="2" NCoef="0" IVar="-1" Cut="0.0000000000000000e+00" cType="1" res="-1.1348353698849678e-02" rms="0.0000000000000000e+00" purity="1.7065379768610001e-02" nType="-99"/>
          <Node pos="r" depth="2" NCoef="0" IVar="-1" Cut="0.0000000000000000e+00" cType="1" res="-5.1959120901301503e-04" rms="2.5661179423332214e-01" purity="4.2761871218681335e-01" nType="-99"/>
        </Node>
      </Node>
    </BinaryTree>
    <BinaryTree type="DecisionTree" boostWeight="1.0000000000000000e+00" itree="826">
      <Node pos="s" depth="0" NCoef="0" IVar="14" Cut="-1.4150485992431641e+00" cType="1" res="1.8912786617875099e-03" rms="2.2959974408149719e-01" purity="5.0159513950347900e-01" nType="0">
        <Node pos="l" depth="1" NCoef="0" IVar="65" Cut="2.2052000463008881e-01" cType="1" res="-2.0215930417180061e-02" rms="0.0000000000000000e+00" purity="-1.6624879091978073e-02" nType="-99"/>
        <Node pos="r" depth="1" NCoef="0" IVar="9" Cut="2.4304468631744385e+00" cType="1" res="1.0150001384317875e-02" rms="2.6635980606079102e-01" purity="6.3340407609939575e-01" nType="0">
          <Node pos="l" depth="2" NCoef="0" IVar="-1" Cut="0.0000000000000000e+00" cType="1" res="-8.9339828118681908e-03" rms="2.1265181899070740e-01" purity="1.3124516606330872e-01" nType="-99"/>
          <Node pos="r" depth="2" NCoef="0" IVar="-1" Cut="0.0000000000000000e+00" cType="1" res="1.0661248816177249e-03" rms="2.6715421676635742e-01" purity="6.4857280254364014e-01" nType="-99"/>
        </Node>
      </Node>
    </BinaryTree>
    <BinaryTree type="DecisionTree" boostWeight="1.0000000000000000e+00" itree="827">
      <Node pos="s" depth="0" NCoef="0" IVar="17" Cut="-9.3348056077957153e-01" cType="1" res="1.9276651437394321e-04" rms="2.3141139745712280e-01" purity="5.0087755918502808e-01" nType="0">
        <Node pos="l" depth="1" NCoef="0" IVar="43" Cut="1.1619503498077393e+00" cType="1" res="4.6853367239236832e-03" rms="2.3334266245365143e-01" purity="5.2248430252075195e-01" nType="0">
          <Node pos="l" depth="2" NCoef="0" IVar="-1" Cut="0.0000000000000000e+00" cType="1" res="7.6828215969726443e-04" rms="2.3561404645442963e-01" purity="5.3312999010086060e-01" nType="-99"/>
          <Node pos="r" depth="2" NCoef="0" IVar="-1" Cut="0.0000000000000000e+00" cType="1" res="-6.5798489376902580e-03" rms="1.6557870805263519e-01" purity="3.0050104856491089e-01" nType="-99"/>
        </Node>
        <Node pos="r" depth="1" NCoef="0" IVar="65" Cut="1.2584963440895081e-01" cType="1" res="-5.0827566534280777e-02" rms="2.0130997896194458e-01" purity="2.5549826025962830e-01" nType="0">
          <Node pos="l" depth="2" NCoef="0" IVar="-1" Cut="0.0000000000000000e+00" cType="1" res="-1.0667835362255573e-02" rms="1.6471907496452332e-01" purity="1.9943791627883911e-01" nType="-99"/>
          <Node pos="r" depth="2" NCoef="0" IVar="-1" Cut="0.0000000000000000e+00" cType="1" res="-3.9750267751514912e-03" rms="2.1066911518573761e-01" purity="2.7492886781692505e-01" nType="-99"/>
        </Node>
      </Node>
    </BinaryTree>
    <BinaryTree type="DecisionTree" boostWeight="1.0000000000000000e+00" itree="828">
      <Node pos="s" depth="0" NCoef="0" IVar="45" Cut="1.6554079055786133e+00" cType="1" res="2.5403170729987323e-04" rms="2.2742219269275665e-01" purity="4.9876099824905396e-01" nType="0">
        <Node pos="l" depth="1" NCoef="0" IVar="14" Cut="-9.1199451684951782e-01" cType="1" res="-2.4859525263309479e-02" rms="1.6628132760524750e-01" purity="1.8638402223587036e-01" nType="0">
          <Node pos="l" depth="2" NCoef="0" IVar="-1" Cut="0.0000000000000000e+00" cType="1" res="-4.9516819417476654e-02" rms="0.0000000000000000e+00" purity="-4.4153373688459396e-02" nType="-99"/>
          <Node pos="r" depth="2" NCoef="0" IVar="-1" Cut="0.0000000000000000e+00" cType="1" res="-1.8617045134305954e-04" rms="2.8479734063148499e-01" purity="3.4569236636161804e-01" nType="-99"/>
        </Node>
        <Node pos="r" depth="1" NCoef="0" IVar="2" Cut="7.8837072849273682e-01" cType="1" res="1.0388766415417194e-02" rms="2.4713917076587677e-01" purity="6.2482273578643799e-01" nType="0">
          <Node pos="l" depth="2" NCoef="0" IVar="-1" Cut="0.0000000000000000e+00" cType="1" res="-5.5935420095920563e-03" rms="1.1185981333255768e-01" purity="3.4189082682132721e-02" nType="-99"/>
          <Node pos="r" depth="2" NCoef="0" IVar="-1" Cut="0.0000000000000000e+00" cType="1" res="1.2265770928934216e-03" rms="2.4943852424621582e-01" purity="6.4198863506317139e-01" nType="-99"/>
        </Node>
      </Node>
    </BinaryTree>
    <BinaryTree type="DecisionTree" boostWeight="1.0000000000000000e+00" itree="829">
      <Node pos="s" depth="0" NCoef="0" IVar="14" Cut="1.4871129989624023e+00" cType="1" res="2.1305070258677006e-03" rms="2.3217174410820007e-01" purity="5.0275796651840210e-01" nType="0">
        <Node pos="l" depth="1" NCoef="0" IVar="37" Cut="-2.3238379955291748e+00" cType="1" res="-1.2251574546098709e-02" rms="2.1897384524345398e-01" purity="2.4405750632286072e-01" nType="0">
          <Node pos="l" depth="2" NCoef="0" IVar="-1" Cut="0.0000000000000000e+00" cType="1" res="1.3028414687141776e-03" rms="2.7205708622932434e-01" purity="3.1522592902183533e-01" nType="-99"/>
          <Node pos="r" depth="2" NCoef="0" IVar="-1" Cut="0.0000000000000000e+00" cType="1" res="-3.0130371451377869e-03" rms="1.8598121404647827e-01" purity="2.0882332324981689e-01" nType="-99"/>
        </Node>
        <Node pos="r" depth="1" NCoef="0" IVar="11" Cut="1.2345679104328156e-02" cType="1" res="1.6501905396580696e-02" rms="2.4380369484424591e-01" purity="7.6126635074615479e-01" nType="0">
          <Node pos="l" depth="2" NCoef="0" IVar="-1" Cut="0.0000000000000000e+00" cType="1" res="3.5922438837587833e-03" rms="2.1249760687351227e-01" purity="7.8869783878326416e-01" nType="-99"/>
          <Node pos="r" depth="2" NCoef="0" IVar="-1" Cut="0.0000000000000000e+00" cType="1" res="-9.6683703304734081e-05" rms="2.6315683126449585e-01" purity="7.4101454019546509e-01" nType="-99"/>
        </Node>
      </Node>
    </BinaryTree>
    <BinaryTree type="DecisionTree" boostWeight="1.0000000000000000e+00" itree="830">
      <Node pos="s" depth="0" NCoef="0" IVar="14" Cut="1.5252424478530884e+00" cType="1" res="6.3782691722735763e-04" rms="2.3317758738994598e-01" purity="4.9964383244514465e-01" nType="0">
        <Node pos="l" depth="1" NCoef="0" IVar="2" Cut="2.0705130100250244e+00" cType="1" res="-9.2950239777565002e-03" rms="2.3322838544845581e-01" purity="3.4766939282417297e-01" nType="0">
          <Node pos="l" depth="2" NCoef="0" IVar="-1" Cut="0.0000000000000000e+00" cType="1" res="-3.2118218950927258e-03" rms="1.6880130767822266e-01" purity="1.5600749850273132e-01" nType="-99"/>
          <Node pos="r" depth="2" NCoef="0" IVar="-1" Cut="0.0000000000000000e+00" cType="1" res="5.1305571105331182e-04" rms="2.7855670452117920e-01" purity="5.2276718616485596e-01" nType="-99"/>
        </Node>
        <Node pos="r" depth="1" NCoef="0" IVar="36" Cut="1.4858274459838867e+00" cType="1" res="1.8817894160747528e-02" rms="2.3198562860488892e-01" purity="7.7780216932296753e-01" nType="0">
          <Node pos="l" depth="2" NCoef="0" IVar="-1" Cut="0.0000000000000000e+00" cType="1" res="2.1637589670717716e-03" rms="2.2434796392917633e-01" purity="8.2066571712493896e-01" nType="-99"/>
          <Node pos="r" depth="2" NCoef="0" IVar="-1" Cut="0.0000000000000000e+00" cType="1" res="-5.3539471700787544e-03" rms="3.1567347049713135e-01" purity="1.1035920679569244e-01" nType="-99"/>
        </Node>
      </Node>
    </BinaryTree>
    <BinaryTree type="DecisionTree" boostWeight="1.0000000000000000e+00" itree="831">
      <Node pos="s" depth="0" NCoef="0" IVar="1" Cut="2.0052487850189209e+00" cType="1" res="1.0109638096764684e-03" rms="2.3198170959949493e-01" purity="5.0165587663650513e-01" nType="0">
        <Node pos="l" depth="1" NCoef="0" IVar="16" Cut="5.1712459325790405e-01" cType="1" res="-1.2714453041553497e-02" rms="0.0000000000000000e+00" purity="-2.6575017254799604e-03" nType="-99"/>
        <Node pos="r" depth="1" NCoef="0" IVar="36" Cut="1.5240087509155273e+00" cType="1" res="5.9892004355788231e-03" rms="2.4967606365680695e-01" purity="5.5945199728012085e-01" nType="0">
          <Node pos="l" depth="2" NCoef="0" IVar="-1" Cut="0.0000000000000000e+00" cType="1" res="7.9519336577504873e-04" rms="2.5055590271949768e-01" purity="5.7937353849411011e-01" nType="-99"/>
          <Node pos="r" depth="2" NCoef="0" IVar="-1" Cut="0.0000000000000000e+00" cType="1" res="-8.1776436418294907e-03" rms="2.1291762590408325e-01" purity="3.8950726389884949e-02" nType="-99"/>
        </Node>
      </Node>
    </BinaryTree>
    <BinaryTree type="DecisionTree" boostWeight="1.0000000000000000e+00" itree="832">
      <Node pos="s" depth="0" NCoef="0" IVar="12" Cut="1.4394222497940063e+00" cType="1" res="2.3032932076603174e-03" rms="2.3393121361732483e-01" purity="4.9950635433197021e-01" nType="0">
        <Node pos="l" depth="1" NCoef="0" IVar="65" Cut="6.1759495735168457e-01" cType="1" res="-9.6937324851751328e-03" rms="2.3159623146057129e-01" purity="3.4156793355941772e-01" nType="0">
          <Node pos="l" depth="2" NCoef="0" IVar="-1" Cut="0.0000000000000000e+00" cType="1" res="-1.1144430754939094e-04" rms="2.5223094224929810e-01" purity="4.0860062837600708e-01" nType="-99"/>
          <Node pos="r" depth="2" NCoef="0" IVar="-1" Cut="0.0000000000000000e+00" cType="1" res="-5.8447583578526974e-03" rms="1.3559031486511230e-01" purity="1.1238288134336472e-01" nType="-99"/>
        </Node>
        <Node pos="r" depth="1" NCoef="0" IVar="11" Cut="1.2345679104328156e-02" cType="1" res="1.9157342612743378e-02" rms="2.3614533245563507e-01" purity="7.2138655185699463e-01" nType="0">
          <Node pos="l" depth="2" NCoef="0" IVar="-1" Cut="0.0000000000000000e+00" cType="1" res="3.3225119113922119e-03" rms="2.1399278938770294e-01" purity="7.6658540964126587e-01" nType="-99"/>
          <Node pos="r" depth="2" NCoef="0" IVar="-1" Cut="0.0000000000000000e+00" cType="1" res="-3.5608292091637850e-04" rms="2.5908571481704712e-01" purity="6.6539669036865234e-01" nType="-99"/>
        </Node>
      </Node>
    </BinaryTree>
    <BinaryTree type="DecisionTree" boostWeight="1.0000000000000000e+00" itree="833">
      <Node pos="s" depth="0" NCoef="0" IVar="57" Cut="-2.0303399562835693e+00" cType="1" res="2.4594201240688562e-03" rms="2.3511831462383270e-01" purity="5.0157004594802856e-01" nType="0">
        <Node pos="l" depth="1" NCoef="0" IVar="14" Cut="-1.4924062490463257e+00" cType="1" res="1.6399014741182327e-02" rms="2.4173539876937866e-01" purity="5.7041424512863159e-01" nType="0">
          <Node pos="l" depth="2" NCoef="0" IVar="-1" Cut="0.0000000000000000e+00" cType="1" res="-1.4878242276608944e-02" rms="0.0000000000000000e+00" purity="-8.7824435904622078e-03" nType="-99"/>
          <Node pos="r" depth="2" NCoef="0" IVar="-1" Cut="0.0000000000000000e+00" cType="1" res="1.9270213088020682e-03" rms="2.6434037089347839e-01" purity="6.6831952333450317e-01" nType="-99"/>
        </Node>
        <Node pos="r" depth="1" NCoef="0" IVar="1" Cut="1.7986955642700195e+00" cType="1" res="-1.2394645251333714e-02" rms="2.2691528499126434e-01" purity="4.2820948362350464e-01" nType="0">
          <Node pos="l" depth="2" NCoef="0" IVar="-1" Cut="0.0000000000000000e+00" cType="1" res="-5.2861869335174561e-02" rms="0.0000000000000000e+00" purity="-7.1516118943691254e-02" nType="-99"/>
          <Node pos="r" depth="2" NCoef="0" IVar="-1" Cut="0.0000000000000000e+00" cType="1" res="-7.0872140349820256e-04" rms="2.4454614520072937e-01" purity="4.6095705032348633e-01" nType="-99"/>
        </Node>
      </Node>
    </BinaryTree>
    <BinaryTree type="DecisionTree" boostWeight="1.0000000000000000e+00" itree="834">
      <Node pos="s" depth="0" NCoef="0" IVar="2" Cut="9.8976099491119385e-01" cType="1" res="-7.7678955858573318e-04" rms="2.2928172349929810e-01" purity="4.9855399131774902e-01" nType="0">
        <Node pos="l" depth="1" NCoef="0" IVar="60" Cut="-1.0984720289707184e-01" cType="1" res="-6.8585420958697796e-03" rms="0.0000000000000000e+00" purity="2.9390363022685051e-02" nType="-99"/>
        <Node pos="r" depth="1" NCoef="0" IVar="45" Cut="1.2178915739059448e+00" cType="1" res="3.1133571173995733e-03" rms="2.3559938371181488e-01" purity="5.2258634567260742e-01" nType="0">
          <Node pos="l" depth="2" NCoef="0" IVar="-1" Cut="0.0000000000000000e+00" cType="1" res="-4.8645390197634697e-03" rms="1.3837710022926331e-01" purity="1.1340676993131638e-01" nType="-99"/>
          <Node pos="r" depth="2" NCoef="0" IVar="-1" Cut="0.0000000000000000e+00" cType="1" res="9.2098402092233300e-04" rms="2.4835035204887390e-01" purity="5.9531688690185547e-01" nType="-99"/>
        </Node>
      </Node>
    </BinaryTree>
    <BinaryTree type="DecisionTree" boostWeight="1.0000000000000000e+00" itree="835">
      <Node pos="s" depth="0" NCoef="0" IVar="1" Cut="1.8764562606811523e+00" cType="1" res="2.4775601923465729e-03" rms="2.3600740730762482e-01" purity="5.0152200460433960e-01" nType="0">
        <Node pos="l" depth="1" NCoef="0" IVar="32" Cut="-2.5949358940124512e-01" cType="1" res="-1.8850043416023254e-02" rms="0.0000000000000000e+00" purity="-2.0292960107326508e-02" nType="-99"/>
        <Node pos="r" depth="1" NCoef="0" IVar="64" Cut="1.2345679104328156e-02" cType="1" res="6.3802204094827175e-03" rms="2.4935944378376007e-01" purity="5.3997939825057983e-01" nType="0">
          <Node pos="l" depth="2" NCoef="0" IVar="-1" Cut="0.0000000000000000e+00" cType="1" res="8.6658319924026728e-04" rms="2.4808201193809509e-01" purity="5.4944467544555664e-01" nType="-99"/>
          <Node pos="r" depth="2" NCoef="0" IVar="-1" Cut="0.0000000000000000e+00" cType="1" res="-6.1965985223650932e-03" rms="2.6838418841362000e-01" purity="3.2775130867958069e-01" nType="-99"/>
        </Node>
      </Node>
    </BinaryTree>
    <BinaryTree type="DecisionTree" boostWeight="1.0000000000000000e+00" itree="836">
      <Node pos="s" depth="0" NCoef="0" IVar="1" Cut="1.8051137924194336e+00" cType="1" res="6.9964973954483867e-04" rms="2.3104077577590942e-01" purity="5.0217360258102417e-01" nType="0">
        <Node pos="l" depth="1" NCoef="0" IVar="54" Cut="-1.2605104446411133e+00" cType="1" res="-3.0625086277723312e-02" rms="0.0000000000000000e+00" purity="-4.0031787008047104e-02" nType="-99"/>
        <Node pos="r" depth="1" NCoef="0" IVar="36" Cut="1.4856319427490234e+00" cType="1" res="4.1298600845038891e-03" rms="2.4253547191619873e-01" purity="5.3116780519485474e-01" nType="0">
          <Node pos="l" depth="2" NCoef="0" IVar="-1" Cut="0.0000000000000000e+00" cType="1" res="7.4979447526857257e-04" rms="2.4398358166217804e-01" purity="5.6464207172393799e-01" nType="-99"/>
          <Node pos="r" depth="2" NCoef="0" IVar="-1" Cut="0.0000000000000000e+00" cType="1" res="-6.6292462870478630e-03" rms="2.1315848827362061e-01" purity="5.3404316306114197e-02" nType="-99"/>
        </Node>
      </Node>
    </BinaryTree>
    <BinaryTree type="DecisionTree" boostWeight="1.0000000000000000e+00" itree="837">
      <Node pos="s" depth="0" NCoef="0" IVar="63" Cut="1.1114777326583862e+00" cType="1" res="4.4417823664844036e-03" rms="2.3641796410083771e-01" purity="5.0428891181945801e-01" nType="0">
        <Node pos="l" depth="1" NCoef="0" IVar="0" Cut="1.1625852584838867e+00" cType="1" res="8.8046975433826447e-03" rms="2.3889906704425812e-01" purity="5.1767539978027344e-01" nType="0">
          <Node pos="l" depth="2" NCoef="0" IVar="-1" Cut="0.0000000000000000e+00" cType="1" res="1.1596716940402985e-03" rms="2.3818318545818329e-01" purity="5.2620100975036621e-01" nType="-99"/>
          <Node pos="r" depth="2" NCoef="0" IVar="-1" Cut="0.0000000000000000e+00" cType="1" res="-7.1125300601124763e-03" rms="2.4381186068058014e-01" purity="3.1389576196670532e-01" nType="-99"/>
        </Node>
        <Node pos="r" depth="1" NCoef="0" IVar="52" Cut="-1.5312243700027466e+00" cType="1" res="-4.7708965837955475e-02" rms="1.9710339605808258e-01" purity="3.4427812695503235e-01" nType="0">
          <Node pos="l" depth="2" NCoef="0" IVar="-1" Cut="0.0000000000000000e+00" cType="1" res="-9.2262617545202374e-04" rms="2.4361927807331085e-01" purity="6.0084265470504761e-01" nType="-99"/>
          <Node pos="r" depth="2" NCoef="0" IVar="-1" Cut="0.0000000000000000e+00" cType="1" res="-7.8129554167389870e-03" rms="1.6682790219783783e-01" purity="2.1988634765148163e-01" nType="-99"/>
        </Node>
      </Node>
    </BinaryTree>
    <BinaryTree type="DecisionTree" boostWeight="1.0000000000000000e+00" itree="838">
      <Node pos="s" depth="0" NCoef="0" IVar="18" Cut="1.4108586311340332e+00" cType="1" res="1.0328511707484722e-03" rms="2.3798227310180664e-01" purity="5.0052809715270996e-01" nType="0">
        <Node pos="l" depth="1" NCoef="0" IVar="12" Cut="1.4394222497940063e+00" cType="1" res="3.9429659955203533e-03" rms="2.3869554698467255e-01" purity="5.0927072763442993e-01" nType="0">
          <Node pos="l" depth="2" NCoef="0" IVar="-1" Cut="0.0000000000000000e+00" cType="1" res="-7.9037080286070704e-04" rms="2.4074327945709229e-01" purity="3.5120996832847595e-01" nType="-99"/>
          <Node pos="r" depth="2" NCoef="0" IVar="-1" Cut="0.0000000000000000e+00" cType="1" res="1.6854887362569571e-03" rms="2.3494601249694824e-01" purity="7.2865664958953857e-01" nType="-99"/>
        </Node>
        <Node pos="r" depth="1" NCoef="0" IVar="-1" Cut="0.0000000000000000e+00" cType="1" res="-8.0986684188246727e-03" rms="2.0479764044284821e-01" purity="2.7423575520515442e-01" nType="-99"/>
      </Node>
    </BinaryTree>
    <BinaryTree type="DecisionTree" boostWeight="1.0000000000000000e+00" itree="839">
      <Node pos="s" depth="0" NCoef="0" IVar="25" Cut="2.8610558509826660e+00" cType="1" res="4.2944040615111589e-04" rms="2.2995474934577942e-01" purity="5.0074058771133423e-01" nType="0">
        <Node pos="l" depth="1" NCoef="0" IVar="57" Cut="-1.9396520853042603e+00" cType="1" res="-8.1298388540744781e-03" rms="2.3043322563171387e-01" purity="4.1264057159423828e-01" nType="0">
          <Node pos="l" depth="2" NCoef="0" IVar="-1" Cut="0.0000000000000000e+00" cType="1" res="6.3418300123885274e-04" rms="2.4943828582763672e-01" purity="4.8273187875747681e-01" nType="-99"/>
          <Node pos="r" depth="2" NCoef="0" IVar="-1" Cut="0.0000000000000000e+00" cType="1" res="-2.7793413028120995e-03" rms="2.0270200073719025e-01" purity="3.2515394687652588e-01" nType="-99"/>
        </Node>
        <Node pos="r" depth="1" NCoef="0" IVar="14" Cut="-1.3376932144165039e+00" cType="1" res="3.0084522441029549e-02" rms="2.2579351067543030e-01" purity="8.0597823858261108e-01" nType="0">
          <Node pos="l" depth="2" NCoef="0" IVar="-1" Cut="0.0000000000000000e+00" cType="1" res="1.5279415063560009e-02" rms="3.4784185886383057e-01" purity="1.7528095841407776e-01" nType="-99"/>
          <Node pos="r" depth="2" NCoef="0" IVar="-1" Cut="0.0000000000000000e+00" cType="1" res="2.2023802157491446e-03" rms="2.0670817792415619e-01" purity="8.7461829185485840e-01" nType="-99"/>
        </Node>
      </Node>
    </BinaryTree>
    <BinaryTree type="DecisionTree" boostWeight="1.0000000000000000e+00" itree="840">
      <Node pos="s" depth="0" NCoef="0" IVar="45" Cut="9.4284027814865112e-01" cType="1" res="7.3055666871368885e-04" rms="2.3318530619144440e-01" purity="5.0028210878372192e-01" nType="0">
        <Node pos="l" depth="1" NCoef="0" IVar="0" Cut="7.8516113758087158e-01" cType="1" res="-4.2511470615863800e-02" rms="5.9885900467634201e-02" purity="5.4130345582962036e-02" nType="0">
          <Node pos="l" depth="2" NCoef="0" IVar="-1" Cut="0.0000000000000000e+00" cType="1" res="-3.4105817321687937e-03" rms="1.3463574647903442e-01" purity="9.5565438270568848e-02" nType="-99"/>
          <Node pos="r" depth="2" NCoef="0" IVar="-1" Cut="0.0000000000000000e+00" cType="1" res="-1.8692534416913986e-02" rms="0.0000000000000000e+00" purity="-1.3829274103045464e-02" nType="-99"/>
        </Node>
        <Node pos="r" depth="1" NCoef="0" IVar="4" Cut="3.7662892341613770e+00" cType="1" res="5.3692325018346310e-03" rms="2.4413427710533142e-01" purity="5.4814189672470093e-01" nType="0">
          <Node pos="l" depth="2" NCoef="0" IVar="-1" Cut="0.0000000000000000e+00" cType="1" res="1.8447493202984333e-03" rms="2.3726357519626617e-01" purity="5.4053896665573120e-01" nType="-99"/>
          <Node pos="r" depth="2" NCoef="0" IVar="-1" Cut="0.0000000000000000e+00" cType="1" res="-9.8324124701321125e-04" rms="2.5160786509513855e-01" purity="5.5779308080673218e-01" nType="-99"/>
        </Node>
      </Node>
    </BinaryTree>
    <BinaryTree type="DecisionTree" boostWeight="1.0000000000000000e+00" itree="841">
      <Node pos="s" depth="0" NCoef="0" IVar="2" Cut="5.1484239101409912e-01" cType="1" res="2.9204576276242733e-04" rms="2.3484380543231964e-01" purity="5.0022345781326294e-01" nType="0">
        <Node pos="l" depth="1" NCoef="0" IVar="-1" Cut="0.0000000000000000e+00" cType="1" res="-1.0355846025049686e-02" rms="0.0000000000000000e+00" purity="-4.9012463539838791e-02" nType="-99"/>
        <Node pos="r" depth="1" NCoef="0" IVar="57" Cut="-1.2074040174484253e+00" cType="1" res="2.5405019987374544e-03" rms="2.3950974643230438e-01" purity="5.1263868808746338e-01" nType="0">
          <Node pos="l" depth="2" NCoef="0" IVar="-1" Cut="0.0000000000000000e+00" cType="1" res="8.4583356510847807e-04" rms="2.4234841763973236e-01" purity="5.5026793479919434e-01" nType="-99"/>
          <Node pos="r" depth="2" NCoef="0" IVar="-1" Cut="0.0000000000000000e+00" cType="1" res="-3.5453611053526402e-03" rms="2.1964135766029358e-01" purity="3.0125933885574341e-01" nType="-99"/>
        </Node>
      </Node>
    </BinaryTree>
    <BinaryTree type="DecisionTree" boostWeight="1.0000000000000000e+00" itree="842">
      <Node pos="s" depth="0" NCoef="0" IVar="2" Cut="8.8129884004592896e-01" cType="1" res="2.5383455213159323e-03" rms="2.3533149063587189e-01" purity="5.0353908538818359e-01" nType="0">
        <Node pos="l" depth="1" NCoef="0" IVar="14" Cut="1.0985232591629028e+00" cType="1" res="-6.6696750000119209e-03" rms="0.0000000000000000e+00" purity="2.0109292119741440e-02" nType="-99"/>
        <Node pos="r" depth="1" NCoef="0" IVar="14" Cut="-1.4537111520767212e+00" cType="1" res="5.8213402517139912e-03" rms="2.4047151207923889e-01" purity="5.2454203367233276e-01" nType="0">
          <Node pos="l" depth="2" NCoef="0" IVar="-1" Cut="0.0000000000000000e+00" cType="1" res="-1.8561892211437225e-02" rms="0.0000000000000000e+00" purity="-1.2719449587166309e-02" nType="-99"/>
          <Node pos="r" depth="2" NCoef="0" IVar="-1" Cut="0.0000000000000000e+00" cType="1" res="1.0608059819787741e-03" rms="2.7249485254287720e-01" purity="6.4722198247909546e-01" nType="-99"/>
        </Node>
      </Node>
    </BinaryTree>
    <BinaryTree type="DecisionTree" boostWeight="1.0000000000000000e+00" itree="843">
      <Node pos="s" depth="0" NCoef="0" IVar="44" Cut="1.2345679104328156e-02" cType="1" res="-1.1546867608558387e-04" rms="2.3328261077404022e-01" purity="4.9844858050346375e-01" nType="0">
        <Node pos="l" depth="1" NCoef="0" IVar="56" Cut="1.4463647603988647e+00" cType="1" res="3.1121750362217426e-03" rms="2.3111738264560699e-01" purity="5.0970828533172607e-01" nType="0">
          <Node pos="l" depth="2" NCoef="0" IVar="-1" Cut="0.0000000000000000e+00" cType="1" res="7.3952175443992019e-04" rms="2.3278501629829407e-01" purity="5.4989272356033325e-01" nType="-99"/>
          <Node pos="r" depth="2" NCoef="0" IVar="-1" Cut="0.0000000000000000e+00" cType="1" res="-6.1823255382478237e-03" rms="2.0530091226100922e-01" purity="6.7888922989368439e-02" nType="-99"/>
        </Node>
        <Node pos="r" depth="1" NCoef="0" IVar="26" Cut="-1.2164747714996338e+00" cType="1" res="-6.4461715519428253e-02" rms="2.6479974389076233e-01" purity="2.7397552132606506e-01" nType="0">
          <Node pos="l" depth="2" NCoef="0" IVar="-1" Cut="0.0000000000000000e+00" cType="1" res="-1.3441466726362705e-02" rms="2.9752489924430847e-01" purity="1.8492986261844635e-01" nType="-99"/>
          <Node pos="r" depth="2" NCoef="0" IVar="-1" Cut="0.0000000000000000e+00" cType="1" res="-4.3102825293317437e-04" rms="2.0549678802490234e-01" purity="3.7599217891693115e-01" nType="-99"/>
        </Node>
      </Node>
    </BinaryTree>
    <BinaryTree type="DecisionTree" boostWeight="1.0000000000000000e+00" itree="844">
      <Node pos="s" depth="0" NCoef="0" IVar="1" Cut="3.5477893352508545e+00" cType="1" res="-1.7596544057596475e-04" rms="2.2729946672916412e-01" purity="4.9755090475082397e-01" nType="0">
        <Node pos="l" depth="1" NCoef="0" IVar="25" Cut="1.0730332136154175e+00" cType="1" res="-8.7858978658914566e-03" rms="2.3089544475078583e-01" purity="3.8815662264823914e-01" nType="0">
          <Node pos="l" depth="2" NCoef="0" IVar="-1" Cut="0.0000000000000000e+00" cType="1" res="-6.8499092012643814e-03" rms="6.9299772381782532e-02" purity="6.4708985388278961e-02" nType="-99"/>
          <Node pos="r" depth="2" NCoef="0" IVar="-1" Cut="0.0000000000000000e+00" cType="1" res="-2.5142420781776309e-04" rms="2.4959711730480194e-01" purity="4.4957682490348816e-01" nType="-99"/>
        </Node>
        <Node pos="r" depth="1" NCoef="0" IVar="2" Cut="2.1670897006988525e+00" cType="1" res="2.6476578786969185e-02" rms="2.1359959244728088e-01" purity="8.3618718385696411e-01" nType="0">
          <Node pos="l" depth="2" NCoef="0" IVar="-1" Cut="0.0000000000000000e+00" cType="1" res="-3.0329970177263021e-03" rms="2.8882390260696411e-01" purity="6.2913644313812256e-01" nType="-99"/>
          <Node pos="r" depth="2" NCoef="0" IVar="-1" Cut="0.0000000000000000e+00" cType="1" res="3.6615410353988409e-03" rms="2.0343585312366486e-01" purity="8.5659968852996826e-01" nType="-99"/>
        </Node>
      </Node>
    </BinaryTree>
    <BinaryTree type="DecisionTree" boostWeight="1.0000000000000000e+00" itree="845">
      <Node pos="s" depth="0" NCoef="0" IVar="36" Cut="-1.4150811433792114e+00" cType="1" res="1.6348154749721289e-03" rms="2.3363754153251648e-01" purity="5.0122141838073730e-01" nType="0">
        <Node pos="l" depth="1" NCoef="0" IVar="54" Cut="-1.4150406122207642e+00" cType="1" res="1.0675577446818352e-02" rms="2.3435784876346588e-01" purity="6.0426062345504761e-01" nType="0">
          <Node pos="l" depth="2" NCoef="0" IVar="-1" Cut="0.0000000000000000e+00" cType="1" res="2.3302310146391392e-03" rms="2.0785661041736603e-01" purity="7.2194802761077881e-01" nType="-99"/>
          <Node pos="r" depth="2" NCoef="0" IVar="-1" Cut="0.0000000000000000e+00" cType="1" res="-1.3000282924622297e-03" rms="2.7887782454490662e-01" purity="3.6528688669204712e-01" nType="-99"/>
        </Node>
        <Node pos="r" depth="1" NCoef="0" IVar="37" Cut="-1.2835317850112915e+00" cType="1" res="-1.9560726359486580e-02" rms="2.3055435717105865e-01" purity="2.5965213775634766e-01" nType="0">
          <Node pos="l" depth="2" NCoef="0" IVar="-1" Cut="0.0000000000000000e+00" cType="1" res="-8.7929848814383149e-04" rms="2.5227379798889160e-01" purity="3.0021631717681885e-01" nType="-99"/>
          <Node pos="r" depth="2" NCoef="0" IVar="-1" Cut="0.0000000000000000e+00" cType="1" res="-6.3126673921942711e-03" rms="1.5433369576931000e-01" purity="1.5036191046237946e-01" nType="-99"/>
        </Node>
      </Node>
    </BinaryTree>
    <BinaryTree type="DecisionTree" boostWeight="1.0000000000000000e+00" itree="846">
      <Node pos="s" depth="0" NCoef="0" IVar="2" Cut="5.6514984369277954e-01" cType="1" res="8.0580654321238399e-04" rms="2.3199090361595154e-01" purity="5.0356650352478027e-01" nType="0">
        <Node pos="l" depth="1" NCoef="0" IVar="-1" Cut="0.0000000000000000e+00" cType="1" res="-1.1011783033609390e-02" rms="0.0000000000000000e+00" purity="-6.3966915011405945e-02" nType="-99"/>
        <Node pos="r" depth="1" NCoef="0" IVar="45" Cut="1.0475789308547974e+00" cType="1" res="3.5107987932860851e-03" rms="2.3754221200942993e-01" purity="5.1698815822601318e-01" nType="0">
          <Node pos="l" depth="2" NCoef="0" IVar="-1" Cut="0.0000000000000000e+00" cType="1" res="-5.7927463203668594e-03" rms="1.0481933504343033e-01" purity="7.8455425798892975e-02" nType="-99"/>
          <Node pos="r" depth="2" NCoef="0" IVar="-1" Cut="0.0000000000000000e+00" cType="1" res="8.2135113188996911e-04" rms="2.4927523732185364e-01" purity="5.7433837652206421e-01" nType="-99"/>
        </Node>
      </Node>
    </BinaryTree>
    <BinaryTree type="DecisionTree" boostWeight="1.0000000000000000e+00" itree="847">
      <Node pos="s" depth="0" NCoef="0" IVar="52" Cut="-1.5312063694000244e+00" cType="1" res="2.5959839113056660e-03" rms="2.2965571284294128e-01" purity="5.0149565935134888e-01" nType="0">
        <Node pos="l" depth="1" NCoef="0" IVar="46" Cut="-1.4148448705673218e+00" cType="1" res="2.0362855866551399e-02" rms="2.1853432059288025e-01" purity="6.8741255998611450e-01" nType="0">
          <Node pos="l" depth="2" NCoef="0" IVar="-1" Cut="0.0000000000000000e+00" cType="1" res="2.5087576359510422e-03" rms="2.1509262919425964e-01" purity="6.9993138313293457e-01" nType="-99"/>
          <Node pos="r" depth="2" NCoef="0" IVar="-1" Cut="0.0000000000000000e+00" cType="1" res="-6.1079794541001320e-03" rms="2.5810059905052185e-01" purity="4.7164717316627502e-01" nType="-99"/>
        </Node>
        <Node pos="r" depth="1" NCoef="0" IVar="49" Cut="3.5061898231506348e+00" cType="1" res="-8.9249275624752045e-03" rms="2.3587393760681152e-01" purity="3.8093802332878113e-01" nType="0">
          <Node pos="l" depth="2" NCoef="0" IVar="-1" Cut="0.0000000000000000e+00" cType="1" res="-1.6222061822190881e-04" rms="2.3402644693851471e-01" purity="3.8603943586349487e-01" nType="-99"/>
          <Node pos="r" depth="2" NCoef="0" IVar="-1" Cut="0.0000000000000000e+00" cType="1" res="-4.1921818628907204e-03" rms="2.4173623323440552e-01" purity="3.5412928462028503e-01" nType="-99"/>
        </Node>
      </Node>
    </BinaryTree>
    <BinaryTree type="DecisionTree" boostWeight="1.0000000000000000e+00" itree="848">
      <Node pos="s" depth="0" NCoef="0" IVar="34" Cut="1.4086692333221436e+00" cType="1" res="-2.3612829390913248e-03" rms="2.3015514016151428e-01" purity="4.9822056293487549e-01" nType="0">
        <Node pos="l" depth="1" NCoef="0" IVar="0" Cut="1.1779882907867432e+00" cType="1" res="2.8736505191773176e-03" rms="2.3409458994865417e-01" purity="5.4425650835037231e-01" nType="0">
          <Node pos="l" depth="2" NCoef="0" IVar="-1" Cut="0.0000000000000000e+00" cType="1" res="5.7607312919571996e-04" rms="2.3371398448944092e-01" purity="5.5335247516632080e-01" nType="-99"/>
          <Node pos="r" depth="2" NCoef="0" IVar="-1" Cut="0.0000000000000000e+00" cType="1" res="-7.7389795333147049e-03" rms="2.3035071790218353e-01" purity="3.1829237937927246e-01" nType="-99"/>
        </Node>
        <Node pos="r" depth="1" NCoef="0" IVar="31" Cut="1.2345679104328156e-02" cType="1" res="-5.0574753433465958e-02" rms="1.8316803872585297e-01" purity="7.4231356382369995e-02" nType="0">
          <Node pos="l" depth="2" NCoef="0" IVar="-1" Cut="0.0000000000000000e+00" cType="1" res="-8.5047102766111493e-04" rms="1.7588762938976288e-01" purity="6.5769761800765991e-02" nType="-99"/>
          <Node pos="r" depth="2" NCoef="0" IVar="-1" Cut="0.0000000000000000e+00" cType="1" res="-9.5173260197043419e-03" rms="1.8140965700149536e-01" purity="7.9991951584815979e-02" nType="-99"/>
        </Node>
      </Node>
    </BinaryTree>
    <BinaryTree type="DecisionTree" boostWeight="1.0000000000000000e+00" itree="849">
      <Node pos="s" depth="0" NCoef="0" IVar="44" Cut="1.2345679104328156e-02" cType="1" res="1.3955911854282022e-03" rms="2.3292531073093414e-01" purity="4.9806401133537292e-01" nType="0">
        <Node pos="l" depth="1" NCoef="0" IVar="54" Cut="1.4468575716018677e+00" cType="1" res="4.8176888376474380e-03" rms="2.3113565146923065e-01" purity="5.0964272022247314e-01" nType="0">
          <Node pos="l" depth="2" NCoef="0" IVar="-1" Cut="0.0000000000000000e+00" cType="1" res="9.0438098413869739e-04" rms="2.3295170068740845e-01" purity="5.4882735013961792e-01" nType="-99"/>
          <Node pos="r" depth="2" NCoef="0" IVar="-1" Cut="0.0000000000000000e+00" cType="1" res="-6.5684816800057888e-03" rms="2.0272339880466461e-01" purity="6.8638436496257782e-02" nType="-99"/>
        </Node>
        <Node pos="r" depth="1" NCoef="0" IVar="35" Cut="-7.9660022258758545e-01" cType="1" res="-6.5128438174724579e-02" rms="2.5640961527824402e-01" purity="2.7297890186309814e-01" nType="0">
          <Node pos="l" depth="2" NCoef="0" IVar="-1" Cut="0.0000000000000000e+00" cType="1" res="-2.1522480528801680e-03" rms="1.9239710271358490e-01" purity="4.2123892903327942e-01" nType="-99"/>
          <Node pos="r" depth="2" NCoef="0" IVar="-1" Cut="0.0000000000000000e+00" cType="1" res="-1.1538604274392128e-02" rms="2.9165977239608765e-01" purity="1.6037170588970184e-01" nType="-99"/>
        </Node>
      </Node>
    </BinaryTree>
    <BinaryTree type="DecisionTree" boostWeight="1.0000000000000000e+00" itree="850">
      <Node pos="s" depth="0" NCoef="0" IVar="2" Cut="5.1484239101409912e-01" cType="1" res="8.8047079043462873e-04" rms="2.3006632924079895e-01" purity="4.9992439150810242e-01" nType="0">
        <Node pos="l" depth="1" NCoef="0" IVar="-1" Cut="0.0000000000000000e+00" cType="1" res="-1.0846287943422794e-02" rms="0.0000000000000000e+00" purity="-5.3060874342918396e-02" nType="-99"/>
        <Node pos="r" depth="1" NCoef="0" IVar="53" Cut="1.2915672063827515e+00" cType="1" res="3.2211253419518471e-03" rms="2.3507280647754669e-01" purity="5.1264214515686035e-01" nType="0">
          <Node pos="l" depth="2" NCoef="0" IVar="-1" Cut="0.0000000000000000e+00" cType="1" res="6.3018559012562037e-04" rms="2.3777714371681213e-01" purity="5.2583384513854980e-01" nType="-99"/>
          <Node pos="r" depth="2" NCoef="0" IVar="-1" Cut="0.0000000000000000e+00" cType="1" res="-9.8019707947969437e-03" rms="1.3433395326137543e-01" purity="1.9285987317562103e-01" nType="-99"/>
        </Node>
      </Node>
    </BinaryTree>
    <BinaryTree type="DecisionTree" boostWeight="1.0000000000000000e+00" itree="851">
      <Node pos="s" depth="0" NCoef="0" IVar="53" Cut="1.3299787044525146e+00" cType="1" res="-2.7006212621927261e-04" rms="2.3374126851558685e-01" purity="4.9729594588279724e-01" nType="0">
        <Node pos="l" depth="1" NCoef="0" IVar="34" Cut="1.4860318899154663e+00" cType="1" res="2.5641154497861862e-03" rms="2.3603430390357971e-01" purity="5.0901794433593750e-01" nType="0">
          <Node pos="l" depth="2" NCoef="0" IVar="-1" Cut="0.0000000000000000e+00" cType="1" res="5.9305975446477532e-04" rms="2.3889721930027008e-01" purity="5.3955185413360596e-01" nType="-99"/>
          <Node pos="r" depth="2" NCoef="0" IVar="-1" Cut="0.0000000000000000e+00" cType="1" res="-7.5305914506316185e-03" rms="1.8111275136470795e-01" purity="6.0667481273412704e-02" nType="-99"/>
        </Node>
        <Node pos="r" depth="1" NCoef="0" IVar="-1" Cut="0.0000000000000000e+00" cType="1" res="-1.0751329362392426e-02" rms="1.3471513986587524e-01" purity="1.7058885097503662e-01" nType="-99"/>
      </Node>
    </BinaryTree>
    <BinaryTree type="DecisionTree" boostWeight="1.0000000000000000e+00" itree="852">
      <Node pos="s" depth="0" NCoef="0" IVar="14" Cut="-1.4537111520767212e+00" cType="1" res="2.2433756384998560e-03" rms="2.3166732490062714e-01" purity="4.9954944849014282e-01" nType="0">
        <Node pos="l" depth="1" NCoef="0" IVar="52" Cut="7.4452310800552368e-01" cType="1" res="-2.1530315279960632e-02" rms="0.0000000000000000e+00" purity="-1.5127861872315407e-02" nType="-99"/>
        <Node pos="r" depth="1" NCoef="0" IVar="0" Cut="1.1738559007644653e+00" cType="1" res="8.8943345472216606e-03" rms="2.6441529393196106e-01" purity="6.1897557973861694e-01" nType="0">
          <Node pos="l" depth="2" NCoef="0" IVar="-1" Cut="0.0000000000000000e+00" cType="1" res="1.0123261017724872e-03" rms="2.6305788755416870e-01" purity="6.2737452983856201e-01" nType="-99"/>
          <Node pos="r" depth="2" NCoef="0" IVar="-1" Cut="0.0000000000000000e+00" cType="1" res="-6.3914060592651367e-03" rms="2.8416234254837036e-01" purity="4.0577593445777893e-01" nType="-99"/>
        </Node>
      </Node>
    </BinaryTree>
    <BinaryTree type="DecisionTree" boostWeight="1.0000000000000000e+00" itree="853">
      <Node pos="s" depth="0" NCoef="0" IVar="57" Cut="-9.7235697507858276e-01" cType="1" res="1.4307161327451468e-03" rms="2.3201113939285278e-01" purity="5.0250053405761719e-01" nType="0">
        <Node pos="l" depth="1" NCoef="0" IVar="17" Cut="-8.7324810028076172e-01" cType="1" res="6.2399352900683880e-03" rms="2.3508417606353760e-01" purity="5.3066313266754150e-01" nType="0">
          <Node pos="l" depth="2" NCoef="0" IVar="-1" Cut="0.0000000000000000e+00" cType="1" res="9.8269677255302668e-04" rms="2.3470793664455414e-01" purity="5.4820305109024048e-01" nType="-99"/>
          <Node pos="r" depth="2" NCoef="0" IVar="-1" Cut="0.0000000000000000e+00" cType="1" res="-5.3080208599567413e-03" rms="2.3343209922313690e-01" purity="2.8015202283859253e-01" nType="-99"/>
        </Node>
        <Node pos="r" depth="1" NCoef="0" IVar="49" Cut="3.2910230159759521e+00" cType="1" res="-4.2396590113639832e-02" rms="1.9651073217391968e-01" purity="2.4584983289241791e-01" nType="0">
          <Node pos="l" depth="2" NCoef="0" IVar="-1" Cut="0.0000000000000000e+00" cType="1" res="-2.9682395979762077e-03" rms="2.0640932023525238e-01" purity="2.5270310044288635e-01" nType="-99"/>
          <Node pos="r" depth="2" NCoef="0" IVar="-1" Cut="0.0000000000000000e+00" cType="1" res="-1.0376666672527790e-02" rms="1.5704455971717834e-01" purity="2.2761234641075134e-01" nType="-99"/>
        </Node>
      </Node>
    </BinaryTree>
    <BinaryTree type="DecisionTree" boostWeight="1.0000000000000000e+00" itree="854">
      <Node pos="s" depth="0" NCoef="0" IVar="2" Cut="1.6382122039794922e+00" cType="1" res="-7.2715897113084793e-04" rms="2.3357033729553223e-01" purity="4.9775245785713196e-01" nType="0">
        <Node pos="l" depth="1" NCoef="0" IVar="5" Cut="1.9856235980987549e+00" cType="1" res="-2.9211185872554779e-02" rms="1.7056021094322205e-01" purity="1.6970030963420868e-01" nType="0">
          <Node pos="l" depth="2" NCoef="0" IVar="-1" Cut="0.0000000000000000e+00" cType="1" res="-1.4572296058759093e-03" rms="1.6615985333919525e-01" purity="1.4631977677345276e-01" nType="-99"/>
          <Node pos="r" depth="2" NCoef="0" IVar="-1" Cut="0.0000000000000000e+00" cType="1" res="-6.4202025532722473e-03" rms="1.7279043793678284e-01" purity="2.4703229963779449e-01" nType="-99"/>
        </Node>
        <Node pos="r" depth="1" NCoef="0" IVar="33" Cut="1.2145479917526245e+00" cType="1" res="6.7057460546493530e-03" rms="2.4684619903564453e-01" purity="5.8335769176483154e-01" nType="0">
          <Node pos="l" depth="2" NCoef="0" IVar="-1" Cut="0.0000000000000000e+00" cType="1" res="9.8248641006648540e-04" rms="2.4740372598171234e-01" purity="5.9762138128280640e-01" nType="-99"/>
          <Node pos="r" depth="2" NCoef="0" IVar="-1" Cut="0.0000000000000000e+00" cType="1" res="-6.6134333610534668e-03" rms="2.2646892070770264e-01" purity="3.0596736073493958e-01" nType="-99"/>
        </Node>
      </Node>
    </BinaryTree>
    <BinaryTree type="DecisionTree" boostWeight="1.0000000000000000e+00" itree="855">
      <Node pos="s" depth="0" NCoef="0" IVar="45" Cut="9.5409804582595825e-01" cType="1" res="2.8190377634018660e-04" rms="2.3109208047389984e-01" purity="5.0082570314407349e-01" nType="0">
        <Node pos="l" depth="1" NCoef="0" IVar="0" Cut="4.2891141772270203e-01" cType="1" res="-4.3276902288198471e-02" rms="3.5885702818632126e-02" purity="5.9809513390064240e-02" nType="0">
          <Node pos="l" depth="2" NCoef="0" IVar="-1" Cut="0.0000000000000000e+00" cType="1" res="2.2883208002895117e-03" rms="2.2582978010177612e-01" purity="1.7407928407192230e-01" nType="-99"/>
          <Node pos="r" depth="2" NCoef="0" IVar="-1" Cut="0.0000000000000000e+00" cType="1" res="-1.4792590402066708e-02" rms="0.0000000000000000e+00" purity="8.9921317994594574e-03" nType="-99"/>
        </Node>
        <Node pos="r" depth="1" NCoef="0" IVar="17" Cut="-1.0232417583465576e+00" cType="1" res="4.9505764618515968e-03" rms="2.4241329729557037e-01" purity="5.4809421300888062e-01" nType="0">
          <Node pos="l" depth="2" NCoef="0" IVar="-1" Cut="0.0000000000000000e+00" cType="1" res="8.9067220687866211e-04" rms="2.4359202384948730e-01" purity="5.7084465026855469e-01" nType="-99"/>
          <Node pos="r" depth="2" NCoef="0" IVar="-1" Cut="0.0000000000000000e+00" cType="1" res="-3.9070271886885166e-03" rms="2.2584518790245056e-01" purity="3.2414457201957703e-01" nType="-99"/>
        </Node>
      </Node>
    </BinaryTree>
    <BinaryTree type="DecisionTree" boostWeight="1.0000000000000000e+00" itree="856">
      <Node pos="s" depth="0" NCoef="0" IVar="53" Cut="1.4083480834960938e+00" cType="1" res="-1.4935596846044064e-04" rms="2.2962798178195953e-01" purity="4.9908277392387390e-01" nType="0">
        <Node pos="l" depth="1" NCoef="0" IVar="32" Cut="-1.5312049388885498e+00" cType="1" res="2.2638947702944279e-03" rms="2.3159059882164001e-01" purity="5.0862264633178711e-01" nType="0">
          <Node pos="l" depth="2" NCoef="0" IVar="-1" Cut="0.0000000000000000e+00" cType="1" res="1.9518450135365129e-03" rms="2.2038340568542480e-01" purity="6.9296884536743164e-01" nType="-99"/>
          <Node pos="r" depth="2" NCoef="0" IVar="-1" Cut="0.0000000000000000e+00" cType="1" res="-9.0029730927199125e-04" rms="2.3805996775627136e-01" purity="3.8621520996093750e-01" nType="-99"/>
        </Node>
        <Node pos="r" depth="1" NCoef="0" IVar="-1" Cut="0.0000000000000000e+00" cType="1" res="-1.4585883356630802e-02" rms="7.0129066705703735e-02" purity="1.0335589200258255e-01" nType="-99"/>
      </Node>
    </BinaryTree>
    <BinaryTree type="DecisionTree" boostWeight="1.0000000000000000e+00" itree="857">
      <Node pos="s" depth="0" NCoef="0" IVar="2" Cut="8.8168579339981079e-01" cType="1" res="-1.3457060558721423e-03" rms="2.2877638041973114e-01" purity="5.0037527084350586e-01" nType="0">
        <Node pos="l" depth="1" NCoef="0" IVar="-1" Cut="0.0000000000000000e+00" cType="1" res="-8.3307074382901192e-03" rms="0.0000000000000000e+00" purity="-5.3421990014612675e-04" nType="-99"/>
        <Node pos="r" depth="1" NCoef="0" IVar="0" Cut="8.4802961349487305e-01" cType="1" res="2.3241690360009670e-03" rms="2.3545441031455994e-01" purity="5.2118009328842163e-01" nType="0">
          <Node pos="l" depth="2" NCoef="0" IVar="-1" Cut="0.0000000000000000e+00" cType="1" res="9.3213771469891071e-04" rms="2.3811437189579010e-01" purity="5.5954092741012573e-01" nType="-99"/>
          <Node pos="r" depth="2" NCoef="0" IVar="-1" Cut="0.0000000000000000e+00" cType="1" res="-3.0126899946480989e-03" rms="2.2171816229820251e-01" purity="3.6284121870994568e-01" nType="-99"/>
        </Node>
      </Node>
    </BinaryTree>
    <BinaryTree type="DecisionTree" boostWeight="1.0000000000000000e+00" itree="858">
      <Node pos="s" depth="0" NCoef="0" IVar="64" Cut="1.2345679104328156e-02" cType="1" res="3.2909659203141928e-03" rms="2.3688161373138428e-01" purity="5.0034052133560181e-01" nType="0">
        <Node pos="l" depth="1" NCoef="0" IVar="0" Cut="5.9641557931900024e-01" cType="1" res="6.1404900625348091e-03" rms="2.3685583472251892e-01" purity="5.1056218147277832e-01" nType="0">
          <Node pos="l" depth="2" NCoef="0" IVar="-1" Cut="0.0000000000000000e+00" cType="1" res="1.6233189962804317e-03" rms="2.4506884813308716e-01" purity="5.7388669252395630e-01" nType="-99"/>
          <Node pos="r" depth="2" NCoef="0" IVar="-1" Cut="0.0000000000000000e+00" cType="1" res="-1.1104816803708673e-03" rms="2.2283262014389038e-01" purity="4.1455370187759399e-01" nType="-99"/>
        </Node>
        <Node pos="r" depth="1" NCoef="0" IVar="46" Cut="-1.1419985294342041e+00" cType="1" res="-5.9428062289953232e-02" rms="2.2862459719181061e-01" purity="2.7535718679428101e-01" nType="0">
          <Node pos="l" depth="2" NCoef="0" IVar="-1" Cut="0.0000000000000000e+00" cType="1" res="-1.4431028626859188e-02" rms="1.9595949351787567e-01" purity="1.5562815964221954e-01" nType="-99"/>
          <Node pos="r" depth="2" NCoef="0" IVar="-1" Cut="0.0000000000000000e+00" cType="1" res="2.6972801424562931e-04" rms="2.4541068077087402e-01" purity="4.0720424056053162e-01" nType="-99"/>
        </Node>
      </Node>
    </BinaryTree>
    <BinaryTree type="DecisionTree" boostWeight="1.0000000000000000e+00" itree="859">
      <Node pos="s" depth="0" NCoef="0" IVar="57" Cut="-8.5139232873916626e-01" cType="1" res="-5.6279479758813977e-04" rms="2.3332680761814117e-01" purity="4.9768617749214172e-01" nType="0">
        <Node pos="l" depth="1" NCoef="0" IVar="34" Cut="5.9636038541793823e-01" cType="1" res="3.4386308398097754e-03" rms="2.3675207793712616e-01" purity="5.2075445652008057e-01" nType="0">
          <Node pos="l" depth="2" NCoef="0" IVar="-1" Cut="0.0000000000000000e+00" cType="1" res="9.5876579871401191e-04" rms="2.3409387469291687e-01" purity="5.8889847993850708e-01" nType="-99"/>
          <Node pos="r" depth="2" NCoef="0" IVar="-1" Cut="0.0000000000000000e+00" cType="1" res="-2.9867177363485098e-03" rms="2.4712033569812775e-01" purity="1.8167155981063843e-01" nType="-99"/>
        </Node>
        <Node pos="r" depth="1" NCoef="0" IVar="19" Cut="-8.0517858266830444e-02" cType="1" res="-4.9766559153795242e-02" rms="1.7895320057868958e-01" purity="2.1402542293071747e-01" nType="0">
          <Node pos="l" depth="2" NCoef="0" IVar="-1" Cut="0.0000000000000000e+00" cType="1" res="-1.9941460341215134e-03" rms="2.5331050157546997e-01" purity="2.7656325697898865e-01" nType="-99"/>
          <Node pos="r" depth="2" NCoef="0" IVar="-1" Cut="0.0000000000000000e+00" cType="1" res="-8.9733833447098732e-03" rms="1.0960288345813751e-01" purity="1.7716127634048462e-01" nType="-99"/>
        </Node>
      </Node>
    </BinaryTree>
    <BinaryTree type="DecisionTree" boostWeight="1.0000000000000000e+00" itree="860">
      <Node pos="s" depth="0" NCoef="0" IVar="37" Cut="-1.6170525550842285e+00" cType="1" res="2.6363893412053585e-03" rms="2.3389126360416412e-01" purity="5.0328427553176880e-01" nType="0">
        <Node pos="l" depth="1" NCoef="0" IVar="34" Cut="1.4867393970489502e+00" cType="1" res="1.2022813782095909e-02" rms="2.3847261071205139e-01" purity="5.5356633663177490e-01" nType="0">
          <Node pos="l" depth="2" NCoef="0" IVar="-1" Cut="0.0000000000000000e+00" cType="1" res="1.5481783775612712e-03" rms="2.3948055505752563e-01" purity="5.8719497919082642e-01" nType="-99"/>
          <Node pos="r" depth="2" NCoef="0" IVar="-1" Cut="0.0000000000000000e+00" cType="1" res="-6.5943696536123753e-03" rms="2.1498316526412964e-01" purity="7.4090108275413513e-02" nType="-99"/>
        </Node>
        <Node pos="r" depth="1" NCoef="0" IVar="2" Cut="1.9615483283996582e+00" cType="1" res="-2.0338978618383408e-02" rms="2.2060045599937439e-01" purity="3.8020762801170349e-01" nType="0">
          <Node pos="l" depth="2" NCoef="0" IVar="-1" Cut="0.0000000000000000e+00" cType="1" res="-6.2433662824332714e-03" rms="1.1163821071386337e-01" purity="1.1400771141052246e-01" nType="-99"/>
          <Node pos="r" depth="2" NCoef="0" IVar="-1" Cut="0.0000000000000000e+00" cType="1" res="-5.4111710051074624e-04" rms="2.6718819141387939e-01" purity="5.5119895935058594e-01" nType="-99"/>
        </Node>
      </Node>
    </BinaryTree>
    <BinaryTree type="DecisionTree" boostWeight="1.0000000000000000e+00" itree="861">
      <Node pos="s" depth="0" NCoef="0" IVar="37" Cut="-1.9738626480102539e+00" cType="1" res="1.8707868875935674e-03" rms="2.2960704565048218e-01" purity="5.0123655796051025e-01" nType="0">
        <Node pos="l" depth="1" NCoef="0" IVar="56" Cut="1.5237022638320923e+00" cType="1" res="1.4781115576624870e-02" rms="2.3637875914573669e-01" purity="5.6550782918930054e-01" nType="0">
          <Node pos="l" depth="2" NCoef="0" IVar="-1" Cut="0.0000000000000000e+00" cType="1" res="1.7156243557110429e-03" rms="2.3728415369987488e-01" purity="5.8659946918487549e-01" nType="-99"/>
          <Node pos="r" depth="2" NCoef="0" IVar="-1" Cut="0.0000000000000000e+00" cType="1" res="-8.8641708716750145e-03" rms="1.9547204673290253e-01" purity="2.8448330238461494e-02" nType="-99"/>
        </Node>
        <Node pos="r" depth="1" NCoef="0" IVar="2" Cut="2.1544005870819092e+00" cType="1" res="-1.3725098222494125e-02" rms="2.2014290094375610e-01" purity="4.2359581589698792e-01" nType="0">
          <Node pos="l" depth="2" NCoef="0" IVar="-1" Cut="0.0000000000000000e+00" cType="1" res="-4.0030018426477909e-03" rms="1.5108928084373474e-01" purity="1.9711291790008545e-01" nType="-99"/>
          <Node pos="r" depth="2" NCoef="0" IVar="-1" Cut="0.0000000000000000e+00" cType="1" res="3.5071439924649894e-04" rms="2.6480141282081604e-01" purity="6.2072646617889404e-01" nType="-99"/>
        </Node>
      </Node>
    </BinaryTree>
    <BinaryTree type="DecisionTree" boostWeight="1.0000000000000000e+00" itree="862">
      <Node pos="s" depth="0" NCoef="0" IVar="34" Cut="-1.1828930377960205e+00" cType="1" res="-1.1337047908455133e-03" rms="2.2918531298637390e-01" purity="4.9949774146080017e-01" nType="0">
        <Node pos="l" depth="1" NCoef="0" IVar="54" Cut="-1.4150406122207642e+00" cType="1" res="8.4201302379369736e-03" rms="2.2525082528591156e-01" purity="5.9744977951049805e-01" nType="0">
          <Node pos="l" depth="2" NCoef="0" IVar="-1" Cut="0.0000000000000000e+00" cType="1" res="2.3429833818227053e-03" rms="1.9831830263137817e-01" purity="7.2303545475006104e-01" nType="-99"/>
          <Node pos="r" depth="2" NCoef="0" IVar="-1" Cut="0.0000000000000000e+00" cType="1" res="-1.8034274689853191e-03" rms="2.6822125911712646e-01" purity="3.5089787840843201e-01" nType="-99"/>
        </Node>
        <Node pos="r" depth="1" NCoef="0" IVar="33" Cut="-1.4741493463516235e+00" cType="1" res="-2.5777140632271767e-02" rms="2.3726592957973480e-01" purity="2.4683740735054016e-01" nType="0">
          <Node pos="l" depth="2" NCoef="0" IVar="-1" Cut="0.0000000000000000e+00" cType="1" res="2.3740231990814209e-03" rms="2.3775970935821533e-01" purity="4.1201061010360718e-01" nType="-99"/>
          <Node pos="r" depth="2" NCoef="0" IVar="-1" Cut="0.0000000000000000e+00" cType="1" res="-3.6685818340629339e-03" rms="2.3601423203945160e-01" purity="2.1697491407394409e-01" nType="-99"/>
        </Node>
      </Node>
    </BinaryTree>
    <BinaryTree type="DecisionTree" boostWeight="1.0000000000000000e+00" itree="863">
      <Node pos="s" depth="0" NCoef="0" IVar="2" Cut="7.1521973609924316e-01" cType="1" res="5.5942678591236472e-04" rms="2.3239298164844513e-01" purity="4.9956524372100830e-01" nType="0">
        <Node pos="l" depth="1" NCoef="0" IVar="-1" Cut="0.0000000000000000e+00" cType="1" res="-7.4808532372117043e-03" rms="0.0000000000000000e+00" purity="-1.0599141009151936e-02" nType="-99"/>
        <Node pos="r" depth="1" NCoef="0" IVar="54" Cut="-1.3830594718456268e-01" cType="1" res="3.0296964105218649e-03" rms="2.3709996044635773e-01" purity="5.1575773954391479e-01" nType="0">
          <Node pos="l" depth="2" NCoef="0" IVar="-1" Cut="0.0000000000000000e+00" cType="1" res="1.0556681081652641e-03" rms="2.3358508944511414e-01" purity="5.9992229938507080e-01" nType="-99"/>
          <Node pos="r" depth="2" NCoef="0" IVar="-1" Cut="0.0000000000000000e+00" cType="1" res="-2.5166398845613003e-03" rms="2.4710223078727722e-01" purity="2.2237850725650787e-01" nType="-99"/>
        </Node>
      </Node>
    </BinaryTree>
    <BinaryTree type="DecisionTree" boostWeight="1.0000000000000000e+00" itree="864">
      <Node pos="s" depth="0" NCoef="0" IVar="54" Cut="8.6756885051727295e-01" cType="1" res="-2.4193803255911916e-04" rms="2.3094575107097626e-01" purity="5.0032585859298706e-01" nType="0">
        <Node pos="l" depth="1" NCoef="0" IVar="44" Cut="1.2345679104328156e-02" cType="1" res="5.9942798689007759e-03" rms="2.3140883445739746e-01" purity="5.6766301393508911e-01" nType="0">
          <Node pos="l" depth="2" NCoef="0" IVar="-1" Cut="0.0000000000000000e+00" cType="1" res="9.2640781076624990e-04" rms="2.2879050672054291e-01" purity="5.7767552137374878e-01" nType="-99"/>
          <Node pos="r" depth="2" NCoef="0" IVar="-1" Cut="0.0000000000000000e+00" cType="1" res="-6.9567081518471241e-03" rms="2.7228096127510071e-01" purity="3.4671998023986816e-01" nType="-99"/>
        </Node>
        <Node pos="r" depth="1" NCoef="0" IVar="49" Cut="3.4319245815277100e+00" cType="1" res="-3.2398585230112076e-02" rms="2.2582587599754333e-01" purity="1.5310609340667725e-01" nType="0">
          <Node pos="l" depth="2" NCoef="0" IVar="-1" Cut="0.0000000000000000e+00" cType="1" res="-9.1524940216913819e-04" rms="2.1670266985893250e-01" purity="1.4113463461399078e-01" nType="-99"/>
          <Node pos="r" depth="2" NCoef="0" IVar="-1" Cut="0.0000000000000000e+00" cType="1" res="-7.3845013976097107e-03" rms="2.3480144143104553e-01" purity="1.7535527050495148e-01" nType="-99"/>
        </Node>
      </Node>
    </BinaryTree>
    <BinaryTree type="DecisionTree" boostWeight="1.0000000000000000e+00" itree="865">
      <Node pos="s" depth="0" NCoef="0" IVar="53" Cut="1.2913150787353516e+00" cType="1" res="1.1158123379573226e-03" rms="2.3407621681690216e-01" purity="5.0080448389053345e-01" nType="0">
        <Node pos="l" depth="1" NCoef="0" IVar="2" Cut="1.6246234178543091e+00" cType="1" res="3.7744794972240925e-03" rms="2.3684288561344147e-01" purity="5.1342087984085083e-01" nType="0">
          <Node pos="l" depth="2" NCoef="0" IVar="-1" Cut="0.0000000000000000e+00" cType="1" res="-2.1560229361057281e-03" rms="1.9652633368968964e-01" purity="1.8168780207633972e-01" nType="-99"/>
          <Node pos="r" depth="2" NCoef="0" IVar="-1" Cut="0.0000000000000000e+00" cType="1" res="9.9283235613256693e-04" rms="2.4551668763160706e-01" purity="5.9650880098342896e-01" nType="-99"/>
        </Node>
        <Node pos="r" depth="1" NCoef="0" IVar="-1" Cut="0.0000000000000000e+00" cType="1" res="-8.4820166230201721e-03" rms="1.3827975094318390e-01" purity="1.9678457081317902e-01" nType="-99"/>
      </Node>
    </BinaryTree>
    <BinaryTree type="DecisionTree" boostWeight="1.0000000000000000e+00" itree="866">
      <Node pos="s" depth="0" NCoef="0" IVar="45" Cut="7.3235803842544556e-01" cType="1" res="8.9358317200094461e-04" rms="2.2841846942901611e-01" purity="5.0181686878204346e-01" nType="0">
        <Node pos="l" depth="1" NCoef="0" IVar="-1" Cut="0.0000000000000000e+00" cType="1" res="-1.4239482581615448e-02" rms="0.0000000000000000e+00" purity="1.1777259409427643e-02" nType="-99"/>
        <Node pos="r" depth="1" NCoef="0" IVar="54" Cut="1.4478938579559326e+00" cType="1" res="3.9935060776770115e-03" rms="2.3478266596794128e-01" purity="5.2230572700500488e-01" nType="0">
          <Node pos="l" depth="2" NCoef="0" IVar="-1" Cut="0.0000000000000000e+00" cType="1" res="7.8315671999007463e-04" rms="2.3608098924160004e-01" purity="5.6446784734725952e-01" nType="-99"/>
          <Node pos="r" depth="2" NCoef="0" IVar="-1" Cut="0.0000000000000000e+00" cType="1" res="-5.7726390659809113e-03" rms="2.1551291644573212e-01" purity="7.3547542095184326e-02" nType="-99"/>
        </Node>
      </Node>
    </BinaryTree>
    <BinaryTree type="DecisionTree" boostWeight="1.0000000000000000e+00" itree="867">
      <Node pos="s" depth="0" NCoef="0" IVar="2" Cut="5.0748854875564575e-01" cType="1" res="6.1681814258918166e-04" rms="2.3084989190101624e-01" purity="4.9933484196662903e-01" nType="0">
        <Node pos="l" depth="1" NCoef="0" IVar="-1" Cut="0.0000000000000000e+00" cType="1" res="-9.5105692744255066e-03" rms="0.0000000000000000e+00" purity="-4.8334281891584396e-02" nType="-99"/>
        <Node pos="r" depth="1" NCoef="0" IVar="5" Cut="8.5298597812652588e-01" cType="1" res="2.6803552173078060e-03" rms="2.3520331084728241e-01" purity="5.1105135679244995e-01" nType="0">
          <Node pos="l" depth="2" NCoef="0" IVar="-1" Cut="0.0000000000000000e+00" cType="1" res="-9.6881091594696045e-03" rms="0.0000000000000000e+00" purity="7.4855513870716095e-02" nType="-99"/>
          <Node pos="r" depth="2" NCoef="0" IVar="-1" Cut="0.0000000000000000e+00" cType="1" res="5.9157895157113671e-04" rms="2.4188396334648132e-01" purity="5.3638255596160889e-01" nType="-99"/>
        </Node>
      </Node>
    </BinaryTree>
    <BinaryTree type="DecisionTree" boostWeight="1.0000000000000000e+00" itree="868">
      <Node pos="s" depth="0" NCoef="0" IVar="1" Cut="1.7478921413421631e+00" cType="1" res="-1.0381841275375336e-04" rms="2.3343530297279358e-01" purity="4.9926438927650452e-01" nType="0">
        <Node pos="l" depth="1" NCoef="0" IVar="-1" Cut="0.0000000000000000e+00" cType="1" res="-3.9410315454006195e-02" rms="0.0000000000000000e+00" purity="-5.6821461766958237e-02" nType="-99"/>
        <Node pos="r" depth="1" NCoef="0" IVar="35" Cut="1.3683488368988037e+00" cType="1" res="2.8471406549215317e-03" rms="2.4277818202972412e-01" purity="5.2038151025772095e-01" nType="0">
          <Node pos="l" depth="2" NCoef="0" IVar="-1" Cut="0.0000000000000000e+00" cType="1" res="4.7052095760591328e-04" rms="2.4283380806446075e-01" purity="5.2655947208404541e-01" nType="-99"/>
          <Node pos="r" depth="2" NCoef="0" IVar="-1" Cut="0.0000000000000000e+00" cType="1" res="-1.0349058546125889e-02" rms="2.2198425233364105e-01" purity="2.4011474847793579e-01" nType="-99"/>
        </Node>
      </Node>
    </BinaryTree>
    <BinaryTree type="DecisionTree" boostWeight="1.0000000000000000e+00" itree="869">
      <Node pos="s" depth="0" NCoef="0" IVar="14" Cut="1.5258079767227173e+00" cType="1" res="1.1983258882537484e-03" rms="2.2907319664955139e-01" purity="5.0130885839462280e-01" nType="0">
        <Node pos="l" depth="1" NCoef="0" IVar="2" Cut="1.6482007503509521e+00" cType="1" res="-9.2072347179055214e-03" rms="2.2617724537849426e-01" purity="3.5004931688308716e-01" nType="0">
          <Node pos="l" depth="2" NCoef="0" IVar="-1" Cut="0.0000000000000000e+00" cType="1" res="-5.4152514785528183e-03" rms="1.0519376397132874e-01" purity="9.4895362854003906e-02" nType="-99"/>
          <Node pos="r" depth="2" NCoef="0" IVar="-1" Cut="0.0000000000000000e+00" cType="1" res="1.6868286184035242e-04" rms="2.5479352474212646e-01" purity="4.4053360819816589e-01" nType="-99"/>
        </Node>
        <Node pos="r" depth="1" NCoef="0" IVar="56" Cut="1.4463647603988647e+00" cType="1" res="2.0375093445181847e-02" rms="2.3310285806655884e-01" purity="7.8007024526596069e-01" nType="0">
          <Node pos="l" depth="2" NCoef="0" IVar="-1" Cut="0.0000000000000000e+00" cType="1" res="2.3584822192788124e-03" rms="2.2501194477081299e-01" purity="8.2744061946868896e-01" nType="-99"/>
          <Node pos="r" depth="2" NCoef="0" IVar="-1" Cut="0.0000000000000000e+00" cType="1" res="-4.0045715868473053e-03" rms="3.1346809864044189e-01" purity="1.4408020675182343e-01" nType="-99"/>
        </Node>
      </Node>
    </BinaryTree>
    <BinaryTree type="DecisionTree" boostWeight="1.0000000000000000e+00" itree="870">
      <Node pos="s" depth="0" NCoef="0" IVar="57" Cut="-1.0629982948303223e+00" cType="1" res="-1.9702721328940243e-04" rms="2.3564387857913971e-01" purity="4.9885573983192444e-01" nType="0">
        <Node pos="l" depth="1" NCoef="0" IVar="54" Cut="1.4468575716018677e+00" cType="1" res="5.5510737001895905e-03" rms="2.4034734070301056e-01" purity="5.3119248151779175e-01" nType="0">
          <Node pos="l" depth="2" NCoef="0" IVar="-1" Cut="0.0000000000000000e+00" cType="1" res="9.7594974795356393e-04" rms="2.4143196642398834e-01" purity="5.7226735353469849e-01" nType="-99"/>
          <Node pos="r" depth="2" NCoef="0" IVar="-1" Cut="0.0000000000000000e+00" cType="1" res="-6.2850271351635456e-03" rms="2.2161571681499481e-01" purity="7.4739888310432434e-02" nType="-99"/>
        </Node>
        <Node pos="r" depth="1" NCoef="0" IVar="1" Cut="3.3987059593200684e+00" cType="1" res="-4.3255131691694260e-02" rms="1.9145749509334564e-01" purity="2.5662600994110107e-01" nType="0">
          <Node pos="l" depth="2" NCoef="0" IVar="-1" Cut="0.0000000000000000e+00" cType="1" res="-7.2314268909394741e-03" rms="1.2519809603691101e-01" purity="1.2999111413955688e-01" nType="-99"/>
          <Node pos="r" depth="2" NCoef="0" IVar="-1" Cut="0.0000000000000000e+00" cType="1" res="-8.9965021470561624e-04" rms="3.2164904475212097e-01" purity="6.6804873943328857e-01" nType="-99"/>
        </Node>
      </Node>
    </BinaryTree>
    <BinaryTree type="DecisionTree" boostWeight="1.0000000000000000e+00" itree="871">
      <Node pos="s" depth="0" NCoef="0" IVar="53" Cut="1.4075684547424316e+00" cType="1" res="-1.7375373863615096e-04" rms="2.3254452645778656e-01" purity="4.9881991744041443e-01" nType="0">
        <Node pos="l" depth="1" NCoef="0" IVar="12" Cut="1.4397164583206177e+00" cType="1" res="2.0178603008389473e-03" rms="2.3408500850200653e-01" purity="5.0830489397048950e-01" nType="0">
          <Node pos="l" depth="2" NCoef="0" IVar="-1" Cut="0.0000000000000000e+00" cType="1" res="-1.1531290365383029e-03" rms="2.2926224768161774e-01" purity="3.4854581952095032e-01" nType="-99"/>
          <Node pos="r" depth="2" NCoef="0" IVar="-1" Cut="0.0000000000000000e+00" cType="1" res="1.6743132146075368e-03" rms="2.3945742845535278e-01" purity="7.2600132226943970e-01" nType="-99"/>
        </Node>
        <Node pos="r" depth="1" NCoef="0" IVar="-1" Cut="0.0000000000000000e+00" cType="1" res="-1.2911740690469742e-02" rms="1.3037472963333130e-01" purity="1.1558724939823151e-01" nType="-99"/>
      </Node>
    </BinaryTree>
    <BinaryTree type="DecisionTree" boostWeight="1.0000000000000000e+00" itree="872">
      <Node pos="s" depth="0" NCoef="0" IVar="16" Cut="1.4059982299804688e+00" cType="1" res="9.5107161905616522e-04" rms="2.2599913179874420e-01" purity="5.0080466270446777e-01" nType="0">
        <Node pos="l" depth="1" NCoef="0" IVar="65" Cut="6.4021575450897217e-01" cType="1" res="-1.1469336226582527e-02" rms="2.2017389535903931e-01" purity="3.4778591990470886e-01" nType="0">
          <Node pos="l" depth="2" NCoef="0" IVar="-1" Cut="0.0000000000000000e+00" cType="1" res="-1.7041397222783417e-04" rms="2.4309611320495605e-01" purity="4.1467899084091187e-01" nType="-99"/>
          <Node pos="r" depth="2" NCoef="0" IVar="-1" Cut="0.0000000000000000e+00" cType="1" res="-8.5444310680031776e-03" rms="5.8421645313501358e-02" purity="7.6401732861995697e-02" nType="-99"/>
        </Node>
        <Node pos="r" depth="1" NCoef="0" IVar="11" Cut="1.2345679104328156e-02" cType="1" res="1.9127648323774338e-02" rms="2.3307305574417114e-01" purity="7.2473901510238647e-01" nType="0">
          <Node pos="l" depth="2" NCoef="0" IVar="-1" Cut="0.0000000000000000e+00" cType="1" res="3.4239729866385460e-03" rms="2.1071648597717285e-01" purity="7.6337450742721558e-01" nType="-99"/>
          <Node pos="r" depth="2" NCoef="0" IVar="-1" Cut="0.0000000000000000e+00" cType="1" res="-7.3532923124730587e-04" rms="2.5961521267890930e-01" purity="6.6877561807632446e-01" nType="-99"/>
        </Node>
      </Node>
    </BinaryTree>
    <BinaryTree type="DecisionTree" boostWeight="1.0000000000000000e+00" itree="873">
      <Node pos="s" depth="0" NCoef="0" IVar="63" Cut="1.1692770719528198e+00" cType="1" res="-6.5361906308680773e-04" rms="2.3155914247035980e-01" purity="5.0109547376632690e-01" nType="0">
        <Node pos="l" depth="1" NCoef="0" IVar="37" Cut="-1.7954674959182739e+00" cType="1" res="2.6358712930232286e-03" rms="2.3391929268836975e-01" purity="5.1232254505157471e-01" nType="0">
          <Node pos="l" depth="2" NCoef="0" IVar="-1" Cut="0.0000000000000000e+00" cType="1" res="1.3327157357707620e-03" rms="2.3841890692710876e-01" purity="5.6901031732559204e-01" nType="-99"/>
          <Node pos="r" depth="2" NCoef="0" IVar="-1" Cut="0.0000000000000000e+00" cType="1" res="-1.7368466360494494e-03" rms="2.2441513836383820e-01" purity="4.1176271438598633e-01" nType="-99"/>
        </Node>
        <Node pos="r" depth="1" NCoef="0" IVar="45" Cut="1.8011488914489746e+00" cType="1" res="-6.9487266242504120e-02" rms="1.6020798683166504e-01" purity="2.6616528630256653e-01" nType="0">
          <Node pos="l" depth="2" NCoef="0" IVar="-1" Cut="0.0000000000000000e+00" cType="1" res="-1.5453482046723366e-02" rms="0.0000000000000000e+00" purity="3.2442349940538406e-02" nType="-99"/>
          <Node pos="r" depth="2" NCoef="0" IVar="-1" Cut="0.0000000000000000e+00" cType="1" res="-3.8784299977123737e-03" rms="2.6700490713119507e-01" purity="4.9265593290328979e-01" nType="-99"/>
        </Node>
      </Node>
    </BinaryTree>
    <BinaryTree type="DecisionTree" boostWeight="1.0000000000000000e+00" itree="874">
      <Node pos="s" depth="0" NCoef="0" IVar="17" Cut="-8.7398117780685425e-01" cType="1" res="1.2895619729533792e-03" rms="2.2887772321701050e-01" purity="4.9949464201927185e-01" nType="0">
        <Node pos="l" depth="1" NCoef="0" IVar="54" Cut="-1.3832789659500122e-01" cType="1" res="5.3892042487859726e-03" rms="2.3107664287090302e-01" purity="5.1888263225555420e-01" nType="0">
          <Node pos="l" depth="2" NCoef="0" IVar="-1" Cut="0.0000000000000000e+00" cType="1" res="1.2605944648385048e-03" rms="2.2428466379642487e-01" purity="6.0343033075332642e-01" nType="-99"/>
          <Node pos="r" depth="2" NCoef="0" IVar="-1" Cut="0.0000000000000000e+00" cType="1" res="-2.1142771001905203e-03" rms="2.5157576799392700e-01" purity="2.2546915709972382e-01" nType="-99"/>
        </Node>
        <Node pos="r" depth="1" NCoef="0" IVar="2" Cut="1.9097973108291626e+00" cType="1" res="-5.3700767457485199e-02" rms="1.8859793245792389e-01" purity="2.3943501710891724e-01" nType="0">
          <Node pos="l" depth="2" NCoef="0" IVar="-1" Cut="0.0000000000000000e+00" cType="1" res="-1.8130442127585411e-02" rms="0.0000000000000000e+00" purity="4.9953104462474585e-04" nType="-99"/>
          <Node pos="r" depth="2" NCoef="0" IVar="-1" Cut="0.0000000000000000e+00" cType="1" res="-2.9086724389344454e-03" rms="2.9299852252006531e-01" purity="3.9402654767036438e-01" nType="-99"/>
        </Node>
      </Node>
    </BinaryTree>
    <BinaryTree type="DecisionTree" boostWeight="1.0000000000000000e+00" itree="875">
      <Node pos="s" depth="0" NCoef="0" IVar="12" Cut="1.5165817737579346e+00" cType="1" res="-1.3170187594369054e-03" rms="2.2726982831954956e-01" purity="4.9949854612350464e-01" nType="0">
        <Node pos="l" depth="1" NCoef="0" IVar="65" Cut="7.5197696685791016e-01" cType="1" res="-9.4729652628302574e-03" rms="2.2928953170776367e-01" purity="4.1891452670097351e-01" nType="0">
          <Node pos="l" depth="2" NCoef="0" IVar="-1" Cut="0.0000000000000000e+00" cType="1" res="-5.0559896044433117e-04" rms="2.3812203109264374e-01" purity="4.4984546303749084e-01" nType="-99"/>
          <Node pos="r" depth="2" NCoef="0" IVar="-1" Cut="0.0000000000000000e+00" cType="1" res="-7.7023133635520935e-03" rms="9.7676679491996765e-02" purity="1.1296519637107849e-01" nType="-99"/>
        </Node>
        <Node pos="r" depth="1" NCoef="0" IVar="14" Cut="1.5264322757720947e+00" cType="1" res="2.4769123643636703e-02" rms="2.1865275502204895e-01" purity="7.5724005699157715e-01" nType="0">
          <Node pos="l" depth="2" NCoef="0" IVar="-1" Cut="0.0000000000000000e+00" cType="1" res="-1.7131618224084377e-03" rms="2.3471227288246155e-01" purity="5.7424187660217285e-01" nType="-99"/>
          <Node pos="r" depth="2" NCoef="0" IVar="-1" Cut="0.0000000000000000e+00" cType="1" res="3.0864265281707048e-03" rms="2.1442691981792450e-01" purity="7.9192173480987549e-01" nType="-99"/>
        </Node>
      </Node>
    </BinaryTree>
    <BinaryTree type="DecisionTree" boostWeight="1.0000000000000000e+00" itree="876">
      <Node pos="s" depth="0" NCoef="0" IVar="2" Cut="4.9828153848648071e-01" cType="1" res="-8.7879343482200056e-05" rms="2.2663877904415131e-01" purity="4.9911108613014221e-01" nType="0">
        <Node pos="l" depth="1" NCoef="0" IVar="-1" Cut="0.0000000000000000e+00" cType="1" res="-1.0567831806838512e-02" rms="0.0000000000000000e+00" purity="-5.6008014827966690e-02" nType="-99"/>
        <Node pos="r" depth="1" NCoef="0" IVar="45" Cut="8.9712131023406982e-01" cType="1" res="2.0576028618961573e-03" rms="2.3129782080650330e-01" purity="5.1109421253204346e-01" nType="0">
          <Node pos="l" depth="2" NCoef="0" IVar="-1" Cut="0.0000000000000000e+00" cType="1" res="-8.2035455852746964e-03" rms="7.0437923073768616e-02" purity="4.7746568918228149e-02" nType="-99"/>
          <Node pos="r" depth="2" NCoef="0" IVar="-1" Cut="0.0000000000000000e+00" cType="1" res="6.1976048164069653e-04" rms="2.4068887531757355e-01" purity="5.5545753240585327e-01" nType="-99"/>
        </Node>
      </Node>
    </BinaryTree>
    <BinaryTree type="DecisionTree" boostWeight="1.0000000000000000e+00" itree="877">
      <Node pos="s" depth="0" NCoef="0" IVar="34" Cut="1.4480490684509277e+00" cType="1" res="-2.0715079735964537e-03" rms="2.2977745532989502e-01" purity="4.9541631340980530e-01" nType="0">
        <Node pos="l" depth="1" NCoef="0" IVar="36" Cut="1.4463863372802734e+00" cType="1" res="2.1621214691549540e-03" rms="2.3336668312549591e-01" purity="5.3497308492660522e-01" nType="0">
          <Node pos="l" depth="2" NCoef="0" IVar="-1" Cut="0.0000000000000000e+00" cType="1" res="4.9901264719665051e-04" rms="2.3134200274944305e-01" purity="5.4745203256607056e-01" nType="-99"/>
          <Node pos="r" depth="2" NCoef="0" IVar="-1" Cut="0.0000000000000000e+00" cType="1" res="-8.0264257267117500e-03" rms="2.7645000815391541e-01" purity="1.1378831416368484e-01" nType="-99"/>
        </Node>
        <Node pos="r" depth="1" NCoef="0" IVar="36" Cut="1.4473085403442383e+00" cType="1" res="-4.8581741750240326e-02" rms="1.7937512695789337e-01" purity="6.0848955065011978e-02" nType="0">
          <Node pos="l" depth="2" NCoef="0" IVar="-1" Cut="0.0000000000000000e+00" cType="1" res="-1.1917602270841599e-02" rms="1.9877822697162628e-01" purity="9.9435091018676758e-02" nType="-99"/>
          <Node pos="r" depth="2" NCoef="0" IVar="-1" Cut="0.0000000000000000e+00" cType="1" res="-3.7451202515512705e-03" rms="1.6225734353065491e-01" purity="4.3575946241617203e-02" nType="-99"/>
        </Node>
      </Node>
    </BinaryTree>
    <BinaryTree type="DecisionTree" boostWeight="1.0000000000000000e+00" itree="878">
      <Node pos="s" depth="0" NCoef="0" IVar="25" Cut="1.1012653112411499e+00" cType="1" res="-7.0327409775927663e-04" rms="2.2685305774211884e-01" purity="4.9961408972740173e-01" nType="0">
        <Node pos="l" depth="1" NCoef="0" IVar="0" Cut="7.5334024429321289e-01" cType="1" res="-3.9783477783203125e-02" rms="7.8627705574035645e-02" purity="7.8705206513404846e-02" nType="0">
          <Node pos="l" depth="2" NCoef="0" IVar="-1" Cut="0.0000000000000000e+00" cType="1" res="-2.1910611540079117e-03" rms="1.7203931510448456e-01" purity="1.3449572026729584e-01" nType="-99"/>
          <Node pos="r" depth="2" NCoef="0" IVar="-1" Cut="0.0000000000000000e+00" cType="1" res="-1.7230160534381866e-02" rms="0.0000000000000000e+00" purity="-7.6902718283236027e-03" nType="-99"/>
        </Node>
        <Node pos="r" depth="1" NCoef="0" IVar="34" Cut="1.3706684112548828e+00" cType="1" res="5.1143085584044456e-03" rms="2.4071064591407776e-01" purity="5.6227171421051025e-01" nType="0">
          <Node pos="l" depth="2" NCoef="0" IVar="-1" Cut="0.0000000000000000e+00" cType="1" res="9.2603563098236918e-04" rms="2.4185304343700409e-01" purity="6.1632519960403442e-01" nType="-99"/>
          <Node pos="r" depth="2" NCoef="0" IVar="-1" Cut="0.0000000000000000e+00" cType="1" res="-4.0010726079344749e-03" rms="2.2717489302158356e-01" purity="1.1557813733816147e-01" nType="-99"/>
        </Node>
      </Node>
    </BinaryTree>
    <BinaryTree type="DecisionTree" boostWeight="1.0000000000000000e+00" itree="879">
      <Node pos="s" depth="0" NCoef="0" IVar="1" Cut="2.2309510707855225e+00" cType="1" res="8.8527245679870248e-04" rms="2.3120561242103577e-01" purity="5.0035130977630615e-01" nType="0">
        <Node pos="l" depth="1" NCoef="0" IVar="55" Cut="-9.1364985704421997e-01" cType="1" res="-5.8115208521485329e-03" rms="0.0000000000000000e+00" purity="4.3888058513402939e-02" nType="-99"/>
        <Node pos="r" depth="1" NCoef="0" IVar="2" Cut="1.5301370620727539e+00" cType="1" res="7.2204493917524815e-03" rms="2.5491756200790405e-01" purity="5.9577834606170654e-01" nType="0">
          <Node pos="l" depth="2" NCoef="0" IVar="-1" Cut="0.0000000000000000e+00" cType="1" res="-2.7857068926095963e-03" rms="2.3906645178794861e-01" purity="2.5323987007141113e-01" nType="-99"/>
          <Node pos="r" depth="2" NCoef="0" IVar="-1" Cut="0.0000000000000000e+00" cType="1" res="1.2148868991062045e-03" rms="2.5634291768074036e-01" purity="6.3995295763015747e-01" nType="-99"/>
        </Node>
      </Node>
    </BinaryTree>
    <BinaryTree type="DecisionTree" boostWeight="1.0000000000000000e+00" itree="880">
      <Node pos="s" depth="0" NCoef="0" IVar="45" Cut="1.0957996845245361e+00" cType="1" res="1.9503599032759666e-03" rms="2.3281054198741913e-01" purity="5.0134277343750000e-01" nType="0">
        <Node pos="l" depth="1" NCoef="0" IVar="49" Cut="2.9905488491058350e+00" cType="1" res="-3.3375818282365799e-02" rms="9.9444366991519928e-02" purity="7.9025633633136749e-02" nType="0">
          <Node pos="l" depth="2" NCoef="0" IVar="-1" Cut="0.0000000000000000e+00" cType="1" res="-9.3472814187407494e-03" rms="0.0000000000000000e+00" purity="3.9901945739984512e-02" nType="-99"/>
          <Node pos="r" depth="2" NCoef="0" IVar="-1" Cut="0.0000000000000000e+00" cType="1" res="4.1454643942415714e-03" rms="2.2943587601184845e-01" purity="2.4559929966926575e-01" nType="-99"/>
        </Node>
        <Node pos="r" depth="1" NCoef="0" IVar="64" Cut="1.2345679104328156e-02" cType="1" res="7.0873983204364777e-03" rms="2.4583847820758820e-01" purity="5.6275498867034912e-01" nType="0">
          <Node pos="l" depth="2" NCoef="0" IVar="-1" Cut="0.0000000000000000e+00" cType="1" res="9.6265861066058278e-04" rms="2.4483044445514679e-01" purity="5.7250225543975830e-01" nType="-99"/>
          <Node pos="r" depth="2" NCoef="0" IVar="-1" Cut="0.0000000000000000e+00" cType="1" res="-6.7620668560266495e-03" rms="2.5884225964546204e-01" purity="3.3349934220314026e-01" nType="-99"/>
        </Node>
      </Node>
    </BinaryTree>
    <BinaryTree type="DecisionTree" boostWeight="1.0000000000000000e+00" itree="881">
      <Node pos="s" depth="0" NCoef="0" IVar="1" Cut="1.7478921413421631e+00" cType="1" res="3.2781923655420542e-03" rms="2.3456467688083649e-01" purity="5.0200432538986206e-01" nType="0">
        <Node pos="l" depth="1" NCoef="0" IVar="-1" Cut="0.0000000000000000e+00" cType="1" res="-4.0277570486068726e-02" rms="0.0000000000000000e+00" purity="-5.0495311617851257e-02" nType="-99"/>
        <Node pos="r" depth="1" NCoef="0" IVar="64" Cut="1.2345679104328156e-02" cType="1" res="6.0730236582458019e-03" rms="2.4347962439060211e-01" purity="5.2373796701431274e-01" nType="0">
          <Node pos="l" depth="2" NCoef="0" IVar="-1" Cut="0.0000000000000000e+00" cType="1" res="8.6115108570083976e-04" rms="2.4239704012870789e-01" purity="5.3323489427566528e-01" nType="-99"/>
          <Node pos="r" depth="2" NCoef="0" IVar="-1" Cut="0.0000000000000000e+00" cType="1" res="-6.1600706540048122e-03" rms="2.5915867090225220e-01" purity="3.0840536952018738e-01" nType="-99"/>
        </Node>
      </Node>
    </BinaryTree>
    <BinaryTree type="DecisionTree" boostWeight="1.0000000000000000e+00" itree="882">
      <Node pos="s" depth="0" NCoef="0" IVar="37" Cut="-7.2502750158309937e-01" cType="1" res="4.2108204797841609e-04" rms="2.3067645728588104e-01" purity="4.9920484423637390e-01" nType="0">
        <Node pos="l" depth="1" NCoef="0" IVar="2" Cut="1.2441861629486084e+00" cType="1" res="4.0476731956005096e-03" rms="2.3392064869403839e-01" purity="5.1654154062271118e-01" nType="0">
          <Node pos="l" depth="2" NCoef="0" IVar="-1" Cut="0.0000000000000000e+00" cType="1" res="-3.6096740514039993e-03" rms="1.7276039719581604e-01" purity="1.2817868590354919e-01" nType="-99"/>
          <Node pos="r" depth="2" NCoef="0" IVar="-1" Cut="0.0000000000000000e+00" cType="1" res="8.1812596181407571e-04" rms="2.3843850195407867e-01" purity="5.5287230014801025e-01" nType="-99"/>
        </Node>
        <Node pos="r" depth="1" NCoef="0" IVar="45" Cut="1.6676510572433472e+00" cType="1" res="-6.4252935349941254e-02" rms="1.4803835749626160e-01" purity="1.9003520905971527e-01" nType="0">
          <Node pos="l" depth="2" NCoef="0" IVar="-1" Cut="0.0000000000000000e+00" cType="1" res="-2.3739257827401161e-02" rms="0.0000000000000000e+00" purity="-1.9229024648666382e-02" nType="-99"/>
          <Node pos="r" depth="2" NCoef="0" IVar="-1" Cut="0.0000000000000000e+00" cType="1" res="-4.7319149598479271e-03" rms="2.7217310667037964e-01" purity="3.2589349150657654e-01" nType="-99"/>
        </Node>
      </Node>
    </BinaryTree>
    <BinaryTree type="DecisionTree" boostWeight="1.0000000000000000e+00" itree="883">
      <Node pos="s" depth="0" NCoef="0" IVar="33" Cut="1.4074989557266235e+00" cType="1" res="4.2968752677552402e-04" rms="2.3252786695957184e-01" purity="4.9938446283340454e-01" nType="0">
        <Node pos="l" depth="1" NCoef="0" IVar="63" Cut="1.1192259788513184e+00" cType="1" res="2.5389555376023054e-03" rms="2.3482851684093475e-01" purity="5.0867062807083130e-01" nType="0">
          <Node pos="l" depth="2" NCoef="0" IVar="-1" Cut="0.0000000000000000e+00" cType="1" res="6.1730749439448118e-04" rms="2.3703621327877045e-01" purity="5.2103507518768311e-01" nType="-99"/>
          <Node pos="r" depth="2" NCoef="0" IVar="-1" Cut="0.0000000000000000e+00" cType="1" res="-5.0344257615506649e-03" rms="1.9789801537990570e-01" purity="3.4750163555145264e-01" nType="-99"/>
        </Node>
        <Node pos="r" depth="1" NCoef="0" IVar="-1" Cut="0.0000000000000000e+00" cType="1" res="-1.2733074836432934e-02" rms="3.7479165941476822e-02" purity="1.1275140941143036e-01" nType="-99"/>
      </Node>
    </BinaryTree>
    <BinaryTree type="DecisionTree" boostWeight="1.0000000000000000e+00" itree="884">
      <Node pos="s" depth="0" NCoef="0" IVar="14" Cut="-1.4150160551071167e+00" cType="1" res="-3.4304143628105521e-04" rms="2.2948917746543884e-01" purity="4.9988126754760742e-01" nType="0">
        <Node pos="l" depth="1" NCoef="0" IVar="55" Cut="-2.1838711202144623e-01" cType="1" res="-2.0930416882038116e-02" rms="0.0000000000000000e+00" purity="-1.5635343268513680e-02" nType="-99"/>
        <Node pos="r" depth="1" NCoef="0" IVar="9" Cut="2.4304468631744385e+00" cType="1" res="6.7134452983736992e-03" rms="2.6607042551040649e-01" purity="6.3177812099456787e-01" nType="0">
          <Node pos="l" depth="2" NCoef="0" IVar="-1" Cut="0.0000000000000000e+00" cType="1" res="-8.3776619285345078e-03" rms="2.1020299196243286e-01" purity="1.3381913304328918e-01" nType="-99"/>
          <Node pos="r" depth="2" NCoef="0" IVar="-1" Cut="0.0000000000000000e+00" cType="1" res="7.9261185601353645e-04" rms="2.6715520024299622e-01" purity="6.4764875173568726e-01" nType="-99"/>
        </Node>
      </Node>
    </BinaryTree>
    <BinaryTree type="DecisionTree" boostWeight="1.0000000000000000e+00" itree="885">
      <Node pos="s" depth="0" NCoef="0" IVar="2" Cut="4.5976683497428894e-01" cType="1" res="2.9653785168193281e-04" rms="2.3222744464874268e-01" purity="5.0087141990661621e-01" nType="0">
        <Node pos="l" depth="1" NCoef="0" IVar="-1" Cut="0.0000000000000000e+00" cType="1" res="-1.0368413291871548e-02" rms="0.0000000000000000e+00" purity="-5.6993201375007629e-02" nType="-99"/>
        <Node pos="r" depth="1" NCoef="0" IVar="1" Cut="1.8010674715042114e+00" cType="1" res="2.3458355572074652e-03" rms="2.3676210641860962e-01" purity="5.1226145029067993e-01" nType="0">
          <Node pos="l" depth="2" NCoef="0" IVar="-1" Cut="0.0000000000000000e+00" cType="1" res="-2.9297262430191040e-02" rms="0.0000000000000000e+00" purity="-3.6785405129194260e-02" nType="-99"/>
          <Node pos="r" depth="2" NCoef="0" IVar="-1" Cut="0.0000000000000000e+00" cType="1" res="5.4043869022279978e-04" rms="2.4780136346817017e-01" purity="5.4153949022293091e-01" nType="-99"/>
        </Node>
      </Node>
    </BinaryTree>
    <BinaryTree type="DecisionTree" boostWeight="1.0000000000000000e+00" itree="886">
      <Node pos="s" depth="0" NCoef="0" IVar="0" Cut="3.4483304619789124e-01" cType="1" res="-9.5206499099731445e-04" rms="2.3355098068714142e-01" purity="4.9664866924285889e-01" nType="0">
        <Node pos="l" depth="1" NCoef="0" IVar="4" Cut="3.6847369670867920e+00" cType="1" res="1.6147425398230553e-02" rms="2.4583308398723602e-01" purity="5.8395564556121826e-01" nType="0">
          <Node pos="l" depth="2" NCoef="0" IVar="-1" Cut="0.0000000000000000e+00" cType="1" res="3.8319325540214777e-03" rms="2.3517942428588867e-01" purity="6.0826379060745239e-01" nType="-99"/>
          <Node pos="r" depth="2" NCoef="0" IVar="-1" Cut="0.0000000000000000e+00" cType="1" res="-1.7114391084760427e-04" rms="2.5253647565841675e-01" purity="5.6464570760726929e-01" nType="-99"/>
        </Node>
        <Node pos="r" depth="1" NCoef="0" IVar="25" Cut="1.1203368902206421e+00" cType="1" res="-1.1858715675771236e-02" rms="2.2468896210193634e-01" purity="4.4096127152442932e-01" nType="0">
          <Node pos="l" depth="2" NCoef="0" IVar="-1" Cut="0.0000000000000000e+00" cType="1" res="-9.2677138745784760e-03" rms="3.7159737199544907e-02" purity="4.7207206487655640e-02" nType="-99"/>
          <Node pos="r" depth="2" NCoef="0" IVar="-1" Cut="0.0000000000000000e+00" cType="1" res="-4.6769986511208117e-04" rms="2.4416644871234894e-01" purity="5.1672738790512085e-01" nType="-99"/>
        </Node>
      </Node>
    </BinaryTree>
    <BinaryTree type="DecisionTree" boostWeight="1.0000000000000000e+00" itree="887">
      <Node pos="s" depth="0" NCoef="0" IVar="33" Cut="1.4079052209854126e+00" cType="1" res="-1.6055619198596105e-06" rms="2.3046411573886871e-01" purity="5.0331217050552368e-01" nType="0">
        <Node pos="l" depth="1" NCoef="0" IVar="2" Cut="9.0262383222579956e-01" cType="1" res="2.1037505939602852e-03" rms="2.3241102695465088e-01" purity="5.1257997751235962e-01" nType="0">
          <Node pos="l" depth="2" NCoef="0" IVar="-1" Cut="0.0000000000000000e+00" cType="1" res="-6.1696800403296947e-03" rms="0.0000000000000000e+00" purity="2.6178756728768349e-02" nType="-99"/>
          <Node pos="r" depth="2" NCoef="0" IVar="-1" Cut="0.0000000000000000e+00" cType="1" res="5.0930125871673226e-04" rms="2.3769670724868774e-01" purity="5.3432798385620117e-01" nType="-99"/>
        </Node>
        <Node pos="r" depth="1" NCoef="0" IVar="-1" Cut="0.0000000000000000e+00" cType="1" res="-1.2611651793122292e-02" rms="8.6803466081619263e-02" purity="1.1606688797473907e-01" nType="-99"/>
      </Node>
    </BinaryTree>
    <BinaryTree type="DecisionTree" boostWeight="1.0000000000000000e+00" itree="888">
      <Node pos="s" depth="0" NCoef="0" IVar="14" Cut="-1.4537111520767212e+00" cType="1" res="-1.6846456564962864e-03" rms="2.2878557443618774e-01" purity="4.9780327081680298e-01" nType="0">
        <Node pos="l" depth="1" NCoef="0" IVar="13" Cut="-1.4127160608768463e-01" cType="1" res="-2.7613976970314980e-02" rms="0.0000000000000000e+00" purity="-2.1708860993385315e-02" nType="-99"/>
        <Node pos="r" depth="1" NCoef="0" IVar="56" Cut="1.5240936279296875e+00" cType="1" res="5.4215462878346443e-03" rms="2.6393416523933411e-01" purity="6.1737531423568726e-01" nType="0">
          <Node pos="l" depth="2" NCoef="0" IVar="-1" Cut="0.0000000000000000e+00" cType="1" res="7.2680413722991943e-04" rms="2.6567396521568298e-01" purity="6.3915061950683594e-01" nType="-99"/>
          <Node pos="r" depth="2" NCoef="0" IVar="-1" Cut="0.0000000000000000e+00" cType="1" res="-9.5644202083349228e-03" rms="1.9173036515712738e-01" purity="2.7597863227128983e-02" nType="-99"/>
        </Node>
      </Node>
    </BinaryTree>
    <BinaryTree type="DecisionTree" boostWeight="1.0000000000000000e+00" itree="889">
      <Node pos="s" depth="0" NCoef="0" IVar="54" Cut="1.4865821599960327e+00" cType="1" res="-1.4717102749273181e-04" rms="2.2724269330501556e-01" purity="4.9881592392921448e-01" nType="0">
        <Node pos="l" depth="1" NCoef="0" IVar="56" Cut="1.4854199886322021e+00" cType="1" res="3.6815567873418331e-03" rms="2.2985862195491791e-01" purity="5.3017300367355347e-01" nType="0">
          <Node pos="l" depth="2" NCoef="0" IVar="-1" Cut="0.0000000000000000e+00" cType="1" res="6.3921103719621897e-04" rms="2.2918693721294403e-01" purity="5.4376500844955444e-01" nType="-99"/>
          <Node pos="r" depth="2" NCoef="0" IVar="-1" Cut="0.0000000000000000e+00" cType="1" res="-9.2365620657801628e-03" rms="2.3289529979228973e-01" purity="5.9171479195356369e-02" nType="-99"/>
        </Node>
        <Node pos="r" depth="1" NCoef="0" IVar="56" Cut="1.4846016168594360e+00" cType="1" res="-5.4754853248596191e-02" rms="1.7718276381492615e-01" purity="5.1580928266048431e-02" nType="0">
          <Node pos="l" depth="2" NCoef="0" IVar="-1" Cut="0.0000000000000000e+00" cType="1" res="-1.2625559233129025e-02" rms="2.0242354273796082e-01" purity="7.6672799885272980e-02" nType="-99"/>
          <Node pos="r" depth="2" NCoef="0" IVar="-1" Cut="0.0000000000000000e+00" cType="1" res="-3.8229199126362801e-03" rms="1.4939115941524506e-01" purity="3.7309870123863220e-02" nType="-99"/>
        </Node>
      </Node>
    </BinaryTree>
    <BinaryTree type="DecisionTree" boostWeight="1.0000000000000000e+00" itree="890">
      <Node pos="s" depth="0" NCoef="0" IVar="2" Cut="5.5746024847030640e-01" cType="1" res="-1.8156355945393443e-03" rms="2.3007780313491821e-01" purity="4.9845752120018005e-01" nType="0">
        <Node pos="l" depth="1" NCoef="0" IVar="-1" Cut="0.0000000000000000e+00" cType="1" res="-9.9217435345053673e-03" rms="0.0000000000000000e+00" purity="-5.0405640155076981e-02" nType="-99"/>
        <Node pos="r" depth="1" NCoef="0" IVar="53" Cut="1.4083480834960938e+00" cType="1" res="2.5570145226083696e-04" rms="2.3506677150726318e-01" purity="5.1164937019348145e-01" nType="0">
          <Node pos="l" depth="2" NCoef="0" IVar="-1" Cut="0.0000000000000000e+00" cType="1" res="2.2929122496861964e-04" rms="2.3680230975151062e-01" purity="5.2109998464584351e-01" nType="-99"/>
          <Node pos="r" depth="2" NCoef="0" IVar="-1" Cut="0.0000000000000000e+00" cType="1" res="-1.2515216134488583e-02" rms="1.1866452544927597e-01" purity="1.1836324632167816e-01" nType="-99"/>
        </Node>
      </Node>
    </BinaryTree>
    <BinaryTree type="DecisionTree" boostWeight="1.0000000000000000e+00" itree="891">
      <Node pos="s" depth="0" NCoef="0" IVar="1" Cut="3.8050596714019775e+00" cType="1" res="7.4069079710170627e-04" rms="2.3345662653446198e-01" purity="4.9716672301292419e-01" nType="0">
        <Node pos="l" depth="1" NCoef="0" IVar="40" Cut="6.2485057860612869e-02" cType="1" res="-5.5510224774479866e-03" rms="2.3786325752735138e-01" purity="4.2890951037406921e-01" nType="0">
          <Node pos="l" depth="2" NCoef="0" IVar="-1" Cut="0.0000000000000000e+00" cType="1" res="2.2581861412618309e-04" rms="2.4900102615356445e-01" purity="4.4995900988578796e-01" nType="-99"/>
          <Node pos="r" depth="2" NCoef="0" IVar="-1" Cut="0.0000000000000000e+00" cType="1" res="-3.4684056881815195e-03" rms="1.9444006681442261e-01" purity="3.5942283272743225e-01" nType="-99"/>
        </Node>
        <Node pos="r" depth="1" NCoef="0" IVar="3" Cut="5.0954475402832031e+00" cType="1" res="3.4795213490724564e-02" rms="2.0466166734695435e-01" purity="8.6661559343338013e-01" nType="0">
          <Node pos="l" depth="2" NCoef="0" IVar="-1" Cut="0.0000000000000000e+00" cType="1" res="5.7092676870524883e-03" rms="1.6874413192272186e-01" purity="8.8038122653961182e-01" nType="-99"/>
          <Node pos="r" depth="2" NCoef="0" IVar="-1" Cut="0.0000000000000000e+00" cType="1" res="-9.9647359456866980e-04" rms="3.0905446410179138e-01" purity="8.0880796909332275e-01" nType="-99"/>
        </Node>
      </Node>
    </BinaryTree>
    <BinaryTree type="DecisionTree" boostWeight="1.0000000000000000e+00" itree="892">
      <Node pos="s" depth="0" NCoef="0" IVar="2" Cut="4.9828153848648071e-01" cType="1" res="-8.4326288197189569e-04" rms="2.2791863977909088e-01" purity="5.0049448013305664e-01" nType="0">
        <Node pos="l" depth="1" NCoef="0" IVar="-1" Cut="0.0000000000000000e+00" cType="1" res="-1.3738178648054600e-02" rms="0.0000000000000000e+00" purity="-8.5326828062534332e-02" nType="-99"/>
        <Node pos="r" depth="1" NCoef="0" IVar="25" Cut="1.0606837272644043e+00" cType="1" res="1.7141968710348010e-03" rms="2.3354473710060120e-01" purity="5.1269632577896118e-01" nType="0">
          <Node pos="l" depth="2" NCoef="0" IVar="-1" Cut="0.0000000000000000e+00" cType="1" res="-6.2615610659122467e-03" rms="1.0693334043025970e-01" purity="7.4740357697010040e-02" nType="-99"/>
          <Node pos="r" depth="2" NCoef="0" IVar="-1" Cut="0.0000000000000000e+00" cType="1" res="6.9248222280293703e-04" rms="2.4522852897644043e-01" purity="5.7202225923538208e-01" nType="-99"/>
        </Node>
      </Node>
    </BinaryTree>
    <BinaryTree type="DecisionTree" boostWeight="1.0000000000000000e+00" itree="893">
      <Node pos="s" depth="0" NCoef="0" IVar="17" Cut="-7.5484931468963623e-01" cType="1" res="3.6036240635439754e-04" rms="2.3204085230827332e-01" purity="4.9939996004104614e-01" nType="0">
        <Node pos="l" depth="1" NCoef="0" IVar="56" Cut="1.5240936279296875e+00" cType="1" res="3.4970575943589211e-03" rms="2.3463001847267151e-01" purity="5.1387798786163330e-01" nType="0">
          <Node pos="l" depth="2" NCoef="0" IVar="-1" Cut="0.0000000000000000e+00" cType="1" res="6.3855375628918409e-04" rms="2.3678733408451080e-01" purity="5.3321087360382080e-01" nType="-99"/>
          <Node pos="r" depth="2" NCoef="0" IVar="-1" Cut="0.0000000000000000e+00" cType="1" res="-1.0497950017452240e-02" rms="1.5209363400936127e-01" purity="1.5216144733130932e-02" nType="-99"/>
        </Node>
        <Node pos="r" depth="1" NCoef="0" IVar="5" Cut="1.8626002073287964e+00" cType="1" res="-6.0926970094442368e-02" rms="1.6212967038154602e-01" purity="2.1651665866374969e-01" nType="0">
          <Node pos="l" depth="2" NCoef="0" IVar="-1" Cut="0.0000000000000000e+00" cType="1" res="-1.5306799672544003e-02" rms="0.0000000000000000e+00" purity="4.2373690754175186e-02" nType="-99"/>
          <Node pos="r" depth="2" NCoef="0" IVar="-1" Cut="0.0000000000000000e+00" cType="1" res="-2.5412619579583406e-03" rms="2.9645031690597534e-01" purity="4.3093010783195496e-01" nType="-99"/>
        </Node>
      </Node>
    </BinaryTree>
    <BinaryTree type="DecisionTree" boostWeight="1.0000000000000000e+00" itree="894">
      <Node pos="s" depth="0" NCoef="0" IVar="38" Cut="1.4091923236846924e+00" cType="1" res="-2.2452388657256961e-04" rms="2.2857174277305603e-01" purity="4.9811154603958130e-01" nType="0">
        <Node pos="l" depth="1" NCoef="0" IVar="36" Cut="1.4858274459838867e+00" cType="1" res="3.0067246407270432e-03" rms="2.2879637777805328e-01" purity="5.0974935293197632e-01" nType="0">
          <Node pos="l" depth="2" NCoef="0" IVar="-1" Cut="0.0000000000000000e+00" cType="1" res="6.9046835415065289e-04" rms="2.3037230968475342e-01" purity="5.4254472255706787e-01" nType="-99"/>
          <Node pos="r" depth="2" NCoef="0" IVar="-1" Cut="0.0000000000000000e+00" cType="1" res="-7.3962998576462269e-03" rms="1.9704543054103851e-01" purity="4.3434776365756989e-02" nType="-99"/>
        </Node>
        <Node pos="r" depth="1" NCoef="0" IVar="33" Cut="-1.3766505718231201e+00" cType="1" res="-6.6057845950126648e-02" rms="2.1355351805686951e-01" purity="2.6100310683250427e-01" nType="0">
          <Node pos="l" depth="2" NCoef="0" IVar="-1" Cut="0.0000000000000000e+00" cType="1" res="-4.0605077520012856e-03" rms="2.3795951902866364e-01" purity="3.7112912535667419e-01" nType="-99"/>
          <Node pos="r" depth="2" NCoef="0" IVar="-1" Cut="0.0000000000000000e+00" cType="1" res="-1.1537963524460793e-02" rms="1.8756401538848877e-01" purity="1.7036649584770203e-01" nType="-99"/>
        </Node>
      </Node>
    </BinaryTree>
    <BinaryTree type="DecisionTree" boostWeight="1.0000000000000000e+00" itree="895">
      <Node pos="s" depth="0" NCoef="0" IVar="2" Cut="4.9828153848648071e-01" cType="1" res="1.0341539746150374e-03" rms="2.3262092471122742e-01" purity="5.0077056884765625e-01" nType="0">
        <Node pos="l" depth="1" NCoef="0" IVar="-1" Cut="0.0000000000000000e+00" cType="1" res="-1.0554019361734390e-02" rms="0.0000000000000000e+00" purity="-5.5877767503261566e-02" nType="-99"/>
        <Node pos="r" depth="1" NCoef="0" IVar="64" Cut="1.2345679104328156e-02" cType="1" res="3.0520295258611441e-03" rms="2.3711912333965302e-01" purity="5.1231038570404053e-01" nType="0">
          <Node pos="l" depth="2" NCoef="0" IVar="-1" Cut="0.0000000000000000e+00" cType="1" res="6.0376705368980765e-04" rms="2.3678626120090485e-01" purity="5.2313846349716187e-01" nType="-99"/>
          <Node pos="r" depth="2" NCoef="0" IVar="-1" Cut="0.0000000000000000e+00" cType="1" res="-6.9976085796952248e-03" rms="2.3558519780635834e-01" purity="2.7512559294700623e-01" nType="-99"/>
        </Node>
      </Node>
    </BinaryTree>
    <BinaryTree type="DecisionTree" boostWeight="1.0000000000000000e+00" itree="896">
      <Node pos="s" depth="0" NCoef="0" IVar="53" Cut="1.3302342891693115e+00" cType="1" res="-3.4329903428442776e-04" rms="2.2856491804122925e-01" purity="4.9861246347427368e-01" nType="0">
        <Node pos="l" depth="1" NCoef="0" IVar="44" Cut="1.2345679104328156e-02" cType="1" res="2.5191020686179399e-03" rms="2.3202678561210632e-01" purity="5.1082915067672729e-01" nType="0">
          <Node pos="l" depth="2" NCoef="0" IVar="-1" Cut="0.0000000000000000e+00" cType="1" res="5.8417156105861068e-04" rms="2.2995996475219727e-01" purity="5.2238297462463379e-01" nType="-99"/>
          <Node pos="r" depth="2" NCoef="0" IVar="-1" Cut="0.0000000000000000e+00" cType="1" res="-6.8444595672190189e-03" rms="2.6147878170013428e-01" purity="2.8261050581932068e-01" nType="-99"/>
        </Node>
        <Node pos="r" depth="1" NCoef="0" IVar="-1" Cut="0.0000000000000000e+00" cType="1" res="-1.1100545525550842e-02" rms="4.9222487956285477e-02" purity="1.6534222662448883e-01" nType="-99"/>
      </Node>
    </BinaryTree>
    <BinaryTree type="DecisionTree" boostWeight="1.0000000000000000e+00" itree="897">
      <Node pos="s" depth="0" NCoef="0" IVar="57" Cut="-8.7760257720947266e-01" cType="1" res="1.1318883625790477e-03" rms="2.3301516473293304e-01" purity="4.9953976273536682e-01" nType="0">
        <Node pos="l" depth="1" NCoef="0" IVar="54" Cut="1.3705623149871826e+00" cType="1" res="5.1401322707533836e-03" rms="2.3574955761432648e-01" purity="5.2394604682922363e-01" nType="0">
          <Node pos="l" depth="2" NCoef="0" IVar="-1" Cut="0.0000000000000000e+00" cType="1" res="9.9891389254480600e-04" rms="2.3699595034122467e-01" purity="5.7396638393402100e-01" nType="-99"/>
          <Node pos="r" depth="2" NCoef="0" IVar="-1" Cut="0.0000000000000000e+00" cType="1" res="-4.8699975013732910e-03" rms="2.2018828988075256e-01" purity="9.8747774958610535e-02" nType="-99"/>
        </Node>
        <Node pos="r" depth="1" NCoef="0" IVar="55" Cut="-2.5863030552864075e-01" cType="1" res="-4.3430667370557785e-02" rms="1.9463059306144714e-01" purity="2.2819690406322479e-01" nType="0">
          <Node pos="l" depth="2" NCoef="0" IVar="-1" Cut="0.0000000000000000e+00" cType="1" res="-2.5791809894144535e-03" rms="2.4040296673774719e-01" purity="2.8508171439170837e-01" nType="-99"/>
          <Node pos="r" depth="2" NCoef="0" IVar="-1" Cut="0.0000000000000000e+00" cType="1" res="-1.0312583297491074e-02" rms="8.4943391382694244e-02" purity="1.4560702443122864e-01" nType="-99"/>
        </Node>
      </Node>
    </BinaryTree>
    <BinaryTree type="DecisionTree" boostWeight="1.0000000000000000e+00" itree="898">
      <Node pos="s" depth="0" NCoef="0" IVar="56" Cut="-1.4537900686264038e+00" cType="1" res="5.0549872685223818e-04" rms="2.3322664201259613e-01" purity="5.0115686655044556e-01" nType="0">
        <Node pos="l" depth="1" NCoef="0" IVar="2" Cut="8.2978957891464233e-01" cType="1" res="1.0685429908335209e-02" rms="2.3220600187778473e-01" purity="6.1655873060226440e-01" nType="0">
          <Node pos="l" depth="2" NCoef="0" IVar="-1" Cut="0.0000000000000000e+00" cType="1" res="-5.0268587656319141e-03" rms="0.0000000000000000e+00" purity="4.2466271668672562e-02" nType="-99"/>
          <Node pos="r" depth="2" NCoef="0" IVar="-1" Cut="0.0000000000000000e+00" cType="1" res="1.3665794394910336e-03" rms="2.3571699857711792e-01" purity="6.3622021675109863e-01" nType="-99"/>
        </Node>
        <Node pos="r" depth="1" NCoef="0" IVar="49" Cut="3.4703288078308105e+00" cType="1" res="-1.9645186141133308e-02" rms="2.3393121361732483e-01" purity="2.7272439002990723e-01" nType="0">
          <Node pos="l" depth="2" NCoef="0" IVar="-1" Cut="0.0000000000000000e+00" cType="1" res="-1.1856163619086146e-03" rms="2.2667042911052704e-01" purity="2.7879801392555237e-01" nType="-99"/>
          <Node pos="r" depth="2" NCoef="0" IVar="-1" Cut="0.0000000000000000e+00" cType="1" res="-5.1414221525192261e-03" rms="2.5834143161773682e-01" purity="2.4768865108489990e-01" nType="-99"/>
        </Node>
      </Node>
    </BinaryTree>
    <BinaryTree type="DecisionTree" boostWeight="1.0000000000000000e+00" itree="899">
      <Node pos="s" depth="0" NCoef="0" IVar="2" Cut="4.9828153848648071e-01" cType="1" res="-2.5667874142527580e-03" rms="2.3135967552661896e-01" purity="4.9829363822937012e-01" nType="0">
        <Node pos="l" depth="1" NCoef="0" IVar="-1" Cut="0.0000000000000000e+00" cType="1" res="-1.1548067443072796e-02" rms="0.0000000000000000e+00" purity="-6.4615406095981598e-02" nType="-99"/>
        <Node pos="r" depth="1" NCoef="0" IVar="0" Cut="1.1904172897338867e+00" cType="1" res="-5.2467733621597290e-04" rms="2.3602084815502167e-01" purity="5.0988066196441650e-01" nType="0">
          <Node pos="l" depth="2" NCoef="0" IVar="-1" Cut="0.0000000000000000e+00" cType="1" res="2.3433491878677160e-04" rms="2.3565882444381714e-01" purity="5.1828140020370483e-01" nType="-99"/>
          <Node pos="r" depth="2" NCoef="0" IVar="-1" Cut="0.0000000000000000e+00" cType="1" res="-8.2523003220558167e-03" rms="2.3347139358520508e-01" purity="2.9049983620643616e-01" nType="-99"/>
        </Node>
      </Node>
    </BinaryTree>
    <BinaryTree type="DecisionTree" boostWeight="1.0000000000000000e+00" itree="900">
      <Node pos="s" depth="0" NCoef="0" IVar="57" Cut="-7.3053413629531860e-01" cType="1" res="-1.2268197315279394e-04" rms="2.3085261881351471e-01" purity="4.9810439348220825e-01" nType="0">
        <Node pos="l" depth="1" NCoef="0" IVar="54" Cut="1.4855325222015381e+00" cType="1" res="3.0998103320598602e-03" rms="2.3300318419933319e-01" purity="5.1584887504577637e-01" nType="0">
          <Node pos="l" depth="2" NCoef="0" IVar="-1" Cut="0.0000000000000000e+00" cType="1" res="6.9586705649271607e-04" rms="2.3521043360233307e-01" purity="5.4851585626602173e-01" nType="-99"/>
          <Node pos="r" depth="2" NCoef="0" IVar="-1" Cut="0.0000000000000000e+00" cType="1" res="-7.8307939693331718e-03" rms="1.9128583371639252e-01" purity="5.9461958706378937e-02" nType="-99"/>
        </Node>
        <Node pos="r" depth="1" NCoef="0" IVar="0" Cut="7.4322241544723511e-01" cType="1" res="-5.5689781904220581e-02" rms="1.8117640912532806e-01" purity="1.9212724268436432e-01" nType="0">
          <Node pos="l" depth="2" NCoef="0" IVar="-1" Cut="0.0000000000000000e+00" cType="1" res="-8.9260507375001907e-03" rms="1.8433886766433716e-01" purity="2.1939650177955627e-01" nType="-99"/>
          <Node pos="r" depth="2" NCoef="0" IVar="-1" Cut="0.0000000000000000e+00" cType="1" res="-4.6266452409327030e-03" rms="1.7243412137031555e-01" purity="1.4705148339271545e-01" nType="-99"/>
        </Node>
      </Node>
    </BinaryTree>
    <BinaryTree type="DecisionTree" boostWeight="1.0000000000000000e+00" itree="901">
      <Node pos="s" depth="0" NCoef="0" IVar="0" Cut="5.4542171955108643e-01" cType="1" res="-5.0634628860279918e-04" rms="2.3116274178028107e-01" purity="5.0110697746276855e-01" nType="0">
        <Node pos="l" depth="1" NCoef="0" IVar="4" Cut="3.6752123832702637e+00" cType="1" res="1.2846997939050198e-02" rms="2.4089185893535614e-01" purity="5.7407480478286743e-01" nType="0">
          <Node pos="l" depth="2" NCoef="0" IVar="-1" Cut="0.0000000000000000e+00" cType="1" res="3.7491626571863890e-03" rms="2.3722532391548157e-01" purity="5.8866226673126221e-01" nType="-99"/>
          <Node pos="r" depth="2" NCoef="0" IVar="-1" Cut="0.0000000000000000e+00" cType="1" res="-4.8416858771815896e-04" rms="2.4210436642169952e-01" purity="5.6296783685684204e-01" nType="-99"/>
        </Node>
        <Node pos="r" depth="1" NCoef="0" IVar="25" Cut="1.1491503715515137e+00" cType="1" res="-1.7289640381932259e-02" rms="2.1715909242630005e-01" purity="4.0939652919769287e-01" nType="0">
          <Node pos="l" depth="2" NCoef="0" IVar="-1" Cut="0.0000000000000000e+00" cType="1" res="-1.2934028171002865e-02" rms="0.0000000000000000e+00" purity="2.0045859739184380e-02" nType="-99"/>
          <Node pos="r" depth="2" NCoef="0" IVar="-1" Cut="0.0000000000000000e+00" cType="1" res="-7.0920347934588790e-04" rms="2.4398060142993927e-01" purity="4.9615737795829773e-01" nType="-99"/>
        </Node>
      </Node>
    </BinaryTree>
    <BinaryTree type="DecisionTree" boostWeight="1.0000000000000000e+00" itree="902">
      <Node pos="s" depth="0" NCoef="0" IVar="52" Cut="-1.5312105417251587e+00" cType="1" res="-3.0734913889318705e-04" rms="2.3050172626972198e-01" purity="5.0037831068038940e-01" nType="0">
        <Node pos="l" depth="1" NCoef="0" IVar="27" Cut="-1.4155658483505249e+00" cType="1" res="1.7528152093291283e-02" rms="2.2072055935859680e-01" purity="6.8745440244674683e-01" nType="0">
          <Node pos="l" depth="2" NCoef="0" IVar="-1" Cut="0.0000000000000000e+00" cType="1" res="2.3115104995667934e-03" rms="2.1509997546672821e-01" purity="6.9572502374649048e-01" nType="-99"/>
          <Node pos="r" depth="2" NCoef="0" IVar="-1" Cut="0.0000000000000000e+00" cType="1" res="-5.5899899452924728e-03" rms="2.8869459033012390e-01" purity="5.5047881603240967e-01" nType="-99"/>
        </Node>
        <Node pos="r" depth="1" NCoef="0" IVar="37" Cut="-8.1426805257797241e-01" cType="1" res="-1.1954542249441147e-02" rms="2.3594450950622559e-01" purity="3.7821117043495178e-01" nType="0">
          <Node pos="l" depth="2" NCoef="0" IVar="-1" Cut="0.0000000000000000e+00" cType="1" res="-6.7351700272411108e-04" rms="2.4513626098632812e-01" purity="4.0089735388755798e-01" nType="-99"/>
          <Node pos="r" depth="2" NCoef="0" IVar="-1" Cut="0.0000000000000000e+00" cType="1" res="-1.0382666252553463e-02" rms="5.0413765013217926e-02" purity="1.2399227917194366e-01" nType="-99"/>
        </Node>
      </Node>
    </BinaryTree>
    <BinaryTree type="DecisionTree" boostWeight="1.0000000000000000e+00" itree="903">
      <Node pos="s" depth="0" NCoef="0" IVar="25" Cut="7.5997853279113770e-01" cType="1" res="9.1200845781713724e-04" rms="2.3003745079040527e-01" purity="5.0313514471054077e-01" nType="0">
        <Node pos="l" depth="1" NCoef="0" IVar="12" Cut="-1.1454380750656128e+00" cType="1" res="-1.2213939800858498e-02" rms="0.0000000000000000e+00" purity="2.2328142076730728e-02" nType="-99"/>
        <Node pos="r" depth="1" NCoef="0" IVar="44" Cut="1.2345679104328156e-02" cType="1" res="4.1141309775412083e-03" rms="2.3677124083042145e-01" purity="5.2776384353637695e-01" nType="0">
          <Node pos="l" depth="2" NCoef="0" IVar="-1" Cut="0.0000000000000000e+00" cType="1" res="7.2908471338450909e-04" rms="2.3526491224765778e-01" purity="5.4016005992889404e-01" nType="-99"/>
          <Node pos="r" depth="2" NCoef="0" IVar="-1" Cut="0.0000000000000000e+00" cType="1" res="-6.3626016490161419e-03" rms="2.5635385513305664e-01" purity="2.8683206439018250e-01" nType="-99"/>
        </Node>
      </Node>
    </BinaryTree>
    <BinaryTree type="DecisionTree" boostWeight="1.0000000000000000e+00" itree="904">
      <Node pos="s" depth="0" NCoef="0" IVar="1" Cut="1.8121742010116577e+00" cType="1" res="3.8978511001914740e-03" rms="2.3156671226024628e-01" purity="5.0204950571060181e-01" nType="0">
        <Node pos="l" depth="1" NCoef="0" IVar="45" Cut="1.1198991537094116e+00" cType="1" res="-3.1382523477077484e-02" rms="0.0000000000000000e+00" purity="-3.7200693041086197e-02" nType="-99"/>
        <Node pos="r" depth="1" NCoef="0" IVar="56" Cut="1.5237022638320923e+00" cType="1" res="7.3314514011144638e-03" rms="2.4331921339035034e-01" purity="5.3244411945343018e-01" nType="0">
          <Node pos="l" depth="2" NCoef="0" IVar="-1" Cut="0.0000000000000000e+00" cType="1" res="9.8089838866144419e-04" rms="2.4552147090435028e-01" purity="5.5303651094436646e-01" nType="-99"/>
          <Node pos="r" depth="2" NCoef="0" IVar="-1" Cut="0.0000000000000000e+00" cType="1" res="-9.8217399790883064e-03" rms="1.6503006219863892e-01" purity="1.8031524494290352e-02" nType="-99"/>
        </Node>
      </Node>
    </BinaryTree>
    <BinaryTree type="DecisionTree" boostWeight="1.0000000000000000e+00" itree="905">
      <Node pos="s" depth="0" NCoef="0" IVar="63" Cut="1.1957968473434448e+00" cType="1" res="4.0201886440627277e-04" rms="2.3165953159332275e-01" purity="5.0006973743438721e-01" nType="0">
        <Node pos="l" depth="1" NCoef="0" IVar="58" Cut="1.4367785453796387e+00" cType="1" res="3.1758323311805725e-03" rms="2.3427683115005493e-01" purity="5.1002323627471924e-01" nType="0">
          <Node pos="l" depth="2" NCoef="0" IVar="-1" Cut="0.0000000000000000e+00" cType="1" res="6.0216849669814110e-04" rms="2.3498612642288208e-01" purity="5.2043855190277100e-01" nType="-99"/>
          <Node pos="r" depth="2" NCoef="0" IVar="-1" Cut="0.0000000000000000e+00" cType="1" res="-7.3363943956792355e-03" rms="2.0639552175998688e-01" purity="2.6295709609985352e-01" nType="-99"/>
        </Node>
        <Node pos="r" depth="1" NCoef="0" IVar="-1" Cut="0.0000000000000000e+00" cType="1" res="-8.3730667829513550e-03" rms="1.2836749851703644e-01" purity="2.4079224467277527e-01" nType="-99"/>
      </Node>
    </BinaryTree>
    <BinaryTree type="DecisionTree" boostWeight="1.0000000000000000e+00" itree="906">
      <Node pos="s" depth="0" NCoef="0" IVar="33" Cut="1.4079052209854126e+00" cType="1" res="2.1126812789589167e-03" rms="2.3192501068115234e-01" purity="5.0182998180389404e-01" nType="0">
        <Node pos="l" depth="1" NCoef="0" IVar="14" Cut="-1.4537111520767212e+00" cType="1" res="4.1464371606707573e-03" rms="2.3331570625305176e-01" purity="5.1065069437026978e-01" nType="0">
          <Node pos="l" depth="2" NCoef="0" IVar="-1" Cut="0.0000000000000000e+00" cType="1" res="-2.0141754299402237e-02" rms="0.0000000000000000e+00" purity="-1.2678072787821293e-02" nType="-99"/>
          <Node pos="r" depth="2" NCoef="0" IVar="-1" Cut="0.0000000000000000e+00" cType="1" res="8.7787583470344543e-04" rms="2.6456838846206665e-01" purity="6.2945985794067383e-01" nType="-99"/>
        </Node>
        <Node pos="r" depth="1" NCoef="0" IVar="-1" Cut="0.0000000000000000e+00" cType="1" res="-1.1658093892037868e-02" rms="1.3955307006835938e-01" purity="1.3427601754665375e-01" nType="-99"/>
      </Node>
    </BinaryTree>
    <BinaryTree type="DecisionTree" boostWeight="1.0000000000000000e+00" itree="907">
      <Node pos="s" depth="0" NCoef="0" IVar="32" Cut="-1.5312128067016602e+00" cType="1" res="-2.1698416676372290e-03" rms="2.2868935763835907e-01" purity="4.9809095263481140e-01" nType="0">
        <Node pos="l" depth="1" NCoef="0" IVar="54" Cut="1.4851285219192505e+00" cType="1" res="1.4344314113259315e-02" rms="2.1929965913295746e-01" purity="6.8113082647323608e-01" nType="0">
          <Node pos="l" depth="2" NCoef="0" IVar="-1" Cut="0.0000000000000000e+00" cType="1" res="1.9988552667200565e-03" rms="2.1446885168552399e-01" purity="7.1751987934112549e-01" nType="-99"/>
          <Node pos="r" depth="2" NCoef="0" IVar="-1" Cut="0.0000000000000000e+00" cType="1" res="-6.9675552658736706e-03" rms="2.7487617731094360e-01" purity="9.4689413905143738e-02" nType="-99"/>
        </Node>
        <Node pos="r" depth="1" NCoef="0" IVar="1" Cut="2.0052487850189209e+00" cType="1" res="-1.3011423870921135e-02" rms="2.3401668667793274e-01" purity="3.7792494893074036e-01" nType="0">
          <Node pos="l" depth="2" NCoef="0" IVar="-1" Cut="0.0000000000000000e+00" cType="1" res="-2.3450598120689392e-02" rms="0.0000000000000000e+00" purity="-2.7200991287827492e-02" nType="-99"/>
          <Node pos="r" depth="2" NCoef="0" IVar="-1" Cut="0.0000000000000000e+00" cType="1" res="-6.7730812588706613e-04" rms="2.6267862319946289e-01" purity="4.3988072872161865e-01" nType="-99"/>
        </Node>
      </Node>
    </BinaryTree>
    <BinaryTree type="DecisionTree" boostWeight="1.0000000000000000e+00" itree="908">
      <Node pos="s" depth="0" NCoef="0" IVar="53" Cut="1.4075684547424316e+00" cType="1" res="1.1264408240094781e-03" rms="2.2988720238208771e-01" purity="4.9852630496025085e-01" nType="0">
        <Node pos="l" depth="1" NCoef="0" IVar="36" Cut="1.5243083238601685e+00" cType="1" res="3.3434301149100065e-03" rms="2.3205544054508209e-01" purity="5.0779438018798828e-01" nType="0">
          <Node pos="l" depth="2" NCoef="0" IVar="-1" Cut="0.0000000000000000e+00" cType="1" res="6.2434177380055189e-04" rms="2.3343929648399353e-01" purity="5.2708691358566284e-01" nType="-99"/>
          <Node pos="r" depth="2" NCoef="0" IVar="-1" Cut="0.0000000000000000e+00" cType="1" res="-9.2841880396008492e-03" rms="1.8119852244853973e-01" purity="2.9339838773012161e-02" nType="-99"/>
        </Node>
        <Node pos="r" depth="1" NCoef="0" IVar="-1" Cut="0.0000000000000000e+00" cType="1" res="-1.3865849934518337e-02" rms="5.2178401499986649e-02" purity="1.1461979150772095e-01" nType="-99"/>
      </Node>
    </BinaryTree>
    <BinaryTree type="DecisionTree" boostWeight="1.0000000000000000e+00" itree="909">
      <Node pos="s" depth="0" NCoef="0" IVar="37" Cut="-7.2387087345123291e-01" cType="1" res="1.5868496848270297e-03" rms="2.3226302862167358e-01" purity="5.0092023611068726e-01" nType="0">
        <Node pos="l" depth="1" NCoef="0" IVar="36" Cut="1.5245062112808228e+00" cType="1" res="4.8216553404927254e-03" rms="2.3510241508483887e-01" purity="5.1752978563308716e-01" nType="0">
          <Node pos="l" depth="2" NCoef="0" IVar="-1" Cut="0.0000000000000000e+00" cType="1" res="7.8087730798870325e-04" rms="2.3686347901821136e-01" purity="5.3714954853057861e-01" nType="-99"/>
          <Node pos="r" depth="2" NCoef="0" IVar="-1" Cut="0.0000000000000000e+00" cType="1" res="-9.5848627388477325e-03" rms="1.7002904415130615e-01" purity="2.3660887032747269e-02" nType="-99"/>
        </Node>
        <Node pos="r" depth="1" NCoef="0" IVar="32" Cut="-1.4157682657241821e+00" cType="1" res="-5.7073123753070831e-02" rms="1.6202153265476227e-01" purity="1.9972282648086548e-01" nType="0">
          <Node pos="l" depth="2" NCoef="0" IVar="-1" Cut="0.0000000000000000e+00" cType="1" res="-3.0813687480986118e-03" rms="2.4826081097126007e-01" purity="3.7125000357627869e-01" nType="-99"/>
          <Node pos="r" depth="2" NCoef="0" IVar="-1" Cut="0.0000000000000000e+00" cType="1" res="-1.2360150925815105e-02" rms="3.6124184727668762e-02" purity="8.2997925579547882e-02" nType="-99"/>
        </Node>
      </Node>
    </BinaryTree>
    <BinaryTree type="DecisionTree" boostWeight="1.0000000000000000e+00" itree="910">
      <Node pos="s" depth="0" NCoef="0" IVar="14" Cut="1.4865543842315674e+00" cType="1" res="-2.2063459618948400e-04" rms="2.3133666813373566e-01" purity="4.9991926550865173e-01" nType="0">
        <Node pos="l" depth="1" NCoef="0" IVar="65" Cut="7.2948127985000610e-01" cType="1" res="-1.3818995095789433e-02" rms="2.1361795067787170e-01" purity="2.3992827534675598e-01" nType="0">
          <Node pos="l" depth="2" NCoef="0" IVar="-1" Cut="0.0000000000000000e+00" cType="1" res="-6.4301292877644300e-04" rms="2.2897176444530487e-01" purity="2.7171978354454041e-01" nType="-99"/>
          <Node pos="r" depth="2" NCoef="0" IVar="-1" Cut="0.0000000000000000e+00" cType="1" res="-9.4380918890237808e-03" rms="7.6401971280574799e-02" purity="6.5346784889698029e-02" nType="-99"/>
        </Node>
        <Node pos="r" depth="1" NCoef="0" IVar="11" Cut="1.2345679104328156e-02" cType="1" res="1.3078768737614155e-02" rms="2.4671772122383118e-01" purity="7.5419443845748901e-01" nType="0">
          <Node pos="l" depth="2" NCoef="0" IVar="-1" Cut="0.0000000000000000e+00" cType="1" res="3.5091580357402563e-03" rms="2.1227844059467316e-01" purity="7.8389596939086914e-01" nType="-99"/>
          <Node pos="r" depth="2" NCoef="0" IVar="-1" Cut="0.0000000000000000e+00" cType="1" res="-3.6421825643628836e-04" rms="2.6759201288223267e-01" purity="7.3268920183181763e-01" nType="-99"/>
        </Node>
      </Node>
    </BinaryTree>
    <BinaryTree type="DecisionTree" boostWeight="1.0000000000000000e+00" itree="911">
      <Node pos="s" depth="0" NCoef="0" IVar="52" Cut="-1.5312105417251587e+00" cType="1" res="1.4662979810964316e-04" rms="2.2673587501049042e-01" purity="4.9854159355163574e-01" nType="0">
        <Node pos="l" depth="1" NCoef="0" IVar="34" Cut="1.4093587398529053e+00" cType="1" res="1.8103778362274170e-02" rms="2.2082284092903137e-01" purity="6.8589144945144653e-01" nType="0">
          <Node pos="l" depth="2" NCoef="0" IVar="-1" Cut="0.0000000000000000e+00" cType="1" res="2.4771352764219046e-03" rms="2.1582667529582977e-01" purity="7.3657923936843872e-01" nType="-99"/>
          <Node pos="r" depth="2" NCoef="0" IVar="-1" Cut="0.0000000000000000e+00" cType="1" res="-5.0415294244885445e-03" rms="2.6201501488685608e-01" purity="1.2199844419956207e-01" nType="-99"/>
        </Node>
        <Node pos="r" depth="1" NCoef="0" IVar="14" Cut="-1.1441599130630493e+00" cType="1" res="-1.1574758216738701e-02" rms="2.2975796461105347e-01" purity="3.7625044584274292e-01" nType="0">
          <Node pos="l" depth="2" NCoef="0" IVar="-1" Cut="0.0000000000000000e+00" cType="1" res="-2.0559977740049362e-02" rms="0.0000000000000000e+00" purity="-1.5119866468012333e-02" nType="-99"/>
          <Node pos="r" depth="2" NCoef="0" IVar="-1" Cut="0.0000000000000000e+00" cType="1" res="-5.8612276916392148e-05" rms="2.9108431935310364e-01" purity="5.3418743610382080e-01" nType="-99"/>
        </Node>
      </Node>
    </BinaryTree>
    <BinaryTree type="DecisionTree" boostWeight="1.0000000000000000e+00" itree="912">
      <Node pos="s" depth="0" NCoef="0" IVar="43" Cut="1.1239075660705566e+00" cType="1" res="1.3095353497192264e-03" rms="2.3174430429935455e-01" purity="4.9916055798530579e-01" nType="0">
        <Node pos="l" depth="1" NCoef="0" IVar="0" Cut="6.1708301305770874e-01" cType="1" res="4.8797186464071274e-03" rms="2.3487760126590729e-01" purity="5.1075321435928345e-01" nType="0">
          <Node pos="l" depth="2" NCoef="0" IVar="-1" Cut="0.0000000000000000e+00" cType="1" res="1.5029320493340492e-03" rms="2.3821629583835602e-01" purity="5.7507950067520142e-01" nType="-99"/>
          <Node pos="r" depth="2" NCoef="0" IVar="-1" Cut="0.0000000000000000e+00" cType="1" res="-1.3692785287275910e-03" rms="2.2825178503990173e-01" purity="4.0507087111473083e-01" nType="-99"/>
        </Node>
        <Node pos="r" depth="1" NCoef="0" IVar="25" Cut="2.0939838886260986e+00" cType="1" res="-5.0023898482322693e-02" rms="1.7281481623649597e-01" purity="3.3247712254524231e-01" nType="0">
          <Node pos="l" depth="2" NCoef="0" IVar="-1" Cut="0.0000000000000000e+00" cType="1" res="-1.0044170543551445e-02" rms="0.0000000000000000e+00" purity="1.1795827001333237e-01" nType="-99"/>
          <Node pos="r" depth="2" NCoef="0" IVar="-1" Cut="0.0000000000000000e+00" cType="1" res="-1.5026639448478818e-03" rms="2.6074057817459106e-01" purity="6.0906964540481567e-01" nType="-99"/>
        </Node>
      </Node>
    </BinaryTree>
    <BinaryTree type="DecisionTree" boostWeight="1.0000000000000000e+00" itree="913">
      <Node pos="s" depth="0" NCoef="0" IVar="2" Cut="4.6729171276092529e-01" cType="1" res="2.0632972009480000e-03" rms="2.2806380689144135e-01" purity="5.0029128789901733e-01" nType="0">
        <Node pos="l" depth="1" NCoef="0" IVar="-1" Cut="0.0000000000000000e+00" cType="1" res="-1.1139067821204662e-02" rms="0.0000000000000000e+00" purity="-5.9817567467689514e-02" nType="-99"/>
        <Node pos="r" depth="1" NCoef="0" IVar="5" Cut="8.5243028402328491e-01" cType="1" res="4.0655811317265034e-03" rms="2.3258648812770844e-01" purity="5.1184672117233276e-01" nType="0">
          <Node pos="l" depth="2" NCoef="0" IVar="-1" Cut="0.0000000000000000e+00" cType="1" res="-9.8226573318243027e-03" rms="0.0000000000000000e+00" purity="7.4117764830589294e-02" nType="-99"/>
          <Node pos="r" depth="2" NCoef="0" IVar="-1" Cut="0.0000000000000000e+00" cType="1" res="7.6873891521245241e-04" rms="2.3982152342796326e-01" purity="5.3752171993255615e-01" nType="-99"/>
        </Node>
      </Node>
    </BinaryTree>
    <BinaryTree type="DecisionTree" boostWeight="1.0000000000000000e+00" itree="914">
      <Node pos="s" depth="0" NCoef="0" IVar="2" Cut="1.5517882108688354e+00" cType="1" res="-8.6449371883645654e-04" rms="2.3068851232528687e-01" purity="4.9930325150489807e-01" nType="0">
        <Node pos="l" depth="1" NCoef="0" IVar="3" Cut="5.3313198089599609e+00" cType="1" res="-3.1577128916978836e-02" rms="1.7653997242450714e-01" purity="1.6161178052425385e-01" nType="0">
          <Node pos="l" depth="2" NCoef="0" IVar="-1" Cut="0.0000000000000000e+00" cType="1" res="-4.8022158443927765e-03" rms="1.3241685926914215e-01" purity="1.5192471444606781e-01" nType="-99"/>
          <Node pos="r" depth="2" NCoef="0" IVar="-1" Cut="0.0000000000000000e+00" cType="1" res="3.4334908705204725e-03" rms="3.1933560967445374e-01" purity="2.1607427299022675e-01" nType="-99"/>
        </Node>
        <Node pos="r" depth="1" NCoef="0" IVar="1" Cut="2.1335844993591309e+00" cType="1" res="5.3942175582051277e-03" rms="2.3974858224391937e-01" purity="5.6811898946762085e-01" nType="0">
          <Node pos="l" depth="2" NCoef="0" IVar="-1" Cut="0.0000000000000000e+00" cType="1" res="-1.1153304949402809e-02" rms="0.0000000000000000e+00" purity="1.2234018184244633e-02" nType="-99"/>
          <Node pos="r" depth="2" NCoef="0" IVar="-1" Cut="0.0000000000000000e+00" cType="1" res="1.0344502516090870e-03" rms="2.5476798415184021e-01" purity="6.2617081403732300e-01" nType="-99"/>
        </Node>
      </Node>
    </BinaryTree>
    <BinaryTree type="DecisionTree" boostWeight="1.0000000000000000e+00" itree="915">
      <Node pos="s" depth="0" NCoef="0" IVar="54" Cut="1.2544522285461426e+00" cType="1" res="1.0450038826093078e-03" rms="2.2975929081439972e-01" purity="4.9989512562751770e-01" nType="0">
        <Node pos="l" depth="1" NCoef="0" IVar="44" Cut="1.2345679104328156e-02" cType="1" res="6.4307539723813534e-03" rms="2.3218201100826263e-01" purity="5.5806416273117065e-01" nType="0">
          <Node pos="l" depth="2" NCoef="0" IVar="-1" Cut="0.0000000000000000e+00" cType="1" res="9.9768361542373896e-04" rms="2.2892905771732330e-01" purity="5.6871408224105835e-01" nType="-99"/>
          <Node pos="r" depth="2" NCoef="0" IVar="-1" Cut="0.0000000000000000e+00" cType="1" res="-6.6797663457691669e-03" rms="2.8346130251884460e-01" purity="3.3097329735755920e-01" nType="-99"/>
        </Node>
        <Node pos="r" depth="1" NCoef="0" IVar="49" Cut="3.4228866100311279e+00" cType="1" res="-3.4777827560901642e-02" rms="2.0944970846176147e-01" purity="1.1298874765634537e-01" nType="0">
          <Node pos="l" depth="2" NCoef="0" IVar="-1" Cut="0.0000000000000000e+00" cType="1" res="-8.6432730313390493e-04" rms="2.1483685076236725e-01" purity="1.1186867952346802e-01" nType="-99"/>
          <Node pos="r" depth="2" NCoef="0" IVar="-1" Cut="0.0000000000000000e+00" cType="1" res="-9.4013074412941933e-03" rms="1.8516892194747925e-01" purity="1.1524217575788498e-01" nType="-99"/>
        </Node>
      </Node>
    </BinaryTree>
    <BinaryTree type="DecisionTree" boostWeight="1.0000000000000000e+00" itree="916">
      <Node pos="s" depth="0" NCoef="0" IVar="43" Cut="1.1525523662567139e+00" cType="1" res="6.9144030567258596e-04" rms="2.3297570645809174e-01" purity="5.0265765190124512e-01" nType="0">
        <Node pos="l" depth="1" NCoef="0" IVar="58" Cut="1.3050701618194580e+00" cType="1" res="3.9097778499126434e-03" rms="2.3431740701198578e-01" purity="5.1374191045761108e-01" nType="0">
          <Node pos="l" depth="2" NCoef="0" IVar="-1" Cut="0.0000000000000000e+00" cType="1" res="7.7482272172346711e-04" rms="2.3506720364093781e-01" purity="5.2866625785827637e-01" nType="-99"/>
          <Node pos="r" depth="2" NCoef="0" IVar="-1" Cut="0.0000000000000000e+00" cType="1" res="-5.4525779560208321e-03" rms="2.1718233823776245e-01" purity="3.0419629812240601e-01" nType="-99"/>
        </Node>
        <Node pos="r" depth="1" NCoef="0" IVar="29" Cut="3.2029929161071777e+00" cType="1" res="-5.7334225624799728e-02" rms="1.9854433834552765e-01" purity="3.0281147360801697e-01" nType="0">
          <Node pos="l" depth="2" NCoef="0" IVar="-1" Cut="0.0000000000000000e+00" cType="1" res="-1.2099142186343670e-02" rms="1.3995037972927094e-01" purity="2.2203753888607025e-01" nType="-99"/>
          <Node pos="r" depth="2" NCoef="0" IVar="-1" Cut="0.0000000000000000e+00" cType="1" res="-3.0323110986500978e-03" rms="2.3505291342735291e-01" purity="3.7399426102638245e-01" nType="-99"/>
        </Node>
      </Node>
    </BinaryTree>
    <BinaryTree type="DecisionTree" boostWeight="1.0000000000000000e+00" itree="917">
      <Node pos="s" depth="0" NCoef="0" IVar="34" Cut="-6.1222884804010391e-02" cType="1" res="-2.6350392727181315e-04" rms="2.2898867726325989e-01" purity="5.0104355812072754e-01" nType="0">
        <Node pos="l" depth="1" NCoef="0" IVar="12" Cut="1.4782999753952026e+00" cType="1" res="7.4846274219453335e-03" rms="2.3011754453182220e-01" purity="5.8413279056549072e-01" nType="0">
          <Node pos="l" depth="2" NCoef="0" IVar="-1" Cut="0.0000000000000000e+00" cType="1" res="-4.0443451143801212e-04" rms="2.4204267561435699e-01" purity="4.3153196573257446e-01" nType="-99"/>
          <Node pos="r" depth="2" NCoef="0" IVar="-1" Cut="0.0000000000000000e+00" cType="1" res="2.4648953694850206e-03" rms="2.0907963812351227e-01" purity="8.2075053453445435e-01" nType="-99"/>
        </Node>
        <Node pos="r" depth="1" NCoef="0" IVar="40" Cut="5.4823558777570724e-02" cType="1" res="-2.7567187324166298e-02" rms="2.2282828390598297e-01" purity="2.0824505388736725e-01" nType="0">
          <Node pos="l" depth="2" NCoef="0" IVar="-1" Cut="0.0000000000000000e+00" cType="1" res="-1.7435494810342789e-03" rms="2.4979490041732788e-01" purity="2.3316191136837006e-01" nType="-99"/>
          <Node pos="r" depth="2" NCoef="0" IVar="-1" Cut="0.0000000000000000e+00" cType="1" res="-7.5877713970839977e-03" rms="1.1243891716003418e-01" purity="1.3855478167533875e-01" nType="-99"/>
        </Node>
      </Node>
    </BinaryTree>
    <BinaryTree type="DecisionTree" boostWeight="1.0000000000000000e+00" itree="918">
      <Node pos="s" depth="0" NCoef="0" IVar="5" Cut="8.5243028402328491e-01" cType="1" res="6.7740585654973984e-04" rms="2.2816020250320435e-01" purity="5.0135558843612671e-01" nType="0">
        <Node pos="l" depth="1" NCoef="0" IVar="16" Cut="-2.9749101400375366e-01" cType="1" res="-1.0320697911083698e-02" rms="0.0000000000000000e+00" purity="7.1758650243282318e-02" nType="-99"/>
        <Node pos="r" depth="1" NCoef="0" IVar="37" Cut="-8.4397262334823608e-01" cType="1" res="4.1018850170075893e-03" rms="2.3555685579776764e-01" purity="5.2647042274475098e-01" nType="0">
          <Node pos="l" depth="2" NCoef="0" IVar="-1" Cut="0.0000000000000000e+00" cType="1" res="7.9118018038570881e-04" rms="2.3840528726577759e-01" purity="5.4833102226257324e-01" nType="-99"/>
          <Node pos="r" depth="2" NCoef="0" IVar="-1" Cut="0.0000000000000000e+00" cType="1" res="-5.3345961496233940e-03" rms="1.9030442833900452e-01" purity="2.5449961423873901e-01" nType="-99"/>
        </Node>
      </Node>
    </BinaryTree>
    <BinaryTree type="DecisionTree" boostWeight="1.0000000000000000e+00" itree="919">
      <Node pos="s" depth="0" NCoef="0" IVar="2" Cut="1.0310705900192261e+00" cType="1" res="2.7994185074931011e-05" rms="2.2973787784576416e-01" purity="5.0029444694519043e-01" nType="0">
        <Node pos="l" depth="1" NCoef="0" IVar="17" Cut="-2.2075116634368896e+00" cType="1" res="-5.8583229780197144e-02" rms="3.7838000804185867e-02" purity="4.8286873847246170e-02" nType="0">
          <Node pos="l" depth="2" NCoef="0" IVar="-1" Cut="0.0000000000000000e+00" cType="1" res="-1.2722768587991595e-03" rms="2.0994563400745392e-01" purity="1.1541344970464706e-01" nType="-99"/>
          <Node pos="r" depth="2" NCoef="0" IVar="-1" Cut="0.0000000000000000e+00" cType="1" res="-1.1264713481068611e-02" rms="0.0000000000000000e+00" purity="-5.8968164958059788e-03" nType="-99"/>
        </Node>
        <Node pos="r" depth="1" NCoef="0" IVar="37" Cut="-8.4240269660949707e-01" cType="1" res="3.4354303497821093e-03" rms="2.3569755256175995e-01" purity="5.2657240629196167e-01" nType="0">
          <Node pos="l" depth="2" NCoef="0" IVar="-1" Cut="0.0000000000000000e+00" cType="1" res="7.4561050860211253e-04" rms="2.3813840746879578e-01" purity="5.4875254631042480e-01" nType="-99"/>
          <Node pos="r" depth="2" NCoef="0" IVar="-1" Cut="0.0000000000000000e+00" cType="1" res="-5.6556407362222672e-03" rms="1.9579665362834930e-01" purity="2.4577565491199493e-01" nType="-99"/>
        </Node>
      </Node>
    </BinaryTree>
    <BinaryTree type="DecisionTree" boostWeight="1.0000000000000000e+00" itree="920">
      <Node pos="s" depth="0" NCoef="0" IVar="57" Cut="-1.2972977161407471e+00" cType="1" res="2.5077285245060921e-03" rms="2.3292300105094910e-01" purity="4.9985694885253906e-01" nType="0">
        <Node pos="l" depth="1" NCoef="0" IVar="34" Cut="1.4843503236770630e+00" cType="1" res="8.8493321090936661e-03" rms="2.3708914220333099e-01" purity="5.4015332460403442e-01" nType="0">
          <Node pos="l" depth="2" NCoef="0" IVar="-1" Cut="0.0000000000000000e+00" cType="1" res="1.2834668159484863e-03" rms="2.3925411701202393e-01" purity="5.7250559329986572e-01" nType="-99"/>
          <Node pos="r" depth="2" NCoef="0" IVar="-1" Cut="0.0000000000000000e+00" cType="1" res="-7.4455528520047665e-03" rms="1.9313904643058777e-01" purity="6.2212526798248291e-02" nType="-99"/>
        </Node>
        <Node pos="r" depth="1" NCoef="0" IVar="1" Cut="2.2396793365478516e+00" cType="1" res="-2.6858787983655930e-02" rms="2.1008762717247009e-01" purity="3.1325379014015198e-01" nType="0">
          <Node pos="l" depth="2" NCoef="0" IVar="-1" Cut="0.0000000000000000e+00" cType="1" res="-2.8335615992546082e-02" rms="0.0000000000000000e+00" purity="-3.9695631712675095e-02" nType="-99"/>
          <Node pos="r" depth="2" NCoef="0" IVar="-1" Cut="0.0000000000000000e+00" cType="1" res="-1.2780801625922322e-03" rms="2.7711373567581177e-01" purity="4.3158841133117676e-01" nType="-99"/>
        </Node>
      </Node>
    </BinaryTree>
    <BinaryTree type="DecisionTree" boostWeight="1.0000000000000000e+00" itree="921">
      <Node pos="s" depth="0" NCoef="0" IVar="34" Cut="-1.4537253379821777e+00" cType="1" res="8.0035248538479209e-04" rms="2.2868575155735016e-01" purity="5.0289595127105713e-01" nType="0">
        <Node pos="l" depth="1" NCoef="0" IVar="26" Cut="-1.4328143596649170e+00" cType="1" res="1.2205591425299644e-02" rms="2.1816253662109375e-01" purity="6.2277907133102417e-01" nType="0">
          <Node pos="l" depth="2" NCoef="0" IVar="-1" Cut="0.0000000000000000e+00" cType="1" res="1.7211259109899402e-03" rms="2.1133905649185181e-01" purity="6.4084756374359131e-01" nType="-99"/>
          <Node pos="r" depth="2" NCoef="0" IVar="-1" Cut="0.0000000000000000e+00" cType="1" res="-4.2439475655555725e-03" rms="2.8353551030158997e-01" purity="4.0165668725967407e-01" nType="-99"/>
        </Node>
        <Node pos="r" depth="1" NCoef="0" IVar="1" Cut="1.9812756776809692e+00" cType="1" res="-1.7416661605238914e-02" rms="2.4345076084136963e-01" purity="3.1141266226768494e-01" nType="0">
          <Node pos="l" depth="2" NCoef="0" IVar="-1" Cut="0.0000000000000000e+00" cType="1" res="-3.7624605000019073e-02" rms="0.0000000000000000e+00" purity="-4.1281413286924362e-02" nType="-99"/>
          <Node pos="r" depth="2" NCoef="0" IVar="-1" Cut="0.0000000000000000e+00" cType="1" res="-1.0226210579276085e-03" rms="2.7576911449432373e-01" purity="3.6579227447509766e-01" nType="-99"/>
        </Node>
      </Node>
    </BinaryTree>
    <BinaryTree type="DecisionTree" boostWeight="1.0000000000000000e+00" itree="922">
      <Node pos="s" depth="0" NCoef="0" IVar="14" Cut="9.8407727479934692e-01" cType="1" res="-1.0171245085075498e-03" rms="2.2964011132717133e-01" purity="5.0160527229309082e-01" nType="0">
        <Node pos="l" depth="1" NCoef="0" IVar="65" Cut="6.4000278711318970e-01" cType="1" res="-2.2316373884677887e-02" rms="1.2998405098915100e-01" purity="8.5521124303340912e-02" nType="0">
          <Node pos="l" depth="2" NCoef="0" IVar="-1" Cut="0.0000000000000000e+00" cType="1" res="-1.2858161935582757e-03" rms="1.6698794066905975e-01" purity="1.1848355084657669e-01" nType="-99"/>
          <Node pos="r" depth="2" NCoef="0" IVar="-1" Cut="0.0000000000000000e+00" cType="1" res="-1.3703935779631138e-02" rms="0.0000000000000000e+00" purity="4.5137512497603893e-03" nType="-99"/>
        </Node>
        <Node pos="r" depth="1" NCoef="0" IVar="44" Cut="1.2345679104328156e-02" cType="1" res="9.4943167641758919e-03" rms="2.6473960280418396e-01" purity="7.0694786310195923e-01" nType="0">
          <Node pos="l" depth="2" NCoef="0" IVar="-1" Cut="0.0000000000000000e+00" cType="1" res="1.1208612704649568e-03" rms="2.5949230790138245e-01" purity="7.1631425619125366e-01" nType="-99"/>
          <Node pos="r" depth="2" NCoef="0" IVar="-1" Cut="0.0000000000000000e+00" cType="1" res="-5.4033109918236732e-03" rms="3.5586583614349365e-01" purity="4.9006912112236023e-01" nType="-99"/>
        </Node>
      </Node>
    </BinaryTree>
    <BinaryTree type="DecisionTree" boostWeight="1.0000000000000000e+00" itree="923">
      <Node pos="s" depth="0" NCoef="0" IVar="52" Cut="-1.5312020778656006e+00" cType="1" res="-8.5716176545247436e-04" rms="2.2808904945850372e-01" purity="4.9761015176773071e-01" nType="0">
        <Node pos="l" depth="1" NCoef="0" IVar="34" Cut="1.4867393970489502e+00" cType="1" res="1.7097944393754005e-02" rms="2.1827238798141479e-01" purity="6.8578165769577026e-01" nType="0">
          <Node pos="l" depth="2" NCoef="0" IVar="-1" Cut="0.0000000000000000e+00" cType="1" res="2.2532963193953037e-03" rms="2.1366578340530396e-01" purity="7.2101992368698120e-01" nType="-99"/>
          <Node pos="r" depth="2" NCoef="0" IVar="-1" Cut="0.0000000000000000e+00" cType="1" res="-7.1189650334417820e-03" rms="2.7486109733581543e-01" purity="8.8812708854675293e-02" nType="-99"/>
        </Node>
        <Node pos="r" depth="1" NCoef="0" IVar="53" Cut="1.2163988351821899e+00" cType="1" res="-1.2787565588951111e-02" rms="2.3362272977828979e-01" purity="3.7257817387580872e-01" nType="0">
          <Node pos="l" depth="2" NCoef="0" IVar="-1" Cut="0.0000000000000000e+00" cType="1" res="-8.7857042672112584e-04" rms="2.4044618010520935e-01" purity="3.8939487934112549e-01" nType="-99"/>
          <Node pos="r" depth="2" NCoef="0" IVar="-1" Cut="0.0000000000000000e+00" cType="1" res="-1.0202399455010891e-02" rms="6.8605549633502960e-02" purity="1.3246448338031769e-01" nType="-99"/>
        </Node>
      </Node>
    </BinaryTree>
    <BinaryTree type="DecisionTree" boostWeight="1.0000000000000000e+00" itree="924">
      <Node pos="s" depth="0" NCoef="0" IVar="18" Cut="1.3194606304168701e+00" cType="1" res="-1.3994228793308139e-03" rms="2.2756014764308929e-01" purity="5.0038069486618042e-01" nType="0">
        <Node pos="l" depth="1" NCoef="0" IVar="52" Cut="-1.4926165342330933e+00" cType="1" res="1.9884638022631407e-03" rms="2.2818452119827271e-01" purity="5.1233315467834473e-01" nType="0">
          <Node pos="l" depth="2" NCoef="0" IVar="-1" Cut="0.0000000000000000e+00" cType="1" res="1.4524089638143778e-03" rms="2.2803400456905365e-01" purity="6.4064735174179077e-01" nType="-99"/>
          <Node pos="r" depth="2" NCoef="0" IVar="-1" Cut="0.0000000000000000e+00" cType="1" res="-1.6864701174199581e-03" rms="2.2721731662750244e-01" purity="3.2065808773040771e-01" nType="-99"/>
        </Node>
        <Node pos="r" depth="1" NCoef="0" IVar="15" Cut="-8.7731915712356567e-01" cType="1" res="-6.0615174472332001e-02" rms="2.0761227607727051e-01" purity="2.9146626591682434e-01" nType="0">
          <Node pos="l" depth="2" NCoef="0" IVar="-1" Cut="0.0000000000000000e+00" cType="1" res="-1.7881334060803056e-03" rms="2.2952096164226532e-01" purity="3.1935727596282959e-01" nType="-99"/>
          <Node pos="r" depth="2" NCoef="0" IVar="-1" Cut="0.0000000000000000e+00" cType="1" res="-9.7664920613169670e-03" rms="1.8795931339263916e-01" purity="2.7474501729011536e-01" nType="-99"/>
        </Node>
      </Node>
    </BinaryTree>
    <BinaryTree type="DecisionTree" boostWeight="1.0000000000000000e+00" itree="925">
      <Node pos="s" depth="0" NCoef="0" IVar="43" Cut="1.1775211095809937e+00" cType="1" res="2.6341294869780540e-03" rms="2.3315364122390747e-01" purity="5.0169146060943604e-01" nType="0">
        <Node pos="l" depth="1" NCoef="0" IVar="53" Cut="1.4075684547424316e+00" cType="1" res="5.3975046612322330e-03" rms="2.3474279046058655e-01" purity="5.1196467876434326e-01" nType="0">
          <Node pos="l" depth="2" NCoef="0" IVar="-1" Cut="0.0000000000000000e+00" cType="1" res="7.5585319427773356e-04" rms="2.3670354485511780e-01" purity="5.2116888761520386e-01" nType="-99"/>
          <Node pos="r" depth="2" NCoef="0" IVar="-1" Cut="0.0000000000000000e+00" cType="1" res="-1.2088854797184467e-02" rms="9.6133127808570862e-02" purity="1.2398935854434967e-01" nType="-99"/>
        </Node>
        <Node pos="r" depth="1" NCoef="0" IVar="29" Cut="3.2815847396850586e+00" cType="1" res="-6.0414861887693405e-02" rms="1.8233548104763031e-01" purity="2.6729804277420044e-01" nType="0">
          <Node pos="l" depth="2" NCoef="0" IVar="-1" Cut="0.0000000000000000e+00" cType="1" res="-1.1957284994423389e-02" rms="1.2585863471031189e-01" purity="2.0330068469047546e-01" nType="-99"/>
          <Node pos="r" depth="2" NCoef="0" IVar="-1" Cut="0.0000000000000000e+00" cType="1" res="-3.2703920733183622e-03" rms="2.2332382202148438e-01" purity="3.3501112461090088e-01" nType="-99"/>
        </Node>
      </Node>
    </BinaryTree>
    <BinaryTree type="DecisionTree" boostWeight="1.0000000000000000e+00" itree="926">
      <Node pos="s" depth="0" NCoef="0" IVar="14" Cut="1.4477851390838623e+00" cType="1" res="-1.0852426057681441e-03" rms="2.2633379697799683e-01" purity="5.0012487173080444e-01" nType="0">
        <Node pos="l" depth="1" NCoef="0" IVar="21" Cut="1.2345679104328156e-02" cType="1" res="-1.6753945499658585e-02" rms="1.9558703899383545e-01" purity="1.9170124828815460e-01" nType="0">
          <Node pos="l" depth="2" NCoef="0" IVar="-1" Cut="0.0000000000000000e+00" cType="1" res="6.8136844784021378e-03" rms="3.2797661423683167e-01" purity="2.8153404593467712e-01" nType="-99"/>
          <Node pos="r" depth="2" NCoef="0" IVar="-1" Cut="0.0000000000000000e+00" cType="1" res="-3.1116462778300047e-03" rms="1.7853233218193054e-01" purity="1.8410278856754303e-01" nType="-99"/>
        </Node>
        <Node pos="r" depth="1" NCoef="0" IVar="11" Cut="1.2345679104328156e-02" cType="1" res="1.1391232721507549e-02" rms="2.4739760160446167e-01" purity="7.4571263790130615e-01" nType="0">
          <Node pos="l" depth="2" NCoef="0" IVar="-1" Cut="0.0000000000000000e+00" cType="1" res="3.0718259513378143e-03" rms="2.1446362137794495e-01" purity="7.7022957801818848e-01" nType="-99"/>
          <Node pos="r" depth="2" NCoef="0" IVar="-1" Cut="0.0000000000000000e+00" cType="1" res="-3.5117589868605137e-04" rms="2.6776286959648132e-01" purity="7.2788250446319580e-01" nType="-99"/>
        </Node>
      </Node>
    </BinaryTree>
    <BinaryTree type="DecisionTree" boostWeight="1.0000000000000000e+00" itree="927">
      <Node pos="s" depth="0" NCoef="0" IVar="1" Cut="1.8126446008682251e+00" cType="1" res="1.0637134546414018e-03" rms="2.3401340842247009e-01" purity="5.0067430734634399e-01" nType="0">
        <Node pos="l" depth="1" NCoef="0" IVar="45" Cut="1.2072650194168091e+00" cType="1" res="-3.4342370927333832e-02" rms="0.0000000000000000e+00" purity="-3.8532592356204987e-02" nType="-99"/>
        <Node pos="r" depth="1" NCoef="0" IVar="36" Cut="1.5245062112808228e+00" cType="1" res="4.2176689021289349e-03" rms="2.4552595615386963e-01" purity="5.3053402900695801e-01" nType="0">
          <Node pos="l" depth="2" NCoef="0" IVar="-1" Cut="0.0000000000000000e+00" cType="1" res="6.5938662737607956e-04" rms="2.4673587083816528e-01" purity="5.4976993799209595e-01" nType="-99"/>
          <Node pos="r" depth="2" NCoef="0" IVar="-1" Cut="0.0000000000000000e+00" cType="1" res="-7.8866882249712944e-03" rms="2.0231433212757111e-01" purity="3.7786629050970078e-02" nType="-99"/>
        </Node>
      </Node>
    </BinaryTree>
    <BinaryTree type="DecisionTree" boostWeight="1.0000000000000000e+00" itree="928">
      <Node pos="s" depth="0" NCoef="0" IVar="33" Cut="1.3313596248626709e+00" cType="1" res="1.7124864971265197e-03" rms="2.3261074721813202e-01" purity="5.0126165151596069e-01" nType="0">
        <Node pos="l" depth="1" NCoef="0" IVar="17" Cut="-8.1384032964706421e-01" cType="1" res="4.3905181810259819e-03" rms="2.3539894819259644e-01" purity="5.1256424188613892e-01" nType="0">
          <Node pos="l" depth="2" NCoef="0" IVar="-1" Cut="0.0000000000000000e+00" cType="1" res="7.8286288771778345e-04" rms="2.3767916858196259e-01" purity="5.2907025814056396e-01" nType="-99"/>
          <Node pos="r" depth="2" NCoef="0" IVar="-1" Cut="0.0000000000000000e+00" cType="1" res="-5.5639878846704960e-03" rms="1.8727029860019684e-01" purity="2.4571445584297180e-01" nType="-99"/>
        </Node>
        <Node pos="r" depth="1" NCoef="0" IVar="-1" Cut="0.0000000000000000e+00" cType="1" res="-1.0742747224867344e-02" rms="9.8906539380550385e-02" purity="1.7189735174179077e-01" nType="-99"/>
      </Node>
    </BinaryTree>
    <BinaryTree type="DecisionTree" boostWeight="1.0000000000000000e+00" itree="929">
      <Node pos="s" depth="0" NCoef="0" IVar="1" Cut="2.0052487850189209e+00" cType="1" res="2.9587696772068739e-03" rms="2.3001532256603241e-01" purity="5.0246721506118774e-01" nType="0">
        <Node pos="l" depth="1" NCoef="0" IVar="33" Cut="-1.1831345558166504e+00" cType="1" res="-1.2881670147180557e-02" rms="0.0000000000000000e+00" purity="-3.3532010857015848e-03" nType="-99"/>
        <Node pos="r" depth="1" NCoef="0" IVar="64" Cut="1.2345679104328156e-02" cType="1" res="7.5231348164379597e-03" rms="2.4806284904479980e-01" purity="5.6027472019195557e-01" nType="0">
          <Node pos="l" depth="2" NCoef="0" IVar="-1" Cut="0.0000000000000000e+00" cType="1" res="9.7756530158221722e-04" rms="2.4673204123973846e-01" purity="5.6940120458602905e-01" nType="-99"/>
          <Node pos="r" depth="2" NCoef="0" IVar="-1" Cut="0.0000000000000000e+00" cType="1" res="-5.5734072811901569e-03" rms="2.7068081498146057e-01" purity="3.4378248453140259e-01" nType="-99"/>
        </Node>
      </Node>
    </BinaryTree>
    <BinaryTree type="DecisionTree" boostWeight="1.0000000000000000e+00" itree="930">
      <Node pos="s" depth="0" NCoef="0" IVar="14" Cut="-1.4924062490463257e+00" cType="1" res="3.9576580747961998e-03" rms="2.3088294267654419e-01" purity="5.0399214029312134e-01" nType="0">
        <Node pos="l" depth="1" NCoef="0" IVar="56" Cut="9.4240117073059082e-01" cType="1" res="-2.4117581546306610e-02" rms="0.0000000000000000e+00" purity="-1.5562752261757851e-02" nType="-99"/>
        <Node pos="r" depth="1" NCoef="0" IVar="64" Cut="1.2345679104328156e-02" cType="1" res="9.5300124958157539e-03" rms="2.5800776481628418e-01" purity="6.0293740034103394e-01" nType="0">
          <Node pos="l" depth="2" NCoef="0" IVar="-1" Cut="0.0000000000000000e+00" cType="1" res="1.1127952020615339e-03" rms="2.5660917162895203e-01" purity="6.1191469430923462e-01" nType="-99"/>
          <Node pos="r" depth="2" NCoef="0" IVar="-1" Cut="0.0000000000000000e+00" cType="1" res="-6.0985130257904530e-03" rms="2.8045979142189026e-01" purity="3.8008770346641541e-01" nType="-99"/>
        </Node>
      </Node>
    </BinaryTree>
    <BinaryTree type="DecisionTree" boostWeight="1.0000000000000000e+00" itree="931">
      <Node pos="s" depth="0" NCoef="0" IVar="34" Cut="1.4470758438110352e+00" cType="1" res="4.3854789691977203e-04" rms="2.2949527204036713e-01" purity="5.0102841854095459e-01" nType="0">
        <Node pos="l" depth="1" NCoef="0" IVar="36" Cut="1.4463863372802734e+00" cType="1" res="4.7529563307762146e-03" rms="2.3322717845439911e-01" purity="5.4174613952636719e-01" nType="0">
          <Node pos="l" depth="2" NCoef="0" IVar="-1" Cut="0.0000000000000000e+00" cType="1" res="7.5730576645582914e-04" rms="2.3076835274696350e-01" purity="5.5443590879440308e-01" nType="-99"/>
          <Node pos="r" depth="2" NCoef="0" IVar="-1" Cut="0.0000000000000000e+00" cType="1" res="-6.7318812943994999e-03" rms="2.8916323184967041e-01" purity="1.3595847785472870e-01" nType="-99"/>
        </Node>
        <Node pos="r" depth="1" NCoef="0" IVar="36" Cut="1.3703790903091431e+00" cType="1" res="-4.6091578900814056e-02" rms="1.7798495292663574e-01" purity="6.1895325779914856e-02" nType="0">
          <Node pos="l" depth="2" NCoef="0" IVar="-1" Cut="0.0000000000000000e+00" cType="1" res="-1.0932115837931633e-02" rms="2.2019670903682709e-01" purity="1.1676965653896332e-01" nType="-99"/>
          <Node pos="r" depth="2" NCoef="0" IVar="-1" Cut="0.0000000000000000e+00" cType="1" res="-4.5537846162915230e-03" rms="1.5508107841014862e-01" purity="4.2657162994146347e-02" nType="-99"/>
        </Node>
      </Node>
    </BinaryTree>
    <BinaryTree type="DecisionTree" boostWeight="1.0000000000000000e+00" itree="932">
      <Node pos="s" depth="0" NCoef="0" IVar="1" Cut="1.8124119043350220e+00" cType="1" res="3.6428468301892281e-03" rms="2.3148988187313080e-01" purity="5.0315558910369873e-01" nType="0">
        <Node pos="l" depth="1" NCoef="0" IVar="25" Cut="1.0906064510345459e+00" cType="1" res="-3.6933936178684235e-02" rms="0.0000000000000000e+00" purity="-4.1410688310861588e-02" nType="-99"/>
        <Node pos="r" depth="1" NCoef="0" IVar="63" Cut="1.1784476041793823e+00" cType="1" res="7.0675192400813103e-03" rms="2.4352678656578064e-01" purity="5.3358584642410278e-01" nType="0">
          <Node pos="l" depth="2" NCoef="0" IVar="-1" Cut="0.0000000000000000e+00" cType="1" res="9.7599421860650182e-04" rms="2.4573259055614471e-01" purity="5.4345333576202393e-01" nType="-99"/>
          <Node pos="r" depth="2" NCoef="0" IVar="-1" Cut="0.0000000000000000e+00" cType="1" res="-6.2675438821315765e-03" rms="1.7400597035884857e-01" purity="3.0674988031387329e-01" nType="-99"/>
        </Node>
      </Node>
    </BinaryTree>
    <BinaryTree type="DecisionTree" boostWeight="1.0000000000000000e+00" itree="933">
      <Node pos="s" depth="0" NCoef="0" IVar="57" Cut="-2.3024048805236816e+00" cType="1" res="2.2652969346381724e-04" rms="2.2809244692325592e-01" purity="5.0028836727142334e-01" nType="0">
        <Node pos="l" depth="1" NCoef="0" IVar="0" Cut="9.1075724363327026e-01" cType="1" res="1.7207296565175056e-02" rms="2.3497515916824341e-01" purity="5.7886689901351929e-01" nType="0">
          <Node pos="l" depth="2" NCoef="0" IVar="-1" Cut="0.0000000000000000e+00" cType="1" res="2.5101187638938427e-03" rms="2.3598098754882812e-01" purity="6.0741984844207764e-01" nType="-99"/>
          <Node pos="r" depth="2" NCoef="0" IVar="-1" Cut="0.0000000000000000e+00" cType="1" res="-4.0410882793366909e-03" rms="2.2093719244003296e-01" purity="3.8508158922195435e-01" nType="-99"/>
        </Node>
        <Node pos="r" depth="1" NCoef="0" IVar="2" Cut="1.2056225538253784e+00" cType="1" res="-1.0391303338110447e-02" rms="2.2302521765232086e-01" purity="4.5115429162979126e-01" nType="0">
          <Node pos="l" depth="2" NCoef="0" IVar="-1" Cut="0.0000000000000000e+00" cType="1" res="-7.1537955664098263e-03" rms="5.7589892297983170e-02" purity="5.6637529283761978e-02" nType="-99"/>
          <Node pos="r" depth="2" NCoef="0" IVar="-1" Cut="0.0000000000000000e+00" cType="1" res="-6.3912267796695232e-04" rms="2.3145796358585358e-01" purity="4.8570904135704041e-01" nType="-99"/>
        </Node>
      </Node>
    </BinaryTree>
    <BinaryTree type="DecisionTree" boostWeight="1.0000000000000000e+00" itree="934">
      <Node pos="s" depth="0" NCoef="0" IVar="17" Cut="-9.6166950464248657e-01" cType="1" res="-1.8048310885205865e-03" rms="2.2913582623004913e-01" purity="4.9858322739601135e-01" nType="0">
        <Node pos="l" depth="1" NCoef="0" IVar="32" Cut="-1.5312186479568481e+00" cType="1" res="2.4865756276994944e-03" rms="2.3126672208309174e-01" purity="5.2052104473114014e-01" nType="0">
          <Node pos="l" depth="2" NCoef="0" IVar="-1" Cut="0.0000000000000000e+00" cType="1" res="1.9857843872159719e-03" rms="2.1642406284809113e-01" purity="7.0256274938583374e-01" nType="-99"/>
          <Node pos="r" depth="2" NCoef="0" IVar="-1" Cut="0.0000000000000000e+00" cType="1" res="-8.4500707453116775e-04" rms="2.4021343886852264e-01" purity="3.9695432782173157e-01" nType="-99"/>
        </Node>
        <Node pos="r" depth="1" NCoef="0" IVar="18" Cut="1.4016008377075195e+00" cType="1" res="-4.8276551067829132e-02" rms="1.9879673421382904e-01" purity="2.6101827621459961e-01" nType="0">
          <Node pos="l" depth="2" NCoef="0" IVar="-1" Cut="0.0000000000000000e+00" cType="1" res="-3.7025676574558020e-03" rms="2.0108287036418915e-01" purity="2.8651019930839539e-01" nType="-99"/>
          <Node pos="r" depth="2" NCoef="0" IVar="-1" Cut="0.0000000000000000e+00" cType="1" res="-9.8524596542119980e-03" rms="1.8932363390922546e-01" purity="2.0658969879150391e-01" nType="-99"/>
        </Node>
      </Node>
    </BinaryTree>
    <BinaryTree type="DecisionTree" boostWeight="1.0000000000000000e+00" itree="935">
      <Node pos="s" depth="0" NCoef="0" IVar="57" Cut="-1.1174284219741821e+00" cType="1" res="2.4354089982807636e-03" rms="2.3558536171913147e-01" purity="5.0026369094848633e-01" nType="0">
        <Node pos="l" depth="1" NCoef="0" IVar="34" Cut="5.5748534202575684e-01" cType="1" res="7.4543361552059650e-03" rms="2.3886364698410034e-01" purity="5.3400701284408569e-01" nType="0">
          <Node pos="l" depth="2" NCoef="0" IVar="-1" Cut="0.0000000000000000e+00" cType="1" res="1.3535157777369022e-03" rms="2.3537746071815491e-01" purity="6.0135382413864136e-01" nType="-99"/>
          <Node pos="r" depth="2" NCoef="0" IVar="-1" Cut="0.0000000000000000e+00" cType="1" res="-2.2594984620809555e-03" rms="2.5359961390495300e-01" purity="1.9766649603843689e-01" nType="-99"/>
        </Node>
        <Node pos="r" depth="1" NCoef="0" IVar="53" Cut="-1.2217015027999878e+00" cType="1" res="-3.0516842380166054e-02" rms="2.0985056459903717e-01" purity="2.7871868014335632e-01" nType="0">
          <Node pos="l" depth="2" NCoef="0" IVar="-1" Cut="0.0000000000000000e+00" cType="1" res="-8.5539941210299730e-04" rms="2.3360328376293182e-01" purity="3.6662828922271729e-01" nType="-99"/>
          <Node pos="r" depth="2" NCoef="0" IVar="-1" Cut="0.0000000000000000e+00" cType="1" res="-7.6361037790775299e-03" rms="1.7545387148857117e-01" purity="1.7880019545555115e-01" nType="-99"/>
        </Node>
      </Node>
    </BinaryTree>
    <BinaryTree type="DecisionTree" boostWeight="1.0000000000000000e+00" itree="936">
      <Node pos="s" depth="0" NCoef="0" IVar="43" Cut="1.2113429307937622e+00" cType="1" res="1.5798655804246664e-03" rms="2.2973196208477020e-01" purity="5.0020843744277954e-01" nType="0">
        <Node pos="l" depth="1" NCoef="0" IVar="0" Cut="8.4806513786315918e-01" cType="1" res="4.2414041236042976e-03" rms="2.3218090832233429e-01" purity="5.0972807407379150e-01" nType="0">
          <Node pos="l" depth="2" NCoef="0" IVar="-1" Cut="0.0000000000000000e+00" cType="1" res="1.0753772221505642e-03" rms="2.3463734984397888e-01" purity="5.4589754343032837e-01" nType="-99"/>
          <Node pos="r" depth="2" NCoef="0" IVar="-1" Cut="0.0000000000000000e+00" cType="1" res="-2.6338547468185425e-03" rms="2.1931330859661102e-01" purity="3.5494124889373779e-01" nType="-99"/>
        </Node>
        <Node pos="r" depth="1" NCoef="0" IVar="-1" Cut="0.0000000000000000e+00" cType="1" res="-8.8742757216095924e-03" rms="1.2361646443605423e-01" purity="2.3322466015815735e-01" nType="-99"/>
      </Node>
    </BinaryTree>
    <BinaryTree type="DecisionTree" boostWeight="1.0000000000000000e+00" itree="937">
      <Node pos="s" depth="0" NCoef="0" IVar="54" Cut="1.2534822225570679e+00" cType="1" res="-2.1110202651470900e-03" rms="2.2956863045692444e-01" purity="4.9822166562080383e-01" nType="0">
        <Node pos="l" depth="1" NCoef="0" IVar="44" Cut="1.2345679104328156e-02" cType="1" res="2.8896282892674208e-03" rms="2.3127169907093048e-01" purity="5.5631417036056519e-01" nType="0">
          <Node pos="l" depth="2" NCoef="0" IVar="-1" Cut="0.0000000000000000e+00" cType="1" res="6.1870302306488156e-04" rms="2.2930116951465607e-01" purity="5.6627297401428223e-01" nType="-99"/>
          <Node pos="r" depth="2" NCoef="0" IVar="-1" Cut="0.0000000000000000e+00" cType="1" res="-6.7130681127309799e-03" rms="2.6210433244705200e-01" purity="3.3418887853622437e-01" nType="-99"/>
        </Node>
        <Node pos="r" depth="1" NCoef="0" IVar="49" Cut="3.4542534351348877e+00" cType="1" res="-3.5550434142351151e-02" rms="2.1486760675907135e-01" purity="1.0975622385740280e-01" nType="0">
          <Node pos="l" depth="2" NCoef="0" IVar="-1" Cut="0.0000000000000000e+00" cType="1" res="-1.2651825090870261e-03" rms="2.1308046579360962e-01" purity="1.0805013775825500e-01" nType="-99"/>
          <Node pos="r" depth="2" NCoef="0" IVar="-1" Cut="0.0000000000000000e+00" cType="1" res="-9.7920577973127365e-03" rms="2.0618312060832977e-01" purity="1.1370956152677536e-01" nType="-99"/>
        </Node>
      </Node>
    </BinaryTree>
    <BinaryTree type="DecisionTree" boostWeight="1.0000000000000000e+00" itree="938">
      <Node pos="s" depth="0" NCoef="0" IVar="23" Cut="1.2355257272720337e+00" cType="1" res="-1.4348957920446992e-03" rms="2.3099595308303833e-01" purity="4.9812683463096619e-01" nType="0">
        <Node pos="l" depth="1" NCoef="0" IVar="36" Cut="-1.4924387931823730e+00" cType="1" res="8.4640196291729808e-04" rms="2.3274306952953339e-01" purity="5.0600844621658325e-01" nType="0">
          <Node pos="l" depth="2" NCoef="0" IVar="-1" Cut="0.0000000000000000e+00" cType="1" res="1.1260623577982187e-03" rms="2.2727224230766296e-01" purity="6.3629245758056641e-01" nType="-99"/>
          <Node pos="r" depth="2" NCoef="0" IVar="-1" Cut="0.0000000000000000e+00" cType="1" res="-1.5043721068650484e-03" rms="2.4004085361957550e-01" purity="3.0780446529388428e-01" nType="-99"/>
        </Node>
        <Node pos="r" depth="1" NCoef="0" IVar="-1" Cut="0.0000000000000000e+00" cType="1" res="-9.1817108914256096e-03" rms="1.4774160087108612e-01" purity="2.4516670405864716e-01" nType="-99"/>
      </Node>
    </BinaryTree>
    <BinaryTree type="DecisionTree" boostWeight="1.0000000000000000e+00" itree="939">
      <Node pos="s" depth="0" NCoef="0" IVar="57" Cut="-1.8791928291320801e+00" cType="1" res="5.3250964265316725e-04" rms="2.3179614543914795e-01" purity="5.0015634298324585e-01" nType="0">
        <Node pos="l" depth="1" NCoef="0" IVar="17" Cut="-7.2509300708770752e-01" cType="1" res="1.1202332563698292e-02" rms="2.3880808055400848e-01" purity="5.6375646591186523e-01" nType="0">
          <Node pos="l" depth="2" NCoef="0" IVar="-1" Cut="0.0000000000000000e+00" cType="1" res="1.4076671795919538e-03" rms="2.3819866776466370e-01" purity="5.7479512691497803e-01" nType="-99"/>
          <Node pos="r" depth="2" NCoef="0" IVar="-1" Cut="0.0000000000000000e+00" cType="1" res="-5.9208623133599758e-03" rms="2.4443449079990387e-01" purity="2.8846570849418640e-01" nType="-99"/>
        </Node>
        <Node pos="r" depth="1" NCoef="0" IVar="5" Cut="9.4208693504333496e-01" cType="1" res="-1.5338480472564697e-02" rms="2.1999955177307129e-01" purity="4.0555340051651001e-01" nType="0">
          <Node pos="l" depth="2" NCoef="0" IVar="-1" Cut="0.0000000000000000e+00" cType="1" res="-1.7587233334779739e-02" rms="0.0000000000000000e+00" purity="2.0814632996916771e-02" nType="-99"/>
          <Node pos="r" depth="2" NCoef="0" IVar="-1" Cut="0.0000000000000000e+00" cType="1" res="-9.7578449640423059e-04" rms="2.3516622185707092e-01" purity="4.4016754627227783e-01" nType="-99"/>
        </Node>
      </Node>
    </BinaryTree>
    <BinaryTree type="DecisionTree" boostWeight="1.0000000000000000e+00" itree="940">
      <Node pos="s" depth="0" NCoef="0" IVar="63" Cut="1.1558468341827393e+00" cType="1" res="-8.1260612932965159e-04" rms="2.2826454043388367e-01" purity="4.9901837110519409e-01" nType="0">
        <Node pos="l" depth="1" NCoef="0" IVar="36" Cut="-1.4924445152282715e+00" cType="1" res="2.3202791344374418e-03" rms="2.3082247376441956e-01" purity="5.0974452495574951e-01" nType="0">
          <Node pos="l" depth="2" NCoef="0" IVar="-1" Cut="0.0000000000000000e+00" cType="1" res="1.3773100217804313e-03" rms="2.2212927043437958e-01" purity="6.4224296808242798e-01" nType="-99"/>
          <Node pos="r" depth="2" NCoef="0" IVar="-1" Cut="0.0000000000000000e+00" cType="1" res="-1.4555918751284480e-03" rms="2.4241074919700623e-01" purity="3.1040310859680176e-01" nType="-99"/>
        </Node>
        <Node pos="r" depth="1" NCoef="0" IVar="2" Cut="1.9788978099822998e+00" cType="1" res="-5.8527566492557526e-02" rms="1.6419301927089691e-01" purity="3.0141797661781311e-01" nType="0">
          <Node pos="l" depth="2" NCoef="0" IVar="-1" Cut="0.0000000000000000e+00" cType="1" res="-1.2640928849577904e-02" rms="0.0000000000000000e+00" purity="7.0416621863842010e-02" nType="-99"/>
          <Node pos="r" depth="2" NCoef="0" IVar="-1" Cut="0.0000000000000000e+00" cType="1" res="-3.4657188225537539e-03" rms="2.7175846695899963e-01" purity="5.0924772024154663e-01" nType="-99"/>
        </Node>
      </Node>
    </BinaryTree>
    <BinaryTree type="DecisionTree" boostWeight="1.0000000000000000e+00" itree="941">
      <Node pos="s" depth="0" NCoef="0" IVar="14" Cut="1.4476122856140137e+00" cType="1" res="-1.1488421587273479e-03" rms="2.2754898667335510e-01" purity="4.9866354465484619e-01" nType="0">
        <Node pos="l" depth="1" NCoef="0" IVar="65" Cut="6.1751896142959595e-01" cType="1" res="-1.6578381881117821e-02" rms="1.9581177830696106e-01" purity="1.8954238295555115e-01" nType="0">
          <Node pos="l" depth="2" NCoef="0" IVar="-1" Cut="0.0000000000000000e+00" cType="1" res="-5.5043003521859646e-04" rms="2.2595664858818054e-01" purity="2.3759472370147705e-01" nType="-99"/>
          <Node pos="r" depth="2" NCoef="0" IVar="-1" Cut="0.0000000000000000e+00" cType="1" res="-8.3102788776159286e-03" rms="7.1441866457462311e-02" purity="6.8806268274784088e-02" nType="-99"/>
        </Node>
        <Node pos="r" depth="1" NCoef="0" IVar="11" Cut="1.2345679104328156e-02" cType="1" res="1.1197647079825401e-02" rms="2.4937346577644348e-01" purity="7.4601769447326660e-01" nType="0">
          <Node pos="l" depth="2" NCoef="0" IVar="-1" Cut="0.0000000000000000e+00" cType="1" res="3.2050497829914093e-03" rms="2.1569663286209106e-01" purity="7.7495563030242920e-01" nType="-99"/>
          <Node pos="r" depth="2" NCoef="0" IVar="-1" Cut="0.0000000000000000e+00" cType="1" res="-4.4693308882415295e-04" rms="2.6987427473068237e-01" purity="7.2516673803329468e-01" nType="-99"/>
        </Node>
      </Node>
    </BinaryTree>
    <BinaryTree type="DecisionTree" boostWeight="1.0000000000000000e+00" itree="942">
      <Node pos="s" depth="0" NCoef="0" IVar="56" Cut="1.3303586244583130e+00" cType="1" res="1.5676252078264952e-03" rms="2.2763520479202271e-01" purity="5.0072646141052246e-01" nType="0">
        <Node pos="l" depth="1" NCoef="0" IVar="14" Cut="-1.4537111520767212e+00" cType="1" res="6.2240450643002987e-03" rms="2.3067773878574371e-01" purity="5.5118429660797119e-01" nType="0">
          <Node pos="l" depth="2" NCoef="0" IVar="-1" Cut="0.0000000000000000e+00" cType="1" res="-2.0876398310065269e-02" rms="0.0000000000000000e+00" purity="-1.3458974659442902e-02" nType="-99"/>
          <Node pos="r" depth="2" NCoef="0" IVar="-1" Cut="0.0000000000000000e+00" cType="1" res="1.1005242122337222e-03" rms="2.6063850522041321e-01" purity="6.7416489124298096e-01" nType="-99"/>
        </Node>
        <Node pos="r" depth="1" NCoef="0" IVar="49" Cut="3.4853184223175049e+00" cType="1" res="-3.5612646490335464e-02" rms="1.9780822098255157e-01" purity="9.7833923995494843e-02" nType="0">
          <Node pos="l" depth="2" NCoef="0" IVar="-1" Cut="0.0000000000000000e+00" cType="1" res="-1.4884126139804721e-03" rms="2.0080487430095673e-01" purity="1.1316605657339096e-01" nType="-99"/>
          <Node pos="r" depth="2" NCoef="0" IVar="-1" Cut="0.0000000000000000e+00" cType="1" res="-1.3744635507464409e-02" rms="1.5391992032527924e-01" purity="4.0828291326761246e-02" nType="-99"/>
        </Node>
      </Node>
    </BinaryTree>
    <BinaryTree type="DecisionTree" boostWeight="1.0000000000000000e+00" itree="943">
      <Node pos="s" depth="0" NCoef="0" IVar="57" Cut="-9.7233831882476807e-01" cType="1" res="1.6078010667115450e-03" rms="2.2887821495532990e-01" purity="4.9919304251670837e-01" nType="0">
        <Node pos="l" depth="1" NCoef="0" IVar="65" Cut="7.2976052761077881e-01" cType="1" res="6.3656433485448360e-03" rms="2.3309038579463959e-01" purity="5.2754104137420654e-01" nType="0">
          <Node pos="l" depth="2" NCoef="0" IVar="-1" Cut="0.0000000000000000e+00" cType="1" res="1.0490349959582090e-03" rms="2.3850367963314056e-01" purity="5.5945932865142822e-01" nType="-99"/>
          <Node pos="r" depth="2" NCoef="0" IVar="-1" Cut="0.0000000000000000e+00" cType="1" res="-4.3301498517394066e-03" rms="1.6365528106689453e-01" purity="2.0509240031242371e-01" nType="-99"/>
        </Node>
        <Node pos="r" depth="1" NCoef="0" IVar="53" Cut="-1.3377331495285034e+00" cType="1" res="-4.1540864855051041e-02" rms="1.8075098097324371e-01" purity="2.4210654199123383e-01" nType="0">
          <Node pos="l" depth="2" NCoef="0" IVar="-1" Cut="0.0000000000000000e+00" cType="1" res="-1.1095931986346841e-03" rms="2.3136223852634430e-01" purity="3.5299819707870483e-01" nType="-99"/>
          <Node pos="r" depth="2" NCoef="0" IVar="-1" Cut="0.0000000000000000e+00" cType="1" res="-9.5607750117778778e-03" rms="1.1228314042091370e-01" purity="1.4427039027214050e-01" nType="-99"/>
        </Node>
      </Node>
    </BinaryTree>
    <BinaryTree type="DecisionTree" boostWeight="1.0000000000000000e+00" itree="944">
      <Node pos="s" depth="0" NCoef="0" IVar="0" Cut="6.5928012132644653e-01" cType="1" res="1.1695636203512549e-03" rms="2.3168158531188965e-01" purity="5.0020354986190796e-01" nType="0">
        <Node pos="l" depth="1" NCoef="0" IVar="4" Cut="3.7934341430664062e+00" cType="1" res="1.1080629192292690e-02" rms="2.3894965648651123e-01" purity="5.6014949083328247e-01" nType="0">
          <Node pos="l" depth="2" NCoef="0" IVar="-1" Cut="0.0000000000000000e+00" cType="1" res="2.6741544716060162e-03" rms="2.3332911729812622e-01" purity="5.6843459606170654e-01" nType="-99"/>
          <Node pos="r" depth="2" NCoef="0" IVar="-1" Cut="0.0000000000000000e+00" cType="1" res="-1.0451064445078373e-03" rms="2.4591876566410065e-01" purity="5.4707646369934082e-01" nType="-99"/>
        </Node>
        <Node pos="r" depth="1" NCoef="0" IVar="29" Cut="2.7113759517669678e+00" cType="1" res="-1.7679572105407715e-02" rms="2.1593724191188812e-01" purity="3.8619676232337952e-01" nType="0">
          <Node pos="l" depth="2" NCoef="0" IVar="-1" Cut="0.0000000000000000e+00" cType="1" res="-9.4548054039478302e-03" rms="1.3415324687957764e-01" purity="1.5792848169803619e-01" nType="-99"/>
          <Node pos="r" depth="2" NCoef="0" IVar="-1" Cut="0.0000000000000000e+00" cType="1" res="-3.7626418634317815e-04" rms="2.3291161656379700e-01" purity="4.5391660928726196e-01" nType="-99"/>
        </Node>
      </Node>
    </BinaryTree>
    <BinaryTree type="DecisionTree" boostWeight="1.0000000000000000e+00" itree="945">
      <Node pos="s" depth="0" NCoef="0" IVar="14" Cut="-1.4537136554718018e+00" cType="1" res="-9.3571480829268694e-04" rms="2.2740571200847626e-01" purity="5.0202196836471558e-01" nType="0">
        <Node pos="l" depth="1" NCoef="0" IVar="65" Cut="2.2140353918075562e-01" cType="1" res="-3.1734328716993332e-02" rms="0.0000000000000000e+00" purity="-2.2130282595753670e-02" nType="-99"/>
        <Node pos="r" depth="1" NCoef="0" IVar="18" Cut="1.3194606304168701e+00" cType="1" res="5.9372759424149990e-03" rms="2.6226410269737244e-01" purity="6.2131839990615845e-01" nType="0">
          <Node pos="l" depth="2" NCoef="0" IVar="-1" Cut="0.0000000000000000e+00" cType="1" res="8.5893977666273713e-04" rms="2.6252520084381104e-01" purity="6.3597548007965088e-01" nType="-99"/>
          <Node pos="r" depth="2" NCoef="0" IVar="-1" Cut="0.0000000000000000e+00" cType="1" res="-6.1573167331516743e-03" rms="2.4777191877365112e-01" purity="3.7023058533668518e-01" nType="-99"/>
        </Node>
      </Node>
    </BinaryTree>
    <BinaryTree type="DecisionTree" boostWeight="1.0000000000000000e+00" itree="946">
      <Node pos="s" depth="0" NCoef="0" IVar="25" Cut="8.9149290323257446e-01" cType="1" res="4.4367474038153887e-04" rms="2.3038919270038605e-01" purity="4.9834594130516052e-01" nType="0">
        <Node pos="l" depth="1" NCoef="0" IVar="18" Cut="6.4850181341171265e-01" cType="1" res="-8.9355167001485825e-03" rms="0.0000000000000000e+00" purity="4.4484302401542664e-02" nType="-99"/>
        <Node pos="r" depth="1" NCoef="0" IVar="56" Cut="1.5240936279296875e+00" cType="1" res="4.5001609250903130e-03" rms="2.4022650718688965e-01" purity="5.3893530368804932e-01" nType="0">
          <Node pos="l" depth="2" NCoef="0" IVar="-1" Cut="0.0000000000000000e+00" cType="1" res="6.9720548344776034e-04" rms="2.4214689433574677e-01" purity="5.5826508998870850e-01" nType="-99"/>
          <Node pos="r" depth="2" NCoef="0" IVar="-1" Cut="0.0000000000000000e+00" cType="1" res="-9.2924674972891808e-03" rms="1.6853763163089752e-01" purity="2.3611830547451973e-02" nType="-99"/>
        </Node>
      </Node>
    </BinaryTree>
    <BinaryTree type="DecisionTree" boostWeight="1.0000000000000000e+00" itree="947">
      <Node pos="s" depth="0" NCoef="0" IVar="65" Cut="7.5189441442489624e-01" cType="1" res="-9.8471983801573515e-04" rms="2.2724996507167816e-01" purity="4.9997469782829285e-01" nType="0">
        <Node pos="l" depth="1" NCoef="0" IVar="36" Cut="1.5243083238601685e+00" cType="1" res="2.9720121528953314e-03" rms="2.3419795930385590e-01" purity="5.2891820669174194e-01" nType="0">
          <Node pos="l" depth="2" NCoef="0" IVar="-1" Cut="0.0000000000000000e+00" cType="1" res="5.9643277199938893e-04" rms="2.3609204590320587e-01" purity="5.4845827817916870e-01" nType="-99"/>
          <Node pos="r" depth="2" NCoef="0" IVar="-1" Cut="0.0000000000000000e+00" cType="1" res="-9.8361680284142494e-03" rms="1.6185119748115540e-01" purity="2.4047572165727615e-02" nType="-99"/>
        </Node>
        <Node pos="r" depth="1" NCoef="0" IVar="14" Cut="1.2132244110107422e+00" cType="1" res="-4.9287427216768265e-02" rms="9.9893033504486084e-02" purity="1.4664070308208466e-01" nType="0">
          <Node pos="l" depth="2" NCoef="0" IVar="-1" Cut="0.0000000000000000e+00" cType="1" res="-1.6595508903264999e-02" rms="0.0000000000000000e+00" purity="-1.1535958386957645e-02" nType="-99"/>
          <Node pos="r" depth="2" NCoef="0" IVar="-1" Cut="0.0000000000000000e+00" cType="1" res="5.0864217337220907e-04" rms="2.7942550182342529e-01" purity="5.3321200609207153e-01" nType="-99"/>
        </Node>
      </Node>
    </BinaryTree>
    <BinaryTree type="DecisionTree" boostWeight="1.0000000000000000e+00" itree="948">
      <Node pos="s" depth="0" NCoef="0" IVar="1" Cut="3.4287717342376709e+00" cType="1" res="-1.0469654807820916e-03" rms="2.2941735386848450e-01" purity="4.9949395656585693e-01" nType="0">
        <Node pos="l" depth="1" NCoef="0" IVar="14" Cut="-1.4150160551071167e+00" cType="1" res="-1.0134569369256496e-02" rms="2.3099797964096069e-01" purity="3.6408492922782898e-01" nType="0">
          <Node pos="l" depth="2" NCoef="0" IVar="-1" Cut="0.0000000000000000e+00" cType="1" res="-5.2841998636722565e-02" rms="0.0000000000000000e+00" purity="-3.0940728262066841e-02" nType="-99"/>
          <Node pos="r" depth="2" NCoef="0" IVar="-1" Cut="0.0000000000000000e+00" cType="1" res="-6.4144856878556311e-05" rms="2.8766158223152161e-01" purity="4.9943858385086060e-01" nType="-99"/>
        </Node>
        <Node pos="r" depth="1" NCoef="0" IVar="11" Cut="1.2345679104328156e-02" cType="1" res="2.0335625857114792e-02" rms="2.2420625388622284e-01" purity="8.1810343265533447e-01" nType="0">
          <Node pos="l" depth="2" NCoef="0" IVar="-1" Cut="0.0000000000000000e+00" cType="1" res="5.0783311016857624e-03" rms="1.8292975425720215e-01" purity="8.0084073543548584e-01" nType="-99"/>
          <Node pos="r" depth="2" NCoef="0" IVar="-1" Cut="0.0000000000000000e+00" cType="1" res="4.9486127682030201e-04" rms="2.4873527884483337e-01" purity="8.3061569929122925e-01" nType="-99"/>
        </Node>
      </Node>
    </BinaryTree>
    <BinaryTree type="DecisionTree" boostWeight="1.0000000000000000e+00" itree="949">
      <Node pos="s" depth="0" NCoef="0" IVar="56" Cut="-1.2217336893081665e+00" cType="1" res="2.1703464444726706e-03" rms="2.2913341224193573e-01" purity="4.9981719255447388e-01" nType="0">
        <Node pos="l" depth="1" NCoef="0" IVar="47" Cut="-1.3961745500564575e+00" cType="1" res="1.0094259865581989e-02" rms="2.3051559925079346e-01" purity="5.8970683813095093e-01" nType="0">
          <Node pos="l" depth="2" NCoef="0" IVar="-1" Cut="0.0000000000000000e+00" cType="1" res="1.4148175250738859e-03" rms="2.2996012866497040e-01" purity="6.0445970296859741e-01" nType="-99"/>
          <Node pos="r" depth="2" NCoef="0" IVar="-1" Cut="0.0000000000000000e+00" cType="1" res="-4.7013075090944767e-03" rms="2.3210667073726654e-01" purity="3.7973424792289734e-01" nType="-99"/>
        </Node>
        <Node pos="r" depth="1" NCoef="0" IVar="49" Cut="3.3627452850341797e+00" cType="1" res="-2.2143555805087090e-02" rms="2.2308933734893799e-01" purity="2.2399803996086121e-01" nType="0">
          <Node pos="l" depth="2" NCoef="0" IVar="-1" Cut="0.0000000000000000e+00" cType="1" res="-7.1904523065313697e-04" rms="2.1732877194881439e-01" purity="2.4319325387477875e-01" nType="-99"/>
          <Node pos="r" depth="2" NCoef="0" IVar="-1" Cut="0.0000000000000000e+00" cType="1" res="-6.7846714518964291e-03" rms="2.3242206871509552e-01" purity="1.7077232897281647e-01" nType="-99"/>
        </Node>
      </Node>
    </BinaryTree>
    <BinaryTree type="DecisionTree" boostWeight="1.0000000000000000e+00" itree="950">
      <Node pos="s" depth="0" NCoef="0" IVar="2" Cut="1.2407044172286987e+00" cType="1" res="-2.8525886591523886e-04" rms="2.2900018095970154e-01" purity="5.0025397539138794e-01" nType="0">
        <Node pos="l" depth="1" NCoef="0" IVar="37" Cut="-2.3902525901794434e+00" cType="1" res="-4.1393253952264786e-02" rms="1.5628790855407715e-01" purity="1.1450883746147156e-01" nType="0">
          <Node pos="l" depth="2" NCoef="0" IVar="-1" Cut="0.0000000000000000e+00" cType="1" res="8.9230743469670415e-04" rms="2.7851790189743042e-01" purity="2.2436875104904175e-01" nType="-99"/>
          <Node pos="r" depth="2" NCoef="0" IVar="-1" Cut="0.0000000000000000e+00" cType="1" res="-6.6747381351888180e-03" rms="5.9197433292865753e-02" purity="7.4166782200336456e-02" nType="-99"/>
        </Node>
        <Node pos="r" depth="1" NCoef="0" IVar="0" Cut="6.5935307741165161e-01" cType="1" res="3.5539404489099979e-03" rms="2.3427535593509674e-01" purity="5.3627997636795044e-01" nType="0">
          <Node pos="l" depth="2" NCoef="0" IVar="-1" Cut="0.0000000000000000e+00" cType="1" res="1.3755782274529338e-03" rms="2.3908923566341400e-01" purity="6.0066694021224976e-01" nType="-99"/>
          <Node pos="r" depth="2" NCoef="0" IVar="-1" Cut="0.0000000000000000e+00" cType="1" res="-1.7206433694809675e-03" rms="2.2362662851810455e-01" purity="4.1353601217269897e-01" nType="-99"/>
        </Node>
      </Node>
    </BinaryTree>
    <BinaryTree type="DecisionTree" boostWeight="1.0000000000000000e+00" itree="951">
      <Node pos="s" depth="0" NCoef="0" IVar="2" Cut="5.7702171802520752e-01" cType="1" res="-1.7613650925341062e-05" rms="2.2892619669437408e-01" purity="4.9944102764129639e-01" nType="0">
        <Node pos="l" depth="1" NCoef="0" IVar="-1" Cut="0.0000000000000000e+00" cType="1" res="-1.0580689646303654e-02" rms="0.0000000000000000e+00" purity="-4.5510001480579376e-02" nType="-99"/>
        <Node pos="r" depth="1" NCoef="0" IVar="64" Cut="1.2345679104328156e-02" cType="1" res="2.1642984356731176e-03" rms="2.3394335806369781e-01" purity="5.1280826330184937e-01" nType="0">
          <Node pos="l" depth="2" NCoef="0" IVar="-1" Cut="0.0000000000000000e+00" cType="1" res="5.1704287761822343e-04" rms="2.3439273238182068e-01" purity="5.2290886640548706e-01" nType="-99"/>
          <Node pos="r" depth="2" NCoef="0" IVar="-1" Cut="0.0000000000000000e+00" cType="1" res="-6.9930213503539562e-03" rms="2.1457013487815857e-01" purity="2.8633537888526917e-01" nType="-99"/>
        </Node>
      </Node>
    </BinaryTree>
    <BinaryTree type="DecisionTree" boostWeight="1.0000000000000000e+00" itree="952">
      <Node pos="s" depth="0" NCoef="0" IVar="45" Cut="2.8661324977874756e+00" cType="1" res="3.2454305328428745e-03" rms="2.3064969480037689e-01" purity="5.0295490026473999e-01" nType="0">
        <Node pos="l" depth="1" NCoef="0" IVar="14" Cut="-1.3763210773468018e+00" cType="1" res="-3.7058121524751186e-03" rms="2.3100532591342926e-01" purity="4.1433346271514893e-01" nType="0">
          <Node pos="l" depth="2" NCoef="0" IVar="-1" Cut="0.0000000000000000e+00" cType="1" res="-3.4447532147169113e-02" rms="0.0000000000000000e+00" purity="-2.2921623662114143e-02" nType="-99"/>
          <Node pos="r" depth="2" NCoef="0" IVar="-1" Cut="0.0000000000000000e+00" cType="1" res="4.5825468259863555e-04" rms="2.8213894367218018e-01" purity="5.6071054935455322e-01" nType="-99"/>
        </Node>
        <Node pos="r" depth="1" NCoef="0" IVar="14" Cut="-1.1442865133285522e+00" cType="1" res="2.7108067646622658e-02" rms="2.2781655192375183e-01" purity="8.0717992782592773e-01" nType="0">
          <Node pos="l" depth="2" NCoef="0" IVar="-1" Cut="0.0000000000000000e+00" cType="1" res="1.2245687656104565e-02" rms="3.3960804343223572e-01" purity="2.1800918877124786e-01" nType="-99"/>
          <Node pos="r" depth="2" NCoef="0" IVar="-1" Cut="0.0000000000000000e+00" cType="1" res="2.0393382292240858e-03" rms="2.0782449841499329e-01" purity="8.8205558061599731e-01" nType="-99"/>
        </Node>
      </Node>
    </BinaryTree>
    <BinaryTree type="DecisionTree" boostWeight="1.0000000000000000e+00" itree="953">
      <Node pos="s" depth="0" NCoef="0" IVar="45" Cut="8.5161584615707397e-01" cType="1" res="3.2937852665781975e-03" rms="2.2947247326374054e-01" purity="5.0326478481292725e-01" nType="0">
        <Node pos="l" depth="1" NCoef="0" IVar="54" Cut="-4.8752954602241516e-01" cType="1" res="-8.9530413970351219e-03" rms="0.0000000000000000e+00" purity="4.4904533773660660e-02" nType="-99"/>
        <Node pos="r" depth="1" NCoef="0" IVar="65" Cut="7.7433204650878906e-01" cType="1" res="7.0967031642794609e-03" rms="2.3801606893539429e-01" purity="5.3936618566513062e-01" nType="0">
          <Node pos="l" depth="2" NCoef="0" IVar="-1" Cut="0.0000000000000000e+00" cType="1" res="1.0617544176056981e-03" rms="2.4220792949199677e-01" purity="5.6358802318572998e-01" nType="-99"/>
          <Node pos="r" depth="2" NCoef="0" IVar="-1" Cut="0.0000000000000000e+00" cType="1" res="-6.6931261681020260e-03" rms="1.3861460983753204e-01" purity="1.3150358200073242e-01" nType="-99"/>
        </Node>
      </Node>
    </BinaryTree>
    <BinaryTree type="DecisionTree" boostWeight="1.0000000000000000e+00" itree="954">
      <Node pos="s" depth="0" NCoef="0" IVar="1" Cut="3.8701777458190918e+00" cType="1" res="-1.1277758749201894e-03" rms="2.2809456288814545e-01" purity="4.9922323226928711e-01" nType="0">
        <Node pos="l" depth="1" NCoef="0" IVar="17" Cut="-2.5119426250457764e+00" cType="1" res="-6.1716828495264053e-03" rms="2.3211216926574707e-01" purity="4.4002130627632141e-01" nType="0">
          <Node pos="l" depth="2" NCoef="0" IVar="-1" Cut="0.0000000000000000e+00" cType="1" res="2.9694242402911186e-03" rms="2.6999452710151672e-01" purity="5.4975867271423340e-01" nType="-99"/>
          <Node pos="r" depth="2" NCoef="0" IVar="-1" Cut="0.0000000000000000e+00" cType="1" res="-1.1598294368013740e-03" rms="2.2637413442134857e-01" purity="4.2599061131477356e-01" nType="-99"/>
        </Node>
        <Node pos="r" depth="1" NCoef="0" IVar="3" Cut="4.7001829147338867e+00" cType="1" res="3.0574953183531761e-02" rms="1.9809330999851227e-01" purity="8.7132787704467773e-01" nType="0">
          <Node pos="l" depth="2" NCoef="0" IVar="-1" Cut="0.0000000000000000e+00" cType="1" res="7.5580063275992870e-03" rms="1.1543382704257965e-01" purity="8.7928009033203125e-01" nType="-99"/>
          <Node pos="r" depth="2" NCoef="0" IVar="-1" Cut="0.0000000000000000e+00" cType="1" res="1.6449188115075231e-03" rms="2.2946575284004211e-01" purity="8.6698997020721436e-01" nType="-99"/>
        </Node>
      </Node>
    </BinaryTree>
    <BinaryTree type="DecisionTree" boostWeight="1.0000000000000000e+00" itree="955">
      <Node pos="s" depth="0" NCoef="0" IVar="47" Cut="-1.3961745500564575e+00" cType="1" res="-1.1118049733340740e-03" rms="2.3061029613018036e-01" purity="4.9916836619377136e-01" nType="0">
        <Node pos="l" depth="1" NCoef="0" IVar="12" Cut="1.4780020713806152e+00" cType="1" res="2.1908232010900974e-03" rms="2.3202832043170929e-01" purity="5.1109647750854492e-01" nType="0">
          <Node pos="l" depth="2" NCoef="0" IVar="-1" Cut="0.0000000000000000e+00" cType="1" res="-7.6803861884400249e-04" rms="2.3735876381397247e-01" purity="3.7393385171890259e-01" nType="-99"/>
          <Node pos="r" depth="2" NCoef="0" IVar="-1" Cut="0.0000000000000000e+00" cType="1" res="1.6565972473472357e-03" rms="2.2195355594158173e-01" purity="7.4172896146774292e-01" nType="-99"/>
        </Node>
        <Node pos="r" depth="1" NCoef="0" IVar="25" Cut="1.8357191085815430e+00" cType="1" res="-5.0748318433761597e-02" rms="2.0172660052776337e-01" purity="3.1989589333534241e-01" nType="0">
          <Node pos="l" depth="2" NCoef="0" IVar="-1" Cut="0.0000000000000000e+00" cType="1" res="-1.3828697614371777e-02" rms="0.0000000000000000e+00" purity="6.8041749298572540e-02" nType="-99"/>
          <Node pos="r" depth="2" NCoef="0" IVar="-1" Cut="0.0000000000000000e+00" cType="1" res="-1.8150915857404470e-03" rms="2.7844312787055969e-01" purity="5.1763641834259033e-01" nType="-99"/>
        </Node>
      </Node>
    </BinaryTree>
    <BinaryTree type="DecisionTree" boostWeight="1.0000000000000000e+00" itree="956">
      <Node pos="s" depth="0" NCoef="0" IVar="56" Cut="1.3303586244583130e+00" cType="1" res="9.3215086963027716e-04" rms="2.3314882814884186e-01" purity="4.9861076474189758e-01" nType="0">
        <Node pos="l" depth="1" NCoef="0" IVar="44" Cut="1.2345679104328156e-02" cType="1" res="5.3495499305427074e-03" rms="2.3643304407596588e-01" purity="5.4992568492889404e-01" nType="0">
          <Node pos="l" depth="2" NCoef="0" IVar="-1" Cut="0.0000000000000000e+00" cType="1" res="8.6961215129122138e-04" rms="2.3432309925556183e-01" purity="5.6051564216613770e-01" nType="-99"/>
          <Node pos="r" depth="2" NCoef="0" IVar="-1" Cut="0.0000000000000000e+00" cType="1" res="-6.2273745425045490e-03" rms="2.6939433813095093e-01" purity="3.2363718748092651e-01" nType="-99"/>
        </Node>
        <Node pos="r" depth="1" NCoef="0" IVar="49" Cut="3.3101315498352051e+00" cType="1" res="-3.3372152596712112e-02" rms="2.0261706411838531e-01" purity="1.0011361539363861e-01" nType="0">
          <Node pos="l" depth="2" NCoef="0" IVar="-1" Cut="0.0000000000000000e+00" cType="1" res="6.7866966128349304e-04" rms="2.1155257523059845e-01" purity="1.2464223802089691e-01" nType="-99"/>
          <Node pos="r" depth="2" NCoef="0" IVar="-1" Cut="0.0000000000000000e+00" cType="1" res="-1.0361331515014172e-02" rms="1.7279817163944244e-01" purity="6.2640227377414703e-02" nType="-99"/>
        </Node>
      </Node>
    </BinaryTree>
    <BinaryTree type="DecisionTree" boostWeight="1.0000000000000000e+00" itree="957">
      <Node pos="s" depth="0" NCoef="0" IVar="63" Cut="1.2010911703109741e+00" cType="1" res="3.5825598752126098e-04" rms="2.3276562988758087e-01" purity="4.9941518902778625e-01" nType="0">
        <Node pos="l" depth="1" NCoef="0" IVar="1" Cut="1.8127442598342896e+00" cType="1" res="2.8929933905601501e-03" rms="2.3560951650142670e-01" purity="5.0918012857437134e-01" nType="0">
          <Node pos="l" depth="2" NCoef="0" IVar="-1" Cut="0.0000000000000000e+00" cType="1" res="-3.3943392336368561e-02" rms="0.0000000000000000e+00" purity="-3.5480581223964691e-02" nType="-99"/>
          <Node pos="r" depth="2" NCoef="0" IVar="-1" Cut="0.0000000000000000e+00" cType="1" res="5.8263330720365047e-04" rms="2.4646915495395660e-01" purity="5.3830170631408691e-01" nType="-99"/>
        </Node>
        <Node pos="r" depth="1" NCoef="0" IVar="-1" Cut="0.0000000000000000e+00" cType="1" res="-8.2168020308017731e-03" rms="1.2167941778898239e-01" purity="2.4417562782764435e-01" nType="-99"/>
      </Node>
    </BinaryTree>
    <BinaryTree type="DecisionTree" boostWeight="1.0000000000000000e+00" itree="958">
      <Node pos="s" depth="0" NCoef="0" IVar="34" Cut="9.0581136941909790e-01" cType="1" res="1.7324840882793069e-03" rms="2.2899499535560608e-01" purity="5.0161039829254150e-01" nType="0">
        <Node pos="l" depth="1" NCoef="0" IVar="0" Cut="1.0525909662246704e+00" cType="1" res="7.5334510765969753e-03" rms="2.3141048848628998e-01" purity="5.6819492578506470e-01" nType="0">
          <Node pos="l" depth="2" NCoef="0" IVar="-1" Cut="0.0000000000000000e+00" cType="1" res="1.2441222788766026e-03" rms="2.3112633824348450e-01" purity="5.8360552787780762e-01" nType="-99"/>
          <Node pos="r" depth="2" NCoef="0" IVar="-1" Cut="0.0000000000000000e+00" cType="1" res="-5.4364190436899662e-03" rms="2.2753340005874634e-01" purity="3.7323608994483948e-01" nType="-99"/>
        </Node>
        <Node pos="r" depth="1" NCoef="0" IVar="29" Cut="3.5413300991058350e+00" cType="1" res="-2.8772119432687759e-02" rms="2.1326787769794464e-01" purity="1.5147317945957184e-01" nType="0">
          <Node pos="l" depth="2" NCoef="0" IVar="-1" Cut="0.0000000000000000e+00" cType="1" res="-2.2193104960024357e-03" rms="2.0244325697422028e-01" purity="1.3287457823753357e-01" nType="-99"/>
          <Node pos="r" depth="2" NCoef="0" IVar="-1" Cut="0.0000000000000000e+00" cType="1" res="-6.3515044748783112e-03" rms="2.4056455492973328e-01" purity="2.1036000549793243e-01" nType="-99"/>
        </Node>
      </Node>
    </BinaryTree>
    <BinaryTree type="DecisionTree" boostWeight="1.0000000000000000e+00" itree="959">
      <Node pos="s" depth="0" NCoef="0" IVar="2" Cut="6.6553544998168945e-01" cType="1" res="1.3305118773132563e-04" rms="2.2984494268894196e-01" purity="5.0042200088500977e-01" nType="0">
        <Node pos="l" depth="1" NCoef="0" IVar="-1" Cut="0.0000000000000000e+00" cType="1" res="-8.4942299872636795e-03" rms="0.0000000000000000e+00" purity="-2.2862557321786880e-02" nType="-99"/>
        <Node pos="r" depth="1" NCoef="0" IVar="37" Cut="-1.1090083122253418e+00" cType="1" res="2.3706166539341211e-03" rms="2.3478928208351135e-01" purity="5.1528000831604004e-01" nType="0">
          <Node pos="l" depth="2" NCoef="0" IVar="-1" Cut="0.0000000000000000e+00" cType="1" res="7.5175025267526507e-04" rms="2.3805147409439087e-01" purity="5.4882824420928955e-01" nType="-99"/>
          <Node pos="r" depth="2" NCoef="0" IVar="-1" Cut="0.0000000000000000e+00" cType="1" res="-3.6178440786898136e-03" rms="2.0890688896179199e-01" purity="2.9190966486930847e-01" nType="-99"/>
        </Node>
      </Node>
    </BinaryTree>
    <BinaryTree type="DecisionTree" boostWeight="1.0000000000000000e+00" itree="960">
      <Node pos="s" depth="0" NCoef="0" IVar="0" Cut="2.5884529948234558e-01" cType="1" res="2.3706296924501657e-03" rms="2.3145043849945068e-01" purity="5.0152140855789185e-01" nType="0">
        <Node pos="l" depth="1" NCoef="0" IVar="4" Cut="3.8285045623779297e+00" cType="1" res="2.0697742700576782e-02" rms="2.3937702178955078e-01" purity="5.9308946132659912e-01" nType="0">
          <Node pos="l" depth="2" NCoef="0" IVar="-1" Cut="0.0000000000000000e+00" cType="1" res="3.9027882739901543e-03" rms="2.3624587059020996e-01" purity="6.1275196075439453e-01" nType="-99"/>
          <Node pos="r" depth="2" NCoef="0" IVar="-1" Cut="0.0000000000000000e+00" cType="1" res="-1.1510887416079640e-03" rms="2.4206559360027313e-01" purity="5.5382847785949707e-01" nType="-99"/>
        </Node>
        <Node pos="r" depth="1" NCoef="0" IVar="29" Cut="2.7179970741271973e+00" cType="1" res="-6.4445696771144867e-03" rms="2.2701311111450195e-01" purity="4.5747786760330200e-01" nType="0">
          <Node pos="l" depth="2" NCoef="0" IVar="-1" Cut="0.0000000000000000e+00" cType="1" res="-4.5225899666547775e-03" rms="1.8426047265529633e-01" purity="2.6567575335502625e-01" nType="-99"/>
          <Node pos="r" depth="2" NCoef="0" IVar="-1" Cut="0.0000000000000000e+00" cType="1" res="9.4731498393230140e-05" rms="2.3634983599185944e-01" purity="5.0751197338104248e-01" nType="-99"/>
        </Node>
      </Node>
    </BinaryTree>
    <BinaryTree type="DecisionTree" boostWeight="1.0000000000000000e+00" itree="961">
      <Node pos="s" depth="0" NCoef="0" IVar="14" Cut="1.4871129989624023e+00" cType="1" res="1.8163400454795919e-06" rms="2.2875803709030151e-01" purity="4.9749651551246643e-01" nType="0">
        <Node pos="l" depth="1" NCoef="0" IVar="12" Cut="1.4760125875473022e+00" cType="1" res="-1.2512230314314365e-02" rms="2.1351620554924011e-01" purity="2.4007838964462280e-01" nType="0">
          <Node pos="l" depth="2" NCoef="0" IVar="-1" Cut="0.0000000000000000e+00" cType="1" res="-1.0667631868273020e-03" rms="2.1283404529094696e-01" purity="2.3354451358318329e-01" nType="-99"/>
          <Node pos="r" depth="2" NCoef="0" IVar="-1" Cut="0.0000000000000000e+00" cType="1" res="-7.2100092656910419e-03" rms="2.1314927935600281e-01" purity="3.4204739332199097e-01" nType="-99"/>
        </Node>
        <Node pos="r" depth="1" NCoef="0" IVar="0" Cut="1.0366977453231812e+00" cType="1" res="1.2602330185472965e-02" rms="2.4249006807804108e-01" purity="7.5669330358505249e-01" nType="0">
          <Node pos="l" depth="2" NCoef="0" IVar="-1" Cut="0.0000000000000000e+00" cType="1" res="1.6479609766975045e-03" rms="2.3692922294139862e-01" purity="7.6936399936676025e-01" nType="-99"/>
          <Node pos="r" depth="2" NCoef="0" IVar="-1" Cut="0.0000000000000000e+00" cType="1" res="-4.8392731696367264e-03" rms="2.9944601655006409e-01" purity="5.8589738607406616e-01" nType="-99"/>
        </Node>
      </Node>
    </BinaryTree>
    <BinaryTree type="DecisionTree" boostWeight="1.0000000000000000e+00" itree="962">
      <Node pos="s" depth="0" NCoef="0" IVar="1" Cut="3.7406356334686279e+00" cType="1" res="-8.6878141155466437e-04" rms="2.3284655809402466e-01" purity="4.9630820751190186e-01" nType="0">
        <Node pos="l" depth="1" NCoef="0" IVar="0" Cut="1.0470936298370361e+00" cType="1" res="-7.0328107103705406e-03" rms="2.3842926323413849e-01" purity="4.1951712965965271e-01" nType="0">
          <Node pos="l" depth="2" NCoef="0" IVar="-1" Cut="0.0000000000000000e+00" cType="1" res="-3.6683288635686040e-04" rms="2.4003811180591583e-01" purity="4.3610987067222595e-01" nType="-99"/>
          <Node pos="r" depth="2" NCoef="0" IVar="-1" Cut="0.0000000000000000e+00" cType="1" res="-6.0915420763194561e-03" rms="2.1322605013847351e-01" purity="2.1671171486377716e-01" nType="-99"/>
        </Node>
        <Node pos="r" depth="1" NCoef="0" IVar="11" Cut="1.2345679104328156e-02" cType="1" res="2.7957376092672348e-02" rms="2.0224992930889130e-01" purity="8.5542267560958862e-01" nType="0">
          <Node pos="l" depth="2" NCoef="0" IVar="-1" Cut="0.0000000000000000e+00" cType="1" res="6.3580903224647045e-03" rms="1.4349946379661560e-01" purity="8.3908969163894653e-01" nType="-99"/>
          <Node pos="r" depth="2" NCoef="0" IVar="-1" Cut="0.0000000000000000e+00" cType="1" res="1.5686867991462350e-03" rms="2.3205354809761047e-01" purity="8.6621242761611938e-01" nType="-99"/>
        </Node>
      </Node>
    </BinaryTree>
    <BinaryTree type="DecisionTree" boostWeight="1.0000000000000000e+00" itree="963">
      <Node pos="s" depth="0" NCoef="0" IVar="25" Cut="2.6890213489532471e+00" cType="1" res="-1.9686682207975537e-04" rms="2.2464917600154877e-01" purity="4.9838295578956604e-01" nType="0">
        <Node pos="l" depth="1" NCoef="0" IVar="14" Cut="-1.0667606592178345e+00" cType="1" res="-9.3658166006207466e-03" rms="2.2116197645664215e-01" purity="3.8203606009483337e-01" nType="0">
          <Node pos="l" depth="2" NCoef="0" IVar="-1" Cut="0.0000000000000000e+00" cType="1" res="-1.9064841791987419e-02" rms="0.0000000000000000e+00" purity="-1.1131135746836662e-02" nType="-99"/>
          <Node pos="r" depth="2" NCoef="0" IVar="-1" Cut="0.0000000000000000e+00" cType="1" res="1.0788954386953264e-04" rms="2.8270190954208374e-01" purity="5.5521583557128906e-01" nType="-99"/>
        </Node>
        <Node pos="r" depth="1" NCoef="0" IVar="14" Cut="-1.3376746177673340e+00" cType="1" res="2.2172462195158005e-02" rms="2.3141859471797943e-01" purity="7.8223234415054321e-01" nType="0">
          <Node pos="l" depth="2" NCoef="0" IVar="-1" Cut="0.0000000000000000e+00" cType="1" res="1.8286066129803658e-02" rms="3.2004502415657043e-01" purity="1.4995396137237549e-01" nType="-99"/>
          <Node pos="r" depth="2" NCoef="0" IVar="-1" Cut="0.0000000000000000e+00" cType="1" res="1.4352590078487992e-03" rms="2.1738204360008240e-01" purity="8.5538119077682495e-01" nType="-99"/>
        </Node>
      </Node>
    </BinaryTree>
    <BinaryTree type="DecisionTree" boostWeight="1.0000000000000000e+00" itree="964">
      <Node pos="s" depth="0" NCoef="0" IVar="37" Cut="-2.0248372554779053e+00" cType="1" res="1.9456348672974855e-04" rms="2.3197524249553680e-01" purity="5.0020450353622437e-01" nType="0">
        <Node pos="l" depth="1" NCoef="0" IVar="23" Cut="1.0640345811843872e+00" cType="1" res="1.3959985226392746e-02" rms="2.4057786166667938e-01" purity="5.6872081756591797e-01" nType="0">
          <Node pos="l" depth="2" NCoef="0" IVar="-1" Cut="0.0000000000000000e+00" cType="1" res="1.9824253395199776e-03" rms="2.4306206405162811e-01" purity="5.8380109071731567e-01" nType="-99"/>
          <Node pos="r" depth="2" NCoef="0" IVar="-1" Cut="0.0000000000000000e+00" cType="1" res="-2.9509048908948898e-03" rms="2.1521562337875366e-01" purity="4.4749963283538818e-01" nType="-99"/>
        </Node>
        <Node pos="r" depth="1" NCoef="0" IVar="2" Cut="2.5479955673217773e+00" cType="1" res="-1.4919285662472248e-02" rms="2.2116199135780334e-01" purity="4.2497646808624268e-01" nType="0">
          <Node pos="l" depth="2" NCoef="0" IVar="-1" Cut="0.0000000000000000e+00" cType="1" res="-2.9334789142012596e-03" rms="1.8915630877017975e-01" purity="2.8286123275756836e-01" nType="-99"/>
          <Node pos="r" depth="2" NCoef="0" IVar="-1" Cut="0.0000000000000000e+00" cType="1" res="6.4699299400672317e-04" rms="2.7221834659576416e-01" purity="7.0489245653152466e-01" nType="-99"/>
        </Node>
      </Node>
    </BinaryTree>
    <BinaryTree type="DecisionTree" boostWeight="1.0000000000000000e+00" itree="965">
      <Node pos="s" depth="0" NCoef="0" IVar="17" Cut="-8.1480634212493896e-01" cType="1" res="1.7873933538794518e-03" rms="2.2939315438270569e-01" purity="4.9983772635459900e-01" nType="0">
        <Node pos="l" depth="1" NCoef="0" IVar="37" Cut="-8.4242433309555054e-01" cType="1" res="5.4636485874652863e-03" rms="2.3273669183254242e-01" purity="5.1767230033874512e-01" nType="0">
          <Node pos="l" depth="2" NCoef="0" IVar="-1" Cut="0.0000000000000000e+00" cType="1" res="9.6714234678074718e-04" rms="2.3487053811550140e-01" purity="5.3901463747024536e-01" nType="-99"/>
          <Node pos="r" depth="2" NCoef="0" IVar="-1" Cut="0.0000000000000000e+00" cType="1" res="-5.4674013517796993e-03" rms="1.9656188786029816e-01" purity="2.3997481167316437e-01" nType="-99"/>
        </Node>
        <Node pos="r" depth="1" NCoef="0" IVar="15" Cut="-9.5308905839920044e-01" cType="1" res="-5.5677000433206558e-02" rms="1.5797211229801178e-01" purity="2.2106111049652100e-01" nType="0">
          <Node pos="l" depth="2" NCoef="0" IVar="-1" Cut="0.0000000000000000e+00" cType="1" res="-2.7326203417032957e-03" rms="1.8223007023334503e-01" purity="2.5049948692321777e-01" nType="-99"/>
          <Node pos="r" depth="2" NCoef="0" IVar="-1" Cut="0.0000000000000000e+00" cType="1" res="-8.9643513783812523e-03" rms="1.4016653597354889e-01" purity="2.0563770830631256e-01" nType="-99"/>
        </Node>
      </Node>
    </BinaryTree>
    <BinaryTree type="DecisionTree" boostWeight="1.0000000000000000e+00" itree="966">
      <Node pos="s" depth="0" NCoef="0" IVar="2" Cut="1.2407044172286987e+00" cType="1" res="-5.5333465570583940e-04" rms="2.2666792571544647e-01" purity="4.9963989853858948e-01" nType="0">
        <Node pos="l" depth="1" NCoef="0" IVar="5" Cut="1.8007091283798218e+00" cType="1" res="-4.5167855918407440e-02" rms="1.3629291951656342e-01" purity="1.0320452600717545e-01" nType="0">
          <Node pos="l" depth="2" NCoef="0" IVar="-1" Cut="0.0000000000000000e+00" cType="1" res="-1.5074000693857670e-03" rms="1.4372685551643372e-01" purity="9.9099881947040558e-02" nType="-99"/>
          <Node pos="r" depth="2" NCoef="0" IVar="-1" Cut="0.0000000000000000e+00" cType="1" res="-7.5622191652655602e-03" rms="1.0132697969675064e-01" purity="1.1000192910432816e-01" nType="-99"/>
        </Node>
        <Node pos="r" depth="1" NCoef="0" IVar="25" Cut="8.4826534986495972e-01" cType="1" res="3.5702674649655819e-03" rms="2.3282875120639801e-01" purity="5.3628134727478027e-01" nType="0">
          <Node pos="l" depth="2" NCoef="0" IVar="-1" Cut="0.0000000000000000e+00" cType="1" res="-8.8728927075862885e-03" rms="0.0000000000000000e+00" purity="4.7952450811862946e-02" nType="-99"/>
          <Node pos="r" depth="2" NCoef="0" IVar="-1" Cut="0.0000000000000000e+00" cType="1" res="7.5732235563918948e-04" rms="2.4135924875736237e-01" purity="5.7221585512161255e-01" nType="-99"/>
        </Node>
      </Node>
    </BinaryTree>
    <BinaryTree type="DecisionTree" boostWeight="1.0000000000000000e+00" itree="967">
      <Node pos="s" depth="0" NCoef="0" IVar="25" Cut="1.1127163171768188e+00" cType="1" res="1.7063149716705084e-03" rms="2.3124122619628906e-01" purity="4.9940910935401917e-01" nType="0">
        <Node pos="l" depth="1" NCoef="0" IVar="29" Cut="3.0240240097045898e+00" cType="1" res="-3.2169152051210403e-02" rms="1.0866767913103104e-01" purity="8.5712447762489319e-02" nType="0">
          <Node pos="l" depth="2" NCoef="0" IVar="-1" Cut="0.0000000000000000e+00" cType="1" res="-8.6705973371863365e-03" rms="0.0000000000000000e+00" purity="4.9422413110733032e-02" nType="-99"/>
          <Node pos="r" depth="2" NCoef="0" IVar="-1" Cut="0.0000000000000000e+00" cType="1" res="3.9559048600494862e-03" rms="2.4528394639492035e-01" purity="2.4665158987045288e-01" nType="-99"/>
        </Node>
        <Node pos="r" depth="1" NCoef="0" IVar="2" Cut="1.2146182060241699e+00" cType="1" res="6.8092984147369862e-03" rms="2.4402831494808197e-01" purity="5.6172811985015869e-01" nType="0">
          <Node pos="l" depth="2" NCoef="0" IVar="-1" Cut="0.0000000000000000e+00" cType="1" res="-3.5282790195196867e-03" rms="1.8259637057781219e-01" purity="1.3021260499954224e-01" nType="-99"/>
          <Node pos="r" depth="2" NCoef="0" IVar="-1" Cut="0.0000000000000000e+00" cType="1" res="1.0808196384459734e-03" rms="2.4795356392860413e-01" purity="5.9673064947128296e-01" nType="-99"/>
        </Node>
      </Node>
    </BinaryTree>
    <BinaryTree type="DecisionTree" boostWeight="1.0000000000000000e+00" itree="968">
      <Node pos="s" depth="0" NCoef="0" IVar="37" Cut="-9.3127399682998657e-01" cType="1" res="6.9444422842934728e-04" rms="2.2733765840530396e-01" purity="5.0213176012039185e-01" nType="0">
        <Node pos="l" depth="1" NCoef="0" IVar="63" Cut="1.1708083152770996e+00" cType="1" res="4.8617487773299217e-03" rms="2.3150581121444702e-01" purity="5.2855241298675537e-01" nType="0">
          <Node pos="l" depth="2" NCoef="0" IVar="-1" Cut="0.0000000000000000e+00" cType="1" res="8.0021400935947895e-04" rms="2.3332048952579498e-01" purity="5.3962838649749756e-01" nType="-99"/>
          <Node pos="r" depth="2" NCoef="0" IVar="-1" Cut="0.0000000000000000e+00" cType="1" res="-6.4019584096968174e-03" rms="1.7881922423839569e-01" purity="2.9311689734458923e-01" nType="-99"/>
        </Node>
        <Node pos="r" depth="1" NCoef="0" IVar="33" Cut="-1.4925379753112793e+00" cType="1" res="-4.0353048592805862e-02" rms="1.7603485286235809e-01" purity="2.4189120531082153e-01" nType="0">
          <Node pos="l" depth="2" NCoef="0" IVar="-1" Cut="0.0000000000000000e+00" cType="1" res="7.0258788764476776e-04" rms="2.4851669371128082e-01" purity="4.4401037693023682e-01" nType="-99"/>
          <Node pos="r" depth="2" NCoef="0" IVar="-1" Cut="0.0000000000000000e+00" cType="1" res="-7.7978642657399178e-03" rms="1.4091801643371582e-01" purity="1.7521749436855316e-01" nType="-99"/>
        </Node>
      </Node>
    </BinaryTree>
    <BinaryTree type="DecisionTree" boostWeight="1.0000000000000000e+00" itree="969">
      <Node pos="s" depth="0" NCoef="0" IVar="25" Cut="8.2207101583480835e-01" cType="1" res="2.2740529675502330e-04" rms="2.3157109320163727e-01" purity="5.0016433000564575e-01" nType="0">
        <Node pos="l" depth="1" NCoef="0" IVar="53" Cut="-1.2604869604110718e+00" cType="1" res="-1.0305161587893963e-02" rms="0.0000000000000000e+00" purity="3.3097751438617706e-02" nType="-99"/>
        <Node pos="r" depth="1" NCoef="0" IVar="34" Cut="1.4473505020141602e+00" cType="1" res="3.6244357470422983e-03" rms="2.3974286019802094e-01" purity="5.3269916772842407e-01" nType="0">
          <Node pos="l" depth="2" NCoef="0" IVar="-1" Cut="0.0000000000000000e+00" cType="1" res="7.8507512807846069e-04" rms="2.4294483661651611e-01" purity="5.7491064071655273e-01" nType="-99"/>
          <Node pos="r" depth="2" NCoef="0" IVar="-1" Cut="0.0000000000000000e+00" cType="1" res="-5.9118443168699741e-03" rms="1.9609051942825317e-01" purity="7.4193604290485382e-02" nType="-99"/>
        </Node>
      </Node>
    </BinaryTree>
    <BinaryTree type="DecisionTree" boostWeight="1.0000000000000000e+00" itree="970">
      <Node pos="s" depth="0" NCoef="0" IVar="56" Cut="-1.5311226844787598e+00" cType="1" res="2.0734737627208233e-03" rms="2.3010592162609100e-01" purity="5.0325274467468262e-01" nType="0">
        <Node pos="l" depth="1" NCoef="0" IVar="47" Cut="-1.3186092376708984e+00" cType="1" res="1.9381130114197731e-02" rms="2.1600690484046936e-01" purity="6.9065612554550171e-01" nType="0">
          <Node pos="l" depth="2" NCoef="0" IVar="-1" Cut="0.0000000000000000e+00" cType="1" res="2.5974258314818144e-03" rms="2.1231207251548767e-01" purity="7.0390629768371582e-01" nType="-99"/>
          <Node pos="r" depth="2" NCoef="0" IVar="-1" Cut="0.0000000000000000e+00" cType="1" res="-5.8115487918257713e-03" rms="2.6043877005577087e-01" purity="4.6872195601463318e-01" nType="-99"/>
        </Node>
        <Node pos="r" depth="1" NCoef="0" IVar="45" Cut="1.1075137853622437e+00" cType="1" res="-9.4654513522982597e-03" rms="2.3834685981273651e-01" purity="3.7831190228462219e-01" nType="0">
          <Node pos="l" depth="2" NCoef="0" IVar="-1" Cut="0.0000000000000000e+00" cType="1" res="-7.7213295735418797e-03" rms="0.0000000000000000e+00" purity="4.6690318733453751e-02" nType="-99"/>
          <Node pos="r" depth="2" NCoef="0" IVar="-1" Cut="0.0000000000000000e+00" cType="1" res="-2.6788760442286730e-04" rms="2.6292824745178223e-01" purity="4.5075491070747375e-01" nType="-99"/>
        </Node>
      </Node>
    </BinaryTree>
    <BinaryTree type="DecisionTree" boostWeight="1.0000000000000000e+00" itree="971">
      <Node pos="s" depth="0" NCoef="0" IVar="53" Cut="1.4083480834960938e+00" cType="1" res="7.3230592533946037e-05" rms="2.2842206060886383e-01" purity="5.0011020898818970e-01" nType="0">
        <Node pos="l" depth="1" NCoef="0" IVar="34" Cut="-1.4537627696990967e+00" cType="1" res="2.0180956926196814e-03" rms="2.3064956068992615e-01" purity="5.0896394252777100e-01" nType="0">
          <Node pos="l" depth="2" NCoef="0" IVar="-1" Cut="0.0000000000000000e+00" cType="1" res="1.3080205535516143e-03" rms="2.2045074403285980e-01" purity="6.3165241479873657e-01" nType="-99"/>
          <Node pos="r" depth="2" NCoef="0" IVar="-1" Cut="0.0000000000000000e+00" cType="1" res="-1.4734724536538124e-03" rms="2.4501511454582214e-01" purity="3.1539744138717651e-01" nType="-99"/>
        </Node>
        <Node pos="r" depth="1" NCoef="0" IVar="-1" Cut="0.0000000000000000e+00" cType="1" res="-1.2958685867488384e-02" rms="3.1596280634403229e-02" purity="1.1906443536281586e-01" nType="-99"/>
      </Node>
    </BinaryTree>
    <BinaryTree type="DecisionTree" boostWeight="1.0000000000000000e+00" itree="972">
      <Node pos="s" depth="0" NCoef="0" IVar="14" Cut="-1.4537111520767212e+00" cType="1" res="-1.5160018811002374e-03" rms="2.2596904635429382e-01" purity="5.0001084804534912e-01" nType="0">
        <Node pos="l" depth="1" NCoef="0" IVar="55" Cut="-1.3381261825561523e+00" cType="1" res="-3.5468015819787979e-02" rms="0.0000000000000000e+00" purity="-2.3388735949993134e-02" nType="-99"/>
        <Node pos="r" depth="1" NCoef="0" IVar="9" Cut="2.4993553161621094e+00" cType="1" res="5.3109098225831985e-03" rms="2.6137596368789673e-01" purity="6.1927652359008789e-01" nType="0">
          <Node pos="l" depth="2" NCoef="0" IVar="-1" Cut="0.0000000000000000e+00" cType="1" res="-6.9386162795126438e-03" rms="2.1128806471824646e-01" purity="1.4965423941612244e-01" nType="-99"/>
          <Node pos="r" depth="2" NCoef="0" IVar="-1" Cut="0.0000000000000000e+00" cType="1" res="7.4115244206041098e-04" rms="2.6293507218360901e-01" purity="6.4007246494293213e-01" nType="-99"/>
        </Node>
      </Node>
    </BinaryTree>
    <BinaryTree type="DecisionTree" boostWeight="1.0000000000000000e+00" itree="973">
      <Node pos="s" depth="0" NCoef="0" IVar="65" Cut="7.5204491615295410e-01" cType="1" res="-8.5971131920814514e-04" rms="2.3071745038032532e-01" purity="4.9781093001365662e-01" nType="0">
        <Node pos="l" depth="1" NCoef="0" IVar="0" Cut="5.1993101835250854e-01" cType="1" res="2.9143053106963634e-03" rms="2.3686686158180237e-01" purity="5.2587395906448364e-01" nType="0">
          <Node pos="l" depth="2" NCoef="0" IVar="-1" Cut="0.0000000000000000e+00" cType="1" res="1.5657334588468075e-03" rms="2.4327799677848816e-01" purity="5.9770846366882324e-01" nType="-99"/>
          <Node pos="r" depth="2" NCoef="0" IVar="-1" Cut="0.0000000000000000e+00" cType="1" res="-1.3382850447669625e-03" rms="2.2822333872318268e-01" purity="4.4165816903114319e-01" nType="-99"/>
        </Node>
        <Node pos="r" depth="1" NCoef="0" IVar="14" Cut="1.1359182596206665e+00" cType="1" res="-4.7691311687231064e-02" rms="1.2320823222398758e-01" purity="1.4957764744758606e-01" nType="0">
          <Node pos="l" depth="2" NCoef="0" IVar="-1" Cut="0.0000000000000000e+00" cType="1" res="-1.7121423035860062e-02" rms="0.0000000000000000e+00" purity="-1.4187780208885670e-02" nType="-99"/>
          <Node pos="r" depth="2" NCoef="0" IVar="-1" Cut="0.0000000000000000e+00" cType="1" res="3.8529728772118688e-04" rms="3.0080795288085938e-01" purity="5.0635129213333130e-01" nType="-99"/>
        </Node>
      </Node>
    </BinaryTree>
    <BinaryTree type="DecisionTree" boostWeight="1.0000000000000000e+00" itree="974">
      <Node pos="s" depth="0" NCoef="0" IVar="57" Cut="-9.3755900859832764e-01" cType="1" res="-1.3365662889555097e-03" rms="2.3010741174221039e-01" purity="4.9855142831802368e-01" nType="0">
        <Node pos="l" depth="1" NCoef="0" IVar="17" Cut="-8.7382316589355469e-01" cType="1" res="3.1729508191347122e-03" rms="2.3317003250122070e-01" purity="5.2593904733657837e-01" nType="0">
          <Node pos="l" depth="2" NCoef="0" IVar="-1" Cut="0.0000000000000000e+00" cType="1" res="7.3190208058804274e-04" rms="2.3480203747749329e-01" purity="5.4356384277343750e-01" nType="-99"/>
          <Node pos="r" depth="2" NCoef="0" IVar="-1" Cut="0.0000000000000000e+00" cType="1" res="-6.0023050755262375e-03" rms="2.0004312694072723e-01" purity="2.7044132351875305e-01" nType="-99"/>
        </Node>
        <Node pos="r" depth="1" NCoef="0" IVar="63" Cut="1.0276836156845093e+00" cType="1" res="-4.5391283929347992e-02" rms="1.9222091138362885e-01" purity="2.3099452257156372e-01" nType="0">
          <Node pos="l" depth="2" NCoef="0" IVar="-1" Cut="0.0000000000000000e+00" cType="1" res="-4.3841535225510597e-03" rms="2.1232827007770538e-01" purity="2.5525829195976257e-01" nType="-99"/>
          <Node pos="r" depth="2" NCoef="0" IVar="-1" Cut="0.0000000000000000e+00" cType="1" res="-1.0934120975434780e-02" rms="1.1875069141387939e-01" purity="1.6650561988353729e-01" nType="-99"/>
        </Node>
      </Node>
    </BinaryTree>
    <BinaryTree type="DecisionTree" boostWeight="1.0000000000000000e+00" itree="975">
      <Node pos="s" depth="0" NCoef="0" IVar="54" Cut="1.4479401111602783e+00" cType="1" res="1.1311263078823686e-03" rms="2.3305121064186096e-01" purity="5.0154834985733032e-01" nType="0">
        <Node pos="l" depth="1" NCoef="0" IVar="56" Cut="1.4461408853530884e+00" cType="1" res="5.6624677963554859e-03" rms="2.3608446121215820e-01" purity="5.4210245609283447e-01" nType="0">
          <Node pos="l" depth="2" NCoef="0" IVar="-1" Cut="0.0000000000000000e+00" cType="1" res="8.4426102694123983e-04" rms="2.3518419265747070e-01" purity="5.5465108156204224e-01" nType="-99"/>
          <Node pos="r" depth="2" NCoef="0" IVar="-1" Cut="0.0000000000000000e+00" cType="1" res="-6.9202268496155739e-03" rms="2.5191149115562439e-01" purity="1.1358346045017242e-01" nType="-99"/>
        </Node>
        <Node pos="r" depth="1" NCoef="0" IVar="56" Cut="1.4081956148147583e+00" cType="1" res="-4.7828365117311478e-02" rms="1.9057516753673553e-01" purity="6.3375689089298248e-02" nType="0">
          <Node pos="l" depth="2" NCoef="0" IVar="-1" Cut="0.0000000000000000e+00" cType="1" res="-1.2292892672121525e-02" rms="2.3016294836997986e-01" purity="1.0703150182962418e-01" nType="-99"/>
          <Node pos="r" depth="2" NCoef="0" IVar="-1" Cut="0.0000000000000000e+00" cType="1" res="-3.6000248510390520e-03" rms="1.6371418535709381e-01" purity="4.6054024249315262e-02" nType="-99"/>
        </Node>
      </Node>
    </BinaryTree>
    <BinaryTree type="DecisionTree" boostWeight="1.0000000000000000e+00" itree="976">
      <Node pos="s" depth="0" NCoef="0" IVar="52" Cut="-1.5312020778656006e+00" cType="1" res="-1.0854772990569472e-03" rms="2.2758977115154266e-01" purity="4.9717366695404053e-01" nType="0">
        <Node pos="l" depth="1" NCoef="0" IVar="26" Cut="-1.5509989261627197e+00" cType="1" res="1.5655584633350372e-02" rms="2.2451636195182800e-01" purity="6.8640303611755371e-01" nType="0">
          <Node pos="l" depth="2" NCoef="0" IVar="-1" Cut="0.0000000000000000e+00" cType="1" res="2.1394542418420315e-03" rms="2.1950596570968628e-01" purity="6.9555258750915527e-01" nType="-99"/>
          <Node pos="r" depth="2" NCoef="0" IVar="-1" Cut="0.0000000000000000e+00" cType="1" res="-5.0192293711006641e-03" rms="2.9026740789413452e-01" purity="5.2987855672836304e-01" nType="-99"/>
        </Node>
        <Node pos="r" depth="1" NCoef="0" IVar="1" Cut="3.3369777202606201e+00" cType="1" res="-1.2120761908590794e-02" rms="2.2892469167709351e-01" purity="3.7243852019309998e-01" nType="0">
          <Node pos="l" depth="2" NCoef="0" IVar="-1" Cut="0.0000000000000000e+00" cType="1" res="-2.4659044574946165e-03" rms="2.0728537440299988e-01" purity="2.3652899265289307e-01" nType="-99"/>
          <Node pos="r" depth="2" NCoef="0" IVar="-1" Cut="0.0000000000000000e+00" cType="1" res="1.1254481505602598e-03" rms="2.7490890026092529e-01" purity="7.1800577640533447e-01" nType="-99"/>
        </Node>
      </Node>
    </BinaryTree>
    <BinaryTree type="DecisionTree" boostWeight="1.0000000000000000e+00" itree="977">
      <Node pos="s" depth="0" NCoef="0" IVar="54" Cut="1.4468575716018677e+00" cType="1" res="1.7478946829214692e-03" rms="2.2735102474689484e-01" purity="5.0244235992431641e-01" nType="0">
        <Node pos="l" depth="1" NCoef="0" IVar="25" Cut="7.7271044254302979e-01" cType="1" res="6.1413054354488850e-03" rms="2.3018932342529297e-01" purity="5.4357612133026123e-01" nType="0">
          <Node pos="l" depth="2" NCoef="0" IVar="-1" Cut="0.0000000000000000e+00" cType="1" res="-1.1635539121925831e-02" rms="0.0000000000000000e+00" purity="2.5047002360224724e-02" nType="-99"/>
          <Node pos="r" depth="2" NCoef="0" IVar="-1" Cut="0.0000000000000000e+00" cType="1" res="9.5604109810665250e-04" rms="2.3688447475433350e-01" purity="5.6988519430160522e-01" nType="-99"/>
        </Node>
        <Node pos="r" depth="1" NCoef="0" IVar="56" Cut="1.3697136640548706e+00" cType="1" res="-4.5411247760057449e-02" rms="1.8793010711669922e-01" purity="6.0910310596227646e-02" nType="0">
          <Node pos="l" depth="2" NCoef="0" IVar="-1" Cut="0.0000000000000000e+00" cType="1" res="-1.0485928505659103e-02" rms="2.5951787829399109e-01" purity="1.2100660055875778e-01" nType="-99"/>
          <Node pos="r" depth="2" NCoef="0" IVar="-1" Cut="0.0000000000000000e+00" cType="1" res="-4.7997045330703259e-03" rms="1.4833240211009979e-01" purity="3.9025105535984039e-02" nType="-99"/>
        </Node>
      </Node>
    </BinaryTree>
    <BinaryTree type="DecisionTree" boostWeight="1.0000000000000000e+00" itree="978">
      <Node pos="s" depth="0" NCoef="0" IVar="2" Cut="9.0262383222579956e-01" cType="1" res="5.4514588555321097e-04" rms="2.2550979256629944e-01" purity="4.9827340245246887e-01" nType="0">
        <Node pos="l" depth="1" NCoef="0" IVar="3" Cut="5.1172318458557129e+00" cType="1" res="-6.3856355845928192e-03" rms="0.0000000000000000e+00" purity="3.0513579025864601e-02" nType="-99"/>
        <Node pos="r" depth="1" NCoef="0" IVar="54" Cut="1.4468575716018677e+00" cType="1" res="3.3804376143962145e-03" rms="2.3086754977703094e-01" purity="5.1933169364929199e-01" nType="0">
          <Node pos="l" depth="2" NCoef="0" IVar="-1" Cut="0.0000000000000000e+00" cType="1" res="7.9564633779227734e-04" rms="2.3295132815837860e-01" purity="5.6110310554504395e-01" nType="-99"/>
          <Node pos="r" depth="2" NCoef="0" IVar="-1" Cut="0.0000000000000000e+00" cType="1" res="-5.9070200659334660e-03" rms="2.0222504436969757e-01" purity="7.6330378651618958e-02" nType="-99"/>
        </Node>
      </Node>
    </BinaryTree>
    <BinaryTree type="DecisionTree" boostWeight="1.0000000000000000e+00" itree="979">
      <Node pos="s" depth="0" NCoef="0" IVar="56" Cut="-1.5311275720596313e+00" cType="1" res="1.0969834402203560e-03" rms="2.2752220928668976e-01" purity="5.0232601165771484e-01" nType="0">
        <Node pos="l" depth="1" NCoef="0" IVar="18" Cut="1.2993617057800293e+00" cType="1" res="1.7029555514454842e-02" rms="2.1181993186473846e-01" purity="6.8828809261322021e-01" nType="0">
          <Node pos="l" depth="2" NCoef="0" IVar="-1" Cut="0.0000000000000000e+00" cType="1" res="2.3190446663647890e-03" rms="2.0792482793331146e-01" purity="6.9850486516952515e-01" nType="-99"/>
          <Node pos="r" depth="2" NCoef="0" IVar="-1" Cut="0.0000000000000000e+00" cType="1" res="-5.1144678145647049e-03" rms="2.6425066590309143e-01" purity="5.0322622060775757e-01" nType="-99"/>
        </Node>
        <Node pos="r" depth="1" NCoef="0" IVar="43" Cut="1.1717792749404907e+00" cType="1" res="-9.5070945098996162e-03" rms="2.3680463433265686e-01" purity="3.7855717539787292e-01" nType="0">
          <Node pos="l" depth="2" NCoef="0" IVar="-1" Cut="0.0000000000000000e+00" cType="1" res="-6.5364711917936802e-04" rms="2.4133624136447906e-01" purity="3.8915053009986877e-01" nType="-99"/>
          <Node pos="r" depth="2" NCoef="0" IVar="-1" Cut="0.0000000000000000e+00" cType="1" res="-9.1807246208190918e-03" rms="1.0502146184444427e-01" purity="1.7763663828372955e-01" nType="-99"/>
        </Node>
      </Node>
    </BinaryTree>
    <BinaryTree type="DecisionTree" boostWeight="1.0000000000000000e+00" itree="980">
      <Node pos="s" depth="0" NCoef="0" IVar="14" Cut="1.3710278272628784e+00" cType="1" res="2.7124313055537641e-04" rms="2.2748841345310211e-01" purity="4.9990060925483704e-01" nType="0">
        <Node pos="l" depth="1" NCoef="0" IVar="3" Cut="5.0135025978088379e+00" cType="1" res="-1.6658963635563850e-02" rms="1.8011070787906647e-01" purity="1.4524352550506592e-01" nType="0">
          <Node pos="l" depth="2" NCoef="0" IVar="-1" Cut="0.0000000000000000e+00" cType="1" res="-7.7824257314205170e-03" rms="3.4653604030609131e-02" purity="5.9447925537824631e-02" nType="-99"/>
          <Node pos="r" depth="2" NCoef="0" IVar="-1" Cut="0.0000000000000000e+00" cType="1" res="1.4726312365382910e-03" rms="2.9634222388267517e-01" purity="3.0164694786071777e-01" nType="-99"/>
        </Node>
        <Node pos="r" depth="1" NCoef="0" IVar="11" Cut="1.2345679104328156e-02" cType="1" res="1.1386032216250896e-02" rms="2.5321361422538757e-01" purity="7.3273527622222900e-01" nType="0">
          <Node pos="l" depth="2" NCoef="0" IVar="-1" Cut="0.0000000000000000e+00" cType="1" res="3.0424748547375202e-03" rms="2.2002862393856049e-01" purity="7.5792986154556274e-01" nType="-99"/>
          <Node pos="r" depth="2" NCoef="0" IVar="-1" Cut="0.0000000000000000e+00" cType="1" res="-2.6905356207862496e-04" rms="2.7350172400474548e-01" purity="7.1478116512298584e-01" nType="-99"/>
        </Node>
      </Node>
    </BinaryTree>
    <BinaryTree type="DecisionTree" boostWeight="1.0000000000000000e+00" itree="981">
      <Node pos="s" depth="0" NCoef="0" IVar="33" Cut="1.4068897962570190e+00" cType="1" res="2.4212326388806105e-03" rms="2.3217219114303589e-01" purity="5.0074833631515503e-01" nType="0">
        <Node pos="l" depth="1" NCoef="0" IVar="36" Cut="1.5245062112808228e+00" cType="1" res="4.6148262917995453e-03" rms="2.3419532179832458e-01" purity="5.0945961475372314e-01" nType="0">
          <Node pos="l" depth="2" NCoef="0" IVar="-1" Cut="0.0000000000000000e+00" cType="1" res="7.4472237611189485e-04" rms="2.3526367545127869e-01" purity="5.2883386611938477e-01" nType="-99"/>
          <Node pos="r" depth="2" NCoef="0" IVar="-1" Cut="0.0000000000000000e+00" cType="1" res="-8.0890357494354248e-03" rms="1.9707141816616058e-01" purity="3.3998891711235046e-02" nType="-99"/>
        </Node>
        <Node pos="r" depth="1" NCoef="0" IVar="-1" Cut="0.0000000000000000e+00" cType="1" res="-1.4339109882712364e-02" rms="5.0256669521331787e-02" purity="1.1532161384820938e-01" nType="-99"/>
      </Node>
    </BinaryTree>
    <BinaryTree type="DecisionTree" boostWeight="1.0000000000000000e+00" itree="982">
      <Node pos="s" depth="0" NCoef="0" IVar="25" Cut="1.1127163171768188e+00" cType="1" res="2.9275084380060434e-03" rms="2.3216895759105682e-01" purity="4.9995529651641846e-01" nType="0">
        <Node pos="l" depth="1" NCoef="0" IVar="30" Cut="1.2345679104328156e-02" cType="1" res="-2.9659487307071686e-02" rms="1.1425504833459854e-01" purity="8.2900054752826691e-02" nType="0">
          <Node pos="l" depth="2" NCoef="0" IVar="-1" Cut="0.0000000000000000e+00" cType="1" res="-1.1021394282579422e-02" rms="0.0000000000000000e+00" purity="3.3598497509956360e-02" nType="-99"/>
          <Node pos="r" depth="2" NCoef="0" IVar="-1" Cut="0.0000000000000000e+00" cType="1" res="1.9140720833092928e-03" rms="2.0153637230396271e-01" purity="1.6666980087757111e-01" nType="-99"/>
        </Node>
        <Node pos="r" depth="1" NCoef="0" IVar="4" Cut="3.7770357131958008e+00" cType="1" res="7.8270351514220238e-03" rms="2.4466380476951599e-01" purity="5.6266045570373535e-01" nType="0">
          <Node pos="l" depth="2" NCoef="0" IVar="-1" Cut="0.0000000000000000e+00" cType="1" res="2.1283112000674009e-03" rms="2.3994392156600952e-01" purity="5.6142103672027588e-01" nType="-99"/>
          <Node pos="r" depth="2" NCoef="0" IVar="-1" Cut="0.0000000000000000e+00" cType="1" res="-7.1622256655246019e-04" rms="2.4987854063510895e-01" purity="5.6428658962249756e-01" nType="-99"/>
        </Node>
      </Node>
    </BinaryTree>
    <BinaryTree type="DecisionTree" boostWeight="1.0000000000000000e+00" itree="983">
      <Node pos="s" depth="0" NCoef="0" IVar="34" Cut="1.4860318899154663e+00" cType="1" res="1.4316807501018047e-03" rms="2.3165376484394073e-01" purity="4.9981015920639038e-01" nType="0">
        <Node pos="l" depth="1" NCoef="0" IVar="36" Cut="1.4851015806198120e+00" cType="1" res="4.7289747744798660e-03" rms="2.3451423645019531e-01" purity="5.3144526481628418e-01" nType="0">
          <Node pos="l" depth="2" NCoef="0" IVar="-1" Cut="0.0000000000000000e+00" cType="1" res="7.3957524728029966e-04" rms="2.3309026658535004e-01" purity="5.4428440332412720e-01" nType="-99"/>
          <Node pos="r" depth="2" NCoef="0" IVar="-1" Cut="0.0000000000000000e+00" cType="1" res="-7.4814478866755962e-03" rms="2.6777741312980652e-01" purity="8.1411339342594147e-02" nType="-99"/>
        </Node>
        <Node pos="r" depth="1" NCoef="0" IVar="3" Cut="4.7148633003234863e+00" cType="1" res="-4.5019641518592834e-02" rms="1.8046359717845917e-01" purity="5.4143995046615601e-02" nType="0">
          <Node pos="l" depth="2" NCoef="0" IVar="-1" Cut="0.0000000000000000e+00" cType="1" res="8.4157439414411783e-04" rms="2.2325511276721954e-01" purity="7.3060609400272369e-02" nType="-99"/>
          <Node pos="r" depth="2" NCoef="0" IVar="-1" Cut="0.0000000000000000e+00" cType="1" res="-1.3544110581278801e-02" rms="1.1299382150173187e-01" purity="3.7070903927087784e-02" nType="-99"/>
        </Node>
      </Node>
    </BinaryTree>
    <BinaryTree type="DecisionTree" boostWeight="1.0000000000000000e+00" itree="984">
      <Node pos="s" depth="0" NCoef="0" IVar="0" Cut="5.9644907712936401e-01" cType="1" res="1.4254515990614891e-03" rms="2.3109152913093567e-01" purity="5.0134468078613281e-01" nType="0">
        <Node pos="l" depth="1" NCoef="0" IVar="4" Cut="3.7075951099395752e+00" cType="1" res="1.1997629888355732e-02" rms="2.3745782673358917e-01" purity="5.6754547357559204e-01" nType="0">
          <Node pos="l" depth="2" NCoef="0" IVar="-1" Cut="0.0000000000000000e+00" cType="1" res="3.2563069835305214e-03" rms="2.2566375136375427e-01" purity="5.7904410362243652e-01" nType="-99"/>
          <Node pos="r" depth="2" NCoef="0" IVar="-1" Cut="0.0000000000000000e+00" cType="1" res="-4.2344417306594551e-04" rms="2.4657770991325378e-01" purity="5.5707573890686035e-01" nType="-99"/>
        </Node>
        <Node pos="r" depth="1" NCoef="0" IVar="45" Cut="1.7344291210174561e+00" cType="1" res="-1.4321509748697281e-02" rms="2.2033125162124634e-01" purity="4.0274038910865784e-01" nType="0">
          <Node pos="l" depth="2" NCoef="0" IVar="-1" Cut="0.0000000000000000e+00" cType="1" res="-6.2483404763042927e-03" rms="1.2292093783617020e-01" purity="1.1473222076892853e-01" nType="-99"/>
          <Node pos="r" depth="2" NCoef="0" IVar="-1" Cut="0.0000000000000000e+00" cType="1" res="4.2533018131507561e-05" rms="2.6084199547767639e-01" purity="5.7563704252243042e-01" nType="-99"/>
        </Node>
      </Node>
    </BinaryTree>
    <BinaryTree type="DecisionTree" boostWeight="1.0000000000000000e+00" itree="985">
      <Node pos="s" depth="0" NCoef="0" IVar="2" Cut="5.5746024847030640e-01" cType="1" res="-7.0143851917237043e-04" rms="2.2819177806377411e-01" purity="4.9948981404304504e-01" nType="0">
        <Node pos="l" depth="1" NCoef="0" IVar="-1" Cut="0.0000000000000000e+00" cType="1" res="-1.1187757365405560e-02" rms="0.0000000000000000e+00" purity="-4.9601260572671890e-02" nType="-99"/>
        <Node pos="r" depth="1" NCoef="0" IVar="1" Cut="3.6120715141296387e+00" cType="1" res="1.4330934500321746e-03" rms="2.3351646959781647e-01" purity="5.1260775327682495e-01" nType="0">
          <Node pos="l" depth="2" NCoef="0" IVar="-1" Cut="0.0000000000000000e+00" cType="1" res="-5.5543187772855163e-04" rms="2.4014872312545776e-01" purity="4.1435134410858154e-01" nType="-99"/>
          <Node pos="r" depth="2" NCoef="0" IVar="-1" Cut="0.0000000000000000e+00" cType="1" res="2.9530767351388931e-03" rms="2.0733991265296936e-01" purity="8.5171592235565186e-01" nType="-99"/>
        </Node>
      </Node>
    </BinaryTree>
    <BinaryTree type="DecisionTree" boostWeight="1.0000000000000000e+00" itree="986">
      <Node pos="s" depth="0" NCoef="0" IVar="57" Cut="-8.8162261247634888e-01" cType="1" res="-2.5821211747825146e-03" rms="2.2605918347835541e-01" purity="4.9769824743270874e-01" nType="0">
        <Node pos="l" depth="1" NCoef="0" IVar="23" Cut="1.1351840496063232e+00" cType="1" res="1.3865869259461761e-03" rms="2.2899180650711060e-01" purity="5.2130305767059326e-01" nType="0">
          <Node pos="l" depth="2" NCoef="0" IVar="-1" Cut="0.0000000000000000e+00" cType="1" res="4.9247581046074629e-04" rms="2.2967979311943054e-01" purity="5.3393620252609253e-01" nType="-99"/>
          <Node pos="r" depth="2" NCoef="0" IVar="-1" Cut="0.0000000000000000e+00" cType="1" res="-5.9767290949821472e-03" rms="2.1083460748195648e-01" purity="3.1837019324302673e-01" nType="-99"/>
        </Node>
        <Node pos="r" depth="1" NCoef="0" IVar="14" Cut="1.3704904317855835e+00" cType="1" res="-4.7260288149118423e-02" rms="1.8413615226745605e-01" purity="2.3196420073509216e-01" nType="0">
          <Node pos="l" depth="2" NCoef="0" IVar="-1" Cut="0.0000000000000000e+00" cType="1" res="-2.1307064220309258e-02" rms="0.0000000000000000e+00" purity="-3.6630164831876755e-03" nType="-99"/>
          <Node pos="r" depth="2" NCoef="0" IVar="-1" Cut="0.0000000000000000e+00" cType="1" res="-2.0075144711881876e-03" rms="3.2757195830345154e-01" purity="4.8932445049285889e-01" nType="-99"/>
        </Node>
      </Node>
    </BinaryTree>
    <BinaryTree type="DecisionTree" boostWeight="1.0000000000000000e+00" itree="987">
      <Node pos="s" depth="0" NCoef="0" IVar="25" Cut="9.6686375141143799e-01" cType="1" res="3.4043290652334690e-03" rms="2.3234704136848450e-01" purity="5.0444030761718750e-01" nType="0">
        <Node pos="l" depth="1" NCoef="0" IVar="29" Cut="2.9059202671051025e+00" cType="1" res="-3.4532621502876282e-02" rms="7.7756963670253754e-02" purity="6.1306815594434738e-02" nType="0">
          <Node pos="l" depth="2" NCoef="0" IVar="-1" Cut="0.0000000000000000e+00" cType="1" res="-1.2042620219290257e-02" rms="0.0000000000000000e+00" purity="2.1068705245852470e-02" nType="-99"/>
          <Node pos="r" depth="2" NCoef="0" IVar="-1" Cut="0.0000000000000000e+00" cType="1" res="5.0594415515661240e-03" rms="2.3157459497451782e-01" purity="2.0838876068592072e-01" nType="-99"/>
        </Node>
        <Node pos="r" depth="1" NCoef="0" IVar="4" Cut="3.6984117031097412e+00" cType="1" res="7.6093417592346668e-03" rms="2.4314934015274048e-01" purity="5.5355817079544067e-01" nType="0">
          <Node pos="l" depth="2" NCoef="0" IVar="-1" Cut="0.0000000000000000e+00" cType="1" res="2.4441166315227747e-03" rms="2.4077773094177246e-01" purity="5.3710597753524780e-01" nType="-99"/>
          <Node pos="r" depth="2" NCoef="0" IVar="-1" Cut="0.0000000000000000e+00" cType="1" res="-4.4924410758540034e-04" rms="2.4446316063404083e-01" purity="5.6742811203002930e-01" nType="-99"/>
        </Node>
      </Node>
    </BinaryTree>
    <BinaryTree type="DecisionTree" boostWeight="1.0000000000000000e+00" itree="988">
      <Node pos="s" depth="0" NCoef="0" IVar="57" Cut="-6.6775596141815186e-01" cType="1" res="1.1436706408858299e-03" rms="2.2844435274600983e-01" purity="5.0132793188095093e-01" nType="0">
        <Node pos="l" depth="1" NCoef="0" IVar="37" Cut="-1.9738798141479492e+00" cType="1" res="4.1165105067193508e-03" rms="2.3110364377498627e-01" purity="5.1686346530914307e-01" nType="0">
          <Node pos="l" depth="2" NCoef="0" IVar="-1" Cut="0.0000000000000000e+00" cType="1" res="1.7006276175379753e-03" rms="2.3579347133636475e-01" purity="5.7912194728851318e-01" nType="-99"/>
          <Node pos="r" depth="2" NCoef="0" IVar="-1" Cut="0.0000000000000000e+00" cType="1" res="-1.1697619920596480e-03" rms="2.2439254820346832e-01" purity="4.4121536612510681e-01" nType="-99"/>
        </Node>
        <Node pos="r" depth="1" NCoef="0" IVar="23" Cut="9.6664470434188843e-01" cType="1" res="-6.4677961170673370e-02" rms="1.4352993667125702e-01" purity="1.5735755860805511e-01" nType="0">
          <Node pos="l" depth="2" NCoef="0" IVar="-1" Cut="0.0000000000000000e+00" cType="1" res="-1.2501957826316357e-02" rms="9.9316455423831940e-02" purity="1.5275636315345764e-01" nType="-99"/>
          <Node pos="r" depth="2" NCoef="0" IVar="-1" Cut="0.0000000000000000e+00" cType="1" res="-5.6563671678304672e-03" rms="1.7640320956707001e-01" purity="1.6259931027889252e-01" nType="-99"/>
        </Node>
      </Node>
    </BinaryTree>
    <BinaryTree type="DecisionTree" boostWeight="1.0000000000000000e+00" itree="989">
      <Node pos="s" depth="0" NCoef="0" IVar="56" Cut="-1.3764282464981079e+00" cType="1" res="8.8333798339590430e-04" rms="2.2908715903759003e-01" purity="5.0275790691375732e-01" nType="0">
        <Node pos="l" depth="1" NCoef="0" IVar="44" Cut="1.2345679104328156e-02" cType="1" res="9.3876477330923080e-03" rms="2.3262128233909607e-01" purity="6.0298061370849609e-01" nType="0">
          <Node pos="l" depth="2" NCoef="0" IVar="-1" Cut="0.0000000000000000e+00" cType="1" res="1.3158093206584454e-03" rms="2.2983318567276001e-01" purity="6.1232823133468628e-01" nType="-99"/>
          <Node pos="r" depth="2" NCoef="0" IVar="-1" Cut="0.0000000000000000e+00" cType="1" res="-6.0337767936289310e-03" rms="2.8120785951614380e-01" purity="3.8601559400558472e-01" nType="-99"/>
        </Node>
        <Node pos="r" depth="1" NCoef="0" IVar="53" Cut="-1.2814540863037109e+00" cType="1" res="-2.1108182147145271e-02" rms="2.1815295517444611e-01" purity="2.4358925223350525e-01" nType="0">
          <Node pos="l" depth="2" NCoef="0" IVar="-1" Cut="0.0000000000000000e+00" cType="1" res="3.7261410034261644e-04" rms="2.2867988049983978e-01" purity="3.3322831988334656e-01" nType="-99"/>
          <Node pos="r" depth="2" NCoef="0" IVar="-1" Cut="0.0000000000000000e+00" cType="1" res="-4.3983678333461285e-03" rms="2.0891720056533813e-01" purity="1.8169660866260529e-01" nType="-99"/>
        </Node>
      </Node>
    </BinaryTree>
    <BinaryTree type="DecisionTree" boostWeight="1.0000000000000000e+00" itree="990">
      <Node pos="s" depth="0" NCoef="0" IVar="17" Cut="-9.9204808473587036e-01" cType="1" res="2.7803785633295774e-03" rms="2.2983211278915405e-01" purity="5.0118905305862427e-01" nType="0">
        <Node pos="l" depth="1" NCoef="0" IVar="57" Cut="-7.2509372234344482e-01" cType="1" res="6.7781466059386730e-03" rms="2.3310536146163940e-01" purity="5.2513718605041504e-01" nType="0">
          <Node pos="l" depth="2" NCoef="0" IVar="-1" Cut="0.0000000000000000e+00" cType="1" res="1.0213577188551426e-03" rms="2.3465231060981750e-01" purity="5.4137063026428223e-01" nType="-99"/>
          <Node pos="r" depth="2" NCoef="0" IVar="-1" Cut="0.0000000000000000e+00" cType="1" res="-6.4509548246860504e-03" rms="1.9273990392684937e-01" purity="2.1014642715454102e-01" nType="-99"/>
        </Node>
        <Node pos="r" depth="1" NCoef="0" IVar="9" Cut="3.2667455673217773e+00" cType="1" res="-3.7182159721851349e-02" rms="1.8952220678329468e-01" purity="2.6179763674736023e-01" nType="0">
          <Node pos="l" depth="2" NCoef="0" IVar="-1" Cut="0.0000000000000000e+00" cType="1" res="-2.5732163339853287e-03" rms="1.8911890685558319e-01" purity="2.5172016024589539e-01" nType="-99"/>
          <Node pos="r" depth="2" NCoef="0" IVar="-1" Cut="0.0000000000000000e+00" cType="1" res="-7.3870844207704067e-03" rms="1.8647225201129913e-01" purity="2.7948179841041565e-01" nType="-99"/>
        </Node>
      </Node>
    </BinaryTree>
    <BinaryTree type="DecisionTree" boostWeight="1.0000000000000000e+00" itree="991">
      <Node pos="s" depth="0" NCoef="0" IVar="2" Cut="5.5746024847030640e-01" cType="1" res="-2.4347102735191584e-03" rms="2.2231641411781311e-01" purity="4.9773058295249939e-01" nType="0">
        <Node pos="l" depth="1" NCoef="0" IVar="-1" Cut="0.0000000000000000e+00" cType="1" res="-1.2683796696364880e-02" rms="0.0000000000000000e+00" purity="-6.5648511052131653e-02" nType="-99"/>
        <Node pos="r" depth="1" NCoef="0" IVar="14" Cut="-1.4924062490463257e+00" cType="1" res="-9.6885814855340868e-05" rms="2.2802506387233734e-01" purity="5.1086694002151489e-01" nType="0">
          <Node pos="l" depth="2" NCoef="0" IVar="-1" Cut="0.0000000000000000e+00" cType="1" res="-3.7377495318651199e-02" rms="0.0000000000000000e+00" purity="-2.4231828749179840e-02" nType="-99"/>
          <Node pos="r" depth="2" NCoef="0" IVar="-1" Cut="0.0000000000000000e+00" cType="1" res="5.4682401241734624e-04" rms="2.5788787007331848e-01" purity="6.1173874139785767e-01" nType="-99"/>
        </Node>
      </Node>
    </BinaryTree>
    <BinaryTree type="DecisionTree" boostWeight="1.0000000000000000e+00" itree="992">
      <Node pos="s" depth="0" NCoef="0" IVar="37" Cut="-1.7954576015472412e+00" cType="1" res="7.0734071778133512e-04" rms="2.3140582442283630e-01" purity="5.0100779533386230e-01" nType="0">
        <Node pos="l" depth="1" NCoef="0" IVar="34" Cut="1.4860318899154663e+00" cType="1" res="1.0166884399950504e-02" rms="2.4179923534393311e-01" purity="5.5861103534698486e-01" nType="0">
          <Node pos="l" depth="2" NCoef="0" IVar="-1" Cut="0.0000000000000000e+00" cType="1" res="1.4755916781723499e-03" rms="2.4271416664123535e-01" purity="5.9240740537643433e-01" nType="-99"/>
          <Node pos="r" depth="2" NCoef="0" IVar="-1" Cut="0.0000000000000000e+00" cType="1" res="-7.1181412786245346e-03" rms="2.1988074481487274e-01" purity="7.0643655955791473e-02" nType="-99"/>
        </Node>
        <Node pos="r" depth="1" NCoef="0" IVar="1" Cut="2.0052487850189209e+00" cType="1" res="-1.5827905386686325e-02" rms="2.1100190281867981e-01" purity="4.0031763911247253e-01" nType="0">
          <Node pos="l" depth="2" NCoef="0" IVar="-1" Cut="0.0000000000000000e+00" cType="1" res="-3.4548215568065643e-02" rms="0.0000000000000000e+00" purity="-4.3894682079553604e-02" nType="-99"/>
          <Node pos="r" depth="2" NCoef="0" IVar="-1" Cut="0.0000000000000000e+00" cType="1" res="-8.4714643890038133e-04" rms="2.4468646943569183e-01" purity="4.6863278746604919e-01" nType="-99"/>
        </Node>
      </Node>
    </BinaryTree>
    <BinaryTree type="DecisionTree" boostWeight="1.0000000000000000e+00" itree="993">
      <Node pos="s" depth="0" NCoef="0" IVar="56" Cut="1.5237022638320923e+00" cType="1" res="3.4232323523610830e-03" rms="2.3353357613086700e-01" purity="5.0106728076934814e-01" nType="0">
        <Node pos="l" depth="1" NCoef="0" IVar="65" Cut="7.5202912092208862e-01" cType="1" res="5.9985644184052944e-03" rms="2.3610630631446838e-01" purity="5.2099359035491943e-01" nType="0">
          <Node pos="l" depth="2" NCoef="0" IVar="-1" Cut="0.0000000000000000e+00" cType="1" res="1.0144396219402552e-03" rms="2.4158114194869995e-01" purity="5.4983252286911011e-01" nType="-99"/>
          <Node pos="r" depth="2" NCoef="0" IVar="-1" Cut="0.0000000000000000e+00" cType="1" res="-5.4271928966045380e-03" rms="1.4581127464771271e-01" purity="1.6489887237548828e-01" nType="-99"/>
        </Node>
        <Node pos="r" depth="1" NCoef="0" IVar="-1" Cut="0.0000000000000000e+00" cType="1" res="-9.9484920501708984e-03" rms="1.4535728096961975e-01" purity="1.7234161496162415e-02" nType="-99"/>
      </Node>
    </BinaryTree>
    <BinaryTree type="DecisionTree" boostWeight="1.0000000000000000e+00" itree="994">
      <Node pos="s" depth="0" NCoef="0" IVar="2" Cut="1.4120681285858154e+00" cType="1" res="4.1960255475714803e-04" rms="2.3054820299148560e-01" purity="5.0006794929504395e-01" nType="0">
        <Node pos="l" depth="1" NCoef="0" IVar="5" Cut="2.0361363887786865e+00" cType="1" res="-3.3571161329746246e-02" rms="1.7341002821922302e-01" purity="1.4481064677238464e-01" nType="0">
          <Node pos="l" depth="2" NCoef="0" IVar="-1" Cut="0.0000000000000000e+00" cType="1" res="-1.8483025487512350e-03" rms="1.8201865255832672e-01" purity="1.3202609121799469e-01" nType="-99"/>
          <Node pos="r" depth="2" NCoef="0" IVar="-1" Cut="0.0000000000000000e+00" cType="1" res="-7.0319846272468567e-03" rms="1.1851114779710770e-01" purity="1.8979623913764954e-01" nType="-99"/>
        </Node>
        <Node pos="r" depth="1" NCoef="0" IVar="65" Cut="7.2949850559234619e-01" cType="1" res="5.2871638908982277e-03" rms="2.3721013963222504e-01" purity="5.5094170570373535e-01" nType="0">
          <Node pos="l" depth="2" NCoef="0" IVar="-1" Cut="0.0000000000000000e+00" cType="1" res="1.0190075263381004e-03" rms="2.4348878860473633e-01" purity="5.8781397342681885e-01" nType="-99"/>
          <Node pos="r" depth="2" NCoef="0" IVar="-1" Cut="0.0000000000000000e+00" cType="1" res="-4.5695304870605469e-03" rms="1.6046389937400818e-01" purity="1.9991429150104523e-01" nType="-99"/>
        </Node>
      </Node>
    </BinaryTree>
    <BinaryTree type="DecisionTree" boostWeight="1.0000000000000000e+00" itree="995">
      <Node pos="s" depth="0" NCoef="0" IVar="2" Cut="5.6426310539245605e-01" cType="1" res="-7.0326810237020254e-04" rms="2.2863541543483734e-01" purity="4.9915164709091187e-01" nType="0">
        <Node pos="l" depth="1" NCoef="0" IVar="-1" Cut="0.0000000000000000e+00" cType="1" res="-1.2453631497919559e-02" rms="0.0000000000000000e+00" purity="-6.3323505222797394e-02" nType="-99"/>
        <Node pos="r" depth="1" NCoef="0" IVar="36" Cut="1.5245062112808228e+00" cType="1" res="1.5710236039012671e-03" rms="2.3397241532802582e-01" purity="5.1230579614639282e-01" nType="0">
          <Node pos="l" depth="2" NCoef="0" IVar="-1" Cut="0.0000000000000000e+00" cType="1" res="4.3847243068739772e-04" rms="2.3575231432914734e-01" purity="5.3232276439666748e-01" nType="-99"/>
          <Node pos="r" depth="2" NCoef="0" IVar="-1" Cut="0.0000000000000000e+00" cType="1" res="-9.1058425605297089e-03" rms="1.7475385963916779e-01" purity="2.5557618588209152e-02" nType="-99"/>
        </Node>
      </Node>
    </BinaryTree>
    <BinaryTree type="DecisionTree" boostWeight="1.0000000000000000e+00" itree="996">
      <Node pos="s" depth="0" NCoef="0" IVar="2" Cut="7.9095810651779175e-01" cType="1" res="7.0129864616319537e-04" rms="2.3008975386619568e-01" purity="4.9975499510765076e-01" nType="0">
        <Node pos="l" depth="1" NCoef="0" IVar="-1" Cut="0.0000000000000000e+00" cType="1" res="-7.4594160541892052e-03" rms="0.0000000000000000e+00" purity="-4.2578410357236862e-03" nType="-99"/>
        <Node pos="r" depth="1" NCoef="0" IVar="49" Cut="2.3944940567016602e+00" cType="1" res="3.1909400131553411e-03" rms="2.3517695069313049e-01" purity="5.1790660619735718e-01" nType="0">
          <Node pos="l" depth="2" NCoef="0" IVar="-1" Cut="0.0000000000000000e+00" cType="1" res="-5.9067574329674244e-03" rms="2.0390363037586212e-01" purity="2.2126038372516632e-01" nType="-99"/>
          <Node pos="r" depth="2" NCoef="0" IVar="-1" Cut="0.0000000000000000e+00" cType="1" res="7.1625091368332505e-04" rms="2.3692047595977783e-01" purity="5.3956502676010132e-01" nType="-99"/>
        </Node>
      </Node>
    </BinaryTree>
    <BinaryTree type="DecisionTree" boostWeight="1.0000000000000000e+00" itree="997">
      <Node pos="s" depth="0" NCoef="0" IVar="33" Cut="1.2145479917526245e+00" cType="1" res="2.2151356097310781e-03" rms="2.3187206685543060e-01" purity="5.0077128410339355e-01" nType="0">
        <Node pos="l" depth="1" NCoef="0" IVar="17" Cut="-1.4698528051376343e+00" cType="1" res="5.0308760255575180e-03" rms="2.3522308468818665e-01" purity="5.1403945684432983e-01" nType="0">
          <Node pos="l" depth="2" NCoef="0" IVar="-1" Cut="0.0000000000000000e+00" cType="1" res="1.2261839583516121e-03" rms="2.3686273396015167e-01" purity="5.5351263284683228e-01" nType="-99"/>
          <Node pos="r" depth="2" NCoef="0" IVar="-1" Cut="0.0000000000000000e+00" cType="1" res="-2.1494163665920496e-03" rms="2.2744730114936829e-01" purity="3.6760577559471130e-01" nType="-99"/>
        </Node>
        <Node pos="r" depth="1" NCoef="0" IVar="30" Cut="1.2345679104328156e-02" cType="1" res="-5.0724685192108154e-02" rms="1.4623299241065979e-01" purity="2.5131180882453918e-01" nType="0">
          <Node pos="l" depth="2" NCoef="0" IVar="-1" Cut="0.0000000000000000e+00" cType="1" res="-1.4092055149376392e-02" rms="0.0000000000000000e+00" purity="6.9143474102020264e-02" nType="-99"/>
          <Node pos="r" depth="2" NCoef="0" IVar="-1" Cut="0.0000000000000000e+00" cType="1" res="-3.4928100649267435e-03" rms="1.9301806390285492e-01" purity="3.8265267014503479e-01" nType="-99"/>
        </Node>
      </Node>
    </BinaryTree>
    <BinaryTree type="DecisionTree" boostWeight="1.0000000000000000e+00" itree="998">
      <Node pos="s" depth="0" NCoef="0" IVar="25" Cut="2.2714462280273438e+00" cType="1" res="-9.7154534887522459e-04" rms="2.2827664017677307e-01" purity="4.9957698583602905e-01" nType="0">
        <Node pos="l" depth="1" NCoef="0" IVar="14" Cut="-1.2602359056472778e+00" cType="1" res="-1.2414948083460331e-02" rms="2.1438704431056976e-01" purity="3.1103602051734924e-01" nType="0">
          <Node pos="l" depth="2" NCoef="0" IVar="-1" Cut="0.0000000000000000e+00" cType="1" res="-5.8980800211429596e-02" rms="0.0000000000000000e+00" purity="-3.8636203855276108e-02" nType="-99"/>
          <Node pos="r" depth="2" NCoef="0" IVar="-1" Cut="0.0000000000000000e+00" cType="1" res="2.8478557942435145e-04" rms="2.9375743865966797e-01" purity="4.7368127107620239e-01" nType="-99"/>
        </Node>
        <Node pos="r" depth="1" NCoef="0" IVar="11" Cut="1.2345679104328156e-02" cType="1" res="1.2269709259271622e-02" rms="2.4268861114978790e-01" purity="7.1773934364318848e-01" nType="0">
          <Node pos="l" depth="2" NCoef="0" IVar="-1" Cut="0.0000000000000000e+00" cType="1" res="3.7188851274549961e-03" rms="2.0827420055866241e-01" purity="6.7258197069168091e-01" nType="-99"/>
          <Node pos="r" depth="2" NCoef="0" IVar="-1" Cut="0.0000000000000000e+00" cType="1" res="-3.6780437221750617e-04" rms="2.6655402779579163e-01" purity="7.5475925207138062e-01" nType="-99"/>
        </Node>
      </Node>
    </BinaryTree>
    <BinaryTree type="DecisionTree" boostWeight="1.0000000000000000e+00" itree="999">
      <Node pos="s" depth="0" NCoef="0" IVar="2" Cut="5.2055102586746216e-01" cType="1" res="-1.4561082934960723e-04" rms="2.2938860952854156e-01" purity="5.0226259231567383e-01" nType="0">
        <Node pos="l" depth="1" NCoef="0" IVar="-1" Cut="0.0000000000000000e+00" cType="1" res="-1.1542897671461105e-02" rms="0.0000000000000000e+00" purity="-5.1466140896081924e-02" nType="-99"/>
        <Node pos="r" depth="1" NCoef="0" IVar="57" Cut="-9.6753722429275513e-01" cType="1" res="1.8665825482457876e-03" rms="2.3424795269966125e-01" purity="5.1476854085922241e-01" nType="0">
          <Node pos="l" depth="2" NCoef="0" IVar="-1" Cut="0.0000000000000000e+00" cType="1" res="6.4062728779390454e-04" rms="2.3820136487483978e-01" purity="5.4320907592773438e-01" nType="-99"/>
          <Node pos="r" depth="2" NCoef="0" IVar="-1" Cut="0.0000000000000000e+00" cType="1" res="-4.7435564920306206e-03" rms="1.8888130784034729e-01" purity="2.4777394533157349e-01" nType="-99"/>
        </Node>
      </Node>
    </BinaryTree>
    <BinaryTree type="DecisionTree" boostWeight="1.0000000000000000e+00" itree="1000">
      <Node pos="s" depth="0" NCoef="0" IVar="36" Cut="1.5245062112808228e+00" cType="1" res="4.0752268978394568e-04" rms="2.3139989376068115e-01" purity="5.0056409835815430e-01" nType="0">
        <Node pos="l" depth="1" NCoef="0" IVar="37" Cut="-7.8313755989074707e-01" cType="1" res="3.1968348193913698e-03" rms="2.3334228992462158e-01" purity="5.1924592256546021e-01" nType="0">
          <Node pos="l" depth="2" NCoef="0" IVar="-1" Cut="0.0000000000000000e+00" cType="1" res="7.2545732837170362e-04" rms="2.3730263113975525e-01" purity="5.4046010971069336e-01" nType="-99"/>
          <Node pos="r" depth="2" NCoef="0" IVar="-1" Cut="0.0000000000000000e+00" cType="1" res="-6.9882133975625038e-03" rms="1.5516357123851776e-01" purity="2.0787595212459564e-01" nType="-99"/>
        </Node>
        <Node pos="r" depth="1" NCoef="0" IVar="-1" Cut="0.0000000000000000e+00" cType="1" res="-1.0354216210544109e-02" rms="1.5784478187561035e-01" purity="1.9120723009109497e-02" nType="-99"/>
      </Node>
    </BinaryTree>
    <BinaryTree type="DecisionTree" boostWeight="1.0000000000000000e+00" itree="1001">
      <Node pos="s" depth="0" NCoef="0" IVar="14" Cut="-1.0667606592178345e+00" cType="1" res="-1.2044331524521112e-03" rms="2.2584505379199982e-01" purity="4.9905076622962952e-01" nType="0">
        <Node pos="l" depth="1" NCoef="0" IVar="27" Cut="-1.3186092376708984e+00" cType="1" res="-1.0899408720433712e-02" rms="0.0000000000000000e+00" purity="8.2300938665866852e-03" nType="-99"/>
        <Node pos="r" depth="1" NCoef="0" IVar="9" Cut="2.4666070938110352e+00" cType="1" res="6.9095892831683159e-03" rms="2.6683011651039124e-01" purity="6.6151028871536255e-01" nType="0">
          <Node pos="l" depth="2" NCoef="0" IVar="-1" Cut="0.0000000000000000e+00" cType="1" res="-8.4690283983945847e-03" rms="2.3339803516864777e-01" purity="1.7730252444744110e-01" nType="-99"/>
          <Node pos="r" depth="2" NCoef="0" IVar="-1" Cut="0.0000000000000000e+00" cType="1" res="8.4946636343374848e-04" rms="2.6723664999008179e-01" purity="6.7576539516448975e-01" nType="-99"/>
        </Node>
      </Node>
    </BinaryTree>
    <BinaryTree type="DecisionTree" boostWeight="1.0000000000000000e+00" itree="1002">
      <Node pos="s" depth="0" NCoef="0" IVar="25" Cut="1.1203368902206421e+00" cType="1" res="-1.6016841400414705e-03" rms="2.2674663364887238e-01" purity="4.9867862462997437e-01" nType="0">
        <Node pos="l" depth="1" NCoef="0" IVar="3" Cut="4.7940497398376465e+00" cType="1" res="-3.7831641733646393e-02" rms="7.6586440205574036e-02" purity="7.8325092792510986e-02" nType="0">
          <Node pos="l" depth="2" NCoef="0" IVar="-1" Cut="0.0000000000000000e+00" cType="1" res="-1.1373043991625309e-02" rms="0.0000000000000000e+00" purity="5.3180929273366928e-02" nType="-99"/>
          <Node pos="r" depth="2" NCoef="0" IVar="-1" Cut="0.0000000000000000e+00" cType="1" res="-1.2978040613234043e-03" rms="1.7126308381557465e-01" purity="1.0847993940114975e-01" nType="-99"/>
        </Node>
        <Node pos="r" depth="1" NCoef="0" IVar="34" Cut="1.4480490684509277e+00" cType="1" res="3.9181360043585300e-03" rms="2.4108740687370300e-01" purity="5.6272161006927490e-01" nType="0">
          <Node pos="l" depth="2" NCoef="0" IVar="-1" Cut="0.0000000000000000e+00" cType="1" res="7.9984433250501752e-04" rms="2.4292261898517609e-01" purity="6.0741686820983887e-01" nType="-99"/>
          <Node pos="r" depth="2" NCoef="0" IVar="-1" Cut="0.0000000000000000e+00" cType="1" res="-5.3458781912922859e-03" rms="2.1588268876075745e-01" purity="8.1778571009635925e-02" nType="-99"/>
        </Node>
      </Node>
    </BinaryTree>
    <BinaryTree type="DecisionTree" boostWeight="1.0000000000000000e+00" itree="1003">
      <Node pos="s" depth="0" NCoef="0" IVar="56" Cut="1.5240936279296875e+00" cType="1" res="-1.0683487635105848e-03" rms="2.3028618097305298e-01" purity="4.9756389856338501e-01" nType="0">
        <Node pos="l" depth="1" NCoef="0" IVar="44" Cut="1.2345679104328156e-02" cType="1" res="1.3056275201961398e-03" rms="2.3276051878929138e-01" purity="5.1675432920455933e-01" nType="0">
          <Node pos="l" depth="2" NCoef="0" IVar="-1" Cut="0.0000000000000000e+00" cType="1" res="4.5163842150941491e-04" rms="2.3026792705059052e-01" purity="5.2841579914093018e-01" nType="-99"/>
          <Node pos="r" depth="2" NCoef="0" IVar="-1" Cut="0.0000000000000000e+00" cType="1" res="-6.3547780737280846e-03" rms="2.7107673883438110e-01" purity="2.8715500235557556e-01" nType="-99"/>
        </Node>
        <Node pos="r" depth="1" NCoef="0" IVar="-1" Cut="0.0000000000000000e+00" cType="1" res="-1.0518729686737061e-02" rms="1.4266037940979004e-01" purity="1.2808753177523613e-02" nType="-99"/>
      </Node>
    </BinaryTree>
    <BinaryTree type="DecisionTree" boostWeight="1.0000000000000000e+00" itree="1004">
      <Node pos="s" depth="0" NCoef="0" IVar="1" Cut="3.8244657516479492e+00" cType="1" res="-1.6998411156237125e-03" rms="2.2491565346717834e-01" purity="4.9812188744544983e-01" nType="0">
        <Node pos="l" depth="1" NCoef="0" IVar="63" Cut="1.1957968473434448e+00" cType="1" res="-7.1058575995266438e-03" rms="2.2821690142154694e-01" purity="4.3387937545776367e-01" nType="0">
          <Node pos="l" depth="2" NCoef="0" IVar="-1" Cut="0.0000000000000000e+00" cType="1" res="-4.6961064799688756e-04" rms="2.3329648375511169e-01" purity="4.4349569082260132e-01" nType="-99"/>
          <Node pos="r" depth="2" NCoef="0" IVar="-1" Cut="0.0000000000000000e+00" cType="1" res="-9.3292575329542160e-03" rms="0.0000000000000000e+00" purity="2.0149235427379608e-01" nType="-99"/>
        </Node>
        <Node pos="r" depth="1" NCoef="0" IVar="3" Cut="5.1095499992370605e+00" cType="1" res="2.9191764071583748e-02" rms="2.0228126645088196e-01" purity="8.6522257328033447e-01" nType="0">
          <Node pos="l" depth="2" NCoef="0" IVar="-1" Cut="0.0000000000000000e+00" cType="1" res="5.3359367884695530e-03" rms="1.5583804249763489e-01" purity="8.7707859277725220e-01" nType="-99"/>
          <Node pos="r" depth="2" NCoef="0" IVar="-1" Cut="0.0000000000000000e+00" cType="1" res="-1.1268012458458543e-03" rms="3.2937854528427124e-01" purity="8.1548237800598145e-01" nType="-99"/>
        </Node>
      </Node>
    </BinaryTree>
    <BinaryTree type="DecisionTree" boostWeight="1.0000000000000000e+00" itree="1005">
      <Node pos="s" depth="0" NCoef="0" IVar="2" Cut="4.9828153848648071e-01" cType="1" res="-1.1624803300946951e-03" rms="2.3039752244949341e-01" purity="5.0119686126708984e-01" nType="0">
        <Node pos="l" depth="1" NCoef="0" IVar="-1" Cut="0.0000000000000000e+00" cType="1" res="-1.1160803027451038e-02" rms="0.0000000000000000e+00" purity="-5.4918825626373291e-02" nType="-99"/>
        <Node pos="r" depth="1" NCoef="0" IVar="18" Cut="1.3357254266738892e+00" cType="1" res="6.0099735856056213e-04" rms="2.3481220006942749e-01" purity="5.1268124580383301e-01" nType="0">
          <Node pos="l" depth="2" NCoef="0" IVar="-1" Cut="0.0000000000000000e+00" cType="1" res="3.7041312316432595e-04" rms="2.3534671962261200e-01" purity="5.2368384599685669e-01" nType="-99"/>
          <Node pos="r" depth="2" NCoef="0" IVar="-1" Cut="0.0000000000000000e+00" cType="1" res="-5.9241824783384800e-03" rms="2.1820525825023651e-01" purity="3.0897367000579834e-01" nType="-99"/>
        </Node>
      </Node>
    </BinaryTree>
    <BinaryTree type="DecisionTree" boostWeight="1.0000000000000000e+00" itree="1006">
      <Node pos="s" depth="0" NCoef="0" IVar="52" Cut="-1.5312020778656006e+00" cType="1" res="1.1795996688306332e-03" rms="2.3139372467994690e-01" purity="5.0075811147689819e-01" nType="0">
        <Node pos="l" depth="1" NCoef="0" IVar="47" Cut="-1.3186092376708984e+00" cType="1" res="1.6799634322524071e-02" rms="2.2726370394229889e-01" purity="6.8394285440444946e-01" nType="0">
          <Node pos="l" depth="2" NCoef="0" IVar="-1" Cut="0.0000000000000000e+00" cType="1" res="2.3409391287714243e-03" rms="2.2477100789546967e-01" purity="6.9644469022750854e-01" nType="-99"/>
          <Node pos="r" depth="2" NCoef="0" IVar="-1" Cut="0.0000000000000000e+00" cType="1" res="-5.4960856214165688e-03" rms="2.5751793384552002e-01" purity="4.6912041306495667e-01" nType="-99"/>
        </Node>
        <Node pos="r" depth="1" NCoef="0" IVar="63" Cut="1.1575114727020264e+00" cType="1" res="-9.1561051085591316e-03" rms="2.3351275920867920e-01" purity="3.7954562902450562e-01" nType="0">
          <Node pos="l" depth="2" NCoef="0" IVar="-1" Cut="0.0000000000000000e+00" cType="1" res="-5.2553182467818260e-04" rms="2.3919351398944855e-01" purity="3.9285829663276672e-01" nType="-99"/>
          <Node pos="r" depth="2" NCoef="0" IVar="-1" Cut="0.0000000000000000e+00" cType="1" res="-1.0483263991773129e-02" rms="7.0334203541278839e-02" purity="1.5901234745979309e-01" nType="-99"/>
        </Node>
      </Node>
    </BinaryTree>
    <BinaryTree type="DecisionTree" boostWeight="1.0000000000000000e+00" itree="1007">
      <Node pos="s" depth="0" NCoef="0" IVar="36" Cut="-1.1830706596374512e+00" cType="1" res="9.3811785336583853e-04" rms="2.2696384787559509e-01" purity="5.0134861469268799e-01" nType="0">
        <Node pos="l" depth="1" NCoef="0" IVar="56" Cut="1.4854199886322021e+00" cType="1" res="8.3472561091184616e-03" rms="2.2894856333732605e-01" purity="5.8936244249343872e-01" nType="0">
          <Node pos="l" depth="2" NCoef="0" IVar="-1" Cut="0.0000000000000000e+00" cType="1" res="1.3551927404478192e-03" rms="2.2975221276283264e-01" purity="6.2620300054550171e-01" nType="-99"/>
          <Node pos="r" depth="2" NCoef="0" IVar="-1" Cut="0.0000000000000000e+00" cType="1" res="-7.6128900982439518e-03" rms="2.0601353049278259e-01" purity="4.8339314758777618e-02" nType="-99"/>
        </Node>
        <Node pos="r" depth="1" NCoef="0" IVar="1" Cut="2.3272886276245117e+00" cType="1" res="-2.3126313462853432e-02" rms="2.1866935491561890e-01" purity="2.1548520028591156e-01" nType="0">
          <Node pos="l" depth="2" NCoef="0" IVar="-1" Cut="0.0000000000000000e+00" cType="1" res="-2.3413525894284248e-02" rms="0.0000000000000000e+00" purity="-2.5307882577180862e-02" nType="-99"/>
          <Node pos="r" depth="2" NCoef="0" IVar="-1" Cut="0.0000000000000000e+00" cType="1" res="-9.6284749452024698e-04" rms="2.9396808147430420e-01" purity="3.2252070307731628e-01" nType="-99"/>
        </Node>
      </Node>
    </BinaryTree>
    <BinaryTree type="DecisionTree" boostWeight="1.0000000000000000e+00" itree="1008">
      <Node pos="s" depth="0" NCoef="0" IVar="2" Cut="5.5746024847030640e-01" cType="1" res="5.9390597743913531e-04" rms="2.2835986316204071e-01" purity="4.9971786141395569e-01" nType="0">
        <Node pos="l" depth="1" NCoef="0" IVar="-1" Cut="0.0000000000000000e+00" cType="1" res="-1.2287139892578125e-02" rms="0.0000000000000000e+00" purity="-6.3624784350395203e-02" nType="-99"/>
        <Node pos="r" depth="1" NCoef="0" IVar="36" Cut="1.5245062112808228e+00" cType="1" res="2.7782872784882784e-03" rms="2.3369456827640533e-01" purity="5.1283049583435059e-01" nType="0">
          <Node pos="l" depth="2" NCoef="0" IVar="-1" Cut="0.0000000000000000e+00" cType="1" res="5.8680382790043950e-04" rms="2.3568126559257507e-01" purity="5.3262919187545776e-01" nType="-99"/>
          <Node pos="r" depth="2" NCoef="0" IVar="-1" Cut="0.0000000000000000e+00" cType="1" res="-9.3083865940570831e-03" rms="1.6484437882900238e-01" purity="2.3844199255108833e-02" nType="-99"/>
        </Node>
      </Node>
    </BinaryTree>
    <BinaryTree type="DecisionTree" boostWeight="1.0000000000000000e+00" itree="1009">
      <Node pos="s" depth="0" NCoef="0" IVar="4" Cut="3.8042705059051514e+00" cType="1" res="2.5082039646804333e-03" rms="2.3227463662624359e-01" purity="4.9905052781105042e-01" nType="0">
        <Node pos="l" depth="1" NCoef="0" IVar="0" Cut="6.9245272874832153e-01" cType="1" res="1.1664492078125477e-02" rms="2.2485382854938507e-01" purity="4.8081797361373901e-01" nType="0">
          <Node pos="l" depth="2" NCoef="0" IVar="-1" Cut="0.0000000000000000e+00" cType="1" res="3.0049823690205812e-03" rms="2.3577593266963959e-01" purity="5.6290125846862793e-01" nType="-99"/>
          <Node pos="r" depth="2" NCoef="0" IVar="-1" Cut="0.0000000000000000e+00" cType="1" res="-2.7389312162995338e-03" rms="1.9583623111248016e-01" purity="3.0611154437065125e-01" nType="-99"/>
        </Node>
        <Node pos="r" depth="1" NCoef="0" IVar="34" Cut="1.4473505020141602e+00" cType="1" res="-1.3039683923125267e-02" rms="2.4357269704341888e-01" purity="5.3001034259796143e-01" nType="0">
          <Node pos="l" depth="2" NCoef="0" IVar="-1" Cut="0.0000000000000000e+00" cType="1" res="-6.8437133450061083e-04" rms="2.4976573884487152e-01" purity="5.6844848394393921e-01" nType="-99"/>
          <Node pos="r" depth="2" NCoef="0" IVar="-1" Cut="0.0000000000000000e+00" cType="1" res="-1.1555840261280537e-02" rms="1.2599086761474609e-01" purity="5.4745405912399292e-02" nType="-99"/>
        </Node>
      </Node>
    </BinaryTree>
    <BinaryTree type="DecisionTree" boostWeight="1.0000000000000000e+00" itree="1010">
      <Node pos="s" depth="0" NCoef="0" IVar="37" Cut="-2.2349836826324463e+00" cType="1" res="6.1540736351162195e-04" rms="2.3002743721008301e-01" purity="5.0260055065155029e-01" nType="0">
        <Node pos="l" depth="1" NCoef="0" IVar="18" Cut="1.3024760484695435e+00" cType="1" res="1.4921700581908226e-02" rms="2.3729047179222107e-01" purity="5.7545858621597290e-01" nType="0">
          <Node pos="l" depth="2" NCoef="0" IVar="-1" Cut="0.0000000000000000e+00" cType="1" res="1.9679428078234196e-03" rms="2.3667307198047638e-01" purity="5.8592277765274048e-01" nType="-99"/>
          <Node pos="r" depth="2" NCoef="0" IVar="-1" Cut="0.0000000000000000e+00" cType="1" res="-5.2534216083586216e-03" rms="2.3961794376373291e-01" purity="3.8496512174606323e-01" nType="-99"/>
        </Node>
        <Node pos="r" depth="1" NCoef="0" IVar="5" Cut="8.9140379428863525e-01" cType="1" res="-9.6417590975761414e-03" rms="2.2411419451236725e-01" purity="4.5036366581916809e-01" nType="0">
          <Node pos="l" depth="2" NCoef="0" IVar="-1" Cut="0.0000000000000000e+00" cType="1" res="-1.3978920876979828e-02" rms="0.0000000000000000e+00" purity="4.2785733938217163e-02" nType="-99"/>
          <Node pos="r" depth="2" NCoef="0" IVar="-1" Cut="0.0000000000000000e+00" cType="1" res="-6.2564061954617500e-04" rms="2.3455066978931427e-01" purity="4.8022323846817017e-01" nType="-99"/>
        </Node>
      </Node>
    </BinaryTree>
    <BinaryTree type="DecisionTree" boostWeight="1.0000000000000000e+00" itree="1011">
      <Node pos="s" depth="0" NCoef="0" IVar="45" Cut="7.1862965822219849e-01" cType="1" res="6.5804028417915106e-04" rms="2.2932133078575134e-01" purity="4.9798169732093811e-01" nType="0">
        <Node pos="l" depth="1" NCoef="0" IVar="-1" Cut="0.0000000000000000e+00" cType="1" res="-1.5415883623063564e-02" rms="0.0000000000000000e+00" purity="1.1497835628688335e-02" nType="-99"/>
        <Node pos="r" depth="1" NCoef="0" IVar="33" Cut="1.3692338466644287e+00" cType="1" res="3.2498852815479040e-03" rms="2.3545388877391815e-01" purity="5.1615774631500244e-01" nType="0">
          <Node pos="l" depth="2" NCoef="0" IVar="-1" Cut="0.0000000000000000e+00" cType="1" res="5.6927709374576807e-04" rms="2.3757280409336090e-01" purity="5.2676683664321899e-01" nType="-99"/>
          <Node pos="r" depth="2" NCoef="0" IVar="-1" Cut="0.0000000000000000e+00" cType="1" res="-1.0016708634793758e-02" rms="1.3179406523704529e-01" purity="1.6632035374641418e-01" nType="-99"/>
        </Node>
      </Node>
    </BinaryTree>
    <BinaryTree type="DecisionTree" boostWeight="1.0000000000000000e+00" itree="1012">
      <Node pos="s" depth="0" NCoef="0" IVar="64" Cut="1.2345679104328156e-02" cType="1" res="2.0290620159357786e-03" rms="2.2901742160320282e-01" purity="5.0036853551864624e-01" nType="0">
        <Node pos="l" depth="1" NCoef="0" IVar="45" Cut="1.0744315385818481e+00" cType="1" res="4.5604612678289413e-03" rms="2.2860582172870636e-01" purity="5.1004874706268311e-01" nType="0">
          <Node pos="l" depth="2" NCoef="0" IVar="-1" Cut="0.0000000000000000e+00" cType="1" res="-4.5705675147473812e-03" rms="1.1911356449127197e-01" purity="8.1795722246170044e-02" nType="-99"/>
          <Node pos="r" depth="2" NCoef="0" IVar="-1" Cut="0.0000000000000000e+00" cType="1" res="9.1108173364773393e-04" rms="2.3973913490772247e-01" purity="5.7030713558197021e-01" nType="-99"/>
        </Node>
        <Node pos="r" depth="1" NCoef="0" IVar="46" Cut="-1.1767082214355469e+00" cType="1" res="-5.5148273706436157e-02" rms="2.3084504902362823e-01" purity="2.8172010183334351e-01" nType="0">
          <Node pos="l" depth="2" NCoef="0" IVar="-1" Cut="0.0000000000000000e+00" cType="1" res="-1.3544197194278240e-02" rms="2.3967005312442780e-01" purity="1.5458311140537262e-01" nType="-99"/>
          <Node pos="r" depth="2" NCoef="0" IVar="-1" Cut="0.0000000000000000e+00" cType="1" res="-1.1100278934463859e-03" rms="2.1207019686698914e-01" purity="4.0583133697509766e-01" nType="-99"/>
        </Node>
      </Node>
    </BinaryTree>
    <BinaryTree type="DecisionTree" boostWeight="1.0000000000000000e+00" itree="1013">
      <Node pos="s" depth="0" NCoef="0" IVar="34" Cut="-9.1221302747726440e-01" cType="1" res="-1.7055576608981937e-04" rms="2.2357375919818878e-01" purity="5.0247901678085327e-01" nType="0">
        <Node pos="l" depth="1" NCoef="0" IVar="54" Cut="4.0333905816078186e-01" cType="1" res="7.2960061952471733e-03" rms="2.2001665830612183e-01" purity="5.9350407123565674e-01" nType="0">
          <Node pos="l" depth="2" NCoef="0" IVar="-1" Cut="0.0000000000000000e+00" cType="1" res="1.5637053875252604e-03" rms="2.0884412527084351e-01" purity="6.7327672243118286e-01" nType="-99"/>
          <Node pos="r" depth="2" NCoef="0" IVar="-1" Cut="0.0000000000000000e+00" cType="1" res="-2.6846423279494047e-03" rms="2.6456883549690247e-01" purity="2.1161083877086639e-01" nType="-99"/>
        </Node>
        <Node pos="r" depth="1" NCoef="0" IVar="3" Cut="5.3469538688659668e+00" cType="1" res="-2.2374352440237999e-02" rms="2.3241926729679108e-01" purity="2.3179192841053009e-01" nType="0">
          <Node pos="l" depth="2" NCoef="0" IVar="-1" Cut="0.0000000000000000e+00" cType="1" res="-3.4124604426324368e-03" rms="2.1304807066917419e-01" purity="2.1388795971870422e-01" nType="-99"/>
          <Node pos="r" depth="2" NCoef="0" IVar="-1" Cut="0.0000000000000000e+00" cType="1" res="2.1788657177239656e-03" rms="3.5380023717880249e-01" purity="3.8552948832511902e-01" nType="-99"/>
        </Node>
      </Node>
    </BinaryTree>
    <BinaryTree type="DecisionTree" boostWeight="1.0000000000000000e+00" itree="1014">
      <Node pos="s" depth="0" NCoef="0" IVar="2" Cut="9.8668181896209717e-01" cType="1" res="-1.2039509601891041e-03" rms="2.2864392399787903e-01" purity="4.9712583422660828e-01" nType="0">
        <Node pos="l" depth="1" NCoef="0" IVar="25" Cut="1.7453236579895020e+00" cType="1" res="-5.2771966904401779e-02" rms="3.7199433892965317e-02" purity="4.5578908175230026e-02" nType="0">
          <Node pos="l" depth="2" NCoef="0" IVar="-1" Cut="0.0000000000000000e+00" cType="1" res="-2.4629628751426935e-03" rms="7.9605743288993835e-02" purity="4.1209835559129715e-02" nType="-99"/>
          <Node pos="r" depth="2" NCoef="0" IVar="-1" Cut="0.0000000000000000e+00" cType="1" res="-6.9262627512216568e-03" rms="0.0000000000000000e+00" purity="5.0727680325508118e-02" nType="-99"/>
        </Node>
        <Node pos="r" depth="1" NCoef="0" IVar="5" Cut="7.3683428764343262e-01" cType="1" res="1.4897504588589072e-03" rms="2.3407346010208130e-01" purity="5.2071279287338257e-01" nType="0">
          <Node pos="l" depth="2" NCoef="0" IVar="-1" Cut="0.0000000000000000e+00" cType="1" res="-1.4100255444645882e-02" rms="0.0000000000000000e+00" purity="5.2203904837369919e-02" nType="-99"/>
          <Node pos="r" depth="2" NCoef="0" IVar="-1" Cut="0.0000000000000000e+00" cType="1" res="4.0236397762782872e-04" rms="2.3828086256980896e-01" purity="5.3522408008575439e-01" nType="-99"/>
        </Node>
      </Node>
    </BinaryTree>
    <BinaryTree type="DecisionTree" boostWeight="1.0000000000000000e+00" itree="1015">
      <Node pos="s" depth="0" NCoef="0" IVar="54" Cut="1.4866290092468262e+00" cType="1" res="2.2139041684567928e-03" rms="2.2783228754997253e-01" purity="5.0251352787017822e-01" nType="0">
        <Node pos="l" depth="1" NCoef="0" IVar="56" Cut="1.4854199886322021e+00" cType="1" res="5.3808614611625671e-03" rms="2.2951610386371613e-01" purity="5.3442335128784180e-01" nType="0">
          <Node pos="l" depth="2" NCoef="0" IVar="-1" Cut="0.0000000000000000e+00" cType="1" res="8.5440097609534860e-04" rms="2.2932693362236023e-01" purity="5.4796755313873291e-01" nType="-99"/>
          <Node pos="r" depth="2" NCoef="0" IVar="-1" Cut="0.0000000000000000e+00" cType="1" res="-9.4688581302762032e-03" rms="2.1740138530731201e-01" purity="5.3639363497495651e-02" nType="-99"/>
        </Node>
        <Node pos="r" depth="1" NCoef="0" IVar="56" Cut="1.4852572679519653e+00" cType="1" res="-4.1854955255985260e-02" rms="1.9776231050491333e-01" purity="5.8481380343437195e-02" nType="0">
          <Node pos="l" depth="2" NCoef="0" IVar="-1" Cut="0.0000000000000000e+00" cType="1" res="-1.2297636829316616e-02" rms="2.1084253489971161e-01" purity="8.3062313497066498e-02" nType="-99"/>
          <Node pos="r" depth="2" NCoef="0" IVar="-1" Cut="0.0000000000000000e+00" cType="1" res="-9.1302278451621532e-04" rms="1.7916491627693176e-01" purity="4.4753529131412506e-02" nType="-99"/>
        </Node>
      </Node>
    </BinaryTree>
    <BinaryTree type="DecisionTree" boostWeight="1.0000000000000000e+00" itree="1016">
      <Node pos="s" depth="0" NCoef="0" IVar="37" Cut="-8.1278431415557861e-01" cType="1" res="1.2660432839766145e-03" rms="2.2923928499221802e-01" purity="4.9986532330513000e-01" nType="0">
        <Node pos="l" depth="1" NCoef="0" IVar="18" Cut="1.3908514976501465e+00" cType="1" res="4.7830189578235149e-03" rms="2.3266534507274628e-01" purity="5.2079731225967407e-01" nType="0">
          <Node pos="l" depth="2" NCoef="0" IVar="-1" Cut="0.0000000000000000e+00" cType="1" res="7.9047458712011576e-04" rms="2.3220625519752502e-01" purity="5.2995282411575317e-01" nType="-99"/>
          <Node pos="r" depth="2" NCoef="0" IVar="-1" Cut="0.0000000000000000e+00" cType="1" res="-6.5917614847421646e-03" rms="2.3504544794559479e-01" purity="2.9969194531440735e-01" nType="-99"/>
        </Node>
        <Node pos="r" depth="1" NCoef="0" IVar="34" Cut="-1.4924831390380859e+00" cType="1" res="-4.5851692557334900e-02" rms="1.7018669843673706e-01" purity="2.1943466365337372e-01" nType="0">
          <Node pos="l" depth="2" NCoef="0" IVar="-1" Cut="0.0000000000000000e+00" cType="1" res="-1.3758426066488028e-03" rms="2.2859983146190643e-01" purity="4.5045742392539978e-01" nType="-99"/>
          <Node pos="r" depth="2" NCoef="0" IVar="-1" Cut="0.0000000000000000e+00" cType="1" res="-9.2613464221358299e-03" rms="1.3441178202629089e-01" purity="1.1818883568048477e-01" nType="-99"/>
        </Node>
      </Node>
    </BinaryTree>
    <BinaryTree type="DecisionTree" boostWeight="1.0000000000000000e+00" itree="1017">
      <Node pos="s" depth="0" NCoef="0" IVar="0" Cut="5.9644907712936401e-01" cType="1" res="1.1803394882008433e-03" rms="2.2790674865245819e-01" purity="4.9942633509635925e-01" nType="0">
        <Node pos="l" depth="1" NCoef="0" IVar="4" Cut="3.7888996601104736e+00" cType="1" res="1.1471346020698547e-02" rms="2.3280903697013855e-01" purity="5.6580585241317749e-01" nType="0">
          <Node pos="l" depth="2" NCoef="0" IVar="-1" Cut="0.0000000000000000e+00" cType="1" res="2.8295633383095264e-03" rms="2.2642776370048523e-01" purity="5.7726860046386719e-01" nType="-99"/>
          <Node pos="r" depth="2" NCoef="0" IVar="-1" Cut="0.0000000000000000e+00" cType="1" res="-9.9895056337118149e-04" rms="2.4076867103576660e-01" purity="5.4800778627395630e-01" nType="-99"/>
        </Node>
        <Node pos="r" depth="1" NCoef="0" IVar="29" Cut="2.7016458511352539e+00" cType="1" res="-1.4325508847832680e-02" rms="2.1940471231937408e-01" purity="3.9940965175628662e-01" nType="0">
          <Node pos="l" depth="2" NCoef="0" IVar="-1" Cut="0.0000000000000000e+00" cType="1" res="-7.8703463077545166e-03" rms="1.6221189498901367e-01" purity="1.7124263942241669e-01" nType="-99"/>
          <Node pos="r" depth="2" NCoef="0" IVar="-1" Cut="0.0000000000000000e+00" cType="1" res="-4.6959557221271098e-04" rms="2.3190136253833771e-01" purity="4.6331712603569031e-01" nType="-99"/>
        </Node>
      </Node>
    </BinaryTree>
    <BinaryTree type="DecisionTree" boostWeight="1.0000000000000000e+00" itree="1018">
      <Node pos="s" depth="0" NCoef="0" IVar="37" Cut="-6.3500899076461792e-01" cType="1" res="1.0151471942663193e-03" rms="2.2738783061504364e-01" purity="5.0197672843933105e-01" nType="0">
        <Node pos="l" depth="1" NCoef="0" IVar="56" Cut="1.5236508846282959e+00" cType="1" res="3.6638770252466202e-03" rms="2.3080861568450928e-01" purity="5.1587027311325073e-01" nType="0">
          <Node pos="l" depth="2" NCoef="0" IVar="-1" Cut="0.0000000000000000e+00" cType="1" res="6.4994086278602481e-04" rms="2.3321609199047089e-01" purity="5.3578931093215942e-01" nType="-99"/>
          <Node pos="r" depth="2" NCoef="0" IVar="-1" Cut="0.0000000000000000e+00" cType="1" res="-9.7335726022720337e-03" rms="1.4694979786872864e-01" purity="1.6943600028753281e-02" nType="-99"/>
        </Node>
        <Node pos="r" depth="1" NCoef="0" IVar="-1" Cut="0.0000000000000000e+00" cType="1" res="-1.1158477514982224e-02" rms="7.8414797782897949e-02" purity="1.4161124825477600e-01" nType="-99"/>
      </Node>
    </BinaryTree>
    <BinaryTree type="DecisionTree" boostWeight="1.0000000000000000e+00" itree="1019">
      <Node pos="s" depth="0" NCoef="0" IVar="54" Cut="-4.0969827771186829e-01" cType="1" res="9.7695819567888975e-04" rms="2.2691018879413605e-01" purity="5.0223696231842041e-01" nType="0">
        <Node pos="l" depth="1" NCoef="0" IVar="44" Cut="1.2345679104328156e-02" cType="1" res="7.9613057896494865e-03" rms="2.2402869164943695e-01" purity="5.8918595314025879e-01" nType="0">
          <Node pos="l" depth="2" NCoef="0" IVar="-1" Cut="0.0000000000000000e+00" cType="1" res="1.2470759684219956e-03" rms="2.2150994837284088e-01" purity="5.9921354055404663e-01" nType="-99"/>
          <Node pos="r" depth="2" NCoef="0" IVar="-1" Cut="0.0000000000000000e+00" cType="1" res="-7.2205294854938984e-03" rms="2.6305890083312988e-01" purity="3.6316925287246704e-01" nType="-99"/>
        </Node>
        <Node pos="r" depth="1" NCoef="0" IVar="49" Cut="3.4870045185089111e+00" cType="1" res="-2.1924169734120369e-02" rms="2.3465803265571594e-01" purity="2.1713802218437195e-01" nType="0">
          <Node pos="l" depth="2" NCoef="0" IVar="-1" Cut="0.0000000000000000e+00" cType="1" res="-1.1301541235297918e-03" rms="2.1966126561164856e-01" purity="2.0105040073394775e-01" nType="-99"/>
          <Node pos="r" depth="2" NCoef="0" IVar="-1" Cut="0.0000000000000000e+00" cType="1" res="-5.0429697148501873e-03" rms="2.6609247922897339e-01" purity="2.5793224573135376e-01" nType="-99"/>
        </Node>
      </Node>
    </BinaryTree>
    <BinaryTree type="DecisionTree" boostWeight="1.0000000000000000e+00" itree="1020">
      <Node pos="s" depth="0" NCoef="0" IVar="56" Cut="1.5236508846282959e+00" cType="1" res="2.6041842065751553e-03" rms="2.2834224998950958e-01" purity="5.0212806463241577e-01" nType="0">
        <Node pos="l" depth="1" NCoef="0" IVar="54" Cut="1.4865821599960327e+00" cType="1" res="5.1612728275358677e-03" rms="2.3113849759101868e-01" purity="5.2210593223571777e-01" nType="0">
          <Node pos="l" depth="2" NCoef="0" IVar="-1" Cut="0.0000000000000000e+00" cType="1" res="8.6297962116077542e-04" rms="2.3113006353378296e-01" purity="5.4288864135742188e-01" nType="-99"/>
          <Node pos="r" depth="2" NCoef="0" IVar="-1" Cut="0.0000000000000000e+00" cType="1" res="-7.4040452018380165e-03" rms="2.2284843027591705e-01" purity="8.0768056213855743e-02" nType="-99"/>
        </Node>
        <Node pos="r" depth="1" NCoef="0" IVar="-1" Cut="0.0000000000000000e+00" cType="1" res="-1.0535022243857384e-02" rms="1.2826359272003174e-01" purity="1.1116114445030689e-02" nType="-99"/>
      </Node>
    </BinaryTree>
    <BinaryTree type="DecisionTree" boostWeight="1.0000000000000000e+00" itree="1021">
      <Node pos="s" depth="0" NCoef="0" IVar="14" Cut="1.4871129989624023e+00" cType="1" res="1.2199667980894446e-03" rms="2.2709953784942627e-01" purity="5.0158238410949707e-01" nType="0">
        <Node pos="l" depth="1" NCoef="0" IVar="41" Cut="1.2345679104328156e-02" cType="1" res="-1.0193974711000919e-02" rms="2.1258306503295898e-01" purity="2.3942275345325470e-01" nType="0">
          <Node pos="l" depth="2" NCoef="0" IVar="-1" Cut="0.0000000000000000e+00" cType="1" res="7.4079302139580250e-03" rms="3.2566720247268677e-01" purity="2.9465448856353760e-01" nType="-99"/>
          <Node pos="r" depth="2" NCoef="0" IVar="-1" Cut="0.0000000000000000e+00" cType="1" res="-1.9643025007098913e-03" rms="2.0234575867652893e-01" purity="2.3590639233589172e-01" nType="-99"/>
        </Node>
        <Node pos="r" depth="1" NCoef="0" IVar="11" Cut="1.2345679104328156e-02" cType="1" res="1.2485812418162823e-02" rms="2.4003858864307404e-01" purity="7.6034045219421387e-01" nType="0">
          <Node pos="l" depth="2" NCoef="0" IVar="-1" Cut="0.0000000000000000e+00" cType="1" res="3.3893822692334652e-03" rms="2.0177407562732697e-01" purity="7.9193943738937378e-01" nType="-99"/>
          <Node pos="r" depth="2" NCoef="0" IVar="-1" Cut="0.0000000000000000e+00" cType="1" res="-2.3188526392914355e-04" rms="2.6393228769302368e-01" purity="7.3684453964233398e-01" nType="-99"/>
        </Node>
      </Node>
    </BinaryTree>
    <BinaryTree type="DecisionTree" boostWeight="1.0000000000000000e+00" itree="1022">
      <Node pos="s" depth="0" NCoef="0" IVar="45" Cut="9.2486190795898438e-01" cType="1" res="1.4421025989577174e-03" rms="2.2931784391403198e-01" purity="5.0283551216125488e-01" nType="0">
        <Node pos="l" depth="1" NCoef="0" IVar="49" Cut="2.8534319400787354e+00" cType="1" res="-3.7656921893358231e-02" rms="3.8827754557132721e-02" purity="5.3586058318614960e-02" nType="0">
          <Node pos="l" depth="2" NCoef="0" IVar="-1" Cut="0.0000000000000000e+00" cType="1" res="-1.2568976730108261e-02" rms="0.0000000000000000e+00" purity="1.1508174240589142e-02" nType="-99"/>
          <Node pos="r" depth="2" NCoef="0" IVar="-1" Cut="0.0000000000000000e+00" cType="1" res="2.6117106899619102e-03" rms="2.1187916398048401e-01" purity="1.9279946386814117e-01" nType="-99"/>
        </Node>
        <Node pos="r" depth="1" NCoef="0" IVar="57" Cut="-6.0786139965057373e-01" cType="1" res="5.3405235521495342e-03" rms="2.3981650173664093e-01" purity="5.4762852191925049e-01" nType="0">
          <Node pos="l" depth="2" NCoef="0" IVar="-1" Cut="0.0000000000000000e+00" cType="1" res="7.9514179378747940e-04" rms="2.4199029803276062e-01" purity="5.5765128135681152e-01" nType="-99"/>
          <Node pos="r" depth="2" NCoef="0" IVar="-1" Cut="0.0000000000000000e+00" cType="1" res="-8.5437959060072899e-03" rms="1.2868531048297882e-01" purity="2.0941613614559174e-01" nType="-99"/>
        </Node>
      </Node>
    </BinaryTree>
    <BinaryTree type="DecisionTree" boostWeight="1.0000000000000000e+00" itree="1023">
      <Node pos="s" depth="0" NCoef="0" IVar="45" Cut="8.9712131023406982e-01" cType="1" res="7.3270592838525772e-04" rms="2.2926208376884460e-01" purity="4.9983736872673035e-01" nType="0">
        <Node pos="l" depth="1" NCoef="0" IVar="49" Cut="2.6519808769226074e+00" cType="1" res="-4.3434068560600281e-02" rms="1.2860481627285480e-02" purity="4.0897395461797714e-02" nType="0">
          <Node pos="l" depth="2" NCoef="0" IVar="-1" Cut="0.0000000000000000e+00" cType="1" res="-1.6602288931608200e-02" rms="0.0000000000000000e+00" purity="-2.7306932024657726e-03" nType="-99"/>
          <Node pos="r" depth="2" NCoef="0" IVar="-1" Cut="0.0000000000000000e+00" cType="1" res="-7.4250024044886231e-04" rms="1.7533910274505615e-01" purity="1.1385225504636765e-01" nType="-99"/>
        </Node>
        <Node pos="r" depth="1" NCoef="0" IVar="65" Cut="7.7429032325744629e-01" cType="1" res="4.8992424272000790e-03" rms="2.3937949538230896e-01" purity="5.4313218593597412e-01" nType="0">
          <Node pos="l" depth="2" NCoef="0" IVar="-1" Cut="0.0000000000000000e+00" cType="1" res="8.1809639232233167e-04" rms="2.4343234300613403e-01" purity="5.6734728813171387e-01" nType="-99"/>
          <Node pos="r" depth="2" NCoef="0" IVar="-1" Cut="0.0000000000000000e+00" cType="1" res="-5.9781786985695362e-03" rms="1.4724981784820557e-01" purity="1.3348896801471710e-01" nType="-99"/>
        </Node>
      </Node>
    </BinaryTree>
    <BinaryTree type="DecisionTree" boostWeight="1.0000000000000000e+00" itree="1024">
      <Node pos="s" depth="0" NCoef="0" IVar="33" Cut="1.3313596248626709e+00" cType="1" res="1.2742187827825546e-03" rms="2.2676731646060944e-01" purity="5.0370293855667114e-01" nType="0">
        <Node pos="l" depth="1" NCoef="0" IVar="63" Cut="1.1634762287139893e+00" cType="1" res="3.7413467653095722e-03" rms="2.2911189496517181e-01" purity="5.1511824131011963e-01" nType="0">
          <Node pos="l" depth="2" NCoef="0" IVar="-1" Cut="0.0000000000000000e+00" cType="1" res="7.0152565604075789e-04" rms="2.3173387348651886e-01" purity="5.2623456716537476e-01" nType="-99"/>
          <Node pos="r" depth="2" NCoef="0" IVar="-1" Cut="0.0000000000000000e+00" cType="1" res="-6.0743312351405621e-03" rms="1.5919092297554016e-01" purity="2.9411196708679199e-01" nType="-99"/>
        </Node>
        <Node pos="r" depth="1" NCoef="0" IVar="-1" Cut="0.0000000000000000e+00" cType="1" res="-1.0235915891826153e-02" rms="1.2824730575084686e-01" purity="1.8321914970874786e-01" nType="-99"/>
      </Node>
    </BinaryTree>
    <BinaryTree type="DecisionTree" boostWeight="1.0000000000000000e+00" itree="1025">
      <Node pos="s" depth="0" NCoef="0" IVar="32" Cut="-1.5312128067016602e+00" cType="1" res="-5.9475270973052830e-05" rms="2.2608464956283569e-01" purity="4.9980545043945312e-01" nType="0">
        <Node pos="l" depth="1" NCoef="0" IVar="54" Cut="-1.4924196004867554e+00" cType="1" res="1.4975058846175671e-02" rms="2.1882560849189758e-01" purity="6.8142420053482056e-01" nType="0">
          <Node pos="l" depth="2" NCoef="0" IVar="-1" Cut="0.0000000000000000e+00" cType="1" res="3.7360163405537605e-03" rms="1.7356421053409576e-01" purity="8.0886167287826538e-01" nType="-99"/>
          <Node pos="r" depth="2" NCoef="0" IVar="-1" Cut="0.0000000000000000e+00" cType="1" res="-7.5114978244528174e-04" rms="2.7519378066062927e-01" purity="4.7561725974082947e-01" nType="-99"/>
        </Node>
        <Node pos="r" depth="1" NCoef="0" IVar="9" Cut="2.5737454891204834e+00" cType="1" res="-9.9602630361914635e-03" rms="2.3020471632480621e-01" purity="3.8020282983779907e-01" nType="0">
          <Node pos="l" depth="2" NCoef="0" IVar="-1" Cut="0.0000000000000000e+00" cType="1" res="-1.1135075241327286e-02" rms="0.0000000000000000e+00" purity="6.3684053719043732e-02" nType="-99"/>
          <Node pos="r" depth="2" NCoef="0" IVar="-1" Cut="0.0000000000000000e+00" cType="1" res="-6.1534810811281204e-04" rms="2.3901139199733734e-01" purity="4.0497153997421265e-01" nType="-99"/>
        </Node>
      </Node>
    </BinaryTree>
    <BinaryTree type="DecisionTree" boostWeight="1.0000000000000000e+00" itree="1026">
      <Node pos="s" depth="0" NCoef="0" IVar="57" Cut="-2.2865929603576660e+00" cType="1" res="3.0891995411366224e-03" rms="2.3196762800216675e-01" purity="5.0122690200805664e-01" nType="0">
        <Node pos="l" depth="1" NCoef="0" IVar="0" Cut="9.7340810298919678e-01" cType="1" res="1.8682850524783134e-02" rms="2.4171672761440277e-01" purity="5.8221882581710815e-01" nType="0">
          <Node pos="l" depth="2" NCoef="0" IVar="-1" Cut="0.0000000000000000e+00" cType="1" res="2.4401317350566387e-03" rms="2.4108122289180756e-01" purity="6.0436713695526123e-01" nType="-99"/>
          <Node pos="r" depth="2" NCoef="0" IVar="-1" Cut="0.0000000000000000e+00" cType="1" res="-2.8665699064731598e-03" rms="2.4347166717052460e-01" purity="3.7370991706848145e-01" nType="-99"/>
        </Node>
        <Node pos="r" depth="1" NCoef="0" IVar="5" Cut="1.3540861606597900e+00" cType="1" res="-6.9467010907828808e-03" rms="2.2489924728870392e-01" purity="4.4910144805908203e-01" nType="0">
          <Node pos="l" depth="2" NCoef="0" IVar="-1" Cut="0.0000000000000000e+00" cType="1" res="-6.5379482693970203e-03" rms="7.4538916349411011e-02" purity="1.2809813022613525e-01" nType="-99"/>
          <Node pos="r" depth="2" NCoef="0" IVar="-1" Cut="0.0000000000000000e+00" cType="1" res="1.8450355128152296e-05" rms="2.4524559080600739e-01" purity="5.1931697130203247e-01" nType="-99"/>
        </Node>
      </Node>
    </BinaryTree>
    <BinaryTree type="DecisionTree" boostWeight="1.0000000000000000e+00" itree="1027">
      <Node pos="s" depth="0" NCoef="0" IVar="14" Cut="1.4871129989624023e+00" cType="1" res="1.9870884716510773e-03" rms="2.2653998434543610e-01" purity="5.0163620710372925e-01" nType="0">
        <Node pos="l" depth="1" NCoef="0" IVar="65" Cut="6.4029288291931152e-01" cType="1" res="-1.0247678495943546e-02" rms="2.1167050302028656e-01" purity="2.4041846394538879e-01" nType="0">
          <Node pos="l" depth="2" NCoef="0" IVar="-1" Cut="0.0000000000000000e+00" cType="1" res="5.9294816310284659e-06" rms="2.3857930302619934e-01" purity="2.8619146347045898e-01" nType="-99"/>
          <Node pos="r" depth="2" NCoef="0" IVar="-1" Cut="0.0000000000000000e+00" cType="1" res="-6.7260987125337124e-03" rms="9.1174468398094177e-02" purity="1.0711681097745895e-01" nType="-99"/>
        </Node>
        <Node pos="r" depth="1" NCoef="0" IVar="11" Cut="1.2345679104328156e-02" cType="1" res="1.4114703983068466e-02" rms="2.3975780606269836e-01" purity="7.6056635379791260e-01" nType="0">
          <Node pos="l" depth="2" NCoef="0" IVar="-1" Cut="0.0000000000000000e+00" cType="1" res="3.5737163852900267e-03" rms="2.0406210422515869e-01" purity="7.8779703378677368e-01" nType="-99"/>
          <Node pos="r" depth="2" NCoef="0" IVar="-1" Cut="0.0000000000000000e+00" cType="1" res="-7.4546776886563748e-05" rms="2.6165667176246643e-01" purity="7.4078369140625000e-01" nType="-99"/>
        </Node>
      </Node>
    </BinaryTree>
    <BinaryTree type="DecisionTree" boostWeight="1.0000000000000000e+00" itree="1028">
      <Node pos="s" depth="0" NCoef="0" IVar="45" Cut="2.8441758155822754e+00" cType="1" res="4.1001991485245526e-04" rms="2.2693218290805817e-01" purity="4.9692538380622864e-01" nType="0">
        <Node pos="l" depth="1" NCoef="0" IVar="14" Cut="-1.3763210773468018e+00" cType="1" res="-6.0491538606584072e-03" rms="2.2707445919513702e-01" purity="4.0845412015914917e-01" nType="0">
          <Node pos="l" depth="2" NCoef="0" IVar="-1" Cut="0.0000000000000000e+00" cType="1" res="-3.5615317523479462e-02" rms="0.0000000000000000e+00" purity="-2.1471543237566948e-02" nType="-99"/>
          <Node pos="r" depth="2" NCoef="0" IVar="-1" Cut="0.0000000000000000e+00" cType="1" res="1.5189568512141705e-04" rms="2.7757236361503601e-01" purity="5.5323296785354614e-01" nType="-99"/>
        </Node>
        <Node pos="r" depth="1" NCoef="0" IVar="14" Cut="-1.3376811742782593e+00" cType="1" res="2.2539669647812843e-02" rms="2.2504277527332306e-01" purity="8.0003494024276733e-01" nType="0">
          <Node pos="l" depth="2" NCoef="0" IVar="-1" Cut="0.0000000000000000e+00" cType="1" res="1.4462971128523350e-02" rms="3.1330624222755432e-01" purity="1.4564014971256256e-01" nType="-99"/>
          <Node pos="r" depth="2" NCoef="0" IVar="-1" Cut="0.0000000000000000e+00" cType="1" res="1.8089937511831522e-03" rms="2.1225710213184357e-01" purity="8.7140685319900513e-01" nType="-99"/>
        </Node>
      </Node>
    </BinaryTree>
    <BinaryTree type="DecisionTree" boostWeight="1.0000000000000000e+00" itree="1029">
      <Node pos="s" depth="0" NCoef="0" IVar="45" Cut="1.0777684450149536e+00" cType="1" res="1.5101111494004726e-03" rms="2.3319579660892487e-01" purity="5.0084978342056274e-01" nType="0">
        <Node pos="l" depth="1" NCoef="0" IVar="49" Cut="2.5613174438476562e+00" cType="1" res="-2.9482934623956680e-02" rms="1.0982928425073624e-01" purity="8.1553280353546143e-02" nType="0">
          <Node pos="l" depth="2" NCoef="0" IVar="-1" Cut="0.0000000000000000e+00" cType="1" res="-1.2086566537618637e-02" rms="0.0000000000000000e+00" purity="2.2110873833298683e-02" nType="-99"/>
          <Node pos="r" depth="2" NCoef="0" IVar="-1" Cut="0.0000000000000000e+00" cType="1" res="-3.2147680758498609e-04" rms="1.6871699690818787e-01" purity="1.3923278450965881e-01" nType="-99"/>
        </Node>
        <Node pos="r" depth="1" NCoef="0" IVar="4" Cut="3.7640495300292969e+00" cType="1" res="5.8825383894145489e-03" rms="2.4534821510314941e-01" purity="5.6000322103500366e-01" nType="0">
          <Node pos="l" depth="2" NCoef="0" IVar="-1" Cut="0.0000000000000000e+00" cType="1" res="1.9512466387823224e-03" rms="2.3813475668430328e-01" purity="5.5546516180038452e-01" nType="-99"/>
          <Node pos="r" depth="2" NCoef="0" IVar="-1" Cut="0.0000000000000000e+00" cType="1" res="-7.6992128742858768e-04" rms="2.5313910841941833e-01" purity="5.6551134586334229e-01" nType="-99"/>
        </Node>
      </Node>
    </BinaryTree>
    <BinaryTree type="DecisionTree" boostWeight="1.0000000000000000e+00" itree="1030">
      <Node pos="s" depth="0" NCoef="0" IVar="14" Cut="1.5258079767227173e+00" cType="1" res="-1.6711974749341607e-03" rms="2.2846789658069611e-01" purity="4.9801787734031677e-01" nType="0">
        <Node pos="l" depth="1" NCoef="0" IVar="37" Cut="-1.1115716695785522e+00" cType="1" res="-1.1367519386112690e-02" rms="2.2537440061569214e-01" purity="3.4605491161346436e-01" nType="0">
          <Node pos="l" depth="2" NCoef="0" IVar="-1" Cut="0.0000000000000000e+00" cType="1" res="-5.6121539091691375e-04" rms="2.4095994234085083e-01" purity="3.7955212593078613e-01" nType="-99"/>
          <Node pos="r" depth="2" NCoef="0" IVar="-1" Cut="0.0000000000000000e+00" cType="1" res="-7.8289061784744263e-03" rms="8.1751450896263123e-02" purity="1.5050922334194183e-01" nType="-99"/>
        </Node>
        <Node pos="r" depth="1" NCoef="0" IVar="36" Cut="1.4858274459838867e+00" cType="1" res="1.6311857849359512e-02" rms="2.3303140699863434e-01" purity="7.7985244989395142e-01" nType="0">
          <Node pos="l" depth="2" NCoef="0" IVar="-1" Cut="0.0000000000000000e+00" cType="1" res="2.0794146694242954e-03" rms="2.2382739186286926e-01" purity="8.2095634937286377e-01" nType="-99"/>
          <Node pos="r" depth="2" NCoef="0" IVar="-1" Cut="0.0000000000000000e+00" cType="1" res="-4.2651882395148277e-03" rms="3.4239116311073303e-01" purity="1.1798691749572754e-01" nType="-99"/>
        </Node>
      </Node>
    </BinaryTree>
    <BinaryTree type="DecisionTree" boostWeight="1.0000000000000000e+00" itree="1031">
      <Node pos="s" depth="0" NCoef="0" IVar="37" Cut="-1.8201681375503540e+00" cType="1" res="2.8054150752723217e-03" rms="2.3083323240280151e-01" purity="5.0105690956115723e-01" nType="0">
        <Node pos="l" depth="1" NCoef="0" IVar="36" Cut="1.4468667507171631e+00" cType="1" res="1.1948830448091030e-02" rms="2.3811407387256622e-01" purity="5.5863851308822632e-01" nType="0">
          <Node pos="l" depth="2" NCoef="0" IVar="-1" Cut="0.0000000000000000e+00" cType="1" res="1.7064305720850825e-03" rms="2.3627808690071106e-01" purity="5.9745156764984131e-01" nType="-99"/>
          <Node pos="r" depth="2" NCoef="0" IVar="-1" Cut="0.0000000000000000e+00" cType="1" res="-4.3839868158102036e-03" rms="2.5457862019538879e-01" purity="8.8111259043216705e-02" nType="-99"/>
        </Node>
        <Node pos="r" depth="1" NCoef="0" IVar="14" Cut="1.3318024873733521e+00" cType="1" res="-1.2286703102290630e-02" rms="2.1744541823863983e-01" purity="4.0601271390914917e-01" nType="0">
          <Node pos="l" depth="2" NCoef="0" IVar="-1" Cut="0.0000000000000000e+00" cType="1" res="-6.4573655836284161e-03" rms="8.7480977177619934e-02" purity="7.8062653541564941e-02" nType="-99"/>
          <Node pos="r" depth="2" NCoef="0" IVar="-1" Cut="0.0000000000000000e+00" cType="1" res="1.6041957132983953e-04" rms="2.7674621343612671e-01" purity="6.5239107608795166e-01" nType="-99"/>
        </Node>
      </Node>
    </BinaryTree>
    <BinaryTree type="DecisionTree" boostWeight="1.0000000000000000e+00" itree="1032">
      <Node pos="s" depth="0" NCoef="0" IVar="2" Cut="1.7462874650955200e+00" cType="1" res="-7.7263230923563242e-04" rms="2.2857244312763214e-01" purity="4.9947932362556458e-01" nType="0">
        <Node pos="l" depth="1" NCoef="0" IVar="14" Cut="-1.2603093385696411e+00" cType="1" res="-2.2997505962848663e-02" rms="1.6940160095691681e-01" purity="1.8540069460868835e-01" nType="0">
          <Node pos="l" depth="2" NCoef="0" IVar="-1" Cut="0.0000000000000000e+00" cType="1" res="-1.3696207106113434e-01" rms="0.0000000000000000e+00" purity="-5.8076299726963043e-02" nType="-99"/>
          <Node pos="r" depth="2" NCoef="0" IVar="-1" Cut="0.0000000000000000e+00" cType="1" res="-9.5527830126229674e-05" rms="2.7866977453231812e-01" purity="3.1947574019432068e-01" nType="-99"/>
        </Node>
        <Node pos="r" depth="1" NCoef="0" IVar="1" Cut="2.1806731224060059e+00" cType="1" res="6.7438199184834957e-03" rms="2.4492019414901733e-01" purity="6.0570073127746582e-01" nType="0">
          <Node pos="l" depth="2" NCoef="0" IVar="-1" Cut="0.0000000000000000e+00" cType="1" res="-1.3584502972662449e-02" rms="0.0000000000000000e+00" purity="1.0941132903099060e-02" nType="-99"/>
          <Node pos="r" depth="2" NCoef="0" IVar="-1" Cut="0.0000000000000000e+00" cType="1" res="1.1566499015316367e-03" rms="2.5446033477783203e-01" purity="6.4546638727188110e-01" nType="-99"/>
        </Node>
      </Node>
    </BinaryTree>
    <BinaryTree type="DecisionTree" boostWeight="1.0000000000000000e+00" itree="1033">
      <Node pos="s" depth="0" NCoef="0" IVar="0" Cut="3.2506754994392395e-01" cType="1" res="1.4518168754875660e-03" rms="2.2791571915149689e-01" purity="5.0107175111770630e-01" nType="0">
        <Node pos="l" depth="1" NCoef="0" IVar="4" Cut="3.6882758140563965e+00" cType="1" res="1.8437579274177551e-02" rms="2.4623705446720123e-01" purity="5.8788049221038818e-01" nType="0">
          <Node pos="l" depth="2" NCoef="0" IVar="-1" Cut="0.0000000000000000e+00" cType="1" res="5.1441504620015621e-03" rms="2.4410244822502136e-01" purity="6.1387169361114502e-01" nType="-99"/>
          <Node pos="r" depth="2" NCoef="0" IVar="-1" Cut="0.0000000000000000e+00" cType="1" res="-5.1258970052003860e-04" rms="2.4542354047298431e-01" purity="5.6681579351425171e-01" nType="-99"/>
        </Node>
        <Node pos="r" depth="1" NCoef="0" IVar="29" Cut="2.7781498432159424e+00" cType="1" res="-8.9157773181796074e-03" rms="2.1531288325786591e-01" purity="4.4808641076087952e-01" nType="0">
          <Node pos="l" depth="2" NCoef="0" IVar="-1" Cut="0.0000000000000000e+00" cType="1" res="-5.2077895961701870e-03" rms="1.7049135267734528e-01" purity="2.6500990986824036e-01" nType="-99"/>
          <Node pos="r" depth="2" NCoef="0" IVar="-1" Cut="0.0000000000000000e+00" cType="1" res="4.3544448999455199e-05" rms="2.2690664231777191e-01" purity="5.0617408752441406e-01" nType="-99"/>
        </Node>
      </Node>
    </BinaryTree>
    <BinaryTree type="DecisionTree" boostWeight="1.0000000000000000e+00" itree="1034">
      <Node pos="s" depth="0" NCoef="0" IVar="54" Cut="1.4865821599960327e+00" cType="1" res="8.0730207264423370e-04" rms="2.3087130486965179e-01" purity="5.0137382745742798e-01" nType="0">
        <Node pos="l" depth="1" NCoef="0" IVar="56" Cut="1.4854199886322021e+00" cType="1" res="3.6019172985106707e-03" rms="2.3200745880603790e-01" purity="5.3236925601959229e-01" nType="0">
          <Node pos="l" depth="2" NCoef="0" IVar="-1" Cut="0.0000000000000000e+00" cType="1" res="7.1537308394908905e-04" rms="2.3226338624954224e-01" purity="5.4655075073242188e-01" nType="-99"/>
          <Node pos="r" depth="2" NCoef="0" IVar="-1" Cut="0.0000000000000000e+00" cType="1" res="-1.1230587027966976e-02" rms="1.9777636229991913e-01" purity="3.5849332809448242e-02" nType="-99"/>
        </Node>
        <Node pos="r" depth="1" NCoef="0" IVar="56" Cut="1.4852572679519653e+00" cType="1" res="-3.8526374846696854e-02" rms="2.1033899486064911e-01" purity="6.5118856728076935e-02" nType="0">
          <Node pos="l" depth="2" NCoef="0" IVar="-1" Cut="0.0000000000000000e+00" cType="1" res="-1.1343118734657764e-02" rms="2.2320044040679932e-01" purity="8.9254669845104218e-02" nType="-99"/>
          <Node pos="r" depth="2" NCoef="0" IVar="-1" Cut="0.0000000000000000e+00" cType="1" res="5.6812947150319815e-04" rms="1.9086039066314697e-01" purity="5.0998240709304810e-02" nType="-99"/>
        </Node>
      </Node>
    </BinaryTree>
    <BinaryTree type="DecisionTree" boostWeight="1.0000000000000000e+00" itree="1035">
      <Node pos="s" depth="0" NCoef="0" IVar="34" Cut="1.2533302307128906e+00" cType="1" res="-1.1565306922420859e-03" rms="2.2518122196197510e-01" purity="4.9910852313041687e-01" nType="0">
        <Node pos="l" depth="1" NCoef="0" IVar="29" Cut="2.7015674114227295e+00" cType="1" res="3.9243209175765514e-03" rms="2.2722297906875610e-01" purity="5.5683308839797974e-01" nType="0">
          <Node pos="l" depth="2" NCoef="0" IVar="-1" Cut="0.0000000000000000e+00" cType="1" res="-3.0339455697685480e-03" rms="2.1513274312019348e-01" purity="3.4855782985687256e-01" nType="-99"/>
          <Node pos="r" depth="2" NCoef="0" IVar="-1" Cut="0.0000000000000000e+00" cType="1" res="1.1762824142351747e-03" rms="2.2950623929500580e-01" purity="6.0756134986877441e-01" nType="-99"/>
        </Node>
        <Node pos="r" depth="1" NCoef="0" IVar="31" Cut="1.2345679104328156e-02" cType="1" res="-3.5189423710107803e-02" rms="2.0781789720058441e-01" purity="1.1245366185903549e-01" nType="0">
          <Node pos="l" depth="2" NCoef="0" IVar="-1" Cut="0.0000000000000000e+00" cType="1" res="4.1453636367805302e-04" rms="1.8548651039600372e-01" purity="9.9995791912078857e-02" nType="-99"/>
          <Node pos="r" depth="2" NCoef="0" IVar="-1" Cut="0.0000000000000000e+00" cType="1" res="-7.0498581044375896e-03" rms="2.1832706034183502e-01" purity="1.2119844555854797e-01" nType="-99"/>
        </Node>
      </Node>
    </BinaryTree>
    <BinaryTree type="DecisionTree" boostWeight="1.0000000000000000e+00" itree="1036">
      <Node pos="s" depth="0" NCoef="0" IVar="1" Cut="1.7478921413421631e+00" cType="1" res="-1.1542816646397114e-03" rms="2.2594824433326721e-01" purity="5.0062751770019531e-01" nType="0">
        <Node pos="l" depth="1" NCoef="0" IVar="-1" Cut="0.0000000000000000e+00" cType="1" res="-6.2183372676372528e-02" rms="0.0000000000000000e+00" purity="-5.6657195091247559e-02" nType="-99"/>
        <Node pos="r" depth="1" NCoef="0" IVar="17" Cut="-8.1448185443878174e-01" cType="1" res="1.4479380333796144e-03" rms="2.3543314635753632e-01" purity="5.2267360687255859e-01" nType="0">
          <Node pos="l" depth="2" NCoef="0" IVar="-1" Cut="0.0000000000000000e+00" cType="1" res="4.6573791769333184e-04" rms="2.3727658390998840e-01" purity="5.3875911235809326e-01" nType="-99"/>
          <Node pos="r" depth="2" NCoef="0" IVar="-1" Cut="0.0000000000000000e+00" cType="1" res="-5.8424053713679314e-03" rms="1.9464908540248871e-01" purity="2.4707788228988647e-01" nType="-99"/>
        </Node>
      </Node>
    </BinaryTree>
    <BinaryTree type="DecisionTree" boostWeight="1.0000000000000000e+00" itree="1037">
      <Node pos="s" depth="0" NCoef="0" IVar="56" Cut="1.5236508846282959e+00" cType="1" res="2.7060585562139750e-03" rms="2.2956621646881104e-01" purity="5.0303405523300171e-01" nType="0">
        <Node pos="l" depth="1" NCoef="0" IVar="17" Cut="-1.4376097917556763e+00" cType="1" res="5.1498734392225742e-03" rms="2.3229657113552094e-01" purity="5.2280884981155396e-01" nType="0">
          <Node pos="l" depth="2" NCoef="0" IVar="-1" Cut="0.0000000000000000e+00" cType="1" res="1.2441928265616298e-03" rms="2.3466470837593079e-01" purity="5.6299823522567749e-01" nType="-99"/>
          <Node pos="r" depth="2" NCoef="0" IVar="-1" Cut="0.0000000000000000e+00" cType="1" res="-2.3194423411041498e-03" rms="2.2097083926200867e-01" purity="3.6503243446350098e-01" nType="-99"/>
        </Node>
        <Node pos="r" depth="1" NCoef="0" IVar="-1" Cut="0.0000000000000000e+00" cType="1" res="-1.0563262738287449e-02" rms="1.3218925893306732e-01" purity="1.0958078317344189e-02" nType="-99"/>
      </Node>
    </BinaryTree>
    <BinaryTree type="DecisionTree" boostWeight="1.0000000000000000e+00" itree="1038">
      <Node pos="s" depth="0" NCoef="0" IVar="36" Cut="1.4858274459838867e+00" cType="1" res="-1.2252706801518798e-04" rms="2.2991226613521576e-01" purity="4.9887639284133911e-01" nType="0">
        <Node pos="l" depth="1" NCoef="0" IVar="34" Cut="1.4838682413101196e+00" cType="1" res="3.0919427517801523e-03" rms="2.3190309107303619e-01" purity="5.3189623355865479e-01" nType="0">
          <Node pos="l" depth="2" NCoef="0" IVar="-1" Cut="0.0000000000000000e+00" cType="1" res="5.8338238159194589e-04" rms="2.3159292340278625e-01" purity="5.4414540529251099e-01" nType="-99"/>
          <Node pos="r" depth="2" NCoef="0" IVar="-1" Cut="0.0000000000000000e+00" cType="1" res="-8.9927213266491890e-03" rms="2.2895024716854095e-01" purity="1.0160710662603378e-01" nType="-99"/>
        </Node>
        <Node pos="r" depth="1" NCoef="0" IVar="3" Cut="4.7408175468444824e+00" cType="1" res="-4.4349264353513718e-02" rms="1.9522273540496826e-01" purity="4.4569507241249084e-02" nType="0">
          <Node pos="l" depth="2" NCoef="0" IVar="-1" Cut="0.0000000000000000e+00" cType="1" res="-2.3673987016081810e-03" rms="2.1758604049682617e-01" purity="5.8646034449338913e-02" nType="-99"/>
          <Node pos="r" depth="2" NCoef="0" IVar="-1" Cut="0.0000000000000000e+00" cType="1" res="-1.0533316992223263e-02" rms="1.6079610586166382e-01" purity="2.9230397194623947e-02" nType="-99"/>
        </Node>
      </Node>
    </BinaryTree>
    <BinaryTree type="DecisionTree" boostWeight="1.0000000000000000e+00" itree="1039">
      <Node pos="s" depth="0" NCoef="0" IVar="37" Cut="-1.9979530572891235e+00" cType="1" res="-2.7126705390401185e-04" rms="2.2558373212814331e-01" purity="5.0027978420257568e-01" nType="0">
        <Node pos="l" depth="1" NCoef="0" IVar="36" Cut="1.4084697961807251e+00" cType="1" res="1.1685013771057129e-02" rms="2.3192310333251953e-01" purity="5.6672018766403198e-01" nType="0">
          <Node pos="l" depth="2" NCoef="0" IVar="-1" Cut="0.0000000000000000e+00" cType="1" res="1.7337109893560410e-03" rms="2.3074838519096375e-01" purity="6.1003434658050537e-01" nType="-99"/>
          <Node pos="r" depth="2" NCoef="0" IVar="-1" Cut="0.0000000000000000e+00" cType="1" res="-4.6702269464731216e-03" rms="2.3881807923316956e-01" purity="9.4077460467815399e-02" nType="-99"/>
        </Node>
        <Node pos="r" depth="1" NCoef="0" IVar="43" Cut="1.1325724124908447e+00" cType="1" res="-1.3938007876276970e-02" rms="2.1730767190456390e-01" purity="4.2433452606201172e-01" nType="0">
          <Node pos="l" depth="2" NCoef="0" IVar="-1" Cut="0.0000000000000000e+00" cType="1" res="-1.0145630221813917e-03" rms="2.2277210652828217e-01" purity="4.4060075283050537e-01" nType="-99"/>
          <Node pos="r" depth="2" NCoef="0" IVar="-1" Cut="0.0000000000000000e+00" cType="1" res="-8.6551727727055550e-03" rms="1.3715767860412598e-01" purity="2.5262054800987244e-01" nType="-99"/>
        </Node>
      </Node>
    </BinaryTree>
    <BinaryTree type="DecisionTree" boostWeight="1.0000000000000000e+00" itree="1040">
      <Node pos="s" depth="0" NCoef="0" IVar="25" Cut="2.2269966602325439e+00" cType="1" res="1.0802337201312184e-03" rms="2.3130175471305847e-01" purity="4.9907851219177246e-01" nType="0">
        <Node pos="l" depth="1" NCoef="0" IVar="14" Cut="-1.3376259803771973e+00" cType="1" res="-1.0385797359049320e-02" rms="2.1628569066524506e-01" purity="2.9961493611335754e-01" nType="0">
          <Node pos="l" depth="2" NCoef="0" IVar="-1" Cut="0.0000000000000000e+00" cType="1" res="-8.7423302233219147e-02" rms="0.0000000000000000e+00" purity="-3.8167588412761688e-02" nType="-99"/>
          <Node pos="r" depth="2" NCoef="0" IVar="-1" Cut="0.0000000000000000e+00" cType="1" res="3.4858955768868327e-04" rms="2.9267162084579468e-01" purity="4.5173647999763489e-01" nType="-99"/>
        </Node>
        <Node pos="r" depth="1" NCoef="0" IVar="2" Cut="1.8795884847640991e+00" cType="1" res="1.3515503145754337e-02" rms="2.4595206975936890e-01" purity="7.1540296077728271e-01" nType="0">
          <Node pos="l" depth="2" NCoef="0" IVar="-1" Cut="0.0000000000000000e+00" cType="1" res="-1.8819189863279462e-03" rms="2.7803161740303040e-01" purity="4.6740195155143738e-01" nType="-99"/>
          <Node pos="r" depth="2" NCoef="0" IVar="-1" Cut="0.0000000000000000e+00" cType="1" res="2.0887355785816908e-03" rms="2.4095784127712250e-01" purity="7.4805855751037598e-01" nType="-99"/>
        </Node>
      </Node>
    </BinaryTree>
    <BinaryTree type="DecisionTree" boostWeight="1.0000000000000000e+00" itree="1041">
      <Node pos="s" depth="0" NCoef="0" IVar="36" Cut="1.5240087509155273e+00" cType="1" res="2.9589358018711209e-04" rms="2.3004217445850372e-01" purity="4.9927872419357300e-01" nType="0">
        <Node pos="l" depth="1" NCoef="0" IVar="34" Cut="1.4842756986618042e+00" cType="1" res="2.5800392031669617e-03" rms="2.3131689429283142e-01" purity="5.1787865161895752e-01" nType="0">
          <Node pos="l" depth="2" NCoef="0" IVar="-1" Cut="0.0000000000000000e+00" cType="1" res="5.7260622270405293e-04" rms="2.3210488259792328e-01" purity="5.3858160972595215e-01" nType="-99"/>
          <Node pos="r" depth="2" NCoef="0" IVar="-1" Cut="0.0000000000000000e+00" cType="1" res="-8.2545550540089607e-03" rms="2.0564390718936920e-01" purity="7.0981323719024658e-02" nType="-99"/>
        </Node>
        <Node pos="r" depth="1" NCoef="0" IVar="-1" Cut="0.0000000000000000e+00" cType="1" res="-8.7332138791680336e-03" rms="1.8597663938999176e-01" purity="2.9099797829985619e-02" nType="-99"/>
      </Node>
    </BinaryTree>
    <BinaryTree type="DecisionTree" boostWeight="1.0000000000000000e+00" itree="1042">
      <Node pos="s" depth="0" NCoef="0" IVar="46" Cut="-1.4335918426513672e+00" cType="1" res="-7.5345201184973121e-04" rms="2.3311905562877655e-01" purity="4.9803748726844788e-01" nType="0">
        <Node pos="l" depth="1" NCoef="0" IVar="36" Cut="1.5243083238601685e+00" cType="1" res="2.3990541230887175e-03" rms="2.3368895053863525e-01" purity="5.0976949930191040e-01" nType="0">
          <Node pos="l" depth="2" NCoef="0" IVar="-1" Cut="0.0000000000000000e+00" cType="1" res="5.1590031944215298e-04" rms="2.3541654646396637e-01" purity="5.2843832969665527e-01" nType="-99"/>
          <Node pos="r" depth="2" NCoef="0" IVar="-1" Cut="0.0000000000000000e+00" cType="1" res="-8.3684278652071953e-03" rms="1.7383693158626556e-01" purity="2.9240628704428673e-02" nType="-99"/>
        </Node>
        <Node pos="r" depth="1" NCoef="0" IVar="46" Cut="-1.2008447647094727e+00" cType="1" res="-4.6950735151767731e-02" rms="2.1946817636489868e-01" purity="3.2611501216888428e-01" nType="0">
          <Node pos="l" depth="2" NCoef="0" IVar="-1" Cut="0.0000000000000000e+00" cType="1" res="-1.3095376081764698e-02" rms="2.3421458899974823e-01" purity="1.7817804217338562e-01" nType="-99"/>
          <Node pos="r" depth="2" NCoef="0" IVar="-1" Cut="0.0000000000000000e+00" cType="1" res="-2.2936761379241943e-03" rms="2.0567950606346130e-01" purity="4.0923401713371277e-01" nType="-99"/>
        </Node>
      </Node>
    </BinaryTree>
    <BinaryTree type="DecisionTree" boostWeight="1.0000000000000000e+00" itree="1043">
      <Node pos="s" depth="0" NCoef="0" IVar="57" Cut="-8.8162261247634888e-01" cType="1" res="2.1630166156683117e-04" rms="2.2686609625816345e-01" purity="4.9990543723106384e-01" nType="0">
        <Node pos="l" depth="1" NCoef="0" IVar="45" Cut="9.7370779514312744e-01" cType="1" res="3.9695953018963337e-03" rms="2.2918510437011719e-01" purity="5.2414387464523315e-01" nType="0">
          <Node pos="l" depth="2" NCoef="0" IVar="-1" Cut="0.0000000000000000e+00" cType="1" res="-6.4926026389002800e-03" rms="7.9723075032234192e-02" purity="7.1639284491539001e-02" nType="-99"/>
          <Node pos="r" depth="2" NCoef="0" IVar="-1" Cut="0.0000000000000000e+00" cType="1" res="8.5181300528347492e-04" rms="2.3905406892299652e-01" purity="5.7116436958312988e-01" nType="-99"/>
        </Node>
        <Node pos="r" depth="1" NCoef="0" IVar="19" Cut="5.5486571043729782e-02" cType="1" res="-4.1867375373840332e-02" rms="1.9411616027355194e-01" purity="2.2813254594802856e-01" nType="0">
          <Node pos="l" depth="2" NCoef="0" IVar="-1" Cut="0.0000000000000000e+00" cType="1" res="-3.0701442155987024e-03" rms="2.3641705513000488e-01" purity="2.6311320066452026e-01" nType="-99"/>
          <Node pos="r" depth="2" NCoef="0" IVar="-1" Cut="0.0000000000000000e+00" cType="1" res="-1.0448088869452477e-02" rms="8.2620650529861450e-02" purity="1.7161121964454651e-01" nType="-99"/>
        </Node>
      </Node>
    </BinaryTree>
    <BinaryTree type="DecisionTree" boostWeight="1.0000000000000000e+00" itree="1044">
      <Node pos="s" depth="0" NCoef="0" IVar="49" Cut="2.5020773410797119e+00" cType="1" res="1.6624046256765723e-03" rms="2.3224742710590363e-01" purity="5.0245553255081177e-01" nType="0">
        <Node pos="l" depth="1" NCoef="0" IVar="45" Cut="1.1712323427200317e+00" cType="1" res="-3.4070461988449097e-02" rms="1.9766308367252350e-01" purity="2.5613096356391907e-01" nType="0">
          <Node pos="l" depth="2" NCoef="0" IVar="-1" Cut="0.0000000000000000e+00" cType="1" res="-1.0722813196480274e-02" rms="0.0000000000000000e+00" purity="3.7300307303667068e-02" nType="-99"/>
          <Node pos="r" depth="2" NCoef="0" IVar="-1" Cut="0.0000000000000000e+00" cType="1" res="-3.7218010402284563e-04" rms="3.0383273959159851e-01" purity="5.4074144363403320e-01" nType="-99"/>
        </Node>
        <Node pos="r" depth="1" NCoef="0" IVar="36" Cut="1.5242170095443726e+00" cType="1" res="5.7923756539821625e-03" rms="2.3556885123252869e-01" purity="5.3092545270919800e-01" nType="0">
          <Node pos="l" depth="2" NCoef="0" IVar="-1" Cut="0.0000000000000000e+00" cType="1" res="9.0673373779281974e-04" rms="2.3726876080036163e-01" purity="5.5009824037551880e-01" nType="-99"/>
          <Node pos="r" depth="2" NCoef="0" IVar="-1" Cut="0.0000000000000000e+00" cType="1" res="-8.8764149695634842e-03" rms="1.7249998450279236e-01" purity="2.7369102463126183e-02" nType="-99"/>
        </Node>
      </Node>
    </BinaryTree>
    <BinaryTree type="DecisionTree" boostWeight="1.0000000000000000e+00" itree="1045">
      <Node pos="s" depth="0" NCoef="0" IVar="57" Cut="-8.5139232873916626e-01" cType="1" res="1.2213118607178330e-03" rms="2.2970195114612579e-01" purity="4.9941796064376831e-01" nType="0">
        <Node pos="l" depth="1" NCoef="0" IVar="46" Cut="-1.5511556863784790e+00" cType="1" res="4.7589652240276337e-03" rms="2.3235070705413818e-01" purity="5.2223682403564453e-01" nType="0">
          <Node pos="l" depth="2" NCoef="0" IVar="-1" Cut="0.0000000000000000e+00" cType="1" res="8.3807477494701743e-04" rms="2.3177686333656311e-01" purity="5.3412914276123047e-01" nType="-99"/>
          <Node pos="r" depth="2" NCoef="0" IVar="-1" Cut="0.0000000000000000e+00" cType="1" res="-4.8337173648178577e-03" rms="2.3663622140884399e-01" purity="3.3692151308059692e-01" nType="-99"/>
        </Node>
        <Node pos="r" depth="1" NCoef="0" IVar="5" Cut="1.5137118101119995e+00" cType="1" res="-4.1788537055253983e-02" rms="1.8942442536354065e-01" purity="2.2199299931526184e-01" nType="0">
          <Node pos="l" depth="2" NCoef="0" IVar="-1" Cut="0.0000000000000000e+00" cType="1" res="-2.1217051893472672e-02" rms="0.0000000000000000e+00" purity="5.5763819254934788e-03" nType="-99"/>
          <Node pos="r" depth="2" NCoef="0" IVar="-1" Cut="0.0000000000000000e+00" cType="1" res="-3.0768921133130789e-03" rms="2.6013773679733276e-01" purity="3.1354588270187378e-01" nType="-99"/>
        </Node>
      </Node>
    </BinaryTree>
    <BinaryTree type="DecisionTree" boostWeight="1.0000000000000000e+00" itree="1046">
      <Node pos="s" depth="0" NCoef="0" IVar="2" Cut="4.6490305662155151e-01" cType="1" res="-9.6782477339729667e-04" rms="2.2786781191825867e-01" purity="5.0116246938705444e-01" nType="0">
        <Node pos="l" depth="1" NCoef="0" IVar="-1" Cut="0.0000000000000000e+00" cType="1" res="-1.1826572939753532e-02" rms="0.0000000000000000e+00" purity="-5.5389441549777985e-02" nType="-99"/>
        <Node pos="r" depth="1" NCoef="0" IVar="65" Cut="6.6248279809951782e-01" cType="1" res="7.5364194344729185e-04" rms="2.3234193027019501e-01" purity="5.1260995864868164e-01" nType="0">
          <Node pos="l" depth="2" NCoef="0" IVar="-1" Cut="0.0000000000000000e+00" cType="1" res="6.4909132197499275e-04" rms="2.4369128048419952e-01" purity="5.5685395002365112e-01" nType="-99"/>
          <Node pos="r" depth="2" NCoef="0" IVar="-1" Cut="0.0000000000000000e+00" cType="1" res="-3.8478560745716095e-03" rms="1.5373167395591736e-01" purity="2.7198979258537292e-01" nType="-99"/>
        </Node>
      </Node>
    </BinaryTree>
    <BinaryTree type="DecisionTree" boostWeight="1.0000000000000000e+00" itree="1047">
      <Node pos="s" depth="0" NCoef="0" IVar="17" Cut="-6.9546514749526978e-01" cType="1" res="-2.6865923427976668e-04" rms="2.2693492472171783e-01" purity="4.9898913502693176e-01" nType="0">
        <Node pos="l" depth="1" NCoef="0" IVar="56" Cut="1.5237022638320923e+00" cType="1" res="2.2870851680636406e-03" rms="2.2867394983768463e-01" purity="5.1219481229782104e-01" nType="0">
          <Node pos="l" depth="2" NCoef="0" IVar="-1" Cut="0.0000000000000000e+00" cType="1" res="5.2997394232079387e-04" rms="2.3125962913036346e-01" purity="5.3232961893081665e-01" nType="-99"/>
          <Node pos="r" depth="2" NCoef="0" IVar="-1" Cut="0.0000000000000000e+00" cType="1" res="-1.0298612527549267e-02" rms="1.3715559244155884e-01" purity="1.3951212167739868e-02" nType="-99"/>
        </Node>
        <Node pos="r" depth="1" NCoef="0" IVar="5" Cut="1.7566102743148804e+00" cType="1" res="-5.9914294630289078e-02" rms="1.7116799950599670e-01" purity="1.9079722464084625e-01" nType="0">
          <Node pos="l" depth="2" NCoef="0" IVar="-1" Cut="0.0000000000000000e+00" cType="1" res="-1.9844360649585724e-02" rms="0.0000000000000000e+00" purity="8.6614834144711494e-03" nType="-99"/>
          <Node pos="r" depth="2" NCoef="0" IVar="-1" Cut="0.0000000000000000e+00" cType="1" res="-3.0684792436659336e-03" rms="3.0301561951637268e-01" purity="3.7752470374107361e-01" nType="-99"/>
        </Node>
      </Node>
    </BinaryTree>
    <BinaryTree type="DecisionTree" boostWeight="1.0000000000000000e+00" itree="1048">
      <Node pos="s" depth="0" NCoef="0" IVar="36" Cut="1.4468667507171631e+00" cType="1" res="-7.2243588510900736e-04" rms="2.2733528912067413e-01" purity="5.0172519683837891e-01" nType="0">
        <Node pos="l" depth="1" NCoef="0" IVar="34" Cut="1.4852153062820435e+00" cType="1" res="3.1292249914258718e-03" rms="2.3040340840816498e-01" purity="5.4205769300460815e-01" nType="0">
          <Node pos="l" depth="2" NCoef="0" IVar="-1" Cut="0.0000000000000000e+00" cType="1" res="5.7725200895220041e-04" rms="2.3039419949054718e-01" purity="5.5195182561874390e-01" nType="-99"/>
          <Node pos="r" depth="2" NCoef="0" IVar="-1" Cut="0.0000000000000000e+00" cType="1" res="-1.0238665156066418e-02" rms="2.0971491932868958e-01" purity="1.0543028265237808e-01" nType="-99"/>
        </Node>
        <Node pos="r" depth="1" NCoef="0" IVar="29" Cut="3.4073719978332520e+00" cType="1" res="-4.2798437178134918e-02" rms="1.8549153208732605e-01" purity="6.1127711087465286e-02" nType="0">
          <Node pos="l" depth="2" NCoef="0" IVar="-1" Cut="0.0000000000000000e+00" cType="1" res="-3.1831231899559498e-03" rms="1.7733766138553619e-01" purity="6.6605985164642334e-02" nType="-99"/>
          <Node pos="r" depth="2" NCoef="0" IVar="-1" Cut="0.0000000000000000e+00" cType="1" res="-1.0202550329267979e-02" rms="1.9178530573844910e-01" purity="4.9443665891885757e-02" nType="-99"/>
        </Node>
      </Node>
    </BinaryTree>
    <BinaryTree type="DecisionTree" boostWeight="1.0000000000000000e+00" itree="1049">
      <Node pos="s" depth="0" NCoef="0" IVar="25" Cut="1.2659291028976440e+00" cType="1" res="9.2312553897500038e-04" rms="2.2690623998641968e-01" purity="5.0005060434341431e-01" nType="0">
        <Node pos="l" depth="1" NCoef="0" IVar="0" Cut="4.3380635976791382e-01" cType="1" res="-2.8547292575240135e-02" rms="1.3221800327301025e-01" purity="1.0867990553379059e-01" nType="0">
          <Node pos="l" depth="2" NCoef="0" IVar="-1" Cut="0.0000000000000000e+00" cType="1" res="1.1599822901189327e-03" rms="2.2545412182807922e-01" purity="2.2188739478588104e-01" nType="-99"/>
          <Node pos="r" depth="2" NCoef="0" IVar="-1" Cut="0.0000000000000000e+00" cType="1" res="-9.7736762836575508e-03" rms="0.0000000000000000e+00" purity="4.9760978668928146e-02" nType="-99"/>
        </Node>
        <Node pos="r" depth="1" NCoef="0" IVar="9" Cut="2.4556138515472412e+00" cType="1" res="6.8087158724665642e-03" rms="2.4097616970539093e-01" purity="5.7821196317672729e-01" nType="0">
          <Node pos="l" depth="2" NCoef="0" IVar="-1" Cut="0.0000000000000000e+00" cType="1" res="-7.4769728817045689e-03" rms="2.1432876586914062e-01" purity="1.1994638293981552e-01" nType="-99"/>
          <Node pos="r" depth="2" NCoef="0" IVar="-1" Cut="0.0000000000000000e+00" cType="1" res="9.8669645376503468e-04" rms="2.4162922799587250e-01" purity="5.9652197360992432e-01" nType="-99"/>
        </Node>
      </Node>
    </BinaryTree>
    <BinaryTree type="DecisionTree" boostWeight="1.0000000000000000e+00" itree="1050">
      <Node pos="s" depth="0" NCoef="0" IVar="34" Cut="-1.2603453397750854e+00" cType="1" res="8.2259631017223001e-04" rms="2.2552274167537689e-01" purity="4.9981215596199036e-01" nType="0">
        <Node pos="l" depth="1" NCoef="0" IVar="54" Cut="-1.5311080217361450e+00" cType="1" res="8.6980247870087624e-03" rms="2.2073978185653687e-01" purity="6.0102266073226929e-01" nType="0">
          <Node pos="l" depth="2" NCoef="0" IVar="-1" Cut="0.0000000000000000e+00" cType="1" res="3.4903753548860550e-03" rms="1.6884915530681610e-01" purity="7.8879076242446899e-01" nType="-99"/>
          <Node pos="r" depth="2" NCoef="0" IVar="-1" Cut="0.0000000000000000e+00" cType="1" res="-2.7173594571650028e-04" rms="2.4675935506820679e-01" purity="4.8493251204490662e-01" nType="-99"/>
        </Node>
        <Node pos="r" depth="1" NCoef="0" IVar="33" Cut="-1.4738085269927979e+00" cType="1" res="-1.8207393586635590e-02" rms="2.3559744656085968e-01" purity="2.5524944067001343e-01" nType="0">
          <Node pos="l" depth="2" NCoef="0" IVar="-1" Cut="0.0000000000000000e+00" cType="1" res="2.2641534451395273e-03" rms="2.3799465596675873e-01" purity="3.9765414595603943e-01" nType="-99"/>
          <Node pos="r" depth="2" NCoef="0" IVar="-1" Cut="0.0000000000000000e+00" cType="1" res="-2.9183004517108202e-03" rms="2.3441651463508606e-01" purity="2.2829647362232208e-01" nType="-99"/>
        </Node>
      </Node>
    </BinaryTree>
    <BinaryTree type="DecisionTree" boostWeight="1.0000000000000000e+00" itree="1051">
      <Node pos="s" depth="0" NCoef="0" IVar="37" Cut="-1.0521281957626343e+00" cType="1" res="5.9883849462494254e-04" rms="2.2300289571285248e-01" purity="5.0365841388702393e-01" nType="0">
        <Node pos="l" depth="1" NCoef="0" IVar="18" Cut="1.3466638326644897e+00" cType="1" res="5.4860864765942097e-03" rms="2.2817553579807281e-01" purity="5.3487879037857056e-01" nType="0">
          <Node pos="l" depth="2" NCoef="0" IVar="-1" Cut="0.0000000000000000e+00" cType="1" res="9.0929615544155240e-04" rms="2.2795394062995911e-01" purity="5.4518860578536987e-01" nType="-99"/>
          <Node pos="r" depth="2" NCoef="0" IVar="-1" Cut="0.0000000000000000e+00" cType="1" res="-5.9636770747601986e-03" rms="2.2510354220867157e-01" purity="3.2626226544380188e-01" nType="-99"/>
        </Node>
        <Node pos="r" depth="1" NCoef="0" IVar="35" Cut="-1.3772854804992676e+00" cType="1" res="-3.5384643822908401e-02" rms="1.7628563940525055e-01" purity="2.7379104495048523e-01" nType="0">
          <Node pos="l" depth="2" NCoef="0" IVar="-1" Cut="0.0000000000000000e+00" cType="1" res="1.7596347024664283e-03" rms="2.3233035206794739e-01" purity="4.4387558102607727e-01" nType="-99"/>
          <Node pos="r" depth="2" NCoef="0" IVar="-1" Cut="0.0000000000000000e+00" cType="1" res="-6.9590578787028790e-03" rms="1.5163478255271912e-01" purity="2.2137151658535004e-01" nType="-99"/>
        </Node>
      </Node>
    </BinaryTree>
    <BinaryTree type="DecisionTree" boostWeight="1.0000000000000000e+00" itree="1052">
      <Node pos="s" depth="0" NCoef="0" IVar="1" Cut="1.8057404756546021e+00" cType="1" res="-1.2334189377725124e-03" rms="2.2444640100002289e-01" purity="4.9745348095893860e-01" nType="0">
        <Node pos="l" depth="1" NCoef="0" IVar="5" Cut="1.3464745283126831e+00" cType="1" res="-4.5405030250549316e-02" rms="0.0000000000000000e+00" purity="-4.4613260775804520e-02" nType="-99"/>
        <Node pos="r" depth="1" NCoef="0" IVar="64" Cut="1.2345679104328156e-02" cType="1" res="1.7475263448432088e-03" rms="2.3619301617145538e-01" purity="5.2639460563659668e-01" nType="0">
          <Node pos="l" depth="2" NCoef="0" IVar="-1" Cut="0.0000000000000000e+00" cType="1" res="4.5463757123798132e-04" rms="2.3529264330863953e-01" purity="5.3595185279846191e-01" nType="-99"/>
          <Node pos="r" depth="2" NCoef="0" IVar="-1" Cut="0.0000000000000000e+00" cType="1" res="-6.3643329776823521e-03" rms="2.4912938475608826e-01" purity="3.1069636344909668e-01" nType="-99"/>
        </Node>
      </Node>
    </BinaryTree>
    <BinaryTree type="DecisionTree" boostWeight="1.0000000000000000e+00" itree="1053">
      <Node pos="s" depth="0" NCoef="0" IVar="63" Cut="1.1575114727020264e+00" cType="1" res="1.4693230623379350e-03" rms="2.2844575345516205e-01" purity="5.0267601013183594e-01" nType="0">
        <Node pos="l" depth="1" NCoef="0" IVar="33" Cut="1.4068897962570190e+00" cType="1" res="4.3243453837931156e-03" rms="2.3132579028606415e-01" purity="5.1426106691360474e-01" nType="0">
          <Node pos="l" depth="2" NCoef="0" IVar="-1" Cut="0.0000000000000000e+00" cType="1" res="6.8451027618721128e-04" rms="2.3253443837165833e-01" purity="5.2357077598571777e-01" nType="-99"/>
          <Node pos="r" depth="2" NCoef="0" IVar="-1" Cut="0.0000000000000000e+00" cType="1" res="-1.1306592263281345e-02" rms="1.5738883614540100e-01" purity="1.3324230909347534e-01" nType="-99"/>
        </Node>
        <Node pos="r" depth="1" NCoef="0" IVar="25" Cut="1.9714086055755615e+00" cType="1" res="-5.1065344363451004e-02" rms="1.5783536434173584e-01" purity="2.8950145840644836e-01" nType="0">
          <Node pos="l" depth="2" NCoef="0" IVar="-1" Cut="0.0000000000000000e+00" cType="1" res="-1.5168889425694942e-02" rms="0.0000000000000000e+00" purity="6.0252364724874496e-02" nType="-99"/>
          <Node pos="r" depth="2" NCoef="0" IVar="-1" Cut="0.0000000000000000e+00" cType="1" res="-2.5369415525346994e-03" rms="2.7635666728019714e-01" purity="4.9042627215385437e-01" nType="-99"/>
        </Node>
      </Node>
    </BinaryTree>
    <BinaryTree type="DecisionTree" boostWeight="1.0000000000000000e+00" itree="1054">
      <Node pos="s" depth="0" NCoef="0" IVar="0" Cut="1.0471311807632446e+00" cType="1" res="3.6168139195069671e-04" rms="2.2751706838607788e-01" purity="5.0118875503540039e-01" nType="0">
        <Node pos="l" depth="1" NCoef="0" IVar="65" Cut="7.9666835069656372e-01" cType="1" res="4.0010707452893257e-03" rms="2.2733528912067413e-01" purity="5.1616787910461426e-01" nType="0">
          <Node pos="l" depth="2" NCoef="0" IVar="-1" Cut="0.0000000000000000e+00" cType="1" res="7.3017860995605588e-04" rms="2.3052348196506500e-01" purity="5.3267973661422729e-01" nType="-99"/>
          <Node pos="r" depth="2" NCoef="0" IVar="-1" Cut="0.0000000000000000e+00" cType="1" res="-1.0039470158517361e-02" rms="9.4275340437889099e-02" purity="8.7334729731082916e-02" nType="-99"/>
        </Node>
        <Node pos="r" depth="1" NCoef="0" IVar="4" Cut="3.6925604343414307e+00" cType="1" res="-4.3075382709503174e-02" rms="2.2517988085746765e-01" purity="3.2240888476371765e-01" nType="0">
          <Node pos="l" depth="2" NCoef="0" IVar="-1" Cut="0.0000000000000000e+00" cType="1" res="-1.2424314394593239e-02" rms="1.5911018848419189e-01" purity="1.3150303065776825e-01" nType="-99"/>
          <Node pos="r" depth="2" NCoef="0" IVar="-1" Cut="0.0000000000000000e+00" cType="1" res="-1.1968422913923860e-03" rms="2.6483649015426636e-01" purity="4.8437353968620300e-01" nType="-99"/>
        </Node>
      </Node>
    </BinaryTree>
    <BinaryTree type="DecisionTree" boostWeight="1.0000000000000000e+00" itree="1055">
      <Node pos="s" depth="0" NCoef="0" IVar="14" Cut="1.5258079767227173e+00" cType="1" res="2.1501274313777685e-03" rms="2.2784446179866791e-01" purity="5.0151407718658447e-01" nType="0">
        <Node pos="l" depth="1" NCoef="0" IVar="2" Cut="2.1693379878997803e+00" cType="1" res="-6.9435434415936470e-03" rms="2.3037633299827576e-01" purity="3.5092070698738098e-01" nType="0">
          <Node pos="l" depth="2" NCoef="0" IVar="-1" Cut="0.0000000000000000e+00" cType="1" res="-2.9286136850714684e-03" rms="1.7205826938152313e-01" purity="1.6806857287883759e-01" nType="-99"/>
          <Node pos="r" depth="2" NCoef="0" IVar="-1" Cut="0.0000000000000000e+00" cType="1" res="8.5626996587961912e-04" rms="2.7955237030982971e-01" purity="5.4975265264511108e-01" nType="-99"/>
        </Node>
        <Node pos="r" depth="1" NCoef="0" IVar="36" Cut="1.4858274459838867e+00" cType="1" res="1.9169988110661507e-02" rms="2.2202990949153900e-01" purity="7.8336697816848755e-01" nType="0">
          <Node pos="l" depth="2" NCoef="0" IVar="-1" Cut="0.0000000000000000e+00" cType="1" res="2.3693495895713568e-03" rms="2.1221278607845306e-01" purity="8.2565408945083618e-01" nType="-99"/>
          <Node pos="r" depth="2" NCoef="0" IVar="-1" Cut="0.0000000000000000e+00" cType="1" res="-3.5064853727817535e-03" rms="3.3452937006950378e-01" purity="1.2355187535285950e-01" nType="-99"/>
        </Node>
      </Node>
    </BinaryTree>
    <BinaryTree type="DecisionTree" boostWeight="1.0000000000000000e+00" itree="1056">
      <Node pos="s" depth="0" NCoef="0" IVar="2" Cut="4.9828153848648071e-01" cType="1" res="-3.2276857382385060e-05" rms="2.2331836819648743e-01" purity="5.0034552812576294e-01" nType="0">
        <Node pos="l" depth="1" NCoef="0" IVar="-1" Cut="0.0000000000000000e+00" cType="1" res="-1.3141921721398830e-02" rms="0.0000000000000000e+00" purity="-6.9385454058647156e-02" nType="-99"/>
        <Node pos="r" depth="1" NCoef="0" IVar="14" Cut="-1.4537136554718018e+00" cType="1" res="2.0073186606168747e-03" rms="2.2830443084239960e-01" purity="5.1223534345626831e-01" nType="0">
          <Node pos="l" depth="2" NCoef="0" IVar="-1" Cut="0.0000000000000000e+00" cType="1" res="-3.6411900073289871e-02" rms="0.0000000000000000e+00" purity="-1.9490778446197510e-02" nType="-99"/>
          <Node pos="r" depth="2" NCoef="0" IVar="-1" Cut="0.0000000000000000e+00" cType="1" res="7.9210527474060655e-04" rms="2.6269277930259705e-01" purity="6.3583695888519287e-01" nType="-99"/>
        </Node>
      </Node>
    </BinaryTree>
    <BinaryTree type="DecisionTree" boostWeight="1.0000000000000000e+00" itree="1057">
      <Node pos="s" depth="0" NCoef="0" IVar="0" Cut="7.6048177480697632e-01" cType="1" res="1.0221941629424691e-03" rms="2.3028272390365601e-01" purity="4.9865230917930603e-01" nType="0">
        <Node pos="l" depth="1" NCoef="0" IVar="4" Cut="3.7435235977172852e+00" cType="1" res="8.1408005207777023e-03" rms="2.3549230396747589e-01" purity="5.4608267545700073e-01" nType="0">
          <Node pos="l" depth="2" NCoef="0" IVar="-1" Cut="0.0000000000000000e+00" cType="1" res="2.5809491053223610e-03" rms="2.3332200944423676e-01" purity="5.4303461313247681e-01" nType="-99"/>
          <Node pos="r" depth="2" NCoef="0" IVar="-1" Cut="0.0000000000000000e+00" cType="1" res="-8.6374825332313776e-04" rms="2.3697207868099213e-01" purity="5.4969620704650879e-01" nType="-99"/>
        </Node>
        <Node pos="r" depth="1" NCoef="0" IVar="4" Cut="3.4749364852905273e+00" cType="1" res="-1.9412638619542122e-02" rms="2.1331088244915009e-01" purity="3.6249759793281555e-01" nType="0">
          <Node pos="l" depth="2" NCoef="0" IVar="-1" Cut="0.0000000000000000e+00" cType="1" res="-9.7891604527831078e-03" rms="1.0157740861177444e-01" purity="1.4480514824390411e-01" nType="-99"/>
          <Node pos="r" depth="2" NCoef="0" IVar="-1" Cut="0.0000000000000000e+00" cType="1" res="-7.4839056469500065e-04" rms="2.3707561194896698e-01" purity="4.3290075659751892e-01" nType="-99"/>
        </Node>
      </Node>
    </BinaryTree>
    <BinaryTree type="DecisionTree" boostWeight="1.0000000000000000e+00" itree="1058">
      <Node pos="s" depth="0" NCoef="0" IVar="45" Cut="8.0411761999130249e-01" cType="1" res="-2.1292383316904306e-03" rms="2.2797027230262756e-01" purity="4.9800491333007812e-01" nType="0">
        <Node pos="l" depth="1" NCoef="0" IVar="12" Cut="-7.6036018133163452e-01" cType="1" res="-1.1082127690315247e-02" rms="0.0000000000000000e+00" purity="3.5291880369186401e-02" nType="-99"/>
        <Node pos="r" depth="1" NCoef="0" IVar="56" Cut="1.5237022638320923e+00" cType="1" res="1.1469018645584583e-03" rms="2.3618243634700775e-01" purity="5.2800446748733521e-01" nType="0">
          <Node pos="l" depth="2" NCoef="0" IVar="-1" Cut="0.0000000000000000e+00" cType="1" res="3.9681696216575801e-04" rms="2.3917940258979797e-01" purity="5.4976552724838257e-01" nType="-99"/>
          <Node pos="r" depth="2" NCoef="0" IVar="-1" Cut="0.0000000000000000e+00" cType="1" res="-1.0215999558568001e-02" rms="1.3512727618217468e-01" purity="1.2301509268581867e-02" nType="-99"/>
        </Node>
      </Node>
    </BinaryTree>
    <BinaryTree type="DecisionTree" boostWeight="1.0000000000000000e+00" itree="1059">
      <Node pos="s" depth="0" NCoef="0" IVar="2" Cut="4.6895879507064819e-01" cType="1" res="6.0017738724127412e-04" rms="2.3298637568950653e-01" purity="5.0201219320297241e-01" nType="0">
        <Node pos="l" depth="1" NCoef="0" IVar="-1" Cut="0.0000000000000000e+00" cType="1" res="-1.2871970422565937e-02" rms="0.0000000000000000e+00" purity="-5.8380980044603348e-02" nType="-99"/>
        <Node pos="r" depth="1" NCoef="0" IVar="0" Cut="1.1904559135437012e+00" cType="1" res="2.4536272976547480e-03" rms="2.3762390017509460e-01" purity="5.1353913545608521e-01" nType="0">
          <Node pos="l" depth="2" NCoef="0" IVar="-1" Cut="0.0000000000000000e+00" cType="1" res="5.5884040193632245e-04" rms="2.3741653561592102e-01" purity="5.2202075719833374e-01" nType="-99"/>
          <Node pos="r" depth="2" NCoef="0" IVar="-1" Cut="0.0000000000000000e+00" cType="1" res="-8.3482656627893448e-03" rms="2.3300263285636902e-01" purity="2.8609234094619751e-01" nType="-99"/>
        </Node>
      </Node>
    </BinaryTree>
    <BinaryTree type="DecisionTree" boostWeight="1.0000000000000000e+00" itree="1060">
      <Node pos="s" depth="0" NCoef="0" IVar="25" Cut="2.7062058448791504e+00" cType="1" res="-1.6089701966848224e-04" rms="2.2450481355190277e-01" purity="4.9963232874870300e-01" nType="0">
        <Node pos="l" depth="1" NCoef="0" IVar="14" Cut="-1.4150160551071167e+00" cType="1" res="-8.2707675173878670e-03" rms="2.2461482882499695e-01" purity="3.8770571351051331e-01" nType="0">
          <Node pos="l" depth="2" NCoef="0" IVar="-1" Cut="0.0000000000000000e+00" cType="1" res="-8.3226695656776428e-02" rms="0.0000000000000000e+00" purity="-3.3999256789684296e-02" nType="-99"/>
          <Node pos="r" depth="2" NCoef="0" IVar="-1" Cut="0.0000000000000000e+00" cType="1" res="1.3169214071240276e-04" rms="2.8047800064086914e-01" purity="5.2634978294372559e-01" nType="-99"/>
        </Node>
        <Node pos="r" depth="1" NCoef="0" IVar="14" Cut="-1.2215483188629150e+00" cType="1" res="2.0546309649944305e-02" rms="2.2288906574249268e-01" purity="7.8541821241378784e-01" nType="0">
          <Node pos="l" depth="2" NCoef="0" IVar="-1" Cut="0.0000000000000000e+00" cType="1" res="1.1930045671761036e-02" rms="3.0581614375114441e-01" purity="1.5743106603622437e-01" nType="-99"/>
          <Node pos="r" depth="2" NCoef="0" IVar="-1" Cut="0.0000000000000000e+00" cType="1" res="1.6049843979999423e-03" rms="2.0945852994918823e-01" purity="8.6349785327911377e-01" nType="-99"/>
        </Node>
      </Node>
    </BinaryTree>
    <BinaryTree type="DecisionTree" boostWeight="1.0000000000000000e+00" itree="1061">
      <Node pos="s" depth="0" NCoef="0" IVar="0" Cut="1.0367771387100220e+00" cType="1" res="1.0913336882367730e-03" rms="2.2768311202526093e-01" purity="5.0187575817108154e-01" nType="0">
        <Node pos="l" depth="1" NCoef="0" IVar="34" Cut="1.2159070968627930e+00" cType="1" res="4.5312647707760334e-03" rms="2.2794394195079803e-01" purity="5.1800960302352905e-01" nType="0">
          <Node pos="l" depth="2" NCoef="0" IVar="-1" Cut="0.0000000000000000e+00" cType="1" res="1.0464971419423819e-03" rms="2.2913403809070587e-01" purity="5.7805389165878296e-01" nType="-99"/>
          <Node pos="r" depth="2" NCoef="0" IVar="-1" Cut="0.0000000000000000e+00" cType="1" res="-3.5668730270117521e-03" rms="2.1734470129013062e-01" purity="1.2845431268215179e-01" nType="-99"/>
        </Node>
        <Node pos="r" depth="1" NCoef="0" IVar="29" Cut="2.9800250530242920e+00" cType="1" res="-3.8055881857872009e-02" rms="2.2095248103141785e-01" purity="3.1826800107955933e-01" nType="0">
          <Node pos="l" depth="2" NCoef="0" IVar="-1" Cut="0.0000000000000000e+00" cType="1" res="-1.1020613834261894e-02" rms="1.5682297945022583e-01" purity="1.5538202226161957e-01" nType="-99"/>
          <Node pos="r" depth="2" NCoef="0" IVar="-1" Cut="0.0000000000000000e+00" cType="1" res="-1.7549041658639908e-03" rms="2.4954536557197571e-01" purity="4.1763359308242798e-01" nType="-99"/>
        </Node>
      </Node>
    </BinaryTree>
    <BinaryTree type="DecisionTree" boostWeight="1.0000000000000000e+00" itree="1062">
      <Node pos="s" depth="0" NCoef="0" IVar="58" Cut="1.4449092149734497e+00" cType="1" res="5.0232588546350598e-04" rms="2.3215745389461517e-01" purity="4.9901470541954041e-01" nType="0">
        <Node pos="l" depth="1" NCoef="0" IVar="36" Cut="1.5243083238601685e+00" cType="1" res="2.7987724170088768e-03" rms="2.3266422748565674e-01" purity="5.0941377878189087e-01" nType="0">
          <Node pos="l" depth="2" NCoef="0" IVar="-1" Cut="0.0000000000000000e+00" cType="1" res="5.6054344167932868e-04" rms="2.3430977761745453e-01" purity="5.2837705612182617e-01" nType="-99"/>
          <Node pos="r" depth="2" NCoef="0" IVar="-1" Cut="0.0000000000000000e+00" cType="1" res="-8.3788940683007240e-03" rms="1.7702427506446838e-01" purity="2.8597803786396980e-02" nType="-99"/>
        </Node>
        <Node pos="r" depth="1" NCoef="0" IVar="-1" Cut="0.0000000000000000e+00" cType="1" res="-7.3047620244324207e-03" rms="2.1235848963260651e-01" purity="2.4978725612163544e-01" nType="-99"/>
      </Node>
    </BinaryTree>
    <BinaryTree type="DecisionTree" boostWeight="1.0000000000000000e+00" itree="1063">
      <Node pos="s" depth="0" NCoef="0" IVar="1" Cut="1.8127442598342896e+00" cType="1" res="-4.4849246478406712e-05" rms="2.2697243094444275e-01" purity="5.0169903039932251e-01" nType="0">
        <Node pos="l" depth="1" NCoef="0" IVar="33" Cut="-1.2218008041381836e+00" cType="1" res="-4.1581135243177414e-02" rms="0.0000000000000000e+00" purity="-4.0235586464405060e-02" nType="-99"/>
        <Node pos="r" depth="1" NCoef="0" IVar="18" Cut="1.3002073764801025e+00" cType="1" res="2.9366582166403532e-03" rms="2.3887793719768524e-01" purity="5.3210991621017456e-01" nType="0">
          <Node pos="l" depth="2" NCoef="0" IVar="-1" Cut="0.0000000000000000e+00" cType="1" res="6.3978787511587143e-04" rms="2.3829124867916107e-01" purity="5.4392868280410767e-01" nType="-99"/>
          <Node pos="r" depth="2" NCoef="0" IVar="-1" Cut="0.0000000000000000e+00" cType="1" res="-5.3299982100725174e-03" rms="2.4317073822021484e-01" purity="3.3515468239784241e-01" nType="-99"/>
        </Node>
      </Node>
    </BinaryTree>
    <BinaryTree type="DecisionTree" boostWeight="1.0000000000000000e+00" itree="1064">
      <Node pos="s" depth="0" NCoef="0" IVar="2" Cut="5.0748854875564575e-01" cType="1" res="2.3290975950658321e-03" rms="2.3219142854213715e-01" purity="5.0121635198593140e-01" nType="0">
        <Node pos="l" depth="1" NCoef="0" IVar="-1" Cut="0.0000000000000000e+00" cType="1" res="-1.1672538705170155e-02" rms="0.0000000000000000e+00" purity="-5.4215826094150543e-02" nType="-99"/>
        <Node pos="r" depth="1" NCoef="0" IVar="33" Cut="1.4074989557266235e+00" cType="1" res="4.1640056297183037e-03" rms="2.3678299784660339e-01" purity="5.1308465003967285e-01" nType="0">
          <Node pos="l" depth="2" NCoef="0" IVar="-1" Cut="0.0000000000000000e+00" cType="1" res="6.9014762993901968e-04" rms="2.3854395747184753e-01" purity="5.2278208732604980e-01" nType="-99"/>
          <Node pos="r" depth="2" NCoef="0" IVar="-1" Cut="0.0000000000000000e+00" cType="1" res="-1.2284011580049992e-02" rms="1.2449197471141815e-01" purity="1.1853741854429245e-01" nType="-99"/>
        </Node>
      </Node>
    </BinaryTree>
    <BinaryTree type="DecisionTree" boostWeight="1.0000000000000000e+00" itree="1065">
      <Node pos="s" depth="0" NCoef="0" IVar="54" Cut="1.4479401111602783e+00" cType="1" res="8.2023919094353914e-04" rms="2.2892312705516815e-01" purity="5.0075191259384155e-01" nType="0">
        <Node pos="l" depth="1" NCoef="0" IVar="56" Cut="1.4467463493347168e+00" cType="1" res="4.3825278989970684e-03" rms="2.3126550018787384e-01" purity="5.4130733013153076e-01" nType="0">
          <Node pos="l" depth="2" NCoef="0" IVar="-1" Cut="0.0000000000000000e+00" cType="1" res="7.7522022183984518e-04" rms="2.3069748282432556e-01" purity="5.5377691984176636e-01" nType="-99"/>
          <Node pos="r" depth="2" NCoef="0" IVar="-1" Cut="0.0000000000000000e+00" cType="1" res="-7.8996904194355011e-03" rms="2.3346191644668579e-01" purity="1.1065798997879028e-01" nType="-99"/>
        </Node>
        <Node pos="r" depth="1" NCoef="0" IVar="56" Cut="1.4081956148147583e+00" cType="1" res="-3.7215199321508408e-02" rms="1.9827817380428314e-01" purity="6.7731745541095734e-02" nType="0">
          <Node pos="l" depth="2" NCoef="0" IVar="-1" Cut="0.0000000000000000e+00" cType="1" res="-1.0789665393531322e-02" rms="2.3708793520927429e-01" purity="1.1178617924451828e-01" nType="-99"/>
          <Node pos="r" depth="2" NCoef="0" IVar="-1" Cut="0.0000000000000000e+00" cType="1" res="-2.4015889503061771e-03" rms="1.7434643208980560e-01" purity="5.0422593951225281e-02" nType="-99"/>
        </Node>
      </Node>
    </BinaryTree>
    <BinaryTree type="DecisionTree" boostWeight="1.0000000000000000e+00" itree="1066">
      <Node pos="s" depth="0" NCoef="0" IVar="25" Cut="7.5860756635665894e-01" cType="1" res="2.3690237139817327e-04" rms="2.2848908603191376e-01" purity="5.0116348266601562e-01" nType="0">
        <Node pos="l" depth="1" NCoef="0" IVar="19" Cut="4.1706971824169159e-03" cType="1" res="-1.1737233959138393e-02" rms="0.0000000000000000e+00" purity="2.7037292718887329e-02" nType="-99"/>
        <Node pos="r" depth="1" NCoef="0" IVar="18" Cut="1.4949430227279663e+00" cType="1" res="2.9184727463871241e-03" rms="2.3556025326251984e-01" purity="5.2521580457687378e-01" nType="0">
          <Node pos="l" depth="2" NCoef="0" IVar="-1" Cut="0.0000000000000000e+00" cType="1" res="5.3133367327973247e-04" rms="2.3613050580024719e-01" purity="5.3188043832778931e-01" nType="-99"/>
          <Node pos="r" depth="2" NCoef="0" IVar="-1" Cut="0.0000000000000000e+00" cType="1" res="-8.0536222085356712e-03" rms="2.0229835808277130e-01" purity="2.8451165556907654e-01" nType="-99"/>
        </Node>
      </Node>
    </BinaryTree>
    <BinaryTree type="DecisionTree" boostWeight="1.0000000000000000e+00" itree="1067">
      <Node pos="s" depth="0" NCoef="0" IVar="17" Cut="-1.3805184364318848e+00" cType="1" res="1.6474394360557199e-03" rms="2.2669713199138641e-01" purity="5.0175237655639648e-01" nType="0">
        <Node pos="l" depth="1" NCoef="0" IVar="38" Cut="1.4091923236846924e+00" cType="1" res="7.7666407451033592e-03" rms="2.3197780549526215e-01" purity="5.3767472505569458e-01" nType="0">
          <Node pos="l" depth="2" NCoef="0" IVar="-1" Cut="0.0000000000000000e+00" cType="1" res="1.1663184268400073e-03" rms="2.3188348114490509e-01" purity="5.4952979087829590e-01" nType="-99"/>
          <Node pos="r" depth="2" NCoef="0" IVar="-1" Cut="0.0000000000000000e+00" cType="1" res="-6.0126380994915962e-03" rms="2.2660133242607117e-01" purity="2.8871658444404602e-01" nType="-99"/>
        </Node>
        <Node pos="r" depth="1" NCoef="0" IVar="14" Cut="1.4858462810516357e+00" cType="1" res="-2.5273215025663376e-02" rms="1.9961550831794739e-01" purity="3.4371671080589294e-01" nType="0">
          <Node pos="l" depth="2" NCoef="0" IVar="-1" Cut="0.0000000000000000e+00" cType="1" res="-6.4813676290214062e-03" rms="1.3513727486133575e-01" purity="1.3269232213497162e-01" nType="-99"/>
          <Node pos="r" depth="2" NCoef="0" IVar="-1" Cut="0.0000000000000000e+00" cType="1" res="-3.1149866117630154e-06" rms="2.6792472600936890e-01" purity="6.6626238822937012e-01" nType="-99"/>
        </Node>
      </Node>
    </BinaryTree>
    <BinaryTree type="DecisionTree" boostWeight="1.0000000000000000e+00" itree="1068">
      <Node pos="s" depth="0" NCoef="0" IVar="23" Cut="1.0402671098709106e+00" cType="1" res="-3.8211460923776031e-04" rms="2.2915162146091461e-01" purity="4.9857118725776672e-01" nType="0">
        <Node pos="l" depth="1" NCoef="0" IVar="2" Cut="9.2451274394989014e-01" cType="1" res="4.7557679936289787e-03" rms="2.3321449756622314e-01" purity="5.1929301023483276e-01" nType="0">
          <Node pos="l" depth="2" NCoef="0" IVar="-1" Cut="0.0000000000000000e+00" cType="1" res="-5.5532669648528099e-03" rms="9.2252358794212341e-02" purity="4.1038453578948975e-02" nType="-99"/>
          <Node pos="r" depth="2" NCoef="0" IVar="-1" Cut="0.0000000000000000e+00" cType="1" res="8.1735121784731746e-04" rms="2.3727220296859741e-01" purity="5.4071837663650513e-01" nType="-99"/>
        </Node>
        <Node pos="r" depth="1" NCoef="0" IVar="65" Cut="6.8470668792724609e-01" cType="1" res="-2.5718389078974724e-02" rms="2.0609416067600250e-01" purity="3.9638620615005493e-01" nType="0">
          <Node pos="l" depth="2" NCoef="0" IVar="-1" Cut="0.0000000000000000e+00" cType="1" res="-1.9918459001928568e-03" rms="2.2726711630821228e-01" purity="4.4307050108909607e-01" nType="-99"/>
          <Node pos="r" depth="2" NCoef="0" IVar="-1" Cut="0.0000000000000000e+00" cType="1" res="-1.3078232295811176e-02" rms="0.0000000000000000e+00" purity="1.2011162936687469e-01" nType="-99"/>
        </Node>
      </Node>
    </BinaryTree>
    <BinaryTree type="DecisionTree" boostWeight="1.0000000000000000e+00" itree="1069">
      <Node pos="s" depth="0" NCoef="0" IVar="1" Cut="3.8663003444671631e+00" cType="1" res="-1.1124722659587860e-03" rms="2.2664560377597809e-01" purity="4.9658879637718201e-01" nType="0">
        <Node pos="l" depth="1" NCoef="0" IVar="33" Cut="1.4074989557266235e+00" cType="1" res="-6.0855355113744736e-03" rms="2.3081617057323456e-01" purity="4.3603917956352234e-01" nType="0">
          <Node pos="l" depth="2" NCoef="0" IVar="-1" Cut="0.0000000000000000e+00" cType="1" res="-4.4249920756556094e-04" rms="2.3357738554477692e-01" purity="4.4524368643760681e-01" nType="-99"/>
          <Node pos="r" depth="2" NCoef="0" IVar="-1" Cut="0.0000000000000000e+00" cType="1" res="-1.4146426692605019e-02" rms="0.0000000000000000e+00" purity="8.6339078843593597e-02" nType="-99"/>
        </Node>
        <Node pos="r" depth="1" NCoef="0" IVar="3" Cut="4.8614649772644043e+00" cType="1" res="2.9649080708622932e-02" rms="1.9613143801689148e-01" purity="8.7112659215927124e-01" nType="0">
          <Node pos="l" depth="2" NCoef="0" IVar="-1" Cut="0.0000000000000000e+00" cType="1" res="7.1389391086995602e-03" rms="1.3847827911376953e-01" purity="8.8431763648986816e-01" nType="-99"/>
          <Node pos="r" depth="2" NCoef="0" IVar="-1" Cut="0.0000000000000000e+00" cType="1" res="6.1951624229550362e-04" rms="2.4931567907333374e-01" purity="8.5421782732009888e-01" nType="-99"/>
        </Node>
      </Node>
    </BinaryTree>
    <BinaryTree type="DecisionTree" boostWeight="1.0000000000000000e+00" itree="1070">
      <Node pos="s" depth="0" NCoef="0" IVar="49" Cut="2.3946723937988281e+00" cType="1" res="-3.2324198400601745e-04" rms="2.2718897461891174e-01" purity="5.0197780132293701e-01" nType="0">
        <Node pos="l" depth="1" NCoef="0" IVar="45" Cut="1.1724348068237305e+00" cType="1" res="-4.8078909516334534e-02" rms="1.8364356458187103e-01" purity="2.0681543648242950e-01" nType="0">
          <Node pos="l" depth="2" NCoef="0" IVar="-1" Cut="0.0000000000000000e+00" cType="1" res="-1.4484583400189877e-02" rms="0.0000000000000000e+00" purity="1.6754014417529106e-02" nType="-99"/>
          <Node pos="r" depth="2" NCoef="0" IVar="-1" Cut="0.0000000000000000e+00" cType="1" res="-1.2478325515985489e-03" rms="3.2501557469367981e-01" purity="5.1570808887481689e-01" nType="-99"/>
        </Node>
        <Node pos="r" depth="1" NCoef="0" IVar="56" Cut="1.4850335121154785e+00" cType="1" res="3.1087282113730907e-03" rms="2.2961884737014771e-01" purity="5.2318966388702393e-01" nType="0">
          <Node pos="l" depth="2" NCoef="0" IVar="-1" Cut="0.0000000000000000e+00" cType="1" res="7.1346847107633948e-04" rms="2.3315422236919403e-01" purity="5.6052482128143311e-01" nType="-99"/>
          <Node pos="r" depth="2" NCoef="0" IVar="-1" Cut="0.0000000000000000e+00" cType="1" res="-6.7870505154132843e-03" rms="1.7169651389122009e-01" purity="4.0057621896266937e-02" nType="-99"/>
        </Node>
      </Node>
    </BinaryTree>
    <BinaryTree type="DecisionTree" boostWeight="1.0000000000000000e+00" itree="1071">
      <Node pos="s" depth="0" NCoef="0" IVar="33" Cut="1.4079052209854126e+00" cType="1" res="2.6514579076319933e-03" rms="2.3393890261650085e-01" purity="5.0160598754882812e-01" nType="0">
        <Node pos="l" depth="1" NCoef="0" IVar="36" Cut="1.5242170095443726e+00" cType="1" res="4.2557981796562672e-03" rms="2.3548611998558044e-01" purity="5.1056754589080811e-01" nType="0">
          <Node pos="l" depth="2" NCoef="0" IVar="-1" Cut="0.0000000000000000e+00" cType="1" res="7.0616038283333182e-04" rms="2.3718936741352081e-01" purity="5.2950745820999146e-01" nType="-99"/>
          <Node pos="r" depth="2" NCoef="0" IVar="-1" Cut="0.0000000000000000e+00" cType="1" res="-7.8913196921348572e-03" rms="1.7918382585048676e-01" purity="2.9983423650264740e-02" nType="-99"/>
        </Node>
        <Node pos="r" depth="1" NCoef="0" IVar="-1" Cut="0.0000000000000000e+00" cType="1" res="-1.1251400224864483e-02" rms="1.4036592841148376e-01" purity="1.2643742561340332e-01" nType="-99"/>
      </Node>
    </BinaryTree>
    <BinaryTree type="DecisionTree" boostWeight="1.0000000000000000e+00" itree="1072">
      <Node pos="s" depth="0" NCoef="0" IVar="2" Cut="1.4141994714736938e+00" cType="1" res="-1.2008657213300467e-03" rms="2.2509087622165680e-01" purity="4.9787953495979309e-01" nType="0">
        <Node pos="l" depth="1" NCoef="0" IVar="1" Cut="2.9661686420440674e+00" cType="1" res="-3.8862675428390503e-02" rms="1.5254980325698853e-01" purity="1.3038076460361481e-01" nType="0">
          <Node pos="l" depth="2" NCoef="0" IVar="-1" Cut="0.0000000000000000e+00" cType="1" res="-3.1099100597202778e-03" rms="1.2508302927017212e-01" purity="1.0084886103868484e-01" nType="-99"/>
          <Node pos="r" depth="2" NCoef="0" IVar="-1" Cut="0.0000000000000000e+00" cType="1" res="-6.5280208364129066e-03" rms="2.1653179824352264e-01" purity="2.4095723032951355e-01" nType="-99"/>
        </Node>
        <Node pos="r" depth="1" NCoef="0" IVar="25" Cut="9.7556680440902710e-01" cType="1" res="4.1990042664110661e-03" rms="2.3315474390983582e-01" purity="5.5057072639465332e-01" nType="0">
          <Node pos="l" depth="2" NCoef="0" IVar="-1" Cut="0.0000000000000000e+00" cType="1" res="-6.1322865076363087e-03" rms="9.2021256685256958e-02" purity="7.2404749691486359e-02" nType="-99"/>
          <Node pos="r" depth="2" NCoef="0" IVar="-1" Cut="0.0000000000000000e+00" cType="1" res="8.9288718299940228e-04" rms="2.4278451502323151e-01" purity="6.0002756118774414e-01" nType="-99"/>
        </Node>
      </Node>
    </BinaryTree>
    <BinaryTree type="DecisionTree" boostWeight="1.0000000000000000e+00" itree="1073">
      <Node pos="s" depth="0" NCoef="0" IVar="37" Cut="-1.5278555154800415e+00" cType="1" res="3.2242652960121632e-03" rms="2.3068188130855560e-01" purity="5.0334811210632324e-01" nType="0">
        <Node pos="l" depth="1" NCoef="0" IVar="41" Cut="1.2345679104328156e-02" cType="1" res="1.0580426082015038e-02" rms="2.3725165426731110e-01" purity="5.5043989419937134e-01" nType="0">
          <Node pos="l" depth="2" NCoef="0" IVar="-1" Cut="0.0000000000000000e+00" cType="1" res="6.8272557109594345e-03" rms="3.3901563286781311e-01" purity="4.6666544675827026e-01" nType="-99"/>
          <Node pos="r" depth="2" NCoef="0" IVar="-1" Cut="0.0000000000000000e+00" cType="1" res="8.8819029042497277e-04" rms="2.3177535831928253e-01" purity="5.5385428667068481e-01" nType="-99"/>
        </Node>
        <Node pos="r" depth="1" NCoef="0" IVar="33" Cut="-1.4924798011779785e+00" cType="1" res="-1.8349144607782364e-02" rms="2.0874446630477905e-01" purity="3.6524182558059692e-01" nType="0">
          <Node pos="l" depth="2" NCoef="0" IVar="-1" Cut="0.0000000000000000e+00" cType="1" res="1.5504751354455948e-03" rms="2.3161487281322479e-01" purity="5.2661007642745972e-01" nType="-99"/>
          <Node pos="r" depth="2" NCoef="0" IVar="-1" Cut="0.0000000000000000e+00" cType="1" res="-3.9476417005062103e-03" rms="1.9704702496528625e-01" purity="2.9881459474563599e-01" nType="-99"/>
        </Node>
      </Node>
    </BinaryTree>
    <BinaryTree type="DecisionTree" boostWeight="1.0000000000000000e+00" itree="1074">
      <Node pos="s" depth="0" NCoef="0" IVar="44" Cut="1.2345679104328156e-02" cType="1" res="-2.2527875262312591e-04" rms="2.2771643102169037e-01" purity="4.9660301208496094e-01" nType="0">
        <Node pos="l" depth="1" NCoef="0" IVar="54" Cut="1.4080055952072144e+00" cType="1" res="2.3334226571023464e-03" rms="2.2591245174407959e-01" purity="5.0785303115844727e-01" nType="0">
          <Node pos="l" depth="2" NCoef="0" IVar="-1" Cut="0.0000000000000000e+00" cType="1" res="7.0955749833956361e-04" rms="2.2813674807548523e-01" purity="5.5312806367874146e-01" nType="-99"/>
          <Node pos="r" depth="2" NCoef="0" IVar="-1" Cut="0.0000000000000000e+00" cType="1" res="-5.3912918083369732e-03" rms="1.9974915683269501e-01" purity="8.0295138061046600e-02" nType="-99"/>
        </Node>
        <Node pos="r" depth="1" NCoef="0" IVar="35" Cut="-7.1928060054779053e-01" cType="1" res="-4.9832560122013092e-02" rms="2.5521105527877808e-01" purity="2.7849113941192627e-01" nType="0">
          <Node pos="l" depth="2" NCoef="0" IVar="-1" Cut="0.0000000000000000e+00" cType="1" res="2.5585867115296423e-04" rms="2.2301596403121948e-01" purity="4.3054363131523132e-01" nType="-99"/>
          <Node pos="r" depth="2" NCoef="0" IVar="-1" Cut="0.0000000000000000e+00" cType="1" res="-1.2986572459340096e-02" rms="2.7154663205146790e-01" purity="1.5321853756904602e-01" nType="-99"/>
        </Node>
      </Node>
    </BinaryTree>
    <BinaryTree type="DecisionTree" boostWeight="1.0000000000000000e+00" itree="1075">
      <Node pos="s" depth="0" NCoef="0" IVar="2" Cut="5.5746024847030640e-01" cType="1" res="-2.1720889490097761e-03" rms="2.2765465080738068e-01" purity="4.9579319357872009e-01" nType="0">
        <Node pos="l" depth="1" NCoef="0" IVar="-1" Cut="0.0000000000000000e+00" cType="1" res="-1.6110748052597046e-02" rms="0.0000000000000000e+00" purity="-7.7358901500701904e-02" nType="-99"/>
        <Node pos="r" depth="1" NCoef="0" IVar="37" Cut="-2.2349812984466553e+00" cType="1" res="3.1485984800383449e-04" rms="2.3386259377002716e-01" purity="5.0955069065093994e-01" nType="0">
          <Node pos="l" depth="2" NCoef="0" IVar="-1" Cut="0.0000000000000000e+00" cType="1" res="1.6149384900927544e-03" rms="2.4368177354335785e-01" purity="5.8388566970825195e-01" nType="-99"/>
          <Node pos="r" depth="2" NCoef="0" IVar="-1" Cut="0.0000000000000000e+00" cType="1" res="-1.1176689295098186e-03" rms="2.2616516053676605e-01" purity="4.5727160573005676e-01" nType="-99"/>
        </Node>
      </Node>
    </BinaryTree>
    <BinaryTree type="DecisionTree" boostWeight="1.0000000000000000e+00" itree="1076">
      <Node pos="s" depth="0" NCoef="0" IVar="14" Cut="1.3710278272628784e+00" cType="1" res="8.4276392590254545e-04" rms="2.2043564915657043e-01" purity="5.0137054920196533e-01" nType="0">
        <Node pos="l" depth="1" NCoef="0" IVar="2" Cut="2.1262755393981934e+00" cType="1" res="-1.5595722943544388e-02" rms="1.7821869254112244e-01" purity="1.4363636076450348e-01" nType="0">
          <Node pos="l" depth="2" NCoef="0" IVar="-1" Cut="0.0000000000000000e+00" cType="1" res="-8.7446188554167747e-03" rms="0.0000000000000000e+00" purity="4.2710810899734497e-02" nType="-99"/>
          <Node pos="r" depth="2" NCoef="0" IVar="-1" Cut="0.0000000000000000e+00" cType="1" res="1.6334328101947904e-03" rms="2.9283952713012695e-01" purity="2.8490784764289856e-01" nType="-99"/>
        </Node>
        <Node pos="r" depth="1" NCoef="0" IVar="11" Cut="1.2345679104328156e-02" cType="1" res="1.1653727851808071e-02" rms="2.4365079402923584e-01" purity="7.3663866519927979e-01" nType="0">
          <Node pos="l" depth="2" NCoef="0" IVar="-1" Cut="0.0000000000000000e+00" cType="1" res="3.2947289291769266e-03" rms="2.0601922273635864e-01" purity="7.6354616880416870e-01" nType="-99"/>
          <Node pos="r" depth="2" NCoef="0" IVar="-1" Cut="0.0000000000000000e+00" cType="1" res="-2.6274303672835231e-04" rms="2.6578718423843384e-01" purity="7.1789157390594482e-01" nType="-99"/>
        </Node>
      </Node>
    </BinaryTree>
    <BinaryTree type="DecisionTree" boostWeight="1.0000000000000000e+00" itree="1077">
      <Node pos="s" depth="0" NCoef="0" IVar="63" Cut="1.1575114727020264e+00" cType="1" res="-8.1368663813918829e-04" rms="2.2526282072067261e-01" purity="4.9929603934288025e-01" nType="0">
        <Node pos="l" depth="1" NCoef="0" IVar="33" Cut="1.3313596248626709e+00" cType="1" res="1.9293464720249176e-03" rms="2.2711887955665588e-01" purity="5.1089137792587280e-01" nType="0">
          <Node pos="l" depth="2" NCoef="0" IVar="-1" Cut="0.0000000000000000e+00" cType="1" res="4.7237108810804784e-04" rms="2.2978541254997253e-01" purity="5.2240324020385742e-01" nType="-99"/>
          <Node pos="r" depth="2" NCoef="0" IVar="-1" Cut="0.0000000000000000e+00" cType="1" res="-9.5898471772670746e-03" rms="1.1124125868082047e-01" purity="1.8216162919998169e-01" nType="-99"/>
        </Node>
        <Node pos="r" depth="1" NCoef="0" IVar="49" Cut="3.1477239131927490e+00" cType="1" res="-5.2835162729024887e-02" rms="1.7880289256572723e-01" purity="2.7939090132713318e-01" nType="0">
          <Node pos="l" depth="2" NCoef="0" IVar="-1" Cut="0.0000000000000000e+00" cType="1" res="-1.2509547173976898e-02" rms="1.4749875664710999e-01" purity="1.5522085130214691e-01" nType="-99"/>
          <Node pos="r" depth="2" NCoef="0" IVar="-1" Cut="0.0000000000000000e+00" cType="1" res="-3.6499281413853168e-03" rms="1.9695784151554108e-01" purity="3.7465977668762207e-01" nType="-99"/>
        </Node>
      </Node>
    </BinaryTree>
    <BinaryTree type="DecisionTree" boostWeight="1.0000000000000000e+00" itree="1078">
      <Node pos="s" depth="0" NCoef="0" IVar="37" Cut="-7.2387087345123291e-01" cType="1" res="-2.6938578230328858e-04" rms="2.2744208574295044e-01" purity="4.9972707033157349e-01" nType="0">
        <Node pos="l" depth="1" NCoef="0" IVar="57" Cut="-1.2073631286621094e+00" cType="1" res="2.6815626770257950e-03" rms="2.3111444711685181e-01" purity="5.1724034547805786e-01" nType="0">
          <Node pos="l" depth="2" NCoef="0" IVar="-1" Cut="0.0000000000000000e+00" cType="1" res="8.6614495376124978e-04" rms="2.3510539531707764e-01" purity="5.5341851711273193e-01" nType="-99"/>
          <Node pos="r" depth="2" NCoef="0" IVar="-1" Cut="0.0000000000000000e+00" cType="1" res="-3.2945082057267427e-03" rms="2.0417059957981110e-01" purity="3.0897891521453857e-01" nType="-99"/>
        </Node>
        <Node pos="r" depth="1" NCoef="0" IVar="45" Cut="1.7056324481964111e+00" cType="1" res="-5.5182613432407379e-02" rms="1.3120846450328827e-01" purity="1.7382825911045074e-01" nType="0">
          <Node pos="l" depth="2" NCoef="0" IVar="-1" Cut="0.0000000000000000e+00" cType="1" res="-3.0548801645636559e-02" rms="0.0000000000000000e+00" purity="-3.1733430922031403e-02" nType="-99"/>
          <Node pos="r" depth="2" NCoef="0" IVar="-1" Cut="0.0000000000000000e+00" cType="1" res="-3.3695599995553493e-03" rms="2.7527475357055664e-01" purity="3.1590950489044189e-01" nType="-99"/>
        </Node>
      </Node>
    </BinaryTree>
    <BinaryTree type="DecisionTree" boostWeight="1.0000000000000000e+00" itree="1079">
      <Node pos="s" depth="0" NCoef="0" IVar="17" Cut="-1.5889652967453003e+00" cType="1" res="-1.3603570405393839e-03" rms="2.2333957254886627e-01" purity="4.9887287616729736e-01" nType="0">
        <Node pos="l" depth="1" NCoef="0" IVar="27" Cut="-1.3573919534683228e+00" cType="1" res="5.8551421388983727e-03" rms="2.2652325034141541e-01" purity="5.4508179426193237e-01" nType="0">
          <Node pos="l" depth="2" NCoef="0" IVar="-1" Cut="0.0000000000000000e+00" cType="1" res="1.0212293127551675e-03" rms="2.2458268702030182e-01" purity="5.5879735946655273e-01" nType="-99"/>
          <Node pos="r" depth="2" NCoef="0" IVar="-1" Cut="0.0000000000000000e+00" cType="1" res="-4.9395863898098469e-03" rms="2.4797174334526062e-01" purity="3.4607985615730286e-01" nType="-99"/>
        </Node>
        <Node pos="r" depth="1" NCoef="0" IVar="1" Cut="3.7215054035186768e+00" cType="1" res="-2.1950162947177887e-02" rms="2.1265262365341187e-01" purity="3.6701327562332153e-01" nType="0">
          <Node pos="l" depth="2" NCoef="0" IVar="-1" Cut="0.0000000000000000e+00" cType="1" res="-3.7179216742515564e-03" rms="1.9946990907192230e-01" purity="2.9053905606269836e-01" nType="-99"/>
          <Node pos="r" depth="2" NCoef="0" IVar="-1" Cut="0.0000000000000000e+00" cType="1" res="2.4000899866223335e-03" rms="2.7071797847747803e-01" purity="7.9493206739425659e-01" nType="-99"/>
        </Node>
      </Node>
    </BinaryTree>
    <BinaryTree type="DecisionTree" boostWeight="1.0000000000000000e+00" itree="1080">
      <Node pos="s" depth="0" NCoef="0" IVar="2" Cut="1.7243627309799194e+00" cType="1" res="-5.0765858031809330e-04" rms="2.2651846706867218e-01" purity="5.0028729438781738e-01" nType="0">
        <Node pos="l" depth="1" NCoef="0" IVar="14" Cut="-1.2989952564239502e+00" cType="1" res="-2.7332231402397156e-02" rms="1.5293462574481964e-01" purity="1.7916499078273773e-01" nType="0">
          <Node pos="l" depth="2" NCoef="0" IVar="-1" Cut="0.0000000000000000e+00" cType="1" res="-2.8300586342811584e-01" rms="0.0000000000000000e+00" purity="-7.3052912950515747e-02" nType="-99"/>
          <Node pos="r" depth="2" NCoef="0" IVar="-1" Cut="0.0000000000000000e+00" cType="1" res="-1.1976515816058964e-04" rms="2.7629449963569641e-01" purity="3.1407231092453003e-01" nType="-99"/>
        </Node>
        <Node pos="r" depth="1" NCoef="0" IVar="0" Cut="1.1624275445938110e+00" cType="1" res="8.0708656460046768e-03" rms="2.4481885135173798e-01" purity="6.0298252105712891e-01" nType="0">
          <Node pos="l" depth="2" NCoef="0" IVar="-1" Cut="0.0000000000000000e+00" cType="1" res="1.2223942903801799e-03" rms="2.4282427132129669e-01" purity="6.1509263515472412e-01" nType="-99"/>
          <Node pos="r" depth="2" NCoef="0" IVar="-1" Cut="0.0000000000000000e+00" cType="1" res="-5.4289312101900578e-03" rms="2.7547574043273926e-01" purity="3.6307761073112488e-01" nType="-99"/>
        </Node>
      </Node>
    </BinaryTree>
    <BinaryTree type="DecisionTree" boostWeight="1.0000000000000000e+00" itree="1081">
      <Node pos="s" depth="0" NCoef="0" IVar="34" Cut="-1.0022358596324921e-01" cType="1" res="1.4869701408315450e-04" rms="2.2442290186882019e-01" purity="5.0018161535263062e-01" nType="0">
        <Node pos="l" depth="1" NCoef="0" IVar="65" Cut="7.7437400817871094e-01" cType="1" res="6.8791676312685013e-03" rms="2.2569242119789124e-01" purity="5.8473509550094604e-01" nType="0">
          <Node pos="l" depth="2" NCoef="0" IVar="-1" Cut="0.0000000000000000e+00" cType="1" res="1.1753982398658991e-03" rms="2.2865505516529083e-01" purity="6.0858893394470215e-01" nType="-99"/>
          <Node pos="r" depth="2" NCoef="0" IVar="-1" Cut="0.0000000000000000e+00" cType="1" res="-7.5780516490340233e-03" rms="1.4819446206092834e-01" purity="1.5259420871734619e-01" nType="-99"/>
        </Node>
        <Node pos="r" depth="1" NCoef="0" IVar="29" Cut="3.4031448364257812e+00" cType="1" res="-2.3088710382580757e-02" rms="2.1839495003223419e-01" purity="2.0825488865375519e-01" nType="0">
          <Node pos="l" depth="2" NCoef="0" IVar="-1" Cut="0.0000000000000000e+00" cType="1" res="-9.8765711300075054e-04" rms="1.9004601240158081e-01" purity="1.9893766939640045e-01" nType="-99"/>
          <Node pos="r" depth="2" NCoef="0" IVar="-1" Cut="0.0000000000000000e+00" cType="1" res="-5.2914423868060112e-03" rms="2.6123595237731934e-01" purity="2.2589613497257233e-01" nType="-99"/>
        </Node>
      </Node>
    </BinaryTree>
    <BinaryTree type="DecisionTree" boostWeight="1.0000000000000000e+00" itree="1082">
      <Node pos="s" depth="0" NCoef="0" IVar="38" Cut="1.3540264368057251e+00" cType="1" res="-6.8532646400853992e-04" rms="2.2861476242542267e-01" purity="4.9907928705215454e-01" nType="0">
        <Node pos="l" depth="1" NCoef="0" IVar="41" Cut="1.2345679104328156e-02" cType="1" res="2.0763981156051159e-03" rms="2.2968143224716187e-01" purity="5.1166987419128418e-01" nType="0">
          <Node pos="l" depth="2" NCoef="0" IVar="-1" Cut="0.0000000000000000e+00" cType="1" res="5.7984353043138981e-03" rms="3.2778906822204590e-01" purity="3.7930166721343994e-01" nType="-99"/>
          <Node pos="r" depth="2" NCoef="0" IVar="-1" Cut="0.0000000000000000e+00" cType="1" res="-3.5512097383616492e-05" rms="2.2407327592372894e-01" purity="5.1750218868255615e-01" nType="-99"/>
        </Node>
        <Node pos="r" depth="1" NCoef="0" IVar="33" Cut="-1.4539015293121338e+00" cType="1" res="-4.7570202499628067e-02" rms="2.0405378937721252e-01" purity="2.8533235192298889e-01" nType="0">
          <Node pos="l" depth="2" NCoef="0" IVar="-1" Cut="0.0000000000000000e+00" cType="1" res="-1.6499226912856102e-03" rms="2.3114916682243347e-01" purity="4.3524065613746643e-01" nType="-99"/>
          <Node pos="r" depth="2" NCoef="0" IVar="-1" Cut="0.0000000000000000e+00" cType="1" res="-9.2103686183691025e-03" rms="1.8314424157142639e-01" purity="1.9553950428962708e-01" nType="-99"/>
        </Node>
      </Node>
    </BinaryTree>
    <BinaryTree type="DecisionTree" boostWeight="1.0000000000000000e+00" itree="1083">
      <Node pos="s" depth="0" NCoef="0" IVar="2" Cut="4.9828153848648071e-01" cType="1" res="-3.2760975882411003e-03" rms="2.2338525950908661e-01" purity="4.9717339873313904e-01" nType="0">
        <Node pos="l" depth="1" NCoef="0" IVar="-1" Cut="0.0000000000000000e+00" cType="1" res="-1.4319008216261864e-02" rms="0.0000000000000000e+00" purity="-6.9763734936714172e-02" nType="-99"/>
        <Node pos="r" depth="1" NCoef="0" IVar="37" Cut="-1.1683062314987183e+00" cType="1" res="-1.2137379962950945e-03" rms="2.2893013060092926e-01" purity="5.0929075479507446e-01" nType="0">
          <Node pos="l" depth="2" NCoef="0" IVar="-1" Cut="0.0000000000000000e+00" cType="1" res="4.0851515950635076e-04" rms="2.3433896899223328e-01" purity="5.4546427726745605e-01" nType="-99"/>
          <Node pos="r" depth="2" NCoef="0" IVar="-1" Cut="0.0000000000000000e+00" cType="1" res="-3.8020494394004345e-03" rms="1.9158503413200378e-01" purity="2.9631382226943970e-01" nType="-99"/>
        </Node>
      </Node>
    </BinaryTree>
    <BinaryTree type="DecisionTree" boostWeight="1.0000000000000000e+00" itree="1084">
      <Node pos="s" depth="0" NCoef="0" IVar="14" Cut="1.4871129989624023e+00" cType="1" res="-1.0996609926223755e-03" rms="2.2462004423141479e-01" purity="4.9902045726776123e-01" nType="0">
        <Node pos="l" depth="1" NCoef="0" IVar="41" Cut="1.2345679104328156e-02" cType="1" res="-1.3566982001066208e-02" rms="2.0940449833869934e-01" purity="2.3629064857959747e-01" nType="0">
          <Node pos="l" depth="2" NCoef="0" IVar="-1" Cut="0.0000000000000000e+00" cType="1" res="6.6364272497594357e-03" rms="3.2428193092346191e-01" purity="2.7382397651672363e-01" nType="-99"/>
          <Node pos="r" depth="2" NCoef="0" IVar="-1" Cut="0.0000000000000000e+00" cType="1" res="-2.4347414728254080e-03" rms="1.9895517826080322e-01" purity="2.3387214541435242e-01" nType="-99"/>
        </Node>
        <Node pos="r" depth="1" NCoef="0" IVar="11" Cut="1.2345679104328156e-02" cType="1" res="1.1221020482480526e-02" rms="2.3806513845920563e-01" purity="7.5866007804870605e-01" nType="0">
          <Node pos="l" depth="2" NCoef="0" IVar="-1" Cut="0.0000000000000000e+00" cType="1" res="3.4751030616462231e-03" rms="2.0098355412483215e-01" purity="7.8734219074249268e-01" nType="-99"/>
          <Node pos="r" depth="2" NCoef="0" IVar="-1" Cut="0.0000000000000000e+00" cType="1" res="-3.8899219362065196e-04" rms="2.6087889075279236e-01" purity="7.3763126134872437e-01" nType="-99"/>
        </Node>
      </Node>
    </BinaryTree>
    <BinaryTree type="DecisionTree" boostWeight="1.0000000000000000e+00" itree="1085">
      <Node pos="s" depth="0" NCoef="0" IVar="1" Cut="2.2621483802795410e+00" cType="1" res="-3.7415797123685479e-04" rms="2.2358688712120056e-01" purity="5.0085961818695068e-01" nType="0">
        <Node pos="l" depth="1" NCoef="0" IVar="58" Cut="8.9862793684005737e-01" cType="1" res="-6.0529927723109722e-03" rms="0.0000000000000000e+00" purity="4.7401435673236847e-02" nType="-99"/>
        <Node pos="r" depth="1" NCoef="0" IVar="4" Cut="3.7642979621887207e+00" cType="1" res="5.6611979380249977e-03" rms="2.4912357330322266e-01" purity="6.0208350419998169e-01" nType="0">
          <Node pos="l" depth="2" NCoef="0" IVar="-1" Cut="0.0000000000000000e+00" cType="1" res="2.0634750835597515e-03" rms="2.4649792909622192e-01" purity="5.9788030385971069e-01" nType="-99"/>
          <Node pos="r" depth="2" NCoef="0" IVar="-1" Cut="0.0000000000000000e+00" cType="1" res="-1.0384964989498258e-03" rms="2.5137507915496826e-01" purity="6.0729885101318359e-01" nType="-99"/>
        </Node>
      </Node>
    </BinaryTree>
    <BinaryTree type="DecisionTree" boostWeight="1.0000000000000000e+00" itree="1086">
      <Node pos="s" depth="0" NCoef="0" IVar="14" Cut="1.5257415771484375e+00" cType="1" res="1.0536577319726348e-03" rms="2.2649982571601868e-01" purity="5.0125229358673096e-01" nType="0">
        <Node pos="l" depth="1" NCoef="0" IVar="41" Cut="1.2345679104328156e-02" cType="1" res="-7.9770172014832497e-03" rms="2.2646394371986389e-01" purity="3.4856677055358887e-01" nType="0">
          <Node pos="l" depth="2" NCoef="0" IVar="-1" Cut="0.0000000000000000e+00" cType="1" res="5.6186770088970661e-03" rms="3.2541385293006897e-01" purity="3.1800881028175354e-01" nType="-99"/>
          <Node pos="r" depth="2" NCoef="0" IVar="-1" Cut="0.0000000000000000e+00" cType="1" res="-1.3923571677878499e-03" rms="2.1894127130508423e-01" purity="3.5032680630683899e-01" nType="-99"/>
        </Node>
        <Node pos="r" depth="1" NCoef="0" IVar="1" Cut="2.4506542682647705e+00" cType="1" res="1.7637845128774643e-02" rms="2.2562626004219055e-01" purity="7.8164839744567871e-01" nType="0">
          <Node pos="l" depth="2" NCoef="0" IVar="-1" Cut="0.0000000000000000e+00" cType="1" res="4.6467501670122147e-03" rms="3.1393700838088989e-01" purity="3.8469955325126648e-01" nType="-99"/>
          <Node pos="r" depth="2" NCoef="0" IVar="-1" Cut="0.0000000000000000e+00" cType="1" res="1.1389192659407854e-03" rms="2.0850445330142975e-01" purity="8.4002757072448730e-01" nType="-99"/>
        </Node>
      </Node>
    </BinaryTree>
    <BinaryTree type="DecisionTree" boostWeight="1.0000000000000000e+00" itree="1087">
      <Node pos="s" depth="0" NCoef="0" IVar="1" Cut="1.8121742010116577e+00" cType="1" res="1.6199067467823625e-03" rms="2.2723156213760376e-01" purity="4.9771034717559814e-01" nType="0">
        <Node pos="l" depth="1" NCoef="0" IVar="53" Cut="-1.3380606174468994e+00" cType="1" res="-4.2811799794435501e-02" rms="0.0000000000000000e+00" purity="-4.1621185839176178e-02" nType="-99"/>
        <Node pos="r" depth="1" NCoef="0" IVar="54" Cut="1.3318732976913452e+00" cType="1" res="4.7403732314705849e-03" rms="2.3930419981479645e-01" purity="5.2795231342315674e-01" nType="0">
          <Node pos="l" depth="2" NCoef="0" IVar="-1" Cut="0.0000000000000000e+00" cType="1" res="9.5265143318101764e-04" rms="2.3956170678138733e-01" purity="5.8195000886917114e-01" nType="-99"/>
          <Node pos="r" depth="2" NCoef="0" IVar="-1" Cut="0.0000000000000000e+00" cType="1" res="-3.4469061065465212e-03" rms="2.3495744168758392e-01" purity="1.1708568781614304e-01" nType="-99"/>
        </Node>
      </Node>
    </BinaryTree>
    <BinaryTree type="DecisionTree" boostWeight="1.0000000000000000e+00" itree="1088">
      <Node pos="s" depth="0" NCoef="0" IVar="17" Cut="-6.6561532020568848e-01" cType="1" res="-1.7488717567175627e-03" rms="2.2513683140277863e-01" purity="4.9833908677101135e-01" nType="0">
        <Node pos="l" depth="1" NCoef="0" IVar="2" Cut="1.0027880668640137e+00" cType="1" res="6.3902419060468674e-04" rms="2.2747915983200073e-01" purity="5.1040810346603394e-01" nType="0">
          <Node pos="l" depth="2" NCoef="0" IVar="-1" Cut="0.0000000000000000e+00" cType="1" res="-5.6535494513809681e-03" rms="0.0000000000000000e+00" purity="5.2012413740158081e-02" nType="-99"/>
          <Node pos="r" depth="2" NCoef="0" IVar="-1" Cut="0.0000000000000000e+00" cType="1" res="3.9375619962811470e-04" rms="2.3345682024955750e-01" purity="5.3570997714996338e-01" nType="-99"/>
        </Node>
        <Node pos="r" depth="1" NCoef="0" IVar="-1" Cut="0.0000000000000000e+00" cType="1" res="-9.0449135750532150e-03" rms="1.3588406145572662e-01" purity="1.7875696718692780e-01" nType="-99"/>
      </Node>
    </BinaryTree>
    <BinaryTree type="DecisionTree" boostWeight="1.0000000000000000e+00" itree="1089">
      <Node pos="s" depth="0" NCoef="0" IVar="57" Cut="-2.0303404331207275e+00" cType="1" res="2.6617613621056080e-03" rms="2.2967988252639771e-01" purity="5.0132650136947632e-01" nType="0">
        <Node pos="l" depth="1" NCoef="0" IVar="61" Cut="1.2345679104328156e-02" cType="1" res="1.4489925466477871e-02" rms="2.4111446738243103e-01" purity="5.7169526815414429e-01" nType="0">
          <Node pos="l" depth="2" NCoef="0" IVar="-1" Cut="0.0000000000000000e+00" cType="1" res="7.1932827122509480e-03" rms="3.7184295058250427e-01" purity="5.0099700689315796e-01" nType="-99"/>
          <Node pos="r" depth="2" NCoef="0" IVar="-1" Cut="0.0000000000000000e+00" cType="1" res="1.2943426845595241e-03" rms="2.3336851596832275e-01" purity="5.7473164796829224e-01" nType="-99"/>
        </Node>
        <Node pos="r" depth="1" NCoef="0" IVar="14" Cut="1.5252424478530884e+00" cType="1" res="-1.0204556398093700e-02" rms="2.1582235395908356e-01" purity="4.2478141188621521e-01" nType="0">
          <Node pos="l" depth="2" NCoef="0" IVar="-1" Cut="0.0000000000000000e+00" cType="1" res="-2.8075850568711758e-03" rms="1.9577991962432861e-01" purity="2.7672022581100464e-01" nType="-99"/>
          <Node pos="r" depth="2" NCoef="0" IVar="-1" Cut="0.0000000000000000e+00" cType="1" res="1.1932719498872757e-03" rms="2.5133714079856873e-01" purity="7.3636412620544434e-01" nType="-99"/>
        </Node>
      </Node>
    </BinaryTree>
    <BinaryTree type="DecisionTree" boostWeight="1.0000000000000000e+00" itree="1090">
      <Node pos="s" depth="0" NCoef="0" IVar="57" Cut="-1.1234579086303711e+00" cType="1" res="-2.3905410489533097e-04" rms="2.2930943965911865e-01" purity="4.9784997105598450e-01" nType="0">
        <Node pos="l" depth="1" NCoef="0" IVar="36" Cut="1.5245062112808228e+00" cType="1" res="4.5105107128620148e-03" rms="2.3356413841247559e-01" purity="5.3265476226806641e-01" nType="0">
          <Node pos="l" depth="2" NCoef="0" IVar="-1" Cut="0.0000000000000000e+00" cType="1" res="7.6276797335594893e-04" rms="2.3509065806865692e-01" purity="5.5199468135833740e-01" nType="-99"/>
          <Node pos="r" depth="2" NCoef="0" IVar="-1" Cut="0.0000000000000000e+00" cType="1" res="-8.4745688363909721e-03" rms="1.7952485382556915e-01" purity="2.8853997588157654e-02" nType="-99"/>
        </Node>
        <Node pos="r" depth="1" NCoef="0" IVar="25" Cut="2.4082922935485840e+00" cType="1" res="-3.0581438913941383e-02" rms="1.9732379913330078e-01" purity="2.7550092339515686e-01" nType="0">
          <Node pos="l" depth="2" NCoef="0" IVar="-1" Cut="0.0000000000000000e+00" cType="1" res="-7.7063324861228466e-03" rms="9.4582557678222656e-02" purity="1.3050876557826996e-01" nType="-99"/>
          <Node pos="r" depth="2" NCoef="0" IVar="-1" Cut="0.0000000000000000e+00" cType="1" res="-3.4341355785727501e-05" rms="3.1088703870773315e-01" purity="5.6117951869964600e-01" nType="-99"/>
        </Node>
      </Node>
    </BinaryTree>
    <BinaryTree type="DecisionTree" boostWeight="1.0000000000000000e+00" itree="1091">
      <Node pos="s" depth="0" NCoef="0" IVar="25" Cut="2.1528477668762207e+00" cType="1" res="-6.9481070386245847e-04" rms="2.2451819479465485e-01" purity="5.0066560506820679e-01" nType="0">
        <Node pos="l" depth="1" NCoef="0" IVar="14" Cut="-1.2989310026168823e+00" cType="1" res="-1.3915856368839741e-02" rms="1.9937436282634735e-01" purity="2.8667542338371277e-01" nType="0">
          <Node pos="l" depth="2" NCoef="0" IVar="-1" Cut="0.0000000000000000e+00" cType="1" res="-1.1877194046974182e-01" rms="0.0000000000000000e+00" purity="-4.3437182903289795e-02" nType="-99"/>
          <Node pos="r" depth="2" NCoef="0" IVar="-1" Cut="0.0000000000000000e+00" cType="1" res="1.7064028361346573e-04" rms="2.8327631950378418e-01" purity="4.4380995631217957e-01" nType="-99"/>
        </Node>
        <Node pos="r" depth="1" NCoef="0" IVar="44" Cut="1.2345679104328156e-02" cType="1" res="1.1649976484477520e-02" rms="2.4504019320011139e-01" purity="7.0047301054000854e-01" nType="0">
          <Node pos="l" depth="2" NCoef="0" IVar="-1" Cut="0.0000000000000000e+00" cType="1" res="1.6516739269718528e-03" rms="2.3956808447837830e-01" purity="7.1264266967773438e-01" nType="-99"/>
          <Node pos="r" depth="2" NCoef="0" IVar="-1" Cut="0.0000000000000000e+00" cType="1" res="-6.4337514340877533e-03" rms="3.3389493823051453e-01" purity="4.3623602390289307e-01" nType="-99"/>
        </Node>
      </Node>
    </BinaryTree>
    <BinaryTree type="DecisionTree" boostWeight="1.0000000000000000e+00" itree="1092">
      <Node pos="s" depth="0" NCoef="0" IVar="25" Cut="2.7906260490417480e+00" cType="1" res="-9.8386721219867468e-04" rms="2.2655293345451355e-01" purity="4.9817746877670288e-01" nType="0">
        <Node pos="l" depth="1" NCoef="0" IVar="14" Cut="-1.4150614738464355e+00" cType="1" res="-8.7893744930624962e-03" rms="2.2628165781497955e-01" purity="3.9690765738487244e-01" nType="0">
          <Node pos="l" depth="2" NCoef="0" IVar="-1" Cut="0.0000000000000000e+00" cType="1" res="-8.8729813694953918e-02" rms="0.0000000000000000e+00" purity="-3.1069893389940262e-02" nType="-99"/>
          <Node pos="r" depth="2" NCoef="0" IVar="-1" Cut="0.0000000000000000e+00" cType="1" res="-4.5519464038079605e-05" rms="2.7913066744804382e-01" purity="5.3361463546752930e-01" nType="-99"/>
        </Node>
        <Node pos="r" depth="1" NCoef="0" IVar="14" Cut="-1.2602425813674927e+00" cType="1" res="2.2011402994394302e-02" rms="2.2578719258308411e-01" purity="7.9652160406112671e-01" nType="0">
          <Node pos="l" depth="2" NCoef="0" IVar="-1" Cut="0.0000000000000000e+00" cType="1" res="1.4751113951206207e-02" rms="3.3452588319778442e-01" purity="1.6790793836116791e-01" nType="-99"/>
          <Node pos="r" depth="2" NCoef="0" IVar="-1" Cut="0.0000000000000000e+00" cType="1" res="1.6839704476296902e-03" rms="2.0840534567832947e-01" purity="8.6858546733856201e-01" nType="-99"/>
        </Node>
      </Node>
    </BinaryTree>
    <BinaryTree type="DecisionTree" boostWeight="1.0000000000000000e+00" itree="1093">
      <Node pos="s" depth="0" NCoef="0" IVar="2" Cut="5.1484239101409912e-01" cType="1" res="6.0477544320747256e-04" rms="2.2558751702308655e-01" purity="5.0063347816467285e-01" nType="0">
        <Node pos="l" depth="1" NCoef="0" IVar="-1" Cut="0.0000000000000000e+00" cType="1" res="-1.4944821596145630e-02" rms="0.0000000000000000e+00" purity="-7.0684097707271576e-02" nType="-99"/>
        <Node pos="r" depth="1" NCoef="0" IVar="45" Cut="8.9523094892501831e-01" cType="1" res="2.6927872095257044e-03" rms="2.3096561431884766e-01" purity="5.1303678750991821e-01" nType="0">
          <Node pos="l" depth="2" NCoef="0" IVar="-1" Cut="0.0000000000000000e+00" cType="1" res="-7.3259971104562283e-03" rms="5.7235665619373322e-02" purity="5.2263848483562469e-02" nType="-99"/>
          <Node pos="r" depth="2" NCoef="0" IVar="-1" Cut="0.0000000000000000e+00" cType="1" res="6.7216210300102830e-04" rms="2.4045839905738831e-01" purity="5.5551803112030029e-01" nType="-99"/>
        </Node>
      </Node>
    </BinaryTree>
    <BinaryTree type="DecisionTree" boostWeight="1.0000000000000000e+00" itree="1094">
      <Node pos="s" depth="0" NCoef="0" IVar="34" Cut="9.8261946439743042e-01" cType="1" res="-1.3455899897962809e-03" rms="2.2692069411277771e-01" purity="4.9814528226852417e-01" nType="0">
        <Node pos="l" depth="1" NCoef="0" IVar="54" Cut="2.0989440381526947e-01" cType="1" res="3.4315194934606552e-03" rms="2.2798909246921539e-01" purity="5.6321370601654053e-01" nType="0">
          <Node pos="l" depth="2" NCoef="0" IVar="-1" Cut="0.0000000000000000e+00" cType="1" res="1.0729066561907530e-03" rms="2.2195218503475189e-01" purity="6.4305573701858521e-01" nType="-99"/>
          <Node pos="r" depth="2" NCoef="0" IVar="-1" Cut="0.0000000000000000e+00" cType="1" res="-2.5643673725426197e-03" rms="2.5144520401954651e-01" purity="2.0725284516811371e-01" nType="-99"/>
        </Node>
        <Node pos="r" depth="1" NCoef="0" IVar="29" Cut="3.3980345726013184e+00" cType="1" res="-2.7388121932744980e-02" rms="2.1918213367462158e-01" purity="1.4342319965362549e-01" nType="0">
          <Node pos="l" depth="2" NCoef="0" IVar="-1" Cut="0.0000000000000000e+00" cType="1" res="-1.1341930367052555e-03" rms="2.0555461943149567e-01" purity="1.2454625964164734e-01" nType="-99"/>
          <Node pos="r" depth="2" NCoef="0" IVar="-1" Cut="0.0000000000000000e+00" cType="1" res="-6.3383970409631729e-03" rms="2.3666335642337799e-01" purity="1.7517372965812683e-01" nType="-99"/>
        </Node>
      </Node>
    </BinaryTree>
    <BinaryTree type="DecisionTree" boostWeight="1.0000000000000000e+00" itree="1095">
      <Node pos="s" depth="0" NCoef="0" IVar="49" Cut="2.8248279094696045e+00" cType="1" res="2.5770415086299181e-03" rms="2.3017023503780365e-01" purity="5.0081694126129150e-01" nType="0">
        <Node pos="l" depth="1" NCoef="0" IVar="29" Cut="2.7911095619201660e+00" cType="1" res="-1.6014903783798218e-02" rms="2.2087581455707550e-01" purity="3.6666497588157654e-01" nType="0">
          <Node pos="l" depth="2" NCoef="0" IVar="-1" Cut="0.0000000000000000e+00" cType="1" res="-8.3310464397072792e-03" rms="1.2309207022190094e-01" purity="1.9996489584445953e-01" nType="-99"/>
          <Node pos="r" depth="2" NCoef="0" IVar="-1" Cut="0.0000000000000000e+00" cType="1" res="-6.7869410850107670e-04" rms="2.4014033377170563e-01" purity="4.1311007738113403e-01" nType="-99"/>
        </Node>
        <Node pos="r" depth="1" NCoef="0" IVar="54" Cut="1.4461337327957153e+00" cType="1" res="8.9915022253990173e-03" rms="2.3294699192047119e-01" purity="5.4710114002227783e-01" nType="0">
          <Node pos="l" depth="2" NCoef="0" IVar="-1" Cut="0.0000000000000000e+00" cType="1" res="1.4518625102937222e-03" rms="2.3379056155681610e-01" purity="5.9945452213287354e-01" nType="-99"/>
          <Node pos="r" depth="2" NCoef="0" IVar="-1" Cut="0.0000000000000000e+00" cType="1" res="-4.7989855520427227e-03" rms="2.2133654356002808e-01" purity="7.8114204108715057e-02" nType="-99"/>
        </Node>
      </Node>
    </BinaryTree>
    <BinaryTree type="DecisionTree" boostWeight="1.0000000000000000e+00" itree="1096">
      <Node pos="s" depth="0" NCoef="0" IVar="1" Cut="3.6786019802093506e+00" cType="1" res="-1.0621416149660945e-03" rms="2.2725802659988403e-01" purity="5.0161904096603394e-01" nType="0">
        <Node pos="l" depth="1" NCoef="0" IVar="40" Cut="-2.0916938781738281e-01" cType="1" res="-8.0287009477615356e-03" rms="2.3129405081272125e-01" purity="4.1313272714614868e-01" nType="0">
          <Node pos="l" depth="2" NCoef="0" IVar="-1" Cut="0.0000000000000000e+00" cType="1" res="9.1302819782868028e-04" rms="2.5370135903358459e-01" purity="4.4884499907493591e-01" nType="-99"/>
          <Node pos="r" depth="2" NCoef="0" IVar="-1" Cut="0.0000000000000000e+00" cType="1" res="-2.2865659557282925e-03" rms="2.1331730484962463e-01" purity="3.8794416189193726e-01" nType="-99"/>
        </Node>
        <Node pos="r" depth="1" NCoef="0" IVar="14" Cut="-2.9326680302619934e-01" cType="1" res="2.6899337768554688e-02" rms="2.0794557034969330e-01" purity="8.5677415132522583e-01" nType="0">
          <Node pos="l" depth="2" NCoef="0" IVar="-1" Cut="0.0000000000000000e+00" cType="1" res="7.5389123521745205e-03" rms="3.3936488628387451e-01" purity="3.4503889083862305e-01" nType="-99"/>
          <Node pos="r" depth="2" NCoef="0" IVar="-1" Cut="0.0000000000000000e+00" cType="1" res="2.7722674421966076e-03" rms="1.8518619239330292e-01" purity="9.1770523786544800e-01" nType="-99"/>
        </Node>
      </Node>
    </BinaryTree>
    <BinaryTree type="DecisionTree" boostWeight="1.0000000000000000e+00" itree="1097">
      <Node pos="s" depth="0" NCoef="0" IVar="45" Cut="1.4040405750274658e+00" cType="1" res="5.7832468883134425e-05" rms="2.2621591389179230e-01" purity="5.0051110982894897e-01" nType="0">
        <Node pos="l" depth="1" NCoef="0" IVar="49" Cut="3.0221121311187744e+00" cType="1" res="-2.2508321329951286e-02" rms="1.6264322400093079e-01" purity="1.4593619108200073e-01" nType="0">
          <Node pos="l" depth="2" NCoef="0" IVar="-1" Cut="0.0000000000000000e+00" cType="1" res="-6.1909342184662819e-03" rms="1.3176915049552917e-01" purity="1.0429026186466217e-01" nType="-99"/>
          <Node pos="r" depth="2" NCoef="0" IVar="-1" Cut="0.0000000000000000e+00" cType="1" res="1.9046561792492867e-03" rms="2.1913169324398041e-01" purity="2.5400909781455994e-01" nType="-99"/>
        </Node>
        <Node pos="r" depth="1" NCoef="0" IVar="4" Cut="3.7360353469848633e+00" cType="1" res="5.8803553692996502e-03" rms="2.3955544829368591e-01" purity="5.9199863672256470e-01" nType="0">
          <Node pos="l" depth="2" NCoef="0" IVar="-1" Cut="0.0000000000000000e+00" cType="1" res="2.2951504215598106e-03" rms="2.2988438606262207e-01" purity="5.8690476417541504e-01" nType="-99"/>
          <Node pos="r" depth="2" NCoef="0" IVar="-1" Cut="0.0000000000000000e+00" cType="1" res="-8.1474799662828445e-04" rms="2.4818532168865204e-01" purity="5.9714931249618530e-01" nType="-99"/>
        </Node>
      </Node>
    </BinaryTree>
    <BinaryTree type="DecisionTree" boostWeight="1.0000000000000000e+00" itree="1098">
      <Node pos="s" depth="0" NCoef="0" IVar="5" Cut="8.5243028402328491e-01" cType="1" res="-7.7802024316042662e-04" rms="2.2558653354644775e-01" purity="4.9987134337425232e-01" nType="0">
        <Node pos="l" depth="1" NCoef="0" IVar="34" Cut="-1.1831350326538086e+00" cType="1" res="-1.0391368530690670e-02" rms="0.0000000000000000e+00" purity="7.0323593914508820e-02" nType="-99"/>
        <Node pos="r" depth="1" NCoef="0" IVar="14" Cut="-1.4924062490463257e+00" cType="1" res="2.1727001294493675e-03" rms="2.3346221446990967e-01" purity="5.2461504936218262e-01" nType="0">
          <Node pos="l" depth="2" NCoef="0" IVar="-1" Cut="0.0000000000000000e+00" cType="1" res="-4.3494302779436111e-02" rms="0.0000000000000000e+00" purity="-1.9183073192834854e-02" nType="-99"/>
          <Node pos="r" depth="2" NCoef="0" IVar="-1" Cut="0.0000000000000000e+00" cType="1" res="6.6916109062731266e-04" rms="2.6043090224266052e-01" purity="6.2242394685745239e-01" nType="-99"/>
        </Node>
      </Node>
    </BinaryTree>
    <BinaryTree type="DecisionTree" boostWeight="1.0000000000000000e+00" itree="1099">
      <Node pos="s" depth="0" NCoef="0" IVar="49" Cut="2.8606891632080078e+00" cType="1" res="1.3022565981373191e-03" rms="2.3084592819213867e-01" purity="4.9902215600013733e-01" nType="0">
        <Node pos="l" depth="1" NCoef="0" IVar="0" Cut="7.2222256660461426e-01" cType="1" res="-1.9046654924750328e-02" rms="2.1781685948371887e-01" purity="3.8025420904159546e-01" nType="0">
          <Node pos="l" depth="2" NCoef="0" IVar="-1" Cut="0.0000000000000000e+00" cType="1" res="-4.4971445458941162e-04" rms="2.3896321654319763e-01" purity="4.7044998407363892e-01" nType="-99"/>
          <Node pos="r" depth="2" NCoef="0" IVar="-1" Cut="0.0000000000000000e+00" cType="1" res="-7.5020943768322468e-03" rms="1.6397897899150848e-01" purity="2.0092758536338806e-01" nType="-99"/>
        </Node>
        <Node pos="r" depth="1" NCoef="0" IVar="54" Cut="1.4479401111602783e+00" cType="1" res="9.2042451724410057e-03" rms="2.3523737490177155e-01" purity="5.4514276981353760e-01" nType="0">
          <Node pos="l" depth="2" NCoef="0" IVar="-1" Cut="0.0000000000000000e+00" cType="1" res="1.5536790015175939e-03" rms="2.3599812388420105e-01" purity="5.9926372766494751e-01" nType="-99"/>
          <Node pos="r" depth="2" NCoef="0" IVar="-1" Cut="0.0000000000000000e+00" cType="1" res="-5.2330065518617630e-03" rms="2.2398456931114197e-01" purity="7.6851576566696167e-02" nType="-99"/>
        </Node>
      </Node>
    </BinaryTree>
    <BinaryTree type="DecisionTree" boostWeight="1.0000000000000000e+00" itree="1100">
      <Node pos="s" depth="0" NCoef="0" IVar="17" Cut="-1.3484973907470703e+00" cType="1" res="8.7806378724053502e-04" rms="2.3159223794937134e-01" purity="5.0162446498870850e-01" nType="0">
        <Node pos="l" depth="1" NCoef="0" IVar="34" Cut="1.4848786592483521e+00" cType="1" res="6.0998080298304558e-03" rms="2.3634502291679382e-01" purity="5.3742432594299316e-01" nType="0">
          <Node pos="l" depth="2" NCoef="0" IVar="-1" Cut="0.0000000000000000e+00" cType="1" res="1.0035153245553374e-03" rms="2.3746590316295624e-01" purity="5.6932544708251953e-01" nType="-99"/>
          <Node pos="r" depth="2" NCoef="0" IVar="-1" Cut="0.0000000000000000e+00" cType="1" res="-5.5020763538777828e-03" rms="2.1515201032161713e-01" purity="7.0863336324691772e-02" nType="-99"/>
        </Node>
        <Node pos="r" depth="1" NCoef="0" IVar="2" Cut="1.7198891639709473e+00" cType="1" res="-2.3758936673402786e-02" rms="2.0592750608921051e-01" purity="3.3271506428718567e-01" nType="0">
          <Node pos="l" depth="2" NCoef="0" IVar="-1" Cut="0.0000000000000000e+00" cType="1" res="-1.3222696259617805e-02" rms="0.0000000000000000e+00" purity="3.8419716060161591e-02" nType="-99"/>
          <Node pos="r" depth="2" NCoef="0" IVar="-1" Cut="0.0000000000000000e+00" cType="1" res="-6.6960579715669155e-04" rms="2.6209223270416260e-01" purity="4.4456040859222412e-01" nType="-99"/>
        </Node>
      </Node>
    </BinaryTree>
    <BinaryTree type="DecisionTree" boostWeight="1.0000000000000000e+00" itree="1101">
      <Node pos="s" depth="0" NCoef="0" IVar="2" Cut="8.7479454278945923e-01" cType="1" res="-9.8810973577201366e-04" rms="2.2618079185485840e-01" purity="4.9844080209732056e-01" nType="0">
        <Node pos="l" depth="1" NCoef="0" IVar="53" Cut="-6.4370608329772949e-01" cType="1" res="-6.9168116897344589e-03" rms="0.0000000000000000e+00" purity="1.9773580133914948e-02" nType="-99"/>
        <Node pos="r" depth="1" NCoef="0" IVar="49" Cut="2.5020773410797119e+00" cType="1" res="1.5251984586939216e-03" rms="2.3123797774314880e-01" purity="5.1909232139587402e-01" nType="0">
          <Node pos="l" depth="2" NCoef="0" IVar="-1" Cut="0.0000000000000000e+00" cType="1" res="-4.5339693315327168e-03" rms="1.7181143164634705e-01" purity="2.5833484530448914e-01" nType="-99"/>
          <Node pos="r" depth="2" NCoef="0" IVar="-1" Cut="0.0000000000000000e+00" cType="1" res="6.5986101981252432e-04" rms="2.3694063723087311e-01" purity="5.5004656314849854e-01" nType="-99"/>
        </Node>
      </Node>
    </BinaryTree>
    <BinaryTree type="DecisionTree" boostWeight="1.0000000000000000e+00" itree="1102">
      <Node pos="s" depth="0" NCoef="0" IVar="58" Cut="1.3993240594863892e+00" cType="1" res="1.1781663633882999e-03" rms="2.3125490546226501e-01" purity="5.0034296512603760e-01" nType="0">
        <Node pos="l" depth="1" NCoef="0" IVar="17" Cut="-1.4954560995101929e+00" cType="1" res="3.8371444679796696e-03" rms="2.3117862641811371e-01" purity="5.1244181394577026e-01" nType="0">
          <Node pos="l" depth="2" NCoef="0" IVar="-1" Cut="0.0000000000000000e+00" cType="1" res="1.1004871921613812e-03" rms="2.3284186422824860e-01" purity="5.5282896757125854e-01" nType="-99"/>
          <Node pos="r" depth="2" NCoef="0" IVar="-1" Cut="0.0000000000000000e+00" cType="1" res="-1.9858230371028185e-03" rms="2.2408533096313477e-01" purity="3.7159508466720581e-01" nType="-99"/>
        </Node>
        <Node pos="r" depth="1" NCoef="0" IVar="13" Cut="-1.0690424442291260e+00" cType="1" res="-5.0419159233570099e-02" rms="2.2663581371307373e-01" purity="2.6556438207626343e-01" nType="0">
          <Node pos="l" depth="2" NCoef="0" IVar="-1" Cut="0.0000000000000000e+00" cType="1" res="-1.0557408444583416e-02" rms="1.9066704809665680e-01" purity="2.4423806369304657e-01" nType="-99"/>
          <Node pos="r" depth="2" NCoef="0" IVar="-1" Cut="0.0000000000000000e+00" cType="1" res="-4.1789058595895767e-03" rms="2.5562304258346558e-01" purity="2.8617811203002930e-01" nType="-99"/>
        </Node>
      </Node>
    </BinaryTree>
    <BinaryTree type="DecisionTree" boostWeight="1.0000000000000000e+00" itree="1103">
      <Node pos="s" depth="0" NCoef="0" IVar="53" Cut="1.4075684547424316e+00" cType="1" res="7.8686646884307265e-04" rms="2.3007716238498688e-01" purity="5.0132036209106445e-01" nType="0">
        <Node pos="l" depth="1" NCoef="0" IVar="56" Cut="1.4849827289581299e+00" cType="1" res="2.6637518312782049e-03" rms="2.3174287378787994e-01" purity="5.1068270206451416e-01" nType="0">
          <Node pos="l" depth="2" NCoef="0" IVar="-1" Cut="0.0000000000000000e+00" cType="1" res="6.3495972426608205e-04" rms="2.3396570980548859e-01" purity="5.4360908269882202e-01" nType="-99"/>
          <Node pos="r" depth="2" NCoef="0" IVar="-1" Cut="0.0000000000000000e+00" cType="1" res="-6.3364179804921150e-03" rms="1.9286763668060303e-01" purity="4.6143155544996262e-02" nType="-99"/>
        </Node>
        <Node pos="r" depth="1" NCoef="0" IVar="-1" Cut="0.0000000000000000e+00" cType="1" res="-1.3778463006019592e-02" rms="1.1928112804889679e-01" purity="1.0777939856052399e-01" nType="-99"/>
      </Node>
    </BinaryTree>
    <BinaryTree type="DecisionTree" boostWeight="1.0000000000000000e+00" itree="1104">
      <Node pos="s" depth="0" NCoef="0" IVar="45" Cut="1.0153280496597290e+00" cType="1" res="-3.5997794475406408e-04" rms="2.2673515975475311e-01" purity="5.0139480829238892e-01" nType="0">
        <Node pos="l" depth="1" NCoef="0" IVar="14" Cut="1.2548820972442627e+00" cType="1" res="-3.1029794365167618e-02" rms="8.2619018852710724e-02" purity="6.7725598812103271e-02" nType="0">
          <Node pos="l" depth="2" NCoef="0" IVar="-1" Cut="0.0000000000000000e+00" cType="1" res="-6.5268754959106445e-02" rms="0.0000000000000000e+00" purity="-4.7334097325801849e-02" nType="-99"/>
          <Node pos="r" depth="2" NCoef="0" IVar="-1" Cut="0.0000000000000000e+00" cType="1" res="7.1934470906853676e-04" rms="3.0357271432876587e-01" purity="2.3415823280811310e-01" nType="-99"/>
        </Node>
        <Node pos="r" depth="1" NCoef="0" IVar="4" Cut="3.7435235977172852e+00" cType="1" res="3.4720059484243393e-03" rms="2.3842599987983704e-01" purity="5.5557882785797119e-01" nType="0">
          <Node pos="l" depth="2" NCoef="0" IVar="-1" Cut="0.0000000000000000e+00" cType="1" res="1.8017210531979799e-03" rms="2.3530718684196472e-01" purity="5.4785799980163574e-01" nType="-99"/>
          <Node pos="r" depth="2" NCoef="0" IVar="-1" Cut="0.0000000000000000e+00" cType="1" res="-9.5381843857467175e-04" rms="2.4115887284278870e-01" purity="5.6406676769256592e-01" nType="-99"/>
        </Node>
      </Node>
    </BinaryTree>
    <BinaryTree type="DecisionTree" boostWeight="1.0000000000000000e+00" itree="1105">
      <Node pos="s" depth="0" NCoef="0" IVar="33" Cut="1.4087238311767578e+00" cType="1" res="-1.5433265361934900e-03" rms="2.2615259885787964e-01" purity="4.9748063087463379e-01" nType="0">
        <Node pos="l" depth="1" NCoef="0" IVar="56" Cut="-1.5311226844787598e+00" cType="1" res="3.2768206438049674e-04" rms="2.2826096415519714e-01" purity="5.0712400674819946e-01" nType="0">
          <Node pos="l" depth="2" NCoef="0" IVar="-1" Cut="0.0000000000000000e+00" cType="1" res="1.6746066976338625e-03" rms="2.0690274238586426e-01" purity="6.9545400142669678e-01" nType="-99"/>
          <Node pos="r" depth="2" NCoef="0" IVar="-1" Cut="0.0000000000000000e+00" cType="1" res="-9.7577826818451285e-04" rms="2.4111029505729675e-01" purity="3.8074117898941040e-01" nType="-99"/>
        </Node>
        <Node pos="r" depth="1" NCoef="0" IVar="-1" Cut="0.0000000000000000e+00" cType="1" res="-1.3541792519390583e-02" rms="7.8149102628231049e-02" purity="1.0419890284538269e-01" nType="-99"/>
      </Node>
    </BinaryTree>
    <BinaryTree type="DecisionTree" boostWeight="1.0000000000000000e+00" itree="1106">
      <Node pos="s" depth="0" NCoef="0" IVar="17" Cut="-8.1323242187500000e-01" cType="1" res="-4.3255803757347167e-04" rms="2.3000968992710114e-01" purity="4.9872586131095886e-01" nType="0">
        <Node pos="l" depth="1" NCoef="0" IVar="12" Cut="1.4397164583206177e+00" cType="1" res="2.5920725893229246e-03" rms="2.3278987407684326e-01" purity="5.1578283309936523e-01" nType="0">
          <Node pos="l" depth="2" NCoef="0" IVar="-1" Cut="0.0000000000000000e+00" cType="1" res="-8.4653316298499703e-04" rms="2.3216530680656433e-01" purity="3.5787618160247803e-01" nType="-99"/>
          <Node pos="r" depth="2" NCoef="0" IVar="-1" Cut="0.0000000000000000e+00" cType="1" res="1.5987312654033303e-03" rms="2.3303587734699249e-01" purity="7.3525774478912354e-01" nType="-99"/>
        </Node>
        <Node pos="r" depth="1" NCoef="0" IVar="65" Cut="2.8152903914451599e-01" cType="1" res="-4.8984255641698837e-02" rms="1.7247186601161957e-01" purity="2.2492486238479614e-01" nType="0">
          <Node pos="l" depth="2" NCoef="0" IVar="-1" Cut="0.0000000000000000e+00" cType="1" res="-1.1709769256412983e-02" rms="9.8568350076675415e-02" purity="1.8383331596851349e-01" nType="-99"/>
          <Node pos="r" depth="2" NCoef="0" IVar="-1" Cut="0.0000000000000000e+00" cType="1" res="-3.8918803911656141e-03" rms="1.9771945476531982e-01" purity="2.4627725780010223e-01" nType="-99"/>
        </Node>
      </Node>
    </BinaryTree>
    <BinaryTree type="DecisionTree" boostWeight="1.0000000000000000e+00" itree="1107">
      <Node pos="s" depth="0" NCoef="0" IVar="54" Cut="1.4865821599960327e+00" cType="1" res="1.1076035443693399e-03" rms="2.2846861183643341e-01" purity="5.0029826164245605e-01" nType="0">
        <Node pos="l" depth="1" NCoef="0" IVar="56" Cut="1.4854199886322021e+00" cType="1" res="4.1950643062591553e-03" rms="2.2988249361515045e-01" purity="5.3200197219848633e-01" nType="0">
          <Node pos="l" depth="2" NCoef="0" IVar="-1" Cut="0.0000000000000000e+00" cType="1" res="7.3740351945161819e-04" rms="2.2954767942428589e-01" purity="5.4563480615615845e-01" nType="-99"/>
          <Node pos="r" depth="2" NCoef="0" IVar="-1" Cut="0.0000000000000000e+00" cType="1" res="-8.9780362322926521e-03" rms="2.2696597874164581e-01" purity="5.6115541607141495e-02" nType="-99"/>
        </Node>
        <Node pos="r" depth="1" NCoef="0" IVar="56" Cut="1.4852572679519653e+00" cType="1" res="-4.1672188788652420e-02" rms="2.0311650633811951e-01" purity="6.1011895537376404e-02" nType="0">
          <Node pos="l" depth="2" NCoef="0" IVar="-1" Cut="0.0000000000000000e+00" cType="1" res="-1.0394829325377941e-02" rms="2.4857103824615479e-01" purity="1.0085249692201614e-01" nType="-99"/>
          <Node pos="r" depth="2" NCoef="0" IVar="-1" Cut="0.0000000000000000e+00" cType="1" res="-2.2577007766813040e-03" rms="1.6209498047828674e-01" purity="3.7479303777217865e-02" nType="-99"/>
        </Node>
      </Node>
    </BinaryTree>
    <BinaryTree type="DecisionTree" boostWeight="1.0000000000000000e+00" itree="1108">
      <Node pos="s" depth="0" NCoef="0" IVar="44" Cut="1.2345679104328156e-02" cType="1" res="8.6515781003981829e-04" rms="2.2814965248107910e-01" purity="4.9905800819396973e-01" nType="0">
        <Node pos="l" depth="1" NCoef="0" IVar="56" Cut="1.5240936279296875e+00" cType="1" res="3.4793270751833916e-03" rms="2.2536294162273407e-01" purity="5.1080691814422607e-01" nType="0">
          <Node pos="l" depth="2" NCoef="0" IVar="-1" Cut="0.0000000000000000e+00" cType="1" res="6.8646663567051291e-04" rms="2.2812642157077789e-01" purity="5.3011184930801392e-01" nType="-99"/>
          <Node pos="r" depth="2" NCoef="0" IVar="-1" Cut="0.0000000000000000e+00" cType="1" res="-1.1059871874749660e-02" rms="1.1745999753475189e-01" purity="9.4627561047673225e-03" nType="-99"/>
        </Node>
        <Node pos="r" depth="1" NCoef="0" IVar="26" Cut="-1.1984502077102661e+00" cType="1" res="-4.9906894564628601e-02" rms="2.7182209491729736e-01" purity="2.7087154984474182e-01" nType="0">
          <Node pos="l" depth="2" NCoef="0" IVar="-1" Cut="0.0000000000000000e+00" cType="1" res="-1.2020393274724483e-02" rms="3.0132418870925903e-01" purity="1.8948635458946228e-01" nType="-99"/>
          <Node pos="r" depth="2" NCoef="0" IVar="-1" Cut="0.0000000000000000e+00" cType="1" res="7.1561560616828501e-05" rms="2.1893680095672607e-01" purity="3.7376406788825989e-01" nType="-99"/>
        </Node>
      </Node>
    </BinaryTree>
    <BinaryTree type="DecisionTree" boostWeight="1.0000000000000000e+00" itree="1109">
      <Node pos="s" depth="0" NCoef="0" IVar="45" Cut="1.5231213569641113e+00" cType="1" res="-1.0600782698020339e-03" rms="2.2686664760112762e-01" purity="4.9977129697799683e-01" nType="0">
        <Node pos="l" depth="1" NCoef="0" IVar="14" Cut="-1.0002214461565018e-01" cType="1" res="-2.1523917093873024e-02" rms="1.5873292088508606e-01" purity="1.6097581386566162e-01" nType="0">
          <Node pos="l" depth="2" NCoef="0" IVar="-1" Cut="0.0000000000000000e+00" cType="1" res="-6.1989497393369675e-02" rms="0.0000000000000000e+00" purity="-4.4068619608879089e-02" nType="-99"/>
          <Node pos="r" depth="2" NCoef="0" IVar="-1" Cut="0.0000000000000000e+00" cType="1" res="4.7161080874502659e-04" rms="2.9320576786994934e-01" purity="3.2749307155609131e-01" nType="-99"/>
        </Node>
        <Node pos="r" depth="1" NCoef="0" IVar="2" Cut="1.5517882108688354e+00" cType="1" res="5.4768398404121399e-03" rms="2.4430379271507263e-01" purity="6.0799539089202881e-01" nType="0">
          <Node pos="l" depth="2" NCoef="0" IVar="-1" Cut="0.0000000000000000e+00" cType="1" res="-3.1426465138792992e-03" rms="2.1693074703216553e-01" purity="2.3932412266731262e-01" nType="-99"/>
          <Node pos="r" depth="2" NCoef="0" IVar="-1" Cut="0.0000000000000000e+00" cType="1" res="1.2626113602891564e-03" rms="2.4736918509006500e-01" purity="6.5976512432098389e-01" nType="-99"/>
        </Node>
      </Node>
    </BinaryTree>
    <BinaryTree type="DecisionTree" boostWeight="1.0000000000000000e+00" itree="1110">
      <Node pos="s" depth="0" NCoef="0" IVar="14" Cut="-1.4924203157424927e+00" cType="1" res="1.4164744643494487e-03" rms="2.2486227750778198e-01" purity="5.0054872035980225e-01" nType="0">
        <Node pos="l" depth="1" NCoef="0" IVar="32" Cut="-6.0494333505630493e-01" cType="1" res="-5.1414772868156433e-02" rms="0.0000000000000000e+00" purity="-2.0265050232410431e-02" nType="-99"/>
        <Node pos="r" depth="1" NCoef="0" IVar="34" Cut="1.4852153062820435e+00" cType="1" res="6.3147321343421936e-03" rms="2.5310373306274414e-01" purity="5.9895157814025879e-01" nType="0">
          <Node pos="l" depth="2" NCoef="0" IVar="-1" Cut="0.0000000000000000e+00" cType="1" res="9.0970844030380249e-04" rms="2.5324106216430664e-01" purity="6.2890255451202393e-01" nType="-99"/>
          <Node pos="r" depth="2" NCoef="0" IVar="-1" Cut="0.0000000000000000e+00" cType="1" res="-5.4420791566371918e-03" rms="2.4531555175781250e-01" purity="9.2666082084178925e-02" nType="-99"/>
        </Node>
      </Node>
    </BinaryTree>
    <BinaryTree type="DecisionTree" boostWeight="1.0000000000000000e+00" itree="1111">
      <Node pos="s" depth="0" NCoef="0" IVar="45" Cut="9.1266185045242310e-01" cType="1" res="-4.3904728954657912e-05" rms="2.3188865184783936e-01" purity="4.9597334861755371e-01" nType="0">
        <Node pos="l" depth="1" NCoef="0" IVar="0" Cut="4.7064107656478882e-01" cType="1" res="-3.7058595567941666e-02" rms="3.5522900521755219e-02" purity="4.8487622290849686e-02" nType="0">
          <Node pos="l" depth="2" NCoef="0" IVar="-1" Cut="0.0000000000000000e+00" cType="1" res="-5.2105262875556946e-04" rms="1.7494179308414459e-01" purity="1.3661061227321625e-01" nType="-99"/>
          <Node pos="r" depth="2" NCoef="0" IVar="-1" Cut="0.0000000000000000e+00" cType="1" res="-1.4718672260642052e-02" rms="0.0000000000000000e+00" purity="5.8880895376205444e-03" nType="-99"/>
        </Node>
        <Node pos="r" depth="1" NCoef="0" IVar="4" Cut="3.7641456127166748e+00" cType="1" res="3.6143611650913954e-03" rms="2.4251456558704376e-01" purity="5.4019957780838013e-01" nType="0">
          <Node pos="l" depth="2" NCoef="0" IVar="-1" Cut="0.0000000000000000e+00" cType="1" res="1.6862570773810148e-03" rms="2.3438176512718201e-01" purity="5.2979940176010132e-01" nType="-99"/>
          <Node pos="r" depth="2" NCoef="0" IVar="-1" Cut="0.0000000000000000e+00" cType="1" res="-9.5258158398792148e-04" rms="2.5166234374046326e-01" purity="5.5312544107437134e-01" nType="-99"/>
        </Node>
      </Node>
    </BinaryTree>
    <BinaryTree type="DecisionTree" boostWeight="1.0000000000000000e+00" itree="1112">
      <Node pos="s" depth="0" NCoef="0" IVar="2" Cut="5.6514984369277954e-01" cType="1" res="-9.2908907390665263e-05" rms="2.2961914539337158e-01" purity="5.0156891345977783e-01" nType="0">
        <Node pos="l" depth="1" NCoef="0" IVar="-1" Cut="0.0000000000000000e+00" cType="1" res="-1.1712613515555859e-02" rms="0.0000000000000000e+00" purity="-4.9293085932731628e-02" nType="-99"/>
        <Node pos="r" depth="1" NCoef="0" IVar="65" Cut="7.0739358663558960e-01" cType="1" res="1.8017289694398642e-03" rms="2.3468352854251862e-01" purity="5.1457929611206055e-01" nType="0">
          <Node pos="l" depth="2" NCoef="0" IVar="-1" Cut="0.0000000000000000e+00" cType="1" res="6.5234157955273986e-04" rms="2.4232417345046997e-01" purity="5.5225926637649536e-01" nType="-99"/>
          <Node pos="r" depth="2" NCoef="0" IVar="-1" Cut="0.0000000000000000e+00" cType="1" res="-4.1506388224661350e-03" rms="1.5928892791271210e-01" purity="2.1869474649429321e-01" nType="-99"/>
        </Node>
      </Node>
    </BinaryTree>
    <BinaryTree type="DecisionTree" boostWeight="1.0000000000000000e+00" itree="1113">
      <Node pos="s" depth="0" NCoef="0" IVar="53" Cut="1.4083480834960938e+00" cType="1" res="-2.8659822419285774e-04" rms="2.3068612813949585e-01" purity="4.9972730875015259e-01" nType="0">
        <Node pos="l" depth="1" NCoef="0" IVar="37" Cut="-1.8201446533203125e+00" cType="1" res="1.5339240198954940e-03" rms="2.3305492103099823e-01" purity="5.0907897949218750e-01" nType="0">
          <Node pos="l" depth="2" NCoef="0" IVar="-1" Cut="0.0000000000000000e+00" cType="1" res="1.1251127580180764e-03" rms="2.3846660554409027e-01" purity="5.6742352247238159e-01" nType="-99"/>
          <Node pos="r" depth="2" NCoef="0" IVar="-1" Cut="0.0000000000000000e+00" cType="1" res="-1.4905221760272980e-03" rms="2.2299432754516602e-01" purity="4.1143241524696350e-01" nType="-99"/>
        </Node>
        <Node pos="r" depth="1" NCoef="0" IVar="-1" Cut="0.0000000000000000e+00" cType="1" res="-1.3467216864228249e-02" rms="3.5801213234663010e-02" purity="1.0823360830545425e-01" nType="-99"/>
      </Node>
    </BinaryTree>
    <BinaryTree type="DecisionTree" boostWeight="1.0000000000000000e+00" itree="1114">
      <Node pos="s" depth="0" NCoef="0" IVar="25" Cut="1.1447613239288330e+00" cType="1" res="8.2208076491951942e-04" rms="2.2871956229209900e-01" purity="4.9992352724075317e-01" nType="0">
        <Node pos="l" depth="1" NCoef="0" IVar="29" Cut="2.9249372482299805e+00" cType="1" res="-2.9488570988178253e-02" rms="1.0668057948350906e-01" purity="9.0998336672782898e-02" nType="0">
          <Node pos="l" depth="2" NCoef="0" IVar="-1" Cut="0.0000000000000000e+00" cType="1" res="-9.4459084793925285e-03" rms="0.0000000000000000e+00" purity="4.9671202898025513e-02" nType="-99"/>
          <Node pos="r" depth="2" NCoef="0" IVar="-1" Cut="0.0000000000000000e+00" cType="1" res="3.3509607892483473e-03" rms="2.1380101144313812e-01" purity="2.1830044686794281e-01" nType="-99"/>
        </Node>
        <Node pos="r" depth="1" NCoef="0" IVar="44" Cut="1.2345679104328156e-02" cType="1" res="5.6436378508806229e-03" rms="2.4218657612800598e-01" purity="5.6497186422348022e-01" nType="0">
          <Node pos="l" depth="2" NCoef="0" IVar="-1" Cut="0.0000000000000000e+00" cType="1" res="9.0198306133970618e-04" rms="2.3962019383907318e-01" purity="5.7720482349395752e-01" nType="-99"/>
          <Node pos="r" depth="2" NCoef="0" IVar="-1" Cut="0.0000000000000000e+00" cType="1" res="-4.9261222593486309e-03" rms="2.8352797031402588e-01" purity="3.2359004020690918e-01" nType="-99"/>
        </Node>
      </Node>
    </BinaryTree>
    <BinaryTree type="DecisionTree" boostWeight="1.0000000000000000e+00" itree="1115">
      <Node pos="s" depth="0" NCoef="0" IVar="43" Cut="1.2530517578125000e+00" cType="1" res="2.7388820890337229e-03" rms="2.2675816714763641e-01" purity="4.9983295798301697e-01" nType="0">
        <Node pos="l" depth="1" NCoef="0" IVar="0" Cut="6.8881940841674805e-01" cType="1" res="4.6135592274367809e-03" rms="2.2887630760669708e-01" purity="5.0728285312652588e-01" nType="0">
          <Node pos="l" depth="2" NCoef="0" IVar="-1" Cut="0.0000000000000000e+00" cType="1" res="1.3665629085153341e-03" rms="2.3590448498725891e-01" purity="5.6409364938735962e-01" nType="-99"/>
          <Node pos="r" depth="2" NCoef="0" IVar="-1" Cut="0.0000000000000000e+00" cType="1" res="-1.4824485406279564e-03" rms="2.1185620129108429e-01" purity="3.8363367319107056e-01" nType="-99"/>
        </Node>
        <Node pos="r" depth="1" NCoef="0" IVar="-1" Cut="0.0000000000000000e+00" cType="1" res="-9.8000755533576012e-03" rms="9.7728982567787170e-02" purity="2.1681749820709229e-01" nType="-99"/>
      </Node>
    </BinaryTree>
    <BinaryTree type="DecisionTree" boostWeight="1.0000000000000000e+00" itree="1116">
      <Node pos="s" depth="0" NCoef="0" IVar="17" Cut="-1.3805184364318848e+00" cType="1" res="-2.0482046529650688e-03" rms="2.2923986613750458e-01" purity="4.9996605515480042e-01" nType="0">
        <Node pos="l" depth="1" NCoef="0" IVar="64" Cut="1.2345679104328156e-02" cType="1" res="3.2252226956188679e-03" rms="2.3278814554214478e-01" purity="5.3622752428054810e-01" nType="0">
          <Node pos="l" depth="2" NCoef="0" IVar="-1" Cut="0.0000000000000000e+00" cType="1" res="6.5865780925378203e-04" rms="2.3255065083503723e-01" purity="5.4566431045532227e-01" nType="-99"/>
          <Node pos="r" depth="2" NCoef="0" IVar="-1" Cut="0.0000000000000000e+00" cType="1" res="-7.1173650212585926e-03" rms="2.3044253885746002e-01" purity="3.1159058213233948e-01" nType="-99"/>
        </Node>
        <Node pos="r" depth="1" NCoef="0" IVar="65" Cut="-1.2176305055618286e-01" cType="1" res="-2.5214230641722679e-02" rms="2.1140062808990479e-01" purity="3.4067043662071228e-01" nType="0">
          <Node pos="l" depth="2" NCoef="0" IVar="-1" Cut="0.0000000000000000e+00" cType="1" res="-9.4500835984945297e-03" rms="1.3765992224216461e-01" purity="2.4194985628128052e-01" nType="-99"/>
          <Node pos="r" depth="2" NCoef="0" IVar="-1" Cut="0.0000000000000000e+00" cType="1" res="-2.0248778164386749e-03" rms="2.2157980501651764e-01" purity="3.5930344462394714e-01" nType="-99"/>
        </Node>
      </Node>
    </BinaryTree>
    <BinaryTree type="DecisionTree" boostWeight="1.0000000000000000e+00" itree="1117">
      <Node pos="s" depth="0" NCoef="0" IVar="45" Cut="7.2952395677566528e-01" cType="1" res="2.2888306993991137e-03" rms="2.2982230782508850e-01" purity="4.9959617853164673e-01" nType="0">
        <Node pos="l" depth="1" NCoef="0" IVar="-1" Cut="0.0000000000000000e+00" cType="1" res="-1.4080369845032692e-02" rms="0.0000000000000000e+00" purity="1.2614122591912746e-02" nType="-99"/>
        <Node pos="r" depth="1" NCoef="0" IVar="65" Cut="7.2956109046936035e-01" cType="1" res="4.7674090601503849e-03" rms="2.3625218868255615e-01" purity="5.1936334371566772e-01" nType="0">
          <Node pos="l" depth="2" NCoef="0" IVar="-1" Cut="0.0000000000000000e+00" cType="1" res="9.5564825460314751e-04" rms="2.4420061707496643e-01" purity="5.5346274375915527e-01" nType="-99"/>
          <Node pos="r" depth="2" NCoef="0" IVar="-1" Cut="0.0000000000000000e+00" cType="1" res="-4.5078587718307972e-03" rms="1.3398815691471100e-01" purity="1.9424939155578613e-01" nType="-99"/>
        </Node>
      </Node>
    </BinaryTree>
    <BinaryTree type="DecisionTree" boostWeight="1.0000000000000000e+00" itree="1118">
      <Node pos="s" depth="0" NCoef="0" IVar="2" Cut="5.5746024847030640e-01" cType="1" res="2.1511735394597054e-04" rms="2.2363094985485077e-01" purity="5.0120902061462402e-01" nType="0">
        <Node pos="l" depth="1" NCoef="0" IVar="-1" Cut="0.0000000000000000e+00" cType="1" res="-1.2962712906301022e-02" rms="0.0000000000000000e+00" purity="-5.6618928909301758e-02" nType="-99"/>
        <Node pos="r" depth="1" NCoef="0" IVar="53" Cut="1.4075684547424316e+00" cType="1" res="2.0820605568587780e-03" rms="2.2871412336826324e-01" purity="5.1412671804428101e-01" nType="0">
          <Node pos="l" depth="2" NCoef="0" IVar="-1" Cut="0.0000000000000000e+00" cType="1" res="4.4888650882057846e-04" rms="2.3110622167587280e-01" purity="5.2349239587783813e-01" nType="-99"/>
          <Node pos="r" depth="2" NCoef="0" IVar="-1" Cut="0.0000000000000000e+00" cType="1" res="-1.2193107046186924e-02" rms="1.4503902755677700e-02" purity="1.2086782604455948e-01" nType="-99"/>
        </Node>
      </Node>
    </BinaryTree>
    <BinaryTree type="DecisionTree" boostWeight="1.0000000000000000e+00" itree="1119">
      <Node pos="s" depth="0" NCoef="0" IVar="37" Cut="-1.0521205663681030e+00" cType="1" res="2.8893135022372007e-03" rms="2.2802627086639404e-01" purity="5.0163847208023071e-01" nType="0">
        <Node pos="l" depth="1" NCoef="0" IVar="36" Cut="1.5243083238601685e+00" cType="1" res="7.5355083681643009e-03" rms="2.3274032771587372e-01" purity="5.3243041038513184e-01" nType="0">
          <Node pos="l" depth="2" NCoef="0" IVar="-1" Cut="0.0000000000000000e+00" cType="1" res="1.1210062075406313e-03" rms="2.3387072980403900e-01" purity="5.5222553014755249e-01" nType="-99"/>
          <Node pos="r" depth="2" NCoef="0" IVar="-1" Cut="0.0000000000000000e+00" cType="1" res="-8.3623193204402924e-03" rms="1.9197019934654236e-01" purity="3.0188001692295074e-02" nType="-99"/>
        </Node>
        <Node pos="r" depth="1" NCoef="0" IVar="25" Cut="1.7168687582015991e+00" cType="1" res="-3.2688066363334656e-02" rms="1.8420809507369995e-01" purity="2.6585483551025391e-01" nType="0">
          <Node pos="l" depth="2" NCoef="0" IVar="-1" Cut="0.0000000000000000e+00" cType="1" res="-1.2020970694720745e-02" rms="0.0000000000000000e+00" purity="4.8051338642835617e-02" nType="-99"/>
          <Node pos="r" depth="2" NCoef="0" IVar="-1" Cut="0.0000000000000000e+00" cType="1" res="-1.0053141741082072e-03" rms="2.8103405237197876e-01" purity="4.6056896448135376e-01" nType="-99"/>
        </Node>
      </Node>
    </BinaryTree>
    <BinaryTree type="DecisionTree" boostWeight="1.0000000000000000e+00" itree="1120">
      <Node pos="s" depth="0" NCoef="0" IVar="58" Cut="1.4243488311767578e+00" cType="1" res="3.6172301042824984e-04" rms="2.2756959497928619e-01" purity="4.9780756235122681e-01" nType="0">
        <Node pos="l" depth="1" NCoef="0" IVar="1" Cut="3.9334816932678223e+00" cType="1" res="2.8910299297422171e-03" rms="2.2817480564117432e-01" purity="5.0916755199432373e-01" nType="0">
          <Node pos="l" depth="2" NCoef="0" IVar="-1" Cut="0.0000000000000000e+00" cType="1" res="-1.4847784768790007e-04" rms="2.3397511243820190e-01" purity="4.5711284875869751e-01" nType="-99"/>
          <Node pos="r" depth="2" NCoef="0" IVar="-1" Cut="0.0000000000000000e+00" cType="1" res="4.5299441553652287e-03" rms="1.7834615707397461e-01" purity="8.8251203298568726e-01" nType="-99"/>
        </Node>
        <Node pos="r" depth="1" NCoef="0" IVar="65" Cut="2.8117388486862183e-01" cType="1" res="-5.5609308183193207e-02" rms="2.0593655109405518e-01" purity="2.4642211198806763e-01" nType="0">
          <Node pos="l" depth="2" NCoef="0" IVar="-1" Cut="0.0000000000000000e+00" cType="1" res="-4.2428178712725639e-03" rms="2.4362212419509888e-01" purity="2.6535084843635559e-01" nType="-99"/>
          <Node pos="r" depth="2" NCoef="0" IVar="-1" Cut="0.0000000000000000e+00" cType="1" res="-1.2027387507259846e-02" rms="1.4700174331665039e-01" purity="2.2466824948787689e-01" nType="-99"/>
        </Node>
      </Node>
    </BinaryTree>
    <BinaryTree type="DecisionTree" boostWeight="1.0000000000000000e+00" itree="1121">
      <Node pos="s" depth="0" NCoef="0" IVar="23" Cut="1.0402671098709106e+00" cType="1" res="2.7331965975463390e-04" rms="2.2797133028507233e-01" purity="5.0218331813812256e-01" nType="0">
        <Node pos="l" depth="1" NCoef="0" IVar="32" Cut="-1.5312128067016602e+00" cType="1" res="5.3787846118211746e-03" rms="2.3002900183200836e-01" purity="5.2225148677825928e-01" nType="0">
          <Node pos="l" depth="2" NCoef="0" IVar="-1" Cut="0.0000000000000000e+00" cType="1" res="2.3845238611102104e-03" rms="2.2007443010807037e-01" purity="6.9701361656188965e-01" nType="-99"/>
          <Node pos="r" depth="2" NCoef="0" IVar="-1" Cut="0.0000000000000000e+00" cType="1" res="-4.7681725118309259e-04" rms="2.3609848320484161e-01" purity="4.0292379260063171e-01" nType="-99"/>
        </Node>
        <Node pos="r" depth="1" NCoef="0" IVar="65" Cut="6.1746472120285034e-01" cType="1" res="-2.5366930291056633e-02" rms="2.1552193164825439e-01" purity="4.0139856934547424e-01" nType="0">
          <Node pos="l" depth="2" NCoef="0" IVar="-1" Cut="0.0000000000000000e+00" cType="1" res="-1.6997212078422308e-03" rms="2.3717994987964630e-01" purity="4.5140117406845093e-01" nType="-99"/>
          <Node pos="r" depth="2" NCoef="0" IVar="-1" Cut="0.0000000000000000e+00" cType="1" res="-1.0469001717865467e-02" rms="7.6195046305656433e-02" purity="2.0552243292331696e-01" nType="-99"/>
        </Node>
      </Node>
    </BinaryTree>
    <BinaryTree type="DecisionTree" boostWeight="1.0000000000000000e+00" itree="1122">
      <Node pos="s" depth="0" NCoef="0" IVar="44" Cut="1.2345679104328156e-02" cType="1" res="-1.4324245275929570e-03" rms="2.2806654870510101e-01" purity="4.9618855118751526e-01" nType="0">
        <Node pos="l" depth="1" NCoef="0" IVar="29" Cut="2.7016191482543945e+00" cType="1" res="1.1616905685514212e-03" rms="2.2652640938758850e-01" purity="5.0812298059463501e-01" nType="0">
          <Node pos="l" depth="2" NCoef="0" IVar="-1" Cut="0.0000000000000000e+00" cType="1" res="-2.9602677095681429e-03" rms="2.1168670058250427e-01" purity="3.2770013809204102e-01" nType="-99"/>
          <Node pos="r" depth="2" NCoef="0" IVar="-1" Cut="0.0000000000000000e+00" cType="1" res="7.5614510569721460e-04" rms="2.2944630682468414e-01" purity="5.4941636323928833e-01" nType="-99"/>
        </Node>
        <Node pos="r" depth="1" NCoef="0" IVar="35" Cut="-8.7391984462738037e-01" cType="1" res="-5.1342412829399109e-02" rms="2.5072735548019409e-01" purity="2.6657259464263916e-01" nType="0">
          <Node pos="l" depth="2" NCoef="0" IVar="-1" Cut="0.0000000000000000e+00" cType="1" res="-5.0776096759364009e-04" rms="2.1450486779212952e-01" purity="4.3641275167465210e-01" nType="-99"/>
          <Node pos="r" depth="2" NCoef="0" IVar="-1" Cut="0.0000000000000000e+00" cType="1" res="-1.2175261043012142e-02" rms="2.6890340447425842e-01" purity="1.4424443244934082e-01" nType="-99"/>
        </Node>
      </Node>
    </BinaryTree>
    <BinaryTree type="DecisionTree" boostWeight="1.0000000000000000e+00" itree="1123">
      <Node pos="s" depth="0" NCoef="0" IVar="2" Cut="5.5746024847030640e-01" cType="1" res="1.5094309346750379e-03" rms="2.2620049118995667e-01" purity="5.0108516216278076e-01" nType="0">
        <Node pos="l" depth="1" NCoef="0" IVar="-1" Cut="0.0000000000000000e+00" cType="1" res="-1.3809970580041409e-02" rms="0.0000000000000000e+00" purity="-6.3348896801471710e-02" nType="-99"/>
        <Node pos="r" depth="1" NCoef="0" IVar="65" Cut="7.2957998514175415e-01" cType="1" res="3.6399827804416418e-03" rms="2.3176138103008270e-01" purity="5.1412504911422729e-01" nType="0">
          <Node pos="l" depth="2" NCoef="0" IVar="-1" Cut="0.0000000000000000e+00" cType="1" res="8.5129117360338569e-04" rms="2.3796445131301880e-01" purity="5.4780012369155884e-01" nType="-99"/>
          <Node pos="r" depth="2" NCoef="0" IVar="-1" Cut="0.0000000000000000e+00" cType="1" res="-4.9722767435014248e-03" rms="1.5451815724372864e-01" purity="1.8719446659088135e-01" nType="-99"/>
        </Node>
      </Node>
    </BinaryTree>
    <BinaryTree type="DecisionTree" boostWeight="1.0000000000000000e+00" itree="1124">
      <Node pos="s" depth="0" NCoef="0" IVar="43" Cut="1.1768795251846313e+00" cType="1" res="-2.7804015553556383e-04" rms="2.2731477022171021e-01" purity="4.9895942211151123e-01" nType="0">
        <Node pos="l" depth="1" NCoef="0" IVar="0" Cut="4.0213698148727417e-01" cType="1" res="2.2398661822080612e-03" rms="2.3071171343326569e-01" purity="5.0935012102127075e-01" nType="0">
          <Node pos="l" depth="2" NCoef="0" IVar="-1" Cut="0.0000000000000000e+00" cType="1" res="1.6765575855970383e-03" rms="2.3779602348804474e-01" purity="5.8919680118560791e-01" nType="-99"/>
          <Node pos="r" depth="2" NCoef="0" IVar="-1" Cut="0.0000000000000000e+00" cType="1" res="-9.7497476963326335e-04" rms="2.2441208362579346e-01" purity="4.4606712460517883e-01" nType="-99"/>
        </Node>
        <Node pos="r" depth="1" NCoef="0" IVar="5" Cut="1.9429786205291748e+00" cType="1" res="-5.7871155440807343e-02" rms="1.1234483122825623e-01" purity="2.6128965616226196e-01" nType="0">
          <Node pos="l" depth="2" NCoef="0" IVar="-1" Cut="0.0000000000000000e+00" cType="1" res="-1.7102528363466263e-02" rms="0.0000000000000000e+00" purity="5.9253741055727005e-02" nType="-99"/>
          <Node pos="r" depth="2" NCoef="0" IVar="-1" Cut="0.0000000000000000e+00" cType="1" res="-2.7612317353487015e-03" rms="2.4884101748466492e-01" purity="4.6636086702346802e-01" nType="-99"/>
        </Node>
      </Node>
    </BinaryTree>
    <BinaryTree type="DecisionTree" boostWeight="1.0000000000000000e+00" itree="1125">
      <Node pos="s" depth="0" NCoef="0" IVar="2" Cut="6.6553544998168945e-01" cType="1" res="-6.2820385210216045e-04" rms="2.2859454154968262e-01" purity="5.0018173456192017e-01" nType="0">
        <Node pos="l" depth="1" NCoef="0" IVar="-1" Cut="0.0000000000000000e+00" cType="1" res="-9.1168731451034546e-03" rms="0.0000000000000000e+00" purity="-2.3502189666032791e-02" nType="-99"/>
        <Node pos="r" depth="1" NCoef="0" IVar="25" Cut="7.6241785287857056e-01" cType="1" res="1.2707925634458661e-03" rms="2.3390193283557892e-01" purity="5.1545315980911255e-01" nType="0">
          <Node pos="l" depth="2" NCoef="0" IVar="-1" Cut="0.0000000000000000e+00" cType="1" res="-1.2036285363137722e-02" rms="0.0000000000000000e+00" purity="2.2538416087627411e-02" nType="-99"/>
          <Node pos="r" depth="2" NCoef="0" IVar="-1" Cut="0.0000000000000000e+00" cType="1" res="4.4083525426685810e-04" rms="2.4062709510326385e-01" purity="5.4072469472885132e-01" nType="-99"/>
        </Node>
      </Node>
    </BinaryTree>
    <BinaryTree type="DecisionTree" boostWeight="1.0000000000000000e+00" itree="1126">
      <Node pos="s" depth="0" NCoef="0" IVar="2" Cut="5.5654078722000122e-01" cType="1" res="-1.0558475041761994e-03" rms="2.2570918500423431e-01" purity="4.9823591113090515e-01" nType="0">
        <Node pos="l" depth="1" NCoef="0" IVar="-1" Cut="0.0000000000000000e+00" cType="1" res="-1.5042989514768124e-02" rms="0.0000000000000000e+00" purity="-6.6682420670986176e-02" nType="-99"/>
        <Node pos="r" depth="1" NCoef="0" IVar="53" Cut="1.4083480834960938e+00" cType="1" res="1.0579758090898395e-03" rms="2.3148974776268005e-01" purity="5.1152670383453369e-01" nType="0">
          <Node pos="l" depth="2" NCoef="0" IVar="-1" Cut="0.0000000000000000e+00" cType="1" res="3.3701368374750018e-04" rms="2.3360696434974670e-01" purity="5.2125924825668335e-01" nType="-99"/>
          <Node pos="r" depth="2" NCoef="0" IVar="-1" Cut="0.0000000000000000e+00" cType="1" res="-1.3836240395903587e-02" rms="8.1521280109882355e-02" purity="1.0849346965551376e-01" nType="-99"/>
        </Node>
      </Node>
    </BinaryTree>
    <BinaryTree type="DecisionTree" boostWeight="1.0000000000000000e+00" itree="1127">
      <Node pos="s" depth="0" NCoef="0" IVar="2" Cut="1.7632927894592285e+00" cType="1" res="-2.0995044615119696e-03" rms="2.2593212127685547e-01" purity="4.9837934970855713e-01" nType="0">
        <Node pos="l" depth="1" NCoef="0" IVar="14" Cut="-1.1055796146392822e+00" cType="1" res="-2.2991398349404335e-02" rms="1.6342054307460785e-01" purity="1.8818770349025726e-01" nType="0">
          <Node pos="l" depth="2" NCoef="0" IVar="-1" Cut="0.0000000000000000e+00" cType="1" res="-1.1905577033758163e-01" rms="0.0000000000000000e+00" purity="-6.1466928571462631e-02" nType="-99"/>
          <Node pos="r" depth="2" NCoef="0" IVar="-1" Cut="0.0000000000000000e+00" cType="1" res="3.4016731660813093e-04" rms="2.8715643286705017e-01" purity="3.3858948945999146e-01" nType="-99"/>
        </Node>
        <Node pos="r" depth="1" NCoef="0" IVar="1" Cut="2.1168417930603027e+00" cType="1" res="5.2775731310248375e-03" rms="2.4378488957881927e-01" purity="6.0791027545928955e-01" nType="0">
          <Node pos="l" depth="2" NCoef="0" IVar="-1" Cut="0.0000000000000000e+00" cType="1" res="-1.6047421842813492e-02" rms="0.0000000000000000e+00" purity="-6.6887558205053210e-04" nType="-99"/>
          <Node pos="r" depth="2" NCoef="0" IVar="-1" Cut="0.0000000000000000e+00" cType="1" res="9.2695909552276134e-04" rms="2.5079005956649780e-01" purity="6.3819921016693115e-01" nType="-99"/>
        </Node>
      </Node>
    </BinaryTree>
    <BinaryTree type="DecisionTree" boostWeight="1.0000000000000000e+00" itree="1128">
      <Node pos="s" depth="0" NCoef="0" IVar="37" Cut="-7.2387087345123291e-01" cType="1" res="2.6017188793048263e-04" rms="2.2960203886032104e-01" purity="5.0364291667938232e-01" nType="0">
        <Node pos="l" depth="1" NCoef="0" IVar="44" Cut="1.2345679104328156e-02" cType="1" res="2.9116207733750343e-03" rms="2.3289361596107483e-01" purity="5.2134972810745239e-01" nType="0">
          <Node pos="l" depth="2" NCoef="0" IVar="-1" Cut="0.0000000000000000e+00" cType="1" res="6.2993803294375539e-04" rms="2.3022884130477905e-01" purity="5.3299516439437866e-01" nType="-99"/>
          <Node pos="r" depth="2" NCoef="0" IVar="-1" Cut="0.0000000000000000e+00" cType="1" res="-5.6314729154109955e-03" rms="2.7582299709320068e-01" purity="2.9091352224349976e-01" nType="-99"/>
        </Node>
        <Node pos="r" depth="1" NCoef="0" IVar="12" Cut="-1.3771305084228516e+00" cType="1" res="-4.8473194241523743e-02" rms="1.4910560846328735e-01" purity="1.7819306254386902e-01" nType="0">
          <Node pos="l" depth="2" NCoef="0" IVar="-1" Cut="0.0000000000000000e+00" cType="1" res="-6.2523814849555492e-03" rms="9.3604393303394318e-02" purity="6.8880170583724976e-02" nType="-99"/>
          <Node pos="r" depth="2" NCoef="0" IVar="-1" Cut="0.0000000000000000e+00" cType="1" res="-7.9964715987443924e-03" rms="1.7896983027458191e-01" purity="2.6689878106117249e-01" nType="-99"/>
        </Node>
      </Node>
    </BinaryTree>
    <BinaryTree type="DecisionTree" boostWeight="1.0000000000000000e+00" itree="1129">
      <Node pos="s" depth="0" NCoef="0" IVar="32" Cut="-1.5312128067016602e+00" cType="1" res="1.3365364866331220e-03" rms="2.2926397621631622e-01" purity="5.0024747848510742e-01" nType="0">
        <Node pos="l" depth="1" NCoef="0" IVar="54" Cut="-1.3764466047286987e+00" cType="1" res="1.4875980094075203e-02" rms="2.1708932518959045e-01" purity="6.8701827526092529e-01" nType="0">
          <Node pos="l" depth="2" NCoef="0" IVar="-1" Cut="0.0000000000000000e+00" cType="1" res="3.2367196399718523e-03" rms="1.8068347871303558e-01" purity="7.8728055953979492e-01" nType="-99"/>
          <Node pos="r" depth="2" NCoef="0" IVar="-1" Cut="0.0000000000000000e+00" cType="1" res="-9.1020524268969893e-04" rms="2.9124596714973450e-01" purity="4.2046850919723511e-01" nType="-99"/>
        </Node>
        <Node pos="r" depth="1" NCoef="0" IVar="41" Cut="1.2345679104328156e-02" cType="1" res="-7.4320952408015728e-03" rms="2.3640164732933044e-01" purity="3.7928789854049683e-01" nType="0">
          <Node pos="l" depth="2" NCoef="0" IVar="-1" Cut="0.0000000000000000e+00" cType="1" res="5.8206734247505665e-03" rms="3.2800835371017456e-01" purity="3.6642429232597351e-01" nType="-99"/>
          <Node pos="r" depth="2" NCoef="0" IVar="-1" Cut="0.0000000000000000e+00" cType="1" res="-1.3377811992540956e-03" rms="2.2858558595180511e-01" purity="3.8012400269508362e-01" nType="-99"/>
        </Node>
      </Node>
    </BinaryTree>
    <BinaryTree type="DecisionTree" boostWeight="1.0000000000000000e+00" itree="1130">
      <Node pos="s" depth="0" NCoef="0" IVar="57" Cut="-1.8792200088500977e+00" cType="1" res="3.6725460086017847e-03" rms="2.3116305470466614e-01" purity="5.0083547830581665e-01" nType="0">
        <Node pos="l" depth="1" NCoef="0" IVar="54" Cut="1.4479401111602783e+00" cType="1" res="1.4338866807520390e-02" rms="2.3789355158805847e-01" purity="5.6389170885086060e-01" nType="0">
          <Node pos="l" depth="2" NCoef="0" IVar="-1" Cut="0.0000000000000000e+00" cType="1" res="2.0851748995482922e-03" rms="2.3742106556892395e-01" purity="6.0533457994461060e-01" nType="-99"/>
          <Node pos="r" depth="2" NCoef="0" IVar="-1" Cut="0.0000000000000000e+00" cType="1" res="-4.7959205694496632e-03" rms="2.3839293420314789e-01" purity="8.6339630186557770e-02" nType="-99"/>
        </Node>
        <Node pos="r" depth="1" NCoef="0" IVar="5" Cut="1.3087985515594482e+00" cType="1" res="-1.2005638331174850e-02" rms="2.1996124088764191e-01" purity="4.0815046429634094e-01" nType="0">
          <Node pos="l" depth="2" NCoef="0" IVar="-1" Cut="0.0000000000000000e+00" cType="1" res="-9.7428541630506516e-03" rms="0.0000000000000000e+00" purity="9.2826925218105316e-02" nType="-99"/>
          <Node pos="r" depth="2" NCoef="0" IVar="-1" Cut="0.0000000000000000e+00" cType="1" res="-4.3688371079042554e-04" rms="2.4675865471363068e-01" purity="4.7284421324729919e-01" nType="-99"/>
        </Node>
      </Node>
    </BinaryTree>
    <BinaryTree type="DecisionTree" boostWeight="1.0000000000000000e+00" itree="1131">
      <Node pos="s" depth="0" NCoef="0" IVar="23" Cut="1.1362532377243042e+00" cType="1" res="1.1365610407665372e-03" rms="2.2629664838314056e-01" purity="5.0156348943710327e-01" nType="0">
        <Node pos="l" depth="1" NCoef="0" IVar="25" Cut="7.0276463031768799e-01" cType="1" res="3.8621479179710150e-03" rms="2.2772172093391418e-01" purity="5.1382833719253540e-01" nType="0">
          <Node pos="l" depth="2" NCoef="0" IVar="-1" Cut="0.0000000000000000e+00" cType="1" res="-1.4946454204618931e-02" rms="0.0000000000000000e+00" purity="1.2698993086814880e-02" nType="-99"/>
          <Node pos="r" depth="2" NCoef="0" IVar="-1" Cut="0.0000000000000000e+00" cType="1" res="6.7737337667495012e-04" rms="2.3257629573345184e-01" purity="5.2952027320861816e-01" nType="-99"/>
        </Node>
        <Node pos="r" depth="1" NCoef="0" IVar="5" Cut="1.5922303199768066e+00" cType="1" res="-4.2578414082527161e-02" rms="1.9698444008827209e-01" purity="3.0485117435455322e-01" nType="0">
          <Node pos="l" depth="2" NCoef="0" IVar="-1" Cut="0.0000000000000000e+00" cType="1" res="-1.5513633377850056e-02" rms="0.0000000000000000e+00" purity="4.7660332173109055e-02" nType="-99"/>
          <Node pos="r" depth="2" NCoef="0" IVar="-1" Cut="0.0000000000000000e+00" cType="1" res="-2.5745132006704807e-03" rms="2.5608623027801514e-01" purity="4.4720152020454407e-01" nType="-99"/>
        </Node>
      </Node>
    </BinaryTree>
    <BinaryTree type="DecisionTree" boostWeight="1.0000000000000000e+00" itree="1132">
      <Node pos="s" depth="0" NCoef="0" IVar="29" Cut="2.4295046329498291e+00" cType="1" res="-4.2271846905350685e-04" rms="2.2577458620071411e-01" purity="5.0039660930633545e-01" nType="0">
        <Node pos="l" depth="1" NCoef="0" IVar="40" Cut="-6.8037904798984528e-02" cType="1" res="-4.0619984269142151e-02" rms="1.7209465801715851e-01" purity="2.1991686522960663e-01" nType="0">
          <Node pos="l" depth="2" NCoef="0" IVar="-1" Cut="0.0000000000000000e+00" cType="1" res="-2.2987849079072475e-03" rms="2.2566916048526764e-01" purity="2.5934049487113953e-01" nType="-99"/>
          <Node pos="r" depth="2" NCoef="0" IVar="-1" Cut="0.0000000000000000e+00" cType="1" res="-1.3325406238436699e-02" rms="0.0000000000000000e+00" purity="1.5310741961002350e-01" nType="-99"/>
        </Node>
        <Node pos="r" depth="1" NCoef="0" IVar="44" Cut="1.2345679104328156e-02" cType="1" res="2.9507472645491362e-03" rms="2.2938954830169678e-01" purity="5.2393519878387451e-01" nType="0">
          <Node pos="l" depth="2" NCoef="0" IVar="-1" Cut="0.0000000000000000e+00" cType="1" res="6.6079938551411033e-04" rms="2.2696164250373840e-01" purity="5.3672248125076294e-01" nType="-99"/>
          <Node pos="r" depth="2" NCoef="0" IVar="-1" Cut="0.0000000000000000e+00" cType="1" res="-6.3035730272531509e-03" rms="2.6690694689750671e-01" purity="2.7476331591606140e-01" nType="-99"/>
        </Node>
      </Node>
    </BinaryTree>
    <BinaryTree type="DecisionTree" boostWeight="1.0000000000000000e+00" itree="1133">
      <Node pos="s" depth="0" NCoef="0" IVar="12" Cut="1.5168834924697876e+00" cType="1" res="-1.3995122862979770e-03" rms="2.2584806382656097e-01" purity="4.9753394722938538e-01" nType="0">
        <Node pos="l" depth="1" NCoef="0" IVar="37" Cut="-1.7905484437942505e+00" cType="1" res="-7.7838380821049213e-03" rms="2.2750547528266907e-01" purity="4.1833025217056274e-01" nType="0">
          <Node pos="l" depth="2" NCoef="0" IVar="-1" Cut="0.0000000000000000e+00" cType="1" res="1.8011414795182645e-04" rms="2.3993875086307526e-01" purity="4.7832322120666504e-01" nType="-99"/>
          <Node pos="r" depth="2" NCoef="0" IVar="-1" Cut="0.0000000000000000e+00" cType="1" res="-3.0803079716861248e-03" rms="2.0367391407489777e-01" purity="3.1638854742050171e-01" nType="-99"/>
        </Node>
        <Node pos="r" depth="1" NCoef="0" IVar="14" Cut="1.5264831781387329e+00" cType="1" res="1.9402353093028069e-02" rms="2.1907438337802887e-01" purity="7.5560110807418823e-01" nType="0">
          <Node pos="l" depth="2" NCoef="0" IVar="-1" Cut="0.0000000000000000e+00" cType="1" res="-2.3206905461847782e-03" rms="2.5556242465972900e-01" purity="5.6538879871368408e-01" nType="-99"/>
          <Node pos="r" depth="2" NCoef="0" IVar="-1" Cut="0.0000000000000000e+00" cType="1" res="2.9834811575710773e-03" rms="2.1071960031986237e-01" purity="7.9074275493621826e-01" nType="-99"/>
        </Node>
      </Node>
    </BinaryTree>
    <BinaryTree type="DecisionTree" boostWeight="1.0000000000000000e+00" itree="1134">
      <Node pos="s" depth="0" NCoef="0" IVar="25" Cut="1.3226590156555176e+00" cType="1" res="-1.3652292545884848e-03" rms="2.2490812838077545e-01" purity="5.0014060735702515e-01" nType="0">
        <Node pos="l" depth="1" NCoef="0" IVar="29" Cut="3.1891093254089355e+00" cType="1" res="-2.7043618261814117e-02" rms="1.3426823914051056e-01" purity="1.2449431419372559e-01" nType="0">
          <Node pos="l" depth="2" NCoef="0" IVar="-1" Cut="0.0000000000000000e+00" cType="1" res="-6.9745816290378571e-03" rms="9.7097612917423248e-02" purity="9.4530411064624786e-02" nType="-99"/>
          <Node pos="r" depth="2" NCoef="0" IVar="-1" Cut="0.0000000000000000e+00" cType="1" res="4.4229547493159771e-03" rms="2.3499244451522827e-01" purity="2.7237719297409058e-01" nType="-99"/>
        </Node>
        <Node pos="r" depth="1" NCoef="0" IVar="4" Cut="3.6952519416809082e+00" cType="1" res="4.3072812259197235e-03" rms="2.3999495804309845e-01" purity="5.8312320709228516e-01" nType="0">
          <Node pos="l" depth="2" NCoef="0" IVar="-1" Cut="0.0000000000000000e+00" cType="1" res="2.5171134620904922e-03" rms="2.3094673454761505e-01" purity="5.7203412055969238e-01" nType="-99"/>
          <Node pos="r" depth="2" NCoef="0" IVar="-1" Cut="0.0000000000000000e+00" cType="1" res="-9.3953614123165607e-04" rms="2.4612474441528320e-01" purity="5.9191066026687622e-01" nType="-99"/>
        </Node>
      </Node>
    </BinaryTree>
    <BinaryTree type="DecisionTree" boostWeight="1.0000000000000000e+00" itree="1135">
      <Node pos="s" depth="0" NCoef="0" IVar="34" Cut="1.4860318899154663e+00" cType="1" res="5.2251393208280206e-04" rms="2.2493056952953339e-01" purity="4.9885031580924988e-01" nType="0">
        <Node pos="l" depth="1" NCoef="0" IVar="36" Cut="1.4851015806198120e+00" cType="1" res="3.6762123927474022e-03" rms="2.2769448161125183e-01" purity="5.2980488538742065e-01" nType="0">
          <Node pos="l" depth="2" NCoef="0" IVar="-1" Cut="0.0000000000000000e+00" cType="1" res="7.1587180718779564e-04" rms="2.2658300399780273e-01" purity="5.4367017745971680e-01" nType="-99"/>
          <Node pos="r" depth="2" NCoef="0" IVar="-1" Cut="0.0000000000000000e+00" cType="1" res="-8.7574226781725883e-03" rms="2.4753829836845398e-01" purity="6.5341994166374207e-02" nType="-99"/>
        </Node>
        <Node pos="r" depth="1" NCoef="0" IVar="3" Cut="4.6249217987060547e+00" cType="1" res="-4.4780377298593521e-02" rms="1.7443542182445526e-01" purity="5.4188128560781479e-02" nType="0">
          <Node pos="l" depth="2" NCoef="0" IVar="-1" Cut="0.0000000000000000e+00" cType="1" res="3.5758251324295998e-03" rms="2.3616474866867065e-01" purity="7.7227681875228882e-02" nType="-99"/>
          <Node pos="r" depth="2" NCoef="0" IVar="-1" Cut="0.0000000000000000e+00" cType="1" res="-1.2104217894375324e-02" rms="1.2217979133129120e-01" purity="4.2722448706626892e-02" nType="-99"/>
        </Node>
      </Node>
    </BinaryTree>
    <BinaryTree type="DecisionTree" boostWeight="1.0000000000000000e+00" itree="1136">
      <Node pos="s" depth="0" NCoef="0" IVar="2" Cut="5.5746024847030640e-01" cType="1" res="-5.4177636047825217e-04" rms="2.2387841343879700e-01" purity="5.0104081630706787e-01" nType="0">
        <Node pos="l" depth="1" NCoef="0" IVar="-1" Cut="0.0000000000000000e+00" cType="1" res="-1.2215190567076206e-02" rms="0.0000000000000000e+00" purity="-4.8118796199560165e-02" nType="-99"/>
        <Node pos="r" depth="1" NCoef="0" IVar="34" Cut="1.4860318899154663e+00" cType="1" res="1.2207545805722475e-03" rms="2.2887693345546722e-01" purity="5.1384860277175903e-01" nType="0">
          <Node pos="l" depth="2" NCoef="0" IVar="-1" Cut="0.0000000000000000e+00" cType="1" res="4.7242929576896131e-04" rms="2.3122790455818176e-01" purity="5.4623502492904663e-01" nType="-99"/>
          <Node pos="r" depth="2" NCoef="0" IVar="-1" Cut="0.0000000000000000e+00" cType="1" res="-6.7814220674335957e-03" rms="1.8807671964168549e-01" purity="5.7372864335775375e-02" nType="-99"/>
        </Node>
      </Node>
    </BinaryTree>
    <BinaryTree type="DecisionTree" boostWeight="1.0000000000000000e+00" itree="1137">
      <Node pos="s" depth="0" NCoef="0" IVar="2" Cut="1.1023997068405151e+00" cType="1" res="7.8941183164715767e-04" rms="2.2871090471744537e-01" purity="4.9953231215476990e-01" nType="0">
        <Node pos="l" depth="1" NCoef="0" IVar="5" Cut="1.6987336874008179e+00" cType="1" res="-5.1359433680772781e-02" rms="6.5076895058155060e-02" purity="6.7522145807743073e-02" nType="0">
          <Node pos="l" depth="2" NCoef="0" IVar="-1" Cut="0.0000000000000000e+00" cType="1" res="-1.8784132553264499e-03" rms="1.5021240711212158e-01" purity="7.4878640472888947e-02" nType="-99"/>
          <Node pos="r" depth="2" NCoef="0" IVar="-1" Cut="0.0000000000000000e+00" cType="1" res="-8.7916171178221703e-03" rms="0.0000000000000000e+00" purity="5.8022063225507736e-02" nType="-99"/>
        </Node>
        <Node pos="r" depth="1" NCoef="0" IVar="43" Cut="1.1525523662567139e+00" cType="1" res="4.2695170268416405e-03" rms="2.3520892858505249e-01" purity="5.2836209535598755e-01" nType="0">
          <Node pos="l" depth="2" NCoef="0" IVar="-1" Cut="0.0000000000000000e+00" cType="1" res="8.1543769920244813e-04" rms="2.3692831397056580e-01" purity="5.3927099704742432e-01" nType="-99"/>
          <Node pos="r" depth="2" NCoef="0" IVar="-1" Cut="0.0000000000000000e+00" cType="1" res="-5.7855802588164806e-03" rms="1.9325920939445496e-01" purity="3.2166472077369690e-01" nType="-99"/>
        </Node>
      </Node>
    </BinaryTree>
    <BinaryTree type="DecisionTree" boostWeight="1.0000000000000000e+00" itree="1138">
      <Node pos="s" depth="0" NCoef="0" IVar="65" Cut="7.5189441442489624e-01" cType="1" res="1.2354725040495396e-03" rms="2.2738589346408844e-01" purity="5.0091874599456787e-01" nType="0">
        <Node pos="l" depth="1" NCoef="0" IVar="4" Cut="3.7751817703247070e+00" cType="1" res="4.4691893272101879e-03" rms="2.3439235985279083e-01" purity="5.2889466285705566e-01" nType="0">
          <Node pos="l" depth="2" NCoef="0" IVar="-1" Cut="0.0000000000000000e+00" cType="1" res="1.7949484754353762e-03" rms="2.2266645729541779e-01" purity="5.1497298479080200e-01" nType="-99"/>
          <Node pos="r" depth="2" NCoef="0" IVar="-1" Cut="0.0000000000000000e+00" cType="1" res="-9.2717015650123358e-04" rms="2.4920077621936798e-01" purity="5.4830569028854370e-01" nType="-99"/>
        </Node>
        <Node pos="r" depth="1" NCoef="0" IVar="14" Cut="1.2517395019531250e+00" cType="1" res="-3.8767844438552856e-02" rms="9.9750801920890808e-02" purity="1.5483710169792175e-01" nType="0">
          <Node pos="l" depth="2" NCoef="0" IVar="-1" Cut="0.0000000000000000e+00" cType="1" res="-1.6055980697274208e-02" rms="0.0000000000000000e+00" purity="-6.7641236819326878e-03" nType="-99"/>
          <Node pos="r" depth="2" NCoef="0" IVar="-1" Cut="0.0000000000000000e+00" cType="1" res="1.6174939228221774e-03" rms="2.7486118674278259e-01" purity="5.4807287454605103e-01" nType="-99"/>
        </Node>
      </Node>
    </BinaryTree>
    <BinaryTree type="DecisionTree" boostWeight="1.0000000000000000e+00" itree="1139">
      <Node pos="s" depth="0" NCoef="0" IVar="45" Cut="7.7749675512313843e-01" cType="1" res="2.5259051471948624e-04" rms="2.3053731024265289e-01" purity="4.9823296070098877e-01" nType="0">
        <Node pos="l" depth="1" NCoef="0" IVar="17" Cut="-1.7777086496353149e+00" cType="1" res="-1.1060641147196293e-02" rms="0.0000000000000000e+00" purity="2.8676880523562431e-02" nType="-99"/>
        <Node pos="r" depth="1" NCoef="0" IVar="64" Cut="1.2345679104328156e-02" cType="1" res="2.8006515931338072e-03" rms="2.3799972236156464e-01" purity="5.2529704570770264e-01" nType="0">
          <Node pos="l" depth="2" NCoef="0" IVar="-1" Cut="0.0000000000000000e+00" cType="1" res="5.8512634132057428e-04" rms="2.3764958977699280e-01" purity="5.3530156612396240e-01" nType="-99"/>
          <Node pos="r" depth="2" NCoef="0" IVar="-1" Cut="0.0000000000000000e+00" cType="1" res="-6.3984473235905170e-03" rms="2.3987379670143127e-01" purity="2.9165831208229065e-01" nType="-99"/>
        </Node>
      </Node>
    </BinaryTree>
    <BinaryTree type="DecisionTree" boostWeight="1.0000000000000000e+00" itree="1140">
      <Node pos="s" depth="0" NCoef="0" IVar="2" Cut="5.6514984369277954e-01" cType="1" res="-6.4504703914280981e-05" rms="2.2470925748348236e-01" purity="5.0025522708892822e-01" nType="0">
        <Node pos="l" depth="1" NCoef="0" IVar="-1" Cut="0.0000000000000000e+00" cType="1" res="-1.2077788822352886e-02" rms="0.0000000000000000e+00" purity="-4.4600117951631546e-02" nType="-99"/>
        <Node pos="r" depth="1" NCoef="0" IVar="0" Cut="2.8189802169799805e-01" cType="1" res="1.6676062950864434e-03" rms="2.2965550422668457e-01" purity="5.1353359222412109e-01" nType="0">
          <Node pos="l" depth="2" NCoef="0" IVar="-1" Cut="0.0000000000000000e+00" cType="1" res="1.9277659012004733e-03" rms="2.3734182119369507e-01" purity="6.0885608196258545e-01" nType="-99"/>
          <Node pos="r" depth="2" NCoef="0" IVar="-1" Cut="0.0000000000000000e+00" cType="1" res="-8.1481365486979485e-04" rms="2.2509001195430756e-01" purity="4.6378701925277710e-01" nType="-99"/>
        </Node>
      </Node>
    </BinaryTree>
    <BinaryTree type="DecisionTree" boostWeight="1.0000000000000000e+00" itree="1141">
      <Node pos="s" depth="0" NCoef="0" IVar="20" Cut="6.4714471809566021e-03" cType="1" res="-9.8313065245747566e-04" rms="2.2550562024116516e-01" purity="5.0013273954391479e-01" nType="0">
        <Node pos="l" depth="1" NCoef="0" IVar="5" Cut="8.4842032194137573e-01" cType="1" res="6.5763425081968307e-03" rms="2.3770815134048462e-01" purity="5.1911556720733643e-01" nType="0">
          <Node pos="l" depth="2" NCoef="0" IVar="-1" Cut="0.0000000000000000e+00" cType="1" res="-8.5869655013084412e-03" rms="0.0000000000000000e+00" purity="8.8320851325988770e-02" nType="-99"/>
          <Node pos="r" depth="2" NCoef="0" IVar="-1" Cut="0.0000000000000000e+00" cType="1" res="1.0597064392641187e-03" rms="2.4466656148433685e-01" purity="5.4415220022201538e-01" nType="-99"/>
        </Node>
        <Node pos="r" depth="1" NCoef="0" IVar="45" Cut="2.2680203914642334e+00" cType="1" res="-1.8383657559752464e-02" rms="1.9341078400611877e-01" purity="4.5643761754035950e-01" nType="0">
          <Node pos="l" depth="2" NCoef="0" IVar="-1" Cut="0.0000000000000000e+00" cType="1" res="-5.1419106312096119e-03" rms="1.4754241704940796e-01" purity="2.5039824843406677e-01" nType="-99"/>
          <Node pos="r" depth="2" NCoef="0" IVar="-1" Cut="0.0000000000000000e+00" cType="1" res="5.3179846145212650e-04" rms="2.3447920382022858e-01" purity="7.0089709758758545e-01" nType="-99"/>
        </Node>
      </Node>
    </BinaryTree>
    <BinaryTree type="DecisionTree" boostWeight="1.0000000000000000e+00" itree="1142">
      <Node pos="s" depth="0" NCoef="0" IVar="2" Cut="5.2055102586746216e-01" cType="1" res="-2.5443342747166753e-04" rms="2.2395564615726471e-01" purity="5.0016158819198608e-01" nType="0">
        <Node pos="l" depth="1" NCoef="0" IVar="-1" Cut="0.0000000000000000e+00" cType="1" res="-1.5487838536500931e-02" rms="0.0000000000000000e+00" purity="-6.5651975572109222e-02" nType="-99"/>
        <Node pos="r" depth="1" NCoef="0" IVar="1" Cut="2.0466134548187256e+00" cType="1" res="1.7092458438128233e-03" rms="2.2953853011131287e-01" purity="5.1259315013885498e-01" nType="0">
          <Node pos="l" depth="2" NCoef="0" IVar="-1" Cut="0.0000000000000000e+00" cType="1" res="-1.0224035941064358e-02" rms="0.0000000000000000e+00" purity="7.7266073785722256e-03" nType="-99"/>
          <Node pos="r" depth="2" NCoef="0" IVar="-1" Cut="0.0000000000000000e+00" cType="1" res="6.0191639931872487e-04" rms="2.4840031564235687e-01" purity="5.7767176628112793e-01" nType="-99"/>
        </Node>
      </Node>
    </BinaryTree>
    <BinaryTree type="DecisionTree" boostWeight="1.0000000000000000e+00" itree="1143">
      <Node pos="s" depth="0" NCoef="0" IVar="64" Cut="1.2345679104328156e-02" cType="1" res="-1.6812160611152649e-03" rms="2.2330202162265778e-01" purity="4.9794611334800720e-01" nType="0">
        <Node pos="l" depth="1" NCoef="0" IVar="34" Cut="2.8690946102142334e-01" cType="1" res="6.4880528952926397e-04" rms="2.2356797754764557e-01" purity="5.0755012035369873e-01" nType="0">
          <Node pos="l" depth="2" NCoef="0" IVar="-1" Cut="0.0000000000000000e+00" cType="1" res="6.8768218625336885e-04" rms="2.2165916860103607e-01" purity="5.7797509431838989e-01" nType="-99"/>
          <Node pos="r" depth="2" NCoef="0" IVar="-1" Cut="0.0000000000000000e+00" cType="1" res="-2.8069040272384882e-03" rms="2.3058634996414185e-01" purity="1.8629322946071625e-01" nType="-99"/>
        </Node>
        <Node pos="r" depth="1" NCoef="0" IVar="46" Cut="-1.1389017105102539e+00" cType="1" res="-5.4232005029916763e-02" rms="2.1047410368919373e-01" purity="2.8133982419967651e-01" nType="0">
          <Node pos="l" depth="2" NCoef="0" IVar="-1" Cut="0.0000000000000000e+00" cType="1" res="-1.4952092431485653e-02" rms="1.8487520515918732e-01" purity="1.6124248504638672e-01" nType="-99"/>
          <Node pos="r" depth="2" NCoef="0" IVar="-1" Cut="0.0000000000000000e+00" cType="1" res="5.8993813581764698e-04" rms="2.1971471607685089e-01" purity="4.0871804952621460e-01" nType="-99"/>
        </Node>
      </Node>
    </BinaryTree>
    <BinaryTree type="DecisionTree" boostWeight="1.0000000000000000e+00" itree="1144">
      <Node pos="s" depth="0" NCoef="0" IVar="18" Cut="1.3901216983795166e+00" cType="1" res="5.8968446683138609e-04" rms="2.2628454864025116e-01" purity="4.9906554818153381e-01" nType="0">
        <Node pos="l" depth="1" NCoef="0" IVar="56" Cut="1.4467463493347168e+00" cType="1" res="3.0294531024992466e-03" rms="2.2708798944950104e-01" purity="5.0861233472824097e-01" nType="0">
          <Node pos="l" depth="2" NCoef="0" IVar="-1" Cut="0.0000000000000000e+00" cType="1" res="7.6337449718266726e-04" rms="2.3000158369541168e-01" purity="5.4955577850341797e-01" nType="-99"/>
          <Node pos="r" depth="2" NCoef="0" IVar="-1" Cut="0.0000000000000000e+00" cType="1" res="-5.5837254039943218e-03" rms="1.8812750279903412e-01" purity="6.3219912350177765e-02" nType="-99"/>
        </Node>
        <Node pos="r" depth="1" NCoef="0" IVar="4" Cut="3.6490914821624756e+00" cType="1" res="-5.4433397948741913e-02" rms="1.9956941902637482e-01" purity="2.8376054763793945e-01" nType="0">
          <Node pos="l" depth="2" NCoef="0" IVar="-1" Cut="0.0000000000000000e+00" cType="1" res="-5.7682162150740623e-03" rms="1.9711771607398987e-01" purity="2.4917520582675934e-01" nType="-99"/>
          <Node pos="r" depth="2" NCoef="0" IVar="-1" Cut="0.0000000000000000e+00" cType="1" res="-8.1107588484883308e-03" rms="2.0084391534328461e-01" purity="3.2196542620658875e-01" nType="-99"/>
        </Node>
      </Node>
    </BinaryTree>
    <BinaryTree type="DecisionTree" boostWeight="1.0000000000000000e+00" itree="1145">
      <Node pos="s" depth="0" NCoef="0" IVar="41" Cut="1.2345679104328156e-02" cType="1" res="2.4123233743011951e-04" rms="2.2808890044689178e-01" purity="4.9903687834739685e-01" nType="0">
        <Node pos="l" depth="1" NCoef="0" IVar="49" Cut="3.0653171539306641e+00" cType="1" res="5.2295565605163574e-02" rms="3.1770408153533936e-01" purity="3.6658170819282532e-01" nType="0">
          <Node pos="l" depth="2" NCoef="0" IVar="-1" Cut="0.0000000000000000e+00" cType="1" res="2.2024619393050671e-03" rms="2.8843709826469421e-01" purity="2.9898944497108459e-01" nType="-99"/>
          <Node pos="r" depth="2" NCoef="0" IVar="-1" Cut="0.0000000000000000e+00" cType="1" res="8.5510974749922752e-03" rms="3.4107464551925659e-01" purity="4.3437027931213379e-01" nType="-99"/>
        </Node>
        <Node pos="r" depth="1" NCoef="0" IVar="32" Cut="-1.5268552303314209e+00" cType="1" res="-2.0280419848859310e-03" rms="2.2308969497680664e-01" purity="5.0481116771697998e-01" nType="0">
          <Node pos="l" depth="2" NCoef="0" IVar="-1" Cut="0.0000000000000000e+00" cType="1" res="1.3949314597994089e-03" rms="2.1981029212474823e-01" purity="6.7225736379623413e-01" nType="-99"/>
          <Node pos="r" depth="2" NCoef="0" IVar="-1" Cut="0.0000000000000000e+00" cType="1" res="-1.5356787480413914e-03" rms="2.2512339055538177e-01" purity="3.6822953820228577e-01" nType="-99"/>
        </Node>
      </Node>
    </BinaryTree>
    <BinaryTree type="DecisionTree" boostWeight="1.0000000000000000e+00" itree="1146">
      <Node pos="s" depth="0" NCoef="0" IVar="65" Cut="7.2957998514175415e-01" cType="1" res="-5.8587355306372046e-04" rms="2.2913730144500732e-01" purity="5.0032281875610352e-01" nType="0">
        <Node pos="l" depth="1" NCoef="0" IVar="22" Cut="1.2345679104328156e-02" cType="1" res="2.9934619087725878e-03" rms="2.3632052540779114e-01" purity="5.3344684839248657e-01" nType="0">
          <Node pos="l" depth="2" NCoef="0" IVar="-1" Cut="0.0000000000000000e+00" cType="1" res="3.4754420630633831e-03" rms="2.0503559708595276e-01" purity="5.5490761995315552e-01" nType="-99"/>
          <Node pos="r" depth="2" NCoef="0" IVar="-1" Cut="0.0000000000000000e+00" cType="1" res="-2.6164329028688371e-04" rms="2.4247629940509796e-01" purity="5.2862697839736938e-01" nType="-99"/>
        </Node>
        <Node pos="r" depth="1" NCoef="0" IVar="14" Cut="1.3291835784912109e+00" cType="1" res="-3.4761939197778702e-02" rms="1.3888636231422424e-01" purity="1.8404826521873474e-01" nType="0">
          <Node pos="l" depth="2" NCoef="0" IVar="-1" Cut="0.0000000000000000e+00" cType="1" res="-1.2904173694550991e-02" rms="0.0000000000000000e+00" purity="8.6518535390496254e-03" nType="-99"/>
          <Node pos="r" depth="2" NCoef="0" IVar="-1" Cut="0.0000000000000000e+00" cType="1" res="8.4820255869999528e-04" rms="2.7780959010124207e-01" purity="5.8824414014816284e-01" nType="-99"/>
        </Node>
      </Node>
    </BinaryTree>
    <BinaryTree type="DecisionTree" boostWeight="1.0000000000000000e+00" itree="1147">
      <Node pos="s" depth="0" NCoef="0" IVar="65" Cut="7.5197696685791016e-01" cType="1" res="1.8970234086737037e-03" rms="2.2240385413169861e-01" purity="5.0153547525405884e-01" nType="0">
        <Node pos="l" depth="1" NCoef="0" IVar="2" Cut="8.3301770687103271e-01" cType="1" res="5.4260408505797386e-03" rms="2.2873669862747192e-01" purity="5.3004866838455200e-01" nType="0">
          <Node pos="l" depth="2" NCoef="0" IVar="-1" Cut="0.0000000000000000e+00" cType="1" res="-6.9273640401661396e-03" rms="0.0000000000000000e+00" purity="7.1284282021224499e-03" nType="-99"/>
          <Node pos="r" depth="2" NCoef="0" IVar="-1" Cut="0.0000000000000000e+00" cType="1" res="9.1425562277436256e-04" rms="2.3412996530532837e-01" purity="5.5155187845230103e-01" nType="-99"/>
        </Node>
        <Node pos="r" depth="1" NCoef="0" IVar="14" Cut="1.2518775463104248e+00" cType="1" res="-4.2121689766645432e-02" rms="1.0832399874925613e-01" purity="1.4587964117527008e-01" nType="0">
          <Node pos="l" depth="2" NCoef="0" IVar="-1" Cut="0.0000000000000000e+00" cType="1" res="-1.5756264328956604e-02" rms="0.0000000000000000e+00" purity="-4.7758151777088642e-03" nType="-99"/>
          <Node pos="r" depth="2" NCoef="0" IVar="-1" Cut="0.0000000000000000e+00" cType="1" res="4.9316691001877189e-04" rms="2.6440900564193726e-01" purity="5.2625524997711182e-01" nType="-99"/>
        </Node>
      </Node>
    </BinaryTree>
    <BinaryTree type="DecisionTree" boostWeight="1.0000000000000000e+00" itree="1148">
      <Node pos="s" depth="0" NCoef="0" IVar="36" Cut="1.5242767333984375e+00" cType="1" res="1.9935443997383118e-03" rms="2.3210985958576202e-01" purity="5.0155681371688843e-01" nType="0">
        <Node pos="l" depth="1" NCoef="0" IVar="53" Cut="1.4075684547424316e+00" cType="1" res="4.2351456359028816e-03" rms="2.3404189944267273e-01" purity="5.2023506164550781e-01" nType="0">
          <Node pos="l" depth="2" NCoef="0" IVar="-1" Cut="0.0000000000000000e+00" cType="1" res="7.0673599839210510e-04" rms="2.3615509271621704e-01" purity="5.3007304668426514e-01" nType="-99"/>
          <Node pos="r" depth="2" NCoef="0" IVar="-1" Cut="0.0000000000000000e+00" cType="1" res="-1.1805822141468525e-02" rms="9.2459492385387421e-02" purity="1.1785380542278290e-01" nType="-99"/>
        </Node>
        <Node pos="r" depth="1" NCoef="0" IVar="-1" Cut="0.0000000000000000e+00" cType="1" res="-9.0810516849160194e-03" rms="1.6553984582424164e-01" purity="2.3492453619837761e-02" nType="-99"/>
      </Node>
    </BinaryTree>
    <BinaryTree type="DecisionTree" boostWeight="1.0000000000000000e+00" itree="1149">
      <Node pos="s" depth="0" NCoef="0" IVar="38" Cut="1.3345891237258911e+00" cType="1" res="2.3425500839948654e-03" rms="2.2842085361480713e-01" purity="5.0096482038497925e-01" nType="0">
        <Node pos="l" depth="1" NCoef="0" IVar="64" Cut="1.2345679104328156e-02" cType="1" res="5.6364689953625202e-03" rms="2.2880606353282928e-01" purity="5.1515996456146240e-01" nType="0">
          <Node pos="l" depth="2" NCoef="0" IVar="-1" Cut="0.0000000000000000e+00" cType="1" res="9.5026503549888730e-04" rms="2.2915254533290863e-01" purity="5.2477562427520752e-01" nType="-99"/>
          <Node pos="r" depth="2" NCoef="0" IVar="-1" Cut="0.0000000000000000e+00" cType="1" res="-6.6178757697343826e-03" rms="2.1223111450672150e-01" purity="2.8976926207542419e-01" nType="-99"/>
        </Node>
        <Node pos="r" depth="1" NCoef="0" IVar="57" Cut="-2.2435131072998047e+00" cType="1" res="-4.8897482454776764e-02" rms="2.1596743166446686e-01" purity="2.8014537692070007e-01" nType="0">
          <Node pos="l" depth="2" NCoef="0" IVar="-1" Cut="0.0000000000000000e+00" cType="1" res="-2.5434293784201145e-03" rms="2.9735177755355835e-01" purity="3.6046147346496582e-01" nType="-99"/>
          <Node pos="r" depth="2" NCoef="0" IVar="-1" Cut="0.0000000000000000e+00" cType="1" res="-9.0676872059702873e-03" rms="1.4241150021553040e-01" purity="2.3091995716094971e-01" nType="-99"/>
        </Node>
      </Node>
    </BinaryTree>
    <BinaryTree type="DecisionTree" boostWeight="1.0000000000000000e+00" itree="1150">
      <Node pos="s" depth="0" NCoef="0" IVar="38" Cut="1.3247033357620239e+00" cType="1" res="1.6312869265675545e-03" rms="2.2747331857681274e-01" purity="4.9982392787933350e-01" nType="0">
        <Node pos="l" depth="1" NCoef="0" IVar="17" Cut="-1.3805408477783203e+00" cType="1" res="4.9342350102961063e-03" rms="2.2786290943622589e-01" purity="5.1492232084274292e-01" nType="0">
          <Node pos="l" depth="2" NCoef="0" IVar="-1" Cut="0.0000000000000000e+00" cType="1" res="1.3046431122347713e-03" rms="2.3172652721405029e-01" purity="5.5115717649459839e-01" nType="-99"/>
          <Node pos="r" depth="2" NCoef="0" IVar="-1" Cut="0.0000000000000000e+00" cType="1" res="-2.9095083009451628e-03" rms="2.0714658498764038e-01" purity="3.5099637508392334e-01" nType="-99"/>
        </Node>
        <Node pos="r" depth="1" NCoef="0" IVar="35" Cut="-9.5376491546630859e-01" cType="1" res="-4.7669108957052231e-02" rms="2.1564534306526184e-01" purity="2.7446210384368896e-01" nType="0">
          <Node pos="l" depth="2" NCoef="0" IVar="-1" Cut="0.0000000000000000e+00" cType="1" res="-1.7643290339037776e-03" rms="2.4740982055664062e-01" purity="3.6671200394630432e-01" nType="-99"/>
          <Node pos="r" depth="2" NCoef="0" IVar="-1" Cut="0.0000000000000000e+00" cType="1" res="-1.0586416348814964e-02" rms="1.8131260573863983e-01" purity="1.9940514862537384e-01" nType="-99"/>
        </Node>
      </Node>
    </BinaryTree>
    <BinaryTree type="DecisionTree" boostWeight="1.0000000000000000e+00" itree="1151">
      <Node pos="s" depth="0" NCoef="0" IVar="34" Cut="1.3699878454208374e+00" cType="1" res="2.1998453885316849e-03" rms="2.2596344351768494e-01" purity="5.0066041946411133e-01" nType="0">
        <Node pos="l" depth="1" NCoef="0" IVar="36" Cut="1.4077172279357910e+00" cType="1" res="6.5409243106842041e-03" rms="2.2969038784503937e-01" purity="5.4989510774612427e-01" nType="0">
          <Node pos="l" depth="2" NCoef="0" IVar="-1" Cut="0.0000000000000000e+00" cType="1" res="1.0039274347946048e-03" rms="2.2781170904636383e-01" purity="5.6050920486450195e-01" nType="-99"/>
          <Node pos="r" depth="2" NCoef="0" IVar="-1" Cut="0.0000000000000000e+00" cType="1" res="-6.2930872663855553e-03" rms="2.7998390793800354e-01" purity="1.6366600990295410e-01" nType="-99"/>
        </Node>
        <Node pos="r" depth="1" NCoef="0" IVar="2" Cut="1.8207448720932007e+00" cType="1" res="-3.3666335046291351e-02" rms="1.8864473700523376e-01" purity="9.3881390988826752e-02" nType="0">
          <Node pos="l" depth="2" NCoef="0" IVar="-1" Cut="0.0000000000000000e+00" cType="1" res="-2.5191118940711021e-02" rms="0.0000000000000000e+00" purity="-2.9227860271930695e-02" nType="-99"/>
          <Node pos="r" depth="2" NCoef="0" IVar="-1" Cut="0.0000000000000000e+00" cType="1" res="-1.2192842550575733e-03" rms="2.8504905104637146e-01" purity="1.7173995077610016e-01" nType="-99"/>
        </Node>
      </Node>
    </BinaryTree>
    <BinaryTree type="DecisionTree" boostWeight="1.0000000000000000e+00" itree="1152">
      <Node pos="s" depth="0" NCoef="0" IVar="65" Cut="7.5204491615295410e-01" cType="1" res="1.2475230032578111e-03" rms="2.2830416262149811e-01" purity="5.0226300954818726e-01" nType="0">
        <Node pos="l" depth="1" NCoef="0" IVar="18" Cut="1.3066146373748779e+00" cType="1" res="4.2845658026635647e-03" rms="2.3406526446342468e-01" purity="5.3042763471603394e-01" nType="0">
          <Node pos="l" depth="2" NCoef="0" IVar="-1" Cut="0.0000000000000000e+00" cType="1" res="7.8933936310932040e-04" rms="2.3400917649269104e-01" purity="5.4050070047378540e-01" nType="-99"/>
          <Node pos="r" depth="2" NCoef="0" IVar="-1" Cut="0.0000000000000000e+00" cType="1" res="-5.2625644020736217e-03" rms="2.2974227368831635e-01" purity="3.3285203576087952e-01" nType="-99"/>
        </Node>
        <Node pos="r" depth="1" NCoef="0" IVar="14" Cut="1.2518775463104248e+00" cType="1" res="-3.6473587155342102e-02" rms="1.3228960335254669e-01" purity="1.5244933962821960e-01" nType="0">
          <Node pos="l" depth="2" NCoef="0" IVar="-1" Cut="0.0000000000000000e+00" cType="1" res="-1.6075901687145233e-02" rms="0.0000000000000000e+00" purity="-8.0778617411851883e-03" nType="-99"/>
          <Node pos="r" depth="2" NCoef="0" IVar="-1" Cut="0.0000000000000000e+00" cType="1" res="2.4416935630142689e-03" rms="3.0137145519256592e-01" purity="5.5479270219802856e-01" nType="-99"/>
        </Node>
      </Node>
    </BinaryTree>
    <BinaryTree type="DecisionTree" boostWeight="1.0000000000000000e+00" itree="1153">
      <Node pos="s" depth="0" NCoef="0" IVar="64" Cut="1.2345679104328156e-02" cType="1" res="1.1765050003305078e-03" rms="2.2728799283504486e-01" purity="5.0230050086975098e-01" nType="0">
        <Node pos="l" depth="1" NCoef="0" IVar="37" Cut="-9.0343248844146729e-01" cType="1" res="3.7692610640078783e-03" rms="2.2696666419506073e-01" purity="5.1201796531677246e-01" nType="0">
          <Node pos="l" depth="2" NCoef="0" IVar="-1" Cut="0.0000000000000000e+00" cType="1" res="8.7450782302767038e-04" rms="2.3089227080345154e-01" purity="5.3623420000076294e-01" nType="-99"/>
          <Node pos="r" depth="2" NCoef="0" IVar="-1" Cut="0.0000000000000000e+00" cType="1" res="-5.0404123030602932e-03" rms="1.7420856654644012e-01" purity="2.5056314468383789e-01" nType="-99"/>
        </Node>
        <Node pos="r" depth="1" NCoef="0" IVar="55" Cut="-8.7488538026809692e-01" cType="1" res="-5.7743418961763382e-02" rms="2.2661089897155762e-01" purity="2.8147384524345398e-01" nType="0">
          <Node pos="l" depth="2" NCoef="0" IVar="-1" Cut="0.0000000000000000e+00" cType="1" res="-9.9659280385822058e-04" rms="2.5341162085533142e-01" purity="4.4229939579963684e-01" nType="-99"/>
          <Node pos="r" depth="2" NCoef="0" IVar="-1" Cut="0.0000000000000000e+00" cType="1" res="-1.5713142231106758e-02" rms="1.8445397913455963e-01" purity="1.2441588193178177e-01" nType="-99"/>
        </Node>
      </Node>
    </BinaryTree>
    <BinaryTree type="DecisionTree" boostWeight="1.0000000000000000e+00" itree="1154">
      <Node pos="s" depth="0" NCoef="0" IVar="32" Cut="1.4403301477432251e+00" cType="1" res="1.6723327571526170e-03" rms="2.2639177739620209e-01" purity="5.0035750865936279e-01" nType="0">
        <Node pos="l" depth="1" NCoef="0" IVar="29" Cut="2.7103939056396484e+00" cType="1" res="5.1197665743529797e-03" rms="2.2896265983581543e-01" purity="5.4406154155731201e-01" nType="0">
          <Node pos="l" depth="2" NCoef="0" IVar="-1" Cut="0.0000000000000000e+00" cType="1" res="-2.6675071567296982e-03" rms="2.0663197338581085e-01" purity="3.3775120973587036e-01" nType="-99"/>
          <Node pos="r" depth="2" NCoef="0" IVar="-1" Cut="0.0000000000000000e+00" cType="1" res="1.3281590072438121e-03" rms="2.3386257886886597e-01" purity="5.9668141603469849e-01" nType="-99"/>
        </Node>
        <Node pos="r" depth="1" NCoef="0" IVar="34" Cut="1.3338091373443604e+00" cType="1" res="-3.0995031818747520e-02" rms="1.9743460416793823e-01" purity="8.6224481463432312e-02" nType="0">
          <Node pos="l" depth="2" NCoef="0" IVar="-1" Cut="0.0000000000000000e+00" cType="1" res="-8.6980964988470078e-03" rms="2.3419453203678131e-01" purity="1.7287299036979675e-01" nType="-99"/>
          <Node pos="r" depth="2" NCoef="0" IVar="-1" Cut="0.0000000000000000e+00" cType="1" res="-2.3499496746808290e-03" rms="1.8020844459533691e-01" purity="5.8950114995241165e-02" nType="-99"/>
        </Node>
      </Node>
    </BinaryTree>
    <BinaryTree type="DecisionTree" boostWeight="1.0000000000000000e+00" itree="1155">
      <Node pos="s" depth="0" NCoef="0" IVar="2" Cut="6.7771565914154053e-01" cType="1" res="2.0045926794409752e-03" rms="2.3114766180515289e-01" purity="4.9618768692016602e-01" nType="0">
        <Node pos="l" depth="1" NCoef="0" IVar="-1" Cut="0.0000000000000000e+00" cType="1" res="-1.0656634345650673e-02" rms="0.0000000000000000e+00" purity="-3.2392818480730057e-02" nType="-99"/>
        <Node pos="r" depth="1" NCoef="0" IVar="54" Cut="1.4866290092468262e+00" cType="1" res="4.1501717641949654e-03" rms="2.3656000196933746e-01" purity="5.1164174079895020e-01" nType="0">
          <Node pos="l" depth="2" NCoef="0" IVar="-1" Cut="0.0000000000000000e+00" cType="1" res="8.4614072693511844e-04" rms="2.3759779334068298e-01" purity="5.4362946748733521e-01" nType="-99"/>
          <Node pos="r" depth="2" NCoef="0" IVar="-1" Cut="0.0000000000000000e+00" cType="1" res="-6.6060558892786503e-03" rms="2.1687428653240204e-01" purity="6.4235933125019073e-02" nType="-99"/>
        </Node>
      </Node>
    </BinaryTree>
    <BinaryTree type="DecisionTree" boostWeight="1.0000000000000000e+00" itree="1156">
      <Node pos="s" depth="0" NCoef="0" IVar="57" Cut="-2.0303399562835693e+00" cType="1" res="2.8763533919118345e-04" rms="2.2892490029335022e-01" purity="4.9892416596412659e-01" nType="0">
        <Node pos="l" depth="1" NCoef="0" IVar="4" Cut="3.7222032546997070e+00" cType="1" res="1.1125921271741390e-02" rms="2.3995998501777649e-01" purity="5.6833004951477051e-01" nType="0">
          <Node pos="l" depth="2" NCoef="0" IVar="-1" Cut="0.0000000000000000e+00" cType="1" res="2.9112596530467272e-03" rms="2.3742510378360748e-01" purity="5.4347020387649536e-01" nType="-99"/>
          <Node pos="r" depth="2" NCoef="0" IVar="-1" Cut="0.0000000000000000e+00" cType="1" res="-7.2360118792857975e-05" rms="2.4193036556243896e-01" purity="5.9351968765258789e-01" nType="-99"/>
        </Node>
        <Node pos="r" depth="1" NCoef="0" IVar="1" Cut="1.8595826625823975e+00" cType="1" res="-1.1584540829062462e-02" rms="2.1556723117828369e-01" purity="4.2289760708808899e-01" nType="0">
          <Node pos="l" depth="2" NCoef="0" IVar="-1" Cut="0.0000000000000000e+00" cType="1" res="-7.7331289649009705e-02" rms="0.0000000000000000e+00" purity="-6.5361768007278442e-02" nType="-99"/>
          <Node pos="r" depth="2" NCoef="0" IVar="-1" Cut="0.0000000000000000e+00" cType="1" res="-6.9415313191711903e-04" rms="2.3781387507915497e-01" purity="4.6404886245727539e-01" nType="-99"/>
        </Node>
      </Node>
    </BinaryTree>
    <BinaryTree type="DecisionTree" boostWeight="1.0000000000000000e+00" itree="1157">
      <Node pos="s" depth="0" NCoef="0" IVar="32" Cut="-1.5312021970748901e+00" cType="1" res="-1.3771947706118226e-03" rms="2.2676771879196167e-01" purity="4.9951857328414917e-01" nType="0">
        <Node pos="l" depth="1" NCoef="0" IVar="49" Cut="2.3908550739288330e+00" cType="1" res="1.3974024914205074e-02" rms="2.2133985161781311e-01" purity="6.8127137422561646e-01" nType="0">
          <Node pos="l" depth="2" NCoef="0" IVar="-1" Cut="0.0000000000000000e+00" cType="1" res="-5.2627394907176495e-03" rms="2.1252666413784027e-01" purity="3.6572653055191040e-01" nType="-99"/>
          <Node pos="r" depth="2" NCoef="0" IVar="-1" Cut="0.0000000000000000e+00" cType="1" res="2.1885519381612539e-03" rms="2.2131298482418060e-01" purity="7.0002037286758423e-01" nType="-99"/>
        </Node>
        <Node pos="r" depth="1" NCoef="0" IVar="2" Cut="8.8129884004592896e-01" cType="1" res="-1.1547222733497620e-02" rms="2.2972896695137024e-01" purity="3.7910911440849304e-01" nType="0">
          <Node pos="l" depth="2" NCoef="0" IVar="-1" Cut="0.0000000000000000e+00" cType="1" res="-1.3893560506403446e-02" rms="0.0000000000000000e+00" purity="-3.2477833330631256e-02" nType="-99"/>
          <Node pos="r" depth="2" NCoef="0" IVar="-1" Cut="0.0000000000000000e+00" cType="1" res="-9.8436453845351934e-04" rms="2.3929417133331299e-01" purity="3.9778807759284973e-01" nType="-99"/>
        </Node>
      </Node>
    </BinaryTree>
    <BinaryTree type="DecisionTree" boostWeight="1.0000000000000000e+00" itree="1158">
      <Node pos="s" depth="0" NCoef="0" IVar="25" Cut="7.8515589237213135e-01" cType="1" res="-6.1994727002456784e-04" rms="2.2453045845031738e-01" purity="4.9729070067405701e-01" nType="0">
        <Node pos="l" depth="1" NCoef="0" IVar="39" Cut="1.1051098816096783e-02" cType="1" res="-1.2802820652723312e-02" rms="0.0000000000000000e+00" purity="1.9964983686804771e-02" nType="-99"/>
        <Node pos="r" depth="1" NCoef="0" IVar="41" Cut="1.2345679104328156e-02" cType="1" res="2.5076931342482567e-03" rms="2.3291164636611938e-01" purity="5.2499169111251831e-01" nType="0">
          <Node pos="l" depth="2" NCoef="0" IVar="-1" Cut="0.0000000000000000e+00" cType="1" res="5.8999387547373772e-03" rms="3.4682443737983704e-01" purity="4.4244772195816040e-01" nType="-99"/>
          <Node pos="r" depth="2" NCoef="0" IVar="-1" Cut="0.0000000000000000e+00" cType="1" res="1.3913982002122793e-05" rms="2.2681976854801178e-01" purity="5.2830767631530762e-01" nType="-99"/>
        </Node>
      </Node>
    </BinaryTree>
    <BinaryTree type="DecisionTree" boostWeight="1.0000000000000000e+00" itree="1159">
      <Node pos="s" depth="0" NCoef="0" IVar="14" Cut="-1.4924062490463257e+00" cType="1" res="6.1980052851140499e-04" rms="2.2797951102256775e-01" purity="5.0071120262145996e-01" nType="0">
        <Node pos="l" depth="1" NCoef="0" IVar="55" Cut="4.3723985552787781e-01" cType="1" res="-5.5664885789155960e-02" rms="0.0000000000000000e+00" purity="-2.1384835243225098e-02" nType="-99"/>
        <Node pos="r" depth="1" NCoef="0" IVar="0" Cut="1.1738994121551514e+00" cType="1" res="5.5259554646909237e-03" rms="2.5667601823806763e-01" purity="5.9869754314422607e-01" nType="0">
          <Node pos="l" depth="2" NCoef="0" IVar="-1" Cut="0.0000000000000000e+00" cType="1" res="8.5274252342060208e-04" rms="2.5687712430953979e-01" purity="6.0760700702667236e-01" nType="-99"/>
          <Node pos="r" depth="2" NCoef="0" IVar="-1" Cut="0.0000000000000000e+00" cType="1" res="-7.1648210287094116e-03" rms="2.3908554017543793e-01" purity="3.6909711360931396e-01" nType="-99"/>
        </Node>
      </Node>
    </BinaryTree>
    <BinaryTree type="DecisionTree" boostWeight="1.0000000000000000e+00" itree="1160">
      <Node pos="s" depth="0" NCoef="0" IVar="36" Cut="-1.5311175584793091e+00" cType="1" res="-1.1434233747422695e-03" rms="2.2396881878376007e-01" purity="4.9760869145393372e-01" nType="0">
        <Node pos="l" depth="1" NCoef="0" IVar="54" Cut="-1.4151165485382080e+00" cType="1" res="1.3676607050001621e-02" rms="2.1316540241241455e-01" purity="6.8361628055572510e-01" nType="0">
          <Node pos="l" depth="2" NCoef="0" IVar="-1" Cut="0.0000000000000000e+00" cType="1" res="3.3054859377443790e-03" rms="1.7210648953914642e-01" purity="7.9509878158569336e-01" nType="-99"/>
          <Node pos="r" depth="2" NCoef="0" IVar="-1" Cut="0.0000000000000000e+00" cType="1" res="-9.7748625557869673e-04" rms="2.8627946972846985e-01" purity="4.2083439230918884e-01" nType="-99"/>
        </Node>
        <Node pos="r" depth="1" NCoef="0" IVar="1" Cut="1.7481329441070557e+00" cType="1" res="-1.1089929379522800e-02" rms="2.3040233552455902e-01" purity="3.7276914715766907e-01" nType="0">
          <Node pos="l" depth="2" NCoef="0" IVar="-1" Cut="0.0000000000000000e+00" cType="1" res="-1.6445454955101013e-01" rms="0.0000000000000000e+00" purity="-6.8571053445339203e-02" nType="-99"/>
          <Node pos="r" depth="2" NCoef="0" IVar="-1" Cut="0.0000000000000000e+00" cType="1" res="-8.5695087909698486e-04" rms="2.4426674842834473e-01" purity="3.9618468284606934e-01" nType="-99"/>
        </Node>
      </Node>
    </BinaryTree>
    <BinaryTree type="DecisionTree" boostWeight="1.0000000000000000e+00" itree="1161">
      <Node pos="s" depth="0" NCoef="0" IVar="17" Cut="-1.3496085405349731e+00" cType="1" res="1.8191101262345910e-03" rms="2.2851206362247467e-01" purity="5.0053364038467407e-01" nType="0">
        <Node pos="l" depth="1" NCoef="0" IVar="58" Cut="1.4099402427673340e+00" cType="1" res="6.9790091365575790e-03" rms="2.3243491351604462e-01" purity="5.3631454706192017e-01" nType="0">
          <Node pos="l" depth="2" NCoef="0" IVar="-1" Cut="0.0000000000000000e+00" cType="1" res="1.1201159795746207e-03" rms="2.3264241218566895e-01" purity="5.4733389616012573e-01" nType="-99"/>
          <Node pos="r" depth="2" NCoef="0" IVar="-1" Cut="0.0000000000000000e+00" cType="1" res="-6.5482039935886860e-03" rms="2.2055234014987946e-01" purity="2.9139637947082520e-01" nType="-99"/>
        </Node>
        <Node pos="r" depth="1" NCoef="0" IVar="14" Cut="1.4857201576232910e+00" cType="1" res="-2.2179920226335526e-02" rms="2.0762418210506439e-01" purity="3.3411434292793274e-01" nType="0">
          <Node pos="l" depth="2" NCoef="0" IVar="-1" Cut="0.0000000000000000e+00" cType="1" res="-6.7527149803936481e-03" rms="1.4033778011798859e-01" purity="1.2473945319652557e-01" nType="-99"/>
          <Node pos="r" depth="2" NCoef="0" IVar="-1" Cut="0.0000000000000000e+00" cType="1" res="5.6510587455704808e-04" rms="2.8069555759429932e-01" purity="6.6501384973526001e-01" nType="-99"/>
        </Node>
      </Node>
    </BinaryTree>
    <BinaryTree type="DecisionTree" boostWeight="1.0000000000000000e+00" itree="1162">
      <Node pos="s" depth="0" NCoef="0" IVar="65" Cut="7.5189441442489624e-01" cType="1" res="2.0776870660483837e-03" rms="2.2997926175594330e-01" purity="4.9989083409309387e-01" nType="0">
        <Node pos="l" depth="1" NCoef="0" IVar="45" Cut="9.7370779514312744e-01" cType="1" res="5.2030333317816257e-03" rms="2.3617713153362274e-01" purity="5.2785593271255493e-01" nType="0">
          <Node pos="l" depth="2" NCoef="0" IVar="-1" Cut="0.0000000000000000e+00" cType="1" res="-5.5702864192426205e-03" rms="1.0056108981370926e-01" purity="7.0347048342227936e-02" nType="-99"/>
          <Node pos="r" depth="2" NCoef="0" IVar="-1" Cut="0.0000000000000000e+00" cType="1" res="1.0026226518675685e-03" rms="2.4675881862640381e-01" purity="5.8043867349624634e-01" nType="-99"/>
        </Node>
        <Node pos="r" depth="1" NCoef="0" IVar="14" Cut="1.2513036727905273e+00" cType="1" res="-3.6625981330871582e-02" rms="1.2446891516447067e-01" purity="1.5357649326324463e-01" nType="0">
          <Node pos="l" depth="2" NCoef="0" IVar="-1" Cut="0.0000000000000000e+00" cType="1" res="-1.4559091068804264e-02" rms="0.0000000000000000e+00" purity="1.3080902863293886e-03" nType="-99"/>
          <Node pos="r" depth="2" NCoef="0" IVar="-1" Cut="0.0000000000000000e+00" cType="1" res="1.2017347617074847e-03" rms="2.8142374753952026e-01" purity="5.3751742839813232e-01" nType="-99"/>
        </Node>
      </Node>
    </BinaryTree>
    <BinaryTree type="DecisionTree" boostWeight="1.0000000000000000e+00" itree="1163">
      <Node pos="s" depth="0" NCoef="0" IVar="2" Cut="4.6729171276092529e-01" cType="1" res="1.6425105277448893e-03" rms="2.2590434551239014e-01" purity="5.0189876556396484e-01" nType="0">
        <Node pos="l" depth="1" NCoef="0" IVar="-1" Cut="0.0000000000000000e+00" cType="1" res="-1.4222663827240467e-02" rms="0.0000000000000000e+00" purity="-5.4110947996377945e-02" nType="-99"/>
        <Node pos="r" depth="1" NCoef="0" IVar="57" Cut="-8.5139232873916626e-01" cType="1" res="3.2324872445315123e-03" rms="2.3054282367229462e-01" purity="5.1350432634353638e-01" nType="0">
          <Node pos="l" depth="2" NCoef="0" IVar="-1" Cut="0.0000000000000000e+00" cType="1" res="7.4199633672833443e-04" rms="2.3276653885841370e-01" purity="5.3716808557510376e-01" nType="-99"/>
          <Node pos="r" depth="2" NCoef="0" IVar="-1" Cut="0.0000000000000000e+00" cType="1" res="-5.0769397057592869e-03" rms="1.9740208983421326e-01" purity="2.2436958551406860e-01" nType="-99"/>
        </Node>
      </Node>
    </BinaryTree>
    <BinaryTree type="DecisionTree" boostWeight="1.0000000000000000e+00" itree="1164">
      <Node pos="s" depth="0" NCoef="0" IVar="38" Cut="1.2436945438385010e+00" cType="1" res="-6.1122031183913350e-04" rms="2.2512076795101166e-01" purity="4.9812284111976624e-01" nType="0">
        <Node pos="l" depth="1" NCoef="0" IVar="34" Cut="1.3693491220474243e+00" cType="1" res="2.8364097233861685e-03" rms="2.2747914493083954e-01" purity="5.1639580726623535e-01" nType="0">
          <Node pos="l" depth="2" NCoef="0" IVar="-1" Cut="0.0000000000000000e+00" cType="1" res="8.1103359116241336e-04" rms="2.3026227951049805e-01" purity="5.6597501039505005e-01" nType="-99"/>
          <Node pos="r" depth="2" NCoef="0" IVar="-1" Cut="0.0000000000000000e+00" cType="1" res="-4.5933271758258343e-03" rms="1.9909220933914185e-01" purity="9.8847076296806335e-02" nType="-99"/>
        </Node>
        <Node pos="r" depth="1" NCoef="0" IVar="33" Cut="-1.4925332069396973e+00" cType="1" res="-3.8423955440521240e-02" rms="1.9342251121997833e-01" purity="2.9770988225936890e-01" nType="0">
          <Node pos="l" depth="2" NCoef="0" IVar="-1" Cut="0.0000000000000000e+00" cType="1" res="1.1449409612396266e-05" rms="2.4165408313274384e-01" purity="4.7896417975425720e-01" nType="-99"/>
          <Node pos="r" depth="2" NCoef="0" IVar="-1" Cut="0.0000000000000000e+00" cType="1" res="-7.4145370163023472e-03" rms="1.6708277165889740e-01" purity="2.2313429415225983e-01" nType="-99"/>
        </Node>
      </Node>
    </BinaryTree>
    <BinaryTree type="DecisionTree" boostWeight="1.0000000000000000e+00" itree="1165">
      <Node pos="s" depth="0" NCoef="0" IVar="34" Cut="-1.1831216812133789e+00" cType="1" res="1.9098988268524408e-03" rms="2.2727407515048981e-01" purity="5.0284320116043091e-01" nType="0">
        <Node pos="l" depth="1" NCoef="0" IVar="54" Cut="-1.4924184083938599e+00" cType="1" res="8.5278116166591644e-03" rms="2.2340868413448334e-01" purity="6.0020709037780762e-01" nType="0">
          <Node pos="l" depth="2" NCoef="0" IVar="-1" Cut="0.0000000000000000e+00" cType="1" res="2.6992242783308029e-03" rms="1.9101025164127350e-01" purity="7.4776828289031982e-01" nType="-99"/>
          <Node pos="r" depth="2" NCoef="0" IVar="-1" Cut="0.0000000000000000e+00" cType="1" res="-7.3533761315047741e-04" rms="2.5855821371078491e-01" purity="4.0939414501190186e-01" nType="-99"/>
        </Node>
        <Node pos="r" depth="1" NCoef="0" IVar="1" Cut="2.0429825782775879e+00" cType="1" res="-1.5454643405973911e-02" rms="2.3623718321323395e-01" purity="2.4737283587455750e-01" nType="0">
          <Node pos="l" depth="2" NCoef="0" IVar="-1" Cut="0.0000000000000000e+00" cType="1" res="-5.8641973882913589e-02" rms="0.0000000000000000e+00" purity="-4.5526586472988129e-02" nType="-99"/>
          <Node pos="r" depth="2" NCoef="0" IVar="-1" Cut="0.0000000000000000e+00" cType="1" res="-7.1648013545200229e-04" rms="2.7881857752799988e-01" purity="3.0765312910079956e-01" nType="-99"/>
        </Node>
      </Node>
    </BinaryTree>
    <BinaryTree type="DecisionTree" boostWeight="1.0000000000000000e+00" itree="1166">
      <Node pos="s" depth="0" NCoef="0" IVar="52" Cut="-1.5312232971191406e+00" cType="1" res="-1.1781235225498676e-03" rms="2.2513137757778168e-01" purity="4.9971494078636169e-01" nType="0">
        <Node pos="l" depth="1" NCoef="0" IVar="47" Cut="-1.3573919534683228e+00" cType="1" res="1.2146071530878544e-02" rms="2.1743439137935638e-01" purity="6.8119603395462036e-01" nType="0">
          <Node pos="l" depth="2" NCoef="0" IVar="-1" Cut="0.0000000000000000e+00" cType="1" res="1.9856584258377552e-03" rms="2.1373742818832397e-01" purity="6.9452857971191406e-01" nType="-99"/>
          <Node pos="r" depth="2" NCoef="0" IVar="-1" Cut="0.0000000000000000e+00" cType="1" res="-5.6822183541953564e-03" rms="2.6454305648803711e-01" purity="4.6011388301849365e-01" nType="-99"/>
        </Node>
        <Node pos="r" depth="1" NCoef="0" IVar="2" Cut="2.1108367443084717e+00" cType="1" res="-9.8426062613725662e-03" rms="2.2958385944366455e-01" purity="3.8170102238655090e-01" nType="0">
          <Node pos="l" depth="2" NCoef="0" IVar="-1" Cut="0.0000000000000000e+00" cType="1" res="-3.7527331151068211e-03" rms="1.5131871402263641e-01" purity="1.6239532828330994e-01" nType="-99"/>
          <Node pos="r" depth="2" NCoef="0" IVar="-1" Cut="0.0000000000000000e+00" cType="1" res="4.5731788850389421e-04" rms="2.7921935915946960e-01" purity="5.7077401876449585e-01" nType="-99"/>
        </Node>
      </Node>
    </BinaryTree>
    <BinaryTree type="DecisionTree" boostWeight="1.0000000000000000e+00" itree="1167">
      <Node pos="s" depth="0" NCoef="0" IVar="65" Cut="6.6258156299591064e-01" cType="1" res="9.1001321561634541e-04" rms="2.2690574824810028e-01" purity="4.9871787428855896e-01" nType="0">
        <Node pos="l" depth="1" NCoef="0" IVar="22" Cut="1.2345679104328156e-02" cType="1" res="5.9495447203516960e-03" rms="2.3820261657238007e-01" purity="5.4253309965133667e-01" nType="0">
          <Node pos="l" depth="2" NCoef="0" IVar="-1" Cut="0.0000000000000000e+00" cType="1" res="4.3383920565247536e-03" rms="2.1228386461734772e-01" purity="5.8632099628448486e-01" nType="-99"/>
          <Node pos="r" depth="2" NCoef="0" IVar="-1" Cut="0.0000000000000000e+00" cType="1" res="5.1690727559616789e-05" rms="2.4264161288738251e-01" purity="5.3384500741958618e-01" nType="-99"/>
        </Node>
        <Node pos="r" depth="1" NCoef="0" IVar="14" Cut="1.3301446437835693e+00" cType="1" res="-2.6774564757943153e-02" rms="1.4736373722553253e-01" purity="2.5801971554756165e-01" nType="0">
          <Node pos="l" depth="2" NCoef="0" IVar="-1" Cut="0.0000000000000000e+00" cType="1" res="-1.3386808335781097e-02" rms="0.0000000000000000e+00" purity="1.3041745871305466e-02" nType="-99"/>
          <Node pos="r" depth="2" NCoef="0" IVar="-1" Cut="0.0000000000000000e+00" cType="1" res="1.2485194019973278e-03" rms="2.6405993103981018e-01" purity="6.6512423753738403e-01" nType="-99"/>
        </Node>
      </Node>
    </BinaryTree>
    <BinaryTree type="DecisionTree" boostWeight="1.0000000000000000e+00" itree="1168">
      <Node pos="s" depth="0" NCoef="0" IVar="20" Cut="5.8613847941160202e-02" cType="1" res="6.0182809829711914e-04" rms="2.3032750189304352e-01" purity="4.9912947416305542e-01" nType="0">
        <Node pos="l" depth="1" NCoef="0" IVar="36" Cut="1.5242170095443726e+00" cType="1" res="6.6403467208147049e-03" rms="2.4104781448841095e-01" purity="5.1574981212615967e-01" nType="0">
          <Node pos="l" depth="2" NCoef="0" IVar="-1" Cut="0.0000000000000000e+00" cType="1" res="1.0083162924274802e-03" rms="2.4279220402240753e-01" purity="5.3444725275039673e-01" nType="-99"/>
          <Node pos="r" depth="2" NCoef="0" IVar="-1" Cut="0.0000000000000000e+00" cType="1" res="-7.8022144734859467e-03" rms="1.8258389830589294e-01" purity="3.0113644897937775e-02" nType="-99"/>
        </Node>
        <Node pos="r" depth="1" NCoef="0" IVar="2" Cut="1.7945070266723633e+00" cType="1" res="-1.8289225175976753e-02" rms="1.9175757467746735e-01" purity="4.4713401794433594e-01" nType="0">
          <Node pos="l" depth="2" NCoef="0" IVar="-1" Cut="0.0000000000000000e+00" cType="1" res="-7.9964203760027885e-03" rms="0.0000000000000000e+00" purity="1.2787102162837982e-01" nType="-99"/>
          <Node pos="r" depth="2" NCoef="0" IVar="-1" Cut="0.0000000000000000e+00" cType="1" res="-4.3411462684161961e-04" rms="2.3385824263095856e-01" purity="5.7305151224136353e-01" nType="-99"/>
        </Node>
      </Node>
    </BinaryTree>
    <BinaryTree type="DecisionTree" boostWeight="1.0000000000000000e+00" itree="1169">
      <Node pos="s" depth="0" NCoef="0" IVar="63" Cut="1.1114777326583862e+00" cType="1" res="5.4855988128110766e-04" rms="2.2794565558433533e-01" purity="4.9930378794670105e-01" nType="0">
        <Node pos="l" depth="1" NCoef="0" IVar="9" Cut="3.2877314090728760e+00" cType="1" res="3.6588464863598347e-03" rms="2.3084595799446106e-01" purity="5.1314747333526611e-01" nType="0">
          <Node pos="l" depth="2" NCoef="0" IVar="-1" Cut="0.0000000000000000e+00" cType="1" res="1.7600680002942681e-03" rms="2.1754141151905060e-01" purity="4.9339765310287476e-01" nType="-99"/>
          <Node pos="r" depth="2" NCoef="0" IVar="-1" Cut="0.0000000000000000e+00" cType="1" res="-9.7400217782706022e-04" rms="2.4653086066246033e-01" purity="5.3888952732086182e-01" nType="-99"/>
        </Node>
        <Node pos="r" depth="1" NCoef="0" IVar="49" Cut="3.1118657588958740e+00" cType="1" res="-3.5296149551868439e-02" rms="1.8769101798534393e-01" purity="3.3976221084594727e-01" nType="0">
          <Node pos="l" depth="2" NCoef="0" IVar="-1" Cut="0.0000000000000000e+00" cType="1" res="-1.0048443451523781e-02" rms="1.4593295753002167e-01" purity="2.2263389825820923e-01" nType="-99"/>
          <Node pos="r" depth="2" NCoef="0" IVar="-1" Cut="0.0000000000000000e+00" cType="1" res="-1.6407339135184884e-03" rms="2.0819769799709320e-01" purity="4.1813400387763977e-01" nType="-99"/>
        </Node>
      </Node>
    </BinaryTree>
    <BinaryTree type="DecisionTree" boostWeight="1.0000000000000000e+00" itree="1170">
      <Node pos="s" depth="0" NCoef="0" IVar="54" Cut="1.6425447538495064e-02" cType="1" res="-8.8080728892236948e-04" rms="2.2687055170536041e-01" purity="4.9631783366203308e-01" nType="0">
        <Node pos="l" depth="1" NCoef="0" IVar="44" Cut="1.2345679104328156e-02" cType="1" res="4.4219638220965862e-03" rms="2.2473239898681641e-01" purity="5.7267647981643677e-01" nType="0">
          <Node pos="l" depth="2" NCoef="0" IVar="-1" Cut="0.0000000000000000e+00" cType="1" res="8.9730869513005018e-04" rms="2.2160431742668152e-01" purity="5.8284229040145874e-01" nType="-99"/>
          <Node pos="r" depth="2" NCoef="0" IVar="-1" Cut="0.0000000000000000e+00" cType="1" res="-7.1097905747592449e-03" rms="2.7704897522926331e-01" purity="3.4728321433067322e-01" nType="-99"/>
        </Node>
        <Node pos="r" depth="1" NCoef="0" IVar="49" Cut="3.2961285114288330e+00" cType="1" res="-2.2847859188914299e-02" rms="2.3424614965915680e-01" purity="1.7999725043773651e-01" nType="0">
          <Node pos="l" depth="2" NCoef="0" IVar="-1" Cut="0.0000000000000000e+00" cType="1" res="1.6852900444064289e-04" rms="1.9561304152011871e-01" purity="1.6600924730300903e-01" nType="-99"/>
          <Node pos="r" depth="2" NCoef="0" IVar="-1" Cut="0.0000000000000000e+00" cType="1" res="-5.2410080097615719e-03" rms="2.6688396930694580e-01" purity="1.9483511149883270e-01" nType="-99"/>
        </Node>
      </Node>
    </BinaryTree>
    <BinaryTree type="DecisionTree" boostWeight="1.0000000000000000e+00" itree="1171">
      <Node pos="s" depth="0" NCoef="0" IVar="38" Cut="1.4472943544387817e+00" cType="1" res="1.2537979055196047e-03" rms="2.2655680775642395e-01" purity="4.9966338276863098e-01" nType="0">
        <Node pos="l" depth="1" NCoef="0" IVar="1" Cut="3.8899912834167480e+00" cType="1" res="3.5965517163276672e-03" rms="2.2706161439418793e-01" purity="5.1010257005691528e-01" nType="0">
          <Node pos="l" depth="2" NCoef="0" IVar="-1" Cut="0.0000000000000000e+00" cType="1" res="-9.8533731943462044e-05" rms="2.3243726789951324e-01" purity="4.5105284452438354e-01" nType="-99"/>
          <Node pos="r" depth="2" NCoef="0" IVar="-1" Cut="0.0000000000000000e+00" cType="1" res="4.5014801435172558e-03" rms="1.8691864609718323e-01" purity="8.8533604145050049e-01" nType="-99"/>
        </Node>
        <Node pos="r" depth="1" NCoef="0" IVar="-1" Cut="0.0000000000000000e+00" cType="1" res="-7.6657719910144806e-03" rms="2.0583935081958771e-01" purity="2.4558752775192261e-01" nType="-99"/>
      </Node>
    </BinaryTree>
    <BinaryTree type="DecisionTree" boostWeight="1.0000000000000000e+00" itree="1172">
      <Node pos="s" depth="0" NCoef="0" IVar="53" Cut="1.4075684547424316e+00" cType="1" res="2.3886996787041426e-03" rms="2.2921954095363617e-01" purity="5.0228369235992432e-01" nType="0">
        <Node pos="l" depth="1" NCoef="0" IVar="34" Cut="1.4473505020141602e+00" cType="1" res="4.1140285320580006e-03" rms="2.3161123692989349e-01" purity="5.1167660951614380e-01" nType="0">
          <Node pos="l" depth="2" NCoef="0" IVar="-1" Cut="0.0000000000000000e+00" cType="1" res="8.8850391330197453e-04" rms="2.3443320393562317e-01" purity="5.5228775739669800e-01" nType="-99"/>
          <Node pos="r" depth="2" NCoef="0" IVar="-1" Cut="0.0000000000000000e+00" cType="1" res="-5.6561278179287910e-03" rms="1.9397173821926117e-01" purity="6.7805647850036621e-02" nType="-99"/>
        </Node>
        <Node pos="r" depth="1" NCoef="0" IVar="-1" Cut="0.0000000000000000e+00" cType="1" res="-1.3182664290070534e-02" rms="2.1726356819272041e-02" purity="1.0499186813831329e-01" nType="-99"/>
      </Node>
    </BinaryTree>
    <BinaryTree type="DecisionTree" boostWeight="1.0000000000000000e+00" itree="1173">
      <Node pos="s" depth="0" NCoef="0" IVar="33" Cut="1.4079052209854126e+00" cType="1" res="2.3013455793261528e-03" rms="2.2239853441715240e-01" purity="5.0222575664520264e-01" nType="0">
        <Node pos="l" depth="1" NCoef="0" IVar="57" Cut="-2.3326420783996582e+00" cType="1" res="4.1080787777900696e-03" rms="2.2505834698677063e-01" purity="5.1163685321807861e-01" nType="0">
          <Node pos="l" depth="2" NCoef="0" IVar="-1" Cut="0.0000000000000000e+00" cType="1" res="2.3475596681237221e-03" rms="2.3823019862174988e-01" purity="5.9303003549575806e-01" nType="-99"/>
          <Node pos="r" depth="2" NCoef="0" IVar="-1" Cut="0.0000000000000000e+00" cType="1" res="-5.1723682554438710e-04" rms="2.1727743744850159e-01" purity="4.6847587823867798e-01" nType="-99"/>
        </Node>
        <Node pos="r" depth="1" NCoef="0" IVar="-1" Cut="0.0000000000000000e+00" cType="1" res="-1.3374500907957554e-02" rms="0.0000000000000000e+00" purity="9.4702921807765961e-02" nType="-99"/>
      </Node>
    </BinaryTree>
    <BinaryTree type="DecisionTree" boostWeight="1.0000000000000000e+00" itree="1174">
      <Node pos="s" depth="0" NCoef="0" IVar="56" Cut="1.5234786272048950e+00" cType="1" res="1.2110219104215503e-03" rms="2.2436179220676422e-01" purity="4.9879154562950134e-01" nType="0">
        <Node pos="l" depth="1" NCoef="0" IVar="54" Cut="1.4460248947143555e+00" cType="1" res="3.7050712853670120e-03" rms="2.2760145366191864e-01" purity="5.1929724216461182e-01" nType="0">
          <Node pos="l" depth="2" NCoef="0" IVar="-1" Cut="0.0000000000000000e+00" cType="1" res="7.9190946416929364e-04" rms="2.2704862058162689e-01" purity="5.4748922586441040e-01" nType="-99"/>
          <Node pos="r" depth="2" NCoef="0" IVar="-1" Cut="0.0000000000000000e+00" cType="1" res="-5.8509944938123226e-03" rms="2.3091737926006317e-01" purity="9.3680344521999359e-02" nType="-99"/>
        </Node>
        <Node pos="r" depth="1" NCoef="0" IVar="-1" Cut="0.0000000000000000e+00" cType="1" res="-1.1366015300154686e-02" rms="1.0661632567644119e-01" purity="5.5199088528752327e-03" nType="-99"/>
      </Node>
    </BinaryTree>
    <BinaryTree type="DecisionTree" boostWeight="1.0000000000000000e+00" itree="1175">
      <Node pos="s" depth="0" NCoef="0" IVar="53" Cut="1.2915672063827515e+00" cType="1" res="9.2989153927192092e-04" rms="2.2635379433631897e-01" purity="4.9822959303855896e-01" nType="0">
        <Node pos="l" depth="1" NCoef="0" IVar="25" Cut="2.8384013175964355e+00" cType="1" res="3.1864140182733536e-03" rms="2.2972126305103302e-01" purity="5.1121515035629272e-01" nType="0">
          <Node pos="l" depth="2" NCoef="0" IVar="-1" Cut="0.0000000000000000e+00" cType="1" res="-3.0407437589019537e-04" rms="2.3261007666587830e-01" purity="4.2077836394309998e-01" nType="-99"/>
          <Node pos="r" depth="2" NCoef="0" IVar="-1" Cut="0.0000000000000000e+00" cType="1" res="2.8648108709603548e-03" rms="2.1890465915203094e-01" purity="8.0771511793136597e-01" nType="-99"/>
        </Node>
        <Node pos="r" depth="1" NCoef="0" IVar="54" Cut="-1.2546366453170776e+00" cType="1" res="-5.2891619503498077e-02" rms="1.0763866454362869e-01" purity="1.8850412964820862e-01" nType="0">
          <Node pos="l" depth="2" NCoef="0" IVar="-1" Cut="0.0000000000000000e+00" cType="1" res="-3.8389600813388824e-03" rms="2.0500366389751434e-01" purity="3.6297735571861267e-01" nType="-99"/>
          <Node pos="r" depth="2" NCoef="0" IVar="-1" Cut="0.0000000000000000e+00" cType="1" res="-1.6983620822429657e-02" rms="0.0000000000000000e+00" purity="1.6507513821125031e-02" nType="-99"/>
        </Node>
      </Node>
    </BinaryTree>
    <BinaryTree type="DecisionTree" boostWeight="1.0000000000000000e+00" itree="1176">
      <Node pos="s" depth="0" NCoef="0" IVar="2" Cut="1.7769751548767090e+00" cType="1" res="-2.0582289434969425e-03" rms="2.2414647042751312e-01" purity="4.9800124764442444e-01" nType="0">
        <Node pos="l" depth="1" NCoef="0" IVar="14" Cut="-1.3376811742782593e+00" cType="1" res="-2.1011769771575928e-02" rms="1.6186885535717010e-01" purity="1.8730561435222626e-01" nType="0">
          <Node pos="l" depth="2" NCoef="0" IVar="-1" Cut="0.0000000000000000e+00" cType="1" res="-6.4380961656570435e-01" rms="0.0000000000000000e+00" purity="-6.2342211604118347e-02" nType="-99"/>
          <Node pos="r" depth="2" NCoef="0" IVar="-1" Cut="0.0000000000000000e+00" cType="1" res="9.0735236881300807e-05" rms="2.7054089307785034e-01" purity="3.1780147552490234e-01" nType="-99"/>
        </Node>
        <Node pos="r" depth="1" NCoef="0" IVar="5" Cut="1.1681232452392578e+00" cType="1" res="4.8186881467700005e-03" rms="2.4245925247669220e-01" purity="6.1073106527328491e-01" nType="0">
          <Node pos="l" depth="2" NCoef="0" IVar="-1" Cut="0.0000000000000000e+00" cType="1" res="-5.4982816800475121e-03" rms="1.6733609139919281e-01" purity="2.0512367784976959e-01" nType="-99"/>
          <Node pos="r" depth="2" NCoef="0" IVar="-1" Cut="0.0000000000000000e+00" cType="1" res="9.6678506815806031e-04" rms="2.4771018326282501e-01" purity="6.4669352769851685e-01" nType="-99"/>
        </Node>
      </Node>
    </BinaryTree>
    <BinaryTree type="DecisionTree" boostWeight="1.0000000000000000e+00" itree="1177">
      <Node pos="s" depth="0" NCoef="0" IVar="64" Cut="1.2345679104328156e-02" cType="1" res="1.7874978948384523e-03" rms="2.2764366865158081e-01" purity="5.0233435630798340e-01" nType="0">
        <Node pos="l" depth="1" NCoef="0" IVar="14" Cut="-1.4924079179763794e+00" cType="1" res="3.9967955090105534e-03" rms="2.2753117978572845e-01" purity="5.1178890466690063e-01" nType="0">
          <Node pos="l" depth="2" NCoef="0" IVar="-1" Cut="0.0000000000000000e+00" cType="1" res="-4.8462968319654465e-02" rms="0.0000000000000000e+00" purity="-1.7052697017788887e-02" nType="-99"/>
          <Node pos="r" depth="2" NCoef="0" IVar="-1" Cut="0.0000000000000000e+00" cType="1" res="8.8579615112394094e-04" rms="2.5451394915580750e-01" purity="6.1102062463760376e-01" nType="-99"/>
        </Node>
        <Node pos="r" depth="1" NCoef="0" IVar="55" Cut="-7.5926250219345093e-01" cType="1" res="-4.9364391714334488e-02" rms="2.2422687709331512e-01" purity="2.8343376517295837e-01" nType="0">
          <Node pos="l" depth="2" NCoef="0" IVar="-1" Cut="0.0000000000000000e+00" cType="1" res="-1.5874914824962616e-03" rms="2.3381924629211426e-01" purity="4.3275344371795654e-01" nType="-99"/>
          <Node pos="r" depth="2" NCoef="0" IVar="-1" Cut="0.0000000000000000e+00" cType="1" res="-1.2359653599560261e-02" rms="2.0799355208873749e-01" purity="1.3394226133823395e-01" nType="-99"/>
        </Node>
      </Node>
    </BinaryTree>
    <BinaryTree type="DecisionTree" boostWeight="1.0000000000000000e+00" itree="1178">
      <Node pos="s" depth="0" NCoef="0" IVar="5" Cut="8.3482247591018677e-01" cType="1" res="-1.6316791297867894e-03" rms="2.2373664379119873e-01" purity="5.0056374073028564e-01" nType="0">
        <Node pos="l" depth="1" NCoef="0" IVar="16" Cut="-8.3703088760375977e-01" cType="1" res="-1.1594752781093121e-02" rms="0.0000000000000000e+00" purity="6.1053805053234100e-02" nType="-99"/>
        <Node pos="r" depth="1" NCoef="0" IVar="0" Cut="9.1093313694000244e-01" cType="1" res="1.0628906311467290e-03" rms="2.3069627583026886e-01" purity="5.2392065525054932e-01" nType="0">
          <Node pos="l" depth="2" NCoef="0" IVar="-1" Cut="0.0000000000000000e+00" cType="1" res="6.3414481701329350e-04" rms="2.3147380352020264e-01" purity="5.4936957359313965e-01" nType="-99"/>
          <Node pos="r" depth="2" NCoef="0" IVar="-1" Cut="0.0000000000000000e+00" cType="1" res="-3.0386629514396191e-03" rms="2.2423245012760162e-01" purity="3.7226164340972900e-01" nType="-99"/>
        </Node>
      </Node>
    </BinaryTree>
    <BinaryTree type="DecisionTree" boostWeight="1.0000000000000000e+00" itree="1179">
      <Node pos="s" depth="0" NCoef="0" IVar="36" Cut="9.4432449340820312e-01" cType="1" res="4.1167973540723324e-04" rms="2.2478614747524261e-01" purity="4.9756649136543274e-01" nType="0">
        <Node pos="l" depth="1" NCoef="0" IVar="29" Cut="2.5750854015350342e+00" cType="1" res="5.1378891803324223e-03" rms="2.2806292772293091e-01" purity="5.5800557136535645e-01" nType="0">
          <Node pos="l" depth="2" NCoef="0" IVar="-1" Cut="0.0000000000000000e+00" cType="1" res="-3.4918072633445263e-03" rms="1.9705766439437866e-01" purity="3.0320310592651367e-01" nType="-99"/>
          <Node pos="r" depth="2" NCoef="0" IVar="-1" Cut="0.0000000000000000e+00" cType="1" res="1.1653322726488113e-03" rms="2.3208661377429962e-01" purity="5.9728491306304932e-01" nType="-99"/>
        </Node>
        <Node pos="r" depth="1" NCoef="0" IVar="33" Cut="-1.2395435571670532e+00" cType="1" res="-2.7682177722454071e-02" rms="2.0195578038692474e-01" purity="1.3830019533634186e-01" nType="0">
          <Node pos="l" depth="2" NCoef="0" IVar="-1" Cut="0.0000000000000000e+00" cType="1" res="2.4631097912788391e-03" rms="2.2881573438644409e-01" purity="2.0261646807193756e-01" nType="-99"/>
          <Node pos="r" depth="2" NCoef="0" IVar="-1" Cut="0.0000000000000000e+00" cType="1" res="-6.4946799539029598e-03" rms="1.8536993861198425e-01" purity="1.0981523245573044e-01" nType="-99"/>
        </Node>
      </Node>
    </BinaryTree>
    <BinaryTree type="DecisionTree" boostWeight="1.0000000000000000e+00" itree="1180">
      <Node pos="s" depth="0" NCoef="0" IVar="54" Cut="1.4092055559158325e+00" cType="1" res="-9.8382658325135708e-04" rms="2.2240294516086578e-01" purity="4.9806773662567139e-01" nType="0">
        <Node pos="l" depth="1" NCoef="0" IVar="44" Cut="1.2345679104328156e-02" cType="1" res="2.6422645896673203e-03" rms="2.2546520829200745e-01" purity="5.4435354471206665e-01" nType="0">
          <Node pos="l" depth="2" NCoef="0" IVar="-1" Cut="0.0000000000000000e+00" cType="1" res="6.1772635672241449e-04" rms="2.2325932979583740e-01" purity="5.5454176664352417e-01" nType="-99"/>
          <Node pos="r" depth="2" NCoef="0" IVar="-1" Cut="0.0000000000000000e+00" cType="1" res="-5.8648684062063694e-03" rms="2.6210910081863403e-01" purity="3.2856130599975586e-01" nType="-99"/>
        </Node>
        <Node pos="r" depth="1" NCoef="0" IVar="4" Cut="3.7977139949798584e+00" cType="1" res="-3.3869352191686630e-02" rms="1.8927270174026489e-01" purity="7.8295320272445679e-02" nType="0">
          <Node pos="l" depth="2" NCoef="0" IVar="-1" Cut="0.0000000000000000e+00" cType="1" res="-1.3663022546097636e-03" rms="2.0679812133312225e-01" purity="9.0667784214019775e-02" nType="-99"/>
          <Node pos="r" depth="2" NCoef="0" IVar="-1" Cut="0.0000000000000000e+00" cType="1" res="-1.1317649856209755e-02" rms="1.3745507597923279e-01" purity="5.4676447063684464e-02" nType="-99"/>
        </Node>
      </Node>
    </BinaryTree>
    <BinaryTree type="DecisionTree" boostWeight="1.0000000000000000e+00" itree="1181">
      <Node pos="s" depth="0" NCoef="0" IVar="57" Cut="-2.3024051189422607e+00" cType="1" res="1.7674331320449710e-03" rms="2.3042392730712891e-01" purity="5.0038880109786987e-01" nType="0">
        <Node pos="l" depth="1" NCoef="0" IVar="65" Cut="-4.2062503099441528e-01" cType="1" res="1.6537277027964592e-02" rms="2.4445906281471252e-01" purity="5.8121562004089355e-01" nType="0">
          <Node pos="l" depth="2" NCoef="0" IVar="-1" Cut="0.0000000000000000e+00" cType="1" res="-4.0378747507929802e-03" rms="2.7508720755577087e-01" purity="4.2933583259582520e-01" nType="-99"/>
          <Node pos="r" depth="2" NCoef="0" IVar="-1" Cut="0.0000000000000000e+00" cType="1" res="2.3393046576529741e-03" rms="2.4216040968894958e-01" purity="5.9015572071075439e-01" nType="-99"/>
        </Node>
        <Node pos="r" depth="1" NCoef="0" IVar="2" Cut="1.0832924842834473e+00" cType="1" res="-7.3705534450709820e-03" rms="2.2080107033252716e-01" purity="4.5038184523582458e-01" nType="0">
          <Node pos="l" depth="2" NCoef="0" IVar="-1" Cut="0.0000000000000000e+00" cType="1" res="-8.0809611827135086e-03" rms="0.0000000000000000e+00" purity="3.7442650645971298e-02" nType="-99"/>
          <Node pos="r" depth="2" NCoef="0" IVar="-1" Cut="0.0000000000000000e+00" cType="1" res="-4.8691776464693248e-04" rms="2.3080480098724365e-01" purity="4.7724825143814087e-01" nType="-99"/>
        </Node>
      </Node>
    </BinaryTree>
    <BinaryTree type="DecisionTree" boostWeight="1.0000000000000000e+00" itree="1182">
      <Node pos="s" depth="0" NCoef="0" IVar="56" Cut="-1.4151017665863037e+00" cType="1" res="-4.3365234159864485e-04" rms="2.2771023213863373e-01" purity="5.0217801332473755e-01" nType="0">
        <Node pos="l" depth="1" NCoef="0" IVar="34" Cut="-9.1206079721450806e-01" cType="1" res="6.7615914158523083e-03" rms="2.2544614970684052e-01" purity="6.0744869709014893e-01" nType="0">
          <Node pos="l" depth="2" NCoef="0" IVar="-1" Cut="0.0000000000000000e+00" cType="1" res="1.6796323470771313e-03" rms="2.0990806818008423e-01" purity="7.0113289356231689e-01" nType="-99"/>
          <Node pos="r" depth="2" NCoef="0" IVar="-1" Cut="0.0000000000000000e+00" cType="1" res="-1.5791078330948949e-03" rms="2.6859283447265625e-01" purity="3.0353918671607971e-01" nType="-99"/>
        </Node>
        <Node pos="r" depth="1" NCoef="0" IVar="53" Cut="-1.2814025878906250e+00" cType="1" res="-1.7145007848739624e-02" rms="2.3202443122863770e-01" purity="2.5768065452575684e-01" nType="0">
          <Node pos="l" depth="2" NCoef="0" IVar="-1" Cut="0.0000000000000000e+00" cType="1" res="6.0113839572295547e-04" rms="2.3348915576934814e-01" purity="3.4486046433448792e-01" nType="-99"/>
          <Node pos="r" depth="2" NCoef="0" IVar="-1" Cut="0.0000000000000000e+00" cType="1" res="-4.1134222410619259e-03" rms="2.2973215579986572e-01" purity="1.9636259973049164e-01" nType="-99"/>
        </Node>
      </Node>
    </BinaryTree>
    <BinaryTree type="DecisionTree" boostWeight="1.0000000000000000e+00" itree="1183">
      <Node pos="s" depth="0" NCoef="0" IVar="45" Cut="1.2292560338973999e+00" cType="1" res="1.9984369282610714e-04" rms="2.2016444802284241e-01" purity="4.9992272257804871e-01" nType="0">
        <Node pos="l" depth="1" NCoef="0" IVar="0" Cut="4.7057133913040161e-01" cType="1" res="-2.8487091884016991e-02" rms="9.9640421569347382e-02" purity="1.0453414916992188e-01" nType="0">
          <Node pos="l" depth="2" NCoef="0" IVar="-1" Cut="0.0000000000000000e+00" cType="1" res="2.0263057667762041e-03" rms="2.2097253799438477e-01" purity="2.1219782531261444e-01" nType="-99"/>
          <Node pos="r" depth="2" NCoef="0" IVar="-1" Cut="0.0000000000000000e+00" cType="1" res="-1.2116077356040478e-02" rms="0.0000000000000000e+00" purity="4.2650774121284485e-02" nType="-99"/>
        </Node>
        <Node pos="r" depth="1" NCoef="0" IVar="65" Cut="7.0666915178298950e-01" cType="1" res="5.4927263408899307e-03" rms="2.3538079857826233e-01" purity="5.7287395000457764e-01" nType="0">
          <Node pos="l" depth="2" NCoef="0" IVar="-1" Cut="0.0000000000000000e+00" cType="1" res="1.0649134637787938e-03" rms="2.4323602020740509e-01" purity="6.1508107185363770e-01" nType="-99"/>
          <Node pos="r" depth="2" NCoef="0" IVar="-1" Cut="0.0000000000000000e+00" cType="1" res="-3.6113797686994076e-03" rms="1.5925015509128571e-01" purity="2.4792112410068512e-01" nType="-99"/>
        </Node>
      </Node>
    </BinaryTree>
    <BinaryTree type="DecisionTree" boostWeight="1.0000000000000000e+00" itree="1184">
      <Node pos="s" depth="0" NCoef="0" IVar="43" Cut="1.1167405843734741e+00" cType="1" res="-1.5579776663798839e-04" rms="2.2494930028915405e-01" purity="5.0161290168762207e-01" nType="0">
        <Node pos="l" depth="1" NCoef="0" IVar="44" Cut="1.2345679104328156e-02" cType="1" res="2.7399200480431318e-03" rms="2.2893573343753815e-01" purity="5.1351487636566162e-01" nType="0">
          <Node pos="l" depth="2" NCoef="0" IVar="-1" Cut="0.0000000000000000e+00" cType="1" res="6.2620430253446102e-04" rms="2.2674642503261566e-01" purity="5.2571725845336914e-01" nType="-99"/>
          <Node pos="r" depth="2" NCoef="0" IVar="-1" Cut="0.0000000000000000e+00" cType="1" res="-5.6611835025250912e-03" rms="2.6367306709289551e-01" purity="2.7423873543739319e-01" nType="-99"/>
        </Node>
        <Node pos="r" depth="1" NCoef="0" IVar="37" Cut="-1.6933615207672119e+00" cType="1" res="-3.7605974823236465e-02" rms="1.6028296947479248e-01" purity="3.4768483042716980e-01" nType="0">
          <Node pos="l" depth="2" NCoef="0" IVar="-1" Cut="0.0000000000000000e+00" cType="1" res="-1.3700242852792144e-03" rms="2.1022406220436096e-01" purity="4.5177009701728821e-01" nType="-99"/>
          <Node pos="r" depth="2" NCoef="0" IVar="-1" Cut="0.0000000000000000e+00" cType="1" res="-9.2560034245252609e-03" rms="6.4253106713294983e-02" purity="2.3513861000537872e-01" nType="-99"/>
        </Node>
      </Node>
    </BinaryTree>
    <BinaryTree type="DecisionTree" boostWeight="1.0000000000000000e+00" itree="1185">
      <Node pos="s" depth="0" NCoef="0" IVar="54" Cut="1.4092512130737305e+00" cType="1" res="-2.3419598583132029e-03" rms="2.2828646004199982e-01" purity="5.0097173452377319e-01" nType="0">
        <Node pos="l" depth="1" NCoef="0" IVar="56" Cut="1.4454411268234253e+00" cType="1" res="1.2833421351388097e-03" rms="2.3105071485042572e-01" purity="5.4686295986175537e-01" nType="0">
          <Node pos="l" depth="2" NCoef="0" IVar="-1" Cut="0.0000000000000000e+00" cType="1" res="4.2046056478284299e-04" rms="2.2979229688644409e-01" purity="5.5775827169418335e-01" nType="-99"/>
          <Node pos="r" depth="2" NCoef="0" IVar="-1" Cut="0.0000000000000000e+00" cType="1" res="-8.3906585350632668e-03" rms="2.6098084449768066e-01" purity="1.1633639037609100e-01" nType="-99"/>
        </Node>
        <Node pos="r" depth="1" NCoef="0" IVar="49" Cut="3.4153699874877930e+00" cType="1" res="-3.5872276872396469e-02" rms="1.9780096411705017e-01" purity="7.6525375247001648e-02" nType="0">
          <Node pos="l" depth="2" NCoef="0" IVar="-1" Cut="0.0000000000000000e+00" cType="1" res="-1.8730543088167906e-03" rms="2.0036211609840393e-01" purity="7.7490366995334625e-02" nType="-99"/>
          <Node pos="r" depth="2" NCoef="0" IVar="-1" Cut="0.0000000000000000e+00" cType="1" res="-1.0905941016972065e-02" rms="1.8274234235286713e-01" purity="7.4648097157478333e-02" nType="-99"/>
        </Node>
      </Node>
    </BinaryTree>
    <BinaryTree type="DecisionTree" boostWeight="1.0000000000000000e+00" itree="1186">
      <Node pos="s" depth="0" NCoef="0" IVar="2" Cut="5.2104693651199341e-01" cType="1" res="-1.2466731714084744e-03" rms="2.2376324236392975e-01" purity="4.9981102347373962e-01" nType="0">
        <Node pos="l" depth="1" NCoef="0" IVar="-1" Cut="0.0000000000000000e+00" cType="1" res="-1.6404746100306511e-02" rms="0.0000000000000000e+00" purity="-6.8370364606380463e-02" nType="-99"/>
        <Node pos="r" depth="1" NCoef="0" IVar="23" Cut="1.1552027463912964e+00" cType="1" res="6.0217780992388725e-04" rms="2.2918699681758881e-01" purity="5.1198875904083252e-01" nType="0">
          <Node pos="l" depth="2" NCoef="0" IVar="-1" Cut="0.0000000000000000e+00" cType="1" res="3.6626696237362921e-04" rms="2.3079711198806763e-01" purity="5.2301567792892456e-01" nType="-99"/>
          <Node pos="r" depth="2" NCoef="0" IVar="-1" Cut="0.0000000000000000e+00" cType="1" res="-6.0912799090147018e-03" rms="1.8989899754524231e-01" purity="3.0127808451652527e-01" nType="-99"/>
        </Node>
      </Node>
    </BinaryTree>
    <BinaryTree type="DecisionTree" boostWeight="1.0000000000000000e+00" itree="1187">
      <Node pos="s" depth="0" NCoef="0" IVar="34" Cut="1.4867393970489502e+00" cType="1" res="6.1973242554813623e-04" rms="2.2805348038673401e-01" purity="5.0334787368774414e-01" nType="0">
        <Node pos="l" depth="1" NCoef="0" IVar="36" Cut="1.4841555356979370e+00" cType="1" res="3.8537767250090837e-03" rms="2.3151846230030060e-01" purity="5.3447979688644409e-01" nType="0">
          <Node pos="l" depth="2" NCoef="0" IVar="-1" Cut="0.0000000000000000e+00" cType="1" res="7.2082597762346268e-04" rms="2.3083946108818054e-01" purity="5.4776906967163086e-01" nType="-99"/>
          <Node pos="r" depth="2" NCoef="0" IVar="-1" Cut="0.0000000000000000e+00" cType="1" res="-7.6140984892845154e-03" rms="2.4163544178009033e-01" purity="7.8302025794982910e-02" nType="-99"/>
        </Node>
        <Node pos="r" depth="1" NCoef="0" IVar="36" Cut="1.4855713844299316e+00" cType="1" res="-4.6894501894712448e-02" rms="1.6186925768852234e-01" purity="4.5960262417793274e-02" nType="0">
          <Node pos="l" depth="2" NCoef="0" IVar="-1" Cut="0.0000000000000000e+00" cType="1" res="-1.1498249135911465e-02" rms="2.0269964635372162e-01" purity="8.2672208547592163e-02" nType="-99"/>
          <Node pos="r" depth="2" NCoef="0" IVar="-1" Cut="0.0000000000000000e+00" cType="1" res="-4.7800005413591862e-03" rms="1.2544116377830505e-01" purity="2.5446321815252304e-02" nType="-99"/>
        </Node>
      </Node>
    </BinaryTree>
    <BinaryTree type="DecisionTree" boostWeight="1.0000000000000000e+00" itree="1188">
      <Node pos="s" depth="0" NCoef="0" IVar="63" Cut="1.1558468341827393e+00" cType="1" res="-2.3448470165021718e-04" rms="2.2668601572513580e-01" purity="4.9716579914093018e-01" nType="0">
        <Node pos="l" depth="1" NCoef="0" IVar="1" Cut="1.8054461479187012e+00" cType="1" res="2.3023202084004879e-03" rms="2.2981821000576019e-01" purity="5.0851690769195557e-01" nType="0">
          <Node pos="l" depth="2" NCoef="0" IVar="-1" Cut="0.0000000000000000e+00" cType="1" res="-4.5601699501276016e-02" rms="0.0000000000000000e+00" purity="-3.3537048846483231e-02" nType="-99"/>
          <Node pos="r" depth="2" NCoef="0" IVar="-1" Cut="0.0000000000000000e+00" cType="1" res="5.4635276319459081e-04" rms="2.4024009704589844e-01" purity="5.3751003742218018e-01" nType="-99"/>
        </Node>
        <Node pos="r" depth="1" NCoef="0" IVar="49" Cut="3.1835618019104004e+00" cType="1" res="-4.6296343207359314e-02" rms="1.5226769447326660e-01" purity="2.9105776548385620e-01" nType="0">
          <Node pos="l" depth="2" NCoef="0" IVar="-1" Cut="0.0000000000000000e+00" cType="1" res="-1.2413301505148411e-02" rms="3.0665390193462372e-02" purity="1.7163342237472534e-01" nType="-99"/>
          <Node pos="r" depth="2" NCoef="0" IVar="-1" Cut="0.0000000000000000e+00" cType="1" res="-2.1609354298561811e-03" rms="2.0014338195323944e-01" purity="3.9023607969284058e-01" nType="-99"/>
        </Node>
      </Node>
    </BinaryTree>
    <BinaryTree type="DecisionTree" boostWeight="1.0000000000000000e+00" itree="1189">
      <Node pos="s" depth="0" NCoef="0" IVar="2" Cut="5.7250368595123291e-01" cType="1" res="1.3859608443453908e-03" rms="2.2645694017410278e-01" purity="5.0045013427734375e-01" nType="0">
        <Node pos="l" depth="1" NCoef="0" IVar="-1" Cut="0.0000000000000000e+00" cType="1" res="-1.2877235189080238e-02" rms="0.0000000000000000e+00" purity="-4.5642677694559097e-02" nType="-99"/>
        <Node pos="r" depth="1" NCoef="0" IVar="0" Cut="1.1904172897338867e+00" cType="1" res="3.2047310378402472e-03" rms="2.3175126314163208e-01" purity="5.1384645700454712e-01" nType="0">
          <Node pos="l" depth="2" NCoef="0" IVar="-1" Cut="0.0000000000000000e+00" cType="1" res="6.1567616648972034e-04" rms="2.3178136348724365e-01" purity="5.2169901132583618e-01" nType="-99"/>
          <Node pos="r" depth="2" NCoef="0" IVar="-1" Cut="0.0000000000000000e+00" cType="1" res="-6.1390884220600128e-03" rms="2.2488567233085632e-01" purity="3.0429944396018982e-01" nType="-99"/>
        </Node>
      </Node>
    </BinaryTree>
    <BinaryTree type="DecisionTree" boostWeight="1.0000000000000000e+00" itree="1190">
      <Node pos="s" depth="0" NCoef="0" IVar="0" Cut="1.1904559135437012e+00" cType="1" res="1.1172633385285735e-03" rms="2.2698427736759186e-01" purity="4.9974519014358521e-01" nType="0">
        <Node pos="l" depth="1" NCoef="0" IVar="43" Cut="1.2183976173400879e+00" cType="1" res="3.2086577266454697e-03" rms="2.2698798775672913e-01" purity="5.0809466838836670e-01" nType="0">
          <Node pos="l" depth="2" NCoef="0" IVar="-1" Cut="0.0000000000000000e+00" cType="1" res="6.3634617254137993e-04" rms="2.2848770022392273e-01" purity="5.1749718189239502e-01" nType="-99"/>
          <Node pos="r" depth="2" NCoef="0" IVar="-1" Cut="0.0000000000000000e+00" cType="1" res="-8.6673544719815254e-03" rms="1.6126461327075958e-01" purity="2.1549114584922791e-01" nType="-99"/>
        </Node>
        <Node pos="r" depth="1" NCoef="0" IVar="-1" Cut="0.0000000000000000e+00" cType="1" res="-7.0116338320076466e-03" rms="2.2003775835037231e-01" purity="2.8298538923263550e-01" nType="-99"/>
      </Node>
    </BinaryTree>
    <BinaryTree type="DecisionTree" boostWeight="1.0000000000000000e+00" itree="1191">
      <Node pos="s" depth="0" NCoef="0" IVar="33" Cut="1.4087238311767578e+00" cType="1" res="1.3609745074063540e-03" rms="2.2709286212921143e-01" purity="4.9992990493774414e-01" nType="0">
        <Node pos="l" depth="1" NCoef="0" IVar="17" Cut="-8.1486397981643677e-01" cType="1" res="3.0748597346246243e-03" rms="2.2975434362888336e-01" purity="5.0885635614395142e-01" nType="0">
          <Node pos="l" depth="2" NCoef="0" IVar="-1" Cut="0.0000000000000000e+00" cType="1" res="7.0435175439342856e-04" rms="2.3157422244548798e-01" purity="5.2611112594604492e-01" nType="-99"/>
          <Node pos="r" depth="2" NCoef="0" IVar="-1" Cut="0.0000000000000000e+00" cType="1" res="-5.5172969587147236e-03" rms="1.9339124858379364e-01" purity="2.3546776175498962e-01" nType="-99"/>
        </Node>
        <Node pos="r" depth="1" NCoef="0" IVar="-1" Cut="0.0000000000000000e+00" cType="1" res="-1.2195785529911518e-02" rms="0.0000000000000000e+00" purity="1.1431494355201721e-01" nType="-99"/>
      </Node>
    </BinaryTree>
    <BinaryTree type="DecisionTree" boostWeight="1.0000000000000000e+00" itree="1192">
      <Node pos="s" depth="0" NCoef="0" IVar="2" Cut="1.2086875438690186e+00" cType="1" res="-9.0364372590556741e-04" rms="2.2766484320163727e-01" purity="4.9972912669181824e-01" nType="0">
        <Node pos="l" depth="1" NCoef="0" IVar="37" Cut="-2.3901801109313965e+00" cType="1" res="-3.9068099111318588e-02" rms="1.3834235072135925e-01" purity="1.0287861526012421e-01" nType="0">
          <Node pos="l" depth="2" NCoef="0" IVar="-1" Cut="0.0000000000000000e+00" cType="1" res="1.5448392368853092e-03" rms="2.7794355154037476e-01" purity="2.0354622602462769e-01" nType="-99"/>
          <Node pos="r" depth="2" NCoef="0" IVar="-1" Cut="0.0000000000000000e+00" cType="1" res="-7.6737664639949799e-03" rms="0.0000000000000000e+00" purity="6.5987072885036469e-02" nType="-99"/>
        </Node>
        <Node pos="r" depth="1" NCoef="0" IVar="49" Cut="2.8606891632080078e+00" cType="1" res="2.3873685859143734e-03" rms="2.3348236083984375e-01" purity="5.3395050764083862e-01" nType="0">
          <Node pos="l" depth="2" NCoef="0" IVar="-1" Cut="0.0000000000000000e+00" cType="1" res="-2.0044168923050165e-03" rms="2.2511173784732819e-01" purity="4.0427079796791077e-01" nType="-99"/>
          <Node pos="r" depth="2" NCoef="0" IVar="-1" Cut="0.0000000000000000e+00" cType="1" res="1.1295913718640804e-03" rms="2.3635753989219666e-01" purity="5.8557873964309692e-01" nType="-99"/>
        </Node>
      </Node>
    </BinaryTree>
    <BinaryTree type="DecisionTree" boostWeight="1.0000000000000000e+00" itree="1193">
      <Node pos="s" depth="0" NCoef="0" IVar="14" Cut="-1.4537111520767212e+00" cType="1" res="1.6919353220146149e-04" rms="2.2562174499034882e-01" purity="4.9948680400848389e-01" nType="0">
        <Node pos="l" depth="1" NCoef="0" IVar="60" Cut="-5.9036415070295334e-02" cType="1" res="-5.4182138293981552e-02" rms="0.0000000000000000e+00" purity="-1.8908353522419930e-02" nType="-99"/>
        <Node pos="r" depth="1" NCoef="0" IVar="9" Cut="2.4608874320983887e+00" cType="1" res="5.4429685696959496e-03" rms="2.5936388969421387e-01" purity="6.1955189704895020e-01" nType="0">
          <Node pos="l" depth="2" NCoef="0" IVar="-1" Cut="0.0000000000000000e+00" cType="1" res="-7.3797013610601425e-03" rms="2.0367743074893951e-01" purity="1.4487992227077484e-01" nType="-99"/>
          <Node pos="r" depth="2" NCoef="0" IVar="-1" Cut="0.0000000000000000e+00" cType="1" res="7.8141369158402085e-04" rms="2.6093766093254089e-01" purity="6.3767129182815552e-01" nType="-99"/>
        </Node>
      </Node>
    </BinaryTree>
    <BinaryTree type="DecisionTree" boostWeight="1.0000000000000000e+00" itree="1194">
      <Node pos="s" depth="0" NCoef="0" IVar="5" Cut="8.5243028402328491e-01" cType="1" res="1.6497869510203600e-03" rms="2.2383990883827209e-01" purity="5.0021600723266602e-01" nType="0">
        <Node pos="l" depth="1" NCoef="0" IVar="16" Cut="-2.1996527910232544e-01" cType="1" res="-9.1427210718393326e-03" rms="0.0000000000000000e+00" purity="7.5285241007804871e-02" nType="-99"/>
        <Node pos="r" depth="1" NCoef="0" IVar="2" Cut="5.2104693651199341e-01" cType="1" res="4.1897357441484928e-03" rms="2.3083978891372681e-01" purity="5.2526378631591797e-01" nType="0">
          <Node pos="l" depth="2" NCoef="0" IVar="-1" Cut="0.0000000000000000e+00" cType="1" res="-1.3973229564726353e-02" rms="0.0000000000000000e+00" purity="-5.4694656282663345e-02" nType="-99"/>
          <Node pos="r" depth="2" NCoef="0" IVar="-1" Cut="0.0000000000000000e+00" cType="1" res="6.9684942718595266e-04" rms="2.3580153286457062e-01" purity="5.3813135623931885e-01" nType="-99"/>
        </Node>
      </Node>
    </BinaryTree>
    <BinaryTree type="DecisionTree" boostWeight="1.0000000000000000e+00" itree="1195">
      <Node pos="s" depth="0" NCoef="0" IVar="14" Cut="-1.4150160551071167e+00" cType="1" res="-1.1446024291217327e-03" rms="2.2319950163364410e-01" purity="5.0060945749282837e-01" nType="0">
        <Node pos="l" depth="1" NCoef="0" IVar="38" Cut="1.1222273111343384e+00" cType="1" res="-4.7982525080442429e-02" rms="0.0000000000000000e+00" purity="-2.1124893799424171e-02" nType="-99"/>
        <Node pos="r" depth="1" NCoef="0" IVar="9" Cut="2.4557106494903564e+00" cType="1" res="5.1346896216273308e-03" rms="2.6110902428627014e-01" purity="6.3214498758316040e-01" nType="0">
          <Node pos="l" depth="2" NCoef="0" IVar="-1" Cut="0.0000000000000000e+00" cType="1" res="-7.2600380517542362e-03" rms="2.0312714576721191e-01" purity="1.5790680050849915e-01" nType="-99"/>
          <Node pos="r" depth="2" NCoef="0" IVar="-1" Cut="0.0000000000000000e+00" cType="1" res="7.2202866431325674e-04" rms="2.6259183883666992e-01" purity="6.4857178926467896e-01" nType="-99"/>
        </Node>
      </Node>
    </BinaryTree>
    <BinaryTree type="DecisionTree" boostWeight="1.0000000000000000e+00" itree="1196">
      <Node pos="s" depth="0" NCoef="0" IVar="54" Cut="1.4855325222015381e+00" cType="1" res="-1.0268582263961434e-03" rms="2.2789648175239563e-01" purity="4.9917912483215332e-01" nType="0">
        <Node pos="l" depth="1" NCoef="0" IVar="56" Cut="1.4841312170028687e+00" cType="1" res="1.8870453350245953e-03" rms="2.3025654256343842e-01" purity="5.3085690736770630e-01" nType="0">
          <Node pos="l" depth="2" NCoef="0" IVar="-1" Cut="0.0000000000000000e+00" cType="1" res="5.3613132331520319e-04" rms="2.3096486926078796e-01" purity="5.4479914903640747e-01" nType="-99"/>
          <Node pos="r" depth="2" NCoef="0" IVar="-1" Cut="0.0000000000000000e+00" cType="1" res="-1.0612574405968189e-02" rms="1.8200621008872986e-01" purity="4.0802881121635437e-02" nType="-99"/>
        </Node>
        <Node pos="r" depth="1" NCoef="0" IVar="56" Cut="1.4846016168594360e+00" cType="1" res="-4.1569657623767853e-02" rms="1.8743167817592621e-01" purity="5.8427210897207260e-02" nType="0">
          <Node pos="l" depth="2" NCoef="0" IVar="-1" Cut="0.0000000000000000e+00" cType="1" res="-1.1403492651879787e-02" rms="2.0416332781314850e-01" purity="8.6799241602420807e-02" nType="-99"/>
          <Node pos="r" depth="2" NCoef="0" IVar="-1" Cut="0.0000000000000000e+00" cType="1" res="-1.3066742103546858e-03" rms="1.6674731671810150e-01" purity="4.2281437665224075e-02" nType="-99"/>
        </Node>
      </Node>
    </BinaryTree>
    <BinaryTree type="DecisionTree" boostWeight="1.0000000000000000e+00" itree="1197">
      <Node pos="s" depth="0" NCoef="0" IVar="25" Cut="6.9845002889633179e-01" cType="1" res="2.8128214762546122e-04" rms="2.2956347465515137e-01" purity="4.9960622191429138e-01" nType="0">
        <Node pos="l" depth="1" NCoef="0" IVar="-1" Cut="0.0000000000000000e+00" cType="1" res="-1.5163713134825230e-02" rms="0.0000000000000000e+00" purity="1.4838568866252899e-02" nType="-99"/>
        <Node pos="r" depth="1" NCoef="0" IVar="34" Cut="1.4867393970489502e+00" cType="1" res="2.0994748920202255e-03" rms="2.3386117815971375e-01" purity="5.1462930440902710e-01" nType="0">
          <Node pos="l" depth="2" NCoef="0" IVar="-1" Cut="0.0000000000000000e+00" cType="1" res="5.8365362929180264e-04" rms="2.3600307106971741e-01" purity="5.4729574918746948e-01" nType="-99"/>
          <Node pos="r" depth="2" NCoef="0" IVar="-1" Cut="0.0000000000000000e+00" cType="1" res="-6.9100991822779179e-03" rms="1.9710142910480499e-01" purity="5.5743698030710220e-02" nType="-99"/>
        </Node>
      </Node>
    </BinaryTree>
    <BinaryTree type="DecisionTree" boostWeight="1.0000000000000000e+00" itree="1198">
      <Node pos="s" depth="0" NCoef="0" IVar="45" Cut="7.6999157667160034e-01" cType="1" res="1.4390381693374366e-04" rms="2.2689518332481384e-01" purity="4.9903178215026855e-01" nType="0">
        <Node pos="l" depth="1" NCoef="0" IVar="45" Cut="6.9316029548645020e-01" cType="1" res="-1.3574051670730114e-02" rms="0.0000000000000000e+00" purity="2.0871639251708984e-02" nType="-99"/>
        <Node pos="r" depth="1" NCoef="0" IVar="44" Cut="1.2345679104328156e-02" cType="1" res="3.0657204333692789e-03" rms="2.3483766615390778e-01" purity="5.2409869432449341e-01" nType="0">
          <Node pos="l" depth="2" NCoef="0" IVar="-1" Cut="0.0000000000000000e+00" cType="1" res="6.6221388988196850e-04" rms="2.3324643075466156e-01" purity="5.3497272729873657e-01" nType="-99"/>
          <Node pos="r" depth="2" NCoef="0" IVar="-1" Cut="0.0000000000000000e+00" cType="1" res="-5.9384326450526714e-03" rms="2.6055794954299927e-01" purity="2.9514783620834351e-01" nType="-99"/>
        </Node>
      </Node>
    </BinaryTree>
    <BinaryTree type="DecisionTree" boostWeight="1.0000000000000000e+00" itree="1199">
      <Node pos="s" depth="0" NCoef="0" IVar="2" Cut="4.7321304678916931e-01" cType="1" res="-7.3708698619157076e-04" rms="2.2543743252754211e-01" purity="4.9870899319648743e-01" nType="0">
        <Node pos="l" depth="1" NCoef="0" IVar="-1" Cut="0.0000000000000000e+00" cType="1" res="-1.5690218657255173e-02" rms="0.0000000000000000e+00" purity="-5.5491693317890167e-02" nType="-99"/>
        <Node pos="r" depth="1" NCoef="0" IVar="37" Cut="-7.2387623786926270e-01" cType="1" res="8.4987259469926357e-04" rms="2.3030401766300201e-01" purity="5.1046437025070190e-01" nType="0">
          <Node pos="l" depth="2" NCoef="0" IVar="-1" Cut="0.0000000000000000e+00" cType="1" res="3.9211346302181482e-04" rms="2.3407311737537384e-01" purity="5.2761399745941162e-01" nType="-99"/>
          <Node pos="r" depth="2" NCoef="0" IVar="-1" Cut="0.0000000000000000e+00" cType="1" res="-6.5924609079957008e-03" rms="1.3875646889209747e-01" purity="1.9939026236534119e-01" nType="-99"/>
        </Node>
      </Node>
    </BinaryTree>
    <BinaryTree type="DecisionTree" boostWeight="1.0000000000000000e+00" itree="1200">
      <Node pos="s" depth="0" NCoef="0" IVar="23" Cut="1.3084503412246704e+00" cType="1" res="1.2748176231980324e-03" rms="2.2662208974361420e-01" purity="4.9677503108978271e-01" nType="0">
        <Node pos="l" depth="1" NCoef="0" IVar="64" Cut="1.2345679104328156e-02" cType="1" res="2.9418971389532089e-03" rms="2.2808842360973358e-01" purity="5.0330662727355957e-01" nType="0">
          <Node pos="l" depth="2" NCoef="0" IVar="-1" Cut="0.0000000000000000e+00" cType="1" res="6.1616540187969804e-04" rms="2.2774992883205414e-01" purity="5.1361548900604248e-01" nType="-99"/>
          <Node pos="r" depth="2" NCoef="0" IVar="-1" Cut="0.0000000000000000e+00" cType="1" res="-6.1147809028625488e-03" rms="2.3034936189651489e-01" purity="2.7184525132179260e-01" nType="-99"/>
        </Node>
        <Node pos="r" depth="1" NCoef="0" IVar="-1" Cut="0.0000000000000000e+00" cType="1" res="-1.1202188208699226e-02" rms="1.1294056475162506e-01" purity="1.8282927572727203e-01" nType="-99"/>
      </Node>
    </BinaryTree>
    <BinaryTree type="DecisionTree" boostWeight="1.0000000000000000e+00" itree="1201">
      <Node pos="s" depth="0" NCoef="0" IVar="2" Cut="4.9828153848648071e-01" cType="1" res="4.0563088259659708e-04" rms="2.2781530022621155e-01" purity="5.0118803977966309e-01" nType="0">
        <Node pos="l" depth="1" NCoef="0" IVar="-1" Cut="0.0000000000000000e+00" cType="1" res="-1.4971162192523479e-02" rms="0.0000000000000000e+00" purity="-5.7478930801153183e-02" nType="-99"/>
        <Node pos="r" depth="1" NCoef="0" IVar="23" Cut="1.2701385021209717e+00" cType="1" res="1.9793899264186621e-03" rms="2.3256744444370270e-01" purity="5.1268494129180908e-01" nType="0">
          <Node pos="l" depth="2" NCoef="0" IVar="-1" Cut="0.0000000000000000e+00" cType="1" res="4.4842902570962906e-04" rms="2.3432096838951111e-01" purity="5.2028417587280273e-01" nType="-99"/>
          <Node pos="r" depth="2" NCoef="0" IVar="-1" Cut="0.0000000000000000e+00" cType="1" res="-9.5969494432210922e-03" rms="1.2978987395763397e-01" purity="2.1226058900356293e-01" nType="-99"/>
        </Node>
      </Node>
    </BinaryTree>
    <BinaryTree type="DecisionTree" boostWeight="1.0000000000000000e+00" itree="1202">
      <Node pos="s" depth="0" NCoef="0" IVar="56" Cut="1.5240936279296875e+00" cType="1" res="1.5887132612988353e-03" rms="2.2531001269817352e-01" purity="5.0257098674774170e-01" nType="0">
        <Node pos="l" depth="1" NCoef="0" IVar="29" Cut="2.7267668247222900e+00" cType="1" res="3.6595696583390236e-03" rms="2.2774365544319153e-01" purity="5.2192509174346924e-01" nType="0">
          <Node pos="l" depth="2" NCoef="0" IVar="-1" Cut="0.0000000000000000e+00" cType="1" res="-2.2864693310111761e-03" rms="2.1421962976455688e-01" purity="3.5617208480834961e-01" nType="-99"/>
          <Node pos="r" depth="2" NCoef="0" IVar="-1" Cut="0.0000000000000000e+00" cType="1" res="1.0370243107900023e-03" rms="2.3061701655387878e-01" purity="5.6220775842666626e-01" nType="-99"/>
        </Node>
        <Node pos="r" depth="1" NCoef="0" IVar="-1" Cut="0.0000000000000000e+00" cType="1" res="-9.5001189038157463e-03" rms="1.4240197837352753e-01" purity="1.6747450456023216e-02" nType="-99"/>
      </Node>
    </BinaryTree>
    <BinaryTree type="DecisionTree" boostWeight="1.0000000000000000e+00" itree="1203">
      <Node pos="s" depth="0" NCoef="0" IVar="5" Cut="7.4095118045806885e-01" cType="1" res="9.4139896100386977e-04" rms="2.2972053289413452e-01" purity="5.0110012292861938e-01" nType="0">
        <Node pos="l" depth="1" NCoef="0" IVar="-1" Cut="0.0000000000000000e+00" cType="1" res="-1.3410217128694057e-02" rms="0.0000000000000000e+00" purity="5.1975950598716736e-02" nType="-99"/>
        <Node pos="r" depth="1" NCoef="0" IVar="37" Cut="-1.9738744497299194e+00" cType="1" res="2.7277087792754173e-03" rms="2.3396216332912445e-01" purity="5.1507556438446045e-01" nType="0">
          <Node pos="l" depth="2" NCoef="0" IVar="-1" Cut="0.0000000000000000e+00" cType="1" res="1.3752174563705921e-03" rms="2.4031791090965271e-01" purity="5.7672804594039917e-01" nType="-99"/>
          <Node pos="r" depth="2" NCoef="0" IVar="-1" Cut="0.0000000000000000e+00" cType="1" res="-9.8242261447012424e-04" rms="2.2556254267692566e-01" purity="4.4040751457214355e-01" nType="-99"/>
        </Node>
      </Node>
    </BinaryTree>
    <BinaryTree type="DecisionTree" boostWeight="1.0000000000000000e+00" itree="1204">
      <Node pos="s" depth="0" NCoef="0" IVar="2" Cut="1.2059113979339600e+00" cType="1" res="-1.1955935042351484e-04" rms="2.2518070042133331e-01" purity="5.0011879205703735e-01" nType="0">
        <Node pos="l" depth="1" NCoef="0" IVar="1" Cut="2.8859465122222900e+00" cType="1" res="-3.8985315710306168e-02" rms="1.1532327532768250e-01" purity="9.5253862440586090e-02" nType="0">
          <Node pos="l" depth="2" NCoef="0" IVar="-1" Cut="0.0000000000000000e+00" cType="1" res="-2.5773046072572470e-03" rms="9.9371321499347687e-02" purity="7.1608722209930420e-02" nType="-99"/>
          <Node pos="r" depth="2" NCoef="0" IVar="-1" Cut="0.0000000000000000e+00" cType="1" res="-7.2294031269848347e-03" rms="1.3001470267772675e-01" purity="1.5653176605701447e-01" nType="-99"/>
        </Node>
        <Node pos="r" depth="1" NCoef="0" IVar="29" Cut="2.5875108242034912e+00" cType="1" res="3.1451915856450796e-03" rms="2.3175634443759918e-01" purity="5.3412777185440063e-01" nType="0">
          <Node pos="l" depth="2" NCoef="0" IVar="-1" Cut="0.0000000000000000e+00" cType="1" res="-3.1674508936703205e-03" rms="2.1548449993133545e-01" purity="3.0687800049781799e-01" nType="-99"/>
          <Node pos="r" depth="2" NCoef="0" IVar="-1" Cut="0.0000000000000000e+00" cType="1" res="8.9204218238592148e-04" rms="2.3401167988777161e-01" purity="5.7107561826705933e-01" nType="-99"/>
        </Node>
      </Node>
    </BinaryTree>
    <BinaryTree type="DecisionTree" boostWeight="1.0000000000000000e+00" itree="1205">
      <Node pos="s" depth="0" NCoef="0" IVar="58" Cut="1.4030823707580566e+00" cType="1" res="-9.4422552501782775e-04" rms="2.2616769373416901e-01" purity="4.9667009711265564e-01" nType="0">
        <Node pos="l" depth="1" NCoef="0" IVar="7" Cut="-1.5513050556182861e+00" cType="1" res="1.4494544593617320e-03" rms="2.2713974118232727e-01" purity="5.0888478755950928e-01" nType="0">
          <Node pos="l" depth="2" NCoef="0" IVar="-1" Cut="0.0000000000000000e+00" cType="1" res="4.8850080929696560e-04" rms="2.3100848495960236e-01" purity="5.2039349079132080e-01" nType="-99"/>
          <Node pos="r" depth="2" NCoef="0" IVar="-1" Cut="0.0000000000000000e+00" cType="1" res="-5.8906055055558681e-03" rms="1.4998596906661987e-01" purity="3.3133247494697571e-01" nType="-99"/>
        </Node>
        <Node pos="r" depth="1" NCoef="0" IVar="53" Cut="-1.3378756046295166e+00" cType="1" res="-4.8930563032627106e-02" rms="1.9975176453590393e-01" purity="2.5180172920227051e-01" nType="0">
          <Node pos="l" depth="2" NCoef="0" IVar="-1" Cut="0.0000000000000000e+00" cType="1" res="-2.6719579473137856e-03" rms="2.4183294177055359e-01" purity="3.7582352757453918e-01" nType="-99"/>
          <Node pos="r" depth="2" NCoef="0" IVar="-1" Cut="0.0000000000000000e+00" cType="1" res="-1.2720126658678055e-02" rms="1.3893391191959381e-01" purity="1.2453936040401459e-01" nType="-99"/>
        </Node>
      </Node>
    </BinaryTree>
    <BinaryTree type="DecisionTree" boostWeight="1.0000000000000000e+00" itree="1206">
      <Node pos="s" depth="0" NCoef="0" IVar="2" Cut="2.5848004817962646e+00" cType="1" res="4.8341139336116612e-04" rms="2.2755864262580872e-01" purity="5.0049221515655518e-01" nType="0">
        <Node pos="l" depth="1" NCoef="0" IVar="14" Cut="-1.4150485992431641e+00" cType="1" res="-7.4542458169162273e-03" rms="2.1738253533840179e-01" purity="3.6430138349533081e-01" nType="0">
          <Node pos="l" depth="2" NCoef="0" IVar="-1" Cut="0.0000000000000000e+00" cType="1" res="-1.6626149415969849e-01" rms="0.0000000000000000e+00" purity="-3.1897973269224167e-02" nType="-99"/>
          <Node pos="r" depth="2" NCoef="0" IVar="-1" Cut="0.0000000000000000e+00" cType="1" res="1.5361903933808208e-04" rms="2.7418237924575806e-01" purity="5.0268745422363281e-01" nType="-99"/>
        </Node>
        <Node pos="r" depth="1" NCoef="0" IVar="14" Cut="-1.3763210773468018e+00" cType="1" res="1.5710374340415001e-02" rms="2.4518546462059021e-01" purity="7.6174986362457275e-01" nType="0">
          <Node pos="l" depth="2" NCoef="0" IVar="-1" Cut="0.0000000000000000e+00" cType="1" res="3.9312817156314850e-02" rms="3.1882962584495544e-01" purity="1.2982314825057983e-01" nType="-99"/>
          <Node pos="r" depth="2" NCoef="0" IVar="-1" Cut="0.0000000000000000e+00" cType="1" res="6.0854793991893530e-04" rms="2.3229736089706421e-01" purity="8.3992654085159302e-01" nType="-99"/>
        </Node>
      </Node>
    </BinaryTree>
    <BinaryTree type="DecisionTree" boostWeight="1.0000000000000000e+00" itree="1207">
      <Node pos="s" depth="0" NCoef="0" IVar="52" Cut="-1.4926078319549561e+00" cType="1" res="1.0053367586806417e-03" rms="2.2431182861328125e-01" purity="5.0418680906295776e-01" nType="0">
        <Node pos="l" depth="1" NCoef="0" IVar="18" Cut="1.4082194566726685e+00" cType="1" res="1.0156549513339996e-02" rms="2.2830361127853394e-01" purity="6.3306653499603271e-01" nType="0">
          <Node pos="l" depth="2" NCoef="0" IVar="-1" Cut="0.0000000000000000e+00" cType="1" res="1.5524504706263542e-03" rms="2.2679984569549561e-01" purity="6.4139437675476074e-01" nType="-99"/>
          <Node pos="r" depth="2" NCoef="0" IVar="-1" Cut="0.0000000000000000e+00" cType="1" res="-6.5366690978407860e-03" rms="2.5773125886917114e-01" purity="4.0379467606544495e-01" nType="-99"/>
        </Node>
        <Node pos="r" depth="1" NCoef="0" IVar="2" Cut="2.4384720325469971e+00" cType="1" res="-1.2716131284832954e-02" rms="2.1746927499771118e-01" purity="3.1094264984130859e-01" nType="0">
          <Node pos="l" depth="2" NCoef="0" IVar="-1" Cut="0.0000000000000000e+00" cType="1" res="-3.5877777263522148e-03" rms="1.5960274636745453e-01" purity="1.6715785861015320e-01" nType="-99"/>
          <Node pos="r" depth="2" NCoef="0" IVar="-1" Cut="0.0000000000000000e+00" cType="1" res="8.9085014769807458e-04" rms="2.9521182179450989e-01" purity="5.7851886749267578e-01" nType="-99"/>
        </Node>
      </Node>
    </BinaryTree>
    <BinaryTree type="DecisionTree" boostWeight="1.0000000000000000e+00" itree="1208">
      <Node pos="s" depth="0" NCoef="0" IVar="57" Cut="-1.0328143835067749e+00" cType="1" res="-9.0402127170818858e-06" rms="2.2538605332374573e-01" purity="5.0042587518692017e-01" nType="0">
        <Node pos="l" depth="1" NCoef="0" IVar="0" Cut="1.1791874170303345e+00" cType="1" res="4.4126859866082668e-03" rms="2.2880716621875763e-01" purity="5.3113538026809692e-01" nType="0">
          <Node pos="l" depth="2" NCoef="0" IVar="-1" Cut="0.0000000000000000e+00" cType="1" res="7.9632899723947048e-04" rms="2.2973830997943878e-01" purity="5.3953808546066284e-01" nType="-99"/>
          <Node pos="r" depth="2" NCoef="0" IVar="-1" Cut="0.0000000000000000e+00" cType="1" res="-7.0844511501491070e-03" rms="1.9228433072566986e-01" purity="3.0354294180870056e-01" nType="-99"/>
        </Node>
        <Node pos="r" depth="1" NCoef="0" IVar="2" Cut="1.9441493749618530e+00" cType="1" res="-3.4832153469324112e-02" rms="1.9286012649536133e-01" purity="2.5857433676719666e-01" nType="0">
          <Node pos="l" depth="2" NCoef="0" IVar="-1" Cut="0.0000000000000000e+00" cType="1" res="-1.4967711642384529e-02" rms="0.0000000000000000e+00" purity="2.5417834520339966e-02" nType="-99"/>
          <Node pos="r" depth="2" NCoef="0" IVar="-1" Cut="0.0000000000000000e+00" cType="1" res="-1.7386408289894462e-03" rms="2.8896644711494446e-01" purity="4.2245560884475708e-01" nType="-99"/>
        </Node>
      </Node>
    </BinaryTree>
    <BinaryTree type="DecisionTree" boostWeight="1.0000000000000000e+00" itree="1209">
      <Node pos="s" depth="0" NCoef="0" IVar="25" Cut="7.8896617889404297e-01" cType="1" res="3.5791235859505832e-04" rms="2.2770380973815918e-01" purity="4.9929696321487427e-01" nType="0">
        <Node pos="l" depth="1" NCoef="0" IVar="18" Cut="7.2605901956558228e-01" cType="1" res="-1.2374757789075375e-02" rms="0.0000000000000000e+00" purity="1.9967932254076004e-02" nType="-99"/>
        <Node pos="r" depth="1" NCoef="0" IVar="34" Cut="-2.2682387381792068e-02" cType="1" res="3.3182024490088224e-03" rms="2.3653540015220642e-01" purity="5.2819275856018066e-01" nType="0">
          <Node pos="l" depth="2" NCoef="0" IVar="-1" Cut="0.0000000000000000e+00" cType="1" res="1.0951746953651309e-03" rms="2.3534290492534637e-01" purity="6.0974812507629395e-01" nType="-99"/>
          <Node pos="r" depth="2" NCoef="0" IVar="-1" Cut="0.0000000000000000e+00" cType="1" res="-2.1460438147187233e-03" rms="2.3963582515716553e-01" purity="2.2655610740184784e-01" nType="-99"/>
        </Node>
      </Node>
    </BinaryTree>
    <BinaryTree type="DecisionTree" boostWeight="1.0000000000000000e+00" itree="1210">
      <Node pos="s" depth="0" NCoef="0" IVar="57" Cut="-8.5139322280883789e-01" cType="1" res="6.0272701375652105e-05" rms="2.2398479282855988e-01" purity="4.9964526295661926e-01" nType="0">
        <Node pos="l" depth="1" NCoef="0" IVar="65" Cut="7.5198602676391602e-01" cType="1" res="3.1251304317265749e-03" rms="2.2673097252845764e-01" purity="5.2295273542404175e-01" nType="0">
          <Node pos="l" depth="2" NCoef="0" IVar="-1" Cut="0.0000000000000000e+00" cType="1" res="7.3172571137547493e-04" rms="2.3291586339473724e-01" purity="5.5125451087951660e-01" nType="-99"/>
          <Node pos="r" depth="2" NCoef="0" IVar="-1" Cut="0.0000000000000000e+00" cType="1" res="-5.4319114424288273e-03" rms="1.1786729842424393e-01" purity="1.6542665660381317e-01" nType="-99"/>
        </Node>
        <Node pos="r" depth="1" NCoef="0" IVar="0" Cut="3.9108613133430481e-01" cType="1" res="-3.7249665707349777e-02" rms="1.8328984081745148e-01" purity="2.1591237187385559e-01" nType="0">
          <Node pos="l" depth="2" NCoef="0" IVar="-1" Cut="0.0000000000000000e+00" cType="1" res="-1.1638863943517208e-03" rms="2.4682146310806274e-01" purity="3.0355960130691528e-01" nType="-99"/>
          <Node pos="r" depth="2" NCoef="0" IVar="-1" Cut="0.0000000000000000e+00" cType="1" res="-9.5220487564802170e-03" rms="1.2801711261272430e-01" purity="1.6321383416652679e-01" nType="-99"/>
        </Node>
      </Node>
    </BinaryTree>
    <BinaryTree type="DecisionTree" boostWeight="1.0000000000000000e+00" itree="1211">
      <Node pos="s" depth="0" NCoef="0" IVar="53" Cut="1.4075684547424316e+00" cType="1" res="1.4401389053091407e-03" rms="2.2829791903495789e-01" purity="5.0013113021850586e-01" nType="0">
        <Node pos="l" depth="1" NCoef="0" IVar="56" Cut="1.5240936279296875e+00" cType="1" res="3.0618929304182529e-03" rms="2.3063033819198608e-01" purity="5.0984555482864380e-01" nType="0">
          <Node pos="l" depth="2" NCoef="0" IVar="-1" Cut="0.0000000000000000e+00" cType="1" res="6.2753941165283322e-04" rms="2.3338943719863892e-01" purity="5.2969717979431152e-01" nType="-99"/>
          <Node pos="r" depth="2" NCoef="0" IVar="-1" Cut="0.0000000000000000e+00" cType="1" res="-9.9010560661554337e-03" rms="1.3432531058788300e-01" purity="1.2969356961548328e-02" nType="-99"/>
        </Node>
        <Node pos="r" depth="1" NCoef="0" IVar="-1" Cut="0.0000000000000000e+00" cType="1" res="-1.2696092948317528e-02" rms="5.9597004204988480e-02" purity="1.0069219022989273e-01" nType="-99"/>
      </Node>
    </BinaryTree>
    <BinaryTree type="DecisionTree" boostWeight="1.0000000000000000e+00" itree="1212">
      <Node pos="s" depth="0" NCoef="0" IVar="27" Cut="-1.4155658483505249e+00" cType="1" res="4.5059667900204659e-03" rms="2.2940668463706970e-01" purity="5.0391995906829834e-01" nType="0">
        <Node pos="l" depth="1" NCoef="0" IVar="65" Cut="-1.8869714438915253e-01" cType="1" res="7.4008405208587646e-03" rms="2.2682747244834900e-01" purity="5.1690185070037842e-01" nType="0">
          <Node pos="l" depth="2" NCoef="0" IVar="-1" Cut="0.0000000000000000e+00" cType="1" res="-2.1997545845806599e-03" rms="2.3947227001190186e-01" purity="4.3138259649276733e-01" nType="-99"/>
          <Node pos="r" depth="2" NCoef="0" IVar="-1" Cut="0.0000000000000000e+00" cType="1" res="1.4700716128572822e-03" rms="2.2426250576972961e-01" purity="5.3165918588638306e-01" nType="-99"/>
        </Node>
        <Node pos="r" depth="1" NCoef="0" IVar="26" Cut="-1.3013443946838379e+00" cType="1" res="-3.4462329000234604e-02" rms="2.5852677226066589e-01" purity="3.2916963100433350e-01" nType="0">
          <Node pos="l" depth="2" NCoef="0" IVar="-1" Cut="0.0000000000000000e+00" cType="1" res="-1.1311825364828110e-02" rms="3.3680710196495056e-01" purity="1.7660669982433319e-01" nType="-99"/>
          <Node pos="r" depth="2" NCoef="0" IVar="-1" Cut="0.0000000000000000e+00" cType="1" res="-1.6319901915267110e-03" rms="2.1284839510917664e-01" purity="3.9498251676559448e-01" nType="-99"/>
        </Node>
      </Node>
    </BinaryTree>
    <BinaryTree type="DecisionTree" boostWeight="1.0000000000000000e+00" itree="1213">
      <Node pos="s" depth="0" NCoef="0" IVar="25" Cut="7.6241785287857056e-01" cType="1" res="-1.5128361992537975e-03" rms="2.2494149208068848e-01" purity="4.9918386340141296e-01" nType="0">
        <Node pos="l" depth="1" NCoef="0" IVar="13" Cut="-1.1067605018615723e+00" cType="1" res="-1.2174941599369049e-02" rms="0.0000000000000000e+00" purity="2.3389738053083420e-02" nType="-99"/>
        <Node pos="r" depth="1" NCoef="0" IVar="26" Cut="-1.5510976314544678e+00" cType="1" res="8.5865968139842153e-04" rms="2.3188349604606628e-01" purity="5.2354997396469116e-01" nType="0">
          <Node pos="l" depth="2" NCoef="0" IVar="-1" Cut="0.0000000000000000e+00" cType="1" res="4.4921500375494361e-04" rms="2.3027692735195160e-01" purity="5.3675889968872070e-01" nType="-99"/>
          <Node pos="r" depth="2" NCoef="0" IVar="-1" Cut="0.0000000000000000e+00" cType="1" res="-4.7350511886179447e-03" rms="2.4947941303253174e-01" purity="3.4239062666893005e-01" nType="-99"/>
        </Node>
      </Node>
    </BinaryTree>
    <BinaryTree type="DecisionTree" boostWeight="1.0000000000000000e+00" itree="1214">
      <Node pos="s" depth="0" NCoef="0" IVar="14" Cut="-1.4924062490463257e+00" cType="1" res="-1.8231297144666314e-04" rms="2.2535765171051025e-01" purity="4.9795874953269958e-01" nType="0">
        <Node pos="l" depth="1" NCoef="0" IVar="9" Cut="3.1314356327056885e+00" cType="1" res="-8.0960899591445923e-02" rms="0.0000000000000000e+00" purity="-2.3283947259187698e-02" nType="-99"/>
        <Node pos="r" depth="1" NCoef="0" IVar="56" Cut="1.3307255506515503e+00" cType="1" res="4.7812410630285740e-03" rms="2.5502184033393860e-01" purity="5.9743553400039673e-01" nType="0">
          <Node pos="l" depth="2" NCoef="0" IVar="-1" Cut="0.0000000000000000e+00" cType="1" res="9.3577604275196791e-04" rms="2.5638711452484131e-01" purity="6.5065145492553711e-01" nType="-99"/>
          <Node pos="r" depth="2" NCoef="0" IVar="-1" Cut="0.0000000000000000e+00" cType="1" res="-3.5828805994242430e-03" rms="2.3975741863250732e-01" purity="1.3927970826625824e-01" nType="-99"/>
        </Node>
      </Node>
    </BinaryTree>
    <BinaryTree type="DecisionTree" boostWeight="1.0000000000000000e+00" itree="1215">
      <Node pos="s" depth="0" NCoef="0" IVar="1" Cut="1.7481329441070557e+00" cType="1" res="7.6298092608340085e-05" rms="2.2667191922664642e-01" purity="4.9994558095932007e-01" nType="0">
        <Node pos="l" depth="1" NCoef="0" IVar="-1" Cut="0.0000000000000000e+00" cType="1" res="-7.8103736042976379e-02" rms="0.0000000000000000e+00" purity="-4.7257419675588608e-02" nType="-99"/>
        <Node pos="r" depth="1" NCoef="0" IVar="2" Cut="5.5746024847030640e-01" cType="1" res="2.2314137313514948e-03" rms="2.3549050092697144e-01" purity="5.2170586585998535e-01" nType="0">
          <Node pos="l" depth="2" NCoef="0" IVar="-1" Cut="0.0000000000000000e+00" cType="1" res="-1.3448383659124374e-02" rms="0.0000000000000000e+00" purity="-5.0413463264703751e-02" nType="-99"/>
          <Node pos="r" depth="2" NCoef="0" IVar="-1" Cut="0.0000000000000000e+00" cType="1" res="4.6853057574480772e-04" rms="2.4069333076477051e-01" purity="5.3496778011322021e-01" nType="-99"/>
        </Node>
      </Node>
    </BinaryTree>
    <BinaryTree type="DecisionTree" boostWeight="1.0000000000000000e+00" itree="1216">
      <Node pos="s" depth="0" NCoef="0" IVar="2" Cut="9.9335157871246338e-01" cType="1" res="-8.6838503193575889e-05" rms="2.2220104932785034e-01" purity="5.0119650363922119e-01" nType="0">
        <Node pos="l" depth="1" NCoef="0" IVar="56" Cut="-1.4538286924362183e+00" cType="1" res="-6.1984253115952015e-03" rms="0.0000000000000000e+00" purity="4.3360348790884018e-02" nType="-99"/>
        <Node pos="r" depth="1" NCoef="0" IVar="37" Cut="-7.2389125823974609e-01" cType="1" res="2.6120445691049099e-03" rms="2.2827315330505371e-01" purity="5.2618438005447388e-01" nType="0">
          <Node pos="l" depth="2" NCoef="0" IVar="-1" Cut="0.0000000000000000e+00" cType="1" res="6.1962875770404935e-04" rms="2.3157070577144623e-01" purity="5.4349321126937866e-01" nType="-99"/>
          <Node pos="r" depth="2" NCoef="0" IVar="-1" Cut="0.0000000000000000e+00" cType="1" res="-6.5886657685041428e-03" rms="1.4680379629135132e-01" purity="2.0343169569969177e-01" nType="-99"/>
        </Node>
      </Node>
    </BinaryTree>
    <BinaryTree type="DecisionTree" boostWeight="1.0000000000000000e+00" itree="1217">
      <Node pos="s" depth="0" NCoef="0" IVar="17" Cut="-7.5443261861801147e-01" cType="1" res="3.7002109456807375e-04" rms="2.2525434195995331e-01" purity="5.0026005506515503e-01" nType="0">
        <Node pos="l" depth="1" NCoef="0" IVar="33" Cut="1.4087238311767578e+00" cType="1" res="2.8359356801956892e-03" rms="2.2746297717094421e-01" purity="5.1507353782653809e-01" nType="0">
          <Node pos="l" depth="2" NCoef="0" IVar="-1" Cut="0.0000000000000000e+00" cType="1" res="5.4007879225537181e-04" rms="2.2823871672153473e-01" purity="5.2411127090454102e-01" nType="-99"/>
          <Node pos="r" depth="2" NCoef="0" IVar="-1" Cut="0.0000000000000000e+00" cType="1" res="-1.1769694276154041e-02" rms="1.7677442729473114e-01" purity="1.2034596502780914e-01" nType="-99"/>
        </Node>
        <Node pos="r" depth="1" NCoef="0" IVar="54" Cut="-1.4925127029418945e+00" cType="1" res="-4.6679329127073288e-02" rms="1.7126643657684326e-01" purity="2.1762034296989441e-01" nType="0">
          <Node pos="l" depth="2" NCoef="0" IVar="-1" Cut="0.0000000000000000e+00" cType="1" res="-8.2477619871497154e-03" rms="1.9611965119838715e-01" purity="3.4615918993949890e-01" nType="-99"/>
          <Node pos="r" depth="2" NCoef="0" IVar="-1" Cut="0.0000000000000000e+00" cType="1" res="-4.6619386412203312e-03" rms="1.4528071880340576e-01" purity="1.1655317246913910e-01" nType="-99"/>
        </Node>
      </Node>
    </BinaryTree>
    <BinaryTree type="DecisionTree" boostWeight="1.0000000000000000e+00" itree="1218">
      <Node pos="s" depth="0" NCoef="0" IVar="1" Cut="1.8595793247222900e+00" cType="1" res="1.0106129338964820e-03" rms="2.2828608751296997e-01" purity="5.0328803062438965e-01" nType="0">
        <Node pos="l" depth="1" NCoef="0" IVar="5" Cut="1.1991493701934814e+00" cType="1" res="-3.3958867192268372e-02" rms="0.0000000000000000e+00" purity="-3.0136954039335251e-02" nType="-99"/>
        <Node pos="r" depth="1" NCoef="0" IVar="63" Cut="1.1672908067703247e+00" cType="1" res="4.1664261370897293e-03" rms="2.4175584316253662e-01" purity="5.3977245092391968e-01" nType="0">
          <Node pos="l" depth="2" NCoef="0" IVar="-1" Cut="0.0000000000000000e+00" cType="1" res="7.3323288233950734e-04" rms="2.4335940182209015e-01" purity="5.5040264129638672e-01" nType="-99"/>
          <Node pos="r" depth="2" NCoef="0" IVar="-1" Cut="0.0000000000000000e+00" cType="1" res="-5.3745955228805542e-03" rms="1.9771203398704529e-01" purity="3.0796214938163757e-01" nType="-99"/>
        </Node>
      </Node>
    </BinaryTree>
    <BinaryTree type="DecisionTree" boostWeight="1.0000000000000000e+00" itree="1219">
      <Node pos="s" depth="0" NCoef="0" IVar="63" Cut="1.1493073701858521e+00" cType="1" res="1.6134459292516112e-03" rms="2.3284159600734711e-01" purity="5.0490331649780273e-01" nType="0">
        <Node pos="l" depth="1" NCoef="0" IVar="41" Cut="1.2345679104328156e-02" cType="1" res="3.9652134291827679e-03" rms="2.3553209006786346e-01" purity="5.1548320055007935e-01" nType="0">
          <Node pos="l" depth="2" NCoef="0" IVar="-1" Cut="0.0000000000000000e+00" cType="1" res="5.6028207764029503e-03" rms="3.2887050509452820e-01" purity="3.7171927094459534e-01" nType="-99"/>
          <Node pos="r" depth="2" NCoef="0" IVar="-1" Cut="0.0000000000000000e+00" cType="1" res="2.3555180814582855e-04" rms="2.3025818169116974e-01" purity="5.2191740274429321e-01" nType="-99"/>
        </Node>
        <Node pos="r" depth="1" NCoef="0" IVar="53" Cut="-9.5161223411560059e-01" cType="1" res="-3.9894990622997284e-02" rms="1.7364618182182312e-01" purity="3.1816926598548889e-01" nType="0">
          <Node pos="l" depth="2" NCoef="0" IVar="-1" Cut="0.0000000000000000e+00" cType="1" res="-2.1222501527518034e-03" rms="1.9032391905784607e-01" purity="3.9706259965896606e-01" nType="-99"/>
          <Node pos="r" depth="2" NCoef="0" IVar="-1" Cut="0.0000000000000000e+00" cType="1" res="-8.0843809992074966e-03" rms="1.5320485830307007e-01" purity="2.4450397491455078e-01" nType="-99"/>
        </Node>
      </Node>
    </BinaryTree>
    <BinaryTree type="DecisionTree" boostWeight="1.0000000000000000e+00" itree="1220">
      <Node pos="s" depth="0" NCoef="0" IVar="63" Cut="1.2010911703109741e+00" cType="1" res="-6.3569442136213183e-04" rms="2.2815056145191193e-01" purity="4.9957776069641113e-01" nType="0">
        <Node pos="l" depth="1" NCoef="0" IVar="32" Cut="1.2089803218841553e+00" cType="1" res="1.3950373977422714e-03" rms="2.3075723648071289e-01" purity="5.0909048318862915e-01" nType="0">
          <Node pos="l" depth="2" NCoef="0" IVar="-1" Cut="0.0000000000000000e+00" cType="1" res="6.8106339313089848e-04" rms="2.3396258056163788e-01" purity="5.6635427474975586e-01" nType="-99"/>
          <Node pos="r" depth="2" NCoef="0" IVar="-1" Cut="0.0000000000000000e+00" cType="1" res="-3.3766017295420170e-03" rms="2.0765542984008789e-01" purity="1.5125663578510284e-01" nType="-99"/>
        </Node>
        <Node pos="r" depth="1" NCoef="0" IVar="-1" Cut="0.0000000000000000e+00" cType="1" res="-7.7043510973453522e-03" rms="1.3048617541790009e-01" purity="2.4533958733081818e-01" nType="-99"/>
      </Node>
    </BinaryTree>
    <BinaryTree type="DecisionTree" boostWeight="1.0000000000000000e+00" itree="1221">
      <Node pos="s" depth="0" NCoef="0" IVar="37" Cut="-2.2942452430725098e+00" cType="1" res="1.5244501410052180e-03" rms="2.2686691582202911e-01" purity="5.0004583597183228e-01" nType="0">
        <Node pos="l" depth="1" NCoef="0" IVar="39" Cut="-6.6436916589736938e-02" cType="1" res="1.5902420505881310e-02" rms="2.3809491097927094e-01" purity="5.7736730575561523e-01" nType="0">
          <Node pos="l" depth="2" NCoef="0" IVar="-1" Cut="0.0000000000000000e+00" cType="1" res="4.8381934175267816e-04" rms="2.2546292841434479e-01" purity="5.8699917793273926e-01" nType="-99"/>
          <Node pos="r" depth="2" NCoef="0" IVar="-1" Cut="0.0000000000000000e+00" cType="1" res="3.3258271869271994e-03" rms="2.4968314170837402e-01" purity="5.6758171319961548e-01" nType="-99"/>
        </Node>
        <Node pos="r" depth="1" NCoef="0" IVar="2" Cut="1.4326374530792236e+00" cType="1" res="-7.6148752123117447e-03" rms="2.1894109249114990e-01" purity="4.5089659094810486e-01" nType="0">
          <Node pos="l" depth="2" NCoef="0" IVar="-1" Cut="0.0000000000000000e+00" cType="1" res="-6.1024446040391922e-03" rms="1.0189986228942871e-01" purity="9.7144752740859985e-02" nType="-99"/>
          <Node pos="r" depth="2" NCoef="0" IVar="-1" Cut="0.0000000000000000e+00" cType="1" res="-2.7556877466849983e-04" rms="2.3103122413158417e-01" purity="5.0421929359436035e-01" nType="-99"/>
        </Node>
      </Node>
    </BinaryTree>
    <BinaryTree type="DecisionTree" boostWeight="1.0000000000000000e+00" itree="1222">
      <Node pos="s" depth="0" NCoef="0" IVar="37" Cut="-9.3128281831741333e-01" cType="1" res="1.8481541192159057e-03" rms="2.3085004091262817e-01" purity="5.0365871191024780e-01" nType="0">
        <Node pos="l" depth="1" NCoef="0" IVar="0" Cut="1.1624808311462402e+00" cType="1" res="5.2728676237165928e-03" rms="2.3590618371963501e-01" purity="5.2915591001510620e-01" nType="0">
          <Node pos="l" depth="2" NCoef="0" IVar="-1" Cut="0.0000000000000000e+00" cType="1" res="8.9412229135632515e-04" rms="2.3469136655330658e-01" purity="5.3701335191726685e-01" nType="-99"/>
          <Node pos="r" depth="2" NCoef="0" IVar="-1" Cut="0.0000000000000000e+00" cType="1" res="-5.3161983378231525e-03" rms="2.5825005769729614e-01" purity="3.4218132495880127e-01" nType="-99"/>
        </Node>
        <Node pos="r" depth="1" NCoef="0" IVar="1" Cut="2.3312208652496338e+00" cType="1" res="-3.2074067741632462e-02" rms="1.6925969719886780e-01" purity="2.5110596418380737e-01" nType="0">
          <Node pos="l" depth="2" NCoef="0" IVar="-1" Cut="0.0000000000000000e+00" cType="1" res="-4.2565084993839264e-02" rms="0.0000000000000000e+00" purity="-4.9864660948514938e-02" nType="-99"/>
          <Node pos="r" depth="2" NCoef="0" IVar="-1" Cut="0.0000000000000000e+00" cType="1" res="-1.3268076581880450e-03" rms="2.7251681685447693e-01" purity="3.9294117689132690e-01" nType="-99"/>
        </Node>
      </Node>
    </BinaryTree>
    <BinaryTree type="DecisionTree" boostWeight="1.0000000000000000e+00" itree="1223">
      <Node pos="s" depth="0" NCoef="0" IVar="43" Cut="1.1768795251846313e+00" cType="1" res="2.4761326494626701e-04" rms="2.2925108671188354e-01" purity="5.0041747093200684e-01" nType="0">
        <Node pos="l" depth="1" NCoef="0" IVar="49" Cut="2.4113144874572754e+00" cType="1" res="2.6519866660237312e-03" rms="2.3237080872058868e-01" purity="5.1085841655731201e-01" nType="0">
          <Node pos="l" depth="2" NCoef="0" IVar="-1" Cut="0.0000000000000000e+00" cType="1" res="-5.3802006877958775e-03" rms="1.9339744746685028e-01" purity="2.2268249094486237e-01" nType="-99"/>
          <Node pos="r" depth="2" NCoef="0" IVar="-1" Cut="0.0000000000000000e+00" cType="1" res="6.8312237272039056e-04" rms="2.3485137522220612e-01" purity="5.3314238786697388e-01" nType="-99"/>
        </Node>
        <Node pos="r" depth="1" NCoef="0" IVar="29" Cut="3.2531249523162842e+00" cType="1" res="-5.4849155247211456e-02" rms="1.2801162898540497e-01" purity="2.6116099953651428e-01" nType="0">
          <Node pos="l" depth="2" NCoef="0" IVar="-1" Cut="0.0000000000000000e+00" cType="1" res="-1.2896387837827206e-02" rms="8.6842782795429230e-02" purity="1.8406425416469574e-01" nType="-99"/>
          <Node pos="r" depth="2" NCoef="0" IVar="-1" Cut="0.0000000000000000e+00" cType="1" res="-2.8817802667617798e-03" rms="1.5446288883686066e-01" purity="3.4207051992416382e-01" nType="-99"/>
        </Node>
      </Node>
    </BinaryTree>
    <BinaryTree type="DecisionTree" boostWeight="1.0000000000000000e+00" itree="1224">
      <Node pos="s" depth="0" NCoef="0" IVar="16" Cut="1.4834576845169067e+00" cType="1" res="-1.7691968241706491e-03" rms="2.2427211701869965e-01" purity="5.0113517045974731e-01" nType="0">
        <Node pos="l" depth="1" NCoef="0" IVar="41" Cut="1.2345679104328156e-02" cType="1" res="-9.2753758653998375e-03" rms="2.2705945372581482e-01" purity="3.8168084621429443e-01" nType="0">
          <Node pos="l" depth="2" NCoef="0" IVar="-1" Cut="0.0000000000000000e+00" cType="1" res="4.9762134440243244e-03" rms="3.1936392188072205e-01" purity="3.2316264510154724e-01" nType="-99"/>
          <Node pos="r" depth="2" NCoef="0" IVar="-1" Cut="0.0000000000000000e+00" cType="1" res="-1.6020145267248154e-03" rms="2.2037911415100098e-01" purity="3.8496717810630798e-01" nType="-99"/>
        </Node>
        <Node pos="r" depth="1" NCoef="0" IVar="11" Cut="1.2345679104328156e-02" cType="1" res="1.3655658811330795e-02" rms="2.1762146055698395e-01" purity="7.4660831689834595e-01" nType="0">
          <Node pos="l" depth="2" NCoef="0" IVar="-1" Cut="0.0000000000000000e+00" cType="1" res="3.1081445049494505e-03" rms="2.0506615936756134e-01" purity="7.7876025438308716e-01" nType="-99"/>
          <Node pos="r" depth="2" NCoef="0" IVar="-1" Cut="0.0000000000000000e+00" cType="1" res="-9.5090438844636083e-04" rms="2.3610591888427734e-01" purity="6.9089627265930176e-01" nType="-99"/>
        </Node>
      </Node>
    </BinaryTree>
    <BinaryTree type="DecisionTree" boostWeight="1.0000000000000000e+00" itree="1225">
      <Node pos="s" depth="0" NCoef="0" IVar="25" Cut="2.2714462280273438e+00" cType="1" res="-6.0800823848694563e-04" rms="2.2655493021011353e-01" purity="4.9773302674293518e-01" nType="0">
        <Node pos="l" depth="1" NCoef="0" IVar="14" Cut="-1.2989310026168823e+00" cType="1" res="-1.0031419806182384e-02" rms="2.1496602892875671e-01" purity="3.0950075387954712e-01" nType="0">
          <Node pos="l" depth="2" NCoef="0" IVar="-1" Cut="0.0000000000000000e+00" cType="1" res="-1.2108768522739410e-01" rms="0.0000000000000000e+00" purity="-3.3146537840366364e-02" nType="-99"/>
          <Node pos="r" depth="2" NCoef="0" IVar="-1" Cut="0.0000000000000000e+00" cType="1" res="1.7509670578874648e-04" rms="2.8863465785980225e-01" purity="4.6654179692268372e-01" nType="-99"/>
        </Node>
        <Node pos="r" depth="1" NCoef="0" IVar="14" Cut="-9.5068871974945068e-01" cType="1" res="1.0448200628161430e-02" rms="2.3896451294422150e-01" purity="7.1858042478561401e-01" nType="0">
          <Node pos="l" depth="2" NCoef="0" IVar="-1" Cut="0.0000000000000000e+00" cType="1" res="9.4713242724537849e-03" rms="2.6680946350097656e-01" purity="1.4683458209037781e-01" nType="-99"/>
          <Node pos="r" depth="2" NCoef="0" IVar="-1" Cut="0.0000000000000000e+00" cType="1" res="4.0437874849885702e-04" rms="2.3294726014137268e-01" purity="8.2145738601684570e-01" nType="-99"/>
        </Node>
      </Node>
    </BinaryTree>
    <BinaryTree type="DecisionTree" boostWeight="1.0000000000000000e+00" itree="1226">
      <Node pos="s" depth="0" NCoef="0" IVar="58" Cut="1.2890026569366455e+00" cType="1" res="5.3209252655506134e-04" rms="2.2952114045619965e-01" purity="4.9922877550125122e-01" nType="0">
        <Node pos="l" depth="1" NCoef="0" IVar="1" Cut="3.7410595417022705e+00" cType="1" res="4.0070544928312302e-03" rms="2.3000992834568024e-01" purity="5.1536160707473755e-01" nType="0">
          <Node pos="l" depth="2" NCoef="0" IVar="-1" Cut="0.0000000000000000e+00" cType="1" res="-1.7550321354065090e-04" rms="2.3673927783966064e-01" purity="4.3865692615509033e-01" nType="-99"/>
          <Node pos="r" depth="2" NCoef="0" IVar="-1" Cut="0.0000000000000000e+00" cType="1" res="4.1617727838456631e-03" rms="1.9446875154972076e-01" purity="8.6521130800247192e-01" nType="-99"/>
        </Node>
        <Node pos="r" depth="1" NCoef="0" IVar="53" Cut="-6.8022072315216064e-01" cType="1" res="-4.5113727450370789e-02" rms="2.1791587769985199e-01" purity="2.8731372952461243e-01" nType="0">
          <Node pos="l" depth="2" NCoef="0" IVar="-1" Cut="0.0000000000000000e+00" cType="1" res="-3.5370390396565199e-03" rms="2.3511032760143280e-01" purity="3.5704216361045837e-01" nType="-99"/>
          <Node pos="r" depth="2" NCoef="0" IVar="-1" Cut="0.0000000000000000e+00" cType="1" res="-1.2538036331534386e-02" rms="1.7606739699840546e-01" purity="1.5551619231700897e-01" nType="-99"/>
        </Node>
      </Node>
    </BinaryTree>
    <BinaryTree type="DecisionTree" boostWeight="1.0000000000000000e+00" itree="1227">
      <Node pos="s" depth="0" NCoef="0" IVar="56" Cut="1.5240936279296875e+00" cType="1" res="-3.2315854332409799e-04" rms="2.2476951777935028e-01" purity="4.9853116273880005e-01" nType="0">
        <Node pos="l" depth="1" NCoef="0" IVar="64" Cut="1.2345679104328156e-02" cType="1" res="1.9159545190632343e-03" rms="2.2801971435546875e-01" purity="5.1794135570526123e-01" nType="0">
          <Node pos="l" depth="2" NCoef="0" IVar="-1" Cut="0.0000000000000000e+00" cType="1" res="5.1139912102371454e-04" rms="2.2784152626991272e-01" purity="5.2898567914962769e-01" nType="-99"/>
          <Node pos="r" depth="2" NCoef="0" IVar="-1" Cut="0.0000000000000000e+00" cType="1" res="-6.6244117915630341e-03" rms="2.2605903446674347e-01" purity="2.7458804845809937e-01" nType="-99"/>
        </Node>
        <Node pos="r" depth="1" NCoef="0" IVar="-1" Cut="0.0000000000000000e+00" cType="1" res="-1.1222519911825657e-02" rms="9.8744109272956848e-02" purity="5.1858932711184025e-03" nType="-99"/>
      </Node>
    </BinaryTree>
    <BinaryTree type="DecisionTree" boostWeight="1.0000000000000000e+00" itree="1228">
      <Node pos="s" depth="0" NCoef="0" IVar="45" Cut="7.1981114149093628e-01" cType="1" res="-3.2345543149858713e-04" rms="2.2390200197696686e-01" purity="5.0129234790802002e-01" nType="0">
        <Node pos="l" depth="1" NCoef="0" IVar="-1" Cut="0.0000000000000000e+00" cType="1" res="-1.6471734270453453e-02" rms="0.0000000000000000e+00" purity="8.4387939423322678e-03" nType="-99"/>
        <Node pos="r" depth="1" NCoef="0" IVar="54" Cut="1.4866290092468262e+00" cType="1" res="1.9502462819218636e-03" rms="2.3013113439083099e-01" purity="5.1957869529724121e-01" nType="0">
          <Node pos="l" depth="2" NCoef="0" IVar="-1" Cut="0.0000000000000000e+00" cType="1" res="5.7066528825089335e-04" rms="2.3245431482791901e-01" purity="5.5203121900558472e-01" nType="-99"/>
          <Node pos="r" depth="2" NCoef="0" IVar="-1" Cut="0.0000000000000000e+00" cType="1" res="-6.5655666403472424e-03" rms="1.8982076644897461e-01" purity="6.2163397669792175e-02" nType="-99"/>
        </Node>
      </Node>
    </BinaryTree>
    <BinaryTree type="DecisionTree" boostWeight="1.0000000000000000e+00" itree="1229">
      <Node pos="s" depth="0" NCoef="0" IVar="63" Cut="1.1152032613754272e+00" cType="1" res="9.4016763614490628e-04" rms="2.2801099717617035e-01" purity="5.0210916996002197e-01" nType="0">
        <Node pos="l" depth="1" NCoef="0" IVar="0" Cut="8.1013607978820801e-01" cType="1" res="4.1139419190585613e-03" rms="2.3109637200832367e-01" purity="5.1528280973434448e-01" nType="0">
          <Node pos="l" depth="2" NCoef="0" IVar="-1" Cut="0.0000000000000000e+00" cType="1" res="1.1399444192647934e-03" rms="2.3622381687164307e-01" purity="5.5571770668029785e-01" nType="-99"/>
          <Node pos="r" depth="2" NCoef="0" IVar="-1" Cut="0.0000000000000000e+00" cType="1" res="-2.0447780843824148e-03" rms="2.1003095805644989e-01" purity="3.6663600802421570e-01" nType="-99"/>
        </Node>
        <Node pos="r" depth="1" NCoef="0" IVar="52" Cut="-1.5312243700027466e+00" cType="1" res="-3.8575619459152222e-02" rms="1.8073573708534241e-01" purity="3.3808794617652893e-01" nType="0">
          <Node pos="l" depth="2" NCoef="0" IVar="-1" Cut="0.0000000000000000e+00" cType="1" res="3.5054952604696155e-04" rms="2.3775956034660339e-01" purity="5.9807795286178589e-01" nType="-99"/>
          <Node pos="r" depth="2" NCoef="0" IVar="-1" Cut="0.0000000000000000e+00" cType="1" res="-8.2764448598027229e-03" rms="1.3915295898914337e-01" purity="2.0738092064857483e-01" nType="-99"/>
        </Node>
      </Node>
    </BinaryTree>
    <BinaryTree type="DecisionTree" boostWeight="1.0000000000000000e+00" itree="1230">
      <Node pos="s" depth="0" NCoef="0" IVar="25" Cut="8.4826534986495972e-01" cType="1" res="-2.6083152624778450e-04" rms="2.2684574127197266e-01" purity="4.9946457147598267e-01" nType="0">
        <Node pos="l" depth="1" NCoef="0" IVar="45" Cut="1.6950402259826660e+00" cType="1" res="-9.4185872003436089e-03" rms="0.0000000000000000e+00" purity="4.2591467499732971e-02" nType="-99"/>
        <Node pos="r" depth="1" NCoef="0" IVar="17" Cut="-6.3603472709655762e-01" cType="1" res="2.8179723303765059e-03" rms="2.3608785867691040e-01" purity="5.3509604930877686e-01" nType="0">
          <Node pos="l" depth="2" NCoef="0" IVar="-1" Cut="0.0000000000000000e+00" cType="1" res="5.6212040362879634e-04" rms="2.3736731708049774e-01" purity="5.4515326023101807e-01" nType="-99"/>
          <Node pos="r" depth="2" NCoef="0" IVar="-1" Cut="0.0000000000000000e+00" cType="1" res="-7.7503430657088757e-03" rms="1.8003351986408234e-01" purity="2.1479511260986328e-01" nType="-99"/>
        </Node>
      </Node>
    </BinaryTree>
    <BinaryTree type="DecisionTree" boostWeight="1.0000000000000000e+00" itree="1231">
      <Node pos="s" depth="0" NCoef="0" IVar="2" Cut="8.9595407247543335e-01" cType="1" res="-2.7157389558851719e-03" rms="2.2395744919776917e-01" purity="4.9715214967727661e-01" nType="0">
        <Node pos="l" depth="1" NCoef="0" IVar="34" Cut="-1.4151291847229004e+00" cType="1" res="-7.2353589348495007e-03" rms="0.0000000000000000e+00" purity="2.3209428414702415e-02" nType="-99"/>
        <Node pos="r" depth="1" NCoef="0" IVar="0" Cut="6.8874430656433105e-01" cType="1" res="-3.8907813723199069e-04" rms="2.2974528372287750e-01" purity="5.1857757568359375e-01" nType="0">
          <Node pos="l" depth="2" NCoef="0" IVar="-1" Cut="0.0000000000000000e+00" cType="1" res="8.1408815458416939e-04" rms="2.3665776848793030e-01" purity="5.7810270786285400e-01" nType="-99"/>
          <Node pos="r" depth="2" NCoef="0" IVar="-1" Cut="0.0000000000000000e+00" cType="1" res="-2.0761934574693441e-03" rms="2.1357278525829315e-01" purity="3.9254176616668701e-01" nType="-99"/>
        </Node>
      </Node>
    </BinaryTree>
    <BinaryTree type="DecisionTree" boostWeight="1.0000000000000000e+00" itree="1232">
      <Node pos="s" depth="0" NCoef="0" IVar="44" Cut="1.2345679104328156e-02" cType="1" res="1.3582760002464056e-03" rms="2.2936159372329712e-01" purity="5.0296431779861450e-01" nType="0">
        <Node pos="l" depth="1" NCoef="0" IVar="54" Cut="1.4855325222015381e+00" cType="1" res="3.6051373463124037e-03" rms="2.2805234789848328e-01" purity="5.1470893621444702e-01" nType="0">
          <Node pos="l" depth="2" NCoef="0" IVar="-1" Cut="0.0000000000000000e+00" cType="1" res="7.9020514385774732e-04" rms="2.2972473502159119e-01" purity="5.4510515928268433e-01" nType="-99"/>
          <Node pos="r" depth="2" NCoef="0" IVar="-1" Cut="0.0000000000000000e+00" cType="1" res="-6.5065114758908749e-03" rms="1.9681215286254883e-01" purity="6.6489219665527344e-02" nType="-99"/>
        </Node>
        <Node pos="r" depth="1" NCoef="0" IVar="26" Cut="-1.2886621952056885e+00" cType="1" res="-4.2851500213146210e-02" rms="2.4967250227928162e-01" purity="2.7187454700469971e-01" nType="0">
          <Node pos="l" depth="2" NCoef="0" IVar="-1" Cut="0.0000000000000000e+00" cType="1" res="-1.2979687191545963e-02" rms="3.0070012807846069e-01" purity="1.6874369978904724e-01" nType="-99"/>
          <Node pos="r" depth="2" NCoef="0" IVar="-1" Cut="0.0000000000000000e+00" cType="1" res="-7.0351362228393555e-04" rms="1.9138802587985992e-01" purity="3.5507464408874512e-01" nType="-99"/>
        </Node>
      </Node>
    </BinaryTree>
    <BinaryTree type="DecisionTree" boostWeight="1.0000000000000000e+00" itree="1233">
      <Node pos="s" depth="0" NCoef="0" IVar="32" Cut="-1.5312128067016602e+00" cType="1" res="6.9205672480165958e-04" rms="2.2835916280746460e-01" purity="5.0297468900680542e-01" nType="0">
        <Node pos="l" depth="1" NCoef="0" IVar="49" Cut="2.8447072505950928e+00" cType="1" res="1.4558156020939350e-02" rms="2.2276936471462250e-01" purity="6.8556994199752808e-01" nType="0">
          <Node pos="l" depth="2" NCoef="0" IVar="-1" Cut="0.0000000000000000e+00" cType="1" res="-9.8786561284214258e-04" rms="2.2992128133773804e-01" purity="5.7563269138336182e-01" nType="-99"/>
          <Node pos="r" depth="2" NCoef="0" IVar="-1" Cut="0.0000000000000000e+00" cType="1" res="2.9900902882218361e-03" rms="2.1968008577823639e-01" purity="7.2388738393783569e-01" nType="-99"/>
        </Node>
        <Node pos="r" depth="1" NCoef="0" IVar="2" Cut="1.0775537490844727e+00" cType="1" res="-8.3727799355983734e-03" rms="2.3149211704730988e-01" purity="3.8360455632209778e-01" nType="0">
          <Node pos="l" depth="2" NCoef="0" IVar="-1" Cut="0.0000000000000000e+00" cType="1" res="-1.0638059116899967e-02" rms="0.0000000000000000e+00" purity="2.4044255260378122e-03" nType="-99"/>
          <Node pos="r" depth="2" NCoef="0" IVar="-1" Cut="0.0000000000000000e+00" cType="1" res="-5.4456497309729457e-04" rms="2.4286192655563354e-01" purity="4.1036888957023621e-01" nType="-99"/>
        </Node>
      </Node>
    </BinaryTree>
    <BinaryTree type="DecisionTree" boostWeight="1.0000000000000000e+00" itree="1234">
      <Node pos="s" depth="0" NCoef="0" IVar="14" Cut="-1.4537136554718018e+00" cType="1" res="1.5767633158247918e-04" rms="2.2498609125614166e-01" purity="4.9800878763198853e-01" nType="0">
        <Node pos="l" depth="1" NCoef="0" IVar="53" Cut="-7.5757515430450439e-01" cType="1" res="-7.0521458983421326e-02" rms="0.0000000000000000e+00" purity="-1.8996201455593109e-02" nType="-99"/>
        <Node pos="r" depth="1" NCoef="0" IVar="9" Cut="2.4304521083831787e+00" cType="1" res="5.2128448151051998e-03" rms="2.5864520668983459e-01" purity="6.1736404895782471e-01" nType="0">
          <Node pos="l" depth="2" NCoef="0" IVar="-1" Cut="0.0000000000000000e+00" cType="1" res="-9.1266948729753494e-03" rms="1.6726458072662354e-01" purity="1.1916627734899521e-01" nType="-99"/>
          <Node pos="r" depth="2" NCoef="0" IVar="-1" Cut="0.0000000000000000e+00" cType="1" res="7.8477011993527412e-04" rms="2.6073691248893738e-01" purity="6.3393646478652954e-01" nType="-99"/>
        </Node>
      </Node>
    </BinaryTree>
    <BinaryTree type="DecisionTree" boostWeight="1.0000000000000000e+00" itree="1235">
      <Node pos="s" depth="0" NCoef="0" IVar="49" Cut="2.5739655494689941e+00" cType="1" res="7.8628986375406384e-04" rms="2.2738276422023773e-01" purity="4.9958613514900208e-01" nType="0">
        <Node pos="l" depth="1" NCoef="0" IVar="45" Cut="1.3004596233367920e+00" cType="1" res="-2.4227948859333992e-02" rms="2.0163838565349579e-01" purity="2.8228101134300232e-01" nType="0">
          <Node pos="l" depth="2" NCoef="0" IVar="-1" Cut="0.0000000000000000e+00" cType="1" res="-1.0002281516790390e-02" rms="2.7425872161984444e-02" purity="5.3673878312110901e-02" nType="-99"/>
          <Node pos="r" depth="2" NCoef="0" IVar="-1" Cut="0.0000000000000000e+00" cType="1" res="1.0936659527942538e-03" rms="3.0818647146224976e-01" purity="6.0562956333160400e-01" nType="-99"/>
        </Node>
        <Node pos="r" depth="1" NCoef="0" IVar="4" Cut="3.7934341430664062e+00" cType="1" res="4.6605351381003857e-03" rms="2.3087149858474731e-01" purity="5.3324264287948608e-01" nType="0">
          <Node pos="l" depth="2" NCoef="0" IVar="-1" Cut="0.0000000000000000e+00" cType="1" res="1.8946584314107895e-03" rms="2.2213082015514374e-01" purity="5.2590209245681763e-01" nType="-99"/>
          <Node pos="r" depth="2" NCoef="0" IVar="-1" Cut="0.0000000000000000e+00" cType="1" res="-9.4267557142302394e-04" rms="2.4191965162754059e-01" purity="5.4349070787429810e-01" nType="-99"/>
        </Node>
      </Node>
    </BinaryTree>
    <BinaryTree type="DecisionTree" boostWeight="1.0000000000000000e+00" itree="1236">
      <Node pos="s" depth="0" NCoef="0" IVar="2" Cut="1.1974477767944336e+00" cType="1" res="3.0245643574744463e-04" rms="2.3138454556465149e-01" purity="5.0028252601623535e-01" nType="0">
        <Node pos="l" depth="1" NCoef="0" IVar="5" Cut="1.9685992002487183e+00" cType="1" res="-3.7103690207004547e-02" rms="1.3801324367523193e-01" purity="9.8411947488784790e-02" nType="0">
          <Node pos="l" depth="2" NCoef="0" IVar="-1" Cut="0.0000000000000000e+00" cType="1" res="-2.5180950760841370e-03" rms="1.5846124291419983e-01" purity="8.7770402431488037e-02" nType="-99"/>
          <Node pos="r" depth="2" NCoef="0" IVar="-1" Cut="0.0000000000000000e+00" cType="1" res="-7.5983828864991665e-03" rms="0.0000000000000000e+00" purity="1.2678837776184082e-01" nType="-99"/>
        </Node>
        <Node pos="r" depth="1" NCoef="0" IVar="65" Cut="7.5197696685791016e-01" cType="1" res="3.4062853083014488e-03" rms="2.3722358047962189e-01" purity="5.3362834453582764e-01" nType="0">
          <Node pos="l" depth="2" NCoef="0" IVar="-1" Cut="0.0000000000000000e+00" cType="1" res="8.1321340985596180e-04" rms="2.4361266195774078e-01" purity="5.6463772058486938e-01" nType="-99"/>
          <Node pos="r" depth="2" NCoef="0" IVar="-1" Cut="0.0000000000000000e+00" cType="1" res="-5.7230652309954166e-03" rms="1.3144472241401672e-01" purity="1.5735028684139252e-01" nType="-99"/>
        </Node>
      </Node>
    </BinaryTree>
    <BinaryTree type="DecisionTree" boostWeight="1.0000000000000000e+00" itree="1237">
      <Node pos="s" depth="0" NCoef="0" IVar="54" Cut="-1.5311074256896973e+00" cType="1" res="-6.2086648540571332e-04" rms="2.2774620354175568e-01" purity="4.9716582894325256e-01" nType="0">
        <Node pos="l" depth="1" NCoef="0" IVar="34" Cut="-1.4537774324417114e+00" cType="1" res="1.4116054400801659e-02" rms="2.0400172472000122e-01" purity="6.8639874458312988e-01" nType="0">
          <Node pos="l" depth="2" NCoef="0" IVar="-1" Cut="0.0000000000000000e+00" cType="1" res="4.2507559992372990e-03" rms="1.5882113575935364e-01" purity="8.0463314056396484e-01" nType="-99"/>
          <Node pos="r" depth="2" NCoef="0" IVar="-1" Cut="0.0000000000000000e+00" cType="1" res="-1.4855361077934504e-03" rms="2.7459990978240967e-01" purity="4.3418258428573608e-01" nType="-99"/>
        </Node>
        <Node pos="r" depth="1" NCoef="0" IVar="33" Cut="1.3305623531341553e+00" cType="1" res="-8.6040208116173744e-03" rms="2.3924961686134338e-01" purity="3.9465630054473877e-01" nType="0">
          <Node pos="l" depth="2" NCoef="0" IVar="-1" Cut="0.0000000000000000e+00" cType="1" res="-7.5327773811295629e-04" rms="2.4398195743560791e-01" purity="4.0618610382080078e-01" nType="-99"/>
          <Node pos="r" depth="2" NCoef="0" IVar="-1" Cut="0.0000000000000000e+00" cType="1" res="-1.2099662795662880e-02" rms="0.0000000000000000e+00" purity="1.0177287459373474e-01" nType="-99"/>
        </Node>
      </Node>
    </BinaryTree>
    <BinaryTree type="DecisionTree" boostWeight="1.0000000000000000e+00" itree="1238">
      <Node pos="s" depth="0" NCoef="0" IVar="45" Cut="2.8967123031616211e+00" cType="1" res="2.4245366148534231e-05" rms="2.2545635700225830e-01" purity="4.9954003095626831e-01" nType="0">
        <Node pos="l" depth="1" NCoef="0" IVar="57" Cut="-2.1366882324218750e+00" cType="1" res="-6.0251350514590740e-03" rms="2.2780846059322357e-01" purity="4.1666692495346069e-01" nType="0">
          <Node pos="l" depth="2" NCoef="0" IVar="-1" Cut="0.0000000000000000e+00" cType="1" res="1.0749427601695061e-03" rms="2.5064501166343689e-01" purity="4.9891179800033569e-01" nType="-99"/>
          <Node pos="r" depth="2" NCoef="0" IVar="-1" Cut="0.0000000000000000e+00" cType="1" res="-2.3485468700528145e-03" rms="2.0593611896038055e-01" purity="3.4797152876853943e-01" nType="-99"/>
        </Node>
        <Node pos="r" depth="1" NCoef="0" IVar="14" Cut="-1.2216235399246216e+00" cType="1" res="2.2839495912194252e-02" rms="2.1482814848423004e-01" purity="8.1209617853164673e-01" nType="0">
          <Node pos="l" depth="2" NCoef="0" IVar="-1" Cut="0.0000000000000000e+00" cType="1" res="1.6025930643081665e-02" rms="3.2092979550361633e-01" purity="1.7876394093036652e-01" nType="-99"/>
          <Node pos="r" depth="2" NCoef="0" IVar="-1" Cut="0.0000000000000000e+00" cType="1" res="2.0283986814320087e-03" rms="1.9765773415565491e-01" purity="8.8525575399398804e-01" nType="-99"/>
        </Node>
      </Node>
    </BinaryTree>
    <BinaryTree type="DecisionTree" boostWeight="1.0000000000000000e+00" itree="1239">
      <Node pos="s" depth="0" NCoef="0" IVar="25" Cut="1.0759699344635010e+00" cType="1" res="1.2779182288795710e-03" rms="2.2551111876964569e-01" purity="5.0162148475646973e-01" nType="0">
        <Node pos="l" depth="1" NCoef="0" IVar="29" Cut="2.8157646656036377e+00" cType="1" res="-2.7591856196522713e-02" rms="7.9770922660827637e-02" purity="7.7071212232112885e-02" nType="0">
          <Node pos="l" depth="2" NCoef="0" IVar="-1" Cut="0.0000000000000000e+00" cType="1" res="-1.2175973504781723e-02" rms="0.0000000000000000e+00" purity="2.5617919862270355e-02" nType="-99"/>
          <Node pos="r" depth="2" NCoef="0" IVar="-1" Cut="0.0000000000000000e+00" cType="1" res="4.8775081522762775e-03" rms="2.1395720541477203e-01" purity="1.9930872321128845e-01" nType="-99"/>
        </Node>
        <Node pos="r" depth="1" NCoef="0" IVar="65" Cut="6.8477332592010498e-01" cType="1" res="5.3119561634957790e-03" rms="2.3861993849277496e-01" purity="5.6094479560852051e-01" nType="0">
          <Node pos="l" depth="2" NCoef="0" IVar="-1" Cut="0.0000000000000000e+00" cType="1" res="1.1197091080248356e-03" rms="2.4814122915267944e-01" purity="6.0770469903945923e-01" nType="-99"/>
          <Node pos="r" depth="2" NCoef="0" IVar="-1" Cut="0.0000000000000000e+00" cType="1" res="-3.2907179556787014e-03" rms="1.6301281750202179e-01" purity="2.6394766569137573e-01" nType="-99"/>
        </Node>
      </Node>
    </BinaryTree>
    <BinaryTree type="DecisionTree" boostWeight="1.0000000000000000e+00" itree="1240">
      <Node pos="s" depth="0" NCoef="0" IVar="37" Cut="-2.3187403678894043e+00" cType="1" res="1.4397089835256338e-03" rms="2.2766126692295074e-01" purity="5.0173008441925049e-01" nType="0">
        <Node pos="l" depth="1" NCoef="0" IVar="54" Cut="1.4855027198791504e+00" cType="1" res="1.4871542342007160e-02" rms="2.3742926120758057e-01" purity="5.8480781316757202e-01" nType="0">
          <Node pos="l" depth="2" NCoef="0" IVar="-1" Cut="0.0000000000000000e+00" cType="1" res="2.2178599610924721e-03" rms="2.3805294930934906e-01" purity="6.1669385433197021e-01" nType="-99"/>
          <Node pos="r" depth="2" NCoef="0" IVar="-1" Cut="0.0000000000000000e+00" cType="1" res="-6.7836204543709755e-03" rms="2.1879599988460541e-01" purity="7.1451894938945770e-02" nType="-99"/>
        </Node>
        <Node pos="r" depth="1" NCoef="0" IVar="65" Cut="7.5204491615295410e-01" cType="1" res="-6.1588431708514690e-03" rms="2.2158478200435638e-01" purity="4.5473200082778931e-01" nType="0">
          <Node pos="l" depth="2" NCoef="0" IVar="-1" Cut="0.0000000000000000e+00" cType="1" res="-3.3294188324362040e-04" rms="2.3028208315372467e-01" purity="4.8365184664726257e-01" nType="-99"/>
          <Node pos="r" depth="2" NCoef="0" IVar="-1" Cut="0.0000000000000000e+00" cType="1" res="-8.4701189771294594e-03" rms="0.0000000000000000e+00" purity="1.0387440770864487e-01" nType="-99"/>
        </Node>
      </Node>
    </BinaryTree>
    <BinaryTree type="DecisionTree" boostWeight="1.0000000000000000e+00" itree="1241">
      <Node pos="s" depth="0" NCoef="0" IVar="37" Cut="-6.3586634397506714e-01" cType="1" res="1.2317511718720198e-03" rms="2.3013621568679810e-01" purity="5.0219464302062988e-01" nType="0">
        <Node pos="l" depth="1" NCoef="0" IVar="21" Cut="1.2345679104328156e-02" cType="1" res="3.3822946716099977e-03" rms="2.3349303007125854e-01" purity="5.1589161157608032e-01" nType="0">
          <Node pos="l" depth="2" NCoef="0" IVar="-1" Cut="0.0000000000000000e+00" cType="1" res="6.5467399545013905e-03" rms="3.4616526961326599e-01" purity="3.6556699872016907e-01" nType="-99"/>
          <Node pos="r" depth="2" NCoef="0" IVar="-1" Cut="0.0000000000000000e+00" cType="1" res="1.1571312643354759e-04" rms="2.2663190960884094e-01" purity="5.2284699678421021e-01" nType="-99"/>
        </Node>
        <Node pos="r" depth="1" NCoef="0" IVar="-1" Cut="0.0000000000000000e+00" cType="1" res="-8.8323829695582390e-03" rms="1.0157619416713715e-01" purity="1.5419042110443115e-01" nType="-99"/>
      </Node>
    </BinaryTree>
    <BinaryTree type="DecisionTree" boostWeight="1.0000000000000000e+00" itree="1242">
      <Node pos="s" depth="0" NCoef="0" IVar="65" Cut="7.2957998514175415e-01" cType="1" res="-2.2708452888764441e-04" rms="2.2559536993503571e-01" purity="5.0156521797180176e-01" nType="0">
        <Node pos="l" depth="1" NCoef="0" IVar="56" Cut="1.4848126173019409e+00" cType="1" res="3.4362224396318197e-03" rms="2.3359653353691101e-01" purity="5.3549408912658691e-01" nType="0">
          <Node pos="l" depth="2" NCoef="0" IVar="-1" Cut="0.0000000000000000e+00" cType="1" res="7.5312552507966757e-04" rms="2.3574757575988770e-01" purity="5.7030653953552246e-01" nType="-99"/>
          <Node pos="r" depth="2" NCoef="0" IVar="-1" Cut="0.0000000000000000e+00" cType="1" res="-6.1109699308872223e-03" rms="1.9648294150829315e-01" purity="4.7091193497180939e-02" nType="-99"/>
        </Node>
        <Node pos="r" depth="1" NCoef="0" IVar="14" Cut="1.4064897298812866e+00" cType="1" res="-3.5441368818283081e-02" rms="1.1919084936380386e-01" purity="1.7541655898094177e-01" nType="0">
          <Node pos="l" depth="2" NCoef="0" IVar="-1" Cut="0.0000000000000000e+00" cType="1" res="-1.3653521426022053e-02" rms="0.0000000000000000e+00" purity="1.2668023817241192e-02" nType="-99"/>
          <Node pos="r" depth="2" NCoef="0" IVar="-1" Cut="0.0000000000000000e+00" cType="1" res="2.1949880756437778e-03" rms="2.7309760451316833e-01" purity="6.3460236787796021e-01" nType="-99"/>
        </Node>
      </Node>
    </BinaryTree>
    <BinaryTree type="DecisionTree" boostWeight="1.0000000000000000e+00" itree="1243">
      <Node pos="s" depth="0" NCoef="0" IVar="38" Cut="1.4507834911346436e+00" cType="1" res="-4.0471064858138561e-04" rms="2.2715738415718079e-01" purity="4.9777337908744812e-01" nType="0">
        <Node pos="l" depth="1" NCoef="0" IVar="57" Cut="-1.8792170286178589e+00" cType="1" res="1.9496466265991330e-03" rms="2.2809992730617523e-01" purity="5.0818455219268799e-01" nType="0">
          <Node pos="l" depth="2" NCoef="0" IVar="-1" Cut="0.0000000000000000e+00" cType="1" res="1.3980719959363341e-03" rms="2.3701441287994385e-01" purity="5.7048320770263672e-01" nType="-99"/>
          <Node pos="r" depth="2" NCoef="0" IVar="-1" Cut="0.0000000000000000e+00" cType="1" res="-1.5138215385377407e-03" rms="2.1340674161911011e-01" purity="4.1567894816398621e-01" nType="-99"/>
        </Node>
        <Node pos="r" depth="1" NCoef="0" IVar="-1" Cut="0.0000000000000000e+00" cType="1" res="-7.9347398132085800e-03" rms="1.9476535916328430e-01" purity="2.4726949632167816e-01" nType="-99"/>
      </Node>
    </BinaryTree>
    <BinaryTree type="DecisionTree" boostWeight="1.0000000000000000e+00" itree="1244">
      <Node pos="s" depth="0" NCoef="0" IVar="17" Cut="-6.6593474149703979e-01" cType="1" res="3.7784880987601355e-05" rms="2.3096838593482971e-01" purity="4.9846392869949341e-01" nType="0">
        <Node pos="l" depth="1" NCoef="0" IVar="56" Cut="-1.4537900686264038e+00" cType="1" res="1.9273209618404508e-03" rms="2.3237796127796173e-01" purity="5.1040971279144287e-01" nType="0">
          <Node pos="l" depth="2" NCoef="0" IVar="-1" Cut="0.0000000000000000e+00" cType="1" res="1.0849346872419119e-03" rms="2.2925396263599396e-01" purity="6.2263047695159912e-01" nType="-99"/>
          <Node pos="r" depth="2" NCoef="0" IVar="-1" Cut="0.0000000000000000e+00" cType="1" res="-1.4513212954625487e-03" rms="2.3798295855522156e-01" purity="2.8374499082565308e-01" nType="-99"/>
        </Node>
        <Node pos="r" depth="1" NCoef="0" IVar="-1" Cut="0.0000000000000000e+00" cType="1" res="-6.9832406006753445e-03" rms="1.8476723134517670e-01" purity="1.9185002148151398e-01" nType="-99"/>
      </Node>
    </BinaryTree>
    <BinaryTree type="DecisionTree" boostWeight="1.0000000000000000e+00" itree="1245">
      <Node pos="s" depth="0" NCoef="0" IVar="37" Cut="-1.3494656085968018e+00" cType="1" res="-2.7845529839396477e-03" rms="2.2186093032360077e-01" purity="4.9659916758537292e-01" nType="0">
        <Node pos="l" depth="1" NCoef="0" IVar="57" Cut="-7.8766787052154541e-01" cType="1" res="3.2354854047298431e-03" rms="2.2970393300056458e-01" purity="5.3806853294372559e-01" nType="0">
          <Node pos="l" depth="2" NCoef="0" IVar="-1" Cut="0.0000000000000000e+00" cType="1" res="6.9507444277405739e-04" rms="2.3087801039218903e-01" purity="5.5624723434448242e-01" nType="-99"/>
          <Node pos="r" depth="2" NCoef="0" IVar="-1" Cut="0.0000000000000000e+00" cType="1" res="-5.0446139648556709e-03" rms="2.0632684230804443e-01" purity="2.4987995624542236e-01" nType="-99"/>
        </Node>
        <Node pos="r" depth="1" NCoef="0" IVar="14" Cut="1.3704904317855835e+00" cType="1" res="-2.7566330507397652e-02" rms="1.8406431376934052e-01" purity="3.2588833570480347e-01" nType="0">
          <Node pos="l" depth="2" NCoef="0" IVar="-1" Cut="0.0000000000000000e+00" cType="1" res="-1.5403930097818375e-02" rms="0.0000000000000000e+00" purity="2.3848289623856544e-02" nType="-99"/>
          <Node pos="r" depth="2" NCoef="0" IVar="-1" Cut="0.0000000000000000e+00" cType="1" res="-3.6698815529234707e-04" rms="2.9084712266921997e-01" purity="5.9618830680847168e-01" nType="-99"/>
        </Node>
      </Node>
    </BinaryTree>
    <BinaryTree type="DecisionTree" boostWeight="1.0000000000000000e+00" itree="1246">
      <Node pos="s" depth="0" NCoef="0" IVar="52" Cut="-1.5312020778656006e+00" cType="1" res="-5.2734935889020562e-04" rms="2.2691488265991211e-01" purity="4.9823468923568726e-01" nType="0">
        <Node pos="l" depth="1" NCoef="0" IVar="34" Cut="-9.5075112581253052e-01" cType="1" res="1.2569554150104523e-02" rms="2.2278299927711487e-01" purity="6.8633365631103516e-01" nType="0">
          <Node pos="l" depth="2" NCoef="0" IVar="-1" Cut="0.0000000000000000e+00" cType="1" res="2.9572644270956516e-03" rms="2.0463056862354279e-01" purity="7.7459657192230225e-01" nType="-99"/>
          <Node pos="r" depth="2" NCoef="0" IVar="-1" Cut="0.0000000000000000e+00" cType="1" res="-1.8569452222436666e-03" rms="2.7909404039382935e-01" purity="3.5105979442596436e-01" nType="-99"/>
        </Node>
        <Node pos="r" depth="1" NCoef="0" IVar="2" Cut="1.4576545953750610e+00" cType="1" res="-9.1650150716304779e-03" rms="2.2919005155563354e-01" purity="3.7417975068092346e-01" nType="0">
          <Node pos="l" depth="2" NCoef="0" IVar="-1" Cut="0.0000000000000000e+00" cType="1" res="-6.1679109930992126e-03" rms="6.9020055234432220e-02" purity="7.1254633367061615e-02" nType="-99"/>
          <Node pos="r" depth="2" NCoef="0" IVar="-1" Cut="0.0000000000000000e+00" cType="1" res="-4.2429778841324151e-04" rms="2.4760466814041138e-01" purity="4.3107807636260986e-01" nType="-99"/>
        </Node>
      </Node>
    </BinaryTree>
    <BinaryTree type="DecisionTree" boostWeight="1.0000000000000000e+00" itree="1247">
      <Node pos="s" depth="0" NCoef="0" IVar="43" Cut="1.1192953586578369e+00" cType="1" res="1.0995770571753383e-04" rms="2.2607275843620300e-01" purity="4.9882018566131592e-01" nType="0">
        <Node pos="l" depth="1" NCoef="0" IVar="36" Cut="1.4858274459838867e+00" cType="1" res="3.2119678799062967e-03" rms="2.3003287613391876e-01" purity="5.1213014125823975e-01" nType="0">
          <Node pos="l" depth="2" NCoef="0" IVar="-1" Cut="0.0000000000000000e+00" cType="1" res="7.2610960341989994e-04" rms="2.3224994540214539e-01" purity="5.4520636796951294e-01" nType="-99"/>
          <Node pos="r" depth="2" NCoef="0" IVar="-1" Cut="0.0000000000000000e+00" cType="1" res="-5.7056448422372341e-03" rms="1.9240590929985046e-01" purity="5.0587140023708344e-02" nType="-99"/>
        </Node>
        <Node pos="r" depth="1" NCoef="0" IVar="29" Cut="3.0039634704589844e+00" cType="1" res="-4.0074799209833145e-02" rms="1.6115431487560272e-01" purity="3.2639706134796143e-01" nType="0">
          <Node pos="l" depth="2" NCoef="0" IVar="-1" Cut="0.0000000000000000e+00" cType="1" res="-1.4206452295184135e-02" rms="0.0000000000000000e+00" purity="1.5675042569637299e-01" nType="-99"/>
          <Node pos="r" depth="2" NCoef="0" IVar="-1" Cut="0.0000000000000000e+00" cType="1" res="-2.2700135596096516e-03" rms="2.0226870477199554e-01" purity="4.0585148334503174e-01" nType="-99"/>
        </Node>
      </Node>
    </BinaryTree>
    <BinaryTree type="DecisionTree" boostWeight="1.0000000000000000e+00" itree="1248">
      <Node pos="s" depth="0" NCoef="0" IVar="57" Cut="-6.6775494813919067e-01" cType="1" res="-1.6950401477515697e-03" rms="2.2571124136447906e-01" purity="4.9899408221244812e-01" nType="0">
        <Node pos="l" depth="1" NCoef="0" IVar="65" Cut="-1.8576233088970184e-01" cType="1" res="5.8012845693156123e-04" rms="2.2803942859172821e-01" purity="5.1383274793624878e-01" nType="0">
          <Node pos="l" depth="2" NCoef="0" IVar="-1" Cut="0.0000000000000000e+00" cType="1" res="-2.8436651919037104e-03" rms="2.3742552101612091e-01" purity="4.3935221433639526e-01" nType="-99"/>
          <Node pos="r" depth="2" NCoef="0" IVar="-1" Cut="0.0000000000000000e+00" cType="1" res="6.1871978687122464e-04" rms="2.2611415386199951e-01" purity="5.2651470899581909e-01" nType="-99"/>
        </Node>
        <Node pos="r" depth="1" NCoef="0" IVar="45" Cut="1.6139135360717773e+00" cType="1" res="-5.2121307700872421e-02" rms="1.5771442651748657e-01" purity="1.7011332511901855e-01" nType="0">
          <Node pos="l" depth="2" NCoef="0" IVar="-1" Cut="0.0000000000000000e+00" cType="1" res="-2.2913049906492233e-02" rms="0.0000000000000000e+00" purity="-1.3058395124971867e-02" nType="-99"/>
          <Node pos="r" depth="2" NCoef="0" IVar="-1" Cut="0.0000000000000000e+00" cType="1" res="-2.8737050015479326e-03" rms="2.9143279790878296e-01" purity="3.4144207835197449e-01" nType="-99"/>
        </Node>
      </Node>
    </BinaryTree>
    <BinaryTree type="DecisionTree" boostWeight="1.0000000000000000e+00" itree="1249">
      <Node pos="s" depth="0" NCoef="0" IVar="36" Cut="-9.1229909658432007e-01" cType="1" res="1.0187886655330658e-03" rms="2.2545178234577179e-01" purity="5.0067466497421265e-01" nType="0">
        <Node pos="l" depth="1" NCoef="0" IVar="49" Cut="2.2502229213714600e+00" cType="1" res="6.8747769109904766e-03" rms="2.2871895134449005e-01" purity="5.8322882652282715e-01" nType="0">
          <Node pos="l" depth="2" NCoef="0" IVar="-1" Cut="0.0000000000000000e+00" cType="1" res="-9.0038971975445747e-03" rms="1.6993293166160583e-01" purity="2.0019790530204773e-01" nType="-99"/>
          <Node pos="r" depth="2" NCoef="0" IVar="-1" Cut="0.0000000000000000e+00" cType="1" res="1.0799583978950977e-03" rms="2.2976459562778473e-01" purity="5.9350454807281494e-01" nType="-99"/>
        </Node>
        <Node pos="r" depth="1" NCoef="0" IVar="35" Cut="-1.3423399925231934e+00" cType="1" res="-1.9925100728869438e-02" rms="2.1203826367855072e-01" purity="2.0542067289352417e-01" nType="0">
          <Node pos="l" depth="2" NCoef="0" IVar="-1" Cut="0.0000000000000000e+00" cType="1" res="4.0086731314659119e-03" rms="2.0818451046943665e-01" purity="3.5484918951988220e-01" nType="-99"/>
          <Node pos="r" depth="2" NCoef="0" IVar="-1" Cut="0.0000000000000000e+00" cType="1" res="-3.6820862442255020e-03" rms="2.1146939694881439e-01" purity="1.8255427479743958e-01" nType="-99"/>
        </Node>
      </Node>
    </BinaryTree>
    <BinaryTree type="DecisionTree" boostWeight="1.0000000000000000e+00" itree="1250">
      <Node pos="s" depth="0" NCoef="0" IVar="1" Cut="1.7393836975097656e+00" cType="1" res="7.0729322033002973e-04" rms="2.3070412874221802e-01" purity="4.9836364388465881e-01" nType="0">
        <Node pos="l" depth="1" NCoef="0" IVar="-1" Cut="0.0000000000000000e+00" cType="1" res="-8.2847222685813904e-02" rms="0.0000000000000000e+00" purity="-4.5617632567882538e-02" nType="-99"/>
        <Node pos="r" depth="1" NCoef="0" IVar="9" Cut="3.2258079051971436e+00" cType="1" res="2.6045211125165224e-03" rms="2.3874017596244812e-01" purity="5.1826626062393188e-01" nType="0">
          <Node pos="l" depth="2" NCoef="0" IVar="-1" Cut="0.0000000000000000e+00" cType="1" res="1.6148714348673820e-03" rms="2.2502990067005157e-01" purity="4.8666542768478394e-01" nType="-99"/>
          <Node pos="r" depth="2" NCoef="0" IVar="-1" Cut="0.0000000000000000e+00" cType="1" res="-7.2143308352679014e-04" rms="2.5098255276679993e-01" purity="5.4889708757400513e-01" nType="-99"/>
        </Node>
      </Node>
    </BinaryTree>
    <BinaryTree type="DecisionTree" boostWeight="1.0000000000000000e+00" itree="1251">
      <Node pos="s" depth="0" NCoef="0" IVar="57" Cut="-1.0932277441024780e+00" cType="1" res="1.5741415554657578e-03" rms="2.2882597148418427e-01" purity="5.0129914283752441e-01" nType="0">
        <Node pos="l" depth="1" NCoef="0" IVar="63" Cut="1.1085647344589233e+00" cType="1" res="5.8653019368648529e-03" rms="2.3359471559524536e-01" purity="5.3451168537139893e-01" nType="0">
          <Node pos="l" depth="2" NCoef="0" IVar="-1" Cut="0.0000000000000000e+00" cType="1" res="1.0879380861297250e-03" rms="2.3640349507331848e-01" purity="5.4566192626953125e-01" nType="-99"/>
          <Node pos="r" depth="2" NCoef="0" IVar="-1" Cut="0.0000000000000000e+00" cType="1" res="-4.2304932139813900e-03" rms="1.8957659602165222e-01" purity="3.9105466008186340e-01" nType="-99"/>
        </Node>
        <Node pos="r" depth="1" NCoef="0" IVar="29" Cut="2.7928471565246582e+00" cType="1" res="-2.8341138735413551e-02" rms="1.8964435160160065e-01" purity="2.6976233720779419e-01" nType="0">
          <Node pos="l" depth="2" NCoef="0" IVar="-1" Cut="0.0000000000000000e+00" cType="1" res="-1.2681401334702969e-02" rms="0.0000000000000000e+00" purity="1.2178808450698853e-01" nType="-99"/>
          <Node pos="r" depth="2" NCoef="0" IVar="-1" Cut="0.0000000000000000e+00" cType="1" res="-2.1202517673373222e-03" rms="2.2685410082340240e-01" purity="3.1717666983604431e-01" nType="-99"/>
        </Node>
      </Node>
    </BinaryTree>
    <BinaryTree type="DecisionTree" boostWeight="1.0000000000000000e+00" itree="1252">
      <Node pos="s" depth="0" NCoef="0" IVar="40" Cut="6.7438162863254547e-02" cType="1" res="-4.5560777653008699e-04" rms="2.2547078132629395e-01" purity="5.0033915042877197e-01" nType="0">
        <Node pos="l" depth="1" NCoef="0" IVar="23" Cut="1.1279881000518799e+00" cType="1" res="5.5654132738709450e-03" rms="2.3613609373569489e-01" purity="5.1778584718704224e-01" nType="0">
          <Node pos="l" depth="2" NCoef="0" IVar="-1" Cut="0.0000000000000000e+00" cType="1" res="1.0079346830025315e-03" rms="2.3946265876293182e-01" purity="5.2902615070343018e-01" nType="-99"/>
          <Node pos="r" depth="2" NCoef="0" IVar="-1" Cut="0.0000000000000000e+00" cType="1" res="-5.1023522391915321e-03" rms="1.6858139634132385e-01" purity="3.3815112709999084e-01" nType="-99"/>
        </Node>
        <Node pos="r" depth="1" NCoef="0" IVar="25" Cut="1.9727674722671509e+00" cType="1" res="-2.0335938781499863e-02" rms="1.8457162380218506e-01" purity="4.4273349642753601e-01" nType="0">
          <Node pos="l" depth="2" NCoef="0" IVar="-1" Cut="0.0000000000000000e+00" cType="1" res="-7.0999804884195328e-03" rms="9.1483972966670990e-02" purity="1.7170937359333038e-01" nType="-99"/>
          <Node pos="r" depth="2" NCoef="0" IVar="-1" Cut="0.0000000000000000e+00" cType="1" res="-3.7072013947181404e-04" rms="2.2834245860576630e-01" purity="6.4079177379608154e-01" nType="-99"/>
        </Node>
      </Node>
    </BinaryTree>
    <BinaryTree type="DecisionTree" boostWeight="1.0000000000000000e+00" itree="1253">
      <Node pos="s" depth="0" NCoef="0" IVar="2" Cut="4.8306283354759216e-01" cType="1" res="1.8344349227845669e-03" rms="2.2738055884838104e-01" purity="5.0088077783584595e-01" nType="0">
        <Node pos="l" depth="1" NCoef="0" IVar="-1" Cut="0.0000000000000000e+00" cType="1" res="-1.5965323895215988e-02" rms="0.0000000000000000e+00" purity="-5.4173927754163742e-02" nType="-99"/>
        <Node pos="r" depth="1" NCoef="0" IVar="34" Cut="1.4867393970489502e+00" cType="1" res="3.4161773510277271e-03" rms="2.3214174807071686e-01" purity="5.1283919811248779e-01" nType="0">
          <Node pos="l" depth="2" NCoef="0" IVar="-1" Cut="0.0000000000000000e+00" cType="1" res="7.5813679723069072e-04" rms="2.3528634011745453e-01" purity="5.4556238651275635e-01" nType="-99"/>
          <Node pos="r" depth="2" NCoef="0" IVar="-1" Cut="0.0000000000000000e+00" cType="1" res="-6.7977616563439369e-03" rms="1.7750735580921173e-01" purity="5.4023075848817825e-02" nType="-99"/>
        </Node>
      </Node>
    </BinaryTree>
    <BinaryTree type="DecisionTree" boostWeight="1.0000000000000000e+00" itree="1254">
      <Node pos="s" depth="0" NCoef="0" IVar="38" Cut="1.3959889411926270e+00" cType="1" res="4.9951131222769618e-04" rms="2.2462514042854309e-01" purity="5.0183874368667603e-01" nType="0">
        <Node pos="l" depth="1" NCoef="0" IVar="36" Cut="1.4471486806869507e+00" cType="1" res="2.7820351533591747e-03" rms="2.2535093128681183e-01" purity="5.1319837570190430e-01" nType="0">
          <Node pos="l" depth="2" NCoef="0" IVar="-1" Cut="0.0000000000000000e+00" cType="1" res="7.1474851574748755e-04" rms="2.2574675083160400e-01" purity="5.5289584398269653e-01" nType="-99"/>
          <Node pos="r" depth="2" NCoef="0" IVar="-1" Cut="0.0000000000000000e+00" cType="1" res="-4.5692948624491692e-03" rms="2.1813470125198364e-01" purity="7.7329568564891815e-02" nType="-99"/>
        </Node>
        <Node pos="r" depth="1" NCoef="0" IVar="33" Cut="-1.3766505718231201e+00" cType="1" res="-4.4917743653059006e-02" rms="2.0442992448806763e-01" purity="2.7580747008323669e-01" nType="0">
          <Node pos="l" depth="2" NCoef="0" IVar="-1" Cut="0.0000000000000000e+00" cType="1" res="-2.3114818613976240e-03" rms="2.3266102373600006e-01" purity="3.8216248154640198e-01" nType="-99"/>
          <Node pos="r" depth="2" NCoef="0" IVar="-1" Cut="0.0000000000000000e+00" cType="1" res="-9.5201423391699791e-03" rms="1.7381538450717926e-01" purity="1.8576341867446899e-01" nType="-99"/>
        </Node>
      </Node>
    </BinaryTree>
    <BinaryTree type="DecisionTree" boostWeight="1.0000000000000000e+00" itree="1255">
      <Node pos="s" depth="0" NCoef="0" IVar="14" Cut="1.4096589088439941e+00" cType="1" res="1.2938417494297028e-03" rms="2.2604818642139435e-01" purity="4.9966216087341309e-01" nType="0">
        <Node pos="l" depth="1" NCoef="0" IVar="1" Cut="2.2621483802795410e+00" cType="1" res="-1.1819029226899147e-02" rms="1.8699491024017334e-01" purity="1.6422832012176514e-01" nType="0">
          <Node pos="l" depth="2" NCoef="0" IVar="-1" Cut="0.0000000000000000e+00" cType="1" res="-3.4895353019237518e-02" rms="0.0000000000000000e+00" purity="-2.9338954016566277e-02" nType="-99"/>
          <Node pos="r" depth="2" NCoef="0" IVar="-1" Cut="0.0000000000000000e+00" cType="1" res="2.1587465016636997e-04" rms="2.5623378157615662e-01" purity="2.4700951576232910e-01" nType="-99"/>
        </Node>
        <Node pos="r" depth="1" NCoef="0" IVar="11" Cut="1.2345679104328156e-02" cType="1" res="1.0608511045575142e-02" rms="2.4969428777694702e-01" purity="7.3793607950210571e-01" nType="0">
          <Node pos="l" depth="2" NCoef="0" IVar="-1" Cut="0.0000000000000000e+00" cType="1" res="3.4577902406454086e-03" rms="2.1721772849559784e-01" purity="7.6796180009841919e-01" nType="-99"/>
          <Node pos="r" depth="2" NCoef="0" IVar="-1" Cut="0.0000000000000000e+00" cType="1" res="-3.8503878749907017e-04" rms="2.6955914497375488e-01" purity="7.1651858091354370e-01" nType="-99"/>
        </Node>
      </Node>
    </BinaryTree>
    <BinaryTree type="DecisionTree" boostWeight="1.0000000000000000e+00" itree="1256">
      <Node pos="s" depth="0" NCoef="0" IVar="32" Cut="-1.5312049388885498e+00" cType="1" res="1.1564322048798203e-03" rms="2.2688481211662292e-01" purity="5.0149786472320557e-01" nType="0">
        <Node pos="l" depth="1" NCoef="0" IVar="18" Cut="1.2269786596298218e+00" cType="1" res="1.5865223482251167e-02" rms="2.2336868941783905e-01" purity="6.8520772457122803e-01" nType="0">
          <Node pos="l" depth="2" NCoef="0" IVar="-1" Cut="0.0000000000000000e+00" cType="1" res="2.5568623095750809e-03" rms="2.1746674180030823e-01" purity="6.9803667068481445e-01" nType="-99"/>
          <Node pos="r" depth="2" NCoef="0" IVar="-1" Cut="0.0000000000000000e+00" cType="1" res="-3.1579812057316303e-03" rms="2.8786352276802063e-01" purity="5.1249545812606812e-01" nType="-99"/>
        </Node>
        <Node pos="r" depth="1" NCoef="0" IVar="1" Cut="2.2865617275238037e+00" cType="1" res="-8.5933776572346687e-03" rms="2.2866493463516235e-01" purity="3.7972474098205566e-01" nType="0">
          <Node pos="l" depth="2" NCoef="0" IVar="-1" Cut="0.0000000000000000e+00" cType="1" res="-1.0714750736951828e-02" rms="0.0000000000000000e+00" purity="1.2893168255686760e-02" nType="-99"/>
          <Node pos="r" depth="2" NCoef="0" IVar="-1" Cut="0.0000000000000000e+00" cType="1" res="-8.5919251432642341e-05" rms="2.7072551846504211e-01" purity="4.9753278493881226e-01" nType="-99"/>
        </Node>
      </Node>
    </BinaryTree>
    <BinaryTree type="DecisionTree" boostWeight="1.0000000000000000e+00" itree="1257">
      <Node pos="s" depth="0" NCoef="0" IVar="2" Cut="2.0493214130401611e+00" cType="1" res="1.5079128788784146e-03" rms="2.2536952793598175e-01" purity="4.9823814630508423e-01" nType="0">
        <Node pos="l" depth="1" NCoef="0" IVar="14" Cut="-1.3376811742782593e+00" cType="1" res="-1.1650757864117622e-02" rms="1.8851751089096069e-01" purity="2.5277429819107056e-01" nType="0">
          <Node pos="l" depth="2" NCoef="0" IVar="-1" Cut="0.0000000000000000e+00" cType="1" res="-4.7170457243919373e-01" rms="0.0000000000000000e+00" purity="-5.2078004926443100e-02" nType="-99"/>
          <Node pos="r" depth="2" NCoef="0" IVar="-1" Cut="0.0000000000000000e+00" cType="1" res="7.3097465792670846e-04" rms="2.7906325459480286e-01" purity="3.9858031272888184e-01" nType="-99"/>
        </Node>
        <Node pos="r" depth="1" NCoef="0" IVar="14" Cut="-9.8937052488327026e-01" cType="1" res="1.0185554623603821e-02" rms="2.4629338085651398e-01" purity="6.6011220216751099e-01" nType="0">
          <Node pos="l" depth="2" NCoef="0" IVar="-1" Cut="0.0000000000000000e+00" cType="1" res="1.3214376755058765e-02" rms="2.4980582296848297e-01" purity="1.0817024111747742e-01" nType="-99"/>
          <Node pos="r" depth="2" NCoef="0" IVar="-1" Cut="0.0000000000000000e+00" cType="1" res="2.4441376444883645e-04" rms="2.4479606747627258e-01" purity="7.8491431474685669e-01" nType="-99"/>
        </Node>
      </Node>
    </BinaryTree>
    <BinaryTree type="DecisionTree" boostWeight="1.0000000000000000e+00" itree="1258">
      <Node pos="s" depth="0" NCoef="0" IVar="0" Cut="7.6048177480697632e-01" cType="1" res="2.0408103591762483e-04" rms="2.2605681419372559e-01" purity="4.9916455149650574e-01" nType="0">
        <Node pos="l" depth="1" NCoef="0" IVar="4" Cut="3.7131500244140625e+00" cType="1" res="7.2889379225671291e-03" rms="2.3241540789604187e-01" purity="5.4823434352874756e-01" nType="0">
          <Node pos="l" depth="2" NCoef="0" IVar="-1" Cut="0.0000000000000000e+00" cType="1" res="2.9081520624458790e-03" rms="2.2625298798084259e-01" purity="5.4403603076934814e-01" nType="-99"/>
          <Node pos="r" depth="2" NCoef="0" IVar="-1" Cut="0.0000000000000000e+00" cType="1" res="-8.2590681267902255e-04" rms="2.3734872043132782e-01" purity="5.5231165885925293e-01" nType="-99"/>
        </Node>
        <Node pos="r" depth="1" NCoef="0" IVar="29" Cut="2.7450258731842041e+00" cType="1" res="-2.0000742748379707e-02" rms="2.0551525056362152e-01" purity="3.5922577977180481e-01" nType="0">
          <Node pos="l" depth="2" NCoef="0" IVar="-1" Cut="0.0000000000000000e+00" cType="1" res="-1.1575366370379925e-02" rms="8.3944939076900482e-02" purity="1.3591428101062775e-01" nType="-99"/>
          <Node pos="r" depth="2" NCoef="0" IVar="-1" Cut="0.0000000000000000e+00" cType="1" res="-5.7254935381934047e-04" rms="2.3019510507583618e-01" purity="4.3351164460182190e-01" nType="-99"/>
        </Node>
      </Node>
    </BinaryTree>
    <BinaryTree type="DecisionTree" boostWeight="1.0000000000000000e+00" itree="1259">
      <Node pos="s" depth="0" NCoef="0" IVar="1" Cut="3.3038568496704102e+00" cType="1" res="-9.5588818658143282e-04" rms="2.2281369566917419e-01" purity="4.9992099404335022e-01" nType="0">
        <Node pos="l" depth="1" NCoef="0" IVar="14" Cut="-1.1441507339477539e+00" cType="1" res="-8.9835375547409058e-03" rms="2.1888361871242523e-01" purity="3.3145511150360107e-01" nType="0">
          <Node pos="l" depth="2" NCoef="0" IVar="-1" Cut="0.0000000000000000e+00" cType="1" res="-3.5963907837867737e-02" rms="0.0000000000000000e+00" purity="-1.8698202446103096e-02" nType="-99"/>
          <Node pos="r" depth="2" NCoef="0" IVar="-1" Cut="0.0000000000000000e+00" cType="1" res="6.7206958192400634e-05" rms="2.8754606842994690e-01" purity="4.9794572591781616e-01" nType="-99"/>
        </Node>
        <Node pos="r" depth="1" NCoef="0" IVar="14" Cut="-1.3376684188842773e+00" cType="1" res="1.3323208317160606e-02" rms="2.2894352674484253e-01" purity="7.9957807064056396e-01" nType="0">
          <Node pos="l" depth="2" NCoef="0" IVar="-1" Cut="0.0000000000000000e+00" cType="1" res="2.0570479333400726e-02" rms="3.0117782950401306e-01" purity="1.2370988726615906e-01" nType="-99"/>
          <Node pos="r" depth="2" NCoef="0" IVar="-1" Cut="0.0000000000000000e+00" cType="1" res="8.4066903218626976e-04" rms="2.1895194053649902e-01" purity="8.7060749530792236e-01" nType="-99"/>
        </Node>
      </Node>
    </BinaryTree>
    <BinaryTree type="DecisionTree" boostWeight="1.0000000000000000e+00" itree="1260">
      <Node pos="s" depth="0" NCoef="0" IVar="45" Cut="2.3747060298919678e+00" cType="1" res="-1.1405549012124538e-03" rms="2.2121405601501465e-01" purity="4.9932953715324402e-01" nType="0">
        <Node pos="l" depth="1" NCoef="0" IVar="14" Cut="-1.3763252496719360e+00" cType="1" res="-1.1000992730259895e-02" rms="2.1521435678005219e-01" purity="3.2860854268074036e-01" nType="0">
          <Node pos="l" depth="2" NCoef="0" IVar="-1" Cut="0.0000000000000000e+00" cType="1" res="-1.6660422086715698e-01" rms="0.0000000000000000e+00" purity="-3.5067938268184662e-02" nType="-99"/>
          <Node pos="r" depth="2" NCoef="0" IVar="-1" Cut="0.0000000000000000e+00" cType="1" res="-2.7882664653589018e-05" rms="2.8260833024978638e-01" purity="4.7591921687126160e-01" nType="-99"/>
        </Node>
        <Node pos="r" depth="1" NCoef="0" IVar="14" Cut="-9.1198039054870605e-01" cType="1" res="1.2547140941023827e-02" rms="2.2857844829559326e-01" purity="7.3631477355957031e-01" nType="0">
          <Node pos="l" depth="2" NCoef="0" IVar="-1" Cut="0.0000000000000000e+00" cType="1" res="9.1921947896480560e-03" rms="2.6573294401168823e-01" purity="1.4998500049114227e-01" nType="-99"/>
          <Node pos="r" depth="2" NCoef="0" IVar="-1" Cut="0.0000000000000000e+00" cType="1" res="7.9138227738440037e-04" rms="2.2107239067554474e-01" purity="8.3680111169815063e-01" nType="-99"/>
        </Node>
      </Node>
    </BinaryTree>
    <BinaryTree type="DecisionTree" boostWeight="1.0000000000000000e+00" itree="1261">
      <Node pos="s" depth="0" NCoef="0" IVar="25" Cut="9.9240130186080933e-01" cType="1" res="1.9314581295475364e-03" rms="2.2379457950592041e-01" purity="5.0269460678100586e-01" nType="0">
        <Node pos="l" depth="1" NCoef="0" IVar="0" Cut="4.6760335564613342e-01" cType="1" res="-2.7949195355176926e-02" rms="5.4797921329736710e-02" purity="6.3103497028350830e-02" nType="0">
          <Node pos="l" depth="2" NCoef="0" IVar="-1" Cut="0.0000000000000000e+00" cType="1" res="2.0178011618554592e-03" rms="1.9493834674358368e-01" purity="1.6325110197067261e-01" nType="-99"/>
          <Node pos="r" depth="2" NCoef="0" IVar="-1" Cut="0.0000000000000000e+00" cType="1" res="-1.3822096399962902e-02" rms="0.0000000000000000e+00" purity="1.2379272840917110e-02" nType="-99"/>
        </Node>
        <Node pos="r" depth="1" NCoef="0" IVar="56" Cut="1.5240936279296875e+00" cType="1" res="5.4235379211604595e-03" rms="2.3552013933658600e-01" purity="5.5406856536865234e-01" nType="0">
          <Node pos="l" depth="2" NCoef="0" IVar="-1" Cut="0.0000000000000000e+00" cType="1" res="8.7321497267112136e-04" rms="2.3726458847522736e-01" purity="5.7414954900741577e-01" nType="-99"/>
          <Node pos="r" depth="2" NCoef="0" IVar="-1" Cut="0.0000000000000000e+00" cType="1" res="-8.1658344715833664e-03" rms="1.7555466294288635e-01" purity="2.4696867913007736e-02" nType="-99"/>
        </Node>
      </Node>
    </BinaryTree>
    <BinaryTree type="DecisionTree" boostWeight="1.0000000000000000e+00" itree="1262">
      <Node pos="s" depth="0" NCoef="0" IVar="14" Cut="-1.4924062490463257e+00" cType="1" res="8.2385342102497816e-04" rms="2.2779515385627747e-01" purity="4.9697774648666382e-01" nType="0">
        <Node pos="l" depth="1" NCoef="0" IVar="15" Cut="-2.9754859209060669e-01" cType="1" res="-9.7302705049514771e-02" rms="0.0000000000000000e+00" purity="-2.0018151029944420e-02" nType="-99"/>
        <Node pos="r" depth="1" NCoef="0" IVar="0" Cut="1.1625037193298340e+00" cType="1" res="5.1852273754775524e-03" rms="2.5617286562919617e-01" purity="5.9537357091903687e-01" nType="0">
          <Node pos="l" depth="2" NCoef="0" IVar="-1" Cut="0.0000000000000000e+00" cType="1" res="7.9005782026797533e-04" rms="2.5603973865509033e-01" purity="6.0487669706344604e-01" nType="-99"/>
          <Node pos="r" depth="2" NCoef="0" IVar="-1" Cut="0.0000000000000000e+00" cType="1" res="-4.9927150830626488e-03" rms="2.5377482175827026e-01" purity="3.7479531764984131e-01" nType="-99"/>
        </Node>
      </Node>
    </BinaryTree>
    <BinaryTree type="DecisionTree" boostWeight="1.0000000000000000e+00" itree="1263">
      <Node pos="s" depth="0" NCoef="0" IVar="45" Cut="1.1568456888198853e+00" cType="1" res="-9.0555992210283875e-04" rms="2.2361622750759125e-01" purity="5.0181573629379272e-01" nType="0">
        <Node pos="l" depth="1" NCoef="0" IVar="49" Cut="2.9905488491058350e+00" cType="1" res="-2.7750460430979729e-02" rms="1.0883124917745590e-01" purity="9.3594439327716827e-02" nType="0">
          <Node pos="l" depth="2" NCoef="0" IVar="-1" Cut="0.0000000000000000e+00" cType="1" res="-9.9597843363881111e-03" rms="0.0000000000000000e+00" purity="4.5948766171932220e-02" nType="-99"/>
          <Node pos="r" depth="2" NCoef="0" IVar="-1" Cut="0.0000000000000000e+00" cType="1" res="4.9443198367953300e-03" rms="2.4568605422973633e-01" purity="2.7422052621841431e-01" nType="-99"/>
        </Node>
        <Node pos="r" depth="1" NCoef="0" IVar="4" Cut="3.6827764511108398e+00" cType="1" res="3.4650079905986786e-03" rms="2.3681330680847168e-01" purity="5.6827753782272339e-01" nType="0">
          <Node pos="l" depth="2" NCoef="0" IVar="-1" Cut="0.0000000000000000e+00" cType="1" res="2.1964409388601780e-03" rms="2.3526418209075928e-01" purity="5.5262094736099243e-01" nType="-99"/>
          <Node pos="r" depth="2" NCoef="0" IVar="-1" Cut="0.0000000000000000e+00" cType="1" res="-7.3884171433746815e-04" rms="2.3746114969253540e-01" purity="5.7993745803833008e-01" nType="-99"/>
        </Node>
      </Node>
    </BinaryTree>
    <BinaryTree type="DecisionTree" boostWeight="1.0000000000000000e+00" itree="1264">
      <Node pos="s" depth="0" NCoef="0" IVar="1" Cut="1.7424185276031494e+00" cType="1" res="6.2834302661940455e-04" rms="2.2484423220157623e-01" purity="5.0155460834503174e-01" nType="0">
        <Node pos="l" depth="1" NCoef="0" IVar="-1" Cut="0.0000000000000000e+00" cType="1" res="-1.0860641300678253e-01" rms="0.0000000000000000e+00" purity="-5.2626151591539383e-02" nType="-99"/>
        <Node pos="r" depth="1" NCoef="0" IVar="56" Cut="1.4850335121154785e+00" cType="1" res="2.7959921862930059e-03" rms="2.3355607688426971e-01" purity="5.2224582433700562e-01" nType="0">
          <Node pos="l" depth="2" NCoef="0" IVar="-1" Cut="0.0000000000000000e+00" cType="1" res="6.5972324227914214e-04" rms="2.3631331324577332e-01" purity="5.5672526359558105e-01" nType="-99"/>
          <Node pos="r" depth="2" NCoef="0" IVar="-1" Cut="0.0000000000000000e+00" cType="1" res="-5.7797902263700962e-03" rms="1.8767322599887848e-01" purity="4.8532702028751373e-02" nType="-99"/>
        </Node>
      </Node>
    </BinaryTree>
    <BinaryTree type="DecisionTree" boostWeight="1.0000000000000000e+00" itree="1265">
      <Node pos="s" depth="0" NCoef="0" IVar="25" Cut="2.2537472248077393e+00" cType="1" res="-6.0169509379193187e-04" rms="2.2619274258613586e-01" purity="4.9911600351333618e-01" nType="0">
        <Node pos="l" depth="1" NCoef="0" IVar="14" Cut="-1.4150160551071167e+00" cType="1" res="-1.0554920881986618e-02" rms="2.1186269819736481e-01" purity="3.0569344758987427e-01" nType="0">
          <Node pos="l" depth="2" NCoef="0" IVar="-1" Cut="0.0000000000000000e+00" cType="1" res="-9.2339140176773071e-01" rms="0.0000000000000000e+00" purity="-3.9505850523710251e-02" nType="-99"/>
          <Node pos="r" depth="2" NCoef="0" IVar="-1" Cut="0.0000000000000000e+00" cType="1" res="1.0235526860924438e-04" rms="2.8034150600433350e-01" purity="4.4271624088287354e-01" nType="-99"/>
        </Node>
        <Node pos="r" depth="1" NCoef="0" IVar="14" Cut="-3.3158114552497864e-01" cType="1" res="1.0473982430994511e-02" rms="2.4065642058849335e-01" purity="7.1435129642486572e-01" nType="0">
          <Node pos="l" depth="2" NCoef="0" IVar="-1" Cut="0.0000000000000000e+00" cType="1" res="8.0995000898838043e-03" rms="2.8581148386001587e-01" purity="1.8553899228572845e-01" nType="-99"/>
          <Node pos="r" depth="2" NCoef="0" IVar="-1" Cut="0.0000000000000000e+00" cType="1" res="3.0563457403331995e-04" rms="2.2924107313156128e-01" purity="8.2586681842803955e-01" nType="-99"/>
        </Node>
      </Node>
    </BinaryTree>
    <BinaryTree type="DecisionTree" boostWeight="1.0000000000000000e+00" itree="1266">
      <Node pos="s" depth="0" NCoef="0" IVar="1" Cut="2.1978664398193359e+00" cType="1" res="9.8410248756408691e-04" rms="2.2314526140689850e-01" purity="5.0031304359436035e-01" nType="0">
        <Node pos="l" depth="1" NCoef="0" IVar="55" Cut="3.2088083028793335e-01" cType="1" res="-6.2126060947775841e-03" rms="0.0000000000000000e+00" purity="3.6378219723701477e-02" nType="-99"/>
        <Node pos="r" depth="1" NCoef="0" IVar="4" Cut="3.6803152561187744e+00" cType="1" res="5.5183311924338341e-03" rms="2.4617166817188263e-01" purity="5.8975994586944580e-01" nType="0">
          <Node pos="l" depth="2" NCoef="0" IVar="-1" Cut="0.0000000000000000e+00" cType="1" res="2.5561307556927204e-03" rms="2.4979737401008606e-01" purity="5.7469820976257324e-01" nType="-99"/>
          <Node pos="r" depth="2" NCoef="0" IVar="-1" Cut="0.0000000000000000e+00" cType="1" res="-6.8758119596168399e-04" rms="2.4271732568740845e-01" purity="6.0119843482971191e-01" nType="-99"/>
        </Node>
      </Node>
    </BinaryTree>
    <BinaryTree type="DecisionTree" boostWeight="1.0000000000000000e+00" itree="1267">
      <Node pos="s" depth="0" NCoef="0" IVar="25" Cut="1.0010305643081665e+00" cType="1" res="1.2647376861423254e-03" rms="2.3028640449047089e-01" purity="5.0107288360595703e-01" nType="0">
        <Node pos="l" depth="1" NCoef="0" IVar="35" Cut="-1.1847460269927979e+00" cType="1" res="-2.6971666142344475e-02" rms="9.0141743421554565e-02" purity="6.5337873995304108e-02" nType="0">
          <Node pos="l" depth="2" NCoef="0" IVar="-1" Cut="0.0000000000000000e+00" cType="1" res="-1.1031886562705040e-02" rms="0.0000000000000000e+00" purity="5.0003308802843094e-02" nType="-99"/>
          <Node pos="r" depth="2" NCoef="0" IVar="-1" Cut="0.0000000000000000e+00" cType="1" res="-9.5760764088481665e-04" rms="1.4216193556785583e-01" purity="7.7955372631549835e-02" nType="-99"/>
        </Node>
        <Node pos="r" depth="1" NCoef="0" IVar="4" Cut="3.6877105236053467e+00" cType="1" res="4.6684620901942253e-03" rms="2.4153117835521698e-01" purity="5.5359804630279541e-01" nType="0">
          <Node pos="l" depth="2" NCoef="0" IVar="-1" Cut="0.0000000000000000e+00" cType="1" res="2.1269069984555244e-03" rms="2.3078490793704987e-01" purity="5.3742015361785889e-01" nType="-99"/>
          <Node pos="r" depth="2" NCoef="0" IVar="-1" Cut="0.0000000000000000e+00" cType="1" res="-4.9396743997931480e-04" rms="2.4930743873119354e-01" purity="5.6635862588882446e-01" nType="-99"/>
        </Node>
      </Node>
    </BinaryTree>
    <BinaryTree type="DecisionTree" boostWeight="1.0000000000000000e+00" itree="1268">
      <Node pos="s" depth="0" NCoef="0" IVar="54" Cut="1.4866290092468262e+00" cType="1" res="3.4401097800582647e-03" rms="2.3228329420089722e-01" purity="5.0108397006988525e-01" nType="0">
        <Node pos="l" depth="1" NCoef="0" IVar="56" Cut="1.4850335121154785e+00" cType="1" res="6.0884049162268639e-03" rms="2.3444882035255432e-01" purity="5.3274095058441162e-01" nType="0">
          <Node pos="l" depth="2" NCoef="0" IVar="-1" Cut="0.0000000000000000e+00" cType="1" res="1.0188075248152018e-03" rms="2.3450295627117157e-01" purity="5.4655766487121582e-01" nType="-99"/>
          <Node pos="r" depth="2" NCoef="0" IVar="-1" Cut="0.0000000000000000e+00" cType="1" res="-8.3609335124492645e-03" rms="2.1992397308349609e-01" purity="5.6012604385614395e-02" nType="-99"/>
        </Node>
        <Node pos="r" depth="1" NCoef="0" IVar="56" Cut="1.4852572679519653e+00" cType="1" res="-3.3341925591230392e-02" rms="1.9613091647624969e-01" purity="6.1401844024658203e-02" nType="0">
          <Node pos="l" depth="2" NCoef="0" IVar="-1" Cut="0.0000000000000000e+00" cType="1" res="-1.0371097363531590e-02" rms="2.2178997099399567e-01" purity="9.2462465167045593e-02" nType="-99"/>
          <Node pos="r" depth="2" NCoef="0" IVar="-1" Cut="0.0000000000000000e+00" cType="1" res="-3.5362510243430734e-04" rms="1.7129936814308167e-01" purity="4.2909152805805206e-02" nType="-99"/>
        </Node>
      </Node>
    </BinaryTree>
    <BinaryTree type="DecisionTree" boostWeight="1.0000000000000000e+00" itree="1269">
      <Node pos="s" depth="0" NCoef="0" IVar="14" Cut="-1.4924062490463257e+00" cType="1" res="-2.1245621610432863e-04" rms="2.2592025995254517e-01" purity="4.9924346804618835e-01" nType="0">
        <Node pos="l" depth="1" NCoef="0" IVar="36" Cut="1.4055664539337158e+00" cType="1" res="-1.1404604464769363e-01" rms="0.0000000000000000e+00" purity="-2.0621854811906815e-02" nType="-99"/>
        <Node pos="r" depth="1" NCoef="0" IVar="9" Cut="2.5020008087158203e+00" cType="1" res="4.0284451097249985e-03" rms="2.5463551282882690e-01" purity="5.9876275062561035e-01" nType="0">
          <Node pos="l" depth="2" NCoef="0" IVar="-1" Cut="0.0000000000000000e+00" cType="1" res="-6.7965420894324780e-03" rms="1.9890899956226349e-01" purity="1.3865002989768982e-01" nType="-99"/>
          <Node pos="r" depth="2" NCoef="0" IVar="-1" Cut="0.0000000000000000e+00" cType="1" res="6.8571465089917183e-04" rms="2.5685608386993408e-01" purity="6.2188869714736938e-01" nType="-99"/>
        </Node>
      </Node>
    </BinaryTree>
    <BinaryTree type="DecisionTree" boostWeight="1.0000000000000000e+00" itree="1270">
      <Node pos="s" depth="0" NCoef="0" IVar="65" Cut="7.5212740898132324e-01" cType="1" res="7.3120981687679887e-04" rms="2.2906304895877838e-01" purity="4.9693211913108826e-01" nType="0">
        <Node pos="l" depth="1" NCoef="0" IVar="8" Cut="-6.7901235818862915e-01" cType="1" res="3.7173791788518429e-03" rms="2.3617568612098694e-01" purity="5.2521145343780518e-01" nType="0">
          <Node pos="l" depth="2" NCoef="0" IVar="-1" Cut="0.0000000000000000e+00" cType="1" res="6.1219073832035065e-03" rms="3.1032142043113708e-01" purity="5.0158172845840454e-01" nType="-99"/>
          <Node pos="r" depth="2" NCoef="0" IVar="-1" Cut="0.0000000000000000e+00" cType="1" res="1.5021234867163002e-04" rms="2.3138062655925751e-01" purity="5.2644449472427368e-01" nType="-99"/>
        </Node>
        <Node pos="r" depth="1" NCoef="0" IVar="14" Cut="9.4162672758102417e-01" cType="1" res="-3.6537591367959976e-02" rms="9.8340623080730438e-02" purity="1.4399285614490509e-01" nType="0">
          <Node pos="l" depth="2" NCoef="0" IVar="-1" Cut="0.0000000000000000e+00" cType="1" res="-1.7590792849659920e-02" rms="0.0000000000000000e+00" purity="-1.0893635451793671e-02" nType="-99"/>
          <Node pos="r" depth="2" NCoef="0" IVar="-1" Cut="0.0000000000000000e+00" cType="1" res="7.8045058762654662e-04" rms="2.5891596078872681e-01" purity="4.8724219202995300e-01" nType="-99"/>
        </Node>
      </Node>
    </BinaryTree>
    <BinaryTree type="DecisionTree" boostWeight="1.0000000000000000e+00" itree="1271">
      <Node pos="s" depth="0" NCoef="0" IVar="1" Cut="2.0050203800201416e+00" cType="1" res="-8.3960633492097259e-04" rms="2.2780771553516388e-01" purity="4.9887147545814514e-01" nType="0">
        <Node pos="l" depth="1" NCoef="0" IVar="15" Cut="-1.0310237407684326e+00" cType="1" res="-1.6564972698688507e-02" rms="0.0000000000000000e+00" purity="-8.0601666122674942e-03" nType="-99"/>
        <Node pos="r" depth="1" NCoef="0" IVar="2" Cut="1.4573017358779907e+00" cType="1" res="3.0142157338559628e-03" rms="2.4683001637458801e-01" purity="5.5747795104980469e-01" nType="0">
          <Node pos="l" depth="2" NCoef="0" IVar="-1" Cut="0.0000000000000000e+00" cType="1" res="-2.7639144100248814e-03" rms="2.1946513652801514e-01" purity="2.0203511416912079e-01" nType="-99"/>
          <Node pos="r" depth="2" NCoef="0" IVar="-1" Cut="0.0000000000000000e+00" cType="1" res="8.2087382907047868e-04" rms="2.4985407292842865e-01" purity="6.0303395986557007e-01" nType="-99"/>
        </Node>
      </Node>
    </BinaryTree>
    <BinaryTree type="DecisionTree" boostWeight="1.0000000000000000e+00" itree="1272">
      <Node pos="s" depth="0" NCoef="0" IVar="23" Cut="1.1317449808120728e+00" cType="1" res="1.6311431536450982e-03" rms="2.2768740355968475e-01" purity="5.0134438276290894e-01" nType="0">
        <Node pos="l" depth="1" NCoef="0" IVar="43" Cut="1.2153557538986206e+00" cType="1" res="4.5060375705361366e-03" rms="2.2920088469982147e-01" purity="5.1470047235488892e-01" nType="0">
          <Node pos="l" depth="2" NCoef="0" IVar="-1" Cut="0.0000000000000000e+00" cType="1" res="7.7100651105865836e-04" rms="2.3115965723991394e-01" purity="5.2241629362106323e-01" nType="-99"/>
          <Node pos="r" depth="2" NCoef="0" IVar="-1" Cut="0.0000000000000000e+00" cType="1" res="-7.7569866552948952e-03" rms="1.2589648365974426e-01" purity="2.3311491310596466e-01" nType="-99"/>
        </Node>
        <Node pos="r" depth="1" NCoef="0" IVar="12" Cut="-1.4926928281784058e+00" cType="1" res="-4.2826332151889801e-02" rms="1.9759559631347656e-01" purity="2.9480540752410889e-01" nType="0">
          <Node pos="l" depth="2" NCoef="0" IVar="-1" Cut="0.0000000000000000e+00" cType="1" res="-2.7386427973397076e-04" rms="1.7607754468917847e-01" purity="2.0825755596160889e-01" nType="-99"/>
          <Node pos="r" depth="2" NCoef="0" IVar="-1" Cut="0.0000000000000000e+00" cType="1" res="-7.8127142041921616e-03" rms="2.0431517064571381e-01" purity="3.3747348189353943e-01" nType="-99"/>
        </Node>
      </Node>
    </BinaryTree>
    <BinaryTree type="DecisionTree" boostWeight="1.0000000000000000e+00" itree="1273">
      <Node pos="s" depth="0" NCoef="0" IVar="57" Cut="-1.2141454219818115e+00" cType="1" res="1.1649912921711802e-03" rms="2.2819109261035919e-01" purity="5.0072771310806274e-01" nType="0">
        <Node pos="l" depth="1" NCoef="0" IVar="54" Cut="1.1771175861358643e+00" cType="1" res="5.4876441136002541e-03" rms="2.3059025406837463e-01" purity="5.3885918855667114e-01" nType="0">
          <Node pos="l" depth="2" NCoef="0" IVar="-1" Cut="0.0000000000000000e+00" cType="1" res="1.2300659436732531e-03" rms="2.2773300111293793e-01" purity="5.9584158658981323e-01" nType="-99"/>
          <Node pos="r" depth="2" NCoef="0" IVar="-1" Cut="0.0000000000000000e+00" cType="1" res="-3.1767785549163818e-03" rms="2.4713779985904694e-01" purity="1.4941018819808960e-01" nType="-99"/>
        </Node>
        <Node pos="r" depth="1" NCoef="0" IVar="14" Cut="-1.2216044664382935e+00" cType="1" res="-2.2050794214010239e-02" rms="2.1335488557815552e-01" purity="2.9593399167060852e-01" nType="0">
          <Node pos="l" depth="2" NCoef="0" IVar="-1" Cut="0.0000000000000000e+00" cType="1" res="-9.5667384564876556e-02" rms="0.0000000000000000e+00" purity="-4.3877791613340378e-02" nType="-99"/>
          <Node pos="r" depth="2" NCoef="0" IVar="-1" Cut="0.0000000000000000e+00" cType="1" res="-9.1778545174747705e-04" rms="2.9494383931159973e-01" purity="4.4613793492317200e-01" nType="-99"/>
        </Node>
      </Node>
    </BinaryTree>
    <BinaryTree type="DecisionTree" boostWeight="1.0000000000000000e+00" itree="1274">
      <Node pos="s" depth="0" NCoef="0" IVar="29" Cut="2.9134035110473633e+00" cType="1" res="-1.7771950224414468e-03" rms="2.2821784019470215e-01" purity="4.9887397885322571e-01" nType="0">
        <Node pos="l" depth="1" NCoef="0" IVar="25" Cut="1.5949702262878418e+00" cType="1" res="-1.8203886225819588e-02" rms="2.1081864833831787e-01" purity="3.9613920450210571e-01" nType="0">
          <Node pos="l" depth="2" NCoef="0" IVar="-1" Cut="0.0000000000000000e+00" cType="1" res="-7.5894119217991829e-03" rms="1.1140666157007217e-01" purity="1.1294371634721756e-01" nType="-99"/>
          <Node pos="r" depth="2" NCoef="0" IVar="-1" Cut="0.0000000000000000e+00" cType="1" res="5.9808994410559535e-04" rms="2.7279585599899292e-01" purity="6.7111873626708984e-01" nType="-99"/>
        </Node>
        <Node pos="r" depth="1" NCoef="0" IVar="34" Cut="1.0986384153366089e+00" cType="1" res="5.4981848224997520e-03" rms="2.3514717817306519e-01" purity="5.4437524080276489e-01" nType="0">
          <Node pos="l" depth="2" NCoef="0" IVar="-1" Cut="0.0000000000000000e+00" cType="1" res="1.4570876955986023e-03" rms="2.3301060497760773e-01" purity="6.2087821960449219e-01" nType="-99"/>
          <Node pos="r" depth="2" NCoef="0" IVar="-1" Cut="0.0000000000000000e+00" cType="1" res="-3.5760935861617327e-03" rms="2.4319401383399963e-01" purity="1.4833122491836548e-01" nType="-99"/>
        </Node>
      </Node>
    </BinaryTree>
    <BinaryTree type="DecisionTree" boostWeight="1.0000000000000000e+00" itree="1275">
      <Node pos="s" depth="0" NCoef="0" IVar="34" Cut="1.4867393970489502e+00" cType="1" res="2.3488784208893776e-03" rms="2.2645094990730286e-01" purity="5.0168776512145996e-01" nType="0">
        <Node pos="l" depth="1" NCoef="0" IVar="36" Cut="1.4851015806198120e+00" cType="1" res="5.0898534245789051e-03" rms="2.2849242389202118e-01" purity="5.3345930576324463e-01" nType="0">
          <Node pos="l" depth="2" NCoef="0" IVar="-1" Cut="0.0000000000000000e+00" cType="1" res="8.9083029888570309e-04" rms="2.2640699148178101e-01" purity="5.4664826393127441e-01" nType="-99"/>
          <Node pos="r" depth="2" NCoef="0" IVar="-1" Cut="0.0000000000000000e+00" cType="1" res="-6.8087973631918430e-03" rms="2.8156340122222900e-01" purity="8.7142340838909149e-02" nType="-99"/>
        </Node>
        <Node pos="r" depth="1" NCoef="0" IVar="36" Cut="1.4858660697937012e+00" cType="1" res="-3.5985231399536133e-02" rms="1.9161495566368103e-01" purity="5.7344947010278702e-02" nType="0">
          <Node pos="l" depth="2" NCoef="0" IVar="-1" Cut="0.0000000000000000e+00" cType="1" res="-1.1662831529974937e-02" rms="2.1210463345050812e-01" purity="8.7509624660015106e-02" nType="-99"/>
          <Node pos="r" depth="2" NCoef="0" IVar="-1" Cut="0.0000000000000000e+00" cType="1" res="-9.0721098240464926e-04" rms="1.7066237330436707e-01" purity="4.0285099297761917e-02" nType="-99"/>
        </Node>
      </Node>
    </BinaryTree>
    <BinaryTree type="DecisionTree" boostWeight="1.0000000000000000e+00" itree="1276">
      <Node pos="s" depth="0" NCoef="0" IVar="4" Cut="3.7867155075073242e+00" cType="1" res="1.5030942158773541e-03" rms="2.3196391761302948e-01" purity="5.0033998489379883e-01" nType="0">
        <Node pos="l" depth="1" NCoef="0" IVar="0" Cut="9.1096913814544678e-01" cType="1" res="8.9218365028500557e-03" rms="2.2290123999118805e-01" purity="4.7854462265968323e-01" nType="0">
          <Node pos="l" depth="2" NCoef="0" IVar="-1" Cut="0.0000000000000000e+00" cType="1" res="2.3217089474201202e-03" rms="2.2923535108566284e-01" purity="5.2163946628570557e-01" nType="-99"/>
          <Node pos="r" depth="2" NCoef="0" IVar="-1" Cut="0.0000000000000000e+00" cType="1" res="-6.5934765152633190e-03" rms="1.7381006479263306e-01" purity="2.2646701335906982e-01" nType="-99"/>
        </Node>
        <Node pos="r" depth="1" NCoef="0" IVar="54" Cut="1.0980954170227051e+00" cType="1" res="-9.9944556131958961e-03" rms="2.4490506947040558e-01" purity="5.3411841392517090e-01" nType="0">
          <Node pos="l" depth="2" NCoef="0" IVar="-1" Cut="0.0000000000000000e+00" cType="1" res="-3.9979192661121488e-04" rms="2.4698479473590851e-01" purity="5.9964013099670410e-01" nType="-99"/>
          <Node pos="r" depth="2" NCoef="0" IVar="-1" Cut="0.0000000000000000e+00" cType="1" res="-5.4093045182526112e-03" rms="2.2901299595832825e-01" purity="1.5470373630523682e-01" nType="-99"/>
        </Node>
      </Node>
    </BinaryTree>
    <BinaryTree type="DecisionTree" boostWeight="1.0000000000000000e+00" itree="1277">
      <Node pos="s" depth="0" NCoef="0" IVar="1" Cut="3.4196102619171143e+00" cType="1" res="-7.7963061630725861e-04" rms="2.2486363351345062e-01" purity="5.0000196695327759e-01" nType="0">
        <Node pos="l" depth="1" NCoef="0" IVar="17" Cut="-2.1532309055328369e+00" cType="1" res="-7.6045612804591656e-03" rms="2.2702023386955261e-01" purity="3.6312267184257507e-01" nType="0">
          <Node pos="l" depth="2" NCoef="0" IVar="-1" Cut="0.0000000000000000e+00" cType="1" res="5.8151787379756570e-04" rms="2.5027167797088623e-01" purity="4.2986720800399780e-01" nType="-99"/>
          <Node pos="r" depth="2" NCoef="0" IVar="-1" Cut="0.0000000000000000e+00" cType="1" res="-2.4136947467923164e-03" rms="2.0450174808502197e-01" purity="3.0619099736213684e-01" nType="-99"/>
        </Node>
        <Node pos="r" depth="1" NCoef="0" IVar="14" Cut="-1.2216044664382935e+00" cType="1" res="1.5037888661026955e-02" rms="2.1896785497665405e-01" purity="8.1723445653915405e-01" nType="0">
          <Node pos="l" depth="2" NCoef="0" IVar="-1" Cut="0.0000000000000000e+00" cType="1" res="1.5378569252789021e-02" rms="3.1090557575225830e-01" purity="1.6303876042366028e-01" nType="-99"/>
          <Node pos="r" depth="2" NCoef="0" IVar="-1" Cut="0.0000000000000000e+00" cType="1" res="1.1530274059623480e-03" rms="2.0603957772254944e-01" purity="8.8548791408538818e-01" nType="-99"/>
        </Node>
      </Node>
    </BinaryTree>
    <BinaryTree type="DecisionTree" boostWeight="1.0000000000000000e+00" itree="1278">
      <Node pos="s" depth="0" NCoef="0" IVar="63" Cut="1.1541823148727417e+00" cType="1" res="1.8226461543235928e-04" rms="2.2848239541053772e-01" purity="5.0136327743530273e-01" nType="0">
        <Node pos="l" depth="1" NCoef="0" IVar="56" Cut="1.5240936279296875e+00" cType="1" res="2.8060080949217081e-03" rms="2.3166376352310181e-01" purity="5.1230186223983765e-01" nType="0">
          <Node pos="l" depth="2" NCoef="0" IVar="-1" Cut="0.0000000000000000e+00" cType="1" res="6.1160209588706493e-04" rms="2.3466555774211884e-01" purity="5.3244298696517944e-01" nType="-99"/>
          <Node pos="r" depth="2" NCoef="0" IVar="-1" Cut="0.0000000000000000e+00" cType="1" res="-9.7111510112881660e-03" rms="1.2744809687137604e-01" purity="1.3418752700090408e-02" nType="-99"/>
        </Node>
        <Node pos="r" depth="1" NCoef="0" IVar="49" Cut="3.1492524147033691e+00" cType="1" res="-4.8165503889322281e-02" rms="1.5087945759296417e-01" purity="2.9979792237281799e-01" nType="0">
          <Node pos="l" depth="2" NCoef="0" IVar="-1" Cut="0.0000000000000000e+00" cType="1" res="-1.2876613996922970e-02" rms="1.5298475511372089e-02" purity="1.8694937229156494e-01" nType="-99"/>
          <Node pos="r" depth="2" NCoef="0" IVar="-1" Cut="0.0000000000000000e+00" cType="1" res="-3.1721312552690506e-03" rms="1.9615459442138672e-01" purity="3.8415810465812683e-01" nType="-99"/>
        </Node>
      </Node>
    </BinaryTree>
    <BinaryTree type="DecisionTree" boostWeight="1.0000000000000000e+00" itree="1279">
      <Node pos="s" depth="0" NCoef="0" IVar="34" Cut="1.4860318899154663e+00" cType="1" res="5.3292058873921633e-04" rms="2.2232159972190857e-01" purity="5.0008416175842285e-01" nType="0">
        <Node pos="l" depth="1" NCoef="0" IVar="58" Cut="1.4099402427673340e+00" cType="1" res="3.3356328494846821e-03" rms="2.2444422543048859e-01" purity="5.3151959180831909e-01" nType="0">
          <Node pos="l" depth="2" NCoef="0" IVar="-1" Cut="0.0000000000000000e+00" cType="1" res="7.0049025816842914e-04" rms="2.2441469132900238e-01" purity="5.4345196485519409e-01" nType="-99"/>
          <Node pos="r" depth="2" NCoef="0" IVar="-1" Cut="0.0000000000000000e+00" cType="1" res="-6.4826714806258678e-03" rms="2.1906980872154236e-01" purity="2.7533912658691406e-01" nType="-99"/>
        </Node>
        <Node pos="r" depth="1" NCoef="0" IVar="3" Cut="4.6908507347106934e+00" cType="1" res="-3.9390835911035538e-02" rms="1.8496674299240112e-01" purity="5.2296232432126999e-02" nType="0">
          <Node pos="l" depth="2" NCoef="0" IVar="-1" Cut="0.0000000000000000e+00" cType="1" res="2.5743348523974419e-03" rms="2.2752451896667480e-01" purity="7.3630884289741516e-02" nType="-99"/>
          <Node pos="r" depth="2" NCoef="0" IVar="-1" Cut="0.0000000000000000e+00" cType="1" res="-1.3295668177306652e-02" rms="1.3050535321235657e-01" purity="3.5838525742292404e-02" nType="-99"/>
        </Node>
      </Node>
    </BinaryTree>
    <BinaryTree type="DecisionTree" boostWeight="1.0000000000000000e+00" itree="1280">
      <Node pos="s" depth="0" NCoef="0" IVar="2" Cut="9.2451274394989014e-01" cType="1" res="3.7366073229350150e-04" rms="2.2678104043006897e-01" purity="5.0064313411712646e-01" nType="0">
        <Node pos="l" depth="1" NCoef="0" IVar="13" Cut="-4.9136418104171753e-01" cType="1" res="-6.5097184851765633e-03" rms="0.0000000000000000e+00" purity="3.1204935163259506e-02" nType="-99"/>
        <Node pos="r" depth="1" NCoef="0" IVar="65" Cut="7.5212740898132324e-01" cType="1" res="2.6683716569095850e-03" rms="2.3233848810195923e-01" purity="5.2256983518600464e-01" nType="0">
          <Node pos="l" depth="2" NCoef="0" IVar="-1" Cut="0.0000000000000000e+00" cType="1" res="7.0540374144911766e-04" rms="2.3992401361465454e-01" purity="5.5239808559417725e-01" nType="-99"/>
          <Node pos="r" depth="2" NCoef="0" IVar="-1" Cut="0.0000000000000000e+00" cType="1" res="-5.6924861855804920e-03" rms="9.0738810598850250e-02" purity="1.5398901700973511e-01" nType="-99"/>
        </Node>
      </Node>
    </BinaryTree>
    <BinaryTree type="DecisionTree" boostWeight="1.0000000000000000e+00" itree="1281">
      <Node pos="s" depth="0" NCoef="0" IVar="49" Cut="2.5039002895355225e+00" cType="1" res="-6.2410120153799653e-04" rms="2.2546444833278656e-01" purity="4.9742788076400757e-01" nType="0">
        <Node pos="l" depth="1" NCoef="0" IVar="45" Cut="1.4018523693084717e+00" cType="1" res="-3.2566860318183899e-02" rms="1.7752166092395782e-01" purity="2.4746456742286682e-01" nType="0">
          <Node pos="l" depth="2" NCoef="0" IVar="-1" Cut="0.0000000000000000e+00" cType="1" res="-1.1429805308580399e-02" rms="0.0000000000000000e+00" purity="5.6604005396366119e-02" nType="-99"/>
          <Node pos="r" depth="2" NCoef="0" IVar="-1" Cut="0.0000000000000000e+00" cType="1" res="1.7400571377947927e-03" rms="3.0221232771873474e-01" purity="6.3052576780319214e-01" nType="-99"/>
        </Node>
        <Node pos="r" depth="1" NCoef="0" IVar="4" Cut="3.7220449447631836e+00" cType="1" res="3.1751031056046486e-03" rms="2.3020933568477631e-01" purity="5.2715796232223511e-01" nType="0">
          <Node pos="l" depth="2" NCoef="0" IVar="-1" Cut="0.0000000000000000e+00" cType="1" res="1.9937178585678339e-03" rms="2.1891181170940399e-01" purity="5.1192337274551392e-01" nType="-99"/>
          <Node pos="r" depth="2" NCoef="0" IVar="-1" Cut="0.0000000000000000e+00" cType="1" res="-8.4267294732853770e-04" rms="2.3978030681610107e-01" purity="5.4135185480117798e-01" nType="-99"/>
        </Node>
      </Node>
    </BinaryTree>
    <BinaryTree type="DecisionTree" boostWeight="1.0000000000000000e+00" itree="1282">
      <Node pos="s" depth="0" NCoef="0" IVar="14" Cut="1.5257415771484375e+00" cType="1" res="-1.0330496588721871e-03" rms="2.2382481396198273e-01" purity="4.9798753857612610e-01" nType="0">
        <Node pos="l" depth="1" NCoef="0" IVar="2" Cut="1.6382122039794922e+00" cType="1" res="-9.9645862355828285e-03" rms="2.2137384116649628e-01" purity="3.4338492155075073e-01" nType="0">
          <Node pos="l" depth="2" NCoef="0" IVar="-1" Cut="0.0000000000000000e+00" cType="1" res="-6.3223699107766151e-03" rms="9.1854117810726166e-02" purity="8.8624395430088043e-02" nType="-99"/>
          <Node pos="r" depth="2" NCoef="0" IVar="-1" Cut="0.0000000000000000e+00" cType="1" res="-9.5426403277087957e-05" rms="2.5026348233222961e-01" purity="4.3102899193763733e-01" nType="-99"/>
        </Node>
        <Node pos="r" depth="1" NCoef="0" IVar="1" Cut="2.3536932468414307e+00" cType="1" res="1.5318414196372032e-02" rms="2.2733630239963531e-01" purity="7.8102719783782959e-01" nType="0">
          <Node pos="l" depth="2" NCoef="0" IVar="-1" Cut="0.0000000000000000e+00" cType="1" res="5.0765182822942734e-03" rms="3.1565603613853455e-01" purity="3.5544335842132568e-01" nType="-99"/>
          <Node pos="r" depth="2" NCoef="0" IVar="-1" Cut="0.0000000000000000e+00" cType="1" res="1.1306869564577937e-03" rms="2.1399250626564026e-01" purity="8.3049321174621582e-01" nType="-99"/>
        </Node>
      </Node>
    </BinaryTree>
    <BinaryTree type="DecisionTree" boostWeight="1.0000000000000000e+00" itree="1283">
      <Node pos="s" depth="0" NCoef="0" IVar="2" Cut="1.3028308153152466e+00" cType="1" res="5.0050532445311546e-04" rms="2.2805702686309814e-01" purity="4.9866536259651184e-01" nType="0">
        <Node pos="l" depth="1" NCoef="0" IVar="14" Cut="-1.2217741012573242e+00" cType="1" res="-3.0474675819277763e-02" rms="1.5767504274845123e-01" purity="1.2003958225250244e-01" nType="0">
          <Node pos="l" depth="2" NCoef="0" IVar="-1" Cut="0.0000000000000000e+00" cType="1" res="-6.5455585718154907e-01" rms="0.0000000000000000e+00" purity="-7.2703525424003601e-02" nType="-99"/>
          <Node pos="r" depth="2" NCoef="0" IVar="-1" Cut="0.0000000000000000e+00" cType="1" res="-7.5917376670986414e-04" rms="2.7386182546615601e-01" purity="2.1606142818927765e-01" nType="-99"/>
        </Node>
        <Node pos="r" depth="1" NCoef="0" IVar="25" Cut="2.8290581703186035e+00" cType="1" res="3.9168372750282288e-03" rms="2.3427933454513550e-01" purity="5.4042500257492065e-01" nType="0">
          <Node pos="l" depth="2" NCoef="0" IVar="-1" Cut="0.0000000000000000e+00" cType="1" res="-2.1334909251891077e-04" rms="2.3938812315464020e-01" purity="4.4694116711616516e-01" nType="-99"/>
          <Node pos="r" depth="2" NCoef="0" IVar="-1" Cut="0.0000000000000000e+00" cType="1" res="2.8514426667243242e-03" rms="2.1789030730724335e-01" purity="8.1266719102859497e-01" nType="-99"/>
        </Node>
      </Node>
    </BinaryTree>
    <BinaryTree type="DecisionTree" boostWeight="1.0000000000000000e+00" itree="1284">
      <Node pos="s" depth="0" NCoef="0" IVar="1" Cut="1.7485942840576172e+00" cType="1" res="2.7321812231093645e-03" rms="2.2581139206886292e-01" purity="5.0092643499374390e-01" nType="0">
        <Node pos="l" depth="1" NCoef="0" IVar="-1" Cut="0.0000000000000000e+00" cType="1" res="-9.9626928567886353e-02" rms="0.0000000000000000e+00" purity="-4.5802414417266846e-02" nType="-99"/>
        <Node pos="r" depth="1" NCoef="0" IVar="2" Cut="1.2939931154251099e+00" cType="1" res="4.8497053794562817e-03" rms="2.3444010317325592e-01" purity="5.2264153957366943e-01" nType="0">
          <Node pos="l" depth="2" NCoef="0" IVar="-1" Cut="0.0000000000000000e+00" cType="1" res="-3.0362906400114298e-03" rms="1.8336375057697296e-01" purity="1.3749922811985016e-01" nType="-99"/>
          <Node pos="r" depth="2" NCoef="0" IVar="-1" Cut="0.0000000000000000e+00" cType="1" res="9.9032872822135687e-04" rms="2.3875276744365692e-01" purity="5.6147152185440063e-01" nType="-99"/>
        </Node>
      </Node>
    </BinaryTree>
    <BinaryTree type="DecisionTree" boostWeight="1.0000000000000000e+00" itree="1285">
      <Node pos="s" depth="0" NCoef="0" IVar="14" Cut="1.5258079767227173e+00" cType="1" res="2.1762029791716486e-04" rms="2.2452951967716217e-01" purity="5.0171363353729248e-01" nType="0">
        <Node pos="l" depth="1" NCoef="0" IVar="21" Cut="1.2345679104328156e-02" cType="1" res="-7.8550986945629120e-03" rms="2.2445487976074219e-01" purity="3.4982880949974060e-01" nType="0">
          <Node pos="l" depth="2" NCoef="0" IVar="-1" Cut="0.0000000000000000e+00" cType="1" res="5.4519050754606724e-03" rms="3.4901478886604309e-01" purity="3.3991998434066772e-01" nType="-99"/>
          <Node pos="r" depth="2" NCoef="0" IVar="-1" Cut="0.0000000000000000e+00" cType="1" res="-1.5542153269052505e-03" rms="2.1250963211059570e-01" purity="3.5052508115768433e-01" nType="-99"/>
        </Node>
        <Node pos="r" depth="1" NCoef="0" IVar="11" Cut="1.2345679104328156e-02" cType="1" res="1.4914941973984241e-02" rms="2.2391931712627411e-01" purity="7.7823758125305176e-01" nType="0">
          <Node pos="l" depth="2" NCoef="0" IVar="-1" Cut="0.0000000000000000e+00" cType="1" res="4.5591401867568493e-03" rms="1.9507032632827759e-01" purity="8.0888205766677856e-01" nType="-99"/>
          <Node pos="r" depth="2" NCoef="0" IVar="-1" Cut="0.0000000000000000e+00" cType="1" res="1.8988674810316297e-06" rms="2.4044403433799744e-01" purity="7.5739365816116333e-01" nType="-99"/>
        </Node>
      </Node>
    </BinaryTree>
    <BinaryTree type="DecisionTree" boostWeight="1.0000000000000000e+00" itree="1286">
      <Node pos="s" depth="0" NCoef="0" IVar="25" Cut="9.9468010663986206e-01" cType="1" res="-1.5553499106317759e-03" rms="2.2312743961811066e-01" purity="4.9825459718704224e-01" nType="0">
        <Node pos="l" depth="1" NCoef="0" IVar="29" Cut="2.9316833019256592e+00" cType="1" res="-3.2521624118089676e-02" rms="3.0473511666059494e-02" purity="5.8700732886791229e-02" nType="0">
          <Node pos="l" depth="2" NCoef="0" IVar="-1" Cut="0.0000000000000000e+00" cType="1" res="-1.2971109710633755e-02" rms="0.0000000000000000e+00" purity="2.0926430821418762e-02" nType="-99"/>
          <Node pos="r" depth="2" NCoef="0" IVar="-1" Cut="0.0000000000000000e+00" cType="1" res="6.1838631518185139e-03" rms="2.3578871786594391e-01" purity="1.9669234752655029e-01" nType="-99"/>
        </Node>
        <Node pos="r" depth="1" NCoef="0" IVar="44" Cut="1.2345679104328156e-02" cType="1" res="2.1172065753489733e-03" rms="2.3548468947410583e-01" purity="5.5038505792617798e-01" nType="0">
          <Node pos="l" depth="2" NCoef="0" IVar="-1" Cut="0.0000000000000000e+00" cType="1" res="5.4648454533889890e-04" rms="2.3405967652797699e-01" purity="5.6295287609100342e-01" nType="-99"/>
          <Node pos="r" depth="2" NCoef="0" IVar="-1" Cut="0.0000000000000000e+00" cType="1" res="-5.5403942242264748e-03" rms="2.5763893127441406e-01" purity="3.0112186074256897e-01" nType="-99"/>
        </Node>
      </Node>
    </BinaryTree>
    <BinaryTree type="DecisionTree" boostWeight="1.0000000000000000e+00" itree="1287">
      <Node pos="s" depth="0" NCoef="0" IVar="43" Cut="1.2111942768096924e+00" cType="1" res="-1.4050701865926385e-03" rms="2.2574502229690552e-01" purity="4.9922555685043335e-01" nType="0">
        <Node pos="l" depth="1" NCoef="0" IVar="54" Cut="1.4468280076980591e+00" cType="1" res="5.0900253700092435e-04" rms="2.2801621258258820e-01" purity="5.0838178396224976e-01" nType="0">
          <Node pos="l" depth="2" NCoef="0" IVar="-1" Cut="0.0000000000000000e+00" cType="1" res="4.5703334035351872e-04" rms="2.2964566946029663e-01" purity="5.4930430650711060e-01" nType="-99"/>
          <Node pos="r" depth="2" NCoef="0" IVar="-1" Cut="0.0000000000000000e+00" cType="1" res="-5.5633722804486752e-03" rms="2.0676529407501221e-01" purity="7.0059835910797119e-02" nType="-99"/>
        </Node>
        <Node pos="r" depth="1" NCoef="0" IVar="-1" Cut="0.0000000000000000e+00" cType="1" res="-8.1124659627676010e-03" rms="1.3552632927894592e-01" purity="2.3723013699054718e-01" nType="-99"/>
      </Node>
    </BinaryTree>
    <BinaryTree type="DecisionTree" boostWeight="1.0000000000000000e+00" itree="1288">
      <Node pos="s" depth="0" NCoef="0" IVar="64" Cut="1.2345679104328156e-02" cType="1" res="-2.4747403804212809e-03" rms="2.2766335308551788e-01" purity="4.9855467677116394e-01" nType="0">
        <Node pos="l" depth="1" NCoef="0" IVar="57" Cut="-6.6658669710159302e-01" cType="1" res="-3.2755860593169928e-04" rms="2.2766454517841339e-01" purity="5.0784420967102051e-01" nType="0">
          <Node pos="l" depth="2" NCoef="0" IVar="-1" Cut="0.0000000000000000e+00" cType="1" res="2.3146004241425544e-04" rms="2.3002314567565918e-01" purity="5.2254396677017212e-01" nType="-99"/>
          <Node pos="r" depth="2" NCoef="0" IVar="-1" Cut="0.0000000000000000e+00" cType="1" res="-8.1927888095378876e-03" rms="1.5690691769123077e-01" purity="1.7201687395572662e-01" nType="-99"/>
        </Node>
        <Node pos="r" depth="1" NCoef="0" IVar="55" Cut="-7.5926250219345093e-01" cType="1" res="-5.0329547375440598e-02" rms="2.2231899201869965e-01" purity="2.9151600599288940e-01" nType="0">
          <Node pos="l" depth="2" NCoef="0" IVar="-1" Cut="0.0000000000000000e+00" cType="1" res="-1.0046166134998202e-03" rms="2.3218540847301483e-01" purity="4.5767787098884583e-01" nType="-99"/>
          <Node pos="r" depth="2" NCoef="0" IVar="-1" Cut="0.0000000000000000e+00" cType="1" res="-1.3902531936764717e-02" rms="2.0348463952541351e-01" purity="1.2580280005931854e-01" nType="-99"/>
        </Node>
      </Node>
    </BinaryTree>
    <BinaryTree type="DecisionTree" boostWeight="1.0000000000000000e+00" itree="1289">
      <Node pos="s" depth="0" NCoef="0" IVar="1" Cut="1.8048760890960693e+00" cType="1" res="2.8907119485666044e-05" rms="2.2513811290264130e-01" purity="5.0211977958679199e-01" nType="0">
        <Node pos="l" depth="1" NCoef="0" IVar="52" Cut="-1.2997924089431763e+00" cType="1" res="-7.2719402611255646e-02" rms="0.0000000000000000e+00" purity="-4.1529562324285507e-02" nType="-99"/>
        <Node pos="r" depth="1" NCoef="0" IVar="17" Cut="-2.4796936511993408e+00" cType="1" res="2.6273438706994057e-03" rms="2.3632612824440002e-01" purity="5.3113174438476562e-01" nType="0">
          <Node pos="l" depth="2" NCoef="0" IVar="-1" Cut="0.0000000000000000e+00" cType="1" res="3.0127258505672216e-03" rms="2.6127260923385620e-01" purity="6.1631858348846436e-01" nType="-99"/>
          <Node pos="r" depth="2" NCoef="0" IVar="-1" Cut="0.0000000000000000e+00" cType="1" res="-1.8493749666959047e-04" rms="2.3134873807430267e-01" purity="5.1593410968780518e-01" nType="-99"/>
        </Node>
      </Node>
    </BinaryTree>
    <BinaryTree type="DecisionTree" boostWeight="1.0000000000000000e+00" itree="1290">
      <Node pos="s" depth="0" NCoef="0" IVar="37" Cut="-6.3582497835159302e-01" cType="1" res="3.3913968945853412e-04" rms="2.2641944885253906e-01" purity="5.0186616182327271e-01" nType="0">
        <Node pos="l" depth="1" NCoef="0" IVar="57" Cut="-1.2141454219818115e+00" cType="1" res="2.5419446174055338e-03" rms="2.3004609346389771e-01" purity="5.1534241437911987e-01" nType="0">
          <Node pos="l" depth="2" NCoef="0" IVar="-1" Cut="0.0000000000000000e+00" cType="1" res="8.8378827786073089e-04" rms="2.3139949142932892e-01" purity="5.5250817537307739e-01" nType="-99"/>
          <Node pos="r" depth="2" NCoef="0" IVar="-1" Cut="0.0000000000000000e+00" cType="1" res="-2.9969022143632174e-03" rms="2.2067603468894958e-01" purity="3.0871796607971191e-01" nType="-99"/>
        </Node>
        <Node pos="r" depth="1" NCoef="0" IVar="-1" Cut="0.0000000000000000e+00" cType="1" res="-9.6694156527519226e-03" rms="7.3317758738994598e-02" purity="1.5541344881057739e-01" nType="-99"/>
      </Node>
    </BinaryTree>
    <BinaryTree type="DecisionTree" boostWeight="1.0000000000000000e+00" itree="1291">
      <Node pos="s" depth="0" NCoef="0" IVar="36" Cut="1.4856008291244507e+00" cType="1" res="1.0087507544085383e-03" rms="2.2568076848983765e-01" purity="5.0155770778656006e-01" nType="0">
        <Node pos="l" depth="1" NCoef="0" IVar="34" Cut="1.4852153062820435e+00" cType="1" res="4.1815373115241528e-03" rms="2.2853165864944458e-01" purity="5.3461635112762451e-01" nType="0">
          <Node pos="l" depth="2" NCoef="0" IVar="-1" Cut="0.0000000000000000e+00" cType="1" res="7.8112649498507380e-04" rms="2.2796851396560669e-01" purity="5.4637825489044189e-01" nType="-99"/>
          <Node pos="r" depth="2" NCoef="0" IVar="-1" Cut="0.0000000000000000e+00" cType="1" res="-8.1204455345869064e-03" rms="2.3674798011779785e-01" purity="1.1234608292579651e-01" nType="-99"/>
        </Node>
        <Node pos="r" depth="1" NCoef="0" IVar="29" Cut="3.4046633243560791e+00" cType="1" res="-4.3277934193611145e-02" rms="1.7537157237529755e-01" purity="4.0116727352142334e-02" nType="0">
          <Node pos="l" depth="2" NCoef="0" IVar="-1" Cut="0.0000000000000000e+00" cType="1" res="-4.3388805352151394e-03" rms="1.7356650531291962e-01" purity="4.8020746558904648e-02" nType="-99"/>
          <Node pos="r" depth="2" NCoef="0" IVar="-1" Cut="0.0000000000000000e+00" cType="1" res="-1.0939777828752995e-02" rms="1.7160947620868683e-01" purity="2.4907298386096954e-02" nType="-99"/>
        </Node>
      </Node>
    </BinaryTree>
    <BinaryTree type="DecisionTree" boostWeight="1.0000000000000000e+00" itree="1292">
      <Node pos="s" depth="0" NCoef="0" IVar="57" Cut="-2.0303781032562256e+00" cType="1" res="1.0016770102083683e-03" rms="2.2595477104187012e-01" purity="5.0115662813186646e-01" nType="0">
        <Node pos="l" depth="1" NCoef="0" IVar="0" Cut="5.9644907712936401e-01" cType="1" res="1.0916738770902157e-02" rms="2.3379617929458618e-01" purity="5.7130753993988037e-01" nType="0">
          <Node pos="l" depth="2" NCoef="0" IVar="-1" Cut="0.0000000000000000e+00" cType="1" res="2.4558224249631166e-03" rms="2.3924702405929565e-01" purity="6.2896221876144409e-01" nType="-99"/>
          <Node pos="r" depth="2" NCoef="0" IVar="-1" Cut="0.0000000000000000e+00" cType="1" res="-5.9778476133942604e-04" rms="2.2334764897823334e-01" purity="4.7306150197982788e-01" nType="-99"/>
        </Node>
        <Node pos="r" depth="1" NCoef="0" IVar="5" Cut="1.3263860940933228e+00" cType="1" res="-9.7706327214837074e-03" rms="2.1660083532333374e-01" purity="4.2494052648544312e-01" nType="0">
          <Node pos="l" depth="2" NCoef="0" IVar="-1" Cut="0.0000000000000000e+00" cType="1" res="-9.5959855243563652e-03" rms="0.0000000000000000e+00" purity="9.9604137241840363e-02" nType="-99"/>
          <Node pos="r" depth="2" NCoef="0" IVar="-1" Cut="0.0000000000000000e+00" cType="1" res="-2.7382592088542879e-04" rms="2.4068200588226318e-01" purity="4.9265098571777344e-01" nType="-99"/>
        </Node>
      </Node>
    </BinaryTree>
    <BinaryTree type="DecisionTree" boostWeight="1.0000000000000000e+00" itree="1293">
      <Node pos="s" depth="0" NCoef="0" IVar="56" Cut="-1.4537900686264038e+00" cType="1" res="1.0238565737381577e-03" rms="2.2820411622524261e-01" purity="4.9838328361511230e-01" nType="0">
        <Node pos="l" depth="1" NCoef="0" IVar="34" Cut="-1.4537774324417114e+00" cType="1" res="8.4306057542562485e-03" rms="2.2985360026359558e-01" purity="6.1406069993972778e-01" nType="0">
          <Node pos="l" depth="2" NCoef="0" IVar="-1" Cut="0.0000000000000000e+00" cType="1" res="2.4299540091305971e-03" rms="2.0210433006286621e-01" purity="7.3873108625411987e-01" nType="-99"/>
          <Node pos="r" depth="2" NCoef="0" IVar="-1" Cut="0.0000000000000000e+00" cType="1" res="-7.5584976002573967e-04" rms="2.7068045735359192e-01" purity="3.9762443304061890e-01" nType="-99"/>
        </Node>
        <Node pos="r" depth="1" NCoef="0" IVar="49" Cut="3.4705178737640381e+00" cType="1" res="-1.3577178120613098e-02" rms="2.2420154511928558e-01" purity="2.7034673094749451e-01" nType="0">
          <Node pos="l" depth="2" NCoef="0" IVar="-1" Cut="0.0000000000000000e+00" cType="1" res="-6.6480785608291626e-04" rms="2.1193259954452515e-01" purity="2.7697798609733582e-01" nType="-99"/>
          <Node pos="r" depth="2" NCoef="0" IVar="-1" Cut="0.0000000000000000e+00" cType="1" res="-5.2519664168357849e-03" rms="2.6563331484794617e-01" purity="2.4323496222496033e-01" nType="-99"/>
        </Node>
      </Node>
    </BinaryTree>
    <BinaryTree type="DecisionTree" boostWeight="1.0000000000000000e+00" itree="1294">
      <Node pos="s" depth="0" NCoef="0" IVar="14" Cut="1.4484179019927979e+00" cType="1" res="4.1776220314204693e-04" rms="2.2352787852287292e-01" purity="5.0040459632873535e-01" nType="0">
        <Node pos="l" depth="1" NCoef="0" IVar="1" Cut="2.3669939041137695e+00" cType="1" res="-1.2024685740470886e-02" rms="1.9508509337902069e-01" purity="1.9145503640174866e-01" nType="0">
          <Node pos="l" depth="2" NCoef="0" IVar="-1" Cut="0.0000000000000000e+00" cType="1" res="-2.2694190964102745e-02" rms="0.0000000000000000e+00" purity="-1.7282279208302498e-02" nType="-99"/>
          <Node pos="r" depth="2" NCoef="0" IVar="-1" Cut="0.0000000000000000e+00" cType="1" res="3.0945357866585255e-04" rms="2.7088519930839539e-01" purity="3.0037093162536621e-01" nType="-99"/>
        </Node>
        <Node pos="r" depth="1" NCoef="0" IVar="11" Cut="1.2345679104328156e-02" cType="1" res="1.0350252501666546e-02" rms="2.4340736865997314e-01" purity="7.4703115224838257e-01" nType="0">
          <Node pos="l" depth="2" NCoef="0" IVar="-1" Cut="0.0000000000000000e+00" cType="1" res="3.5596338566392660e-03" rms="2.0655700564384460e-01" purity="7.7566379308700562e-01" nType="-99"/>
          <Node pos="r" depth="2" NCoef="0" IVar="-1" Cut="0.0000000000000000e+00" cType="1" res="-4.6452489914372563e-04" rms="2.6581117510795593e-01" purity="7.2641783952713013e-01" nType="-99"/>
        </Node>
      </Node>
    </BinaryTree>
    <BinaryTree type="DecisionTree" boostWeight="1.0000000000000000e+00" itree="1295">
      <Node pos="s" depth="0" NCoef="0" IVar="32" Cut="-1.5312128067016602e+00" cType="1" res="-3.6764927790500224e-04" rms="2.2628246247768402e-01" purity="4.9869877099990845e-01" nType="0">
        <Node pos="l" depth="1" NCoef="0" IVar="11" Cut="1.2345679104328156e-02" cType="1" res="1.1762831360101700e-02" rms="2.1835213899612427e-01" purity="6.8168693780899048e-01" nType="0">
          <Node pos="l" depth="2" NCoef="0" IVar="-1" Cut="0.0000000000000000e+00" cType="1" res="4.4908430427312851e-03" rms="1.5947028994560242e-01" purity="6.6119629144668579e-01" nType="-99"/>
          <Node pos="r" depth="2" NCoef="0" IVar="-1" Cut="0.0000000000000000e+00" cType="1" res="-2.5352119700983167e-04" rms="2.5640013813972473e-01" purity="6.9871401786804199e-01" nType="-99"/>
        </Node>
        <Node pos="r" depth="1" NCoef="0" IVar="1" Cut="1.9857153892517090e+00" cType="1" res="-8.3084721118211746e-03" rms="2.3098185658454895e-01" purity="3.7891149520874023e-01" nType="0">
          <Node pos="l" depth="2" NCoef="0" IVar="-1" Cut="0.0000000000000000e+00" cType="1" res="-3.5954266786575317e-02" rms="0.0000000000000000e+00" purity="-2.8543865308165550e-02" nType="-99"/>
          <Node pos="r" depth="2" NCoef="0" IVar="-1" Cut="0.0000000000000000e+00" cType="1" res="-3.9646099321544170e-04" rms="2.5774425268173218e-01" purity="4.3790605664253235e-01" nType="-99"/>
        </Node>
      </Node>
    </BinaryTree>
    <BinaryTree type="DecisionTree" boostWeight="1.0000000000000000e+00" itree="1296">
      <Node pos="s" depth="0" NCoef="0" IVar="2" Cut="5.5746024847030640e-01" cType="1" res="3.2129324972629547e-04" rms="2.2954542934894562e-01" purity="4.9869716167449951e-01" nType="0">
        <Node pos="l" depth="1" NCoef="0" IVar="-1" Cut="0.0000000000000000e+00" cType="1" res="-1.6928602010011673e-02" rms="0.0000000000000000e+00" purity="-6.0733124613761902e-02" nType="-99"/>
        <Node pos="r" depth="1" NCoef="0" IVar="57" Cut="-9.6753722429275513e-01" cType="1" res="2.1507467608898878e-03" rms="2.3510727286338806e-01" purity="5.1155537366867065e-01" nType="0">
          <Node pos="l" depth="2" NCoef="0" IVar="-1" Cut="0.0000000000000000e+00" cType="1" res="7.2094943607226014e-04" rms="2.3954637348651886e-01" purity="5.3935140371322632e-01" nType="-99"/>
          <Node pos="r" depth="2" NCoef="0" IVar="-1" Cut="0.0000000000000000e+00" cType="1" res="-4.2703412473201752e-03" rms="1.8662928044795990e-01" purity="2.5733998417854309e-01" nType="-99"/>
        </Node>
      </Node>
    </BinaryTree>
    <BinaryTree type="DecisionTree" boostWeight="1.0000000000000000e+00" itree="1297">
      <Node pos="s" depth="0" NCoef="0" IVar="45" Cut="1.0957996845245361e+00" cType="1" res="1.2521375901997089e-03" rms="2.2714385390281677e-01" purity="5.0039571523666382e-01" nType="0">
        <Node pos="l" depth="1" NCoef="0" IVar="49" Cut="3.0235612392425537e+00" cType="1" res="-2.4952746927738190e-02" rms="9.9648796021938324e-02" purity="8.5056878626346588e-02" nType="0">
          <Node pos="l" depth="2" NCoef="0" IVar="-1" Cut="0.0000000000000000e+00" cType="1" res="-9.1390516608953476e-03" rms="0.0000000000000000e+00" purity="4.7008141875267029e-02" nType="-99"/>
          <Node pos="r" depth="2" NCoef="0" IVar="-1" Cut="0.0000000000000000e+00" cType="1" res="5.0194426439702511e-03" rms="2.3693548142910004e-01" purity="2.6508826017379761e-01" nType="-99"/>
        </Node>
        <Node pos="r" depth="1" NCoef="0" IVar="61" Cut="1.2345679104328156e-02" cType="1" res="5.1346938125789165e-03" rms="2.4010536074638367e-01" purity="5.6193298101425171e-01" nType="0">
          <Node pos="l" depth="2" NCoef="0" IVar="-1" Cut="0.0000000000000000e+00" cType="1" res="6.7614987492561340e-03" rms="3.7831613421440125e-01" purity="5.3771984577178955e-01" nType="-99"/>
          <Node pos="r" depth="2" NCoef="0" IVar="-1" Cut="0.0000000000000000e+00" cType="1" res="3.4814892569556832e-04" rms="2.3382143676280975e-01" purity="5.6272917985916138e-01" nType="-99"/>
        </Node>
      </Node>
    </BinaryTree>
    <BinaryTree type="DecisionTree" boostWeight="1.0000000000000000e+00" itree="1298">
      <Node pos="s" depth="0" NCoef="0" IVar="54" Cut="1.4080055952072144e+00" cType="1" res="3.7334207445383072e-04" rms="2.2741776704788208e-01" purity="5.0235426425933838e-01" nType="0">
        <Node pos="l" depth="1" NCoef="0" IVar="44" Cut="1.2345679104328156e-02" cType="1" res="3.4467487130314112e-03" rms="2.2962611913681030e-01" purity="5.4798859357833862e-01" nType="0">
          <Node pos="l" depth="2" NCoef="0" IVar="-1" Cut="0.0000000000000000e+00" cType="1" res="7.5462885433807969e-04" rms="2.2887799143791199e-01" purity="5.5844283103942871e-01" nType="-99"/>
          <Node pos="r" depth="2" NCoef="0" IVar="-1" Cut="0.0000000000000000e+00" cType="1" res="-6.0567306354641914e-03" rms="2.3856437206268311e-01" purity="3.2520645856857300e-01" nType="-99"/>
        </Node>
        <Node pos="r" depth="1" NCoef="0" IVar="2" Cut="2.0231506824493408e+00" cType="1" res="-2.7541412040591240e-02" rms="2.0417281985282898e-01" purity="8.7872706353664398e-02" nType="0">
          <Node pos="l" depth="2" NCoef="0" IVar="-1" Cut="0.0000000000000000e+00" cType="1" res="-2.0776320248842239e-02" rms="0.0000000000000000e+00" purity="-1.7598183825612068e-02" nType="-99"/>
          <Node pos="r" depth="2" NCoef="0" IVar="-1" Cut="0.0000000000000000e+00" cType="1" res="7.0531014353036880e-04" rms="3.2952654361724854e-01" purity="1.8806613981723785e-01" nType="-99"/>
        </Node>
      </Node>
    </BinaryTree>
    <BinaryTree type="DecisionTree" boostWeight="1.0000000000000000e+00" itree="1299">
      <Node pos="s" depth="0" NCoef="0" IVar="16" Cut="1.5224626064300537e+00" cType="1" res="9.6763996407389641e-04" rms="2.2889475524425507e-01" purity="4.9797517061233521e-01" nType="0">
        <Node pos="l" depth="1" NCoef="0" IVar="37" Cut="-8.4240615367889404e-01" cType="1" res="-3.4669877495616674e-03" rms="2.3162814974784851e-01" purity="4.3871727585792542e-01" nType="0">
          <Node pos="l" depth="2" NCoef="0" IVar="-1" Cut="0.0000000000000000e+00" cType="1" res="-5.5968088418012485e-05" rms="2.3757398128509521e-01" purity="4.6169081330299377e-01" nType="-99"/>
          <Node pos="r" depth="2" NCoef="0" IVar="-1" Cut="0.0000000000000000e+00" cType="1" res="-6.9102728739380836e-03" rms="1.3923084735870361e-01" purity="1.6795943677425385e-01" nType="-99"/>
        </Node>
        <Node pos="r" depth="1" NCoef="0" IVar="65" Cut="2.8048917651176453e-01" cType="1" res="2.0918635651469231e-02" rms="2.1504214406013489e-01" purity="7.6457136869430542e-01" nType="0">
          <Node pos="l" depth="2" NCoef="0" IVar="-1" Cut="0.0000000000000000e+00" cType="1" res="-4.4410806731320918e-04" rms="2.0899930596351624e-01" purity="7.0243954658508301e-01" nType="-99"/>
          <Node pos="r" depth="2" NCoef="0" IVar="-1" Cut="0.0000000000000000e+00" cType="1" res="4.1183503344655037e-03" rms="2.1717047691345215e-01" purity="7.9991739988327026e-01" nType="-99"/>
        </Node>
      </Node>
    </BinaryTree>
    <BinaryTree type="DecisionTree" boostWeight="1.0000000000000000e+00" itree="1300">
      <Node pos="s" depth="0" NCoef="0" IVar="16" Cut="1.4833421707153320e+00" cType="1" res="6.2646740116178989e-04" rms="2.2423811256885529e-01" purity="5.0155901908874512e-01" nType="0">
        <Node pos="l" depth="1" NCoef="0" IVar="34" Cut="1.4093587398529053e+00" cType="1" res="-6.7030056379735470e-03" rms="2.2812482714653015e-01" purity="3.8453441858291626e-01" nType="0">
          <Node pos="l" depth="2" NCoef="0" IVar="-1" Cut="0.0000000000000000e+00" cType="1" res="-2.7608353411778808e-04" rms="2.4007773399353027e-01" purity="4.2590501904487610e-01" nType="-99"/>
          <Node pos="r" depth="2" NCoef="0" IVar="-1" Cut="0.0000000000000000e+00" cType="1" res="-1.1135254055261612e-02" rms="4.4371280819177628e-02" purity="2.7111554518342018e-02" nType="-99"/>
        </Node>
        <Node pos="r" depth="1" NCoef="0" IVar="11" Cut="1.2345679104328156e-02" cType="1" res="1.5929328277707100e-02" rms="2.1509420871734619e-01" purity="7.4588912725448608e-01" nType="0">
          <Node pos="l" depth="2" NCoef="0" IVar="-1" Cut="0.0000000000000000e+00" cType="1" res="3.7815070245414972e-03" rms="1.9837649166584015e-01" purity="7.8364485502243042e-01" nType="-99"/>
          <Node pos="r" depth="2" NCoef="0" IVar="-1" Cut="0.0000000000000000e+00" cType="1" res="-1.1451012687757611e-03" rms="2.3927135765552521e-01" purity="6.7982554435729980e-01" nType="-99"/>
        </Node>
      </Node>
    </BinaryTree>
    <BinaryTree type="DecisionTree" boostWeight="1.0000000000000000e+00" itree="1301">
      <Node pos="s" depth="0" NCoef="0" IVar="5" Cut="7.8481721878051758e-01" cType="1" res="1.0511109139770269e-03" rms="2.2669960558414459e-01" purity="5.0113409757614136e-01" nType="0">
        <Node pos="l" depth="1" NCoef="0" IVar="49" Cut="3.1013820171356201e+00" cType="1" res="-1.2278560549020767e-02" rms="0.0000000000000000e+00" purity="5.4982487112283707e-02" nType="-99"/>
        <Node pos="r" depth="1" NCoef="0" IVar="9" Cut="3.1898198127746582e+00" cType="1" res="3.1697002705186605e-03" rms="2.3210826516151428e-01" purity="5.2042692899703979e-01" nType="0">
          <Node pos="l" depth="2" NCoef="0" IVar="-1" Cut="0.0000000000000000e+00" cType="1" res="2.1029431372880936e-03" rms="2.2187967598438263e-01" purity="4.9525600671768188e-01" nType="-99"/>
          <Node pos="r" depth="2" NCoef="0" IVar="-1" Cut="0.0000000000000000e+00" cType="1" res="-7.4928515823557973e-04" rms="2.3944787681102753e-01" purity="5.4032176733016968e-01" nType="-99"/>
        </Node>
      </Node>
    </BinaryTree>
    <BinaryTree type="DecisionTree" boostWeight="1.0000000000000000e+00" itree="1302">
      <Node pos="s" depth="0" NCoef="0" IVar="2" Cut="5.0748854875564575e-01" cType="1" res="-2.0787655375897884e-04" rms="2.2472669184207916e-01" purity="5.0023537874221802e-01" nType="0">
        <Node pos="l" depth="1" NCoef="0" IVar="-1" Cut="0.0000000000000000e+00" cType="1" res="-2.0160512998700142e-02" rms="0.0000000000000000e+00" purity="-7.0532731711864471e-02" nType="-99"/>
        <Node pos="r" depth="1" NCoef="0" IVar="36" Cut="1.5243083238601685e+00" cType="1" res="1.6175835626199841e-03" rms="2.3010943830013275e-01" purity="5.1240408420562744e-01" nType="0">
          <Node pos="l" depth="2" NCoef="0" IVar="-1" Cut="0.0000000000000000e+00" cType="1" res="4.6244150144048035e-04" rms="2.3196375370025635e-01" purity="5.3206795454025269e-01" nType="-99"/>
          <Node pos="r" depth="2" NCoef="0" IVar="-1" Cut="0.0000000000000000e+00" cType="1" res="-8.5097420960664749e-03" rms="1.7028443515300751e-01" purity="2.6088805869221687e-02" nType="-99"/>
        </Node>
      </Node>
    </BinaryTree>
    <BinaryTree type="DecisionTree" boostWeight="1.0000000000000000e+00" itree="1303">
      <Node pos="s" depth="0" NCoef="0" IVar="0" Cut="1.1903733015060425e+00" cType="1" res="1.5002279542386532e-03" rms="2.2810044884681702e-01" purity="4.9734312295913696e-01" nType="0">
        <Node pos="l" depth="1" NCoef="0" IVar="65" Cut="7.5197696685791016e-01" cType="1" res="3.4445084165781736e-03" rms="2.2839654982089996e-01" purity="5.0578784942626953e-01" nType="0">
          <Node pos="l" depth="2" NCoef="0" IVar="-1" Cut="0.0000000000000000e+00" cType="1" res="7.8902259701862931e-04" rms="2.3460218310356140e-01" purity="5.3403472900390625e-01" nType="-99"/>
          <Node pos="r" depth="2" NCoef="0" IVar="-1" Cut="0.0000000000000000e+00" cType="1" res="-5.2375993691384792e-03" rms="1.2261233478784561e-01" purity="1.5362457931041718e-01" nType="-99"/>
        </Node>
        <Node pos="r" depth="1" NCoef="0" IVar="-1" Cut="0.0000000000000000e+00" cType="1" res="-6.6222990863025188e-03" rms="2.1420200169086456e-01" purity="2.7830907702445984e-01" nType="-99"/>
      </Node>
    </BinaryTree>
    <BinaryTree type="DecisionTree" boostWeight="1.0000000000000000e+00" itree="1304">
      <Node pos="s" depth="0" NCoef="0" IVar="58" Cut="1.3982962369918823e+00" cType="1" res="3.2297454308718443e-03" rms="2.3040634393692017e-01" purity="5.0109267234802246e-01" nType="0">
        <Node pos="l" depth="1" NCoef="0" IVar="36" Cut="1.4853361845016479e+00" cType="1" res="5.4604131728410721e-03" rms="2.3131065070629120e-01" purity="5.1349550485610962e-01" nType="0">
          <Node pos="l" depth="2" NCoef="0" IVar="-1" Cut="0.0000000000000000e+00" cType="1" res="1.0470786364749074e-03" rms="2.3280662298202515e-01" purity="5.4611366987228394e-01" nType="-99"/>
          <Node pos="r" depth="2" NCoef="0" IVar="-1" Cut="0.0000000000000000e+00" cType="1" res="-5.6947139091789722e-03" rms="2.0472300052642822e-01" purity="4.9487087875604630e-02" nType="-99"/>
        </Node>
        <Node pos="r" depth="1" NCoef="0" IVar="40" Cut="-1.9562053680419922e-01" cType="1" res="-4.0460389107465744e-02" rms="2.0713020861148834e-01" purity="2.5816881656646729e-01" nType="0">
          <Node pos="l" depth="2" NCoef="0" IVar="-1" Cut="0.0000000000000000e+00" cType="1" res="-2.4195960722863674e-03" rms="2.5223642587661743e-01" purity="3.0696389079093933e-01" nType="-99"/>
          <Node pos="r" depth="2" NCoef="0" IVar="-1" Cut="0.0000000000000000e+00" cType="1" res="-9.3334699049592018e-03" rms="1.6457380354404449e-01" purity="2.2241678833961487e-01" nType="-99"/>
        </Node>
      </Node>
    </BinaryTree>
    <BinaryTree type="DecisionTree" boostWeight="1.0000000000000000e+00" itree="1305">
      <Node pos="s" depth="0" NCoef="0" IVar="1" Cut="1.8124119043350220e+00" cType="1" res="-6.8030919646844268e-04" rms="2.2385917603969574e-01" purity="5.0035113096237183e-01" nType="0">
        <Node pos="l" depth="1" NCoef="0" IVar="60" Cut="-5.5686730891466141e-02" cType="1" res="-7.8831121325492859e-02" rms="0.0000000000000000e+00" purity="-4.2538508772850037e-02" nType="-99"/>
        <Node pos="r" depth="1" NCoef="0" IVar="2" Cut="5.5746024847030640e-01" cType="1" res="1.9577159546315670e-03" rms="2.3545816540718079e-01" purity="5.2992802858352661e-01" nType="0">
          <Node pos="l" depth="2" NCoef="0" IVar="-1" Cut="0.0000000000000000e+00" cType="1" res="-1.4112208038568497e-02" rms="0.0000000000000000e+00" purity="-4.5710116624832153e-02" nType="-99"/>
          <Node pos="r" depth="2" NCoef="0" IVar="-1" Cut="0.0000000000000000e+00" cType="1" res="4.2688584653660655e-04" rms="2.4050360918045044e-01" purity="5.4368418455123901e-01" nType="-99"/>
        </Node>
      </Node>
    </BinaryTree>
    <BinaryTree type="DecisionTree" boostWeight="1.0000000000000000e+00" itree="1306">
      <Node pos="s" depth="0" NCoef="0" IVar="44" Cut="1.2345679104328156e-02" cType="1" res="-3.2849996932782233e-04" rms="2.2356574237346649e-01" purity="4.9807095527648926e-01" nType="0">
        <Node pos="l" depth="1" NCoef="0" IVar="54" Cut="5.5809479951858521e-01" cType="1" res="2.0966983865946531e-03" rms="2.2053579986095428e-01" purity="5.0970643758773804e-01" nType="0">
          <Node pos="l" depth="2" NCoef="0" IVar="-1" Cut="0.0000000000000000e+00" cType="1" res="1.0380833409726620e-03" rms="2.1969753503799438e-01" purity="5.7963913679122925e-01" nType="-99"/>
          <Node pos="r" depth="2" NCoef="0" IVar="-1" Cut="0.0000000000000000e+00" cType="1" res="-3.4557029139250517e-03" rms="2.2228652238845825e-01" purity="1.7006988823413849e-01" nType="-99"/>
        </Node>
        <Node pos="r" depth="1" NCoef="0" IVar="35" Cut="-5.6501471996307373e-01" cType="1" res="-4.7910496592521667e-02" rms="2.7203440666198730e-01" purity="2.6978671550750732e-01" nType="0">
          <Node pos="l" depth="2" NCoef="0" IVar="-1" Cut="0.0000000000000000e+00" cType="1" res="7.9678412294015288e-04" rms="2.5764039158821106e-01" purity="4.3307626247406006e-01" nType="-99"/>
          <Node pos="r" depth="2" NCoef="0" IVar="-1" Cut="0.0000000000000000e+00" cType="1" res="-1.4802660793066025e-02" rms="2.7518096566200256e-01" purity="1.2758773565292358e-01" nType="-99"/>
        </Node>
      </Node>
    </BinaryTree>
    <BinaryTree type="DecisionTree" boostWeight="1.0000000000000000e+00" itree="1307">
      <Node pos="s" depth="0" NCoef="0" IVar="49" Cut="2.3944940567016602e+00" cType="1" res="1.7452886095270514e-03" rms="2.2857652604579926e-01" purity="5.0080609321594238e-01" nType="0">
        <Node pos="l" depth="1" NCoef="0" IVar="45" Cut="7.9997479915618896e-01" cType="1" res="-4.0936332195997238e-02" rms="1.7637732625007629e-01" purity="2.1424017846584320e-01" nType="0">
          <Node pos="l" depth="2" NCoef="0" IVar="-1" Cut="0.0000000000000000e+00" cType="1" res="-2.1688681095838547e-02" rms="0.0000000000000000e+00" purity="-2.0953394472599030e-02" nType="-99"/>
          <Node pos="r" depth="2" NCoef="0" IVar="-1" Cut="0.0000000000000000e+00" cType="1" res="-3.1148304697126150e-03" rms="2.4757738411426544e-01" purity="3.1824389100074768e-01" nType="-99"/>
        </Node>
        <Node pos="r" depth="1" NCoef="0" IVar="36" Cut="1.4855418205261230e+00" cType="1" res="4.8427744768559933e-03" rms="2.3160198330879211e-01" purity="5.2160269021987915e-01" nType="0">
          <Node pos="l" depth="2" NCoef="0" IVar="-1" Cut="0.0000000000000000e+00" cType="1" res="9.7680708859115839e-04" rms="2.3329876363277435e-01" purity="5.5429261922836304e-01" nType="-99"/>
          <Node pos="r" depth="2" NCoef="0" IVar="-1" Cut="0.0000000000000000e+00" cType="1" res="-6.0620442964136600e-03" rms="2.0075970888137817e-01" purity="4.8239205032587051e-02" nType="-99"/>
        </Node>
      </Node>
    </BinaryTree>
    <BinaryTree type="DecisionTree" boostWeight="1.0000000000000000e+00" itree="1308">
      <Node pos="s" depth="0" NCoef="0" IVar="29" Cut="2.7104456424713135e+00" cType="1" res="1.5561045438516885e-04" rms="2.2634886205196381e-01" purity="5.0170248746871948e-01" nType="0">
        <Node pos="l" depth="1" NCoef="0" IVar="0" Cut="5.7975441217422485e-01" cType="1" res="-2.1719316020607948e-02" rms="2.0537072420120239e-01" purity="3.3173945546150208e-01" nType="0">
          <Node pos="l" depth="2" NCoef="0" IVar="-1" Cut="0.0000000000000000e+00" cType="1" res="1.0143144754692912e-04" rms="2.4999707937240601e-01" purity="4.7009438276290894e-01" nType="-99"/>
          <Node pos="r" depth="2" NCoef="0" IVar="-1" Cut="0.0000000000000000e+00" cType="1" res="-8.3840582519769669e-03" rms="1.3615097105503082e-01" purity="1.7885310947895050e-01" nType="-99"/>
        </Node>
        <Node pos="r" depth="1" NCoef="0" IVar="32" Cut="1.2861684560775757e+00" cType="1" res="5.3201531991362572e-03" rms="2.3072144389152527e-01" purity="5.4182976484298706e-01" nType="0">
          <Node pos="l" depth="2" NCoef="0" IVar="-1" Cut="0.0000000000000000e+00" cType="1" res="1.2091855751350522e-03" rms="2.3170527815818787e-01" purity="6.0688364505767822e-01" nType="-99"/>
          <Node pos="r" depth="2" NCoef="0" IVar="-1" Cut="0.0000000000000000e+00" cType="1" res="-2.9743819031864405e-03" rms="2.2283008694648743e-01" purity="1.4816153049468994e-01" nType="-99"/>
        </Node>
      </Node>
    </BinaryTree>
    <BinaryTree type="DecisionTree" boostWeight="1.0000000000000000e+00" itree="1309">
      <Node pos="s" depth="0" NCoef="0" IVar="32" Cut="-1.5312128067016602e+00" cType="1" res="-5.9588841395452619e-04" rms="2.2750920057296753e-01" purity="4.9796181917190552e-01" nType="0">
        <Node pos="l" depth="1" NCoef="0" IVar="17" Cut="-1.2577233314514160e+00" cType="1" res="1.1436015367507935e-02" rms="2.1928299963474274e-01" purity="6.8115848302841187e-01" nType="0">
          <Node pos="l" depth="2" NCoef="0" IVar="-1" Cut="0.0000000000000000e+00" cType="1" res="2.3841771762818098e-03" rms="2.1292516589164734e-01" purity="7.0461088418960571e-01" nType="-99"/>
          <Node pos="r" depth="2" NCoef="0" IVar="-1" Cut="0.0000000000000000e+00" cType="1" res="-3.3143963664770126e-03" rms="2.5666543841362000e-01" purity="5.1398885250091553e-01" nType="-99"/>
        </Node>
        <Node pos="r" depth="1" NCoef="0" IVar="41" Cut="1.2345679104328156e-02" cType="1" res="-8.4676155820488930e-03" rms="2.3239696025848389e-01" purity="3.7810763716697693e-01" nType="0">
          <Node pos="l" depth="2" NCoef="0" IVar="-1" Cut="0.0000000000000000e+00" cType="1" res="5.4007358849048615e-03" rms="3.2569238543510437e-01" purity="3.6251416802406311e-01" nType="-99"/>
          <Node pos="r" depth="2" NCoef="0" IVar="-1" Cut="0.0000000000000000e+00" cType="1" res="-1.5182949136942625e-03" rms="2.2442162036895752e-01" purity="3.7913122773170471e-01" nType="-99"/>
        </Node>
      </Node>
    </BinaryTree>
    <BinaryTree type="DecisionTree" boostWeight="1.0000000000000000e+00" itree="1310">
      <Node pos="s" depth="0" NCoef="0" IVar="37" Cut="-2.2712042331695557e+00" cType="1" res="7.1332877269014716e-04" rms="2.2881940007209778e-01" purity="5.0215578079223633e-01" nType="0">
        <Node pos="l" depth="1" NCoef="0" IVar="36" Cut="7.5093054771423340e-01" cType="1" res="1.3398341834545135e-02" rms="2.3838008940219879e-01" purity="5.7767689228057861e-01" nType="0">
          <Node pos="l" depth="2" NCoef="0" IVar="-1" Cut="0.0000000000000000e+00" cType="1" res="2.3641523439437151e-03" rms="2.3575808107852936e-01" purity="6.3086706399917603e-01" nType="-99"/>
          <Node pos="r" depth="2" NCoef="0" IVar="-1" Cut="0.0000000000000000e+00" cType="1" res="-2.6767000090330839e-03" rms="2.5422865152359009e-01" purity="1.8126241862773895e-01" nType="-99"/>
        </Node>
        <Node pos="r" depth="1" NCoef="0" IVar="45" Cut="3.1164999008178711e+00" cType="1" res="-7.6292306184768677e-03" rms="2.2191269695758820e-01" purity="4.5248779654502869e-01" nType="0">
          <Node pos="l" depth="2" NCoef="0" IVar="-1" Cut="0.0000000000000000e+00" cType="1" res="-1.6011883271858096e-03" rms="2.2025723755359650e-01" purity="3.9566650986671448e-01" nType="-99"/>
          <Node pos="r" depth="2" NCoef="0" IVar="-1" Cut="0.0000000000000000e+00" cType="1" res="3.0109256040304899e-03" rms="2.2988075017929077e-01" purity="8.1360507011413574e-01" nType="-99"/>
        </Node>
      </Node>
    </BinaryTree>
    <BinaryTree type="DecisionTree" boostWeight="1.0000000000000000e+00" itree="1311">
      <Node pos="s" depth="0" NCoef="0" IVar="33" Cut="1.2153134346008301e+00" cType="1" res="8.3777378313243389e-04" rms="2.2826886177062988e-01" purity="5.0047081708908081e-01" nType="0">
        <Node pos="l" depth="1" NCoef="0" IVar="54" Cut="1.4847470521926880e+00" cType="1" res="3.0405798461288214e-03" rms="2.3111584782600403e-01" purity="5.1377278566360474e-01" nType="0">
          <Node pos="l" depth="2" NCoef="0" IVar="-1" Cut="0.0000000000000000e+00" cType="1" res="6.9482682738453150e-04" rms="2.3244692385196686e-01" purity="5.4549181461334229e-01" nType="-99"/>
          <Node pos="r" depth="2" NCoef="0" IVar="-1" Cut="0.0000000000000000e+00" cType="1" res="-5.7638273574411869e-03" rms="2.0808033645153046e-01" purity="6.3514925539493561e-02" nType="-99"/>
        </Node>
        <Node pos="r" depth="1" NCoef="0" IVar="43" Cut="9.8044884204864502e-01" cType="1" res="-4.1151583194732666e-02" rms="1.5912523865699768e-01" purity="2.4691234529018402e-01" nType="0">
          <Node pos="l" depth="2" NCoef="0" IVar="-1" Cut="0.0000000000000000e+00" cType="1" res="-2.9176673851907253e-03" rms="2.0984831452369690e-01" purity="3.0869045853614807e-01" nType="-99"/>
          <Node pos="r" depth="2" NCoef="0" IVar="-1" Cut="0.0000000000000000e+00" cType="1" res="-1.2180617079138756e-02" rms="0.0000000000000000e+00" purity="1.6243974864482880e-01" nType="-99"/>
        </Node>
      </Node>
    </BinaryTree>
    <BinaryTree type="DecisionTree" boostWeight="1.0000000000000000e+00" itree="1312">
      <Node pos="s" depth="0" NCoef="0" IVar="56" Cut="1.5240936279296875e+00" cType="1" res="2.1466440521180630e-03" rms="2.2681458294391632e-01" purity="5.0294470787048340e-01" nType="0">
        <Node pos="l" depth="1" NCoef="0" IVar="57" Cut="-2.3628637790679932e+00" cType="1" res="4.4089844450354576e-03" rms="2.3034611344337463e-01" purity="5.2288889884948730e-01" nType="0">
          <Node pos="l" depth="2" NCoef="0" IVar="-1" Cut="0.0000000000000000e+00" cType="1" res="2.6247175410389900e-03" rms="2.4528999626636505e-01" purity="6.1241841316223145e-01" nType="-99"/>
          <Node pos="r" depth="2" NCoef="0" IVar="-1" Cut="0.0000000000000000e+00" cType="1" res="-3.5403389483690262e-04" rms="2.2321830689907074e-01" purity="4.8431289196014404e-01" nType="-99"/>
        </Node>
        <Node pos="r" depth="1" NCoef="0" IVar="-1" Cut="0.0000000000000000e+00" cType="1" res="-1.1033506132662296e-02" rms="8.9529663324356079e-02" purity="7.0987548679113388e-03" nType="-99"/>
      </Node>
    </BinaryTree>
    <BinaryTree type="DecisionTree" boostWeight="1.0000000000000000e+00" itree="1313">
      <Node pos="s" depth="0" NCoef="0" IVar="57" Cut="-1.0629991292953491e+00" cType="1" res="6.6376611357554793e-04" rms="2.2600823640823364e-01" purity="4.9904650449752808e-01" nType="0">
        <Node pos="l" depth="1" NCoef="0" IVar="40" Cut="-2.0916938781738281e-01" cType="1" res="4.6795005910098553e-03" rms="2.3091690242290497e-01" purity="5.3191113471984863e-01" nType="0">
          <Node pos="l" depth="2" NCoef="0" IVar="-1" Cut="0.0000000000000000e+00" cType="1" res="2.0239730365574360e-03" rms="2.5073200464248657e-01" purity="5.5781883001327515e-01" nType="-99"/>
          <Node pos="r" depth="2" NCoef="0" IVar="-1" Cut="0.0000000000000000e+00" cType="1" res="-4.8272087587974966e-04" rms="2.1549774706363678e-01" purity="5.1367992162704468e-01" nType="-99"/>
        </Node>
        <Node pos="r" depth="1" NCoef="0" IVar="1" Cut="2.4605112075805664e+00" cType="1" res="-2.9115999117493629e-02" rms="1.8286739289760590e-01" purity="2.5532972812652588e-01" nType="0">
          <Node pos="l" depth="2" NCoef="0" IVar="-1" Cut="0.0000000000000000e+00" cType="1" res="-2.8137860819697380e-02" rms="0.0000000000000000e+00" purity="-3.1466543674468994e-02" nType="-99"/>
          <Node pos="r" depth="2" NCoef="0" IVar="-1" Cut="0.0000000000000000e+00" cType="1" res="-7.6077668927609921e-04" rms="2.8827574849128723e-01" purity="4.3132153153419495e-01" nType="-99"/>
        </Node>
      </Node>
    </BinaryTree>
    <BinaryTree type="DecisionTree" boostWeight="1.0000000000000000e+00" itree="1314">
      <Node pos="s" depth="0" NCoef="0" IVar="52" Cut="-1.5312020778656006e+00" cType="1" res="-1.0068337433040142e-03" rms="2.2439882159233093e-01" purity="5.0071656703948975e-01" nType="0">
        <Node pos="l" depth="1" NCoef="0" IVar="52" Cut="-1.5450209379196167e+00" cType="1" res="1.2075370177626610e-02" rms="2.1479460597038269e-01" purity="6.8957191705703735e-01" nType="0">
          <Node pos="l" depth="2" NCoef="0" IVar="-1" Cut="0.0000000000000000e+00" cType="1" res="3.7129016127437353e-03" rms="1.9505088031291962e-01" purity="7.4687677621841431e-01" nType="-99"/>
          <Node pos="r" depth="2" NCoef="0" IVar="-1" Cut="0.0000000000000000e+00" cType="1" res="-3.7894010893069208e-04" rms="2.3301315307617188e-01" purity="6.2872380018234253e-01" nType="-99"/>
        </Node>
        <Node pos="r" depth="1" NCoef="0" IVar="2" Cut="2.0654723644256592e+00" cType="1" res="-9.5962081104516983e-03" rms="2.3008295893669128e-01" purity="3.7671995162963867e-01" nType="0">
          <Node pos="l" depth="2" NCoef="0" IVar="-1" Cut="0.0000000000000000e+00" cType="1" res="-3.4593029413372278e-03" rms="1.5281549096107483e-01" purity="1.5373402833938599e-01" nType="-99"/>
          <Node pos="r" depth="2" NCoef="0" IVar="-1" Cut="0.0000000000000000e+00" cType="1" res="6.4063766330946237e-05" rms="2.7685996890068054e-01" purity="5.5719453096389771e-01" nType="-99"/>
        </Node>
      </Node>
    </BinaryTree>
    <BinaryTree type="DecisionTree" boostWeight="1.0000000000000000e+00" itree="1315">
      <Node pos="s" depth="0" NCoef="0" IVar="25" Cut="2.0171031951904297e+00" cType="1" res="-6.9155549863353372e-04" rms="2.2239454090595245e-01" purity="5.0166666507720947e-01" nType="0">
        <Node pos="l" depth="1" NCoef="0" IVar="20" Cut="-1.6424465179443359e-01" cType="1" res="-1.2619330547749996e-02" rms="1.9902302324771881e-01" purity="2.6181861758232117e-01" nType="0">
          <Node pos="l" depth="2" NCoef="0" IVar="-1" Cut="0.0000000000000000e+00" cType="1" res="7.6210260158404708e-04" rms="2.4059578776359558e-01" purity="2.9496595263481140e-01" nType="-99"/>
          <Node pos="r" depth="2" NCoef="0" IVar="-1" Cut="0.0000000000000000e+00" cType="1" res="-4.2567485943436623e-03" rms="1.5179151296615601e-01" purity="2.3276825249195099e-01" nType="-99"/>
        </Node>
        <Node pos="r" depth="1" NCoef="0" IVar="11" Cut="1.2345679104328156e-02" cType="1" res="8.4202783182263374e-03" rms="2.3830983042716980e-01" purity="6.8489074707031250e-01" nType="0">
          <Node pos="l" depth="2" NCoef="0" IVar="-1" Cut="0.0000000000000000e+00" cType="1" res="3.3610239624977112e-03" rms="1.9465465843677521e-01" purity="6.4304190874099731e-01" nType="-99"/>
          <Node pos="r" depth="2" NCoef="0" IVar="-1" Cut="0.0000000000000000e+00" cType="1" res="-4.3708592420443892e-04" rms="2.6784339547157288e-01" purity="7.1875095367431641e-01" nType="-99"/>
        </Node>
      </Node>
    </BinaryTree>
    <BinaryTree type="DecisionTree" boostWeight="1.0000000000000000e+00" itree="1316">
      <Node pos="s" depth="0" NCoef="0" IVar="17" Cut="-6.3467013835906982e-01" cType="1" res="5.0212063797516748e-05" rms="2.2588965296745300e-01" purity="4.9939560890197754e-01" nType="0">
        <Node pos="l" depth="1" NCoef="0" IVar="54" Cut="1.4866290092468262e+00" cType="1" res="1.9287498435005546e-03" rms="2.2788999974727631e-01" purity="5.0964361429214478e-01" nType="0">
          <Node pos="l" depth="2" NCoef="0" IVar="-1" Cut="0.0000000000000000e+00" cType="1" res="5.9886148665100336e-04" rms="2.3023365437984467e-01" purity="5.4168665409088135e-01" nType="-99"/>
          <Node pos="r" depth="2" NCoef="0" IVar="-1" Cut="0.0000000000000000e+00" cType="1" res="-6.4865550957620144e-03" rms="1.8756648898124695e-01" purity="5.8897718787193298e-02" nType="-99"/>
        </Node>
        <Node pos="r" depth="1" NCoef="0" IVar="-1" Cut="0.0000000000000000e+00" cType="1" res="-8.4978593513369560e-03" rms="1.4206442236900330e-01" purity="1.8894033133983612e-01" nType="-99"/>
      </Node>
    </BinaryTree>
    <BinaryTree type="DecisionTree" boostWeight="1.0000000000000000e+00" itree="1317">
      <Node pos="s" depth="0" NCoef="0" IVar="1" Cut="1.7390530109405518e+00" cType="1" res="1.1190518271178007e-03" rms="2.2929745912551880e-01" purity="5.0004392862319946e-01" nType="0">
        <Node pos="l" depth="1" NCoef="0" IVar="-1" Cut="0.0000000000000000e+00" cType="1" res="-1.5903404355049133e-01" rms="0.0000000000000000e+00" purity="-4.9825225025415421e-02" nType="-99"/>
        <Node pos="r" depth="1" NCoef="0" IVar="0" Cut="1.0582621097564697e+00" cType="1" res="3.1209455337375402e-03" rms="2.3765440285205841e-01" purity="5.2054858207702637e-01" nType="0">
          <Node pos="l" depth="2" NCoef="0" IVar="-1" Cut="0.0000000000000000e+00" cType="1" res="7.3030526982620358e-04" rms="2.3727805912494659e-01" purity="5.3457516431808472e-01" nType="-99"/>
          <Node pos="r" depth="2" NCoef="0" IVar="-1" Cut="0.0000000000000000e+00" cType="1" res="-4.2053824290633202e-03" rms="2.3960538208484650e-01" purity="3.4071367979049683e-01" nType="-99"/>
        </Node>
      </Node>
    </BinaryTree>
    <BinaryTree type="DecisionTree" boostWeight="1.0000000000000000e+00" itree="1318">
      <Node pos="s" depth="0" NCoef="0" IVar="1" Cut="3.9978966712951660e+00" cType="1" res="1.6646817093715072e-03" rms="2.2747114300727844e-01" purity="5.0104635953903198e-01" nType="0">
        <Node pos="l" depth="1" NCoef="0" IVar="26" Cut="-1.5511420965194702e+00" cType="1" res="-1.7564648296684027e-03" rms="2.3094274103641510e-01" purity="4.5630282163619995e-01" nType="0">
          <Node pos="l" depth="2" NCoef="0" IVar="-1" Cut="0.0000000000000000e+00" cType="1" res="1.1116806126665324e-04" rms="2.2936986386775970e-01" purity="4.6989369392395020e-01" nType="-99"/>
          <Node pos="r" depth="2" NCoef="0" IVar="-1" Cut="0.0000000000000000e+00" cType="1" res="-4.9165748059749603e-03" rms="2.4798525869846344e-01" purity="2.7928188443183899e-01" nType="-99"/>
        </Node>
        <Node pos="r" depth="1" NCoef="0" IVar="3" Cut="5.0327882766723633e+00" cType="1" res="3.0958963558077812e-02" rms="1.9276368618011475e-01" purity="8.8417190313339233e-01" nType="0">
          <Node pos="l" depth="2" NCoef="0" IVar="-1" Cut="0.0000000000000000e+00" cType="1" res="7.7573754824697971e-03" rms="1.2559485435485840e-01" purity="8.9637732505798340e-01" nType="-99"/>
          <Node pos="r" depth="2" NCoef="0" IVar="-1" Cut="0.0000000000000000e+00" cType="1" res="-3.0654948204755783e-04" rms="3.0279269814491272e-01" purity="8.5215955972671509e-01" nType="-99"/>
        </Node>
      </Node>
    </BinaryTree>
    <BinaryTree type="DecisionTree" boostWeight="1.0000000000000000e+00" itree="1319">
      <Node pos="s" depth="0" NCoef="0" IVar="2" Cut="7.8292763233184814e-01" cType="1" res="-9.1274478472769260e-04" rms="2.2488059103488922e-01" purity="4.9943611025810242e-01" nType="0">
        <Node pos="l" depth="1" NCoef="0" IVar="-1" Cut="0.0000000000000000e+00" cType="1" res="-8.6111593991518021e-03" rms="0.0000000000000000e+00" purity="-6.9696027785539627e-03" nType="-99"/>
        <Node pos="r" depth="1" NCoef="0" IVar="5" Cut="8.4842032194137573e-01" cType="1" res="1.0241832351312041e-03" rms="2.3027275502681732e-01" purity="5.1725202798843384e-01" nType="0">
          <Node pos="l" depth="2" NCoef="0" IVar="-1" Cut="0.0000000000000000e+00" cType="1" res="-1.0205960832536221e-02" rms="0.0000000000000000e+00" purity="7.6238565146923065e-02" nType="-99"/>
          <Node pos="r" depth="2" NCoef="0" IVar="-1" Cut="0.0000000000000000e+00" cType="1" res="4.4422346400097013e-04" rms="2.3765175044536591e-01" purity="5.4273945093154907e-01" nType="-99"/>
        </Node>
      </Node>
    </BinaryTree>
    <BinaryTree type="DecisionTree" boostWeight="1.0000000000000000e+00" itree="1320">
      <Node pos="s" depth="0" NCoef="0" IVar="56" Cut="1.4467463493347168e+00" cType="1" res="1.3821481261402369e-03" rms="2.2659364342689514e-01" purity="5.0372630357742310e-01" nType="0">
        <Node pos="l" depth="1" NCoef="0" IVar="54" Cut="1.4846892356872559e+00" cType="1" res="4.7346469946205616e-03" rms="2.2990432381629944e-01" purity="5.4520678520202637e-01" nType="0">
          <Node pos="l" depth="2" NCoef="0" IVar="-1" Cut="0.0000000000000000e+00" cType="1" res="8.6283579003065825e-04" rms="2.2811686992645264e-01" purity="5.5521816015243530e-01" nType="-99"/>
          <Node pos="r" depth="2" NCoef="0" IVar="-1" Cut="0.0000000000000000e+00" cType="1" res="-9.2329150065779686e-03" rms="2.8267627954483032e-01" purity="1.1945010721683502e-01" nType="-99"/>
        </Node>
        <Node pos="r" depth="1" NCoef="0" IVar="54" Cut="1.4110577106475830e+00" cType="1" res="-3.4960795193910599e-02" rms="1.8308064341545105e-01" purity="5.4055225104093552e-02" nType="0">
          <Node pos="l" depth="2" NCoef="0" IVar="-1" Cut="0.0000000000000000e+00" cType="1" res="-1.1662694625556469e-02" rms="1.9216406345367432e-01" purity="8.2033544778823853e-02" nType="-99"/>
          <Node pos="r" depth="2" NCoef="0" IVar="-1" Cut="0.0000000000000000e+00" cType="1" res="-1.6712491633370519e-03" rms="1.7101810872554779e-01" purity="4.4888757169246674e-02" nType="-99"/>
        </Node>
      </Node>
    </BinaryTree>
    <BinaryTree type="DecisionTree" boostWeight="1.0000000000000000e+00" itree="1321">
      <Node pos="s" depth="0" NCoef="0" IVar="53" Cut="1.4075684547424316e+00" cType="1" res="-3.7258319207467139e-04" rms="2.2340060770511627e-01" purity="4.9915283918380737e-01" nType="0">
        <Node pos="l" depth="1" NCoef="0" IVar="1" Cut="3.8244657516479492e+00" cType="1" res="1.2702691601589322e-03" rms="2.2580879926681519e-01" purity="5.0840467214584351e-01" nType="0">
          <Node pos="l" depth="2" NCoef="0" IVar="-1" Cut="0.0000000000000000e+00" cType="1" res="-3.6412160261534154e-04" rms="2.3015733063220978e-01" purity="4.4401344656944275e-01" nType="-99"/>
          <Node pos="r" depth="2" NCoef="0" IVar="-1" Cut="0.0000000000000000e+00" cType="1" res="3.7820355501025915e-03" rms="1.9788129627704620e-01" purity="8.7124466896057129e-01" nType="-99"/>
        </Node>
        <Node pos="r" depth="1" NCoef="0" IVar="-1" Cut="0.0000000000000000e+00" cType="1" res="-1.3151305727660656e-02" rms="1.8747128546237946e-02" purity="1.1589363962411880e-01" nType="-99"/>
      </Node>
    </BinaryTree>
    <BinaryTree type="DecisionTree" boostWeight="1.0000000000000000e+00" itree="1322">
      <Node pos="s" depth="0" NCoef="0" IVar="45" Cut="7.2952395677566528e-01" cType="1" res="-1.0144828120246530e-03" rms="2.2475975751876831e-01" purity="4.9967047572135925e-01" nType="0">
        <Node pos="l" depth="1" NCoef="0" IVar="-1" Cut="0.0000000000000000e+00" cType="1" res="-1.8634319305419922e-02" rms="0.0000000000000000e+00" purity="1.6944584203884006e-03" nType="-99"/>
        <Node pos="r" depth="1" NCoef="0" IVar="18" Cut="1.3194606304168701e+00" cType="1" res="1.4917525695636868e-03" rms="2.3166407644748688e-01" purity="5.1965314149856567e-01" nType="0">
          <Node pos="l" depth="2" NCoef="0" IVar="-1" Cut="0.0000000000000000e+00" cType="1" res="5.2328046876937151e-04" rms="2.3258511722087860e-01" purity="5.3128534555435181e-01" nType="-99"/>
          <Node pos="r" depth="2" NCoef="0" IVar="-1" Cut="0.0000000000000000e+00" cType="1" res="-6.1077689751982689e-03" rms="2.0852519571781158e-01" purity="3.0818513035774231e-01" nType="-99"/>
        </Node>
      </Node>
    </BinaryTree>
    <BinaryTree type="DecisionTree" boostWeight="1.0000000000000000e+00" itree="1323">
      <Node pos="s" depth="0" NCoef="0" IVar="2" Cut="5.1484239101409912e-01" cType="1" res="-3.2571426709182560e-04" rms="2.2616791725158691e-01" purity="4.9800029397010803e-01" nType="0">
        <Node pos="l" depth="1" NCoef="0" IVar="-1" Cut="0.0000000000000000e+00" cType="1" res="-2.1657953038811684e-02" rms="0.0000000000000000e+00" purity="-7.2403810918331146e-02" nType="-99"/>
        <Node pos="r" depth="1" NCoef="0" IVar="57" Cut="-8.5139232873916626e-01" cType="1" res="1.6320671420544386e-03" rms="2.3203487694263458e-01" purity="5.1055192947387695e-01" nType="0">
          <Node pos="l" depth="2" NCoef="0" IVar="-1" Cut="0.0000000000000000e+00" cType="1" res="5.9932714793831110e-04" rms="2.3584154248237610e-01" purity="5.3321439027786255e-01" nType="-99"/>
          <Node pos="r" depth="2" NCoef="0" IVar="-1" Cut="0.0000000000000000e+00" cType="1" res="-5.4992120712995529e-03" rms="1.7291733622550964e-01" purity="2.2635462880134583e-01" nType="-99"/>
        </Node>
      </Node>
    </BinaryTree>
    <BinaryTree type="DecisionTree" boostWeight="1.0000000000000000e+00" itree="1324">
      <Node pos="s" depth="0" NCoef="0" IVar="34" Cut="1.4867393970489502e+00" cType="1" res="-5.8213603915646672e-04" rms="2.2897423803806305e-01" purity="4.9765354394912720e-01" nType="0">
        <Node pos="l" depth="1" NCoef="0" IVar="36" Cut="1.4845938682556152e+00" cType="1" res="2.4577521253377199e-03" rms="2.3240755498409271e-01" purity="5.2953720092773438e-01" nType="0">
          <Node pos="l" depth="2" NCoef="0" IVar="-1" Cut="0.0000000000000000e+00" cType="1" res="5.6273228256031871e-04" rms="2.3161730170249939e-01" purity="5.4293173551559448e-01" nType="-99"/>
          <Node pos="r" depth="2" NCoef="0" IVar="-1" Cut="0.0000000000000000e+00" cType="1" res="-6.7317616194486618e-03" rms="2.4897657334804535e-01" purity="8.0018214881420135e-02" nType="-99"/>
        </Node>
        <Node pos="r" depth="1" NCoef="0" IVar="3" Cut="4.7370152473449707e+00" cType="1" res="-4.3752681463956833e-02" rms="1.6714757680892944e-01" purity="4.4861733913421631e-02" nType="0">
          <Node pos="l" depth="2" NCoef="0" IVar="-1" Cut="0.0000000000000000e+00" cType="1" res="-1.4199356082826853e-03" rms="1.9475063681602478e-01" purity="5.9353888034820557e-02" nType="-99"/>
          <Node pos="r" depth="2" NCoef="0" IVar="-1" Cut="0.0000000000000000e+00" cType="1" res="-1.3978397473692894e-02" rms="1.2226991355419159e-01" purity="3.0111281201243401e-02" nType="-99"/>
        </Node>
      </Node>
    </BinaryTree>
    <BinaryTree type="DecisionTree" boostWeight="1.0000000000000000e+00" itree="1325">
      <Node pos="s" depth="0" NCoef="0" IVar="45" Cut="8.3636385202407837e-01" cType="1" res="1.5346566215157509e-03" rms="2.2943599522113800e-01" purity="4.9985250830650330e-01" nType="0">
        <Node pos="l" depth="1" NCoef="0" IVar="53" Cut="-9.9082982540130615e-01" cType="1" res="-8.8266134262084961e-03" rms="0.0000000000000000e+00" purity="4.2032439261674881e-02" nType="-99"/>
        <Node pos="r" depth="1" NCoef="0" IVar="20" Cut="-8.8503383100032806e-02" cType="1" res="4.2698839679360390e-03" rms="2.3871661722660065e-01" purity="5.3347247838973999e-01" nType="0">
          <Node pos="l" depth="2" NCoef="0" IVar="-1" Cut="0.0000000000000000e+00" cType="1" res="1.5425953315570951e-03" rms="2.5477850437164307e-01" purity="5.5265110731124878e-01" nType="-99"/>
          <Node pos="r" depth="2" NCoef="0" IVar="-1" Cut="0.0000000000000000e+00" cType="1" res="-8.8911392958834767e-04" rms="2.1432043612003326e-01" purity="5.0725787878036499e-01" nType="-99"/>
        </Node>
      </Node>
    </BinaryTree>
    <BinaryTree type="DecisionTree" boostWeight="1.0000000000000000e+00" itree="1326">
      <Node pos="s" depth="0" NCoef="0" IVar="17" Cut="-7.5525766611099243e-01" cType="1" res="-3.0073925154283643e-04" rms="2.2556117177009583e-01" purity="5.0228422880172729e-01" nType="0">
        <Node pos="l" depth="1" NCoef="0" IVar="56" Cut="1.4463647603988647e+00" cType="1" res="2.3862964008003473e-03" rms="2.2772452235221863e-01" purity="5.1782917976379395e-01" nType="0">
          <Node pos="l" depth="2" NCoef="0" IVar="-1" Cut="0.0000000000000000e+00" cType="1" res="6.8051484413444996e-04" rms="2.3006816208362579e-01" purity="5.5890613794326782e-01" nType="-99"/>
          <Node pos="r" depth="2" NCoef="0" IVar="-1" Cut="0.0000000000000000e+00" cType="1" res="-4.7947438433766365e-03" rms="1.9732731580734253e-01" purity="6.7024402320384979e-02" nType="-99"/>
        </Node>
        <Node pos="r" depth="1" NCoef="0" IVar="5" Cut="1.5969696044921875e+00" cType="1" res="-5.0094071775674820e-02" rms="1.7347332835197449e-01" purity="2.1422199904918671e-01" nType="0">
          <Node pos="l" depth="2" NCoef="0" IVar="-1" Cut="0.0000000000000000e+00" cType="1" res="-2.0919112488627434e-02" rms="0.0000000000000000e+00" purity="2.5506064295768738e-02" nType="-99"/>
          <Node pos="r" depth="2" NCoef="0" IVar="-1" Cut="0.0000000000000000e+00" cType="1" res="-3.3101472072303295e-03" rms="2.7001792192459106e-01" purity="3.5564073920249939e-01" nType="-99"/>
        </Node>
      </Node>
    </BinaryTree>
    <BinaryTree type="DecisionTree" boostWeight="1.0000000000000000e+00" itree="1327">
      <Node pos="s" depth="0" NCoef="0" IVar="29" Cut="2.7683811187744141e+00" cType="1" res="2.1204439690336585e-04" rms="2.2805467247962952e-01" purity="4.9983105063438416e-01" nType="0">
        <Node pos="l" depth="1" NCoef="0" IVar="0" Cut="5.6760179996490479e-01" cType="1" res="-2.0862502977252007e-02" rms="2.0680858194828033e-01" purity="3.4609723091125488e-01" nType="0">
          <Node pos="l" depth="2" NCoef="0" IVar="-1" Cut="0.0000000000000000e+00" cType="1" res="9.5637224148958921e-04" rms="2.5287690758705139e-01" purity="4.8715049028396606e-01" nType="-99"/>
          <Node pos="r" depth="2" NCoef="0" IVar="-1" Cut="0.0000000000000000e+00" cType="1" res="-9.0634059160947800e-03" rms="1.3027347624301910e-01" purity="1.8746870756149292e-01" nType="-99"/>
        </Node>
        <Node pos="r" depth="1" NCoef="0" IVar="44" Cut="1.2345679104328156e-02" cType="1" res="6.2432964332401752e-03" rms="2.3343001306056976e-01" purity="5.4382753372192383e-01" nType="0">
          <Node pos="l" depth="2" NCoef="0" IVar="-1" Cut="0.0000000000000000e+00" cType="1" res="1.1395001783967018e-03" rms="2.3107303678989410e-01" purity="5.5725735425949097e-01" nType="-99"/>
          <Node pos="r" depth="2" NCoef="0" IVar="-1" Cut="0.0000000000000000e+00" cType="1" res="-7.0742000825703144e-03" rms="2.7146428823471069e-01" purity="2.6706558465957642e-01" nType="-99"/>
        </Node>
      </Node>
    </BinaryTree>
    <BinaryTree type="DecisionTree" boostWeight="1.0000000000000000e+00" itree="1328">
      <Node pos="s" depth="0" NCoef="0" IVar="49" Cut="2.5737998485565186e+00" cType="1" res="3.2722084142733365e-05" rms="2.2728624939918518e-01" purity="4.9967461824417114e-01" nType="0">
        <Node pos="l" depth="1" NCoef="0" IVar="45" Cut="1.1733051538467407e+00" cType="1" res="-2.7728373184800148e-02" rms="1.8712517619132996e-01" purity="2.7506065368652344e-01" nType="0">
          <Node pos="l" depth="2" NCoef="0" IVar="-1" Cut="0.0000000000000000e+00" cType="1" res="-1.2754228897392750e-02" rms="0.0000000000000000e+00" purity="2.7224937453866005e-02" nType="-99"/>
          <Node pos="r" depth="2" NCoef="0" IVar="-1" Cut="0.0000000000000000e+00" cType="1" res="1.1826698755612597e-04" rms="2.7866446971893311e-01" purity="5.4238665103912354e-01" nType="-99"/>
        </Node>
        <Node pos="r" depth="1" NCoef="0" IVar="4" Cut="3.7435235977172852e+00" cType="1" res="4.2425207793712616e-03" rms="2.3248288035392761e-01" purity="5.3373593091964722e-01" nType="0">
          <Node pos="l" depth="2" NCoef="0" IVar="-1" Cut="0.0000000000000000e+00" cType="1" res="2.2203437983989716e-03" rms="2.1818205714225769e-01" purity="5.2093178033828735e-01" nType="-99"/>
          <Node pos="r" depth="2" NCoef="0" IVar="-1" Cut="0.0000000000000000e+00" cType="1" res="-8.6147838737815619e-04" rms="2.4564567208290100e-01" purity="5.4677319526672363e-01" nType="-99"/>
        </Node>
      </Node>
    </BinaryTree>
    <BinaryTree type="DecisionTree" boostWeight="1.0000000000000000e+00" itree="1329">
      <Node pos="s" depth="0" NCoef="0" IVar="36" Cut="-1.4924387931823730e+00" cType="1" res="-3.1764653977006674e-03" rms="2.2687153518199921e-01" purity="4.9756166338920593e-01" nType="0">
        <Node pos="l" depth="1" NCoef="0" IVar="12" Cut="1.4011330604553223e+00" cType="1" res="5.0362646579742432e-03" rms="2.2024272382259369e-01" purity="6.3025021553039551e-01" nType="0">
          <Node pos="l" depth="2" NCoef="0" IVar="-1" Cut="0.0000000000000000e+00" cType="1" res="-1.0932756122201681e-03" rms="2.3958735167980194e-01" purity="4.3150547146797180e-01" nType="-99"/>
          <Node pos="r" depth="2" NCoef="0" IVar="-1" Cut="0.0000000000000000e+00" cType="1" res="2.4235900491476059e-03" rms="1.9701191782951355e-01" purity="8.3866459131240845e-01" nType="-99"/>
        </Node>
        <Node pos="r" depth="1" NCoef="0" IVar="40" Cut="3.2895024865865707e-02" cType="1" res="-1.5348851680755615e-02" rms="2.3582910001277924e-01" purity="3.0089911818504333e-01" nType="0">
          <Node pos="l" depth="2" NCoef="0" IVar="-1" Cut="0.0000000000000000e+00" cType="1" res="-7.8909925650805235e-04" rms="2.5942465662956238e-01" purity="3.2447180151939392e-01" nType="-99"/>
          <Node pos="r" depth="2" NCoef="0" IVar="-1" Cut="0.0000000000000000e+00" cType="1" res="-5.3578321821987629e-03" rms="1.5853781998157501e-01" purity="2.4086031317710876e-01" nType="-99"/>
        </Node>
      </Node>
    </BinaryTree>
    <BinaryTree type="DecisionTree" boostWeight="1.0000000000000000e+00" itree="1330">
      <Node pos="s" depth="0" NCoef="0" IVar="1" Cut="1.7478921413421631e+00" cType="1" res="-6.1847618781030178e-04" rms="2.2944504022598267e-01" purity="4.9968063831329346e-01" nType="0">
        <Node pos="l" depth="1" NCoef="0" IVar="-1" Cut="0.0000000000000000e+00" cType="1" res="-2.0276777446269989e-01" rms="0.0000000000000000e+00" purity="-4.7751914709806442e-02" nType="-99"/>
        <Node pos="r" depth="1" NCoef="0" IVar="23" Cut="1.1279881000518799e+00" cType="1" res="1.3421548064798117e-03" rms="2.3815213143825531e-01" purity="5.2153372764587402e-01" nType="0">
          <Node pos="l" depth="2" NCoef="0" IVar="-1" Cut="0.0000000000000000e+00" cType="1" res="4.5162011520005763e-04" rms="2.3963108658790588e-01" purity="5.3410452604293823e-01" nType="-99"/>
          <Node pos="r" depth="2" NCoef="0" IVar="-1" Cut="0.0000000000000000e+00" cType="1" res="-4.4932612217962742e-03" rms="2.1170076727867126e-01" purity="3.3243638277053833e-01" nType="-99"/>
        </Node>
      </Node>
    </BinaryTree>
    <BinaryTree type="DecisionTree" boostWeight="1.0000000000000000e+00" itree="1331">
      <Node pos="s" depth="0" NCoef="0" IVar="37" Cut="-8.4240269660949707e-01" cType="1" res="6.0692668193951249e-04" rms="2.2806780040264130e-01" purity="5.0017553567886353e-01" nType="0">
        <Node pos="l" depth="1" NCoef="0" IVar="9" Cut="3.2080409526824951e+00" cType="1" res="3.2871193252503872e-03" rms="2.3165495693683624e-01" purity="5.2240014076232910e-01" nType="0">
          <Node pos="l" depth="2" NCoef="0" IVar="-1" Cut="0.0000000000000000e+00" cType="1" res="1.9821454770863056e-03" rms="2.1564106643199921e-01" purity="4.8496213555335999e-01" nType="-99"/>
          <Node pos="r" depth="2" NCoef="0" IVar="-1" Cut="0.0000000000000000e+00" cType="1" res="-7.4261124245822430e-04" rms="2.4497178196907043e-01" purity="5.5658876895904541e-01" nType="-99"/>
        </Node>
        <Node pos="r" depth="1" NCoef="0" IVar="33" Cut="-1.4539089202880859e+00" cType="1" res="-3.2625876367092133e-02" rms="1.7428018152713776e-01" purity="2.2460357844829559e-01" nType="0">
          <Node pos="l" depth="2" NCoef="0" IVar="-1" Cut="0.0000000000000000e+00" cType="1" res="2.6172609068453312e-04" rms="2.4482062458992004e-01" purity="3.7591060996055603e-01" nType="-99"/>
          <Node pos="r" depth="2" NCoef="0" IVar="-1" Cut="0.0000000000000000e+00" cType="1" res="-8.4917014464735985e-03" rms="1.2169057130813599e-01" purity="1.4948786795139313e-01" nType="-99"/>
        </Node>
      </Node>
    </BinaryTree>
    <BinaryTree type="DecisionTree" boostWeight="1.0000000000000000e+00" itree="1332">
      <Node pos="s" depth="0" NCoef="0" IVar="54" Cut="1.0997397899627686e+00" cType="1" res="-1.4471198664978147e-03" rms="2.2538386285305023e-01" purity="4.9648916721343994e-01" nType="0">
        <Node pos="l" depth="1" NCoef="0" IVar="44" Cut="1.2345679104328156e-02" cType="1" res="3.6523032467812300e-03" rms="2.2753702104091644e-01" purity="5.6084793806076050e-01" nType="0">
          <Node pos="l" depth="2" NCoef="0" IVar="-1" Cut="0.0000000000000000e+00" cType="1" res="8.1342516932636499e-04" rms="2.2515115141868591e-01" purity="5.7088279724121094e-01" nType="-99"/>
          <Node pos="r" depth="2" NCoef="0" IVar="-1" Cut="0.0000000000000000e+00" cType="1" res="-6.1658867634832859e-03" rms="2.6803162693977356e-01" purity="3.4184125065803528e-01" nType="-99"/>
        </Node>
        <Node pos="r" depth="1" NCoef="0" IVar="49" Cut="3.4292662143707275e+00" cType="1" res="-3.0285378918051720e-02" rms="2.1048553287982941e-01" purity="1.3252739608287811e-01" nType="0">
          <Node pos="l" depth="2" NCoef="0" IVar="-1" Cut="0.0000000000000000e+00" cType="1" res="-9.0681208530440927e-04" rms="2.0340658724308014e-01" purity="1.2979954481124878e-01" nType="-99"/>
          <Node pos="r" depth="2" NCoef="0" IVar="-1" Cut="0.0000000000000000e+00" cType="1" res="-9.0230070054531097e-03" rms="2.1588897705078125e-01" purity="1.3784906268119812e-01" nType="-99"/>
        </Node>
      </Node>
    </BinaryTree>
    <BinaryTree type="DecisionTree" boostWeight="1.0000000000000000e+00" itree="1333">
      <Node pos="s" depth="0" NCoef="0" IVar="53" Cut="1.4083480834960938e+00" cType="1" res="2.5768456980586052e-03" rms="2.3161806166172028e-01" purity="4.9784737825393677e-01" nType="0">
        <Node pos="l" depth="1" NCoef="0" IVar="56" Cut="1.4854199886322021e+00" cType="1" res="4.3281707912683487e-03" rms="2.3371560871601105e-01" purity="5.0735932588577271e-01" nType="0">
          <Node pos="l" depth="2" NCoef="0" IVar="-1" Cut="0.0000000000000000e+00" cType="1" res="9.0950744925066829e-04" rms="2.3676112294197083e-01" purity="5.4091107845306396e-01" nType="-99"/>
          <Node pos="r" depth="2" NCoef="0" IVar="-1" Cut="0.0000000000000000e+00" cType="1" res="-6.2290080823004246e-03" rms="1.8201619386672974e-01" purity="4.3192684650421143e-02" nType="-99"/>
        </Node>
        <Node pos="r" depth="1" NCoef="0" IVar="-1" Cut="0.0000000000000000e+00" cType="1" res="-1.3551471754908562e-02" rms="9.7165293991565704e-02" purity="1.1633481830358505e-01" nType="-99"/>
      </Node>
    </BinaryTree>
    <BinaryTree type="DecisionTree" boostWeight="1.0000000000000000e+00" itree="1334">
      <Node pos="s" depth="0" NCoef="0" IVar="36" Cut="-1.5311204195022583e+00" cType="1" res="-9.8663661628961563e-04" rms="2.2306096553802490e-01" purity="4.9816268682479858e-01" nType="0">
        <Node pos="l" depth="1" NCoef="0" IVar="54" Cut="-1.4924196004867554e+00" cType="1" res="1.1891595087945461e-02" rms="2.0725089311599731e-01" purity="6.8427723646163940e-01" nType="0">
          <Node pos="l" depth="2" NCoef="0" IVar="-1" Cut="0.0000000000000000e+00" cType="1" res="3.8124539423733950e-03" rms="1.5928262472152710e-01" purity="8.1132298707962036e-01" nType="-99"/>
          <Node pos="r" depth="2" NCoef="0" IVar="-1" Cut="0.0000000000000000e+00" cType="1" res="-6.6604034509509802e-04" rms="2.6595175266265869e-01" purity="4.7986403107643127e-01" nType="-99"/>
        </Node>
        <Node pos="r" depth="1" NCoef="0" IVar="3" Cut="5.2069830894470215e+00" cType="1" res="-9.5357503741979599e-03" rms="2.3257108032703400e-01" purity="3.7461206316947937e-01" nType="0">
          <Node pos="l" depth="2" NCoef="0" IVar="-1" Cut="0.0000000000000000e+00" cType="1" res="-2.0535828080028296e-03" rms="2.0823472738265991e-01" purity="3.6450347304344177e-01" nType="-99"/>
          <Node pos="r" depth="2" NCoef="0" IVar="-1" Cut="0.0000000000000000e+00" cType="1" res="2.0884836558252573e-03" rms="3.3668527007102966e-01" purity="4.3162721395492554e-01" nType="-99"/>
        </Node>
      </Node>
    </BinaryTree>
    <BinaryTree type="DecisionTree" boostWeight="1.0000000000000000e+00" itree="1335">
      <Node pos="s" depth="0" NCoef="0" IVar="33" Cut="1.3692338466644287e+00" cType="1" res="-5.3876521997153759e-04" rms="2.2991983592510223e-01" purity="4.9704363942146301e-01" nType="0">
        <Node pos="l" depth="1" NCoef="0" IVar="25" Cut="9.6686375141143799e-01" cType="1" res="1.2532292166724801e-03" rms="2.3279984295368195e-01" purity="5.0689518451690674e-01" nType="0">
          <Node pos="l" depth="2" NCoef="0" IVar="-1" Cut="0.0000000000000000e+00" cType="1" res="-6.9669941440224648e-03" rms="7.0209100842475891e-02" purity="6.2333971261978149e-02" nType="-99"/>
          <Node pos="r" depth="2" NCoef="0" IVar="-1" Cut="0.0000000000000000e+00" cType="1" res="5.8650848222896457e-04" rms="2.4345558881759644e-01" purity="5.5380052328109741e-01" nType="-99"/>
        </Node>
        <Node pos="r" depth="1" NCoef="0" IVar="-1" Cut="0.0000000000000000e+00" cType="1" res="-1.0441301390528679e-02" rms="5.1435496658086777e-02" purity="1.5521477162837982e-01" nType="-99"/>
      </Node>
    </BinaryTree>
    <BinaryTree type="DecisionTree" boostWeight="1.0000000000000000e+00" itree="1336">
      <Node pos="s" depth="0" NCoef="0" IVar="38" Cut="1.4507834911346436e+00" cType="1" res="-1.1534850345924497e-03" rms="2.2350966930389404e-01" purity="5.0277709960937500e-01" nType="0">
        <Node pos="l" depth="1" NCoef="0" IVar="53" Cut="1.3299787044525146e+00" cType="1" res="1.0284542804583907e-03" rms="2.2380666434764862e-01" purity="5.1355993747711182e-01" nType="0">
          <Node pos="l" depth="2" NCoef="0" IVar="-1" Cut="0.0000000000000000e+00" cType="1" res="3.6629074020311236e-04" rms="2.2741177678108215e-01" purity="5.2540189027786255e-01" nType="-99"/>
          <Node pos="r" depth="2" NCoef="0" IVar="-1" Cut="0.0000000000000000e+00" cType="1" res="-9.1482801362872124e-03" rms="3.0586175620555878e-02" purity="1.7616406083106995e-01" nType="-99"/>
        </Node>
        <Node pos="r" depth="1" NCoef="0" IVar="-1" Cut="0.0000000000000000e+00" cType="1" res="-8.0527663230895996e-03" rms="2.0928782224655151e-01" purity="2.4075600504875183e-01" nType="-99"/>
      </Node>
    </BinaryTree>
    <BinaryTree type="DecisionTree" boostWeight="1.0000000000000000e+00" itree="1337">
      <Node pos="s" depth="0" NCoef="0" IVar="41" Cut="1.2345679104328156e-02" cType="1" res="3.3459521364420652e-04" rms="2.2639967501163483e-01" purity="5.0002110004425049e-01" nType="0">
        <Node pos="l" depth="1" NCoef="0" IVar="0" Cut="5.2372014522552490e-01" cType="1" res="5.2081484347581863e-02" rms="3.2746639847755432e-01" purity="3.6442044377326965e-01" nType="0">
          <Node pos="l" depth="2" NCoef="0" IVar="-1" Cut="0.0000000000000000e+00" cType="1" res="9.0490709990262985e-03" rms="3.5197305679321289e-01" purity="5.0530940294265747e-01" nType="-99"/>
          <Node pos="r" depth="2" NCoef="0" IVar="-1" Cut="0.0000000000000000e+00" cType="1" res="1.7694652779027820e-03" rms="2.9725936055183411e-01" purity="2.3339958488941193e-01" nType="-99"/>
        </Node>
        <Node pos="r" depth="1" NCoef="0" IVar="32" Cut="-1.5268446207046509e+00" cType="1" res="-1.9244612194597721e-03" rms="2.2066052258014679e-01" purity="5.0594079494476318e-01" nType="0">
          <Node pos="l" depth="2" NCoef="0" IVar="-1" Cut="0.0000000000000000e+00" cType="1" res="1.6160461818799376e-03" rms="2.2125430405139923e-01" purity="6.7519992589950562e-01" nType="-99"/>
          <Node pos="r" depth="2" NCoef="0" IVar="-1" Cut="0.0000000000000000e+00" cType="1" res="-1.6586442943662405e-03" rms="2.1953399479389191e-01" purity="3.6749941110610962e-01" nType="-99"/>
        </Node>
      </Node>
    </BinaryTree>
    <BinaryTree type="DecisionTree" boostWeight="1.0000000000000000e+00" itree="1338">
      <Node pos="s" depth="0" NCoef="0" IVar="4" Cut="3.1967997550964355e+00" cType="1" res="-4.4878321932628751e-04" rms="2.2673466801643372e-01" purity="5.0047373771667480e-01" nType="0">
        <Node pos="l" depth="1" NCoef="0" IVar="-1" Cut="0.0000000000000000e+00" cType="1" res="-9.5825297757983208e-03" rms="7.9606257379055023e-02" purity="2.6991364359855652e-01" nType="-99"/>
        <Node pos="r" depth="1" NCoef="0" IVar="34" Cut="-1.0281317234039307e+00" cType="1" res="1.5378217212855816e-03" rms="2.3009875416755676e-01" purity="5.0890743732452393e-01" nType="0">
          <Node pos="l" depth="2" NCoef="0" IVar="-1" Cut="0.0000000000000000e+00" cType="1" res="9.7867683507502079e-04" rms="2.2311851382255554e-01" purity="6.0317134857177734e-01" nType="-99"/>
          <Node pos="r" depth="2" NCoef="0" IVar="-1" Cut="0.0000000000000000e+00" cType="1" res="-1.9189189188182354e-03" rms="2.4805554747581482e-01" purity="2.4155700206756592e-01" nType="-99"/>
        </Node>
      </Node>
    </BinaryTree>
    <BinaryTree type="DecisionTree" boostWeight="1.0000000000000000e+00" itree="1339">
      <Node pos="s" depth="0" NCoef="0" IVar="44" Cut="1.2345679104328156e-02" cType="1" res="1.6190950991585851e-03" rms="2.2653315961360931e-01" purity="5.0069648027420044e-01" nType="0">
        <Node pos="l" depth="1" NCoef="0" IVar="56" Cut="1.4854199886322021e+00" cType="1" res="3.9285374805331230e-03" rms="2.2419171035289764e-01" purity="5.1243937015533447e-01" nType="0">
          <Node pos="l" depth="2" NCoef="0" IVar="-1" Cut="0.0000000000000000e+00" cType="1" res="8.6419295985251665e-04" rms="2.2713632881641388e-01" purity="5.4480963945388794e-01" nType="-99"/>
          <Node pos="r" depth="2" NCoef="0" IVar="-1" Cut="0.0000000000000000e+00" cType="1" res="-6.6545712761580944e-03" rms="1.7055137455463409e-01" purity="4.1984003037214279e-02" nType="-99"/>
        </Node>
        <Node pos="r" depth="1" NCoef="0" IVar="35" Cut="-7.1928060054779053e-01" cType="1" res="-4.3514125049114227e-02" rms="2.6419815421104431e-01" purity="2.7120533585548401e-01" nType="0">
          <Node pos="l" depth="2" NCoef="0" IVar="-1" Cut="0.0000000000000000e+00" cType="1" res="3.8796800072304904e-04" rms="2.2659790515899658e-01" purity="4.2623561620712280e-01" nType="-99"/>
          <Node pos="r" depth="2" NCoef="0" IVar="-1" Cut="0.0000000000000000e+00" cType="1" res="-1.2439337559044361e-02" rms="2.8558734059333801e-01" purity="1.4554046094417572e-01" nType="-99"/>
        </Node>
      </Node>
    </BinaryTree>
    <BinaryTree type="DecisionTree" boostWeight="1.0000000000000000e+00" itree="1340">
      <Node pos="s" depth="0" NCoef="0" IVar="14" Cut="1.5258079767227173e+00" cType="1" res="8.7217107648029923e-04" rms="2.2677502036094666e-01" purity="5.0471580028533936e-01" nType="0">
        <Node pos="l" depth="1" NCoef="0" IVar="2" Cut="2.0361936092376709e+00" cType="1" res="-6.9860951043665409e-03" rms="2.2581322491168976e-01" purity="3.5381820797920227e-01" nType="0">
          <Node pos="l" depth="2" NCoef="0" IVar="-1" Cut="0.0000000000000000e+00" cType="1" res="-3.8080734666436911e-03" rms="1.4590570330619812e-01" purity="1.4566898345947266e-01" nType="-99"/>
          <Node pos="r" depth="2" NCoef="0" IVar="-1" Cut="0.0000000000000000e+00" cType="1" res="7.3749583680182695e-04" rms="2.7430266141891479e-01" purity="5.2638113498687744e-01" nType="-99"/>
        </Node>
        <Node pos="r" depth="1" NCoef="0" IVar="5" Cut="1.3683003187179565e+00" cType="1" res="1.5261087566614151e-02" rms="2.2782415151596069e-01" purity="7.8101742267608643e-01" nType="0">
          <Node pos="l" depth="2" NCoef="0" IVar="-1" Cut="0.0000000000000000e+00" cType="1" res="6.6288989037275314e-03" rms="2.9132840037345886e-01" purity="6.2927341461181641e-01" nType="-99"/>
          <Node pos="r" depth="2" NCoef="0" IVar="-1" Cut="0.0000000000000000e+00" cType="1" res="1.2437565019354224e-03" rms="2.2105059027671814e-01" purity="7.9350566864013672e-01" nType="-99"/>
        </Node>
      </Node>
    </BinaryTree>
    <BinaryTree type="DecisionTree" boostWeight="1.0000000000000000e+00" itree="1341">
      <Node pos="s" depth="0" NCoef="0" IVar="36" Cut="8.2813471555709839e-01" cType="1" res="9.8465045448392630e-04" rms="2.3206341266632080e-01" purity="5.0021004676818848e-01" nType="0">
        <Node pos="l" depth="1" NCoef="0" IVar="34" Cut="1.4078731536865234e+00" cType="1" res="4.9519189633429050e-03" rms="2.3421719670295715e-01" purity="5.6137859821319580e-01" nType="0">
          <Node pos="l" depth="2" NCoef="0" IVar="-1" Cut="0.0000000000000000e+00" cType="1" res="8.9583598310127854e-04" rms="2.3265895247459412e-01" purity="5.7201522588729858e-01" nType="-99"/>
          <Node pos="r" depth="2" NCoef="0" IVar="-1" Cut="0.0000000000000000e+00" cType="1" res="-7.4706710875034332e-03" rms="2.7668020129203796e-01" purity="1.6550213098526001e-01" nType="-99"/>
        </Node>
        <Node pos="r" depth="1" NCoef="0" IVar="33" Cut="-1.2808593511581421e+00" cType="1" res="-2.1875550970435143e-02" rms="2.1783785521984100e-01" purity="1.4774481952190399e-01" nType="0">
          <Node pos="l" depth="2" NCoef="0" IVar="-1" Cut="0.0000000000000000e+00" cType="1" res="1.8445649184286594e-03" rms="2.1217083930969238e-01" purity="2.2520734369754791e-01" nType="-99"/>
          <Node pos="r" depth="2" NCoef="0" IVar="-1" Cut="0.0000000000000000e+00" cType="1" res="-5.0214510411024094e-03" rms="2.1845321357250214e-01" purity="1.1809680610895157e-01" nType="-99"/>
        </Node>
      </Node>
    </BinaryTree>
    <BinaryTree type="DecisionTree" boostWeight="1.0000000000000000e+00" itree="1342">
      <Node pos="s" depth="0" NCoef="0" IVar="2" Cut="5.0748854875564575e-01" cType="1" res="-4.2801603558473289e-04" rms="2.3204739391803741e-01" purity="4.9766117334365845e-01" nType="0">
        <Node pos="l" depth="1" NCoef="0" IVar="-1" Cut="0.0000000000000000e+00" cType="1" res="-1.7962325364351273e-02" rms="0.0000000000000000e+00" purity="-5.3946513682603836e-02" nType="-99"/>
        <Node pos="r" depth="1" NCoef="0" IVar="0" Cut="6.1715704202651978e-01" cType="1" res="1.0456714080646634e-03" rms="2.3686599731445312e-01" purity="5.0982129573822021e-01" nType="0">
          <Node pos="l" depth="2" NCoef="0" IVar="-1" Cut="0.0000000000000000e+00" cType="1" res="1.1081679258495569e-03" rms="2.4541877210140228e-01" purity="5.7607400417327881e-01" nType="-99"/>
          <Node pos="r" depth="2" NCoef="0" IVar="-1" Cut="0.0000000000000000e+00" cType="1" res="-1.5831782948225737e-03" rms="2.2188930213451385e-01" purity="4.0357691049575806e-01" nType="-99"/>
        </Node>
      </Node>
    </BinaryTree>
    <BinaryTree type="DecisionTree" boostWeight="1.0000000000000000e+00" itree="1343">
      <Node pos="s" depth="0" NCoef="0" IVar="65" Cut="7.7427268028259277e-01" cType="1" res="1.1784264352172613e-03" rms="2.2710449993610382e-01" purity="5.0208014249801636e-01" nType="0">
        <Node pos="l" depth="1" NCoef="0" IVar="11" Cut="1.2345679104328156e-02" cType="1" res="3.8815969601273537e-03" rms="2.3303718864917755e-01" purity="5.2492290735244751e-01" nType="0">
          <Node pos="l" depth="2" NCoef="0" IVar="-1" Cut="0.0000000000000000e+00" cType="1" res="2.6442373637109995e-03" rms="1.9486577808856964e-01" purity="5.1975983381271362e-01" nType="-99"/>
          <Node pos="r" depth="2" NCoef="0" IVar="-1" Cut="0.0000000000000000e+00" cType="1" res="-5.8460049331188202e-04" rms="2.5524604320526123e-01" purity="5.2841293811798096e-01" nType="-99"/>
        </Node>
        <Node pos="r" depth="1" NCoef="0" IVar="20" Cut="-1.0728040337562561e-01" cType="1" res="-4.4201474636793137e-02" rms="5.9717848896980286e-02" purity="1.1860446631908417e-01" nType="0">
          <Node pos="l" depth="2" NCoef="0" IVar="-1" Cut="0.0000000000000000e+00" cType="1" res="-3.1221595127135515e-03" rms="1.6750583052635193e-01" purity="1.5381765365600586e-01" nType="-99"/>
          <Node pos="r" depth="2" NCoef="0" IVar="-1" Cut="0.0000000000000000e+00" cType="1" res="-1.2367462739348412e-02" rms="0.0000000000000000e+00" purity="7.9286634922027588e-02" nType="-99"/>
        </Node>
      </Node>
    </BinaryTree>
    <BinaryTree type="DecisionTree" boostWeight="1.0000000000000000e+00" itree="1344">
      <Node pos="s" depth="0" NCoef="0" IVar="9" Cut="2.5018460750579834e+00" cType="1" res="-1.8023348820861429e-04" rms="2.2352552413940430e-01" purity="5.0033980607986450e-01" nType="0">
        <Node pos="l" depth="1" NCoef="0" IVar="14" Cut="-9.5524907112121582e-01" cType="1" res="-5.3729537874460220e-02" rms="1.1349689215421677e-01" purity="9.4910129904747009e-02" nType="0">
          <Node pos="l" depth="2" NCoef="0" IVar="-1" Cut="0.0000000000000000e+00" cType="1" res="-2.0516030490398407e-03" rms="1.2998719513416290e-01" purity="3.3002603799104691e-02" nType="-99"/>
          <Node pos="r" depth="2" NCoef="0" IVar="-1" Cut="0.0000000000000000e+00" cType="1" res="-1.1778200976550579e-02" rms="5.6680593639612198e-02" purity="1.6173470020294189e-01" nType="-99"/>
        </Node>
        <Node pos="r" depth="1" NCoef="0" IVar="2" Cut="8.7259179353713989e-01" cType="1" res="2.5436251889914274e-03" rms="2.2736889123916626e-01" purity="5.2096259593963623e-01" nType="0">
          <Node pos="l" depth="2" NCoef="0" IVar="-1" Cut="0.0000000000000000e+00" cType="1" res="-6.5515907481312752e-03" rms="0.0000000000000000e+00" purity="2.6889011263847351e-02" nType="-99"/>
          <Node pos="r" depth="2" NCoef="0" IVar="-1" Cut="0.0000000000000000e+00" cType="1" res="6.0072395717725158e-04" rms="2.3234495520591736e-01" purity="5.4286879301071167e-01" nType="-99"/>
        </Node>
      </Node>
    </BinaryTree>
    <BinaryTree type="DecisionTree" boostWeight="1.0000000000000000e+00" itree="1345">
      <Node pos="s" depth="0" NCoef="0" IVar="25" Cut="9.9240130186080933e-01" cType="1" res="-1.0974196484312415e-03" rms="2.2453881800174713e-01" purity="4.9987295269966125e-01" nType="0">
        <Node pos="l" depth="1" NCoef="0" IVar="49" Cut="3.3724052906036377e+00" cType="1" res="-2.8384542092680931e-02" rms="6.6479831933975220e-02" purity="6.6516578197479248e-02" nType="0">
          <Node pos="l" depth="2" NCoef="0" IVar="-1" Cut="0.0000000000000000e+00" cType="1" res="-1.1412248015403748e-02" rms="0.0000000000000000e+00" purity="3.9815586060285568e-02" nType="-99"/>
          <Node pos="r" depth="2" NCoef="0" IVar="-1" Cut="0.0000000000000000e+00" cType="1" res="3.5735147539526224e-03" rms="2.1035087108612061e-01" purity="1.3518835604190826e-01" nType="-99"/>
        </Node>
        <Node pos="r" depth="1" NCoef="0" IVar="4" Cut="3.7181873321533203e+00" cType="1" res="2.1520981099456549e-03" rms="2.3621217906475067e-01" purity="5.5147969722747803e-01" nType="0">
          <Node pos="l" depth="2" NCoef="0" IVar="-1" Cut="0.0000000000000000e+00" cType="1" res="1.7358517507091165e-03" rms="2.2793763875961304e-01" purity="5.3814291954040527e-01" nType="-99"/>
          <Node pos="r" depth="2" NCoef="0" IVar="-1" Cut="0.0000000000000000e+00" cType="1" res="-8.8398426305502653e-04" rms="2.4328465759754181e-01" purity="5.6394332647323608e-01" nType="-99"/>
        </Node>
      </Node>
    </BinaryTree>
    <BinaryTree type="DecisionTree" boostWeight="1.0000000000000000e+00" itree="1346">
      <Node pos="s" depth="0" NCoef="0" IVar="49" Cut="2.4303617477416992e+00" cType="1" res="1.0955471079796553e-03" rms="2.2803731262683868e-01" purity="5.0036638975143433e-01" nType="0">
        <Node pos="l" depth="1" NCoef="0" IVar="0" Cut="3.6190813779830933e-01" cType="1" res="-3.8229871541261673e-02" rms="1.7122475802898407e-01" purity="2.2519025206565857e-01" nType="0">
          <Node pos="l" depth="2" NCoef="0" IVar="-1" Cut="0.0000000000000000e+00" cType="1" res="9.1473554493859410e-04" rms="2.7992016077041626e-01" purity="4.1704422235488892e-01" nType="-99"/>
          <Node pos="r" depth="2" NCoef="0" IVar="-1" Cut="0.0000000000000000e+00" cType="1" res="-1.0928257368505001e-02" rms="7.2622105479240417e-02" purity="1.3683505356311798e-01" nType="-99"/>
        </Node>
        <Node pos="r" depth="1" NCoef="0" IVar="37" Cut="-1.3461165428161621e+00" cType="1" res="4.3390477076172829e-03" rms="2.3180554807186127e-01" purity="5.2306246757507324e-01" nType="0">
          <Node pos="l" depth="2" NCoef="0" IVar="-1" Cut="0.0000000000000000e+00" cType="1" res="1.1305295629426837e-03" rms="2.3710386455059052e-01" purity="5.6230354309082031e-01" nType="-99"/>
          <Node pos="r" depth="2" NCoef="0" IVar="-1" Cut="0.0000000000000000e+00" cType="1" res="-1.9654077477753162e-03" rms="2.0683565735816956e-01" purity="3.5708242654800415e-01" nType="-99"/>
        </Node>
      </Node>
    </BinaryTree>
    <BinaryTree type="DecisionTree" boostWeight="1.0000000000000000e+00" itree="1347">
      <Node pos="s" depth="0" NCoef="0" IVar="2" Cut="1.6704173088073730e+00" cType="1" res="-1.0763496538856998e-04" rms="2.2379516065120697e-01" purity="5.0097316503524780e-01" nType="0">
        <Node pos="l" depth="1" NCoef="0" IVar="14" Cut="-1.3764194250106812e+00" cType="1" res="-2.2278551012277603e-02" rms="1.5913447737693787e-01" purity="1.7262439429759979e-01" nType="0">
          <Node pos="l" depth="2" NCoef="0" IVar="-1" Cut="0.0000000000000000e+00" cType="1" res="-3.5028488159179688e+01" rms="0.0000000000000000e+00" purity="-7.0166125893592834e-02" nType="-99"/>
          <Node pos="r" depth="2" NCoef="0" IVar="-1" Cut="0.0000000000000000e+00" cType="1" res="8.2719969213940203e-05" rms="2.6879858970642090e-01" purity="2.9006746411323547e-01" nType="-99"/>
        </Node>
        <Node pos="r" depth="1" NCoef="0" IVar="1" Cut="2.1746838092803955e+00" cType="1" res="6.0959318652749062e-03" rms="2.3840385675430298e-01" purity="5.9284728765487671e-01" nType="0">
          <Node pos="l" depth="2" NCoef="0" IVar="-1" Cut="0.0000000000000000e+00" cType="1" res="-1.2686633504927158e-02" rms="0.0000000000000000e+00" purity="1.7228143289685249e-02" nType="-99"/>
          <Node pos="r" depth="2" NCoef="0" IVar="-1" Cut="0.0000000000000000e+00" cType="1" res="1.2709614820778370e-03" rms="2.4979299306869507e-01" purity="6.4110088348388672e-01" nType="-99"/>
        </Node>
      </Node>
    </BinaryTree>
    <BinaryTree type="DecisionTree" boostWeight="1.0000000000000000e+00" itree="1348">
      <Node pos="s" depth="0" NCoef="0" IVar="17" Cut="-7.2509300708770752e-01" cType="1" res="1.5145894140005112e-03" rms="2.2883376479148865e-01" purity="5.0321704149246216e-01" nType="0">
        <Node pos="l" depth="1" NCoef="0" IVar="16" Cut="1.4832916259765625e+00" cType="1" res="3.8295295089483261e-03" rms="2.3102988302707672e-01" purity="5.1715815067291260e-01" nType="0">
          <Node pos="l" depth="2" NCoef="0" IVar="-1" Cut="0.0000000000000000e+00" cType="1" res="-3.9257633034139872e-04" rms="2.3756715655326843e-01" purity="4.0066888928413391e-01" nType="-99"/>
          <Node pos="r" depth="2" NCoef="0" IVar="-1" Cut="0.0000000000000000e+00" cType="1" res="2.1411168854683638e-03" rms="2.1620252728462219e-01" purity="7.5845092535018921e-01" nType="-99"/>
        </Node>
        <Node pos="r" depth="1" NCoef="0" IVar="13" Cut="-1.1063597202301025e+00" cType="1" res="-4.6936519443988800e-02" rms="1.6961143910884857e-01" purity="2.1143221855163574e-01" nType="0">
          <Node pos="l" depth="2" NCoef="0" IVar="-1" Cut="0.0000000000000000e+00" cType="1" res="-3.7964470684528351e-03" rms="2.0020753145217896e-01" purity="2.5442939996719360e-01" nType="-99"/>
          <Node pos="r" depth="2" NCoef="0" IVar="-1" Cut="0.0000000000000000e+00" cType="1" res="-9.5095960423350334e-03" rms="1.3629832863807678e-01" purity="1.7581464350223541e-01" nType="-99"/>
        </Node>
      </Node>
    </BinaryTree>
    <BinaryTree type="DecisionTree" boostWeight="1.0000000000000000e+00" itree="1349">
      <Node pos="s" depth="0" NCoef="0" IVar="43" Cut="1.1366744041442871e+00" cType="1" res="-4.4048138079233468e-05" rms="2.2556503117084503e-01" purity="5.0046658515930176e-01" nType="0">
        <Node pos="l" depth="1" NCoef="0" IVar="41" Cut="1.2345679104328156e-02" cType="1" res="2.4945402983576059e-03" rms="2.2887362539768219e-01" purity="5.1249873638153076e-01" nType="0">
          <Node pos="l" depth="2" NCoef="0" IVar="-1" Cut="0.0000000000000000e+00" cType="1" res="5.9864264912903309e-03" rms="3.3734491467475891e-01" purity="3.8660776615142822e-01" nType="-99"/>
          <Node pos="r" depth="2" NCoef="0" IVar="-1" Cut="0.0000000000000000e+00" cType="1" res="3.9670750993536785e-05" rms="2.2267481684684753e-01" purity="5.1800107955932617e-01" nType="-99"/>
        </Node>
        <Node pos="r" depth="1" NCoef="0" IVar="29" Cut="3.0832087993621826e+00" cType="1" res="-4.0712852030992508e-02" rms="1.5822465717792511e-01" purity="3.0770847201347351e-01" nType="0">
          <Node pos="l" depth="2" NCoef="0" IVar="-1" Cut="0.0000000000000000e+00" cType="1" res="-1.3127618469297886e-02" rms="0.0000000000000000e+00" purity="1.8149247765541077e-01" nType="-99"/>
          <Node pos="r" depth="2" NCoef="0" IVar="-1" Cut="0.0000000000000000e+00" cType="1" res="-2.3463475517928600e-03" rms="2.0353743433952332e-01" purity="3.8634276390075684e-01" nType="-99"/>
        </Node>
      </Node>
    </BinaryTree>
    <BinaryTree type="DecisionTree" boostWeight="1.0000000000000000e+00" itree="1350">
      <Node pos="s" depth="0" NCoef="0" IVar="5" Cut="8.5243028402328491e-01" cType="1" res="-1.6280543059110641e-03" rms="2.2442616522312164e-01" purity="4.9633845686912537e-01" nType="0">
        <Node pos="l" depth="1" NCoef="0" IVar="15" Cut="-1.1844221353530884e+00" cType="1" res="-1.0944089852273464e-02" rms="0.0000000000000000e+00" purity="7.1823522448539734e-02" nType="-99"/>
        <Node pos="r" depth="1" NCoef="0" IVar="11" Cut="1.2345679104328156e-02" cType="1" res="7.7263230923563242e-04" rms="2.3132757842540741e-01" purity="5.2123302221298218e-01" nType="0">
          <Node pos="l" depth="2" NCoef="0" IVar="-1" Cut="0.0000000000000000e+00" cType="1" res="1.8782936967909336e-03" rms="1.9469454884529114e-01" purity="5.1057404279708862e-01" nType="-99"/>
          <Node pos="r" depth="2" NCoef="0" IVar="-1" Cut="0.0000000000000000e+00" cType="1" res="-8.8582560420036316e-04" rms="2.5382775068283081e-01" purity="5.2880257368087769e-01" nType="-99"/>
        </Node>
      </Node>
    </BinaryTree>
    <BinaryTree type="DecisionTree" boostWeight="1.0000000000000000e+00" itree="1351">
      <Node pos="s" depth="0" NCoef="0" IVar="53" Cut="1.4083480834960938e+00" cType="1" res="-3.4379973658360541e-04" rms="2.2612702846527100e-01" purity="5.0054472684860229e-01" nType="0">
        <Node pos="l" depth="1" NCoef="0" IVar="45" Cut="2.8729844093322754e+00" cType="1" res="1.1851663002744317e-03" rms="2.2929893434047699e-01" purity="5.0960296392440796e-01" nType="0">
          <Node pos="l" depth="2" NCoef="0" IVar="-1" Cut="0.0000000000000000e+00" cType="1" res="-4.7128892038017511e-04" rms="2.3355619609355927e-01" purity="4.2469125986099243e-01" nType="-99"/>
          <Node pos="r" depth="2" NCoef="0" IVar="-1" Cut="0.0000000000000000e+00" cType="1" res="2.6671343948692083e-03" rms="2.1290583908557892e-01" purity="8.0576646327972412e-01" nType="-99"/>
        </Node>
        <Node pos="r" depth="1" NCoef="0" IVar="-1" Cut="0.0000000000000000e+00" cType="1" res="-1.3097833842039108e-02" rms="0.0000000000000000e+00" purity="1.1665142327547073e-01" nType="-99"/>
      </Node>
    </BinaryTree>
    <BinaryTree type="DecisionTree" boostWeight="1.0000000000000000e+00" itree="1352">
      <Node pos="s" depth="0" NCoef="0" IVar="12" Cut="1.4397164583206177e+00" cType="1" res="4.6341418055817485e-04" rms="2.2483074665069580e-01" purity="4.9824962019920349e-01" nType="0">
        <Node pos="l" depth="1" NCoef="0" IVar="40" Cut="1.1767395585775375e-01" cType="1" res="-8.9093251153826714e-03" rms="2.2319914400577545e-01" purity="3.3695796132087708e-01" nType="0">
          <Node pos="l" depth="2" NCoef="0" IVar="-1" Cut="0.0000000000000000e+00" cType="1" res="-4.7048981650732458e-04" rms="2.3738035559654236e-01" purity="3.5820552706718445e-01" nType="-99"/>
          <Node pos="r" depth="2" NCoef="0" IVar="-1" Cut="0.0000000000000000e+00" cType="1" res="-6.0384259559214115e-03" rms="1.3417848944664001e-01" purity="2.3620456457138062e-01" nType="-99"/>
        </Node>
        <Node pos="r" depth="1" NCoef="0" IVar="14" Cut="1.4497250318527222e+00" cType="1" res="1.3491775840520859e-02" rms="2.2643572092056274e-01" purity="7.2244930267333984e-01" nType="0">
          <Node pos="l" depth="2" NCoef="0" IVar="-1" Cut="0.0000000000000000e+00" cType="1" res="-5.8015668764710426e-03" rms="2.1046745777130127e-01" purity="2.4196070432662964e-01" nType="-99"/>
          <Node pos="r" depth="2" NCoef="0" IVar="-1" Cut="0.0000000000000000e+00" cType="1" res="2.0501783583313227e-03" rms="2.2687907516956329e-01" purity="7.5600969791412354e-01" nType="-99"/>
        </Node>
      </Node>
    </BinaryTree>
    <BinaryTree type="DecisionTree" boostWeight="1.0000000000000000e+00" itree="1353">
      <Node pos="s" depth="0" NCoef="0" IVar="44" Cut="1.2345679104328156e-02" cType="1" res="-5.6017341557890177e-04" rms="2.2803685069084167e-01" purity="5.0213122367858887e-01" nType="0">
        <Node pos="l" depth="1" NCoef="0" IVar="54" Cut="1.1372963190078735e+00" cType="1" res="1.6108012059703469e-03" rms="2.2647514939308167e-01" purity="5.1339286565780640e-01" nType="0">
          <Node pos="l" depth="2" NCoef="0" IVar="-1" Cut="0.0000000000000000e+00" cType="1" res="8.1147189484909177e-04" rms="2.2686621546745300e-01" purity="5.7453459501266479e-01" nType="-99"/>
          <Node pos="r" depth="2" NCoef="0" IVar="-1" Cut="0.0000000000000000e+00" cType="1" res="-3.8057251367717981e-03" rms="2.2188408672809601e-01" purity="1.3227304816246033e-01" nType="-99"/>
        </Node>
        <Node pos="r" depth="1" NCoef="0" IVar="26" Cut="-1.1263517141342163e+00" cType="1" res="-4.2599949985742569e-02" rms="2.5275927782058716e-01" purity="2.8405591845512390e-01" nType="0">
          <Node pos="l" depth="2" NCoef="0" IVar="-1" Cut="0.0000000000000000e+00" cType="1" res="-1.2918363325297832e-02" rms="2.6338851451873779e-01" purity="1.7996002733707428e-01" nType="-99"/>
          <Node pos="r" depth="2" NCoef="0" IVar="-1" Cut="0.0000000000000000e+00" cType="1" res="3.1415070407092571e-03" rms="2.1812877058982849e-01" purity="4.3594843149185181e-01" nType="-99"/>
        </Node>
      </Node>
    </BinaryTree>
    <BinaryTree type="DecisionTree" boostWeight="1.0000000000000000e+00" itree="1354">
      <Node pos="s" depth="0" NCoef="0" IVar="33" Cut="1.4074989557266235e+00" cType="1" res="2.5357623235322535e-04" rms="2.2607119381427765e-01" purity="4.9654397368431091e-01" nType="0">
        <Node pos="l" depth="1" NCoef="0" IVar="0" Cut="2.8186249732971191e-01" cType="1" res="1.7485438147559762e-03" rms="2.2814355790615082e-01" purity="5.0584143400192261e-01" nType="0">
          <Node pos="l" depth="2" NCoef="0" IVar="-1" Cut="0.0000000000000000e+00" cType="1" res="1.8232131842523813e-03" rms="2.3161880671977997e-01" purity="5.9473687410354614e-01" nType="-99"/>
          <Node pos="r" depth="2" NCoef="0" IVar="-1" Cut="0.0000000000000000e+00" cType="1" res="-6.8745581666007638e-04" rms="2.2599059343338013e-01" purity="4.5894867181777954e-01" nType="-99"/>
        </Node>
        <Node pos="r" depth="1" NCoef="0" IVar="-1" Cut="0.0000000000000000e+00" cType="1" res="-1.2363600544631481e-02" rms="9.2382080852985382e-02" purity="1.1425846070051193e-01" nType="-99"/>
      </Node>
    </BinaryTree>
    <BinaryTree type="DecisionTree" boostWeight="1.0000000000000000e+00" itree="1355">
      <Node pos="s" depth="0" NCoef="0" IVar="14" Cut="1.5257415771484375e+00" cType="1" res="1.5108269872143865e-03" rms="2.2910270094871521e-01" purity="5.0314950942993164e-01" nType="0">
        <Node pos="l" depth="1" NCoef="0" IVar="21" Cut="1.2345679104328156e-02" cType="1" res="-6.3713779672980309e-03" rms="2.3136195540428162e-01" purity="3.4819707274436951e-01" nType="0">
          <Node pos="l" depth="2" NCoef="0" IVar="-1" Cut="0.0000000000000000e+00" cType="1" res="4.9082101322710514e-03" rms="3.4458768367767334e-01" purity="3.3896571397781372e-01" nType="-99"/>
          <Node pos="r" depth="2" NCoef="0" IVar="-1" Cut="0.0000000000000000e+00" cType="1" res="-1.3507729163393378e-03" rms="2.2089952230453491e-01" purity="3.4884458780288696e-01" nType="-99"/>
        </Node>
        <Node pos="r" depth="1" NCoef="0" IVar="1" Cut="2.4762654304504395e+00" cType="1" res="1.5785725787281990e-02" rms="2.2424928843975067e-01" purity="7.8377270698547363e-01" nType="0">
          <Node pos="l" depth="2" NCoef="0" IVar="-1" Cut="0.0000000000000000e+00" cType="1" res="4.6510808169841766e-03" rms="3.1060799956321716e-01" purity="3.8399332761764526e-01" nType="-99"/>
          <Node pos="r" depth="2" NCoef="0" IVar="-1" Cut="0.0000000000000000e+00" cType="1" res="1.1926278239116073e-03" rms="2.0698116719722748e-01" purity="8.4547609090805054e-01" nType="-99"/>
        </Node>
      </Node>
    </BinaryTree>
    <BinaryTree type="DecisionTree" boostWeight="1.0000000000000000e+00" itree="1356">
      <Node pos="s" depth="0" NCoef="0" IVar="40" Cut="8.5858903825283051e-02" cType="1" res="9.6655200468376279e-04" rms="2.2768551111221313e-01" purity="5.0094634294509888e-01" nType="0">
        <Node pos="l" depth="1" NCoef="0" IVar="41" Cut="1.2345679104328156e-02" cType="1" res="6.0376734472811222e-03" rms="2.3793449997901917e-01" purity="5.1651817560195923e-01" nType="0">
          <Node pos="l" depth="2" NCoef="0" IVar="-1" Cut="0.0000000000000000e+00" cType="1" res="6.5114647150039673e-03" rms="3.4158211946487427e-01" purity="3.8380557298660278e-01" nType="-99"/>
          <Node pos="r" depth="2" NCoef="0" IVar="-1" Cut="0.0000000000000000e+00" cType="1" res="4.6617721091024578e-04" rms="2.3176075518131256e-01" purity="5.2263236045837402e-01" nType="-99"/>
        </Node>
        <Node pos="r" depth="1" NCoef="0" IVar="29" Cut="2.8129258155822754e+00" cType="1" res="-1.7940174788236618e-02" rms="1.8329031765460968e-01" purity="4.4288945198059082e-01" nType="0">
          <Node pos="l" depth="2" NCoef="0" IVar="-1" Cut="0.0000000000000000e+00" cType="1" res="-8.0682290717959404e-03" rms="9.8260529339313507e-02" purity="2.7452155947685242e-01" nType="-99"/>
          <Node pos="r" depth="2" NCoef="0" IVar="-1" Cut="0.0000000000000000e+00" cType="1" res="-1.0182888945564628e-03" rms="2.0089434087276459e-01" purity="4.9374577403068542e-01" nType="-99"/>
        </Node>
      </Node>
    </BinaryTree>
    <BinaryTree type="DecisionTree" boostWeight="1.0000000000000000e+00" itree="1357">
      <Node pos="s" depth="0" NCoef="0" IVar="2" Cut="1.0978362560272217e+00" cType="1" res="-1.6732519725337625e-03" rms="2.2698114812374115e-01" purity="4.9893733859062195e-01" nType="0">
        <Node pos="l" depth="1" NCoef="0" IVar="63" Cut="9.5910203456878662e-01" cType="1" res="-4.1810814291238785e-02" rms="6.9785907864570618e-02" purity="6.9902539253234863e-02" nType="0">
          <Node pos="l" depth="2" NCoef="0" IVar="-1" Cut="0.0000000000000000e+00" cType="1" res="-1.4309260295704007e-03" rms="1.7840565741062164e-01" purity="1.0662785917520523e-01" nType="-99"/>
          <Node pos="r" depth="2" NCoef="0" IVar="-1" Cut="0.0000000000000000e+00" cType="1" res="-9.8311267793178558e-03" rms="0.0000000000000000e+00" purity="3.2481893897056580e-02" nType="-99"/>
        </Node>
        <Node pos="r" depth="1" NCoef="0" IVar="64" Cut="1.2345679104328156e-02" cType="1" res="9.5644377870485187e-04" rms="2.3337604105472565e-01" purity="5.2704638242721558e-01" nType="0">
          <Node pos="l" depth="2" NCoef="0" IVar="-1" Cut="0.0000000000000000e+00" cType="1" res="4.1254863026551902e-04" rms="2.3240172863006592e-01" purity="5.3726947307586670e-01" nType="-99"/>
          <Node pos="r" depth="2" NCoef="0" IVar="-1" Cut="0.0000000000000000e+00" cType="1" res="-6.6609247587621212e-03" rms="2.4904851615428925e-01" purity="2.9989856481552124e-01" nType="-99"/>
        </Node>
      </Node>
    </BinaryTree>
    <BinaryTree type="DecisionTree" boostWeight="1.0000000000000000e+00" itree="1358">
      <Node pos="s" depth="0" NCoef="0" IVar="49" Cut="2.2351720333099365e+00" cType="1" res="1.0816301219165325e-03" rms="2.2289566695690155e-01" purity="5.0292652845382690e-01" nType="0">
        <Node pos="l" depth="1" NCoef="0" IVar="-1" Cut="0.0000000000000000e+00" cType="1" res="-1.2897633947432041e-02" rms="0.0000000000000000e+00" purity="1.2478388100862503e-01" nType="-99"/>
        <Node pos="r" depth="1" NCoef="0" IVar="1" Cut="1.7478921413421631e+00" cType="1" res="2.9523586854338646e-03" rms="2.2554552555084229e-01" purity="5.1255691051483154e-01" nType="0">
          <Node pos="l" depth="2" NCoef="0" IVar="-1" Cut="0.0000000000000000e+00" cType="1" res="-2.6089754700660706e-01" rms="0.0000000000000000e+00" purity="-4.6446789056062698e-02" nType="-99"/>
          <Node pos="r" depth="2" NCoef="0" IVar="-1" Cut="0.0000000000000000e+00" cType="1" res="6.0654786648228765e-04" rms="2.3338355123996735e-01" purity="5.3304344415664673e-01" nType="-99"/>
        </Node>
      </Node>
    </BinaryTree>
    <BinaryTree type="DecisionTree" boostWeight="1.0000000000000000e+00" itree="1359">
      <Node pos="s" depth="0" NCoef="0" IVar="5" Cut="1.1311279535293579e+00" cType="1" res="-1.9657402299344540e-03" rms="2.2680236399173737e-01" purity="4.9809882044792175e-01" nType="0">
        <Node pos="l" depth="1" NCoef="0" IVar="14" Cut="1.4084489345550537e+00" cType="1" res="-2.7764704078435898e-02" rms="1.0701185464859009e-01" purity="1.3799926638603210e-01" nType="0">
          <Node pos="l" depth="2" NCoef="0" IVar="-1" Cut="0.0000000000000000e+00" cType="1" res="-1.6634022817015648e-02" rms="0.0000000000000000e+00" purity="7.6631004922091961e-03" nType="-99"/>
          <Node pos="r" depth="2" NCoef="0" IVar="-1" Cut="0.0000000000000000e+00" cType="1" res="1.6043413197621703e-03" rms="2.9138493537902832e-01" purity="4.5297431945800781e-01" nType="-99"/>
        </Node>
        <Node pos="r" depth="1" NCoef="0" IVar="10" Cut="1.2345679104328156e-02" cType="1" res="1.2232075678184628e-03" rms="2.3725442588329315e-01" purity="5.4260981082916260e-01" nType="0">
          <Node pos="l" depth="2" NCoef="0" IVar="-1" Cut="0.0000000000000000e+00" cType="1" res="4.0232939645648003e-03" rms="2.3271737992763519e-01" purity="4.9729934334754944e-01" nType="-99"/>
          <Node pos="r" depth="2" NCoef="0" IVar="-1" Cut="0.0000000000000000e+00" cType="1" res="-5.5754621280357242e-04" rms="2.3778435587882996e-01" purity="5.5202674865722656e-01" nType="-99"/>
        </Node>
      </Node>
    </BinaryTree>
    <BinaryTree type="DecisionTree" boostWeight="1.0000000000000000e+00" itree="1360">
      <Node pos="s" depth="0" NCoef="0" IVar="43" Cut="1.1817568540573120e+00" cType="1" res="1.5160664916038513e-03" rms="2.2572928667068481e-01" purity="4.9807026982307434e-01" nType="0">
        <Node pos="l" depth="1" NCoef="0" IVar="57" Cut="-2.0333311557769775e+00" cType="1" res="3.6013231147080660e-03" rms="2.2749032080173492e-01" purity="5.0777572393417358e-01" nType="0">
          <Node pos="l" depth="2" NCoef="0" IVar="-1" Cut="0.0000000000000000e+00" cType="1" res="1.7663670005276799e-03" rms="2.3830212652683258e-01" purity="5.7478463649749756e-01" nType="-99"/>
          <Node pos="r" depth="2" NCoef="0" IVar="-1" Cut="0.0000000000000000e+00" cType="1" res="-9.4350351719185710e-04" rms="2.1477355062961578e-01" purity="4.3590822815895081e-01" nType="-99"/>
        </Node>
        <Node pos="r" depth="1" NCoef="0" IVar="4" Cut="3.8027956485748291e+00" cType="1" res="-4.7299817204475403e-02" rms="1.7258204519748688e-01" purity="2.7086511254310608e-01" nType="0">
          <Node pos="l" depth="2" NCoef="0" IVar="-1" Cut="0.0000000000000000e+00" cType="1" res="-1.1672482825815678e-02" rms="7.5897797942161560e-02" purity="1.8790951371192932e-01" nType="-99"/>
          <Node pos="r" depth="2" NCoef="0" IVar="-1" Cut="0.0000000000000000e+00" cType="1" res="-3.4075910225510597e-03" rms="2.2976057231426239e-01" purity="3.5268050432205200e-01" nType="-99"/>
        </Node>
      </Node>
    </BinaryTree>
    <BinaryTree type="DecisionTree" boostWeight="1.0000000000000000e+00" itree="1361">
      <Node pos="s" depth="0" NCoef="0" IVar="2" Cut="5.0748854875564575e-01" cType="1" res="-1.0076187318190932e-03" rms="2.2433640062808990e-01" purity="4.9858269095420837e-01" nType="0">
        <Node pos="l" depth="1" NCoef="0" IVar="-1" Cut="0.0000000000000000e+00" cType="1" res="-2.1199462935328484e-02" rms="0.0000000000000000e+00" purity="-6.6050887107849121e-02" nType="-99"/>
        <Node pos="r" depth="1" NCoef="0" IVar="49" Cut="2.3695325851440430e+00" cType="1" res="6.8553426535800099e-04" rms="2.2969768941402435e-01" purity="5.1075494289398193e-01" nType="0">
          <Node pos="l" depth="2" NCoef="0" IVar="-1" Cut="0.0000000000000000e+00" cType="1" res="-5.8492533862590790e-03" rms="1.6643193364143372e-01" purity="2.1481382846832275e-01" nType="-99"/>
          <Node pos="r" depth="2" NCoef="0" IVar="-1" Cut="0.0000000000000000e+00" cType="1" res="4.1245089960284531e-04" rms="2.3291501402854919e-01" purity="5.2954685688018799e-01" nType="-99"/>
        </Node>
      </Node>
    </BinaryTree>
    <BinaryTree type="DecisionTree" boostWeight="1.0000000000000000e+00" itree="1362">
      <Node pos="s" depth="0" NCoef="0" IVar="36" Cut="1.5245062112808228e+00" cType="1" res="-1.5761767281219363e-03" rms="2.2542610764503479e-01" purity="4.9957630038261414e-01" nType="0">
        <Node pos="l" depth="1" NCoef="0" IVar="54" Cut="1.4479401111602783e+00" cType="1" res="3.6468240432441235e-04" rms="2.2736632823944092e-01" purity="5.1855927705764771e-01" nType="0">
          <Node pos="l" depth="2" NCoef="0" IVar="-1" Cut="0.0000000000000000e+00" cType="1" res="4.2564130853861570e-04" rms="2.2903902828693390e-01" purity="5.6091952323913574e-01" nType="-99"/>
          <Node pos="r" depth="2" NCoef="0" IVar="-1" Cut="0.0000000000000000e+00" cType="1" res="-5.3858589380979538e-03" rms="2.0610915124416351e-01" purity="6.8485148251056671e-02" nType="-99"/>
        </Node>
        <Node pos="r" depth="1" NCoef="0" IVar="-1" Cut="0.0000000000000000e+00" cType="1" res="-8.8675851002335548e-03" rms="1.6205662488937378e-01" purity="2.2462436929345131e-02" nType="-99"/>
      </Node>
    </BinaryTree>
    <BinaryTree type="DecisionTree" boostWeight="1.0000000000000000e+00" itree="1363">
      <Node pos="s" depth="0" NCoef="0" IVar="65" Cut="8.1924813985824585e-01" cType="1" res="9.0122228721156716e-04" rms="2.2620287537574768e-01" purity="5.0144153833389282e-01" nType="0">
        <Node pos="l" depth="1" NCoef="0" IVar="14" Cut="-1.4537136554718018e+00" cType="1" res="2.3356096353381872e-03" rms="2.2853039205074310e-01" purity="5.1102012395858765e-01" nType="0">
          <Node pos="l" depth="2" NCoef="0" IVar="-1" Cut="0.0000000000000000e+00" cType="1" res="-8.9831843972206116e-02" rms="0.0000000000000000e+00" purity="-1.7085781320929527e-02" nType="-99"/>
          <Node pos="r" depth="2" NCoef="0" IVar="-1" Cut="0.0000000000000000e+00" cType="1" res="7.5997191015630960e-04" rms="2.6077362895011902e-01" purity="6.3045054674148560e-01" nType="-99"/>
        </Node>
        <Node pos="r" depth="1" NCoef="0" IVar="-1" Cut="0.0000000000000000e+00" cType="1" res="-1.2597698718309402e-02" rms="0.0000000000000000e+00" purity="3.9312850683927536e-02" nType="-99"/>
      </Node>
    </BinaryTree>
    <BinaryTree type="DecisionTree" boostWeight="1.0000000000000000e+00" itree="1364">
      <Node pos="s" depth="0" NCoef="0" IVar="32" Cut="-1.5312021970748901e+00" cType="1" res="1.1969355400651693e-03" rms="2.2493505477905273e-01" purity="5.0317317247390747e-01" nType="0">
        <Node pos="l" depth="1" NCoef="0" IVar="54" Cut="2.8727227449417114e-01" cType="1" res="1.3877555727958679e-02" rms="2.2002454102039337e-01" purity="6.8814736604690552e-01" nType="0">
          <Node pos="l" depth="2" NCoef="0" IVar="-1" Cut="0.0000000000000000e+00" cType="1" res="2.8698493260890245e-03" rms="2.0510038733482361e-01" purity="7.5937145948410034e-01" nType="-99"/>
          <Node pos="r" depth="2" NCoef="0" IVar="-1" Cut="0.0000000000000000e+00" cType="1" res="-1.7473133048042655e-03" rms="2.9080143570899963e-01" purity="2.6985493302345276e-01" nType="-99"/>
        </Node>
        <Node pos="r" depth="1" NCoef="0" IVar="2" Cut="1.5461444854736328e+00" cType="1" res="-7.2701252065598965e-03" rms="2.2776231169700623e-01" purity="3.7966275215148926e-01" nType="0">
          <Node pos="l" depth="2" NCoef="0" IVar="-1" Cut="0.0000000000000000e+00" cType="1" res="-7.0637254975736141e-03" rms="4.3469302356243134e-02" purity="7.6045289635658264e-02" nType="-99"/>
          <Node pos="r" depth="2" NCoef="0" IVar="-1" Cut="0.0000000000000000e+00" cType="1" res="4.4161617552163079e-05" rms="2.5135904550552368e-01" purity="4.5021370053291321e-01" nType="-99"/>
        </Node>
      </Node>
    </BinaryTree>
    <BinaryTree type="DecisionTree" boostWeight="1.0000000000000000e+00" itree="1365">
      <Node pos="s" depth="0" NCoef="0" IVar="37" Cut="-2.3238763809204102e+00" cType="1" res="-1.5346625878009945e-04" rms="2.2696341574192047e-01" purity="4.9734959006309509e-01" nType="0">
        <Node pos="l" depth="1" NCoef="0" IVar="60" Cut="-1.6662728786468506e-01" cType="1" res="1.3811595737934113e-02" rms="2.3836030066013336e-01" purity="5.7837957143783569e-01" nType="0">
          <Node pos="l" depth="2" NCoef="0" IVar="-1" Cut="0.0000000000000000e+00" cType="1" res="3.2568776514381170e-03" rms="2.4242766201496124e-01" purity="5.9797739982604980e-01" nType="-99"/>
          <Node pos="r" depth="2" NCoef="0" IVar="-1" Cut="0.0000000000000000e+00" cType="1" res="3.5056096385233104e-04" rms="2.3396423459053040e-01" purity="5.6016677618026733e-01" nType="-99"/>
        </Node>
        <Node pos="r" depth="1" NCoef="0" IVar="43" Cut="1.1192953586578369e+00" cType="1" res="-7.8595904633402824e-03" rms="2.2004313766956329e-01" purity="4.5263603329658508e-01" nType="0">
          <Node pos="l" depth="2" NCoef="0" IVar="-1" Cut="0.0000000000000000e+00" cType="1" res="-5.2338576642796397e-04" rms="2.2554318606853485e-01" purity="4.6802061796188354e-01" nType="-99"/>
          <Node pos="r" depth="2" NCoef="0" IVar="-1" Cut="0.0000000000000000e+00" cType="1" res="-7.2058220393955708e-03" rms="1.4380073547363281e-01" purity="2.9006031155586243e-01" nType="-99"/>
        </Node>
      </Node>
    </BinaryTree>
    <BinaryTree type="DecisionTree" boostWeight="1.0000000000000000e+00" itree="1366">
      <Node pos="s" depth="0" NCoef="0" IVar="45" Cut="9.8574072122573853e-01" cType="1" res="2.1928432397544384e-03" rms="2.2245873510837555e-01" purity="5.0095069408416748e-01" nType="0">
        <Node pos="l" depth="1" NCoef="0" IVar="54" Cut="3.6248448491096497e-01" cType="1" res="-7.2342669591307640e-03" rms="0.0000000000000000e+00" purity="6.0814905911684036e-02" nType="-99"/>
        <Node pos="r" depth="1" NCoef="0" IVar="4" Cut="3.7662892341613770e+00" cType="1" res="6.1229714192450047e-03" rms="2.3506891727447510e-01" purity="5.5296200513839722e-01" nType="0">
          <Node pos="l" depth="2" NCoef="0" IVar="-1" Cut="0.0000000000000000e+00" cType="1" res="2.2075646556913853e-03" rms="2.3023496568202972e-01" purity="5.4515707492828369e-01" nType="-99"/>
          <Node pos="r" depth="2" NCoef="0" IVar="-1" Cut="0.0000000000000000e+00" cType="1" res="-7.4038567254319787e-04" rms="2.4042202532291412e-01" purity="5.6279850006103516e-01" nType="-99"/>
        </Node>
      </Node>
    </BinaryTree>
    <BinaryTree type="DecisionTree" boostWeight="1.0000000000000000e+00" itree="1367">
      <Node pos="s" depth="0" NCoef="0" IVar="2" Cut="5.7250368595123291e-01" cType="1" res="-1.8240346980746835e-04" rms="2.2514124214649200e-01" purity="5.0138449668884277e-01" nType="0">
        <Node pos="l" depth="1" NCoef="0" IVar="-1" Cut="0.0000000000000000e+00" cType="1" res="-1.9674666225910187e-02" rms="0.0000000000000000e+00" purity="-5.9841845184564590e-02" nType="-99"/>
        <Node pos="r" depth="1" NCoef="0" IVar="1" Cut="1.7478921413421631e+00" cType="1" res="1.7850486328825355e-03" rms="2.3122176527976990e-01" purity="5.1512533426284790e-01" nType="0">
          <Node pos="l" depth="2" NCoef="0" IVar="-1" Cut="0.0000000000000000e+00" cType="1" res="-5.5779540538787842e-01" rms="0.0000000000000000e+00" purity="-4.9856066703796387e-02" nType="-99"/>
          <Node pos="r" depth="2" NCoef="0" IVar="-1" Cut="0.0000000000000000e+00" cType="1" res="4.7156331129372120e-04" rms="2.3949259519577026e-01" purity="5.3637212514877319e-01" nType="-99"/>
        </Node>
      </Node>
    </BinaryTree>
    <BinaryTree type="DecisionTree" boostWeight="1.0000000000000000e+00" itree="1368">
      <Node pos="s" depth="0" NCoef="0" IVar="56" Cut="-1.5311226844787598e+00" cType="1" res="-4.1049835272133350e-04" rms="2.2551470994949341e-01" purity="4.9849465489387512e-01" nType="0">
        <Node pos="l" depth="1" NCoef="0" IVar="56" Cut="-1.5449688434600830e+00" cType="1" res="1.2322653084993362e-02" rms="2.1227458119392395e-01" purity="6.8290126323699951e-01" nType="0">
          <Node pos="l" depth="2" NCoef="0" IVar="-1" Cut="0.0000000000000000e+00" cType="1" res="3.9480533450841904e-03" rms="1.9970123469829559e-01" purity="7.3686712980270386e-01" nType="-99"/>
          <Node pos="r" depth="2" NCoef="0" IVar="-1" Cut="0.0000000000000000e+00" cType="1" res="-6.6887133289128542e-04" rms="2.2565120458602905e-01" purity="6.1623650789260864e-01" nType="-99"/>
        </Node>
        <Node pos="r" depth="1" NCoef="0" IVar="63" Cut="1.1957968473434448e+00" cType="1" res="-8.8100433349609375e-03" rms="2.3345880210399628e-01" purity="3.7684905529022217e-01" nType="0">
          <Node pos="l" depth="2" NCoef="0" IVar="-1" Cut="0.0000000000000000e+00" cType="1" res="-7.9591426765546203e-04" rms="2.3744855821132660e-01" purity="3.8739392161369324e-01" nType="-99"/>
          <Node pos="r" depth="2" NCoef="0" IVar="-1" Cut="0.0000000000000000e+00" cType="1" res="-9.7361002117395401e-03" rms="1.0732559859752655e-01" purity="1.5178893506526947e-01" nType="-99"/>
        </Node>
      </Node>
    </BinaryTree>
    <BinaryTree type="DecisionTree" boostWeight="1.0000000000000000e+00" itree="1369">
      <Node pos="s" depth="0" NCoef="0" IVar="29" Cut="2.3303251266479492e+00" cType="1" res="3.8971242611296475e-04" rms="2.2708371281623840e-01" purity="4.9923950433731079e-01" nType="0">
        <Node pos="l" depth="1" NCoef="0" IVar="4" Cut="3.5132083892822266e+00" cType="1" res="-4.1222847998142242e-02" rms="1.5138614177703857e-01" purity="1.7887972295284271e-01" nType="0">
          <Node pos="l" depth="2" NCoef="0" IVar="-1" Cut="0.0000000000000000e+00" cType="1" res="-1.2714149430394173e-02" rms="0.0000000000000000e+00" purity="1.1991039663553238e-01" nType="-99"/>
          <Node pos="r" depth="2" NCoef="0" IVar="-1" Cut="0.0000000000000000e+00" cType="1" res="-2.4358120281249285e-03" rms="2.2845752537250519e-01" purity="2.3457050323486328e-01" nType="-99"/>
        </Node>
        <Node pos="r" depth="1" NCoef="0" IVar="56" Cut="1.5236508846282959e+00" cType="1" res="2.4595202412456274e-03" rms="2.3000350594520569e-01" purity="5.1517415046691895e-01" nType="0">
          <Node pos="l" depth="2" NCoef="0" IVar="-1" Cut="0.0000000000000000e+00" cType="1" res="5.7071819901466370e-04" rms="2.3246727883815765e-01" purity="5.3527534008026123e-01" nType="-99"/>
          <Node pos="r" depth="2" NCoef="0" IVar="-1" Cut="0.0000000000000000e+00" cType="1" res="-9.0037779882550240e-03" rms="1.4975804090499878e-01" purity="2.0564567297697067e-02" nType="-99"/>
        </Node>
      </Node>
    </BinaryTree>
    <BinaryTree type="DecisionTree" boostWeight="1.0000000000000000e+00" itree="1370">
      <Node pos="s" depth="0" NCoef="0" IVar="36" Cut="1.4855418205261230e+00" cType="1" res="-3.1368681811727583e-04" rms="2.2447051107883453e-01" purity="4.9846109747886658e-01" nType="0">
        <Node pos="l" depth="1" NCoef="0" IVar="34" Cut="1.4852153062820435e+00" cType="1" res="2.7013665530830622e-03" rms="2.2708220779895782e-01" purity="5.3129053115844727e-01" nType="0">
          <Node pos="l" depth="2" NCoef="0" IVar="-1" Cut="0.0000000000000000e+00" cType="1" res="6.2335917027667165e-04" rms="2.2696380317211151e-01" purity="5.4342120885848999e-01" nType="-99"/>
          <Node pos="r" depth="2" NCoef="0" IVar="-1" Cut="0.0000000000000000e+00" cType="1" res="-9.8228137940168381e-03" rms="2.1798768639564514e-01" purity="8.5874661803245544e-02" nType="-99"/>
        </Node>
        <Node pos="r" depth="1" NCoef="0" IVar="34" Cut="1.4876515865325928e+00" cType="1" res="-4.2712628841400146e-02" rms="1.7854250967502594e-01" purity="3.6799892783164978e-02" nType="0">
          <Node pos="l" depth="2" NCoef="0" IVar="-1" Cut="0.0000000000000000e+00" cType="1" res="-9.7958892583847046e-03" rms="2.1151284873485565e-01" purity="5.1401104778051376e-02" nType="-99"/>
          <Node pos="r" depth="2" NCoef="0" IVar="-1" Cut="0.0000000000000000e+00" cType="1" res="-4.0328428149223328e-03" rms="1.4677420258522034e-01" purity="2.7328403666615486e-02" nType="-99"/>
        </Node>
      </Node>
    </BinaryTree>
    <BinaryTree type="DecisionTree" boostWeight="1.0000000000000000e+00" itree="1371">
      <Node pos="s" depth="0" NCoef="0" IVar="60" Cut="-8.8649727404117584e-02" cType="1" res="-4.6492088586091995e-04" rms="2.2876912355422974e-01" purity="4.9929368495941162e-01" nType="0">
        <Node pos="l" depth="1" NCoef="0" IVar="14" Cut="-1.4537111520767212e+00" cType="1" res="7.8940056264400482e-03" rms="2.4162004888057709e-01" purity="5.2035611867904663e-01" nType="0">
          <Node pos="l" depth="2" NCoef="0" IVar="-1" Cut="0.0000000000000000e+00" cType="1" res="-8.8831737637519836e-02" rms="0.0000000000000000e+00" purity="-1.5111551620066166e-02" nType="-99"/>
          <Node pos="r" depth="2" NCoef="0" IVar="-1" Cut="0.0000000000000000e+00" cType="1" res="1.4088246971368790e-03" rms="2.7310219407081604e-01" purity="6.3787680864334106e-01" nType="-99"/>
        </Node>
        <Node pos="r" depth="1" NCoef="0" IVar="45" Cut="2.7455306053161621e+00" cType="1" res="-1.1277141049504280e-02" rms="2.1049690246582031e-01" purity="4.7204956412315369e-01" nType="0">
          <Node pos="l" depth="2" NCoef="0" IVar="-1" Cut="0.0000000000000000e+00" cType="1" res="-2.8838578145951033e-03" rms="2.0816333591938019e-01" purity="3.5211306810379028e-01" nType="-99"/>
          <Node pos="r" depth="2" NCoef="0" IVar="-1" Cut="0.0000000000000000e+00" cType="1" res="2.1169518586248159e-03" rms="2.1415787935256958e-01" purity="7.8283149003982544e-01" nType="-99"/>
        </Node>
      </Node>
    </BinaryTree>
    <BinaryTree type="DecisionTree" boostWeight="1.0000000000000000e+00" itree="1372">
      <Node pos="s" depth="0" NCoef="0" IVar="38" Cut="1.4091923236846924e+00" cType="1" res="5.5077957222238183e-04" rms="2.2398956120014191e-01" purity="4.9948769807815552e-01" nType="0">
        <Node pos="l" depth="1" NCoef="0" IVar="0" Cut="3.4480151534080505e-01" cType="1" res="2.9918979853391647e-03" rms="2.2443480789661407e-01" purity="5.1089191436767578e-01" nType="0">
          <Node pos="l" depth="2" NCoef="0" IVar="-1" Cut="0.0000000000000000e+00" cType="1" res="2.0293344277888536e-03" rms="2.3039762675762177e-01" purity="5.9712737798690796e-01" nType="-99"/>
          <Node pos="r" depth="2" NCoef="0" IVar="-1" Cut="0.0000000000000000e+00" cType="1" res="-7.5363495852798223e-04" rms="2.2016659379005432e-01" purity="4.5640015602111816e-01" nType="-99"/>
        </Node>
        <Node pos="r" depth="1" NCoef="0" IVar="33" Cut="-1.3766505718231201e+00" cType="1" res="-4.8688355833292007e-02" rms="2.0880468189716339e-01" purity="2.6945647597312927e-01" nType="0">
          <Node pos="l" depth="2" NCoef="0" IVar="-1" Cut="0.0000000000000000e+00" cType="1" res="-3.2468505669385195e-03" rms="2.2315855324268341e-01" purity="3.8167017698287964e-01" nType="-99"/>
          <Node pos="r" depth="2" NCoef="0" IVar="-1" Cut="0.0000000000000000e+00" cType="1" res="-1.0688245296478271e-02" rms="1.9344568252563477e-01" purity="1.7501570284366608e-01" nType="-99"/>
        </Node>
      </Node>
    </BinaryTree>
    <BinaryTree type="DecisionTree" boostWeight="1.0000000000000000e+00" itree="1373">
      <Node pos="s" depth="0" NCoef="0" IVar="2" Cut="6.0483932495117188e-01" cType="1" res="-3.5231970832683146e-04" rms="2.2133319079875946e-01" purity="4.9815598130226135e-01" nType="0">
        <Node pos="l" depth="1" NCoef="0" IVar="-1" Cut="0.0000000000000000e+00" cType="1" res="-1.8550332635641098e-02" rms="0.0000000000000000e+00" purity="-5.7740386575460434e-02" nType="-99"/>
        <Node pos="r" depth="1" NCoef="0" IVar="65" Cut="7.2967904806137085e-01" cType="1" res="1.6416016733273864e-03" rms="2.2739723324775696e-01" purity="5.1234465837478638e-01" nType="0">
          <Node pos="l" depth="2" NCoef="0" IVar="-1" Cut="0.0000000000000000e+00" cType="1" res="6.7229848355054855e-04" rms="2.3483546078205109e-01" purity="5.4645878076553345e-01" nType="-99"/>
          <Node pos="r" depth="2" NCoef="0" IVar="-1" Cut="0.0000000000000000e+00" cType="1" res="-5.6476294994354248e-03" rms="1.2808832526206970e-01" purity="1.7569120228290558e-01" nType="-99"/>
        </Node>
      </Node>
    </BinaryTree>
    <BinaryTree type="DecisionTree" boostWeight="1.0000000000000000e+00" itree="1374">
      <Node pos="s" depth="0" NCoef="0" IVar="37" Cut="-2.3238379955291748e+00" cType="1" res="2.7852909988723695e-04" rms="2.2560985386371613e-01" purity="5.0044411420822144e-01" nType="0">
        <Node pos="l" depth="1" NCoef="0" IVar="22" Cut="1.2345679104328156e-02" cType="1" res="1.3124687597155571e-02" rms="2.3704054951667786e-01" purity="5.8258491754531860e-01" nType="0">
          <Node pos="l" depth="2" NCoef="0" IVar="-1" Cut="0.0000000000000000e+00" cType="1" res="5.3114118054509163e-03" rms="2.1897532045841217e-01" purity="5.1799118518829346e-01" nType="-99"/>
          <Node pos="r" depth="2" NCoef="0" IVar="-1" Cut="0.0000000000000000e+00" cType="1" res="1.0239398106932640e-03" rms="2.4093511700630188e-01" purity="5.9822678565979004e-01" nType="-99"/>
        </Node>
        <Node pos="r" depth="1" NCoef="0" IVar="18" Cut="1.1052428483963013e+00" cType="1" res="-6.8147480487823486e-03" rms="2.1871960163116455e-01" purity="4.5508840680122375e-01" nType="0">
          <Node pos="l" depth="2" NCoef="0" IVar="-1" Cut="0.0000000000000000e+00" cType="1" res="-3.2494429615326226e-04" rms="2.2069852054119110e-01" purity="4.7839912772178650e-01" nType="-99"/>
          <Node pos="r" depth="2" NCoef="0" IVar="-1" Cut="0.0000000000000000e+00" cType="1" res="-5.1251859404146671e-03" rms="2.0307004451751709e-01" purity="3.0315199494361877e-01" nType="-99"/>
        </Node>
      </Node>
    </BinaryTree>
    <BinaryTree type="DecisionTree" boostWeight="1.0000000000000000e+00" itree="1375">
      <Node pos="s" depth="0" NCoef="0" IVar="65" Cut="7.0738303661346436e-01" cType="1" res="3.1069116084836423e-04" rms="2.2370778024196625e-01" purity="5.0153601169586182e-01" nType="0">
        <Node pos="l" depth="1" NCoef="0" IVar="7" Cut="-1.0083482265472412e+00" cType="1" res="3.9750933647155762e-03" rms="2.3190575838088989e-01" purity="5.3867077827453613e-01" nType="0">
          <Node pos="l" depth="2" NCoef="0" IVar="-1" Cut="0.0000000000000000e+00" cType="1" res="8.2474423106759787e-04" rms="2.3530243337154388e-01" purity="5.4762643575668335e-01" nType="-99"/>
          <Node pos="r" depth="2" NCoef="0" IVar="-1" Cut="0.0000000000000000e+00" cType="1" res="-6.5988772548735142e-03" rms="1.4746682345867157e-01" purity="3.7063747644424438e-01" nType="-99"/>
        </Node>
        <Node pos="r" depth="1" NCoef="0" IVar="14" Cut="1.3287676572799683e+00" cType="1" res="-2.8358435258269310e-02" rms="1.4105260372161865e-01" purity="2.1100567281246185e-01" nType="0">
          <Node pos="l" depth="2" NCoef="0" IVar="-1" Cut="0.0000000000000000e+00" cType="1" res="-1.4864627271890640e-02" rms="0.0000000000000000e+00" purity="9.0260952711105347e-03" nType="-99"/>
          <Node pos="r" depth="2" NCoef="0" IVar="-1" Cut="0.0000000000000000e+00" cType="1" res="1.8363062990829349e-03" rms="2.7743539214134216e-01" purity="6.3700532913208008e-01" nType="-99"/>
        </Node>
      </Node>
    </BinaryTree>
    <BinaryTree type="DecisionTree" boostWeight="1.0000000000000000e+00" itree="1376">
      <Node pos="s" depth="0" NCoef="0" IVar="56" Cut="-1.4537754058837891e+00" cType="1" res="-1.7770762788131833e-03" rms="2.1835011243820190e-01" purity="4.9582773447036743e-01" nType="0">
        <Node pos="l" depth="1" NCoef="0" IVar="44" Cut="1.2345679104328156e-02" cType="1" res="5.9113395400345325e-03" rms="2.2088302671909332e-01" purity="6.1202353239059448e-01" nType="0">
          <Node pos="l" depth="2" NCoef="0" IVar="-1" Cut="0.0000000000000000e+00" cType="1" res="1.1503817513585091e-03" rms="2.1734040975570679e-01" purity="6.2174177169799805e-01" nType="-99"/>
          <Node pos="r" depth="2" NCoef="0" IVar="-1" Cut="0.0000000000000000e+00" cType="1" res="-6.4797899685800076e-03" rms="2.8500038385391235e-01" purity="3.8265660405158997e-01" nType="-99"/>
        </Node>
        <Node pos="r" depth="1" NCoef="0" IVar="1" Cut="1.9924771785736084e+00" cType="1" res="-1.6933728009462357e-02" rms="2.1245539188385010e-01" purity="2.6676371693611145e-01" nType="0">
          <Node pos="l" depth="2" NCoef="0" IVar="-1" Cut="0.0000000000000000e+00" cType="1" res="-7.7765010297298431e-02" rms="0.0000000000000000e+00" purity="-4.5408338308334351e-02" nType="-99"/>
          <Node pos="r" depth="2" NCoef="0" IVar="-1" Cut="0.0000000000000000e+00" cType="1" res="-1.1684553464874625e-03" rms="2.5080138444900513e-01" purity="3.2378968596458435e-01" nType="-99"/>
        </Node>
      </Node>
    </BinaryTree>
    <BinaryTree type="DecisionTree" boostWeight="1.0000000000000000e+00" itree="1377">
      <Node pos="s" depth="0" NCoef="0" IVar="54" Cut="1.4855027198791504e+00" cType="1" res="-4.1071765008382499e-04" rms="2.2487400472164154e-01" purity="5.0279891490936279e-01" nType="0">
        <Node pos="l" depth="1" NCoef="0" IVar="56" Cut="1.4854199886322021e+00" cType="1" res="2.3685293272137642e-03" rms="2.2695018351078033e-01" purity="5.3431969881057739e-01" nType="0">
          <Node pos="l" depth="2" NCoef="0" IVar="-1" Cut="0.0000000000000000e+00" cType="1" res="5.6708318879827857e-04" rms="2.2641895711421967e-01" purity="5.4767227172851562e-01" nType="-99"/>
          <Node pos="r" depth="2" NCoef="0" IVar="-1" Cut="0.0000000000000000e+00" cType="1" res="-7.9828761518001556e-03" rms="2.3453864455223083e-01" purity="6.5651856362819672e-02" nType="-99"/>
        </Node>
        <Node pos="r" depth="1" NCoef="0" IVar="4" Cut="3.7293646335601807e+00" cType="1" res="-4.0110122412443161e-02" rms="1.8836756050586700e-01" purity="5.2549101412296295e-02" nType="0">
          <Node pos="l" depth="2" NCoef="0" IVar="-1" Cut="0.0000000000000000e+00" cType="1" res="-3.6626405199058354e-04" rms="2.3263901472091675e-01" purity="7.8848950564861298e-02" nType="-99"/>
          <Node pos="r" depth="2" NCoef="0" IVar="-1" Cut="0.0000000000000000e+00" cType="1" res="-1.5255217440426350e-02" rms="8.1859603524208069e-02" purity="1.8178766593337059e-02" nType="-99"/>
        </Node>
      </Node>
    </BinaryTree>
    <BinaryTree type="DecisionTree" boostWeight="1.0000000000000000e+00" itree="1378">
      <Node pos="s" depth="0" NCoef="0" IVar="2" Cut="1.1974477767944336e+00" cType="1" res="1.7876578494906425e-03" rms="2.2509598731994629e-01" purity="5.0155556201934814e-01" nType="0">
        <Node pos="l" depth="1" NCoef="0" IVar="5" Cut="1.9400317668914795e+00" cType="1" res="-4.1697818785905838e-02" rms="1.0134301334619522e-01" purity="8.3903715014457703e-02" nType="0">
          <Node pos="l" depth="2" NCoef="0" IVar="-1" Cut="0.0000000000000000e+00" cType="1" res="-2.4033538065850735e-03" rms="1.2857584655284882e-01" purity="8.4955856204032898e-02" nType="-99"/>
          <Node pos="r" depth="2" NCoef="0" IVar="-1" Cut="0.0000000000000000e+00" cType="1" res="-1.0496253147721291e-02" rms="0.0000000000000000e+00" purity="8.1302262842655182e-02" nType="-99"/>
        </Node>
        <Node pos="r" depth="1" NCoef="0" IVar="40" Cut="2.7633987367153168e-02" cType="1" res="5.3762579336762428e-03" rms="2.3201952874660492e-01" purity="5.3602188825607300e-01" nType="0">
          <Node pos="l" depth="2" NCoef="0" IVar="-1" Cut="0.0000000000000000e+00" cType="1" res="1.5304577536880970e-03" rms="2.4034096300601959e-01" purity="5.5627280473709106e-01" nType="-99"/>
          <Node pos="r" depth="2" NCoef="0" IVar="-1" Cut="0.0000000000000000e+00" cType="1" res="-1.5821934211999178e-03" rms="2.0816387236118317e-01" purity="4.8392206430435181e-01" nType="-99"/>
        </Node>
      </Node>
    </BinaryTree>
    <BinaryTree type="DecisionTree" boostWeight="1.0000000000000000e+00" itree="1379">
      <Node pos="s" depth="0" NCoef="0" IVar="37" Cut="-6.0536766052246094e-01" cType="1" res="4.2546971235424280e-04" rms="2.2522825002670288e-01" purity="5.0068855285644531e-01" nType="0">
        <Node pos="l" depth="1" NCoef="0" IVar="64" Cut="1.2345679104328156e-02" cType="1" res="2.4242850486189127e-03" rms="2.2817791998386383e-01" purity="5.1314187049865723e-01" nType="0">
          <Node pos="l" depth="2" NCoef="0" IVar="-1" Cut="0.0000000000000000e+00" cType="1" res="5.6860025506466627e-04" rms="2.2747734189033508e-01" purity="5.2315068244934082e-01" nType="-99"/>
          <Node pos="r" depth="2" NCoef="0" IVar="-1" Cut="0.0000000000000000e+00" cType="1" res="-5.8378344401717186e-03" rms="2.3956890404224396e-01" purity="2.8400886058807373e-01" nType="-99"/>
        </Node>
        <Node pos="r" depth="1" NCoef="0" IVar="-1" Cut="0.0000000000000000e+00" cType="1" res="-1.0948221199214458e-02" rms="8.7846733629703522e-02" purity="1.3360919058322906e-01" nType="-99"/>
      </Node>
    </BinaryTree>
    <BinaryTree type="DecisionTree" boostWeight="1.0000000000000000e+00" itree="1380">
      <Node pos="s" depth="0" NCoef="0" IVar="64" Cut="1.2345679104328156e-02" cType="1" res="6.1728787841275334e-05" rms="2.2468592226505280e-01" purity="4.9909186363220215e-01" nType="0">
        <Node pos="l" depth="1" NCoef="0" IVar="2" Cut="5.7250368595123291e-01" cType="1" res="2.5296360254287720e-03" rms="2.2503438591957092e-01" purity="5.0908499956130981e-01" nType="0">
          <Node pos="l" depth="2" NCoef="0" IVar="-1" Cut="0.0000000000000000e+00" cType="1" res="-1.7270306125283241e-02" rms="0.0000000000000000e+00" purity="-4.8718798905611038e-02" nType="-99"/>
          <Node pos="r" depth="2" NCoef="0" IVar="-1" Cut="0.0000000000000000e+00" cType="1" res="5.5681663798168302e-04" rms="2.3054361343383789e-01" purity="5.2298831939697266e-01" nType="-99"/>
        </Node>
        <Node pos="r" depth="1" NCoef="0" IVar="46" Cut="-1.1616406440734863e+00" cType="1" res="-5.6132592260837555e-02" rms="2.0885126292705536e-01" purity="2.7154839038848877e-01" nType="0">
          <Node pos="l" depth="2" NCoef="0" IVar="-1" Cut="0.0000000000000000e+00" cType="1" res="-1.6081778332591057e-02" rms="2.1483679115772247e-01" purity="1.4192108809947968e-01" nType="-99"/>
          <Node pos="r" depth="2" NCoef="0" IVar="-1" Cut="0.0000000000000000e+00" cType="1" res="-4.8949703341349959e-04" rms="1.8853497505187988e-01" purity="4.1106233000755310e-01" nType="-99"/>
        </Node>
      </Node>
    </BinaryTree>
    <BinaryTree type="DecisionTree" boostWeight="1.0000000000000000e+00" itree="1381">
      <Node pos="s" depth="0" NCoef="0" IVar="17" Cut="-2.1829617023468018e+00" cType="1" res="-9.0895387984346598e-05" rms="2.2188809514045715e-01" purity="5.0119483470916748e-01" nType="0">
        <Node pos="l" depth="1" NCoef="0" IVar="0" Cut="9.0372812747955322e-01" cType="1" res="1.1167025193572044e-02" rms="2.3505680263042450e-01" purity="5.6728690862655640e-01" nType="0">
          <Node pos="l" depth="2" NCoef="0" IVar="-1" Cut="0.0000000000000000e+00" cType="1" res="2.1327924914658070e-03" rms="2.3542046546936035e-01" purity="5.9635078907012939e-01" nType="-99"/>
          <Node pos="r" depth="2" NCoef="0" IVar="-1" Cut="0.0000000000000000e+00" cType="1" res="-3.0871161725372076e-03" rms="2.2993856668472290e-01" purity="3.8336428999900818e-01" nType="-99"/>
        </Node>
        <Node pos="r" depth="1" NCoef="0" IVar="2" Cut="8.9687311649322510e-01" cType="1" res="-9.7708702087402344e-03" rms="2.0942226052284241e-01" purity="4.4436645507812500e-01" nType="0">
          <Node pos="l" depth="2" NCoef="0" IVar="-1" Cut="0.0000000000000000e+00" cType="1" res="-1.8872827291488647e-02" rms="0.0000000000000000e+00" purity="-5.1100231707096100e-02" nType="-99"/>
          <Node pos="r" depth="2" NCoef="0" IVar="-1" Cut="0.0000000000000000e+00" cType="1" res="-7.5466866837814450e-04" rms="2.2028796374797821e-01" purity="4.6626013517379761e-01" nType="-99"/>
        </Node>
      </Node>
    </BinaryTree>
    <BinaryTree type="DecisionTree" boostWeight="1.0000000000000000e+00" itree="1382">
      <Node pos="s" depth="0" NCoef="0" IVar="33" Cut="1.0605851411819458e+00" cType="1" res="1.7792811850085855e-03" rms="2.2660166025161743e-01" purity="4.9923667311668396e-01" nType="0">
        <Node pos="l" depth="1" NCoef="0" IVar="9" Cut="3.2281930446624756e+00" cType="1" res="4.6291542239487171e-03" rms="2.3038741946220398e-01" purity="5.1556235551834106e-01" nType="0">
          <Node pos="l" depth="2" NCoef="0" IVar="-1" Cut="0.0000000000000000e+00" cType="1" res="2.2309189662337303e-03" rms="2.1401463449001312e-01" purity="4.8131906986236572e-01" nType="-99"/>
          <Node pos="r" depth="2" NCoef="0" IVar="-1" Cut="0.0000000000000000e+00" cType="1" res="-6.3631247030571103e-04" rms="2.4496352672576904e-01" purity="5.4913514852523804e-01" nType="-99"/>
        </Node>
        <Node pos="r" depth="1" NCoef="0" IVar="15" Cut="-6.6645070910453796e-02" cType="1" res="-3.6065846681594849e-02" rms="1.6381041705608368e-01" purity="2.8243836760520935e-01" nType="0">
          <Node pos="l" depth="2" NCoef="0" IVar="-1" Cut="0.0000000000000000e+00" cType="1" res="-3.9590224623680115e-03" rms="1.8130953609943390e-01" purity="3.1129795312881470e-01" nType="-99"/>
          <Node pos="r" depth="2" NCoef="0" IVar="-1" Cut="0.0000000000000000e+00" cType="1" res="-1.0056192986667156e-02" rms="1.1303224414587021e-01" purity="2.1978595852851868e-01" nType="-99"/>
        </Node>
      </Node>
    </BinaryTree>
    <BinaryTree type="DecisionTree" boostWeight="1.0000000000000000e+00" itree="1383">
      <Node pos="s" depth="0" NCoef="0" IVar="25" Cut="2.2121469974517822e+00" cType="1" res="3.0343909747898579e-04" rms="2.2093041241168976e-01" purity="5.0224441289901733e-01" nType="0">
        <Node pos="l" depth="1" NCoef="0" IVar="14" Cut="-1.4150574207305908e+00" cType="1" res="-9.2332353815436363e-03" rms="2.0743134617805481e-01" purity="2.9976341128349304e-01" nType="0">
          <Node pos="l" depth="2" NCoef="0" IVar="-1" Cut="0.0000000000000000e+00" cType="1" res="-7.2337355613708496e+00" rms="0.0000000000000000e+00" purity="-4.2571101337671280e-02" nType="-99"/>
          <Node pos="r" depth="2" NCoef="0" IVar="-1" Cut="0.0000000000000000e+00" cType="1" res="4.2017205851152539e-04" rms="2.7884519100189209e-01" purity="4.3819475173950195e-01" nType="-99"/>
        </Node>
        <Node pos="r" depth="1" NCoef="0" IVar="14" Cut="-1.3763252496719360e+00" cType="1" res="1.0174435563385487e-02" rms="2.3367470502853394e-01" purity="7.1182358264923096e-01" nType="0">
          <Node pos="l" depth="2" NCoef="0" IVar="-1" Cut="0.0000000000000000e+00" cType="1" res="3.1053319573402405e-02" rms="2.3389473557472229e-01" purity="6.8306066095829010e-02" nType="-99"/>
          <Node pos="r" depth="2" NCoef="0" IVar="-1" Cut="0.0000000000000000e+00" cType="1" res="5.4001749958842993e-04" rms="2.3313160240650177e-01" purity="8.0389493703842163e-01" nType="-99"/>
        </Node>
      </Node>
    </BinaryTree>
    <BinaryTree type="DecisionTree" boostWeight="1.0000000000000000e+00" itree="1384">
      <Node pos="s" depth="0" NCoef="0" IVar="5" Cut="8.4842032194137573e-01" cType="1" res="-4.4544425327330828e-04" rms="2.2556899487972260e-01" purity="5.0067687034606934e-01" nType="0">
        <Node pos="l" depth="1" NCoef="0" IVar="40" Cut="-1.7391061782836914e-01" cType="1" res="-1.1435500346124172e-02" rms="0.0000000000000000e+00" purity="7.1684636175632477e-02" nType="-99"/>
        <Node pos="r" depth="1" NCoef="0" IVar="4" Cut="3.7956361770629883e+00" cType="1" res="2.1421778947114944e-03" rms="2.3283202946186066e-01" purity="5.2515286207199097e-01" nType="0">
          <Node pos="l" depth="2" NCoef="0" IVar="-1" Cut="0.0000000000000000e+00" cType="1" res="1.4144724700599909e-03" rms="2.2663523256778717e-01" purity="5.1340961456298828e-01" nType="-99"/>
          <Node pos="r" depth="2" NCoef="0" IVar="-1" Cut="0.0000000000000000e+00" cType="1" res="-1.1851466260850430e-03" rms="2.4171641469001770e-01" purity="5.4358619451522827e-01" nType="-99"/>
        </Node>
      </Node>
    </BinaryTree>
    <BinaryTree type="DecisionTree" boostWeight="1.0000000000000000e+00" itree="1385">
      <Node pos="s" depth="0" NCoef="0" IVar="32" Cut="1.2089803218841553e+00" cType="1" res="-8.1103754928335547e-04" rms="2.2007548809051514e-01" purity="5.0027447938919067e-01" nType="0">
        <Node pos="l" depth="1" NCoef="0" IVar="29" Cut="2.6765668392181396e+00" cType="1" res="3.2654693350195885e-03" rms="2.2388905286788940e-01" purity="5.5846583843231201e-01" nType="0">
          <Node pos="l" depth="2" NCoef="0" IVar="-1" Cut="0.0000000000000000e+00" cType="1" res="-3.2029671128839254e-03" rms="2.0151586830615997e-01" purity="3.4163343906402588e-01" nType="-99"/>
          <Node pos="r" depth="2" NCoef="0" IVar="-1" Cut="0.0000000000000000e+00" cType="1" res="1.1534666409716010e-03" rms="2.2822369635105133e-01" purity="6.0715252161026001e-01" nType="-99"/>
        </Node>
        <Node pos="r" depth="1" NCoef="0" IVar="31" Cut="1.2345679104328156e-02" cType="1" res="-2.5783797726035118e-02" rms="1.9322490692138672e-01" purity="1.4379286766052246e-01" nType="0">
          <Node pos="l" depth="2" NCoef="0" IVar="-1" Cut="0.0000000000000000e+00" cType="1" res="4.3473055120557547e-04" rms="1.7603522539138794e-01" purity="1.3997343182563782e-01" nType="-99"/>
          <Node pos="r" depth="2" NCoef="0" IVar="-1" Cut="0.0000000000000000e+00" cType="1" res="-6.2854876741766930e-03" rms="2.0271697640419006e-01" purity="1.4670470356941223e-01" nType="-99"/>
        </Node>
      </Node>
    </BinaryTree>
    <BinaryTree type="DecisionTree" boostWeight="1.0000000000000000e+00" itree="1386">
      <Node pos="s" depth="0" NCoef="0" IVar="1" Cut="1.7478921413421631e+00" cType="1" res="2.0523651037365198e-03" rms="2.2971917688846588e-01" purity="5.0177961587905884e-01" nType="0">
        <Node pos="l" depth="1" NCoef="0" IVar="-1" Cut="0.0000000000000000e+00" cType="1" res="-1.1660122871398926e+00" rms="0.0000000000000000e+00" purity="-4.6767145395278931e-02" nType="-99"/>
        <Node pos="r" depth="1" NCoef="0" IVar="21" Cut="1.2345679104328156e-02" cType="1" res="4.0128938853740692e-03" rms="2.3820787668228149e-01" purity="5.2366900444030762e-01" nType="0">
          <Node pos="l" depth="2" NCoef="0" IVar="-1" Cut="0.0000000000000000e+00" cType="1" res="5.8696488849818707e-03" rms="3.6496034264564514e-01" purity="3.9142650365829468e-01" nType="-99"/>
          <Node pos="r" depth="2" NCoef="0" IVar="-1" Cut="0.0000000000000000e+00" cType="1" res="2.6878505013883114e-04" rms="2.3124074935913086e-01" purity="5.2916532754898071e-01" nType="-99"/>
        </Node>
      </Node>
    </BinaryTree>
    <BinaryTree type="DecisionTree" boostWeight="1.0000000000000000e+00" itree="1387">
      <Node pos="s" depth="0" NCoef="0" IVar="36" Cut="1.4853361845016479e+00" cType="1" res="2.8397063724696636e-03" rms="2.2729296982288361e-01" purity="5.0096154212951660e-01" nType="0">
        <Node pos="l" depth="1" NCoef="0" IVar="34" Cut="1.4451576471328735e+00" cType="1" res="5.5585214868187904e-03" rms="2.2941571474075317e-01" purity="5.3393822908401489e-01" nType="0">
          <Node pos="l" depth="2" NCoef="0" IVar="-1" Cut="0.0000000000000000e+00" cType="1" res="1.0706902248784900e-03" rms="2.3031409084796906e-01" purity="5.5169767141342163e-01" nType="-99"/>
          <Node pos="r" depth="2" NCoef="0" IVar="-1" Cut="0.0000000000000000e+00" cType="1" res="-7.6050953939557076e-03" rms="1.9592237472534180e-01" purity="1.0496415942907333e-01" nType="-99"/>
        </Node>
        <Node pos="r" depth="1" NCoef="0" IVar="34" Cut="1.4876804351806641e+00" cType="1" res="-3.4960541874170303e-02" rms="1.9144631922245026e-01" purity="4.2479377239942551e-02" nType="0">
          <Node pos="l" depth="2" NCoef="0" IVar="-1" Cut="0.0000000000000000e+00" cType="1" res="-9.4205690547823906e-03" rms="2.2091327607631683e-01" purity="5.1597461104393005e-02" nType="-99"/>
          <Node pos="r" depth="2" NCoef="0" IVar="-1" Cut="0.0000000000000000e+00" cType="1" res="-1.7290243413299322e-03" rms="1.6405327618122101e-01" purity="3.6726456135511398e-02" nType="-99"/>
        </Node>
      </Node>
    </BinaryTree>
    <BinaryTree type="DecisionTree" boostWeight="1.0000000000000000e+00" itree="1388">
      <Node pos="s" depth="0" NCoef="0" IVar="64" Cut="1.2345679104328156e-02" cType="1" res="9.1967161279171705e-04" rms="2.2800084948539734e-01" purity="4.9957022070884705e-01" nType="0">
        <Node pos="l" depth="1" NCoef="0" IVar="65" Cut="7.9687595367431641e-01" cType="1" res="3.1348613556474447e-03" rms="2.2869323194026947e-01" purity="5.0931566953659058e-01" nType="0">
          <Node pos="l" depth="2" NCoef="0" IVar="-1" Cut="0.0000000000000000e+00" cType="1" res="6.5484171500429511e-04" rms="2.3162972927093506e-01" purity="5.2534621953964233e-01" nType="-99"/>
          <Node pos="r" depth="2" NCoef="0" IVar="-1" Cut="0.0000000000000000e+00" cType="1" res="-7.9135764390230179e-03" rms="1.2215514481067657e-01" purity="9.5145516097545624e-02" nType="-99"/>
        </Node>
        <Node pos="r" depth="1" NCoef="0" IVar="55" Cut="-7.2033911943435669e-01" cType="1" res="-4.8455998301506042e-02" rms="2.0588584244251251e-01" purity="2.8234785795211792e-01" nType="0">
          <Node pos="l" depth="2" NCoef="0" IVar="-1" Cut="0.0000000000000000e+00" cType="1" res="-9.1947929468005896e-04" rms="2.4180634319782257e-01" purity="4.4413891434669495e-01" nType="-99"/>
          <Node pos="r" depth="2" NCoef="0" IVar="-1" Cut="0.0000000000000000e+00" cType="1" res="-1.6478359699249268e-02" rms="1.4173644781112671e-01" purity="9.9793709814548492e-02" nType="-99"/>
        </Node>
      </Node>
    </BinaryTree>
    <BinaryTree type="DecisionTree" boostWeight="1.0000000000000000e+00" itree="1389">
      <Node pos="s" depth="0" NCoef="0" IVar="45" Cut="2.8050863742828369e+00" cType="1" res="-2.6737840380519629e-03" rms="2.2122131288051605e-01" purity="4.9896508455276489e-01" nType="0">
        <Node pos="l" depth="1" NCoef="0" IVar="20" Cut="6.2982767820358276e-02" cType="1" res="-9.5882872119545937e-03" rms="2.2062228620052338e-01" purity="4.0187826752662659e-01" nType="0">
          <Node pos="l" depth="2" NCoef="0" IVar="-1" Cut="0.0000000000000000e+00" cType="1" res="-3.7516120937652886e-04" rms="2.3557482659816742e-01" purity="4.2078894376754761e-01" nType="-99"/>
          <Node pos="r" depth="2" NCoef="0" IVar="-1" Cut="0.0000000000000000e+00" cType="1" res="-4.3542217463254929e-03" rms="1.6067713499069214e-01" purity="3.4019580483436584e-01" nType="-99"/>
        </Node>
        <Node pos="r" depth="1" NCoef="0" IVar="14" Cut="-1.2989310026168823e+00" cType="1" res="1.8946772441267967e-02" rms="2.2169689834117889e-01" purity="8.0254024267196655e-01" nType="0">
          <Node pos="l" depth="2" NCoef="0" IVar="-1" Cut="0.0000000000000000e+00" cType="1" res="2.7360161766409874e-02" rms="3.2790893316268921e-01" purity="1.6408725082874298e-01" nType="-99"/>
          <Node pos="r" depth="2" NCoef="0" IVar="-1" Cut="0.0000000000000000e+00" cType="1" res="1.3437019661068916e-03" rms="2.0505970716476440e-01" purity="8.7074673175811768e-01" nType="-99"/>
        </Node>
      </Node>
    </BinaryTree>
    <BinaryTree type="DecisionTree" boostWeight="1.0000000000000000e+00" itree="1390">
      <Node pos="s" depth="0" NCoef="0" IVar="45" Cut="1.2292560338973999e+00" cType="1" res="6.0731865232810378e-04" rms="2.2614908218383789e-01" purity="5.0236541032791138e-01" nType="0">
        <Node pos="l" depth="1" NCoef="0" IVar="0" Cut="7.5915056467056274e-01" cType="1" res="-2.0401582121849060e-02" rms="1.3378642499446869e-01" purity="1.0955636948347092e-01" nType="0">
          <Node pos="l" depth="2" NCoef="0" IVar="-1" Cut="0.0000000000000000e+00" cType="1" res="6.1358720995485783e-04" rms="1.9898630678653717e-01" purity="1.7083407938480377e-01" nType="-99"/>
          <Node pos="r" depth="2" NCoef="0" IVar="-1" Cut="0.0000000000000000e+00" cType="1" res="-1.7657164484262466e-02" rms="0.0000000000000000e+00" purity="3.3522313460707664e-03" nType="-99"/>
        </Node>
        <Node pos="r" depth="1" NCoef="0" IVar="4" Cut="3.7107083797454834e+00" cType="1" res="4.5098117552697659e-03" rms="2.3921018838882446e-01" purity="5.7533133029937744e-01" nType="0">
          <Node pos="l" depth="2" NCoef="0" IVar="-1" Cut="0.0000000000000000e+00" cType="1" res="2.3137931711971760e-03" rms="2.3455297946929932e-01" purity="5.6650304794311523e-01" nType="-99"/>
          <Node pos="r" depth="2" NCoef="0" IVar="-1" Cut="0.0000000000000000e+00" cType="1" res="-7.2552851634100080e-04" rms="2.4272701144218445e-01" purity="5.8309555053710938e-01" nType="-99"/>
        </Node>
      </Node>
    </BinaryTree>
    <BinaryTree type="DecisionTree" boostWeight="1.0000000000000000e+00" itree="1391">
      <Node pos="s" depth="0" NCoef="0" IVar="25" Cut="2.1344408988952637e+00" cType="1" res="1.7204192408826202e-04" rms="2.2396744787693024e-01" purity="4.9897757172584534e-01" nType="0">
        <Node pos="l" depth="1" NCoef="0" IVar="14" Cut="-1.1441507339477539e+00" cType="1" res="-1.0445861145853996e-02" rms="2.0616015791893005e-01" purity="2.8457632660865784e-01" nType="0">
          <Node pos="l" depth="2" NCoef="0" IVar="-1" Cut="0.0000000000000000e+00" cType="1" res="-8.8187128305435181e-02" rms="0.0000000000000000e+00" purity="-3.2261885702610016e-02" nType="-99"/>
