<?xml version="1.0"?>
<MethodSetup Method="BDT::GBDT">
  <GeneralInfo>
    <Info name="TMVA Release" value="4.2.1 [262657]"/>
    <Info name="ROOT Release" value="6.14/04 [396804]"/>
    <Info name="Creator" value="mstahl"/>
    <Info name="Date" value="Tue Jan 29 14:04:51 2019"/>
    <Info name="Host" value="Linux lcgapp-slc6-x86-64-25.cern.ch 2.6.32-696.30.1.el6.x86_64 #1 SMP Tue May 22 06:09:36 CEST 2018 x86_64 x86_64 x86_64 GNU/Linux"/>
    <Info name="Dir" value="/auto/sigma0/mstahl/stuff/DfromBBDTs"/>
    <Info name="Training events" value="100000"/>
    <Info name="TrainingTime" value="7.02505525e+02"/>
    <Info name="AnalysisType" value="Classification"/>
  </GeneralInfo>
  <Options>
    <Option name="V" modified="Yes">False</Option>
    <Option name="VerbosityLevel" modified="No">Default</Option>
    <Option name="VarTransform" modified="No">None</Option>
    <Option name="H" modified="Yes">False</Option>
    <Option name="CreateMVAPdfs" modified="No">False</Option>
    <Option name="IgnoreNegWeightsInTraining" modified="No">False</Option>
    <Option name="NTrees" modified="Yes">1600</Option>
    <Option name="MaxDepth" modified="Yes">2</Option>
    <Option name="MinNodeSize" modified="Yes">2.0%</Option>
    <Option name="nCuts" modified="Yes">80</Option>
    <Option name="BoostType" modified="Yes">Grad</Option>
    <Option name="AdaBoostR2Loss" modified="No">quadratic</Option>
    <Option name="UseBaggedBoost" modified="Yes">True</Option>
    <Option name="Shrinkage" modified="Yes">5.000000e-02</Option>
    <Option name="AdaBoostBeta" modified="No">5.000000e-01</Option>
    <Option name="UseRandomisedTrees" modified="No">False</Option>
    <Option name="UseNvars" modified="No">10</Option>
    <Option name="UsePoissonNvars" modified="No">True</Option>
    <Option name="BaggedSampleFraction" modified="No">6.000000e-01</Option>
    <Option name="UseYesNoLeaf" modified="No">True</Option>
    <Option name="NegWeightTreatment" modified="Yes">pray</Option>
    <Option name="Css" modified="No">1.000000e+00</Option>
    <Option name="Cts_sb" modified="No">1.000000e+00</Option>
    <Option name="Ctb_ss" modified="No">1.000000e+00</Option>
    <Option name="Cbb" modified="No">1.000000e+00</Option>
    <Option name="NodePurityLimit" modified="No">5.000000e-01</Option>
    <Option name="SeparationType" modified="No">giniindex</Option>
    <Option name="RegressionLossFunctionBDTG" modified="Yes">absolutedeviation</Option>
    <Option name="HuberQuantile" modified="No">7.000000e-01</Option>
    <Option name="DoBoostMonitor" modified="No">False</Option>
    <Option name="UseFisherCuts" modified="No">False</Option>
    <Option name="MinLinCorrForFisher" modified="No">8.000000e-01</Option>
    <Option name="UseExclusiveVars" modified="No">False</Option>
    <Option name="DoPreselection" modified="No">False</Option>
    <Option name="SigToBkgFraction" modified="No">1.000000e+00</Option>
    <Option name="PruneMethod" modified="No">nopruning</Option>
    <Option name="PruneStrength" modified="No">0.000000e+00</Option>
    <Option name="PruningValFraction" modified="No">5.000000e-01</Option>
    <Option name="SkipNormalization" modified="No">False</Option>
    <Option name="nEventsMin" modified="No">0</Option>
    <Option name="UseBaggedGrad" modified="No">False</Option>
    <Option name="GradBaggingFraction" modified="No">6.000000e-01</Option>
    <Option name="UseNTrainEvents" modified="No">0</Option>
    <Option name="NNodesMax" modified="No">0</Option>
  </Options>
  <Variables NVar="90">
    <Variable VarIndex="0" Expression="Xic0_log_ENDVERTEX_CHI2" Label="Xic0_log_ENDVERTEX_CHI2" Title="Xic0_log_ENDVERTEX_CHI2" Unit=" " Internal="Xic0_log_ENDVERTEX_CHI2" Type="F" Min="-4.28331804e+00" Max="1.69881320e+00"/>
    <Variable VarIndex="1" Expression="Xic0_log_FDCHI2_OWNPV" Label="Xic0_log_FDCHI2_OWNPV" Title="Xic0_log_FDCHI2_OWNPV" Unit=" " Internal="Xic0_log_FDCHI2_OWNPV" Type="F" Min="1.49835169e+00" Max="6.17312384e+00"/>
    <Variable VarIndex="2" Expression="Xic0_log_IPCHI2_OWNPV" Label="Xic0_log_IPCHI2_OWNPV" Title="Xic0_log_IPCHI2_OWNPV" Unit=" " Internal="Xic0_log_IPCHI2_OWNPV" Type="F" Min="-2.93707681e+00" Max="4.93240499e+00"/>
    <Variable VarIndex="3" Expression="Xic0_log_P" Label="Xic0_log_P" Title="Xic0_log_P" Unit=" " Internal="Xic0_log_P" Type="F" Min="4.01493120e+00" Max="6.14120197e+00"/>
    <Variable VarIndex="4" Expression="Xic0_log_PT" Label="Xic0_log_PT" Title="Xic0_log_PT" Unit=" " Internal="Xic0_log_PT" Type="F" Min="3.09658957e+00" Max="4.84554625e+00"/>
    <Variable VarIndex="5" Expression="Xic0_beta" Label="Xic0_beta" Title="Xic0_beta" Unit=" " Internal="Xic0_beta" Type="F" Min="-4.88686502e-01" Max="6.18818462e-01"/>
    <Variable VarIndex="6" Expression="Xic0_p_log_IPCHI2_OWNPV" Label="Xic0_p_log_IPCHI2_OWNPV" Title="Xic0_p_log_IPCHI2_OWNPV" Unit=" " Internal="Xic0_p_log_IPCHI2_OWNPV" Type="F" Min="6.02178633e-01" Max="4.96529341e+00"/>
    <Variable VarIndex="7" Expression="Xic0_p_atan_MuonLLbg" Label="Xic0_p_atan_MuonLLbg" Title="Xic0_p_atan_MuonLLbg" Unit=" " Internal="Xic0_p_atan_MuonLLbg" Type="F" Min="-1.57069635e+00" Max="7.09988084e-03"/>
    <Variable VarIndex="8" Expression="Xic0_p_atan_MuonLLmu" Label="Xic0_p_atan_MuonLLmu" Title="Xic0_p_atan_MuonLLmu" Unit=" " Internal="Xic0_p_atan_MuonLLmu" Type="F" Min="-1.57069635e+00" Max="0.00000000e+00"/>
    <Variable VarIndex="9" Expression="Xic0_p_MuonNShared" Label="Xic0_p_MuonNShared" Title="Xic0_p_MuonNShared" Unit=" " Internal="Xic0_p_MuonNShared" Type="F" Min="-1.00000000e+00" Max="2.40000000e+01"/>
    <Variable VarIndex="10" Expression="Xic0_p_log_PT" Label="Xic0_p_log_PT" Title="Xic0_p_log_PT" Unit=" " Internal="Xic0_p_log_PT" Type="F" Min="2.02973819e+00" Max="4.54378891e+00"/>
    <Variable VarIndex="11" Expression="Xic0_p_RichAboveKaThres" Label="Xic0_p_RichAboveKaThres" Title="Xic0_p_RichAboveKaThres" Unit=" " Internal="Xic0_p_RichAboveKaThres" Type="F" Min="0.00000000e+00" Max="1.00000000e+00"/>
    <Variable VarIndex="12" Expression="Xic0_p_RichAbovePrThres" Label="Xic0_p_RichAbovePrThres" Title="Xic0_p_RichAbovePrThres" Unit=" " Internal="Xic0_p_RichAbovePrThres" Type="F" Min="0.00000000e+00" Max="1.00000000e+00"/>
    <Variable VarIndex="13" Expression="Xic0_p_atan_RichDLLbt" Label="Xic0_p_atan_RichDLLbt" Title="Xic0_p_atan_RichDLLbt" Unit=" " Internal="Xic0_p_atan_RichDLLbt" Type="F" Min="-1.56979632e+00" Max="1.55583465e+00"/>
    <Variable VarIndex="14" Expression="Xic0_p_atan_RichDLLe" Label="Xic0_p_atan_RichDLLe" Title="Xic0_p_atan_RichDLLe" Unit=" " Internal="Xic0_p_atan_RichDLLe" Type="F" Min="-1.56979632e+00" Max="1.56281567e+00"/>
    <Variable VarIndex="15" Expression="Xic0_p_atan_RichDLLk" Label="Xic0_p_atan_RichDLLk" Title="Xic0_p_atan_RichDLLk" Unit=" " Internal="Xic0_p_atan_RichDLLk" Type="F" Min="-1.56979632e+00" Max="1.56105053e+00"/>
    <Variable VarIndex="16" Expression="Xic0_p_atan_RichDLLmu" Label="Xic0_p_atan_RichDLLmu" Title="Xic0_p_atan_RichDLLmu" Unit=" " Internal="Xic0_p_atan_RichDLLmu" Type="F" Min="-1.56979632e+00" Max="1.55269909e+00"/>
    <Variable VarIndex="17" Expression="Xic0_p_atan_RichDLLp" Label="Xic0_p_atan_RichDLLp" Title="Xic0_p_atan_RichDLLp" Unit=" " Internal="Xic0_p_atan_RichDLLp" Type="F" Min="-1.56979632e+00" Max="1.56318796e+00"/>
    <Variable VarIndex="18" Expression="Xic0_p_log_TRACK_GhostProb" Label="Xic0_p_log_TRACK_GhostProb" Title="Xic0_p_log_TRACK_GhostProb" Unit=" " Internal="Xic0_p_log_TRACK_GhostProb" Type="F" Min="-5.08762121e+00" Max="-3.98149699e-01"/>
    <Variable VarIndex="19" Expression="Xic0_p_log_TRACK_MatchCHI2" Label="Xic0_p_log_TRACK_MatchCHI2" Title="Xic0_p_log_TRACK_MatchCHI2" Unit=" " Internal="Xic0_p_log_TRACK_MatchCHI2" Type="F" Min="-1.42727578e+00" Max="2.10877419e+00"/>
    <Variable VarIndex="20" Expression="Xic0_p_log_TRACK_TCHI2NDOF" Label="Xic0_p_log_TRACK_TCHI2NDOF" Title="Xic0_p_log_TRACK_TCHI2NDOF" Unit=" " Internal="Xic0_p_log_TRACK_TCHI2NDOF" Type="F" Min="-2.57272005e+00" Max="1.13345993e+00"/>
    <Variable VarIndex="21" Expression="Xic0_p_log_TRACK_VeloCHI2NDOF" Label="Xic0_p_log_TRACK_VeloCHI2NDOF" Title="Xic0_p_log_TRACK_VeloCHI2NDOF" Unit=" " Internal="Xic0_p_log_TRACK_VeloCHI2NDOF" Type="F" Min="-3.36871076e+00" Max="1.09738016e+00"/>
    <Variable VarIndex="22" Expression="Xic0_p_UsedRich1Gas" Label="Xic0_p_UsedRich1Gas" Title="Xic0_p_UsedRich1Gas" Unit=" " Internal="Xic0_p_UsedRich1Gas" Type="F" Min="0.00000000e+00" Max="1.00000000e+00"/>
    <Variable VarIndex="23" Expression="Xic0_p_UsedRich2Gas" Label="Xic0_p_UsedRich2Gas" Title="Xic0_p_UsedRich2Gas" Unit=" " Internal="Xic0_p_UsedRich2Gas" Type="F" Min="0.00000000e+00" Max="1.00000000e+00"/>
    <Variable VarIndex="24" Expression="Xic0_p_UsedRichAerogel" Label="Xic0_p_UsedRichAerogel" Title="Xic0_p_UsedRichAerogel" Unit=" " Internal="Xic0_p_UsedRichAerogel" Type="F" Min="0.00000000e+00" Max="1.00000000e+00"/>
    <Variable VarIndex="25" Expression="Xic0_p_VeloCharge" Label="Xic0_p_VeloCharge" Title="Xic0_p_VeloCharge" Unit=" " Internal="Xic0_p_VeloCharge" Type="F" Min="5.43071151e-01" Max="4.01217222e+00"/>
    <Variable VarIndex="26" Expression="Xic0_p_isMuon" Label="Xic0_p_isMuon" Title="Xic0_p_isMuon" Unit=" " Internal="Xic0_p_isMuon" Type="F" Min="0.00000000e+00" Max="1.00000000e+00"/>
    <Variable VarIndex="27" Expression="Xic0_K1_log_IPCHI2_OWNPV" Label="Xic0_K1_log_IPCHI2_OWNPV" Title="Xic0_K1_log_IPCHI2_OWNPV" Unit=" " Internal="Xic0_K1_log_IPCHI2_OWNPV" Type="F" Min="5.92340410e-01" Max="4.85611105e+00"/>
    <Variable VarIndex="28" Expression="Xic0_K1_atan_MuonLLbg" Label="Xic0_K1_atan_MuonLLbg" Title="Xic0_K1_atan_MuonLLbg" Unit=" " Internal="Xic0_K1_atan_MuonLLbg" Type="F" Min="-1.57069635e+00" Max="2.01972537e-02"/>
    <Variable VarIndex="29" Expression="Xic0_K1_atan_MuonLLmu" Label="Xic0_K1_atan_MuonLLmu" Title="Xic0_K1_atan_MuonLLmu" Unit=" " Internal="Xic0_K1_atan_MuonLLmu" Type="F" Min="-1.57069635e+00" Max="0.00000000e+00"/>
    <Variable VarIndex="30" Expression="Xic0_K1_MuonNShared" Label="Xic0_K1_MuonNShared" Title="Xic0_K1_MuonNShared" Unit=" " Internal="Xic0_K1_MuonNShared" Type="F" Min="-1.00000000e+00" Max="4.50000000e+01"/>
    <Variable VarIndex="31" Expression="Xic0_K1_log_PT" Label="Xic0_K1_log_PT" Title="Xic0_K1_log_PT" Unit=" " Internal="Xic0_K1_log_PT" Type="F" Min="2.00052047e+00" Max="4.37725019e+00"/>
    <Variable VarIndex="32" Expression="Xic0_K1_RichAboveKaThres" Label="Xic0_K1_RichAboveKaThres" Title="Xic0_K1_RichAboveKaThres" Unit=" " Internal="Xic0_K1_RichAboveKaThres" Type="F" Min="0.00000000e+00" Max="1.00000000e+00"/>
    <Variable VarIndex="33" Expression="Xic0_K1_RichAbovePrThres" Label="Xic0_K1_RichAbovePrThres" Title="Xic0_K1_RichAbovePrThres" Unit=" " Internal="Xic0_K1_RichAbovePrThres" Type="F" Min="0.00000000e+00" Max="1.00000000e+00"/>
    <Variable VarIndex="34" Expression="Xic0_K1_atan_RichDLLbt" Label="Xic0_K1_atan_RichDLLbt" Title="Xic0_K1_atan_RichDLLbt" Unit=" " Internal="Xic0_K1_atan_RichDLLbt" Type="F" Min="-1.56979632e+00" Max="1.55335784e+00"/>
    <Variable VarIndex="35" Expression="Xic0_K1_atan_RichDLLe" Label="Xic0_K1_atan_RichDLLe" Title="Xic0_K1_atan_RichDLLe" Unit=" " Internal="Xic0_K1_atan_RichDLLe" Type="F" Min="-1.56979632e+00" Max="1.56140769e+00"/>
    <Variable VarIndex="36" Expression="Xic0_K1_atan_RichDLLk" Label="Xic0_K1_atan_RichDLLk" Title="Xic0_K1_atan_RichDLLk" Unit=" " Internal="Xic0_K1_atan_RichDLLk" Type="F" Min="-1.56979632e+00" Max="1.56320107e+00"/>
    <Variable VarIndex="37" Expression="Xic0_K1_atan_RichDLLmu" Label="Xic0_K1_atan_RichDLLmu" Title="Xic0_K1_atan_RichDLLmu" Unit=" " Internal="Xic0_K1_atan_RichDLLmu" Type="F" Min="-1.56979632e+00" Max="1.55847490e+00"/>
    <Variable VarIndex="38" Expression="Xic0_K1_atan_RichDLLp" Label="Xic0_K1_atan_RichDLLp" Title="Xic0_K1_atan_RichDLLp" Unit=" " Internal="Xic0_K1_atan_RichDLLp" Type="F" Min="-1.56979632e+00" Max="1.55572712e+00"/>
    <Variable VarIndex="39" Expression="Xic0_K1_log_TRACK_GhostProb" Label="Xic0_K1_log_TRACK_GhostProb" Title="Xic0_K1_log_TRACK_GhostProb" Unit=" " Internal="Xic0_K1_log_TRACK_GhostProb" Type="F" Min="-5.58764219e+00" Max="-3.97945076e-01"/>
    <Variable VarIndex="40" Expression="Xic0_K1_log_TRACK_MatchCHI2" Label="Xic0_K1_log_TRACK_MatchCHI2" Title="Xic0_K1_log_TRACK_MatchCHI2" Unit=" " Internal="Xic0_K1_log_TRACK_MatchCHI2" Type="F" Min="-1.65679002e+00" Max="2.13195705e+00"/>
    <Variable VarIndex="41" Expression="Xic0_K1_log_TRACK_TCHI2NDOF" Label="Xic0_K1_log_TRACK_TCHI2NDOF" Title="Xic0_K1_log_TRACK_TCHI2NDOF" Unit=" " Internal="Xic0_K1_log_TRACK_TCHI2NDOF" Type="F" Min="-2.42883182e+00" Max="9.55023646e-01"/>
    <Variable VarIndex="42" Expression="Xic0_K1_log_TRACK_VeloCHI2NDOF" Label="Xic0_K1_log_TRACK_VeloCHI2NDOF" Title="Xic0_K1_log_TRACK_VeloCHI2NDOF" Unit=" " Internal="Xic0_K1_log_TRACK_VeloCHI2NDOF" Type="F" Min="-3.11968708e+00" Max="1.62709570e+00"/>
    <Variable VarIndex="43" Expression="Xic0_K1_UsedRich1Gas" Label="Xic0_K1_UsedRich1Gas" Title="Xic0_K1_UsedRich1Gas" Unit=" " Internal="Xic0_K1_UsedRich1Gas" Type="F" Min="0.00000000e+00" Max="1.00000000e+00"/>
    <Variable VarIndex="44" Expression="Xic0_K1_UsedRich2Gas" Label="Xic0_K1_UsedRich2Gas" Title="Xic0_K1_UsedRich2Gas" Unit=" " Internal="Xic0_K1_UsedRich2Gas" Type="F" Min="0.00000000e+00" Max="1.00000000e+00"/>
    <Variable VarIndex="45" Expression="Xic0_K1_UsedRichAerogel" Label="Xic0_K1_UsedRichAerogel" Title="Xic0_K1_UsedRichAerogel" Unit=" " Internal="Xic0_K1_UsedRichAerogel" Type="F" Min="0.00000000e+00" Max="1.00000000e+00"/>
    <Variable VarIndex="46" Expression="Xic0_K1_VeloCharge" Label="Xic0_K1_VeloCharge" Title="Xic0_K1_VeloCharge" Unit=" " Internal="Xic0_K1_VeloCharge" Type="F" Min="6.12359524e-01" Max="3.88202238e+00"/>
    <Variable VarIndex="47" Expression="Xic0_K1_isMuon" Label="Xic0_K1_isMuon" Title="Xic0_K1_isMuon" Unit=" " Internal="Xic0_K1_isMuon" Type="F" Min="0.00000000e+00" Max="1.00000000e+00"/>
    <Variable VarIndex="48" Expression="Xic0_K2_log_IPCHI2_OWNPV" Label="Xic0_K2_log_IPCHI2_OWNPV" Title="Xic0_K2_log_IPCHI2_OWNPV" Unit=" " Internal="Xic0_K2_log_IPCHI2_OWNPV" Type="F" Min="5.65139353e-01" Max="4.67060518e+00"/>
    <Variable VarIndex="49" Expression="Xic0_K2_atan_MuonLLbg" Label="Xic0_K2_atan_MuonLLbg" Title="Xic0_K2_atan_MuonLLbg" Unit=" " Internal="Xic0_K2_atan_MuonLLbg" Type="F" Min="-1.57069635e+00" Max="2.48948559e-02"/>
    <Variable VarIndex="50" Expression="Xic0_K2_atan_MuonLLmu" Label="Xic0_K2_atan_MuonLLmu" Title="Xic0_K2_atan_MuonLLmu" Unit=" " Internal="Xic0_K2_atan_MuonLLmu" Type="F" Min="-1.57069635e+00" Max="0.00000000e+00"/>
    <Variable VarIndex="51" Expression="Xic0_K2_MuonNShared" Label="Xic0_K2_MuonNShared" Title="Xic0_K2_MuonNShared" Unit=" " Internal="Xic0_K2_MuonNShared" Type="F" Min="-1.00000000e+00" Max="3.00000000e+01"/>
    <Variable VarIndex="52" Expression="Xic0_K2_log_PT" Label="Xic0_K2_log_PT" Title="Xic0_K2_log_PT" Unit=" " Internal="Xic0_K2_log_PT" Type="F" Min="2.00022697e+00" Max="4.32126856e+00"/>
    <Variable VarIndex="53" Expression="Xic0_K2_RichAboveKaThres" Label="Xic0_K2_RichAboveKaThres" Title="Xic0_K2_RichAboveKaThres" Unit=" " Internal="Xic0_K2_RichAboveKaThres" Type="F" Min="0.00000000e+00" Max="1.00000000e+00"/>
    <Variable VarIndex="54" Expression="Xic0_K2_RichAbovePrThres" Label="Xic0_K2_RichAbovePrThres" Title="Xic0_K2_RichAbovePrThres" Unit=" " Internal="Xic0_K2_RichAbovePrThres" Type="F" Min="0.00000000e+00" Max="1.00000000e+00"/>
    <Variable VarIndex="55" Expression="Xic0_K2_atan_RichDLLbt" Label="Xic0_K2_atan_RichDLLbt" Title="Xic0_K2_atan_RichDLLbt" Unit=" " Internal="Xic0_K2_atan_RichDLLbt" Type="F" Min="-1.56979632e+00" Max="1.55450249e+00"/>
    <Variable VarIndex="56" Expression="Xic0_K2_atan_RichDLLe" Label="Xic0_K2_atan_RichDLLe" Title="Xic0_K2_atan_RichDLLe" Unit=" " Internal="Xic0_K2_atan_RichDLLe" Type="F" Min="-1.56979632e+00" Max="1.56105340e+00"/>
    <Variable VarIndex="57" Expression="Xic0_K2_atan_RichDLLk" Label="Xic0_K2_atan_RichDLLk" Title="Xic0_K2_atan_RichDLLk" Unit=" " Internal="Xic0_K2_atan_RichDLLk" Type="F" Min="-1.56979632e+00" Max="1.56284058e+00"/>
    <Variable VarIndex="58" Expression="Xic0_K2_atan_RichDLLmu" Label="Xic0_K2_atan_RichDLLmu" Title="Xic0_K2_atan_RichDLLmu" Unit=" " Internal="Xic0_K2_atan_RichDLLmu" Type="F" Min="-1.56979632e+00" Max="1.55325663e+00"/>
    <Variable VarIndex="59" Expression="Xic0_K2_atan_RichDLLp" Label="Xic0_K2_atan_RichDLLp" Title="Xic0_K2_atan_RichDLLp" Unit=" " Internal="Xic0_K2_atan_RichDLLp" Type="F" Min="-1.56979632e+00" Max="1.55623889e+00"/>
    <Variable VarIndex="60" Expression="Xic0_K2_log_TRACK_GhostProb" Label="Xic0_K2_log_TRACK_GhostProb" Title="Xic0_K2_log_TRACK_GhostProb" Unit=" " Internal="Xic0_K2_log_TRACK_GhostProb" Type="F" Min="-4.89603186e+00" Max="-3.97982657e-01"/>
    <Variable VarIndex="61" Expression="Xic0_K2_log_TRACK_MatchCHI2" Label="Xic0_K2_log_TRACK_MatchCHI2" Title="Xic0_K2_log_TRACK_MatchCHI2" Unit=" " Internal="Xic0_K2_log_TRACK_MatchCHI2" Type="F" Min="-1.45579278e+00" Max="2.16355467e+00"/>
    <Variable VarIndex="62" Expression="Xic0_K2_log_TRACK_TCHI2NDOF" Label="Xic0_K2_log_TRACK_TCHI2NDOF" Title="Xic0_K2_log_TRACK_TCHI2NDOF" Unit=" " Internal="Xic0_K2_log_TRACK_TCHI2NDOF" Type="F" Min="-2.09984136e+00" Max="1.15826321e+00"/>
    <Variable VarIndex="63" Expression="Xic0_K2_log_TRACK_VeloCHI2NDOF" Label="Xic0_K2_log_TRACK_VeloCHI2NDOF" Title="Xic0_K2_log_TRACK_VeloCHI2NDOF" Unit=" " Internal="Xic0_K2_log_TRACK_VeloCHI2NDOF" Type="F" Min="-3.20832300e+00" Max="1.55787730e+00"/>
    <Variable VarIndex="64" Expression="Xic0_K2_UsedRich1Gas" Label="Xic0_K2_UsedRich1Gas" Title="Xic0_K2_UsedRich1Gas" Unit=" " Internal="Xic0_K2_UsedRich1Gas" Type="F" Min="0.00000000e+00" Max="1.00000000e+00"/>
    <Variable VarIndex="65" Expression="Xic0_K2_UsedRich2Gas" Label="Xic0_K2_UsedRich2Gas" Title="Xic0_K2_UsedRich2Gas" Unit=" " Internal="Xic0_K2_UsedRich2Gas" Type="F" Min="0.00000000e+00" Max="1.00000000e+00"/>
    <Variable VarIndex="66" Expression="Xic0_K2_UsedRichAerogel" Label="Xic0_K2_UsedRichAerogel" Title="Xic0_K2_UsedRichAerogel" Unit=" " Internal="Xic0_K2_UsedRichAerogel" Type="F" Min="0.00000000e+00" Max="1.00000000e+00"/>
    <Variable VarIndex="67" Expression="Xic0_K2_VeloCharge" Label="Xic0_K2_VeloCharge" Title="Xic0_K2_VeloCharge" Unit=" " Internal="Xic0_K2_VeloCharge" Type="F" Min="5.19662917e-01" Max="4.01217222e+00"/>
    <Variable VarIndex="68" Expression="Xic0_K2_isMuon" Label="Xic0_K2_isMuon" Title="Xic0_K2_isMuon" Unit=" " Internal="Xic0_K2_isMuon" Type="F" Min="0.00000000e+00" Max="1.00000000e+00"/>
    <Variable VarIndex="69" Expression="Xic0_pi_log_IPCHI2_OWNPV" Label="Xic0_pi_log_IPCHI2_OWNPV" Title="Xic0_pi_log_IPCHI2_OWNPV" Unit=" " Internal="Xic0_pi_log_IPCHI2_OWNPV" Type="F" Min="9.71706957e-02" Max="4.60823727e+00"/>
    <Variable VarIndex="70" Expression="Xic0_pi_atan_MuonLLbg" Label="Xic0_pi_atan_MuonLLbg" Title="Xic0_pi_atan_MuonLLbg" Unit=" " Internal="Xic0_pi_atan_MuonLLbg" Type="F" Min="-1.57069635e+00" Max="1.84978899e-02"/>
    <Variable VarIndex="71" Expression="Xic0_pi_atan_MuonLLmu" Label="Xic0_pi_atan_MuonLLmu" Title="Xic0_pi_atan_MuonLLmu" Unit=" " Internal="Xic0_pi_atan_MuonLLmu" Type="F" Min="-1.57069635e+00" Max="0.00000000e+00"/>
    <Variable VarIndex="72" Expression="Xic0_pi_MuonNShared" Label="Xic0_pi_MuonNShared" Title="Xic0_pi_MuonNShared" Unit=" " Internal="Xic0_pi_MuonNShared" Type="F" Min="-1.00000000e+00" Max="3.30000000e+01"/>
    <Variable VarIndex="73" Expression="Xic0_pi_log_PT" Label="Xic0_pi_log_PT" Title="Xic0_pi_log_PT" Unit=" " Internal="Xic0_pi_log_PT" Type="F" Min="2.00004697e+00" Max="4.31562662e+00"/>
    <Variable VarIndex="74" Expression="Xic0_pi_RichAboveKaThres" Label="Xic0_pi_RichAboveKaThres" Title="Xic0_pi_RichAboveKaThres" Unit=" " Internal="Xic0_pi_RichAboveKaThres" Type="F" Min="0.00000000e+00" Max="1.00000000e+00"/>
    <Variable VarIndex="75" Expression="Xic0_pi_RichAbovePrThres" Label="Xic0_pi_RichAbovePrThres" Title="Xic0_pi_RichAbovePrThres" Unit=" " Internal="Xic0_pi_RichAbovePrThres" Type="F" Min="0.00000000e+00" Max="1.00000000e+00"/>
    <Variable VarIndex="76" Expression="Xic0_pi_atan_RichDLLbt" Label="Xic0_pi_atan_RichDLLbt" Title="Xic0_pi_atan_RichDLLbt" Unit=" " Internal="Xic0_pi_atan_RichDLLbt" Type="F" Min="-1.56979632e+00" Max="1.54790807e+00"/>
    <Variable VarIndex="77" Expression="Xic0_pi_atan_RichDLLe" Label="Xic0_pi_atan_RichDLLe" Title="Xic0_pi_atan_RichDLLe" Unit=" " Internal="Xic0_pi_atan_RichDLLe" Type="F" Min="-1.56979632e+00" Max="1.56054902e+00"/>
    <Variable VarIndex="78" Expression="Xic0_pi_atan_RichDLLk" Label="Xic0_pi_atan_RichDLLk" Title="Xic0_pi_atan_RichDLLk" Unit=" " Internal="Xic0_pi_atan_RichDLLk" Type="F" Min="-1.56979632e+00" Max="1.52083790e+00"/>
    <Variable VarIndex="79" Expression="Xic0_pi_atan_RichDLLmu" Label="Xic0_pi_atan_RichDLLmu" Title="Xic0_pi_atan_RichDLLmu" Unit=" " Internal="Xic0_pi_atan_RichDLLmu" Type="F" Min="-1.56979632e+00" Max="1.55764651e+00"/>
    <Variable VarIndex="80" Expression="Xic0_pi_atan_RichDLLp" Label="Xic0_pi_atan_RichDLLp" Title="Xic0_pi_atan_RichDLLp" Unit=" " Internal="Xic0_pi_atan_RichDLLp" Type="F" Min="-1.56979632e+00" Max="1.55704689e+00"/>
    <Variable VarIndex="81" Expression="Xic0_pi_log_TRACK_GhostProb" Label="Xic0_pi_log_TRACK_GhostProb" Title="Xic0_pi_log_TRACK_GhostProb" Unit=" " Internal="Xic0_pi_log_TRACK_GhostProb" Type="F" Min="-4.63987160e+00" Max="-3.98001343e-01"/>
    <Variable VarIndex="82" Expression="Xic0_pi_log_TRACK_MatchCHI2" Label="Xic0_pi_log_TRACK_MatchCHI2" Title="Xic0_pi_log_TRACK_MatchCHI2" Unit=" " Internal="Xic0_pi_log_TRACK_MatchCHI2" Type="F" Min="-1.35561526e+00" Max="2.13856006e+00"/>
    <Variable VarIndex="83" Expression="Xic0_pi_log_TRACK_TCHI2NDOF" Label="Xic0_pi_log_TRACK_TCHI2NDOF" Title="Xic0_pi_log_TRACK_TCHI2NDOF" Unit=" " Internal="Xic0_pi_log_TRACK_TCHI2NDOF" Type="F" Min="-2.63455844e+00" Max="1.13345993e+00"/>
    <Variable VarIndex="84" Expression="Xic0_pi_log_TRACK_VeloCHI2NDOF" Label="Xic0_pi_log_TRACK_VeloCHI2NDOF" Title="Xic0_pi_log_TRACK_VeloCHI2NDOF" Unit=" " Internal="Xic0_pi_log_TRACK_VeloCHI2NDOF" Type="F" Min="-3.15299058e+00" Max="1.57122958e+00"/>
    <Variable VarIndex="85" Expression="Xic0_pi_UsedRich1Gas" Label="Xic0_pi_UsedRich1Gas" Title="Xic0_pi_UsedRich1Gas" Unit=" " Internal="Xic0_pi_UsedRich1Gas" Type="F" Min="0.00000000e+00" Max="1.00000000e+00"/>
    <Variable VarIndex="86" Expression="Xic0_pi_UsedRich2Gas" Label="Xic0_pi_UsedRich2Gas" Title="Xic0_pi_UsedRich2Gas" Unit=" " Internal="Xic0_pi_UsedRich2Gas" Type="F" Min="0.00000000e+00" Max="1.00000000e+00"/>
    <Variable VarIndex="87" Expression="Xic0_pi_UsedRichAerogel" Label="Xic0_pi_UsedRichAerogel" Title="Xic0_pi_UsedRichAerogel" Unit=" " Internal="Xic0_pi_UsedRichAerogel" Type="F" Min="0.00000000e+00" Max="1.00000000e+00"/>
    <Variable VarIndex="88" Expression="Xic0_pi_VeloCharge" Label="Xic0_pi_VeloCharge" Title="Xic0_pi_VeloCharge" Unit=" " Internal="Xic0_pi_VeloCharge" Type="F" Min="4.91573036e-01" Max="4.33988762e+00"/>
    <Variable VarIndex="89" Expression="Xic0_pi_isMuon" Label="Xic0_pi_isMuon" Title="Xic0_pi_isMuon" Unit=" " Internal="Xic0_pi_isMuon" Type="F" Min="0.00000000e+00" Max="1.00000000e+00"/>
  </Variables>
  <Spectators NSpec="0"/>
  <Classes NClass="2">
    <Class Name="Signal" Index="0"/>
    <Class Name="Background" Index="1"/>
  </Classes>
  <Transformations NTransformations="0"/>
  <MVAPdfs/>
  <Weights NTrees="1600" AnalysisType="1">
    <BinaryTree type="DecisionTree" boostWeight="1.0000000000000000e+00" itree="0">
      <Node pos="s" depth="0" NCoef="0" IVar="17" Cut="1.4858303070068359e+00" cType="1" res="2.0839616190642118e-03" rms="4.9999564886093140e-01" purity="5.0208395719528198e-01" nType="0">
        <Node pos="l" depth="1" NCoef="0" IVar="17" Cut="1.2972067594528198e+00" cType="1" res="-3.7220054864883423e-01" rms="3.3386638760566711e-01" purity="1.2779948115348816e-01" nType="0">
          <Node pos="l" depth="2" NCoef="0" IVar="-1" Cut="0.0000000000000000e+00" cType="1" res="-4.4783558696508408e-02" rms="2.2235849499702454e-01" purity="5.2164431661367416e-02" nType="-99"/>
          <Node pos="r" depth="2" NCoef="0" IVar="-1" Cut="0.0000000000000000e+00" cType="1" res="-2.2837135940790176e-02" rms="4.4479942321777344e-01" purity="2.7162861824035645e-01" nType="-99"/>
        </Node>
        <Node pos="r" depth="1" NCoef="0" IVar="36" Cut="1.4084851741790771e+00" cType="1" res="2.4099420011043549e-01" rms="4.3808880448341370e-01" purity="7.4099421501159668e-01" nType="0">
          <Node pos="l" depth="2" NCoef="0" IVar="-1" Cut="0.0000000000000000e+00" cType="1" res="-1.6448948532342911e-02" rms="4.7216862440109253e-01" purity="3.3551052212715149e-01" nType="-99"/>
          <Node pos="r" depth="2" NCoef="0" IVar="-1" Cut="0.0000000000000000e+00" cType="1" res="3.3089503645896912e-02" rms="3.7484461069107056e-01" purity="8.3089506626129150e-01" nType="-99"/>
        </Node>
      </Node>
    </BinaryTree>
    <BinaryTree type="DecisionTree" boostWeight="1.0000000000000000e+00" itree="1">
      <Node pos="s" depth="0" NCoef="0" IVar="17" Cut="1.4858303070068359e+00" cType="1" res="-1.5054600080475211e-03" rms="4.8861846327781677e-01" purity="4.9827462434768677e-01" nType="0">
        <Node pos="l" depth="1" NCoef="0" IVar="17" Cut="1.2217580080032349e+00" cType="1" res="-3.5352274775505066e-01" rms="3.3232048153877258e-01" purity="1.2790384888648987e-01" nType="0">
          <Node pos="l" depth="2" NCoef="0" IVar="-1" Cut="0.0000000000000000e+00" cType="1" res="-4.4100929051637650e-02" rms="1.8997663259506226e-01" purity="3.7497159093618393e-02" nType="-99"/>
          <Node pos="r" depth="2" NCoef="0" IVar="-1" Cut="0.0000000000000000e+00" cType="1" res="-2.1633259952068329e-02" rms="4.4449961185455322e-01" purity="2.7127122879028320e-01" nType="-99"/>
        </Node>
        <Node pos="r" depth="1" NCoef="0" IVar="57" Cut="1.3297709226608276e+00" cType="1" res="2.2838899493217468e-01" rms="4.3447297811508179e-01" purity="7.4015527963638306e-01" nType="0">
          <Node pos="l" depth="2" NCoef="0" IVar="-1" Cut="0.0000000000000000e+00" cType="1" res="-1.9524773582816124e-02" rms="4.6023383736610413e-01" purity="3.0999159812927246e-01" nType="-99"/>
          <Node pos="r" depth="2" NCoef="0" IVar="-1" Cut="0.0000000000000000e+00" cType="1" res="3.1002109870314598e-02" rms="3.7852814793586731e-01" purity="8.2276439666748047e-01" nType="-99"/>
        </Node>
      </Node>
    </BinaryTree>
    <BinaryTree type="DecisionTree" boostWeight="1.0000000000000000e+00" itree="2">
      <Node pos="s" depth="0" NCoef="0" IVar="17" Cut="1.4837909936904907e+00" cType="1" res="-6.2959687784314156e-03" rms="4.7819495201110840e-01" purity="4.9275729060173035e-01" nType="0">
        <Node pos="l" depth="1" NCoef="0" IVar="17" Cut="1.4083802700042725e+00" cType="1" res="-3.3251377940177917e-01" rms="3.3424502611160278e-01" purity="1.3105086982250214e-01" nType="0">
          <Node pos="l" depth="2" NCoef="0" IVar="-1" Cut="0.0000000000000000e+00" cType="1" res="-3.8838569074869156e-02" rms="2.5993758440017700e-01" purity="7.3761686682701111e-02" nType="-99"/>
          <Node pos="r" depth="2" NCoef="0" IVar="-1" Cut="0.0000000000000000e+00" cType="1" res="-1.4663245528936386e-02" rms="4.7072961926460266e-01" purity="3.3143660426139832e-01" nType="-99"/>
        </Node>
        <Node pos="r" depth="1" NCoef="0" IVar="57" Cut="1.0591193437576294e+00" cType="1" res="2.1007315814495087e-01" rms="4.3455806374549866e-01" purity="7.3266476392745972e-01" nType="0">
          <Node pos="l" depth="2" NCoef="0" IVar="-1" Cut="0.0000000000000000e+00" cType="1" res="-2.4156464263796806e-02" rms="4.3250474333763123e-01" purity="2.5341162085533142e-01" nType="-99"/>
          <Node pos="r" depth="2" NCoef="0" IVar="-1" Cut="0.0000000000000000e+00" cType="1" res="2.7903011068701744e-02" rms="3.9214557409286499e-01" purity="8.0486404895782471e-01" nType="-99"/>
        </Node>
      </Node>
    </BinaryTree>
    <BinaryTree type="DecisionTree" boostWeight="1.0000000000000000e+00" itree="3">
      <Node pos="s" depth="0" NCoef="0" IVar="17" Cut="1.4858303070068359e+00" cType="1" res="-5.0508842105045915e-04" rms="4.6806696057319641e-01" purity="4.9879714846611023e-01" nType="0">
        <Node pos="l" depth="1" NCoef="0" IVar="17" Cut="1.3349305391311646e+00" cType="1" res="-3.1621563434600830e-01" rms="3.3212289214134216e-01" purity="1.3167418539524078e-01" nType="0">
          <Node pos="l" depth="2" NCoef="0" IVar="-1" Cut="0.0000000000000000e+00" cType="1" res="-4.0896292775869370e-02" rms="1.8389798700809479e-01" purity="3.5312354564666748e-02" nType="-99"/>
          <Node pos="r" depth="2" NCoef="0" IVar="-1" Cut="0.0000000000000000e+00" cType="1" res="-1.4459676109254360e-02" rms="4.6714249253273010e-01" purity="3.2376024127006531e-01" nType="-99"/>
        </Node>
        <Node pos="r" depth="1" NCoef="0" IVar="36" Cut="1.2914973497390747e+00" cType="1" res="2.0889326930046082e-01" rms="4.2576983571052551e-01" purity="7.4229532480239868e-01" nType="0">
          <Node pos="l" depth="2" NCoef="0" IVar="-1" Cut="0.0000000000000000e+00" cType="1" res="-1.9734311848878860e-02" rms="4.5437207818031311e-01" purity="3.0559965968132019e-01" nType="-99"/>
          <Node pos="r" depth="2" NCoef="0" IVar="-1" Cut="0.0000000000000000e+00" cType="1" res="2.8599735349416733e-02" rms="3.7489449977874756e-01" purity="8.2304728031158447e-01" nType="-99"/>
        </Node>
      </Node>
    </BinaryTree>
    <BinaryTree type="DecisionTree" boostWeight="1.0000000000000000e+00" itree="4">
      <Node pos="s" depth="0" NCoef="0" IVar="17" Cut="1.4858303070068359e+00" cType="1" res="8.7481387890875340e-04" rms="4.5811155438423157e-01" purity="5.0208675861358643e-01" nType="0">
        <Node pos="l" depth="1" NCoef="0" IVar="17" Cut="1.2217561006546021e+00" cType="1" res="-3.2471743226051331e-01" rms="3.0175986886024475e-01" purity="1.0700535029172897e-01" nType="0">
          <Node pos="l" depth="2" NCoef="0" IVar="-1" Cut="0.0000000000000000e+00" cType="1" res="-4.1202779859304428e-02" rms="1.2527829408645630e-01" purity="1.5949022024869919e-02" nType="-99"/>
          <Node pos="r" depth="2" NCoef="0" IVar="-1" Cut="0.0000000000000000e+00" cType="1" res="-2.0884884521365166e-02" rms="4.3042239546775818e-01" purity="2.4833194911479950e-01" nType="-99"/>
        </Node>
        <Node pos="r" depth="1" NCoef="0" IVar="36" Cut="1.1377322673797607e+00" cType="1" res="2.0245586335659027e-01" rms="4.2089673876762390e-01" purity="7.4668997526168823e-01" nType="0">
          <Node pos="l" depth="2" NCoef="0" IVar="-1" Cut="0.0000000000000000e+00" cType="1" res="-2.1236991509795189e-02" rms="4.4494664669036865e-01" purity="2.8016746044158936e-01" nType="-99"/>
          <Node pos="r" depth="2" NCoef="0" IVar="-1" Cut="0.0000000000000000e+00" cType="1" res="2.6724586263298988e-02" rms="3.8052007555961609e-01" purity="8.1595838069915771e-01" nType="-99"/>
        </Node>
      </Node>
    </BinaryTree>
    <BinaryTree type="DecisionTree" boostWeight="1.0000000000000000e+00" itree="5">
      <Node pos="s" depth="0" NCoef="0" IVar="17" Cut="1.4836164712905884e+00" cType="1" res="8.8141802698373795e-03" rms="4.5041349530220032e-01" purity="5.0828748941421509e-01" nType="0">
        <Node pos="l" depth="1" NCoef="0" IVar="17" Cut="1.2951159477233887e+00" cType="1" res="-2.7756074070930481e-01" rms="3.3601710200309753e-01" purity="1.3771420717239380e-01" nType="0">
          <Node pos="l" depth="2" NCoef="0" IVar="-1" Cut="0.0000000000000000e+00" cType="1" res="-3.7296950817108154e-02" rms="1.9666342437267303e-01" purity="4.0319308638572693e-02" nType="-99"/>
          <Node pos="r" depth="2" NCoef="0" IVar="-1" Cut="0.0000000000000000e+00" cType="1" res="-1.3431265018880367e-02" rms="4.6386697888374329e-01" purity="3.1453916430473328e-01" nType="-99"/>
        </Node>
        <Node pos="r" depth="1" NCoef="0" IVar="57" Cut="1.3694679737091064e+00" cType="1" res="1.9285686314105988e-01" rms="4.1726791858673096e-01" purity="7.4644136428833008e-01" nType="0">
          <Node pos="l" depth="2" NCoef="0" IVar="-1" Cut="0.0000000000000000e+00" cType="1" res="-1.8150985240936279e-02" rms="4.5622670650482178e-01" purity="3.2216668128967285e-01" nType="-99"/>
          <Node pos="r" depth="2" NCoef="0" IVar="-1" Cut="0.0000000000000000e+00" cType="1" res="2.7609596028923988e-02" rms="3.6295828223228455e-01" purity="8.3520901203155518e-01" nType="-99"/>
        </Node>
      </Node>
    </BinaryTree>
    <BinaryTree type="DecisionTree" boostWeight="1.0000000000000000e+00" itree="6">
      <Node pos="s" depth="0" NCoef="0" IVar="17" Cut="1.4839527606964111e+00" cType="1" res="-1.1844069696962833e-02" rms="4.4182285666465759e-01" purity="4.8705413937568665e-01" nType="0">
        <Node pos="l" depth="1" NCoef="0" IVar="17" Cut="1.4085332155227661e+00" cType="1" res="-2.8662148118019104e-01" rms="3.0934587121009827e-01" purity="1.1463034152984619e-01" nType="0">
          <Node pos="l" depth="2" NCoef="0" IVar="-1" Cut="0.0000000000000000e+00" cType="1" res="-3.5477679222822189e-02" rms="2.1809950470924377e-01" purity="5.1102381199598312e-02" nType="-99"/>
          <Node pos="r" depth="2" NCoef="0" IVar="-1" Cut="0.0000000000000000e+00" cType="1" res="-1.2663751840591431e-02" rms="4.6691700816154480e-01" purity="3.2108074426651001e-01" nType="-99"/>
        </Node>
        <Node pos="r" depth="1" NCoef="0" IVar="36" Cut="5.1817470788955688e-01" cType="1" res="1.6803382337093353e-01" rms="4.2257428169250488e-01" purity="7.3085445165634155e-01" nType="0">
          <Node pos="l" depth="2" NCoef="0" IVar="-1" Cut="0.0000000000000000e+00" cType="1" res="-3.0229702591896057e-02" rms="3.8039472699165344e-01" purity="1.8469999730587006e-01" nType="-99"/>
          <Node pos="r" depth="2" NCoef="0" IVar="-1" Cut="0.0000000000000000e+00" cType="1" res="2.3139243945479393e-02" rms="3.9037904143333435e-01" purity="7.9804766178131104e-01" nType="-99"/>
        </Node>
      </Node>
    </BinaryTree>
    <BinaryTree type="DecisionTree" boostWeight="1.0000000000000000e+00" itree="7">
      <Node pos="s" depth="0" NCoef="0" IVar="17" Cut="1.4858303070068359e+00" cType="1" res="2.5362139567732811e-03" rms="4.3521061539649963e-01" purity="5.0150209665298462e-01" nType="0">
        <Node pos="l" depth="1" NCoef="0" IVar="57" Cut="1.3667345046997070e+00" cType="1" res="-2.5179409980773926e-01" rms="3.3153179287910461e-01" purity="1.3639925420284271e-01" nType="0">
          <Node pos="l" depth="2" NCoef="0" IVar="-1" Cut="0.0000000000000000e+00" cType="1" res="-3.5484481602907181e-02" rms="2.1160973608493805e-01" purity="4.9039781093597412e-02" nType="-99"/>
          <Node pos="r" depth="2" NCoef="0" IVar="-1" Cut="0.0000000000000000e+00" cType="1" res="-1.5391217544674873e-02" rms="4.1684061288833618e-01" purity="2.4860742688179016e-01" nType="-99"/>
        </Node>
        <Node pos="r" depth="1" NCoef="0" IVar="57" Cut="5.9519308805465698e-01" cType="1" res="1.7007143795490265e-01" rms="4.1363838315010071e-01" purity="7.4200665950775146e-01" nType="0">
          <Node pos="l" depth="2" NCoef="0" IVar="-1" Cut="0.0000000000000000e+00" cType="1" res="-3.1751025468111038e-02" rms="3.6986497044563293e-01" purity="1.6989381611347198e-01" nType="-99"/>
          <Node pos="r" depth="2" NCoef="0" IVar="-1" Cut="0.0000000000000000e+00" cType="1" res="2.3480571806430817e-02" rms="3.7960126996040344e-01" purity="8.0961233377456665e-01" nType="-99"/>
        </Node>
      </Node>
    </BinaryTree>
    <BinaryTree type="DecisionTree" boostWeight="1.0000000000000000e+00" itree="8">
      <Node pos="s" depth="0" NCoef="0" IVar="17" Cut="1.4858303070068359e+00" cType="1" res="-7.2541814297437668e-03" rms="4.2578840255737305e-01" purity="4.9286273121833801e-01" nType="0">
        <Node pos="l" depth="1" NCoef="0" IVar="57" Cut="1.4427777528762817e+00" cType="1" res="-2.6508536934852600e-01" rms="3.0047637224197388e-01" purity="1.0936178267002106e-01" nType="0">
          <Node pos="l" depth="2" NCoef="0" IVar="-1" Cut="0.0000000000000000e+00" cType="1" res="-3.5599377006292343e-02" rms="1.8510670959949493e-01" purity="3.7808865308761597e-02" nType="-99"/>
          <Node pos="r" depth="2" NCoef="0" IVar="-1" Cut="0.0000000000000000e+00" cType="1" res="-1.5012333169579506e-02" rms="4.1746848821640015e-01" purity="2.4619993567466736e-01" nType="-99"/>
        </Node>
        <Node pos="r" depth="1" NCoef="0" IVar="36" Cut="1.4074957370758057e+00" cType="1" res="1.5786036849021912e-01" rms="4.1199961304664612e-01" purity="7.3845601081848145e-01" nType="0">
          <Node pos="l" depth="2" NCoef="0" IVar="-1" Cut="0.0000000000000000e+00" cType="1" res="-1.6334906220436096e-02" rms="4.5449462532997131e-01" purity="3.3702278137207031e-01" nType="-99"/>
          <Node pos="r" depth="2" NCoef="0" IVar="-1" Cut="0.0000000000000000e+00" cType="1" res="2.4230204522609711e-02" rms="3.6339676380157471e-01" purity="8.3164471387863159e-01" nType="-99"/>
        </Node>
      </Node>
    </BinaryTree>
    <BinaryTree type="DecisionTree" boostWeight="1.0000000000000000e+00" itree="9">
      <Node pos="s" depth="0" NCoef="0" IVar="17" Cut="1.5224440097808838e+00" cType="1" res="4.2916643433272839e-03" rms="4.2097243666648865e-01" purity="5.0269418954849243e-01" nType="0">
        <Node pos="l" depth="1" NCoef="0" IVar="57" Cut="1.4059585332870483e+00" cType="1" res="-1.6886448860168457e-01" rms="3.8216710090637207e-01" purity="2.4953588843345642e-01" nType="0">
          <Node pos="l" depth="2" NCoef="0" IVar="-1" Cut="0.0000000000000000e+00" cType="1" res="-3.1118609011173248e-02" rms="2.6322928071022034e-01" purity="9.2121370136737823e-02" nType="-99"/>
          <Node pos="r" depth="2" NCoef="0" IVar="-1" Cut="0.0000000000000000e+00" cType="1" res="-3.7519223988056183e-03" rms="4.4651371240615845e-01" purity="4.2767134308815002e-01" nType="-99"/>
        </Node>
        <Node pos="r" depth="1" NCoef="0" IVar="36" Cut="3.6363604664802551e-01" cType="1" res="2.1792611479759216e-01" rms="3.6474341154098511e-01" purity="8.1503260135650635e-01" nType="0">
          <Node pos="l" depth="2" NCoef="0" IVar="-1" Cut="0.0000000000000000e+00" cType="1" res="-2.7417462319135666e-02" rms="3.8734087347984314e-01" purity="1.9588223099708557e-01" nType="-99"/>
          <Node pos="r" depth="2" NCoef="0" IVar="-1" Cut="0.0000000000000000e+00" cType="1" res="2.6589186862111092e-02" rms="3.3729121088981628e-01" purity="8.5882025957107544e-01" nType="-99"/>
        </Node>
      </Node>
    </BinaryTree>
    <BinaryTree type="DecisionTree" boostWeight="1.0000000000000000e+00" itree="10">
      <Node pos="s" depth="0" NCoef="0" IVar="36" Cut="1.4850268363952637e+00" cType="1" res="7.5050391023978591e-04" rms="4.1436156630516052e-01" purity="5.0080794095993042e-01" nType="0">
        <Node pos="l" depth="1" NCoef="0" IVar="2" Cut="2.4246628284454346e+00" cType="1" res="-1.9855979084968567e-01" rms="3.5940226912498474e-01" purity="2.1799957752227783e-01" nType="0">
          <Node pos="l" depth="2" NCoef="0" IVar="-1" Cut="0.0000000000000000e+00" cType="1" res="-3.1916379928588867e-02" rms="2.6881420612335205e-01" purity="1.0181427747011185e-01" nType="-99"/>
          <Node pos="r" depth="2" NCoef="0" IVar="-1" Cut="0.0000000000000000e+00" cType="1" res="-6.3694552518427372e-03" rms="4.2293375730514526e-01" purity="3.8600358366966248e-01" nType="-99"/>
        </Node>
        <Node pos="r" depth="1" NCoef="0" IVar="57" Cut="1.3684318065643311e+00" cType="1" res="1.7182223498821259e-01" rms="3.8057070970535278e-01" purity="7.4354767799377441e-01" nType="0">
          <Node pos="l" depth="2" NCoef="0" IVar="-1" Cut="0.0000000000000000e+00" cType="1" res="-2.4856403470039368e-02" rms="3.5430288314819336e-01" purity="1.9667410850524902e-01" nType="-99"/>
          <Node pos="r" depth="2" NCoef="0" IVar="-1" Cut="0.0000000000000000e+00" cType="1" res="2.7210718020796776e-02" rms="3.2996481657028198e-01" purity="8.5464781522750854e-01" nType="-99"/>
        </Node>
      </Node>
    </BinaryTree>
    <BinaryTree type="DecisionTree" boostWeight="1.0000000000000000e+00" itree="11">
      <Node pos="s" depth="0" NCoef="0" IVar="17" Cut="1.4837909936904907e+00" cType="1" res="-2.9192790389060974e-03" rms="4.0969693660736084e-01" purity="4.9503815174102783e-01" nType="0">
        <Node pos="l" depth="1" NCoef="0" IVar="36" Cut="1.2491601705551147e+00" cType="1" res="-2.2159114480018616e-01" rms="3.1170299649238586e-01" purity="1.2326441705226898e-01" nType="0">
          <Node pos="l" depth="2" NCoef="0" IVar="-1" Cut="0.0000000000000000e+00" cType="1" res="-3.3709041774272919e-02" rms="1.8830029666423798e-01" purity="3.6796379834413528e-02" nType="-99"/>
          <Node pos="r" depth="2" NCoef="0" IVar="-1" Cut="0.0000000000000000e+00" cType="1" res="-1.5429066494107246e-02" rms="3.8607972860336304e-01" purity="2.1424856781959534e-01" nType="-99"/>
        </Node>
        <Node pos="r" depth="1" NCoef="0" IVar="57" Cut="4.0189042687416077e-01" cType="1" res="1.3781225681304932e-01" rms="4.0344545245170593e-01" purity="7.3430204391479492e-01" nType="0">
          <Node pos="l" depth="2" NCoef="0" IVar="-1" Cut="0.0000000000000000e+00" cType="1" res="-3.0532136559486389e-02" rms="3.5243168473243713e-01" purity="1.5662238001823425e-01" nType="-99"/>
          <Node pos="r" depth="2" NCoef="0" IVar="-1" Cut="0.0000000000000000e+00" cType="1" res="1.9908331334590912e-02" rms="3.7878355383872986e-01" purity="7.9868137836456299e-01" nType="-99"/>
        </Node>
      </Node>
    </BinaryTree>
    <BinaryTree type="DecisionTree" boostWeight="1.0000000000000000e+00" itree="12">
      <Node pos="s" depth="0" NCoef="0" IVar="57" Cut="1.4854915142059326e+00" cType="1" res="5.5833919905126095e-03" rms="4.0774676203727722e-01" purity="5.0217086076736450e-01" nType="0">
        <Node pos="l" depth="1" NCoef="0" IVar="17" Cut="1.4422229528427124e+00" cType="1" res="-1.7003607749938965e-01" rms="3.6341518163681030e-01" purity="2.3107700049877167e-01" nType="0">
          <Node pos="l" depth="2" NCoef="0" IVar="-1" Cut="0.0000000000000000e+00" cType="1" res="-3.0562900006771088e-02" rms="2.1596458554267883e-01" purity="5.1103312522172928e-02" nType="-99"/>
          <Node pos="r" depth="2" NCoef="0" IVar="-1" Cut="0.0000000000000000e+00" cType="1" res="-6.7965365014970303e-03" rms="4.5724549889564514e-01" purity="4.3690395355224609e-01" nType="-99"/>
        </Node>
        <Node pos="r" depth="1" NCoef="0" IVar="36" Cut="1.4471641778945923e+00" cType="1" res="1.5945810079574585e-01" rms="3.8145834207534790e-01" purity="7.3969858884811401e-01" nType="0">
          <Node pos="l" depth="2" NCoef="0" IVar="-1" Cut="0.0000000000000000e+00" cType="1" res="-1.1139144189655781e-02" rms="4.2272168397903442e-01" purity="3.4392654895782471e-01" nType="-99"/>
          <Node pos="r" depth="2" NCoef="0" IVar="-1" Cut="0.0000000000000000e+00" cType="1" res="2.6640122756361961e-02" rms="3.2528224587440491e-01" purity="8.6511677503585815e-01" nType="-99"/>
        </Node>
      </Node>
    </BinaryTree>
    <BinaryTree type="DecisionTree" boostWeight="1.0000000000000000e+00" itree="13">
      <Node pos="s" depth="0" NCoef="0" IVar="57" Cut="1.4844145774841309e+00" cType="1" res="-3.0321378726512194e-03" rms="3.9912626147270203e-01" purity="4.9314934015274048e-01" nType="0">
        <Node pos="l" depth="1" NCoef="0" IVar="57" Cut="-5.5172652006149292e-01" cType="1" res="-1.7882105708122253e-01" rms="3.4490260481834412e-01" purity="2.1381923556327820e-01" nType="0">
          <Node pos="l" depth="2" NCoef="0" IVar="-1" Cut="0.0000000000000000e+00" cType="1" res="-3.6360464990139008e-02" rms="1.1154925823211670e-01" purity="1.9696658477187157e-02" nType="-99"/>
          <Node pos="r" depth="2" NCoef="0" IVar="-1" Cut="0.0000000000000000e+00" cType="1" res="-1.0484408587217331e-02" rms="4.0589088201522827e-01" purity="3.3157509565353394e-01" nType="-99"/>
        </Node>
        <Node pos="r" depth="1" NCoef="0" IVar="36" Cut="1.1764112710952759e+00" cType="1" res="1.5021704137325287e-01" rms="3.7953656911849976e-01" purity="7.3666363954544067e-01" nType="0">
          <Node pos="l" depth="2" NCoef="0" IVar="-1" Cut="0.0000000000000000e+00" cType="1" res="-2.4539304897189140e-02" rms="3.5191109776496887e-01" purity="1.7678774893283844e-01" nType="-99"/>
          <Node pos="r" depth="2" NCoef="0" IVar="-1" Cut="0.0000000000000000e+00" cType="1" res="2.3599389940500259e-02" rms="3.4530049562454224e-01" purity="8.3023846149444580e-01" nType="-99"/>
        </Node>
      </Node>
    </BinaryTree>
    <BinaryTree type="DecisionTree" boostWeight="1.0000000000000000e+00" itree="14">
      <Node pos="s" depth="0" NCoef="0" IVar="17" Cut="1.4470868110656738e+00" cType="1" res="4.4086785055696964e-03" rms="3.9504131674766541e-01" purity="5.0328063964843750e-01" nType="0">
        <Node pos="l" depth="1" NCoef="0" IVar="17" Cut="1.2608569860458374e+00" cType="1" res="-2.1186374127864838e-01" rms="2.7528017759323120e-01" purity="9.6569567918777466e-02" nType="0">
          <Node pos="l" depth="2" NCoef="0" IVar="-1" Cut="0.0000000000000000e+00" cType="1" res="-3.1386263668537140e-02" rms="1.6705708205699921e-01" purity="3.3231560140848160e-02" nType="-99"/>
          <Node pos="r" depth="2" NCoef="0" IVar="-1" Cut="0.0000000000000000e+00" cType="1" res="-9.4596073031425476e-03" rms="4.2973339557647705e-01" purity="2.6929706335067749e-01" nType="-99"/>
        </Node>
        <Node pos="r" depth="1" NCoef="0" IVar="57" Cut="1.3297709226608276e+00" cType="1" res="1.1192104220390320e-01" rms="4.0144047141075134e-01" purity="7.0546299219131470e-01" nType="0">
          <Node pos="l" depth="2" NCoef="0" IVar="-1" Cut="0.0000000000000000e+00" cType="1" res="-1.6576973721385002e-02" rms="4.2536994814872742e-01" purity="2.7167686820030212e-01" nType="-99"/>
          <Node pos="r" depth="2" NCoef="0" IVar="-1" Cut="0.0000000000000000e+00" cType="1" res="1.8977634608745575e-02" rms="3.6990985274314880e-01" purity="8.0192476511001587e-01" nType="-99"/>
        </Node>
      </Node>
    </BinaryTree>
    <BinaryTree type="DecisionTree" boostWeight="1.0000000000000000e+00" itree="15">
      <Node pos="s" depth="0" NCoef="0" IVar="17" Cut="1.4839527606964111e+00" cType="1" res="-6.7314994521439075e-03" rms="3.8582661747932434e-01" purity="4.9410158395767212e-01" nType="0">
        <Node pos="l" depth="1" NCoef="0" IVar="17" Cut="1.2954441308975220e+00" cType="1" res="-2.0483464002609253e-01" rms="2.7839764952659607e-01" purity="1.0540493577718735e-01" nType="0">
          <Node pos="l" depth="2" NCoef="0" IVar="-1" Cut="0.0000000000000000e+00" cType="1" res="-3.2358448952436447e-02" rms="1.2804782390594482e-01" purity="1.9544877111911774e-02" nType="-99"/>
          <Node pos="r" depth="2" NCoef="0" IVar="-1" Cut="0.0000000000000000e+00" cType="1" res="-1.0917779989540577e-02" rms="4.2210987210273743e-01" purity="2.6995983719825745e-01" nType="-99"/>
        </Node>
        <Node pos="r" depth="1" NCoef="0" IVar="57" Cut="1.4081424474716187e+00" cType="1" res="1.1606105417013168e-01" rms="3.9203131198883057e-01" purity="7.3503190279006958e-01" nType="0">
          <Node pos="l" depth="2" NCoef="0" IVar="-1" Cut="0.0000000000000000e+00" cType="1" res="-1.4731256291270256e-02" rms="4.4116473197937012e-01" purity="3.2090309262275696e-01" nType="-99"/>
          <Node pos="r" depth="2" NCoef="0" IVar="-1" Cut="0.0000000000000000e+00" cType="1" res="1.9782856106758118e-02" rms="3.5366714000701904e-01" purity="8.3154112100601196e-01" nType="-99"/>
        </Node>
      </Node>
    </BinaryTree>
    <BinaryTree type="DecisionTree" boostWeight="1.0000000000000000e+00" itree="16">
      <Node pos="s" depth="0" NCoef="0" IVar="36" Cut="1.4858430624008179e+00" cType="1" res="-4.7522671520709991e-03" rms="3.8384130597114563e-01" purity="4.9382162094116211e-01" nType="0">
        <Node pos="l" depth="1" NCoef="0" IVar="2" Cut="2.4670968055725098e+00" cType="1" res="-1.5911233425140381e-01" rms="3.4718176722526550e-01" purity="2.1874246001243591e-01" nType="0">
          <Node pos="l" depth="2" NCoef="0" IVar="-1" Cut="0.0000000000000000e+00" cType="1" res="-2.8992051258683205e-02" rms="2.6710641384124756e-01" purity="9.9819824099540710e-02" nType="-99"/>
          <Node pos="r" depth="2" NCoef="0" IVar="-1" Cut="0.0000000000000000e+00" cType="1" res="-2.9704228509217501e-03" rms="4.0843361616134644e-01" purity="4.0104889869689941e-01" nType="-99"/>
        </Node>
        <Node pos="r" depth="1" NCoef="0" IVar="57" Cut="1.3307933807373047e+00" cType="1" res="1.3279028236865997e-01" rms="3.6202812194824219e-01" purity="7.3893094062805176e-01" nType="0">
          <Node pos="l" depth="2" NCoef="0" IVar="-1" Cut="0.0000000000000000e+00" cType="1" res="-1.9170098006725311e-02" rms="3.5493546724319458e-01" purity="2.0907561480998993e-01" nType="-99"/>
          <Node pos="r" depth="2" NCoef="0" IVar="-1" Cut="0.0000000000000000e+00" cType="1" res="2.2044071927666664e-02" rms="3.3272629976272583e-01" purity="8.4171098470687866e-01" nType="-99"/>
        </Node>
      </Node>
    </BinaryTree>
    <BinaryTree type="DecisionTree" boostWeight="1.0000000000000000e+00" itree="17">
      <Node pos="s" depth="0" NCoef="0" IVar="36" Cut="1.4463582038879395e+00" cType="1" res="4.2733224108815193e-03" rms="3.8059401512145996e-01" purity="5.0441277027130127e-01" nType="0">
        <Node pos="l" depth="1" NCoef="0" IVar="2" Cut="2.3321530818939209e+00" cType="1" res="-1.7207188904285431e-01" rms="3.3183443546295166e-01" purity="1.7989362776279449e-01" nType="0">
          <Node pos="l" depth="2" NCoef="0" IVar="-1" Cut="0.0000000000000000e+00" cType="1" res="-3.0288286507129669e-02" rms="2.3477642238140106e-01" purity="7.2060734033584595e-02" nType="-99"/>
          <Node pos="r" depth="2" NCoef="0" IVar="-1" Cut="0.0000000000000000e+00" cType="1" res="-8.7701464071869850e-03" rms="3.9966073632240295e-01" purity="3.0945360660552979e-01" nType="-99"/>
        </Node>
        <Node pos="r" depth="1" NCoef="0" IVar="57" Cut="1.0987461805343628e+00" cType="1" res="1.1820094287395477e-01" rms="3.6636587977409363e-01" purity="7.1406805515289307e-01" nType="0">
          <Node pos="l" depth="2" NCoef="0" IVar="-1" Cut="0.0000000000000000e+00" cType="1" res="-2.3070957511663437e-02" rms="3.1339573860168457e-01" purity="1.4728531241416931e-01" nType="-99"/>
          <Node pos="r" depth="2" NCoef="0" IVar="-1" Cut="0.0000000000000000e+00" cType="1" res="2.0041581243276596e-02" rms="3.4638997912406921e-01" purity="8.1214249134063721e-01" nType="-99"/>
        </Node>
      </Node>
    </BinaryTree>
    <BinaryTree type="DecisionTree" boostWeight="1.0000000000000000e+00" itree="18">
      <Node pos="s" depth="0" NCoef="0" IVar="17" Cut="1.5244427919387817e+00" cType="1" res="2.5138054043054581e-03" rms="3.7898412346839905e-01" purity="4.9673023819923401e-01" nType="0">
        <Node pos="l" depth="1" NCoef="0" IVar="76" Cut="-1.4543358087539673e+00" cType="1" res="-1.1408140510320663e-01" rms="3.5865756869316101e-01" purity="2.6212722063064575e-01" nType="0">
          <Node pos="l" depth="2" NCoef="0" IVar="-1" Cut="0.0000000000000000e+00" cType="1" res="6.8555300822481513e-04" rms="4.0158227086067200e-01" purity="4.1987743973731995e-01" nType="-99"/>
          <Node pos="r" depth="2" NCoef="0" IVar="-1" Cut="0.0000000000000000e+00" cType="1" res="-2.3315744474530220e-02" rms="3.0165994167327881e-01" purity="1.5716212987899780e-01" nType="-99"/>
        </Node>
        <Node pos="r" depth="1" NCoef="0" IVar="36" Cut="-1.0284352302551270e+00" cType="1" res="1.5977872908115387e-01" rms="3.4753999114036560e-01" purity="8.1316536664962769e-01" nType="0">
          <Node pos="l" depth="2" NCoef="0" IVar="-1" Cut="0.0000000000000000e+00" cType="1" res="-2.3315122351050377e-02" rms="3.6920565366744995e-01" purity="1.9299572706222534e-01" nType="-99"/>
          <Node pos="r" depth="2" NCoef="0" IVar="-1" Cut="0.0000000000000000e+00" cType="1" res="2.0860476419329643e-02" rms="3.3488819003105164e-01" purity="8.4504914283752441e-01" nType="-99"/>
        </Node>
      </Node>
    </BinaryTree>
    <BinaryTree type="DecisionTree" boostWeight="1.0000000000000000e+00" itree="19">
      <Node pos="s" depth="0" NCoef="0" IVar="57" Cut="1.4843851327896118e+00" cType="1" res="-5.1616425625979900e-03" rms="3.7000727653503418e-01" purity="4.9235376715660095e-01" nType="0">
        <Node pos="l" depth="1" NCoef="0" IVar="2" Cut="2.3004999160766602e+00" cType="1" res="-1.4997670054435730e-01" rms="3.2662463188171387e-01" purity="2.0732015371322632e-01" nType="0">
          <Node pos="l" depth="2" NCoef="0" IVar="-1" Cut="0.0000000000000000e+00" cType="1" res="-3.0242117121815681e-02" rms="2.1864958107471466e-01" purity="7.5525119900703430e-02" nType="-99"/>
          <Node pos="r" depth="2" NCoef="0" IVar="-1" Cut="0.0000000000000000e+00" cType="1" res="-6.5683573484420776e-03" rms="3.8619366288185120e-01" purity="3.4129762649536133e-01" nType="-99"/>
        </Node>
        <Node pos="r" depth="1" NCoef="0" IVar="36" Cut="5.1886862516403198e-01" cType="1" res="1.1950028687715530e-01" rms="3.5962176322937012e-01" purity="7.3772072792053223e-01" nType="0">
          <Node pos="l" depth="2" NCoef="0" IVar="-1" Cut="0.0000000000000000e+00" cType="1" res="-2.5127209722995758e-02" rms="3.1054028868675232e-01" purity="1.4104680716991425e-01" nType="-99"/>
          <Node pos="r" depth="2" NCoef="0" IVar="-1" Cut="0.0000000000000000e+00" cType="1" res="1.9824465736746788e-02" rms="3.3957478404045105e-01" purity="8.2089656591415405e-01" nType="-99"/>
        </Node>
      </Node>
    </BinaryTree>
    <BinaryTree type="DecisionTree" boostWeight="1.0000000000000000e+00" itree="20">
      <Node pos="s" depth="0" NCoef="0" IVar="17" Cut="1.4452977180480957e+00" cType="1" res="3.0360715463757515e-03" rms="3.6845684051513672e-01" purity="5.0253498554229736e-01" nType="0">
        <Node pos="l" depth="1" NCoef="0" IVar="0" Cut="8.5115003585815430e-01" cType="1" res="-1.7543463408946991e-01" rms="2.5885915756225586e-01" purity="8.7523214519023895e-02" nType="0">
          <Node pos="l" depth="2" NCoef="0" IVar="-1" Cut="0.0000000000000000e+00" cType="1" res="-1.3708722777664661e-02" rms="3.4433963894844055e-01" purity="1.6176293790340424e-01" nType="-99"/>
          <Node pos="r" depth="2" NCoef="0" IVar="-1" Cut="0.0000000000000000e+00" cType="1" res="-3.3040728420019150e-02" rms="4.6304099261760712e-02" purity="9.4499029219150543e-03" nType="-99"/>
        </Node>
        <Node pos="r" depth="1" NCoef="0" IVar="76" Cut="5.8116710186004639e-01" cType="1" res="9.1495692729949951e-02" rms="3.8239407539367676e-01" purity="7.0823699235916138e-01" nType="0">
          <Node pos="l" depth="2" NCoef="0" IVar="-1" Cut="0.0000000000000000e+00" cType="1" res="1.5917776152491570e-02" rms="3.6024513840675354e-01" purity="7.6718318462371826e-01" nType="-99"/>
          <Node pos="r" depth="2" NCoef="0" IVar="-1" Cut="0.0000000000000000e+00" cType="1" res="-2.1337985992431641e-02" rms="3.9653763175010681e-01" purity="3.3813562989234924e-01" nType="-99"/>
        </Node>
      </Node>
    </BinaryTree>
    <BinaryTree type="DecisionTree" boostWeight="1.0000000000000000e+00" itree="21">
      <Node pos="s" depth="0" NCoef="0" IVar="17" Cut="1.5245091915130615e+00" cType="1" res="2.5580676738172770e-03" rms="3.6870095133781433e-01" purity="5.0248914957046509e-01" nType="0">
        <Node pos="l" depth="1" NCoef="0" IVar="57" Cut="1.4830969572067261e+00" cType="1" res="-1.0226988047361374e-01" rms="3.5148453712463379e-01" purity="2.6605141162872314e-01" nType="0">
          <Node pos="l" depth="2" NCoef="0" IVar="-1" Cut="0.0000000000000000e+00" cType="1" res="-2.2358221933245659e-02" rms="2.8354468941688538e-01" purity="1.2144193053245544e-01" nType="-99"/>
          <Node pos="r" depth="2" NCoef="0" IVar="-1" Cut="0.0000000000000000e+00" cType="1" res="2.7441959828138351e-03" rms="4.1667789220809937e-01" purity="5.1787614822387695e-01" nType="-99"/>
        </Node>
        <Node pos="r" depth="1" NCoef="0" IVar="2" Cut="2.1034245491027832e+00" cType="1" res="1.4094878733158112e-01" rms="3.4445607662200928e-01" purity="8.1462723016738892e-01" nType="0">
          <Node pos="l" depth="2" NCoef="0" IVar="-1" Cut="0.0000000000000000e+00" cType="1" res="-3.2457630150020123e-03" rms="4.1738146543502808e-01" purity="6.1163872480392456e-01" nType="-99"/>
          <Node pos="r" depth="2" NCoef="0" IVar="-1" Cut="0.0000000000000000e+00" cType="1" res="2.1946147084236145e-02" rms="3.1041216850280762e-01" purity="8.6440998315811157e-01" nType="-99"/>
        </Node>
      </Node>
    </BinaryTree>
    <BinaryTree type="DecisionTree" boostWeight="1.0000000000000000e+00" itree="22">
      <Node pos="s" depth="0" NCoef="0" IVar="17" Cut="1.4451379776000977e+00" cType="1" res="3.9214426651597023e-03" rms="3.6368793249130249e-01" purity="5.0239008665084839e-01" nType="0">
        <Node pos="l" depth="1" NCoef="0" IVar="17" Cut="-1.1975824832916260e+00" cType="1" res="-1.6240164637565613e-01" rms="2.5791919231414795e-01" purity="8.5790418088436127e-02" nType="0">
          <Node pos="l" depth="2" NCoef="0" IVar="-1" Cut="0.0000000000000000e+00" cType="1" res="-3.5550404340028763e-02" rms="-nan" purity="-2.0713722333312035e-02" nType="-99"/>
          <Node pos="r" depth="2" NCoef="0" IVar="-1" Cut="0.0000000000000000e+00" cType="1" res="-1.4190545305609703e-02" rms="3.4157770872116089e-01" purity="1.5582178533077240e-01" nType="-99"/>
        </Node>
        <Node pos="r" depth="1" NCoef="0" IVar="76" Cut="2.7388665080070496e-01" cType="1" res="8.5602916777133942e-02" rms="3.7986809015274048e-01" purity="7.0698273181915283e-01" nType="0">
          <Node pos="l" depth="2" NCoef="0" IVar="-1" Cut="0.0000000000000000e+00" cType="1" res="1.5256694518029690e-02" rms="3.5904458165168762e-01" purity="7.6687067747116089e-01" nType="-99"/>
          <Node pos="r" depth="2" NCoef="0" IVar="-1" Cut="0.0000000000000000e+00" cType="1" res="-1.9978968426585197e-02" rms="3.9647486805915833e-01" purity="3.4213218092918396e-01" nType="-99"/>
        </Node>
      </Node>
    </BinaryTree>
    <BinaryTree type="DecisionTree" boostWeight="1.0000000000000000e+00" itree="23">
      <Node pos="s" depth="0" NCoef="0" IVar="17" Cut="1.3697938919067383e+00" cType="1" res="-3.4302909625694156e-05" rms="3.5812208056449890e-01" purity="4.9925088882446289e-01" nType="0">
        <Node pos="l" depth="1" NCoef="0" IVar="40" Cut="5.1882630586624146e-01" cType="1" res="-1.8885129690170288e-01" rms="1.6606245934963226e-01" purity="3.7503033876419067e-02" nType="0">
          <Node pos="l" depth="2" NCoef="0" IVar="-1" Cut="0.0000000000000000e+00" cType="1" res="-1.3369920663535595e-02" rms="3.2227393984794617e-01" purity="1.3882599771022797e-01" nType="-99"/>
          <Node pos="r" depth="2" NCoef="0" IVar="-1" Cut="0.0000000000000000e+00" cType="1" res="-3.2085619866847992e-02" rms="-nan" purity="3.8358177989721298e-03" nType="-99"/>
        </Node>
        <Node pos="r" depth="1" NCoef="0" IVar="36" Cut="1.3303521871566772e+00" cType="1" res="7.2504259645938873e-02" rms="3.8466823101043701e-01" purity="6.7664235830307007e-01" nType="0">
          <Node pos="l" depth="2" NCoef="0" IVar="-1" Cut="0.0000000000000000e+00" cType="1" res="-1.4748784713447094e-02" rms="4.0357869863510132e-01" purity="2.6244783401489258e-01" nType="-99"/>
          <Node pos="r" depth="2" NCoef="0" IVar="-1" Cut="0.0000000000000000e+00" cType="1" res="1.5058501623570919e-02" rms="3.6144578456878662e-01" purity="7.8128814697265625e-01" nType="-99"/>
        </Node>
      </Node>
    </BinaryTree>
    <BinaryTree type="DecisionTree" boostWeight="1.0000000000000000e+00" itree="24">
      <Node pos="s" depth="0" NCoef="0" IVar="17" Cut="1.5245091915130615e+00" cType="1" res="4.3131024576723576e-03" rms="3.5775789618492126e-01" purity="5.0195938348770142e-01" nType="0">
        <Node pos="l" depth="1" NCoef="0" IVar="76" Cut="5.8513605594635010e-01" cType="1" res="-9.1254994273185730e-02" rms="3.4743219614028931e-01" purity="2.5889772176742554e-01" nType="0">
          <Node pos="l" depth="2" NCoef="0" IVar="-1" Cut="0.0000000000000000e+00" cType="1" res="-5.1082461141049862e-03" rms="3.7392714619636536e-01" purity="3.3413311839103699e-01" nType="-99"/>
          <Node pos="r" depth="2" NCoef="0" IVar="-1" Cut="0.0000000000000000e+00" cType="1" res="-3.0130540952086449e-02" rms="2.1510559320449829e-01" purity="6.1981406062841415e-02" nType="-99"/>
        </Node>
        <Node pos="r" depth="1" NCoef="0" IVar="36" Cut="4.4151064753532410e-01" cType="1" res="1.3094642758369446e-01" rms="3.3090957999229431e-01" purity="8.2403028011322021e-01" nType="0">
          <Node pos="l" depth="2" NCoef="0" IVar="-1" Cut="0.0000000000000000e+00" cType="1" res="-2.2926976904273033e-02" rms="3.7847346067428589e-01" purity="1.9000490009784698e-01" nType="-99"/>
          <Node pos="r" depth="2" NCoef="0" IVar="-1" Cut="0.0000000000000000e+00" cType="1" res="1.9247947260737419e-02" rms="3.1486082077026367e-01" purity="8.6469769477844238e-01" nType="-99"/>
        </Node>
      </Node>
    </BinaryTree>
    <BinaryTree type="DecisionTree" boostWeight="1.0000000000000000e+00" itree="25">
      <Node pos="s" depth="0" NCoef="0" IVar="17" Cut="1.5226078033447266e+00" cType="1" res="1.0106330737471581e-03" rms="3.5242223739624023e-01" purity="5.0116515159606934e-01" nType="0">
        <Node pos="l" depth="1" NCoef="0" IVar="2" Cut="2.9609091281890869e+00" cType="1" res="-9.7822263836860657e-02" rms="3.3316001296043396e-01" purity="2.4220342934131622e-01" nType="0">
          <Node pos="l" depth="2" NCoef="0" IVar="-1" Cut="0.0000000000000000e+00" cType="1" res="-1.7989132553339005e-02" rms="3.0227181315422058e-01" purity="1.8594300746917725e-01" nType="-99"/>
          <Node pos="r" depth="2" NCoef="0" IVar="-1" Cut="0.0000000000000000e+00" cType="1" res="1.3310374692082405e-02" rms="4.0573358535766602e-01" purity="5.4380756616592407e-01" nType="-99"/>
        </Node>
        <Node pos="r" depth="1" NCoef="0" IVar="36" Cut="3.2547369599342346e-01" cType="1" res="1.2038534879684448e-01" rms="3.3779215812683105e-01" purity="8.1395065784454346e-01" nType="0">
          <Node pos="l" depth="2" NCoef="0" IVar="-1" Cut="0.0000000000000000e+00" cType="1" res="-1.9059894606471062e-02" rms="3.9016422629356384e-01" purity="2.2101792693138123e-01" nType="-99"/>
          <Node pos="r" depth="2" NCoef="0" IVar="-1" Cut="0.0000000000000000e+00" cType="1" res="1.8206913024187088e-02" rms="3.2232156395912170e-01" purity="8.5905206203460693e-01" nType="-99"/>
        </Node>
      </Node>
    </BinaryTree>
    <BinaryTree type="DecisionTree" boostWeight="1.0000000000000000e+00" itree="26">
      <Node pos="s" depth="0" NCoef="0" IVar="57" Cut="1.4843268394470215e+00" cType="1" res="-1.0406799847260118e-03" rms="3.5224267840385437e-01" purity="4.9728640913963318e-01" nType="0">
        <Node pos="l" depth="1" NCoef="0" IVar="2" Cut="2.8398346900939941e+00" cType="1" res="-1.1809164285659790e-01" rms="3.2244721055030823e-01" purity="2.1254488825798035e-01" nType="0">
          <Node pos="l" depth="2" NCoef="0" IVar="-1" Cut="0.0000000000000000e+00" cType="1" res="-2.0359236747026443e-02" rms="2.9110696911811829e-01" purity="1.6047437489032745e-01" nType="-99"/>
          <Node pos="r" depth="2" NCoef="0" IVar="-1" Cut="0.0000000000000000e+00" cType="1" res="3.5796912852674723e-03" rms="4.0231418609619141e-01" purity="4.4141229987144470e-01" nType="-99"/>
        </Node>
        <Node pos="r" depth="1" NCoef="0" IVar="36" Cut="1.4084851741790771e+00" cType="1" res="9.9818766117095947e-02" rms="3.4556981921195984e-01" purity="7.4263995885848999e-01" nType="0">
          <Node pos="l" depth="2" NCoef="0" IVar="-1" Cut="0.0000000000000000e+00" cType="1" res="-1.1621609330177307e-02" rms="3.8738441467285156e-01" purity="2.8447309136390686e-01" nType="-99"/>
          <Node pos="r" depth="2" NCoef="0" IVar="-1" Cut="0.0000000000000000e+00" cType="1" res="1.9409412518143654e-02" rms="3.1547787785530090e-01" purity="8.5645902156829834e-01" nType="-99"/>
        </Node>
      </Node>
    </BinaryTree>
    <BinaryTree type="DecisionTree" boostWeight="1.0000000000000000e+00" itree="27">
      <Node pos="s" depth="0" NCoef="0" IVar="2" Cut="2.2016277313232422e+00" cType="1" res="1.0686036199331284e-02" rms="3.5646113753318787e-01" purity="5.0875955820083618e-01" nType="0">
        <Node pos="l" depth="1" NCoef="0" IVar="15" Cut="1.5195943117141724e+00" cType="1" res="-1.1635217815637589e-01" rms="3.2644271850585938e-01" purity="2.7553361654281616e-01" nType="0">
          <Node pos="l" depth="2" NCoef="0" IVar="-1" Cut="0.0000000000000000e+00" cType="1" res="-1.1226472444832325e-02" rms="3.2304501533508301e-01" purity="2.9257628321647644e-01" nType="-99"/>
          <Node pos="r" depth="2" NCoef="0" IVar="-1" Cut="0.0000000000000000e+00" cType="1" res="-3.9008270949125290e-02" rms="2.5942942500114441e-01" purity="1.7521162331104279e-01" nType="-99"/>
        </Node>
        <Node pos="r" depth="1" NCoef="0" IVar="17" Cut="1.3674358129501343e+00" cType="1" res="7.8278928995132446e-02" rms="3.5329321026802063e-01" purity="6.3285148143768311e-01" nType="0">
          <Node pos="l" depth="2" NCoef="0" IVar="-1" Cut="0.0000000000000000e+00" cType="1" res="-1.7227198928594589e-02" rms="2.8042468428611755e-01" purity="1.0315320640802383e-01" nType="-99"/>
          <Node pos="r" depth="2" NCoef="0" IVar="-1" Cut="0.0000000000000000e+00" cType="1" res="1.5937000513076782e-02" rms="3.5273417830467224e-01" purity="7.7107578516006470e-01" nType="-99"/>
        </Node>
      </Node>
    </BinaryTree>
    <BinaryTree type="DecisionTree" boostWeight="1.0000000000000000e+00" itree="28">
      <Node pos="s" depth="0" NCoef="0" IVar="57" Cut="1.3297709226608276e+00" cType="1" res="2.2244527935981750e-03" rms="3.4760743379592896e-01" purity="5.0236707925796509e-01" nType="0">
        <Node pos="l" depth="1" NCoef="0" IVar="2" Cut="2.8309965133666992e+00" cType="1" res="-1.4812162518501282e-01" rms="2.7185803651809692e-01" purity="1.1073233932256699e-01" nType="0">
          <Node pos="l" depth="2" NCoef="0" IVar="-1" Cut="0.0000000000000000e+00" cType="1" res="-2.6294417679309845e-02" rms="2.2062373161315918e-01" purity="6.1859525740146637e-02" nType="-99"/>
          <Node pos="r" depth="2" NCoef="0" IVar="-1" Cut="0.0000000000000000e+00" cType="1" res="1.0432975832372904e-03" rms="4.0641787648200989e-01" purity="3.4490853548049927e-01" nType="-99"/>
        </Node>
        <Node pos="r" depth="1" NCoef="0" IVar="36" Cut="1.3698061704635620e+00" cType="1" res="6.8027548491954803e-02" rms="3.5657435655593872e-01" purity="6.7377686500549316e-01" nType="0">
          <Node pos="l" depth="2" NCoef="0" IVar="-1" Cut="0.0000000000000000e+00" cType="1" res="-1.3066628016531467e-02" rms="3.5781204700469971e-01" purity="2.4065984785556793e-01" nType="-99"/>
          <Node pos="r" depth="2" NCoef="0" IVar="-1" Cut="0.0000000000000000e+00" cType="1" res="1.5607988461852074e-02" rms="3.3935806155204773e-01" purity="8.0158501863479614e-01" nType="-99"/>
        </Node>
      </Node>
    </BinaryTree>
    <BinaryTree type="DecisionTree" boostWeight="1.0000000000000000e+00" itree="29">
      <Node pos="s" depth="0" NCoef="0" IVar="57" Cut="1.4468170404434204e+00" cType="1" res="4.9579385668039322e-03" rms="3.4819296002388000e-01" purity="5.0148111581802368e-01" nType="0">
        <Node pos="l" depth="1" NCoef="0" IVar="80" Cut="-1.4928344488143921e+00" cType="1" res="-1.1114718019962311e-01" rms="3.1034889817237854e-01" purity="1.7828015983104706e-01" nType="0">
          <Node pos="l" depth="2" NCoef="0" IVar="-1" Cut="0.0000000000000000e+00" cType="1" res="-3.0881495331414044e-04" rms="3.8301143050193787e-01" purity="3.3662784099578857e-01" nType="-99"/>
          <Node pos="r" depth="2" NCoef="0" IVar="-1" Cut="0.0000000000000000e+00" cType="1" res="-2.2706633433699608e-02" rms="2.5891354680061340e-01" purity="1.0944313555955887e-01" nType="-99"/>
        </Node>
        <Node pos="r" depth="1" NCoef="0" IVar="36" Cut="1.1748323440551758e+00" cType="1" res="8.0549381673336029e-02" rms="3.5067561268806458e-01" purity="7.1190452575683594e-01" nType="0">
          <Node pos="l" depth="2" NCoef="0" IVar="-1" Cut="0.0000000000000000e+00" cType="1" res="-1.5997642651200294e-02" rms="3.3504697680473328e-01" purity="2.0285215973854065e-01" nType="-99"/>
          <Node pos="r" depth="2" NCoef="0" IVar="-1" Cut="0.0000000000000000e+00" cType="1" res="1.6220029443502426e-02" rms="3.3805391192436218e-01" purity="8.1360870599746704e-01" nType="-99"/>
        </Node>
      </Node>
    </BinaryTree>
    <BinaryTree type="DecisionTree" boostWeight="1.0000000000000000e+00" itree="30">
      <Node pos="s" depth="0" NCoef="0" IVar="17" Cut="1.5222673416137695e+00" cType="1" res="1.1883080005645752e-03" rms="3.4718105196952820e-01" purity="4.9486368894577026e-01" nType="0">
        <Node pos="l" depth="1" NCoef="0" IVar="76" Cut="-1.4928226470947266e+00" cType="1" res="-7.4647910892963409e-02" rms="3.3662676811218262e-01" purity="2.4652074277400970e-01" nType="0">
          <Node pos="l" depth="2" NCoef="0" IVar="-1" Cut="0.0000000000000000e+00" cType="1" res="3.4857441205531359e-03" rms="3.8348048925399780e-01" purity="4.1390389204025269e-01" nType="-99"/>
          <Node pos="r" depth="2" NCoef="0" IVar="-1" Cut="0.0000000000000000e+00" cType="1" res="-1.6855498775839806e-02" rms="3.0321830511093140e-01" purity="1.7273610830307007e-01" nType="-99"/>
        </Node>
        <Node pos="r" depth="1" NCoef="0" IVar="57" Cut="-9.1232931613922119e-01" cType="1" res="9.6035830676555634e-02" rms="3.3670774102210999e-01" purity="8.0546355247497559e-01" nType="0">
          <Node pos="l" depth="2" NCoef="0" IVar="-1" Cut="0.0000000000000000e+00" cType="1" res="-2.6524020358920097e-02" rms="3.3573663234710693e-01" purity="1.4641454815864563e-01" nType="-99"/>
          <Node pos="r" depth="2" NCoef="0" IVar="-1" Cut="0.0000000000000000e+00" cType="1" res="1.5248967334628105e-02" rms="3.2751902937889099e-01" purity="8.3896034955978394e-01" nType="-99"/>
        </Node>
      </Node>
    </BinaryTree>
    <BinaryTree type="DecisionTree" boostWeight="1.0000000000000000e+00" itree="31">
      <Node pos="s" depth="0" NCoef="0" IVar="36" Cut="1.3698061704635620e+00" cType="1" res="-1.4036991633474827e-03" rms="3.4410738945007324e-01" purity="5.0083267688751221e-01" nType="0">
        <Node pos="l" depth="1" NCoef="0" IVar="2" Cut="3.1693432331085205e+00" cType="1" res="-1.3564160466194153e-01" rms="2.8916099667549133e-01" purity="1.2946791946887970e-01" nType="0">
          <Node pos="l" depth="2" NCoef="0" IVar="-1" Cut="0.0000000000000000e+00" cType="1" res="-2.2421754896640778e-02" rms="2.6113224029541016e-01" purity="9.9182412028312683e-02" nType="-99"/>
          <Node pos="r" depth="2" NCoef="0" IVar="-1" Cut="0.0000000000000000e+00" cType="1" res="1.4578992500901222e-02" rms="4.4664269685745239e-01" purity="5.0145363807678223e-01" nType="-99"/>
        </Node>
        <Node pos="r" depth="1" NCoef="0" IVar="57" Cut="-4.8690947890281677e-01" cType="1" res="6.3245669007301331e-02" rms="3.4972807765007019e-01" purity="6.7968302965164185e-01" nType="0">
          <Node pos="l" depth="2" NCoef="0" IVar="-1" Cut="0.0000000000000000e+00" cType="1" res="-2.8010908514261246e-02" rms="2.0329442620277405e-01" purity="6.1271388083696365e-02" nType="-99"/>
          <Node pos="r" depth="2" NCoef="0" IVar="-1" Cut="0.0000000000000000e+00" cType="1" res="1.3000840321183205e-02" rms="3.5008898377418518e-01" purity="7.5964736938476562e-01" nType="-99"/>
        </Node>
      </Node>
    </BinaryTree>
    <BinaryTree type="DecisionTree" boostWeight="1.0000000000000000e+00" itree="32">
      <Node pos="s" depth="0" NCoef="0" IVar="36" Cut="1.4858430624008179e+00" cType="1" res="1.3577371835708618e-02" rms="3.4878125786781311e-01" purity="5.0453770160675049e-01" nType="0">
        <Node pos="l" depth="1" NCoef="0" IVar="80" Cut="-1.4927570819854736e+00" cType="1" res="-7.1990646421909332e-02" rms="3.4360688924789429e-01" purity="2.3824410140514374e-01" nType="0">
          <Node pos="l" depth="2" NCoef="0" IVar="-1" Cut="0.0000000000000000e+00" cType="1" res="4.0124147199094296e-03" rms="3.9294916391372681e-01" purity="4.0604731440544128e-01" nType="-99"/>
          <Node pos="r" depth="2" NCoef="0" IVar="-1" Cut="0.0000000000000000e+00" cType="1" res="-1.7285093665122986e-02" rms="3.0584603548049927e-01" purity="1.5887850522994995e-01" nType="-99"/>
        </Node>
        <Node pos="r" depth="1" NCoef="0" IVar="57" Cut="6.3385361433029175e-01" cType="1" res="9.2684589326381683e-02" rms="3.3456468582153320e-01" purity="7.5072485208511353e-01" nType="0">
          <Node pos="l" depth="2" NCoef="0" IVar="-1" Cut="0.0000000000000000e+00" cType="1" res="-1.6377709805965424e-02" rms="3.3595779538154602e-01" purity="1.4931748807430267e-01" nType="-99"/>
          <Node pos="r" depth="2" NCoef="0" IVar="-1" Cut="0.0000000000000000e+00" cType="1" res="1.6595833003520966e-02" rms="3.2443934679031372e-01" purity="8.2891422510147095e-01" nType="-99"/>
        </Node>
      </Node>
    </BinaryTree>
    <BinaryTree type="DecisionTree" boostWeight="1.0000000000000000e+00" itree="33">
      <Node pos="s" depth="0" NCoef="0" IVar="17" Cut="1.3697938919067383e+00" cType="1" res="-2.8536112513393164e-03" rms="3.3541265130043030e-01" purity="4.9569922685623169e-01" nType="0">
        <Node pos="l" depth="1" NCoef="0" IVar="31" Cut="3.4721102714538574e+00" cType="1" res="-1.5386520326137543e-01" rms="1.3499428331851959e-01" purity="2.9720401391386986e-02" nType="0">
          <Node pos="l" depth="2" NCoef="0" IVar="-1" Cut="0.0000000000000000e+00" cType="1" res="-2.8803251683712006e-02" rms="6.6882543265819550e-02" purity="1.6029698774218559e-02" nType="-99"/>
          <Node pos="r" depth="2" NCoef="0" IVar="-1" Cut="0.0000000000000000e+00" cType="1" res="-2.8704777359962463e-03" rms="3.4637466073036194e-01" purity="1.5215530991554260e-01" nType="-99"/>
        </Node>
        <Node pos="r" depth="1" NCoef="0" IVar="87" Cut="1.2345679104328156e-02" cType="1" res="5.5219069123268127e-02" rms="3.6961463093757629e-01" purity="6.7489498853683472e-01" nType="0">
          <Node pos="l" depth="2" NCoef="0" IVar="-1" Cut="0.0000000000000000e+00" cType="1" res="9.5613244920969009e-03" rms="3.6361208558082581e-01" purity="7.0136380195617676e-01" nType="-99"/>
          <Node pos="r" depth="2" NCoef="0" IVar="-1" Cut="0.0000000000000000e+00" cType="1" res="-4.8232194036245346e-02" rms="1.7959536612033844e-01" purity="0.0000000000000000e+00" nType="-99"/>
        </Node>
      </Node>
    </BinaryTree>
    <BinaryTree type="DecisionTree" boostWeight="1.0000000000000000e+00" itree="34">
      <Node pos="s" depth="0" NCoef="0" IVar="2" Cut="2.0801134109497070e+00" cType="1" res="1.3991574523970485e-03" rms="3.3588105440139771e-01" purity="4.9686700105667114e-01" nType="0">
        <Node pos="l" depth="1" NCoef="0" IVar="15" Cut="1.5216652154922485e+00" cType="1" res="-1.3897968828678131e-01" rms="2.7098792791366577e-01" purity="2.2048677504062653e-01" nType="0">
          <Node pos="l" depth="2" NCoef="0" IVar="-1" Cut="0.0000000000000000e+00" cType="1" res="-1.6289157792925835e-02" rms="2.6808863878250122e-01" purity="2.4016349017620087e-01" nType="-99"/>
          <Node pos="r" depth="2" NCoef="0" IVar="-1" Cut="0.0000000000000000e+00" cType="1" res="-4.4843442738056183e-02" rms="1.7710885405540466e-01" purity="8.6937472224235535e-02" nType="-99"/>
        </Node>
        <Node pos="r" depth="1" NCoef="0" IVar="17" Cut="1.0196057558059692e+00" cType="1" res="5.7776454836130142e-02" rms="3.4284031391143799e-01" purity="6.0786354541778564e-01" nType="0">
          <Node pos="l" depth="2" NCoef="0" IVar="-1" Cut="0.0000000000000000e+00" cType="1" res="-2.4180622771382332e-02" rms="1.7116317152976990e-01" purity="3.9033770561218262e-02" nType="-99"/>
          <Node pos="r" depth="2" NCoef="0" IVar="-1" Cut="0.0000000000000000e+00" cType="1" res="1.2857971712946892e-02" rms="3.5483250021934509e-01" purity="7.2116023302078247e-01" nType="-99"/>
        </Node>
      </Node>
    </BinaryTree>
    <BinaryTree type="DecisionTree" boostWeight="1.0000000000000000e+00" itree="35">
      <Node pos="s" depth="0" NCoef="0" IVar="36" Cut="1.4471641778945923e+00" cType="1" res="-9.0513620525598526e-03" rms="3.3610004186630249e-01" purity="4.8332804441452026e-01" nType="0">
        <Node pos="l" depth="1" NCoef="0" IVar="2" Cut="2.9839444160461426e+00" cType="1" res="-9.9590741097927094e-02" rms="3.1420749425888062e-01" purity="1.7175249755382538e-01" nType="0">
          <Node pos="l" depth="2" NCoef="0" IVar="-1" Cut="0.0000000000000000e+00" cType="1" res="-1.8973983824253082e-02" rms="2.8618457913398743e-01" purity="1.2825004756450653e-01" nType="-99"/>
          <Node pos="r" depth="2" NCoef="0" IVar="-1" Cut="0.0000000000000000e+00" cType="1" res="9.4972886145114899e-03" rms="4.1932293772697449e-01" purity="4.6225374937057495e-01" nType="-99"/>
        </Node>
        <Node pos="r" depth="1" NCoef="0" IVar="57" Cut="5.9597736597061157e-01" cType="1" res="5.3165495395660400e-02" rms="3.3651524782180786e-01" purity="6.9743657112121582e-01" nType="0">
          <Node pos="l" depth="2" NCoef="0" IVar="-1" Cut="0.0000000000000000e+00" cType="1" res="-2.9361875727772713e-02" rms="1.4421695470809937e-01" purity="5.8664035052061081e-02" nType="-99"/>
          <Node pos="r" depth="2" NCoef="0" IVar="-1" Cut="0.0000000000000000e+00" cType="1" res="1.2856543064117432e-02" rms="3.3962163329124451e-01" purity="7.9053795337677002e-01" nType="-99"/>
        </Node>
      </Node>
    </BinaryTree>
    <BinaryTree type="DecisionTree" boostWeight="1.0000000000000000e+00" itree="36">
      <Node pos="s" depth="0" NCoef="0" IVar="2" Cut="2.3456046581268311e+00" cType="1" res="6.9713275879621506e-03" rms="3.3760529756546021e-01" purity="5.0233012437820435e-01" nType="0">
        <Node pos="l" depth="1" NCoef="0" IVar="80" Cut="-1.4925903081893921e+00" cType="1" res="-8.2205101847648621e-02" rms="3.1413164734840393e-01" purity="3.0085468292236328e-01" nType="0">
          <Node pos="l" depth="2" NCoef="0" IVar="-1" Cut="0.0000000000000000e+00" cType="1" res="1.5275662299245596e-03" rms="3.5093104839324951e-01" purity="5.0522899627685547e-01" nType="-99"/>
          <Node pos="r" depth="2" NCoef="0" IVar="-1" Cut="0.0000000000000000e+00" cType="1" res="-2.1012898534536362e-02" rms="2.7633783221244812e-01" purity="1.8120206892490387e-01" nType="-99"/>
        </Node>
        <Node pos="r" depth="1" NCoef="0" IVar="17" Cut="1.2150785923004150e+00" cType="1" res="7.5255759060382843e-02" rms="3.3902761340141296e-01" purity="6.5660446882247925e-01" nType="0">
          <Node pos="l" depth="2" NCoef="0" IVar="-1" Cut="0.0000000000000000e+00" cType="1" res="-2.1965643391013145e-02" rms="1.8897646665573120e-01" purity="5.3224649280309677e-02" nType="-99"/>
          <Node pos="r" depth="2" NCoef="0" IVar="-1" Cut="0.0000000000000000e+00" cType="1" res="1.5196362510323524e-02" rms="3.4744125604629517e-01" purity="7.6969277858734131e-01" nType="-99"/>
        </Node>
      </Node>
    </BinaryTree>
    <BinaryTree type="DecisionTree" boostWeight="1.0000000000000000e+00" itree="37">
      <Node pos="s" depth="0" NCoef="0" IVar="76" Cut="-1.4543358087539673e+00" cType="1" res="-6.8013748386874795e-04" rms="3.3364596962928772e-01" purity="4.9598982930183411e-01" nType="0">
        <Node pos="l" depth="1" NCoef="0" IVar="17" Cut="7.8961157798767090e-01" cType="1" res="7.0215873420238495e-02" rms="3.2986521720886230e-01" purity="6.6590499877929688e-01" nType="0">
          <Node pos="l" depth="2" NCoef="0" IVar="-1" Cut="0.0000000000000000e+00" cType="1" res="-2.8909327462315559e-02" rms="6.6523797810077667e-02" purity="9.1024888679385185e-03" nType="-99"/>
          <Node pos="r" depth="2" NCoef="0" IVar="-1" Cut="0.0000000000000000e+00" cType="1" res="1.4624939300119877e-02" rms="3.4002977609634399e-01" purity="7.6699143648147583e-01" nType="-99"/>
        </Node>
        <Node pos="r" depth="1" NCoef="0" IVar="2" Cut="2.8449764251708984e+00" cType="1" res="-7.5281582772731781e-02" rms="3.2109963893890381e-01" purity="3.1719395518302917e-01" nType="0">
          <Node pos="l" depth="2" NCoef="0" IVar="-1" Cut="0.0000000000000000e+00" cType="1" res="-1.6581185162067413e-02" rms="3.0273896455764771e-01" purity="2.3965315520763397e-01" nType="-99"/>
          <Node pos="r" depth="2" NCoef="0" IVar="-1" Cut="0.0000000000000000e+00" cType="1" res="5.6633073836565018e-03" rms="3.5295671224594116e-01" purity="5.8095592260360718e-01" nType="-99"/>
        </Node>
      </Node>
    </BinaryTree>
    <BinaryTree type="DecisionTree" boostWeight="1.0000000000000000e+00" itree="38">
      <Node pos="s" depth="0" NCoef="0" IVar="2" Cut="2.2016277313232422e+00" cType="1" res="4.3886466883122921e-03" rms="3.2408851385116577e-01" purity="5.0567990541458130e-01" nType="0">
        <Node pos="l" depth="1" NCoef="0" IVar="36" Cut="1.4840862751007080e+00" cType="1" res="-1.1226983368396759e-01" rms="2.6456660032272339e-01" purity="2.5327420234680176e-01" nType="0">
          <Node pos="l" depth="2" NCoef="0" IVar="-1" Cut="0.0000000000000000e+00" cType="1" res="-3.0302263796329498e-02" rms="1.2248636037111282e-01" purity="3.7409652024507523e-02" nType="-99"/>
          <Node pos="r" depth="2" NCoef="0" IVar="-1" Cut="0.0000000000000000e+00" cType="1" res="-1.4041683170944452e-03" rms="3.6339765787124634e-01" purity="5.6597775220870972e-01" nType="-99"/>
        </Node>
        <Node pos="r" depth="1" NCoef="0" IVar="87" Cut="1.2345679104328156e-02" cType="1" res="6.5843619406223297e-02" rms="3.3547750115394592e-01" purity="6.3864558935165405e-01" nType="0">
          <Node pos="l" depth="2" NCoef="0" IVar="-1" Cut="0.0000000000000000e+00" cType="1" res="1.2055074796080589e-02" rms="3.3216220140457153e-01" purity="6.7302203178405762e-01" nType="-99"/>
          <Node pos="r" depth="2" NCoef="0" IVar="-1" Cut="0.0000000000000000e+00" cType="1" res="-4.0947731584310532e-02" rms="1.7761433124542236e-01" purity="0.0000000000000000e+00" nType="-99"/>
        </Node>
      </Node>
    </BinaryTree>
    <BinaryTree type="DecisionTree" boostWeight="1.0000000000000000e+00" itree="39">
      <Node pos="s" depth="0" NCoef="0" IVar="57" Cut="1.4081424474716187e+00" cType="1" res="5.5775088258087635e-03" rms="3.2627779245376587e-01" purity="5.0564950704574585e-01" nType="0">
        <Node pos="l" depth="1" NCoef="0" IVar="76" Cut="-1.5313320159912109e+00" cType="1" res="-9.5614813268184662e-02" rms="2.8066569566726685e-01" purity="1.4849856495857239e-01" nType="0">
          <Node pos="l" depth="2" NCoef="0" IVar="-1" Cut="0.0000000000000000e+00" cType="1" res="7.1676061488687992e-03" rms="3.9286181330680847e-01" purity="3.9633205533027649e-01" nType="-99"/>
          <Node pos="r" depth="2" NCoef="0" IVar="-1" Cut="0.0000000000000000e+00" cType="1" res="-1.8673999235033989e-02" rms="2.5718379020690918e-01" purity="1.1725988984107971e-01" nType="-99"/>
        </Node>
        <Node pos="r" depth="1" NCoef="0" IVar="36" Cut="7.8899115324020386e-01" cType="1" res="6.0298647731542587e-02" rms="3.3599990606307983e-01" purity="6.9878381490707397e-01" nType="0">
          <Node pos="l" depth="2" NCoef="0" IVar="-1" Cut="0.0000000000000000e+00" cType="1" res="-1.8031960353255272e-02" rms="2.9996266961097717e-01" purity="1.4375886321067810e-01" nType="-99"/>
          <Node pos="r" depth="2" NCoef="0" IVar="-1" Cut="0.0000000000000000e+00" cType="1" res="1.3437356799840927e-02" rms="3.3085003495216370e-01" purity="7.9480248689651489e-01" nType="-99"/>
        </Node>
      </Node>
    </BinaryTree>
    <BinaryTree type="DecisionTree" boostWeight="1.0000000000000000e+00" itree="40">
      <Node pos="s" depth="0" NCoef="0" IVar="76" Cut="1.6211205720901489e-01" cType="1" res="4.6518212184309959e-03" rms="3.3209201693534851e-01" purity="5.0375461578369141e-01" nType="0">
        <Node pos="l" depth="1" NCoef="0" IVar="2" Cut="2.2025260925292969e+00" cType="1" res="4.1056610643863678e-02" rms="3.3398202061653137e-01" purity="5.9061771631240845e-01" nType="0">
          <Node pos="l" depth="2" NCoef="0" IVar="-1" Cut="0.0000000000000000e+00" cType="1" res="-9.8265251144766808e-03" rms="3.0732858180999756e-01" purity="3.4965372085571289e-01" nType="-99"/>
          <Node pos="r" depth="2" NCoef="0" IVar="-1" Cut="0.0000000000000000e+00" cType="1" res="1.3018780387938023e-02" rms="3.3462014794349670e-01" purity="7.0184785127639771e-01" nType="-99"/>
        </Node>
        <Node pos="r" depth="1" NCoef="0" IVar="3" Cut="4.7787599563598633e+00" cType="1" res="-1.3132975995540619e-01" rms="2.8660336136817932e-01" purity="1.7929776012897491e-01" nType="0">
          <Node pos="l" depth="2" NCoef="0" IVar="-1" Cut="0.0000000000000000e+00" cType="1" res="-3.0087508261203766e-02" rms="2.2768057882785797e-01" purity="1.0592079907655716e-01" nType="-99"/>
          <Node pos="r" depth="2" NCoef="0" IVar="-1" Cut="0.0000000000000000e+00" cType="1" res="-7.1111209690570831e-03" rms="3.3168154954910278e-01" purity="2.7934420108795166e-01" nType="-99"/>
        </Node>
      </Node>
    </BinaryTree>
    <BinaryTree type="DecisionTree" boostWeight="1.0000000000000000e+00" itree="41">
      <Node pos="s" depth="0" NCoef="0" IVar="57" Cut="1.4844145774841309e+00" cType="1" res="5.6768772192299366e-03" rms="3.2589316368103027e-01" purity="5.0479525327682495e-01" nType="0">
        <Node pos="l" depth="1" NCoef="0" IVar="76" Cut="-1.4929178953170776e+00" cType="1" res="-6.7785561084747314e-02" rms="3.0981415510177612e-01" purity="2.2296877205371857e-01" nType="0">
          <Node pos="l" depth="2" NCoef="0" IVar="-1" Cut="0.0000000000000000e+00" cType="1" res="4.1933413594961166e-03" rms="3.7331652641296387e-01" purity="4.1325426101684570e-01" nType="-99"/>
          <Node pos="r" depth="2" NCoef="0" IVar="-1" Cut="0.0000000000000000e+00" cType="1" res="-1.8855789676308632e-02" rms="2.6069477200508118e-01" purity="1.3045038282871246e-01" nType="-99"/>
        </Node>
        <Node pos="r" depth="1" NCoef="0" IVar="36" Cut="5.1886862516403198e-01" cType="1" res="6.9073520600795746e-02" rms="3.2611492276191711e-01" purity="7.4800592660903931e-01" nType="0">
          <Node pos="l" depth="2" NCoef="0" IVar="-1" Cut="0.0000000000000000e+00" cType="1" res="-1.7583716660737991e-02" rms="2.9843571782112122e-01" purity="1.4884111285209656e-01" nType="-99"/>
          <Node pos="r" depth="2" NCoef="0" IVar="-1" Cut="0.0000000000000000e+00" cType="1" res="1.4215970411896706e-02" rms="3.2056438922882080e-01" purity="8.2696127891540527e-01" nType="-99"/>
        </Node>
      </Node>
    </BinaryTree>
    <BinaryTree type="DecisionTree" boostWeight="1.0000000000000000e+00" itree="42">
      <Node pos="s" depth="0" NCoef="0" IVar="36" Cut="7.1226352453231812e-01" cType="1" res="-5.0830858526751399e-04" rms="3.2394817471504211e-01" purity="4.9553173780441284e-01" nType="0">
        <Node pos="l" depth="1" NCoef="0" IVar="40" Cut="1.0160747766494751e+00" cType="1" res="-1.2176673114299774e-01" rms="2.3063352704048157e-01" purity="8.0637440085411072e-02" nType="0">
          <Node pos="l" depth="2" NCoef="0" IVar="-1" Cut="0.0000000000000000e+00" cType="1" res="-1.5014824457466602e-02" rms="2.8133812546730042e-01" purity="1.1589936912059784e-01" nType="-99"/>
          <Node pos="r" depth="2" NCoef="0" IVar="-1" Cut="0.0000000000000000e+00" cType="1" res="-3.4678291529417038e-02" rms="-nan" purity="-7.3712230660021305e-03" nType="-99"/>
        </Node>
        <Node pos="r" depth="1" NCoef="0" IVar="76" Cut="1.2777929306030273e+00" cType="1" res="3.7226047366857529e-02" rms="3.3918604254722595e-01" purity="6.2464249134063721e-01" nType="0">
          <Node pos="l" depth="2" NCoef="0" IVar="-1" Cut="0.0000000000000000e+00" cType="1" res="9.5243537798523903e-03" rms="3.3437976241111755e-01" purity="6.8628275394439697e-01" nType="-99"/>
          <Node pos="r" depth="2" NCoef="0" IVar="-1" Cut="0.0000000000000000e+00" cType="1" res="-2.2859131917357445e-02" rms="3.1189206242561340e-01" purity="1.9218909740447998e-01" nType="-99"/>
        </Node>
      </Node>
    </BinaryTree>
    <BinaryTree type="DecisionTree" boostWeight="1.0000000000000000e+00" itree="43">
      <Node pos="s" depth="0" NCoef="0" IVar="57" Cut="8.6563271284103394e-01" cType="1" res="-2.4319044314324856e-03" rms="3.1977748870849609e-01" purity="4.9803766608238220e-01" nType="0">
        <Node pos="l" depth="1" NCoef="0" IVar="82" Cut="2.9703652858734131e-01" cType="1" res="-1.3189235329627991e-01" rms="1.9132845103740692e-01" purity="6.1504222452640533e-02" nType="0">
          <Node pos="l" depth="2" NCoef="0" IVar="-1" Cut="0.0000000000000000e+00" cType="1" res="7.4317231774330139e-03" rms="4.0545216202735901e-01" purity="2.5914743542671204e-01" nType="-99"/>
          <Node pos="r" depth="2" NCoef="0" IVar="-1" Cut="0.0000000000000000e+00" cType="1" res="-2.7331277728080750e-02" rms="1.2697596848011017e-01" purity="3.6659061908721924e-02" nType="-99"/>
        </Node>
        <Node pos="r" depth="1" NCoef="0" IVar="87" Cut="1.2345679104328156e-02" cType="1" res="3.6900706589221954e-02" rms="3.3994799852371216e-01" purity="6.3066506385803223e-01" nType="0">
          <Node pos="l" depth="2" NCoef="0" IVar="-1" Cut="0.0000000000000000e+00" cType="1" res="7.7086547389626503e-03" rms="3.3796712756156921e-01" purity="6.6041594743728638e-01" nType="-99"/>
          <Node pos="r" depth="2" NCoef="0" IVar="-1" Cut="0.0000000000000000e+00" cType="1" res="-4.2501557618379593e-02" rms="1.9057832658290863e-01" purity="0.0000000000000000e+00" nType="-99"/>
        </Node>
      </Node>
    </BinaryTree>
    <BinaryTree type="DecisionTree" boostWeight="1.0000000000000000e+00" itree="44">
      <Node pos="s" depth="0" NCoef="0" IVar="80" Cut="-1.4927471876144409e+00" cType="1" res="-9.8539830651134253e-04" rms="3.2236868143081665e-01" purity="4.9830928444862366e-01" nType="0">
        <Node pos="l" depth="1" NCoef="0" IVar="17" Cut="7.4925136566162109e-01" cType="1" res="7.2206914424896240e-02" rms="3.2957032322883606e-01" purity="6.9255763292312622e-01" nType="0">
          <Node pos="l" depth="2" NCoef="0" IVar="-1" Cut="0.0000000000000000e+00" cType="1" res="-2.5688752532005310e-02" rms="1.6168278455734253e-01" purity="2.4632185697555542e-02" nType="-99"/>
          <Node pos="r" depth="2" NCoef="0" IVar="-1" Cut="0.0000000000000000e+00" cType="1" res="1.4826998114585876e-02" rms="3.3674833178520203e-01" purity="7.8505408763885498e-01" nType="-99"/>
        </Node>
        <Node pos="r" depth="1" NCoef="0" IVar="2" Cut="2.2025260925292969e+00" cType="1" res="-5.5521376430988312e-02" rms="3.0570819973945618e-01" purity="3.5357382893562317e-01" nType="0">
          <Node pos="l" depth="2" NCoef="0" IVar="-1" Cut="0.0000000000000000e+00" cType="1" res="-2.3029034957289696e-02" rms="2.4513527750968933e-01" purity="1.4861106872558594e-01" nType="-99"/>
          <Node pos="r" depth="2" NCoef="0" IVar="-1" Cut="0.0000000000000000e+00" cType="1" res="-6.1122758779674768e-04" rms="3.2987144589424133e-01" purity="4.8881420493125916e-01" nType="-99"/>
        </Node>
      </Node>
    </BinaryTree>
    <BinaryTree type="DecisionTree" boostWeight="1.0000000000000000e+00" itree="45">
      <Node pos="s" depth="0" NCoef="0" IVar="57" Cut="2.0845343172550201e-01" cType="1" res="8.7074730545282364e-03" rms="3.2556787133216858e-01" purity="5.0832611322402954e-01" nType="0">
        <Node pos="l" depth="1" NCoef="0" IVar="18" Cut="-2.5075118541717529e+00" cType="1" res="-1.1684490740299225e-01" rms="2.0766298472881317e-01" purity="6.1313502490520477e-02" nType="0">
          <Node pos="l" depth="2" NCoef="0" IVar="-1" Cut="0.0000000000000000e+00" cType="1" res="6.2132244929671288e-03" rms="3.8389235734939575e-01" purity="2.1368531882762909e-01" nType="-99"/>
          <Node pos="r" depth="2" NCoef="0" IVar="-1" Cut="0.0000000000000000e+00" cType="1" res="-2.4990154430270195e-02" rms="1.6837409138679504e-01" purity="4.3933164328336716e-02" nType="-99"/>
        </Node>
        <Node pos="r" depth="1" NCoef="0" IVar="87" Cut="1.2345679104328156e-02" cType="1" res="4.1573438793420792e-02" rms="3.4241136908531189e-01" purity="6.2534093856811523e-01" nType="0">
          <Node pos="l" depth="2" NCoef="0" IVar="-1" Cut="0.0000000000000000e+00" cType="1" res="8.3532091230154037e-03" rms="3.4173157811164856e-01" purity="6.5453338623046875e-01" nType="-99"/>
          <Node pos="r" depth="2" NCoef="0" IVar="-1" Cut="0.0000000000000000e+00" cType="1" res="-4.0638856589794159e-02" rms="1.8048065900802612e-01" purity="0.0000000000000000e+00" nType="-99"/>
        </Node>
      </Node>
    </BinaryTree>
    <BinaryTree type="DecisionTree" boostWeight="1.0000000000000000e+00" itree="46">
      <Node pos="s" depth="0" NCoef="0" IVar="17" Cut="1.2536967992782593e+00" cType="1" res="1.1485496070235968e-03" rms="3.1302180886268616e-01" purity="5.0756537914276123e-01" nType="0">
        <Node pos="l" depth="1" NCoef="0" IVar="3" Cut="5.2448205947875977e+00" cType="1" res="-1.1715951561927795e-01" rms="1.0533262044191360e-01" purity="1.9141245633363724e-02" nType="0">
          <Node pos="l" depth="2" NCoef="0" IVar="-1" Cut="0.0000000000000000e+00" cType="1" res="-2.0143618807196617e-02" rms="1.9192445278167725e-01" purity="4.6513821929693222e-02" nType="-99"/>
          <Node pos="r" depth="2" NCoef="0" IVar="-1" Cut="0.0000000000000000e+00" cType="1" res="-5.9243295341730118e-02" rms="-nan" purity="-1.2238737940788269e-01" nType="-99"/>
        </Node>
        <Node pos="r" depth="1" NCoef="0" IVar="57" Cut="-1.0283528566360474e+00" cType="1" res="3.7558469921350479e-02" rms="3.4509348869323730e-01" purity="6.5788048505783081e-01" nType="0">
          <Node pos="l" depth="2" NCoef="0" IVar="-1" Cut="0.0000000000000000e+00" cType="1" res="-2.4702357128262520e-02" rms="2.2263948619365692e-01" purity="6.9546066224575043e-02" nType="-99"/>
          <Node pos="r" depth="2" NCoef="0" IVar="-1" Cut="0.0000000000000000e+00" cType="1" res="8.6447205394506454e-03" rms="3.4858563542366028e-01" purity="7.2144114971160889e-01" nType="-99"/>
        </Node>
      </Node>
    </BinaryTree>
    <BinaryTree type="DecisionTree" boostWeight="1.0000000000000000e+00" itree="47">
      <Node pos="s" depth="0" NCoef="0" IVar="17" Cut="1.4084087610244751e+00" cType="1" res="-5.3349719382822514e-03" rms="3.1218940019607544e-01" purity="4.9835571646690369e-01" nType="0">
        <Node pos="l" depth="1" NCoef="0" IVar="81" Cut="-1.2120937108993530e+00" cType="1" res="-1.1565341800451279e-01" rms="1.2859164178371429e-01" purity="3.1856257468461990e-02" nType="0">
          <Node pos="l" depth="2" NCoef="0" IVar="-1" Cut="0.0000000000000000e+00" cType="1" res="-1.7748935148119926e-02" rms="2.1011200547218323e-01" purity="6.5886899828910828e-02" nType="-99"/>
          <Node pos="r" depth="2" NCoef="0" IVar="-1" Cut="0.0000000000000000e+00" cType="1" res="-4.1949786245822906e-02" rms="-nan" purity="-5.2107356488704681e-02" nType="-99"/>
        </Node>
        <Node pos="r" depth="1" NCoef="0" IVar="87" Cut="1.2345679104328156e-02" cType="1" res="3.9955791085958481e-02" rms="3.5162276029586792e-01" purity="6.8987506628036499e-01" nType="0">
          <Node pos="l" depth="2" NCoef="0" IVar="-1" Cut="0.0000000000000000e+00" cType="1" res="7.8570405021309853e-03" rms="3.4900292754173279e-01" purity="7.1666538715362549e-01" nType="-99"/>
          <Node pos="r" depth="2" NCoef="0" IVar="-1" Cut="0.0000000000000000e+00" cType="1" res="-4.4249162077903748e-02" rms="1.9233760237693787e-01" purity="0.0000000000000000e+00" nType="-99"/>
        </Node>
      </Node>
    </BinaryTree>
    <BinaryTree type="DecisionTree" boostWeight="1.0000000000000000e+00" itree="48">
      <Node pos="s" depth="0" NCoef="0" IVar="36" Cut="-8.7380599975585938e-01" cType="1" res="-4.6609947457909584e-03" rms="3.1306889653205872e-01" purity="4.9387028813362122e-01" nType="0">
        <Node pos="l" depth="1" NCoef="0" IVar="82" Cut="3.4042853116989136e-01" cType="1" res="-1.3251580297946930e-01" rms="1.8446399271488190e-01" purity="5.4827962070703506e-02" nType="0">
          <Node pos="l" depth="2" NCoef="0" IVar="-1" Cut="0.0000000000000000e+00" cType="1" res="4.6666967682540417e-03" rms="3.7784606218338013e-01" purity="2.4597090482711792e-01" nType="-99"/>
          <Node pos="r" depth="2" NCoef="0" IVar="-1" Cut="0.0000000000000000e+00" cType="1" res="-2.8939470648765564e-02" rms="1.1467079073190689e-01" purity="2.6015983894467354e-02" nType="-99"/>
        </Node>
        <Node pos="r" depth="1" NCoef="0" IVar="2" Cut="2.2967889308929443e+00" cType="1" res="2.2373966872692108e-02" rms="3.2764980196952820e-01" purity="5.8670604228973389e-01" nType="0">
          <Node pos="l" depth="2" NCoef="0" IVar="-1" Cut="0.0000000000000000e+00" cType="1" res="-9.1472649946808815e-03" rms="3.2597434520721436e-01" purity="3.7007945775985718e-01" nType="-99"/>
          <Node pos="r" depth="2" NCoef="0" IVar="-1" Cut="0.0000000000000000e+00" cType="1" res="1.0817974805831909e-02" rms="3.1948834657669067e-01" purity="7.1475881338119507e-01" nType="-99"/>
        </Node>
      </Node>
    </BinaryTree>
    <BinaryTree type="DecisionTree" boostWeight="1.0000000000000000e+00" itree="49">
      <Node pos="s" depth="0" NCoef="0" IVar="17" Cut="1.4084726572036743e+00" cType="1" res="-8.8000626419670880e-05" rms="3.1251150369644165e-01" purity="5.0166594982147217e-01" nType="0">
        <Node pos="l" depth="1" NCoef="0" IVar="2" Cut="1.0884858369827271e+00" cType="1" res="-9.3423731625080109e-02" rms="1.7496836185455322e-01" purity="4.7901604324579239e-02" nType="0">
          <Node pos="l" depth="2" NCoef="0" IVar="-1" Cut="0.0000000000000000e+00" cType="1" res="1.3893814757466316e-02" rms="3.5936859250068665e-01" purity="1.6169556975364685e-01" nType="-99"/>
          <Node pos="r" depth="2" NCoef="0" IVar="-1" Cut="0.0000000000000000e+00" cType="1" res="-2.3598648607730865e-02" rms="1.2886910140514374e-01" purity="3.4859124571084976e-02" nType="-99"/>
        </Node>
        <Node pos="r" depth="1" NCoef="0" IVar="2" Cut="1.6495294570922852e+00" cType="1" res="3.9229240268468857e-02" rms="3.4740781784057617e-01" purity="6.9281196594238281e-01" nType="0">
          <Node pos="l" depth="2" NCoef="0" IVar="-1" Cut="0.0000000000000000e+00" cType="1" res="-2.8033768758177757e-02" rms="3.2153809070587158e-01" purity="2.0888921618461609e-01" nType="-99"/>
          <Node pos="r" depth="2" NCoef="0" IVar="-1" Cut="0.0000000000000000e+00" cType="1" res="8.6289802566170692e-03" rms="3.4217634797096252e-01" purity="7.3140650987625122e-01" nType="-99"/>
        </Node>
      </Node>
    </BinaryTree>
    <BinaryTree type="DecisionTree" boostWeight="1.0000000000000000e+00" itree="50">
      <Node pos="s" depth="0" NCoef="0" IVar="17" Cut="1.4471515417098999e+00" cType="1" res="5.2277483046054840e-03" rms="3.1402114033699036e-01" purity="5.0720053911209106e-01" nType="0">
        <Node pos="l" depth="1" NCoef="0" IVar="18" Cut="-6.1993408203125000e-01" cType="1" res="-7.7749945223331451e-02" rms="2.1337324380874634e-01" purity="7.3732703924179077e-02" nType="0">
          <Node pos="l" depth="2" NCoef="0" IVar="-1" Cut="0.0000000000000000e+00" cType="1" res="-1.9223980605602264e-02" rms="1.8138591945171356e-01" purity="6.1278309673070908e-02" nType="-99"/>
          <Node pos="r" depth="2" NCoef="0" IVar="-1" Cut="0.0000000000000000e+00" cType="1" res="2.6399498805403709e-02" rms="4.3415042757987976e-01" purity="2.5529462099075317e-01" nType="-99"/>
        </Node>
        <Node pos="r" depth="1" NCoef="0" IVar="87" Cut="1.2345679104328156e-02" cType="1" res="4.4993340969085693e-02" rms="3.4520503878593445e-01" purity="7.1493238210678101e-01" nType="0">
          <Node pos="l" depth="2" NCoef="0" IVar="-1" Cut="0.0000000000000000e+00" cType="1" res="8.3955070003867149e-03" rms="3.4278014302253723e-01" purity="7.3916786909103394e-01" nType="-99"/>
          <Node pos="r" depth="2" NCoef="0" IVar="-1" Cut="0.0000000000000000e+00" cType="1" res="-4.3802026659250259e-02" rms="1.9123291969299316e-01" purity="0.0000000000000000e+00" nType="-99"/>
        </Node>
      </Node>
    </BinaryTree>
    <BinaryTree type="DecisionTree" boostWeight="1.0000000000000000e+00" itree="51">
      <Node pos="s" depth="0" NCoef="0" IVar="36" Cut="1.3681161403656006e+00" cType="1" res="4.1784567292779684e-04" rms="3.1371811032295227e-01" purity="4.9855849146842957e-01" nType="0">
        <Node pos="l" depth="1" NCoef="0" IVar="3" Cut="5.1495642662048340e+00" cType="1" res="-7.7832035720348358e-02" rms="2.7010327577590942e-01" purity="1.3481692969799042e-01" nType="0">
          <Node pos="l" depth="2" NCoef="0" IVar="-1" Cut="0.0000000000000000e+00" cType="1" res="-1.8251134082674980e-02" rms="2.5257125496864319e-01" purity="1.1634866893291473e-01" nType="-99"/>
          <Node pos="r" depth="2" NCoef="0" IVar="-1" Cut="0.0000000000000000e+00" cType="1" res="5.6801713071763515e-03" rms="3.0512320995330811e-01" purity="2.0359379053115845e-01" nType="-99"/>
        </Node>
        <Node pos="r" depth="1" NCoef="0" IVar="2" Cut="2.0924599170684814e+00" cType="1" res="3.9354696869850159e-02" rms="3.2638412714004517e-01" purity="6.7955493927001953e-01" nType="0">
          <Node pos="l" depth="2" NCoef="0" IVar="-1" Cut="0.0000000000000000e+00" cType="1" res="-1.2033166363835335e-02" rms="3.4629514813423157e-01" purity="3.9139348268508911e-01" nType="-99"/>
          <Node pos="r" depth="2" NCoef="0" IVar="-1" Cut="0.0000000000000000e+00" cType="1" res="1.1806632392108440e-02" rms="3.1247326731681824e-01" purity="7.6179283857345581e-01" nType="-99"/>
        </Node>
      </Node>
    </BinaryTree>
    <BinaryTree type="DecisionTree" boostWeight="1.0000000000000000e+00" itree="52">
      <Node pos="s" depth="0" NCoef="0" IVar="57" Cut="1.4854915142059326e+00" cType="1" res="7.1767605841159821e-03" rms="3.1603112816810608e-01" purity="5.0763595104217529e-01" nType="0">
        <Node pos="l" depth="1" NCoef="0" IVar="2" Cut="2.8677558898925781e+00" cType="1" res="-5.0521925091743469e-02" rms="2.9747313261032104e-01" purity="2.2679382562637329e-01" nType="0">
          <Node pos="l" depth="2" NCoef="0" IVar="-1" Cut="0.0000000000000000e+00" cType="1" res="-1.4073325321078300e-02" rms="2.6847097277641296e-01" purity="1.6567097604274750e-01" nType="-99"/>
          <Node pos="r" depth="2" NCoef="0" IVar="-1" Cut="0.0000000000000000e+00" cType="1" res="9.2582562938332558e-03" rms="3.8003465533256531e-01" purity="4.9546030163764954e-01" nType="-99"/>
        </Node>
        <Node pos="r" depth="1" NCoef="0" IVar="76" Cut="1.2745099067687988e+00" cType="1" res="5.7017460465431213e-02" rms="3.2303351163864136e-01" purity="7.5023019313812256e-01" nType="0">
          <Node pos="l" depth="2" NCoef="0" IVar="-1" Cut="0.0000000000000000e+00" cType="1" res="1.2196874246001244e-02" rms="3.1294220685958862e-01" purity="7.9320424795150757e-01" nType="-99"/>
          <Node pos="r" depth="2" NCoef="0" IVar="-1" Cut="0.0000000000000000e+00" cType="1" res="-1.7750041559338570e-02" rms="3.7044596672058105e-01" purity="3.0101409554481506e-01" nType="-99"/>
        </Node>
      </Node>
    </BinaryTree>
    <BinaryTree type="DecisionTree" boostWeight="1.0000000000000000e+00" itree="53">
      <Node pos="s" depth="0" NCoef="0" IVar="17" Cut="1.2924362421035767e+00" cType="1" res="-1.4949520118534565e-04" rms="3.1527975201606750e-01" purity="4.9865150451660156e-01" nType="0">
        <Node pos="l" depth="1" NCoef="0" IVar="79" Cut="-7.2472828626632690e-01" cType="1" res="-8.2854054868221283e-02" rms="1.5827198326587677e-01" purity="3.1827487051486969e-02" nType="0">
          <Node pos="l" depth="2" NCoef="0" IVar="-1" Cut="0.0000000000000000e+00" cType="1" res="-3.0693048611283302e-02" rms="-nan" purity="-5.1520471461117268e-03" nType="-99"/>
          <Node pos="r" depth="2" NCoef="0" IVar="-1" Cut="0.0000000000000000e+00" cType="1" res="-8.0583412200212479e-03" rms="2.5223997235298157e-01" purity="8.0309264361858368e-02" nType="-99"/>
        </Node>
        <Node pos="r" depth="1" NCoef="0" IVar="87" Cut="1.2345679104328156e-02" cType="1" res="2.7615021914243698e-02" rms="3.4827357530593872e-01" purity="6.5536767244338989e-01" nType="0">
          <Node pos="l" depth="2" NCoef="0" IVar="-1" Cut="0.0000000000000000e+00" cType="1" res="6.0142725706100464e-03" rms="3.4852150082588196e-01" purity="6.8342256546020508e-01" nType="-99"/>
          <Node pos="r" depth="2" NCoef="0" IVar="-1" Cut="0.0000000000000000e+00" cType="1" res="-4.0646649897098541e-02" rms="1.8140573799610138e-01" purity="0.0000000000000000e+00" nType="-99"/>
        </Node>
      </Node>
    </BinaryTree>
    <BinaryTree type="DecisionTree" boostWeight="1.0000000000000000e+00" itree="54">
      <Node pos="s" depth="0" NCoef="0" IVar="2" Cut="2.1878826618194580e+00" cType="1" res="7.1205841377377510e-03" rms="3.1721526384353638e-01" purity="5.0602865219116211e-01" nType="0">
        <Node pos="l" depth="1" NCoef="0" IVar="15" Cut="1.5220727920532227e+00" cType="1" res="-6.5804161131381989e-02" rms="2.9196122288703918e-01" purity="2.6332625746726990e-01" nType="0">
          <Node pos="l" depth="2" NCoef="0" IVar="-1" Cut="0.0000000000000000e+00" cType="1" res="-6.8719889968633652e-03" rms="2.8495472669601440e-01" purity="2.8083756566047668e-01" nType="-99"/>
          <Node pos="r" depth="2" NCoef="0" IVar="-1" Cut="0.0000000000000000e+00" cType="1" res="-3.6290068179368973e-02" rms="2.6559960842132568e-01" purity="1.5076781809329987e-01" nType="-99"/>
        </Node>
        <Node pos="r" depth="1" NCoef="0" IVar="45" Cut="1.2345679104328156e-02" cType="1" res="4.4592455029487610e-02" rms="3.2310026884078979e-01" purity="6.3073956966400146e-01" nType="0">
          <Node pos="l" depth="2" NCoef="0" IVar="-1" Cut="0.0000000000000000e+00" cType="1" res="9.2737255617976189e-03" rms="3.2405152916908264e-01" purity="6.6213661432266235e-01" nType="-99"/>
          <Node pos="r" depth="2" NCoef="0" IVar="-1" Cut="0.0000000000000000e+00" cType="1" res="-3.8270343095064163e-02" rms="1.7136265337467194e-01" purity="0.0000000000000000e+00" nType="-99"/>
        </Node>
      </Node>
    </BinaryTree>
    <BinaryTree type="DecisionTree" boostWeight="1.0000000000000000e+00" itree="55">
      <Node pos="s" depth="0" NCoef="0" IVar="80" Cut="-1.4925903081893921e+00" cType="1" res="-3.9391238242387772e-03" rms="3.1225851178169250e-01" purity="4.8981156945228577e-01" nType="0">
        <Node pos="l" depth="1" NCoef="0" IVar="17" Cut="4.0282341837882996e-01" cType="1" res="5.6749861687421799e-02" rms="3.1944352388381958e-01" purity="6.8683475255966187e-01" nType="0">
          <Node pos="l" depth="2" NCoef="0" IVar="-1" Cut="0.0000000000000000e+00" cType="1" res="-1.8847817555069923e-02" rms="1.9556070864200592e-01" purity="4.3772369623184204e-02" nType="-99"/>
          <Node pos="r" depth="2" NCoef="0" IVar="-1" Cut="0.0000000000000000e+00" cType="1" res="1.2132635340094566e-02" rms="3.2872399687767029e-01" purity="7.7663278579711914e-01" nType="-99"/>
        </Node>
        <Node pos="r" depth="1" NCoef="0" IVar="77" Cut="1.3673574924468994e+00" cType="1" res="-5.0024207681417465e-02" rms="2.9856002330780029e-01" purity="3.4019905328750610e-01" nType="0">
          <Node pos="l" depth="2" NCoef="0" IVar="-1" Cut="0.0000000000000000e+00" cType="1" res="-5.9032756835222244e-03" rms="3.1161677837371826e-01" purity="3.7016600370407104e-01" nType="-99"/>
          <Node pos="r" depth="2" NCoef="0" IVar="-1" Cut="0.0000000000000000e+00" cType="1" res="-4.4375568628311157e-02" rms="-nan" purity="1.7443534452468157e-03" nType="-99"/>
        </Node>
      </Node>
    </BinaryTree>
    <BinaryTree type="DecisionTree" boostWeight="1.0000000000000000e+00" itree="56">
      <Node pos="s" depth="0" NCoef="0" IVar="57" Cut="1.4070928096771240e+00" cType="1" res="-8.6493603885173798e-04" rms="3.0669689178466797e-01" purity="5.0064575672149658e-01" nType="0">
        <Node pos="l" depth="1" NCoef="0" IVar="2" Cut="2.7621581554412842e+00" cType="1" res="-7.2144307196140289e-02" rms="2.5746744871139526e-01" purity="1.3264283537864685e-01" nType="0">
          <Node pos="l" depth="2" NCoef="0" IVar="-1" Cut="0.0000000000000000e+00" cType="1" res="-2.1190170198678970e-02" rms="2.0580315589904785e-01" purity="7.3647499084472656e-02" nType="-99"/>
          <Node pos="r" depth="2" NCoef="0" IVar="-1" Cut="0.0000000000000000e+00" cType="1" res="5.9677143581211567e-03" rms="3.7665584683418274e-01" purity="3.5774022340774536e-01" nType="-99"/>
        </Node>
        <Node pos="r" depth="1" NCoef="0" IVar="87" Cut="1.2345679104328156e-02" cType="1" res="3.7326522171497345e-02" rms="3.2367137074470520e-01" purity="6.9782155752182007e-01" nType="0">
          <Node pos="l" depth="2" NCoef="0" IVar="-1" Cut="0.0000000000000000e+00" cType="1" res="7.8316293656826019e-03" rms="3.2314524054527283e-01" purity="7.2446298599243164e-01" nType="-99"/>
          <Node pos="r" depth="2" NCoef="0" IVar="-1" Cut="0.0000000000000000e+00" cType="1" res="-4.0632214397192001e-02" rms="1.8684084713459015e-01" purity="0.0000000000000000e+00" nType="-99"/>
        </Node>
      </Node>
    </BinaryTree>
    <BinaryTree type="DecisionTree" boostWeight="1.0000000000000000e+00" itree="57">
      <Node pos="s" depth="0" NCoef="0" IVar="60" Cut="-1.1396100521087646e+00" cType="1" res="-4.4731195084750652e-03" rms="3.0025836825370789e-01" purity="4.9747544527053833e-01" nType="0">
        <Node pos="l" depth="1" NCoef="0" IVar="17" Cut="1.2924362421035767e+00" cType="1" res="2.1355595439672470e-02" rms="3.0484321713447571e-01" purity="5.5617547035217285e-01" nType="0">
          <Node pos="l" depth="2" NCoef="0" IVar="-1" Cut="0.0000000000000000e+00" cType="1" res="-2.3542677983641624e-02" rms="9.9610976874828339e-02" purity="2.2035982459783554e-02" nType="-99"/>
          <Node pos="r" depth="2" NCoef="0" IVar="-1" Cut="0.0000000000000000e+00" cType="1" res="8.1589668989181519e-03" rms="3.3461803197860718e-01" purity="7.0668530464172363e-01" nType="-99"/>
        </Node>
        <Node pos="r" depth="1" NCoef="0" IVar="0" Cut="1.0030592679977417e+00" cType="1" res="-1.2874016165733337e-01" rms="2.4115441739559174e-01" purity="2.1505807340145111e-01" nType="0">
          <Node pos="l" depth="2" NCoef="0" IVar="-1" Cut="0.0000000000000000e+00" cType="1" res="-1.4566875994205475e-02" rms="3.0940964818000793e-01" purity="2.7698078751564026e-01" nType="-99"/>
          <Node pos="r" depth="2" NCoef="0" IVar="-1" Cut="0.0000000000000000e+00" cType="1" res="-4.3125130236148834e-02" rms="-nan" purity="8.4864221513271332e-02" nType="-99"/>
        </Node>
      </Node>
    </BinaryTree>
    <BinaryTree type="DecisionTree" boostWeight="1.0000000000000000e+00" itree="58">
      <Node pos="s" depth="0" NCoef="0" IVar="39" Cut="-1.5640271902084351e+00" cType="1" res="3.9929136983118951e-04" rms="3.0774194002151489e-01" purity="5.0119119882583618e-01" nType="0">
        <Node pos="l" depth="1" NCoef="0" IVar="36" Cut="-9.8993498086929321e-01" cType="1" res="3.6849912256002426e-02" rms="3.1169340014457703e-01" purity="5.9075772762298584e-01" nType="0">
          <Node pos="l" depth="2" NCoef="0" IVar="-1" Cut="0.0000000000000000e+00" cType="1" res="-2.2626494988799095e-02" rms="1.8712937831878662e-01" purity="5.5815469473600388e-02" nType="-99"/>
          <Node pos="r" depth="2" NCoef="0" IVar="-1" Cut="0.0000000000000000e+00" cType="1" res="1.0218722745776176e-02" rms="3.2100313901901245e-01" purity="6.7645227909088135e-01" nType="-99"/>
        </Node>
        <Node pos="r" depth="1" NCoef="0" IVar="80" Cut="-1.4927471876144409e+00" cType="1" res="-8.2165554165840149e-02" rms="2.8166356682777405e-01" purity="2.9831263422966003e-01" nType="0">
          <Node pos="l" depth="2" NCoef="0" IVar="-1" Cut="0.0000000000000000e+00" cType="1" res="-7.3309231083840132e-04" rms="3.3682775497436523e-01" purity="5.3575509786605835e-01" nType="-99"/>
          <Node pos="r" depth="2" NCoef="0" IVar="-1" Cut="0.0000000000000000e+00" cType="1" res="-2.3792797699570656e-02" rms="2.3219147324562073e-01" purity="1.6022770106792450e-01" nType="-99"/>
        </Node>
      </Node>
    </BinaryTree>
    <BinaryTree type="DecisionTree" boostWeight="1.0000000000000000e+00" itree="59">
      <Node pos="s" depth="0" NCoef="0" IVar="17" Cut="1.5245091915130615e+00" cType="1" res="-6.7790556931868196e-04" rms="3.0052354931831360e-01" purity="5.0514197349548340e-01" nType="0">
        <Node pos="l" depth="1" NCoef="0" IVar="15" Cut="1.5181235074996948e+00" cType="1" res="-4.5435883104801178e-02" rms="2.8520604968070984e-01" purity="2.5765815377235413e-01" nType="0">
          <Node pos="l" depth="2" NCoef="0" IVar="-1" Cut="0.0000000000000000e+00" cType="1" res="-4.8704682849347591e-03" rms="2.8263863921165466e-01" purity="2.7129876613616943e-01" nType="-99"/>
          <Node pos="r" depth="2" NCoef="0" IVar="-1" Cut="0.0000000000000000e+00" cType="1" res="-3.8392983376979828e-02" rms="2.1940574049949646e-01" purity="1.0180772095918655e-01" nType="-99"/>
        </Node>
        <Node pos="r" depth="1" NCoef="0" IVar="48" Cut="9.7702240943908691e-01" cType="1" res="5.6229699403047562e-02" rms="3.0973574519157410e-01" purity="8.1980580091476440e-01" nType="0">
          <Node pos="l" depth="2" NCoef="0" IVar="-1" Cut="0.0000000000000000e+00" cType="1" res="-1.7369842156767845e-02" rms="3.3638468384742737e-01" purity="5.1463055610656738e-01" nType="-99"/>
          <Node pos="r" depth="2" NCoef="0" IVar="-1" Cut="0.0000000000000000e+00" cType="1" res="1.1374848894774914e-02" rms="3.0491945147514343e-01" purity="8.3849596977233887e-01" nType="-99"/>
        </Node>
      </Node>
    </BinaryTree>
    <BinaryTree type="DecisionTree" boostWeight="1.0000000000000000e+00" itree="60">
      <Node pos="s" depth="0" NCoef="0" IVar="81" Cut="-1.2359380722045898e+00" cType="1" res="6.1016706749796867e-03" rms="3.1073454022407532e-01" purity="5.0632703304290771e-01" nType="0">
        <Node pos="l" depth="1" NCoef="0" IVar="57" Cut="-6.0293310880661011e-01" cType="1" res="3.1435232609510422e-02" rms="3.1919208168983459e-01" purity="5.6900072097778320e-01" nType="0">
          <Node pos="l" depth="2" NCoef="0" IVar="-1" Cut="0.0000000000000000e+00" cType="1" res="-1.7055770382285118e-02" rms="2.1149082481861115e-01" purity="7.5413540005683899e-02" nType="-99"/>
          <Node pos="r" depth="2" NCoef="0" IVar="-1" Cut="0.0000000000000000e+00" cType="1" res="8.7871989235281944e-03" rms="3.3148670196533203e-01" purity="6.6144406795501709e-01" nType="-99"/>
        </Node>
        <Node pos="r" depth="1" NCoef="0" IVar="73" Cut="2.6291205883026123e+00" cType="1" res="-9.0537115931510925e-02" rms="2.5386148691177368e-01" purity="2.6724851131439209e-01" nType="0">
          <Node pos="l" depth="2" NCoef="0" IVar="-1" Cut="0.0000000000000000e+00" cType="1" res="-3.0596546828746796e-02" rms="1.6004182398319244e-01" purity="1.4553757011890411e-01" nType="-99"/>
          <Node pos="r" depth="2" NCoef="0" IVar="-1" Cut="0.0000000000000000e+00" cType="1" res="-6.6357804462313652e-03" rms="2.9709875583648682e-01" purity="3.6353486776351929e-01" nType="-99"/>
        </Node>
      </Node>
    </BinaryTree>
    <BinaryTree type="DecisionTree" boostWeight="1.0000000000000000e+00" itree="61">
      <Node pos="s" depth="0" NCoef="0" IVar="57" Cut="1.4070073366165161e+00" cType="1" res="-1.2818435207009315e-03" rms="3.0311962962150574e-01" purity="4.9685621261596680e-01" nType="0">
        <Node pos="l" depth="1" NCoef="0" IVar="46" Cut="1.0076525211334229e+00" cType="1" res="-6.8816408514976501e-02" rms="2.4735106527805328e-01" purity="1.2997680902481079e-01" nType="0">
          <Node pos="l" depth="2" NCoef="0" IVar="-1" Cut="0.0000000000000000e+00" cType="1" res="-6.7467465996742249e-03" rms="3.0025348067283630e-01" purity="1.7640183866024017e-01" nType="-99"/>
          <Node pos="r" depth="2" NCoef="0" IVar="-1" Cut="0.0000000000000000e+00" cType="1" res="-2.9506986960768700e-02" rms="-nan" purity="3.6031827330589294e-02" nType="-99"/>
        </Node>
        <Node pos="r" depth="1" NCoef="0" IVar="2" Cut="1.8042827844619751e+00" cType="1" res="3.4012645483016968e-02" rms="3.2294878363609314e-01" purity="6.8859237432479858e-01" nType="0">
          <Node pos="l" depth="2" NCoef="0" IVar="-1" Cut="0.0000000000000000e+00" cType="1" res="-1.6912611201405525e-02" rms="3.4873509407043457e-01" purity="3.0361765623092651e-01" nType="-99"/>
          <Node pos="r" depth="2" NCoef="0" IVar="-1" Cut="0.0000000000000000e+00" cType="1" res="8.8804718106985092e-03" rms="3.1477075815200806e-01" purity="7.3820149898529053e-01" nType="-99"/>
        </Node>
      </Node>
    </BinaryTree>
    <BinaryTree type="DecisionTree" boostWeight="1.0000000000000000e+00" itree="62">
      <Node pos="s" depth="0" NCoef="0" IVar="57" Cut="9.3208454549312592e-02" cType="1" res="-3.4532772842794657e-03" rms="3.0163592100143433e-01" purity="4.9021083116531372e-01" nType="0">
        <Node pos="l" depth="1" NCoef="0" IVar="19" Cut="8.5210323333740234e-01" cType="1" res="-9.7197398543357849e-02" rms="1.6869643330574036e-01" purity="4.5648112893104553e-02" nType="0">
          <Node pos="l" depth="2" NCoef="0" IVar="-1" Cut="0.0000000000000000e+00" cType="1" res="-1.2481374666094780e-02" rms="2.4883547425270081e-01" purity="9.5254138112068176e-02" nType="-99"/>
          <Node pos="r" depth="2" NCoef="0" IVar="-1" Cut="0.0000000000000000e+00" cType="1" res="-4.2686153203248978e-02" rms="-nan" purity="-4.5116249471902847e-02" nType="-99"/>
        </Node>
        <Node pos="r" depth="1" NCoef="0" IVar="60" Cut="-1.2693451642990112e+00" cType="1" res="2.1434562280774117e-02" rms="3.2346794009208679e-01" purity="6.0823637247085571e-01" nType="0">
          <Node pos="l" depth="2" NCoef="0" IVar="-1" Cut="0.0000000000000000e+00" cType="1" res="7.9864207655191422e-03" rms="3.2491299510002136e-01" purity="6.6746908426284790e-01" nType="-99"/>
          <Node pos="r" depth="2" NCoef="0" IVar="-1" Cut="0.0000000000000000e+00" cType="1" res="-1.3312265276908875e-02" rms="2.9777601361274719e-01" purity="3.7667977809906006e-01" nType="-99"/>
        </Node>
      </Node>
    </BinaryTree>
    <BinaryTree type="DecisionTree" boostWeight="1.0000000000000000e+00" itree="63">
      <Node pos="s" depth="0" NCoef="0" IVar="2" Cut="2.3048024177551270e+00" cType="1" res="2.5208094157278538e-03" rms="3.0618888139724731e-01" purity="4.9967122077941895e-01" nType="0">
        <Node pos="l" depth="1" NCoef="0" IVar="15" Cut="1.5216652154922485e+00" cType="1" res="-5.5059686303138733e-02" rms="2.8819808363914490e-01" purity="2.8197228908538818e-01" nType="0">
          <Node pos="l" depth="2" NCoef="0" IVar="-1" Cut="0.0000000000000000e+00" cType="1" res="-5.4167788475751877e-03" rms="2.8422537446022034e-01" purity="2.9809126257896423e-01" nType="-99"/>
          <Node pos="r" depth="2" NCoef="0" IVar="-1" Cut="0.0000000000000000e+00" cType="1" res="-3.6960337311029434e-02" rms="2.4182796478271484e-01" purity="1.7608131468296051e-01" nType="-99"/>
        </Node>
        <Node pos="r" depth="1" NCoef="0" IVar="36" Cut="-1.4151318073272705e+00" cType="1" res="4.1263133287429810e-02" rms="3.1179293990135193e-01" purity="6.4614725112915039e-01" nType="0">
          <Node pos="l" depth="2" NCoef="0" IVar="-1" Cut="0.0000000000000000e+00" cType="1" res="-4.6906795352697372e-02" rms="-nan" purity="-6.0935523360967636e-02" nType="-99"/>
          <Node pos="r" depth="2" NCoef="0" IVar="-1" Cut="0.0000000000000000e+00" cType="1" res="9.2665627598762512e-03" rms="3.1792077422142029e-01" purity="6.7445367574691772e-01" nType="-99"/>
        </Node>
      </Node>
    </BinaryTree>
    <BinaryTree type="DecisionTree" boostWeight="1.0000000000000000e+00" itree="64">
      <Node pos="s" depth="0" NCoef="0" IVar="69" Cut="1.3122220039367676e+00" cType="1" res="2.6292754337191582e-03" rms="3.0381777882575989e-01" purity="4.9940961599349976e-01" nType="0">
        <Node pos="l" depth="1" NCoef="0" IVar="39" Cut="-2.2798759937286377e+00" cType="1" res="-7.6342664659023285e-02" rms="2.7992066740989685e-01" purity="2.5958472490310669e-01" nType="0">
          <Node pos="l" depth="2" NCoef="0" IVar="-1" Cut="0.0000000000000000e+00" cType="1" res="1.9401458557695150e-03" rms="3.4442502260208130e-01" purity="4.3865251541137695e-01" nType="-99"/>
          <Node pos="r" depth="2" NCoef="0" IVar="-1" Cut="0.0000000000000000e+00" cType="1" res="-2.3977981880307198e-02" rms="2.2651301324367523e-01" purity="1.6631729900836945e-01" nType="-99"/>
        </Node>
        <Node pos="r" depth="1" NCoef="0" IVar="57" Cut="-7.1895664930343628e-01" cType="1" res="3.2252151519060135e-02" rms="3.0711716413497925e-01" purity="5.8936947584152222e-01" nType="0">
          <Node pos="l" depth="2" NCoef="0" IVar="-1" Cut="0.0000000000000000e+00" cType="1" res="-2.2451993077993393e-02" rms="1.5871584415435791e-01" purity="4.3246623128652573e-02" nType="-99"/>
          <Node pos="r" depth="2" NCoef="0" IVar="-1" Cut="0.0000000000000000e+00" cType="1" res="9.1542266309261322e-03" rms="3.2001039385795593e-01" purity="6.7729449272155762e-01" nType="-99"/>
        </Node>
      </Node>
    </BinaryTree>
    <BinaryTree type="DecisionTree" boostWeight="1.0000000000000000e+00" itree="65">
      <Node pos="s" depth="0" NCoef="0" IVar="39" Cut="-1.3308107852935791e+00" cType="1" res="5.1271971315145493e-03" rms="3.0622148513793945e-01" purity="5.0612670183181763e-01" nType="0">
        <Node pos="l" depth="1" NCoef="0" IVar="17" Cut="1.3290691375732422e+00" cType="1" res="2.8179161250591278e-02" rms="3.0665218830108643e-01" purity="5.7574009895324707e-01" nType="0">
          <Node pos="l" depth="2" NCoef="0" IVar="-1" Cut="0.0000000000000000e+00" cType="1" res="-1.7978381365537643e-02" rms="1.5900138020515442e-01" purity="4.0504392236471176e-02" nType="-99"/>
          <Node pos="r" depth="2" NCoef="0" IVar="-1" Cut="0.0000000000000000e+00" cType="1" res="8.6453603580594063e-03" rms="3.3135494589805603e-01" purity="7.2075051069259644e-01" nType="-99"/>
        </Node>
        <Node pos="r" depth="1" NCoef="0" IVar="2" Cut="3.1391551494598389e+00" cType="1" res="-7.3424957692623138e-02" rms="2.9136049747467041e-01" purity="2.6891121268272400e-01" nType="0">
          <Node pos="l" depth="2" NCoef="0" IVar="-1" Cut="0.0000000000000000e+00" cType="1" res="-1.8400987610220909e-02" rms="2.6485070586204529e-01" purity="2.2598102688789368e-01" nType="-99"/>
          <Node pos="r" depth="2" NCoef="0" IVar="-1" Cut="0.0000000000000000e+00" cType="1" res="1.7378330230712891e-02" rms="4.1350883245468140e-01" purity="6.2645703554153442e-01" nType="-99"/>
        </Node>
      </Node>
    </BinaryTree>
    <BinaryTree type="DecisionTree" boostWeight="1.0000000000000000e+00" itree="66">
      <Node pos="s" depth="0" NCoef="0" IVar="69" Cut="1.4542542695999146e+00" cType="1" res="5.5120489560067654e-03" rms="3.0536291003227234e-01" purity="5.0732666254043579e-01" nType="0">
        <Node pos="l" depth="1" NCoef="0" IVar="31" Cut="2.6754417419433594e+00" cType="1" res="-5.2010681480169296e-02" rms="2.8621917963027954e-01" purity="3.1421226263046265e-01" nType="0">
          <Node pos="l" depth="2" NCoef="0" IVar="-1" Cut="0.0000000000000000e+00" cType="1" res="-3.1164718791842461e-02" rms="1.6824646294116974e-01" purity="5.8081861585378647e-02" nType="-99"/>
          <Node pos="r" depth="2" NCoef="0" IVar="-1" Cut="0.0000000000000000e+00" cType="1" res="-4.9227452836930752e-03" rms="3.0407288670539856e-01" purity="3.8068673014640808e-01" nType="-99"/>
        </Node>
        <Node pos="r" depth="1" NCoef="0" IVar="87" Cut="1.2345679104328156e-02" cType="1" res="3.4546528011560440e-02" rms="3.1056347489356995e-01" purity="6.0480076074600220e-01" nType="0">
          <Node pos="l" depth="2" NCoef="0" IVar="-1" Cut="0.0000000000000000e+00" cType="1" res="8.2383230328559875e-03" rms="3.1276491284370422e-01" purity="6.3909143209457397e-01" nType="-99"/>
          <Node pos="r" depth="2" NCoef="0" IVar="-1" Cut="0.0000000000000000e+00" cType="1" res="-3.7645965814590454e-02" rms="1.6795107722282410e-01" purity="0.0000000000000000e+00" nType="-99"/>
        </Node>
      </Node>
    </BinaryTree>
    <BinaryTree type="DecisionTree" boostWeight="1.0000000000000000e+00" itree="67">
      <Node pos="s" depth="0" NCoef="0" IVar="78" Cut="7.1955811977386475e-01" cType="1" res="2.0268943626433611e-03" rms="3.0586725473403931e-01" purity="4.9525487422943115e-01" nType="0">
        <Node pos="l" depth="1" NCoef="0" IVar="40" Cut="1.0985506772994995e+00" cType="1" res="2.1871494129300117e-02" rms="3.1705129146575928e-01" purity="5.5742597579956055e-01" nType="0">
          <Node pos="l" depth="2" NCoef="0" IVar="-1" Cut="0.0000000000000000e+00" cType="1" res="7.2416542097926140e-03" rms="3.2167661190032959e-01" purity="5.9903103113174438e-01" nType="-99"/>
          <Node pos="r" depth="2" NCoef="0" IVar="-1" Cut="0.0000000000000000e+00" cType="1" res="-1.3511200435459614e-02" rms="2.7274528145790100e-01" purity="3.3809655904769897e-01" nType="-99"/>
        </Node>
        <Node pos="r" depth="1" NCoef="0" IVar="52" Cut="2.9152910709381104e+00" cType="1" res="-1.0518625378608704e-01" rms="2.0565463602542877e-01" purity="1.5936717391014099e-01" nType="0">
          <Node pos="l" depth="2" NCoef="0" IVar="-1" Cut="0.0000000000000000e+00" cType="1" res="-3.9148941636085510e-02" rms="-nan" purity="2.6819216087460518e-02" nType="-99"/>
          <Node pos="r" depth="2" NCoef="0" IVar="-1" Cut="0.0000000000000000e+00" cType="1" res="-9.0150171890854836e-03" rms="2.8652048110961914e-01" purity="2.6134914159774780e-01" nType="-99"/>
        </Node>
      </Node>
    </BinaryTree>
    <BinaryTree type="DecisionTree" boostWeight="1.0000000000000000e+00" itree="68">
      <Node pos="s" depth="0" NCoef="0" IVar="5" Cut="4.4107076525688171e-01" cType="1" res="4.0115010924637318e-03" rms="3.0544850230216980e-01" purity="4.9729621410369873e-01" nType="0">
        <Node pos="l" depth="1" NCoef="0" IVar="77" Cut="1.3673177957534790e+00" cType="1" res="1.8485266715288162e-02" rms="3.0615988373756409e-01" purity="5.2621144056320190e-01" nType="0">
          <Node pos="l" depth="2" NCoef="0" IVar="-1" Cut="0.0000000000000000e+00" cType="1" res="5.0981915555894375e-03" rms="3.1075116991996765e-01" purity="5.5018562078475952e-01" nType="-99"/>
          <Node pos="r" depth="2" NCoef="0" IVar="-1" Cut="0.0000000000000000e+00" cType="1" res="-3.4760020673274994e-02" rms="7.5165711343288422e-02" purity="5.7727072387933731e-02" nType="-99"/>
        </Node>
        <Node pos="r" depth="1" NCoef="0" IVar="0" Cut="1.0603270530700684e+00" cType="1" res="-1.1820468306541443e-01" rms="2.7003577351570129e-01" purity="2.5313642621040344e-01" nType="0">
          <Node pos="l" depth="2" NCoef="0" IVar="-1" Cut="0.0000000000000000e+00" cType="1" res="-1.5110223554074764e-02" rms="3.2123234868049622e-01" purity="3.0480736494064331e-01" nType="-99"/>
          <Node pos="r" depth="2" NCoef="0" IVar="-1" Cut="0.0000000000000000e+00" cType="1" res="-5.0800453871488571e-02" rms="-nan" purity="6.0432221740484238e-02" nType="-99"/>
        </Node>
      </Node>
    </BinaryTree>
    <BinaryTree type="DecisionTree" boostWeight="1.0000000000000000e+00" itree="69">
      <Node pos="s" depth="0" NCoef="0" IVar="40" Cut="1.1941107511520386e+00" cType="1" res="-2.4225253146141768e-03" rms="3.0084332823753357e-01" purity="4.9439480900764465e-01" nType="0">
        <Node pos="l" depth="1" NCoef="0" IVar="78" Cut="1.0629613399505615e+00" cType="1" res="1.3441709801554680e-02" rms="3.0851328372955322e-01" purity="5.3031688928604126e-01" nType="0">
          <Node pos="l" depth="2" NCoef="0" IVar="-1" Cut="0.0000000000000000e+00" cType="1" res="5.3119584918022156e-03" rms="3.1621864438056946e-01" purity="5.8374482393264771e-01" nType="-99"/>
          <Node pos="r" depth="2" NCoef="0" IVar="-1" Cut="0.0000000000000000e+00" cType="1" res="-2.0428627729415894e-02" rms="2.1810795366764069e-01" purity="1.5434576570987701e-01" nType="-99"/>
        </Node>
        <Node pos="r" depth="1" NCoef="0" IVar="10" Cut="3.1805164813995361e+00" cType="1" res="-1.1485076695680618e-01" rms="2.0726943016052246e-01" purity="2.3981875181198120e-01" nType="0">
          <Node pos="l" depth="2" NCoef="0" IVar="-1" Cut="0.0000000000000000e+00" cType="1" res="-3.8416251540184021e-02" rms="4.9750886857509613e-02" purity="9.0438112616539001e-02" nType="-99"/>
          <Node pos="r" depth="2" NCoef="0" IVar="-1" Cut="0.0000000000000000e+00" cType="1" res="-9.2433169484138489e-03" rms="2.5602665543556213e-01" purity="3.6044564843177795e-01" nType="-99"/>
        </Node>
      </Node>
    </BinaryTree>
    <BinaryTree type="DecisionTree" boostWeight="1.0000000000000000e+00" itree="70">
      <Node pos="s" depth="0" NCoef="0" IVar="57" Cut="-7.1925657987594604e-01" cType="1" res="5.3949547000229359e-03" rms="3.0263817310333252e-01" purity="5.0309050083160400e-01" nType="0">
        <Node pos="l" depth="1" NCoef="0" IVar="5" Cut="1.4055199921131134e-01" cType="1" res="-9.2279471457004547e-02" rms="1.2102896720170975e-01" purity="3.1634911894798279e-02" nType="0">
          <Node pos="l" depth="2" NCoef="0" IVar="-1" Cut="0.0000000000000000e+00" cType="1" res="-4.1533716022968292e-02" rms="-nan" purity="-3.8926459848880768e-02" nType="-99"/>
          <Node pos="r" depth="2" NCoef="0" IVar="-1" Cut="0.0000000000000000e+00" cType="1" res="-1.4162949286401272e-02" rms="2.2086648643016815e-01" purity="6.7075148224830627e-02" nType="-99"/>
        </Node>
        <Node pos="r" depth="1" NCoef="0" IVar="2" Cut="1.7436329126358032e+00" cType="1" res="2.4985795840620995e-02" rms="3.2361242175102234e-01" purity="5.9765172004699707e-01" nType="0">
          <Node pos="l" depth="2" NCoef="0" IVar="-1" Cut="0.0000000000000000e+00" cType="1" res="-1.8760643899440765e-02" rms="2.9936987161636353e-01" purity="1.8211002647876740e-01" nType="-99"/>
          <Node pos="r" depth="2" NCoef="0" IVar="-1" Cut="0.0000000000000000e+00" cType="1" res="7.3073706589639187e-03" rms="3.2316693663597107e-01" purity="6.5396487712860107e-01" nType="-99"/>
        </Node>
      </Node>
    </BinaryTree>
    <BinaryTree type="DecisionTree" boostWeight="1.0000000000000000e+00" itree="71">
      <Node pos="s" depth="0" NCoef="0" IVar="2" Cut="2.2967889308929443e+00" cType="1" res="1.0895530693233013e-02" rms="3.0529859662055969e-01" purity="5.1120734214782715e-01" nType="0">
        <Node pos="l" depth="1" NCoef="0" IVar="15" Cut="1.5220727920532227e+00" cType="1" res="-4.4035151600837708e-02" rms="2.8674936294555664e-01" purity="2.9131132364273071e-01" nType="0">
          <Node pos="l" depth="2" NCoef="0" IVar="-1" Cut="0.0000000000000000e+00" cType="1" res="-4.5796479098498821e-03" rms="2.8033101558685303e-01" purity="2.9939085245132446e-01" nType="-99"/>
          <Node pos="r" depth="2" NCoef="0" IVar="-1" Cut="0.0000000000000000e+00" cType="1" res="-2.6939606294035912e-02" rms="2.9019314050674438e-01" purity="2.4485319852828979e-01" nType="-99"/>
        </Node>
        <Node pos="r" depth="1" NCoef="0" IVar="17" Cut="-1.1832662820816040e+00" cType="1" res="4.7109026461839676e-02" rms="3.1168347597122192e-01" purity="6.5617555379867554e-01" nType="0">
          <Node pos="l" depth="2" NCoef="0" IVar="-1" Cut="0.0000000000000000e+00" cType="1" res="-4.5562509447336197e-02" rms="-nan" purity="-5.9009041637182236e-02" nType="-99"/>
          <Node pos="r" depth="2" NCoef="0" IVar="-1" Cut="0.0000000000000000e+00" cType="1" res="1.1794572696089745e-02" rms="3.2917675375938416e-01" purity="7.2510629892349243e-01" nType="-99"/>
        </Node>
      </Node>
    </BinaryTree>
    <BinaryTree type="DecisionTree" boostWeight="1.0000000000000000e+00" itree="72">
      <Node pos="s" depth="0" NCoef="0" IVar="80" Cut="-1.4927570819854736e+00" cType="1" res="3.8261655718088150e-03" rms="2.9856079816818237e-01" purity="5.0316053628921509e-01" nType="0">
        <Node pos="l" depth="1" NCoef="0" IVar="17" Cut="-6.8020260334014893e-01" cType="1" res="5.3382672369480133e-02" rms="3.1185644865036011e-01" purity="6.9397729635238647e-01" nType="0">
          <Node pos="l" depth="2" NCoef="0" IVar="-1" Cut="0.0000000000000000e+00" cType="1" res="-3.1098736450076103e-02" rms="-nan" purity="-6.9243418984115124e-03" nType="-99"/>
          <Node pos="r" depth="2" NCoef="0" IVar="-1" Cut="0.0000000000000000e+00" cType="1" res="1.2675220146775246e-02" rms="3.2691511511802673e-01" purity="7.7398532629013062e-01" nType="-99"/>
        </Node>
        <Node pos="r" depth="1" NCoef="0" IVar="16" Cut="8.9706242084503174e-01" cType="1" res="-3.4302905201911926e-02" rms="2.8204745054244995e-01" purity="3.5634493827819824e-01" nType="0">
          <Node pos="l" depth="2" NCoef="0" IVar="-1" Cut="0.0000000000000000e+00" cType="1" res="-3.6433602217584848e-03" rms="2.9245072603225708e-01" purity="3.7826201319694519e-01" nType="-99"/>
          <Node pos="r" depth="2" NCoef="0" IVar="-1" Cut="0.0000000000000000e+00" cType="1" res="-3.4964069724082947e-02" rms="1.8233431503176689e-02" purity="1.5184587240219116e-01" nType="-99"/>
        </Node>
      </Node>
    </BinaryTree>
    <BinaryTree type="DecisionTree" boostWeight="1.0000000000000000e+00" itree="73">
      <Node pos="s" depth="0" NCoef="0" IVar="81" Cut="-1.1835508346557617e+00" cType="1" res="1.8409771655569784e-05" rms="3.0245250463485718e-01" purity="5.0174868106842041e-01" nType="0">
        <Node pos="l" depth="1" NCoef="0" IVar="57" Cut="-1.0285489559173584e+00" cType="1" res="2.1523302420973778e-02" rms="3.1656783819198608e-01" purity="5.6305068731307983e-01" nType="0">
          <Node pos="l" depth="2" NCoef="0" IVar="-1" Cut="0.0000000000000000e+00" cType="1" res="-2.0569929853081703e-02" rms="1.6384981572628021e-01" purity="4.3996863067150116e-02" nType="-99"/>
          <Node pos="r" depth="2" NCoef="0" IVar="-1" Cut="0.0000000000000000e+00" cType="1" res="6.6488697193562984e-03" rms="3.3107155561447144e-01" purity="6.4211302995681763e-01" nType="-99"/>
        </Node>
        <Node pos="r" depth="1" NCoef="0" IVar="27" Cut="1.5391370058059692e+00" cType="1" res="-8.4409698843955994e-02" rms="2.1961249411106110e-01" purity="2.6107692718505859e-01" nType="0">
          <Node pos="l" depth="2" NCoef="0" IVar="-1" Cut="0.0000000000000000e+00" cType="1" res="-3.5374678671360016e-02" rms="-nan" purity="6.4719401299953461e-02" nType="-99"/>
          <Node pos="r" depth="2" NCoef="0" IVar="-1" Cut="0.0000000000000000e+00" cType="1" res="-8.8826175779104233e-03" rms="2.7356538176536560e-01" purity="3.6025115847587585e-01" nType="-99"/>
        </Node>
      </Node>
    </BinaryTree>
    <BinaryTree type="DecisionTree" boostWeight="1.0000000000000000e+00" itree="74">
      <Node pos="s" depth="0" NCoef="0" IVar="57" Cut="1.4081424474716187e+00" cType="1" res="-5.8482047170400620e-03" rms="2.9185217618942261e-01" purity="4.9215114116668701e-01" nType="0">
        <Node pos="l" depth="1" NCoef="0" IVar="62" Cut="2.6840317249298096e-01" cType="1" res="-6.0374204069375992e-02" rms="2.3264983296394348e-01" purity="1.2048438936471939e-01" nType="0">
          <Node pos="l" depth="2" NCoef="0" IVar="-1" Cut="0.0000000000000000e+00" cType="1" res="-1.7462125048041344e-02" rms="1.9109506905078888e-01" purity="1.0639106482267380e-01" nType="-99"/>
          <Node pos="r" depth="2" NCoef="0" IVar="-1" Cut="0.0000000000000000e+00" cType="1" res="1.8939048051834106e-02" rms="4.0454638004302979e-01" purity="2.2543732821941376e-01" nType="-99"/>
        </Node>
        <Node pos="r" depth="1" NCoef="0" IVar="36" Cut="8.2696396112442017e-01" cType="1" res="2.3380521684885025e-02" rms="3.1523793935775757e-01" purity="6.9138360023498535e-01" nType="0">
          <Node pos="l" depth="2" NCoef="0" IVar="-1" Cut="0.0000000000000000e+00" cType="1" res="-1.4171974733471870e-02" rms="2.7252322435379028e-01" purity="1.5515582263469696e-01" nType="-99"/>
          <Node pos="r" depth="2" NCoef="0" IVar="-1" Cut="0.0000000000000000e+00" cType="1" res="7.8486585989594460e-03" rms="3.1845751404762268e-01" purity="7.8840523958206177e-01" nType="-99"/>
        </Node>
      </Node>
    </BinaryTree>
    <BinaryTree type="DecisionTree" boostWeight="1.0000000000000000e+00" itree="75">
      <Node pos="s" depth="0" NCoef="0" IVar="76" Cut="-9.9249351024627686e-01" cType="1" res="3.8974802009761333e-03" rms="2.9749161005020142e-01" purity="5.0398439168930054e-01" nType="0">
        <Node pos="l" depth="1" NCoef="0" IVar="57" Cut="-1.7813891172409058e-01" cType="1" res="3.3790428191423416e-02" rms="3.0424112081527710e-01" purity="6.2351024150848389e-01" nType="0">
          <Node pos="l" depth="2" NCoef="0" IVar="-1" Cut="0.0000000000000000e+00" cType="1" res="-2.2475751116871834e-02" rms="1.3976922631263733e-01" purity="4.6416722238063812e-02" nType="-99"/>
          <Node pos="r" depth="2" NCoef="0" IVar="-1" Cut="0.0000000000000000e+00" cType="1" res="1.0069225914776325e-02" rms="3.1879353523254395e-01" purity="7.2080469131469727e-01" nType="-99"/>
        </Node>
        <Node pos="r" depth="1" NCoef="0" IVar="3" Cut="4.9069628715515137e+00" cType="1" res="-5.5986251682043076e-02" rms="2.7384114265441895e-01" purity="2.6454156637191772e-01" nType="0">
          <Node pos="l" depth="2" NCoef="0" IVar="-1" Cut="0.0000000000000000e+00" cType="1" res="-1.7402205616235733e-02" rms="2.5009149312973022e-01" purity="2.3776693642139435e-01" nType="-99"/>
          <Node pos="r" depth="2" NCoef="0" IVar="-1" Cut="0.0000000000000000e+00" cType="1" res="7.8371539711952209e-03" rms="3.1842234730720520e-01" purity="3.4536394476890564e-01" nType="-99"/>
        </Node>
      </Node>
    </BinaryTree>
    <BinaryTree type="DecisionTree" boostWeight="1.0000000000000000e+00" itree="76">
      <Node pos="s" depth="0" NCoef="0" IVar="60" Cut="-1.6968547105789185e+00" cType="1" res="-8.2698062760755420e-04" rms="2.9833909869194031e-01" purity="4.9163404107093811e-01" nType="0">
        <Node pos="l" depth="1" NCoef="0" IVar="5" Cut="3.8208705186843872e-01" cType="1" res="2.8224632143974304e-02" rms="2.9955786466598511e-01" purity="5.9159630537033081e-01" nType="0">
          <Node pos="l" depth="2" NCoef="0" IVar="-1" Cut="0.0000000000000000e+00" cType="1" res="9.5380060374736786e-03" rms="3.0017295479774475e-01" purity="6.3058060407638550e-01" nType="-99"/>
          <Node pos="r" depth="2" NCoef="0" IVar="-1" Cut="0.0000000000000000e+00" cType="1" res="-1.2544699013233185e-02" rms="2.7810341119766235e-01" purity="4.1974979639053345e-01" nType="-99"/>
        </Node>
        <Node pos="r" depth="1" NCoef="0" IVar="67" Cut="1.0478799343109131e+00" cType="1" res="-5.1195401698350906e-02" rms="2.8938314318656921e-01" purity="3.1832382082939148e-01" nType="0">
          <Node pos="l" depth="2" NCoef="0" IVar="-1" Cut="0.0000000000000000e+00" cType="1" res="-4.8546558246016502e-03" rms="3.1851327419281006e-01" purity="3.6602845788002014e-01" nType="-99"/>
          <Node pos="r" depth="2" NCoef="0" IVar="-1" Cut="0.0000000000000000e+00" cType="1" res="-2.8631672263145447e-02" rms="1.4629109203815460e-01" purity="1.7412807047367096e-01" nType="-99"/>
        </Node>
      </Node>
    </BinaryTree>
    <BinaryTree type="DecisionTree" boostWeight="1.0000000000000000e+00" itree="77">
      <Node pos="s" depth="0" NCoef="0" IVar="0" Cut="8.5225385427474976e-01" cType="1" res="4.0818220004439354e-03" rms="3.0150130391120911e-01" purity="5.0084644556045532e-01" nType="0">
        <Node pos="l" depth="1" NCoef="0" IVar="2" Cut="1.8795639276504517e+00" cType="1" res="3.6617692559957504e-02" rms="3.1097704172134399e-01" purity="5.7563149929046631e-01" nType="0">
          <Node pos="l" depth="2" NCoef="0" IVar="-1" Cut="0.0000000000000000e+00" cType="1" res="-1.5219488181173801e-02" rms="2.3930887877941132e-01" purity="2.0618693530559540e-01" nType="-99"/>
          <Node pos="r" depth="2" NCoef="0" IVar="-1" Cut="0.0000000000000000e+00" cType="1" res="1.1200936511158943e-02" rms="3.1966170668601990e-01" purity="6.5635311603546143e-01" nType="-99"/>
        </Node>
        <Node pos="r" depth="1" NCoef="0" IVar="52" Cut="2.7810111045837402e+00" cType="1" res="-4.0807764977216721e-02" rms="2.8181573748588562e-01" purity="3.9766579866409302e-01" nType="0">
          <Node pos="l" depth="2" NCoef="0" IVar="-1" Cut="0.0000000000000000e+00" cType="1" res="-2.3923844099044800e-02" rms="2.2845381498336792e-01" purity="1.5714053809642792e-01" nType="-99"/>
          <Node pos="r" depth="2" NCoef="0" IVar="-1" Cut="0.0000000000000000e+00" cType="1" res="-3.0081130098551512e-03" rms="2.9318141937255859e-01" purity="4.7911125421524048e-01" nType="-99"/>
        </Node>
      </Node>
    </BinaryTree>
    <BinaryTree type="DecisionTree" boostWeight="1.0000000000000000e+00" itree="78">
      <Node pos="s" depth="0" NCoef="0" IVar="36" Cut="-9.5127755403518677e-01" cType="1" res="3.0084716854617000e-04" rms="2.9508134722709656e-01" purity="5.0135213136672974e-01" nType="0">
        <Node pos="l" depth="1" NCoef="0" IVar="39" Cut="-1.9480866193771362e+00" cType="1" res="-1.0357476770877838e-01" rms="1.2019086629152298e-01" purity="3.9996549487113953e-02" nType="0">
          <Node pos="l" depth="2" NCoef="0" IVar="-1" Cut="0.0000000000000000e+00" cType="1" res="-3.8073200732469559e-02" rms="-nan" purity="-9.3866484239697456e-03" nType="-99"/>
          <Node pos="r" depth="2" NCoef="0" IVar="-1" Cut="0.0000000000000000e+00" cType="1" res="-1.5467195771634579e-02" rms="2.1875335276126862e-01" purity="7.1625351905822754e-02" nType="-99"/>
        </Node>
        <Node pos="r" depth="1" NCoef="0" IVar="39" Cut="-7.7938872575759888e-01" cType="1" res="2.0171245560050011e-02" rms="3.1385824084281921e-01" purity="5.8960497379302979e-01" nType="0">
          <Node pos="l" depth="2" NCoef="0" IVar="-1" Cut="0.0000000000000000e+00" cType="1" res="6.1580631881952286e-03" rms="3.1679576635360718e-01" purity="6.2368184328079224e-01" nType="-99"/>
          <Node pos="r" depth="2" NCoef="0" IVar="-1" Cut="0.0000000000000000e+00" cType="1" res="-2.3943187668919563e-02" rms="2.3543828725814819e-01" purity="2.0185510814189911e-01" nType="-99"/>
        </Node>
      </Node>
    </BinaryTree>
    <BinaryTree type="DecisionTree" boostWeight="1.0000000000000000e+00" itree="79">
      <Node pos="s" depth="0" NCoef="0" IVar="78" Cut="-1.4553297758102417e+00" cType="1" res="-5.4425862617790699e-03" rms="2.8734928369522095e-01" purity="4.9132359027862549e-01" nType="0">
        <Node pos="l" depth="1" NCoef="0" IVar="36" Cut="-1.1830065250396729e+00" cType="1" res="3.4437235444784164e-02" rms="3.0518099665641785e-01" purity="6.6552418470382690e-01" nType="0">
          <Node pos="l" depth="2" NCoef="0" IVar="-1" Cut="0.0000000000000000e+00" cType="1" res="-2.1212877705693245e-02" rms="2.0218273997306824e-01" purity="6.8726457655429840e-02" nType="-99"/>
          <Node pos="r" depth="2" NCoef="0" IVar="-1" Cut="0.0000000000000000e+00" cType="1" res="9.3073844909667969e-03" rms="3.1068548560142517e-01" purity="7.2960287332534790e-01" nType="-99"/>
        </Node>
        <Node pos="r" depth="1" NCoef="0" IVar="2" Cut="3.1693432331085205e+00" cType="1" res="-5.0486408174037933e-02" rms="2.5847694277763367e-01" purity="2.9456585645675659e-01" nType="0">
          <Node pos="l" depth="2" NCoef="0" IVar="-1" Cut="0.0000000000000000e+00" cType="1" res="-1.3849285431206226e-02" rms="2.4194914102554321e-01" purity="2.5315490365028381e-01" nType="-99"/>
          <Node pos="r" depth="2" NCoef="0" IVar="-1" Cut="0.0000000000000000e+00" cType="1" res="1.4125858433544636e-02" rms="3.4288057684898376e-01" purity="6.4726638793945312e-01" nType="-99"/>
        </Node>
      </Node>
    </BinaryTree>
    <BinaryTree type="DecisionTree" boostWeight="1.0000000000000000e+00" itree="80">
      <Node pos="s" depth="0" NCoef="0" IVar="36" Cut="-9.1225367784500122e-01" cType="1" res="3.4198796493001282e-04" rms="2.9067340493202209e-01" purity="5.0164860486984253e-01" nType="0">
        <Node pos="l" depth="1" NCoef="0" IVar="37" Cut="-2.9949855804443359e-01" cType="1" res="-8.8384188711643219e-02" rms="1.5945400297641754e-01" purity="3.8590375334024429e-02" nType="0">
          <Node pos="l" depth="2" NCoef="0" IVar="-1" Cut="0.0000000000000000e+00" cType="1" res="-3.2336566597223282e-02" rms="-nan" purity="5.0049787387251854e-03" nType="-99"/>
          <Node pos="r" depth="2" NCoef="0" IVar="-1" Cut="0.0000000000000000e+00" cType="1" res="-6.8176090717315674e-03" rms="2.6018297672271729e-01" purity="9.1107547283172607e-02" nType="-99"/>
        </Node>
        <Node pos="r" depth="1" NCoef="0" IVar="76" Cut="1.0440721511840820e+00" cType="1" res="1.7719985917210579e-02" rms="3.0694586038589478e-01" purity="5.9234362840652466e-01" nType="0">
          <Node pos="l" depth="2" NCoef="0" IVar="-1" Cut="0.0000000000000000e+00" cType="1" res="6.7072706297039986e-03" rms="3.1019872426986694e-01" purity="6.6576164960861206e-01" nType="-99"/>
          <Node pos="r" depth="2" NCoef="0" IVar="-1" Cut="0.0000000000000000e+00" cType="1" res="-1.5506550669670105e-02" rms="2.7029651403427124e-01" purity="2.0199790596961975e-01" nType="-99"/>
        </Node>
      </Node>
    </BinaryTree>
    <BinaryTree type="DecisionTree" boostWeight="1.0000000000000000e+00" itree="81">
      <Node pos="s" depth="0" NCoef="0" IVar="60" Cut="-2.2495949268341064e+00" cType="1" res="1.1592463124543428e-03" rms="2.8853315114974976e-01" purity="5.0184816122055054e-01" nType="0">
        <Node pos="l" depth="1" NCoef="0" IVar="17" Cut="1.0990421772003174e+00" cType="1" res="4.7081932425498962e-02" rms="2.9209709167480469e-01" purity="6.5368020534515381e-01" nType="0">
          <Node pos="l" depth="2" NCoef="0" IVar="-1" Cut="0.0000000000000000e+00" cType="1" res="-2.6738855987787247e-02" rms="-nan" purity="6.1212885193526745e-03" nType="-99"/>
          <Node pos="r" depth="2" NCoef="0" IVar="-1" Cut="0.0000000000000000e+00" cType="1" res="1.2504001148045063e-02" rms="3.1276342272758484e-01" purity="7.6704800128936768e-01" nType="-99"/>
        </Node>
        <Node pos="r" depth="1" NCoef="0" IVar="40" Cut="9.7610414028167725e-01" cType="1" res="-2.8241943567991257e-02" rms="2.8233298659324646e-01" purity="4.0464034676551819e-01" nType="0">
          <Node pos="l" depth="2" NCoef="0" IVar="-1" Cut="0.0000000000000000e+00" cType="1" res="-1.0519718052819371e-03" rms="2.9809370636940002e-01" purity="4.6587219834327698e-01" nType="-99"/>
          <Node pos="r" depth="2" NCoef="0" IVar="-1" Cut="0.0000000000000000e+00" cType="1" res="-1.9195608794689178e-02" rms="2.2289173305034637e-01" purity="2.3928377032279968e-01" nType="-99"/>
        </Node>
      </Node>
    </BinaryTree>
    <BinaryTree type="DecisionTree" boostWeight="1.0000000000000000e+00" itree="82">
      <Node pos="s" depth="0" NCoef="0" IVar="17" Cut="1.2150785923004150e+00" cType="1" res="-4.0359622798860073e-03" rms="2.8110474348068237e-01" purity="4.9936929345130920e-01" nType="0">
        <Node pos="l" depth="1" NCoef="0" IVar="56" Cut="7.4670797586441040e-01" cType="1" res="-2.9650259763002396e-02" rms="-nan" purity="-2.6591976638883352e-03" nType="-99"/>
        <Node pos="r" depth="1" NCoef="0" IVar="3" Cut="4.9114904403686523e+00" cType="1" res="1.9453661516308784e-02" rms="3.2151418924331665e-01" purity="6.5148913860321045e-01" nType="0">
          <Node pos="l" depth="2" NCoef="0" IVar="-1" Cut="0.0000000000000000e+00" cType="1" res="-2.7525664772838354e-03" rms="3.1671446561813354e-01" purity="6.0064554214477539e-01" nType="-99"/>
          <Node pos="r" depth="2" NCoef="0" IVar="-1" Cut="0.0000000000000000e+00" cType="1" res="1.7022335901856422e-02" rms="3.1829142570495605e-01" purity="7.6576495170593262e-01" nType="-99"/>
        </Node>
      </Node>
    </BinaryTree>
    <BinaryTree type="DecisionTree" boostWeight="1.0000000000000000e+00" itree="83">
      <Node pos="s" depth="0" NCoef="0" IVar="0" Cut="1.0204328298568726e+00" cType="1" res="9.7580096917226911e-04" rms="2.9401832818984985e-01" purity="5.0189524888992310e-01" nType="0">
        <Node pos="l" depth="1" NCoef="0" IVar="81" Cut="-1.3514803647994995e+00" cType="1" res="2.3622497916221619e-02" rms="3.0349582433700562e-01" purity="5.5325561761856079e-01" nType="0">
          <Node pos="l" depth="2" NCoef="0" IVar="-1" Cut="0.0000000000000000e+00" cType="1" res="8.5299974307417870e-03" rms="3.1232491135597229e-01" purity="6.2072944641113281e-01" nType="-99"/>
          <Node pos="r" depth="2" NCoef="0" IVar="-1" Cut="0.0000000000000000e+00" cType="1" res="-9.0981042012572289e-03" rms="2.6073825359344482e-01" purity="3.2550638914108276e-01" nType="-99"/>
        </Node>
        <Node pos="r" depth="1" NCoef="0" IVar="4" Cut="3.5744938850402832e+00" cType="1" res="-6.5986201167106628e-02" rms="2.5239285826683044e-01" purity="3.5003229975700378e-01" nType="0">
          <Node pos="l" depth="2" NCoef="0" IVar="-1" Cut="0.0000000000000000e+00" cType="1" res="-3.3353682607412338e-02" rms="1.7510502040386200e-01" purity="9.6149168908596039e-02" nType="-99"/>
          <Node pos="r" depth="2" NCoef="0" IVar="-1" Cut="0.0000000000000000e+00" cType="1" res="-2.8030031826347113e-03" rms="2.7862817049026489e-01" purity="5.1231306791305542e-01" nType="-99"/>
        </Node>
      </Node>
    </BinaryTree>
    <BinaryTree type="DecisionTree" boostWeight="1.0000000000000000e+00" itree="84">
      <Node pos="s" depth="0" NCoef="0" IVar="60" Cut="-2.3910734653472900e+00" cType="1" res="4.0916847065091133e-03" rms="2.9189011454582214e-01" purity="5.0453728437423706e-01" nType="0">
        <Node pos="l" depth="1" NCoef="0" IVar="17" Cut="-1.0282928943634033e+00" cType="1" res="6.1548005789518356e-02" rms="2.9810982942581177e-01" purity="6.7363178730010986e-01" nType="0">
          <Node pos="l" depth="2" NCoef="0" IVar="-1" Cut="0.0000000000000000e+00" cType="1" res="-3.1212253496050835e-02" rms="-nan" purity="-6.5866783261299133e-03" nType="-99"/>
          <Node pos="r" depth="2" NCoef="0" IVar="-1" Cut="0.0000000000000000e+00" cType="1" res="1.4206431806087494e-02" rms="3.1325867772102356e-01" purity="7.4905115365982056e-01" nType="-99"/>
        </Node>
        <Node pos="r" depth="1" NCoef="0" IVar="48" Cut="2.2898530960083008e+00" cType="1" res="-1.6872003674507141e-02" rms="2.8673499822616577e-01" purity="4.4284093379974365e-01" nType="0">
          <Node pos="l" depth="2" NCoef="0" IVar="-1" Cut="0.0000000000000000e+00" cType="1" res="-8.6442586034536362e-03" rms="2.6761376857757568e-01" purity="3.4818568825721741e-01" nType="-99"/>
          <Node pos="r" depth="2" NCoef="0" IVar="-1" Cut="0.0000000000000000e+00" cType="1" res="6.3037620857357979e-03" rms="3.1471881270408630e-01" purity="6.2423121929168701e-01" nType="-99"/>
        </Node>
      </Node>
    </BinaryTree>
    <BinaryTree type="DecisionTree" boostWeight="1.0000000000000000e+00" itree="85">
      <Node pos="s" depth="0" NCoef="0" IVar="2" Cut="2.5011172294616699e+00" cType="1" res="3.9734574966132641e-03" rms="2.9843276739120483e-01" purity="5.0160115957260132e-01" nType="0">
        <Node pos="l" depth="1" NCoef="0" IVar="3" Cut="4.8841519355773926e+00" cType="1" res="-2.7556987479329109e-02" rms="2.8977230191230774e-01" purity="3.4703212976455688e-01" nType="0">
          <Node pos="l" depth="2" NCoef="0" IVar="-1" Cut="0.0000000000000000e+00" cType="1" res="-1.5552463009953499e-02" rms="2.6592874526977539e-01" purity="2.8318271040916443e-01" nType="-99"/>
          <Node pos="r" depth="2" NCoef="0" IVar="-1" Cut="0.0000000000000000e+00" cType="1" res="8.9833922684192657e-03" rms="3.0897903442382812e-01" purity="4.4014209508895874e-01" nType="-99"/>
        </Node>
        <Node pos="r" depth="1" NCoef="0" IVar="87" Cut="1.2345679104328156e-02" cType="1" res="4.0353573858737946e-02" rms="3.0408743023872375e-01" purity="6.7994433641433716e-01" nType="0">
          <Node pos="l" depth="2" NCoef="0" IVar="-1" Cut="0.0000000000000000e+00" cType="1" res="9.8641961812973022e-03" rms="3.0632546544075012e-01" purity="7.1763855218887329e-01" nType="-99"/>
          <Node pos="r" depth="2" NCoef="0" IVar="-1" Cut="0.0000000000000000e+00" cType="1" res="-3.8128316402435303e-02" rms="1.7085133492946625e-01" purity="0.0000000000000000e+00" nType="-99"/>
        </Node>
      </Node>
    </BinaryTree>
    <BinaryTree type="DecisionTree" boostWeight="1.0000000000000000e+00" itree="86">
      <Node pos="s" depth="0" NCoef="0" IVar="36" Cut="-1.3764014244079590e+00" cType="1" res="1.6468559624627233e-03" rms="2.9585856199264526e-01" purity="4.9325373768806458e-01" nType="0">
        <Node pos="l" depth="1" NCoef="0" IVar="56" Cut="-5.6691026687622070e-01" cType="1" res="-3.5557799041271210e-02" rms="-nan" purity="-9.1457134112715721e-03" nType="-99"/>
        <Node pos="r" depth="1" NCoef="0" IVar="3" Cut="5.1108198165893555e+00" cType="1" res="1.3715791516005993e-02" rms="3.0993762612342834e-01" purity="5.3970408439636230e-01" nType="0">
          <Node pos="l" depth="2" NCoef="0" IVar="-1" Cut="0.0000000000000000e+00" cType="1" res="-8.7753386469557881e-04" rms="2.9933661222457886e-01" purity="5.4453670978546143e-01" nType="-99"/>
          <Node pos="r" depth="2" NCoef="0" IVar="-1" Cut="0.0000000000000000e+00" cType="1" res="2.3042807355523109e-02" rms="3.4545147418975830e-01" purity="5.1412624120712280e-01" nType="-99"/>
        </Node>
      </Node>
    </BinaryTree>
    <BinaryTree type="DecisionTree" boostWeight="1.0000000000000000e+00" itree="87">
      <Node pos="s" depth="0" NCoef="0" IVar="3" Cut="5.4363632202148438e+00" cType="1" res="6.1256210319697857e-03" rms="3.0139696598052979e-01" purity="4.9929878115653992e-01" nType="0">
        <Node pos="l" depth="1" NCoef="0" IVar="2" Cut="2.1193351745605469e+00" cType="1" res="-1.5913493698462844e-03" rms="2.9402506351470947e-01" purity="5.0637882947921753e-01" nType="0">
          <Node pos="l" depth="2" NCoef="0" IVar="-1" Cut="0.0000000000000000e+00" cType="1" res="-1.4051713049411774e-02" rms="2.4470084905624390e-01" purity="2.3826515674591064e-01" nType="-99"/>
          <Node pos="r" depth="2" NCoef="0" IVar="-1" Cut="0.0000000000000000e+00" cType="1" res="4.9035246483981609e-03" rms="3.0827370285987854e-01" purity="6.1675935983657837e-01" nType="-99"/>
        </Node>
        <Node pos="r" depth="1" NCoef="0" IVar="17" Cut="5.0923848152160645e-01" cType="1" res="1.8924991786479950e-01" rms="4.0006643533706665e-01" purity="3.3128982782363892e-01" nType="0">
          <Node pos="l" depth="2" NCoef="0" IVar="-1" Cut="0.0000000000000000e+00" cType="1" res="2.6451941579580307e-02" rms="3.2084599137306213e-01" purity="1.1754944175481796e-01" nType="-99"/>
          <Node pos="r" depth="2" NCoef="0" IVar="-1" Cut="0.0000000000000000e+00" cType="1" res="5.7574260979890823e-02" rms="4.2755460739135742e-01" purity="5.4371470212936401e-01" nType="-99"/>
        </Node>
      </Node>
    </BinaryTree>
    <BinaryTree type="DecisionTree" boostWeight="1.0000000000000000e+00" itree="88">
      <Node pos="s" depth="0" NCoef="0" IVar="39" Cut="-1.2557555437088013e+00" cType="1" res="6.3642500899732113e-03" rms="2.9946154356002808e-01" purity="5.0323349237442017e-01" nType="0">
        <Node pos="l" depth="1" NCoef="0" IVar="5" Cut="4.4277825951576233e-01" cType="1" res="2.2867359220981598e-02" rms="3.0510705709457397e-01" purity="5.6572639942169189e-01" nType="0">
          <Node pos="l" depth="2" NCoef="0" IVar="-1" Cut="0.0000000000000000e+00" cType="1" res="7.4638510122895241e-03" rms="3.0431383848190308e-01" purity="5.9697353839874268e-01" nType="-99"/>
          <Node pos="r" depth="2" NCoef="0" IVar="-1" Cut="0.0000000000000000e+00" cType="1" res="-2.1747590973973274e-02" rms="2.8183642029762268e-01" purity="2.7789768576622009e-01" nType="-99"/>
        </Node>
        <Node pos="r" depth="1" NCoef="0" IVar="48" Cut="2.6928663253784180e+00" cType="1" res="-5.5080182850360870e-02" rms="2.6866355538368225e-01" purity="2.7055996656417847e-01" nType="0">
          <Node pos="l" depth="2" NCoef="0" IVar="-1" Cut="0.0000000000000000e+00" cType="1" res="-1.8035626038908958e-02" rms="2.2766050696372986e-01" purity="2.2133980691432953e-01" nType="-99"/>
          <Node pos="r" depth="2" NCoef="0" IVar="-1" Cut="0.0000000000000000e+00" cType="1" res="1.5412522479891777e-02" rms="3.9822775125503540e-01" purity="5.3207206726074219e-01" nType="-99"/>
        </Node>
      </Node>
    </BinaryTree>
    <BinaryTree type="DecisionTree" boostWeight="1.0000000000000000e+00" itree="89">
      <Node pos="s" depth="0" NCoef="0" IVar="57" Cut="1.4468170404434204e+00" cType="1" res="5.0927698612213135e-03" rms="2.9083415865898132e-01" purity="5.0733584165573120e-01" nType="0">
        <Node pos="l" depth="1" NCoef="0" IVar="2" Cut="3.2266528606414795e+00" cType="1" res="-3.5636216402053833e-02" rms="2.5562354922294617e-01" purity="1.7055234313011169e-01" nType="0">
          <Node pos="l" depth="2" NCoef="0" IVar="-1" Cut="0.0000000000000000e+00" cType="1" res="-1.1394880712032318e-02" rms="2.3960962891578674e-01" purity="1.3867779076099396e-01" nType="-99"/>
          <Node pos="r" depth="2" NCoef="0" IVar="-1" Cut="0.0000000000000000e+00" cType="1" res="1.7323728650808334e-02" rms="3.7552121281623840e-01" purity="5.6781464815139771e-01" nType="-99"/>
        </Node>
        <Node pos="r" depth="1" NCoef="0" IVar="76" Cut="1.2365807294845581e+00" cType="1" res="3.0554318800568581e-02" rms="3.0810338258743286e-01" purity="7.1787458658218384e-01" nType="0">
          <Node pos="l" depth="2" NCoef="0" IVar="-1" Cut="0.0000000000000000e+00" cType="1" res="8.4291212260723114e-03" rms="3.0481371283531189e-01" purity="7.6919209957122803e-01" nType="-99"/>
          <Node pos="r" depth="2" NCoef="0" IVar="-1" Cut="0.0000000000000000e+00" cType="1" res="-1.3586195185780525e-02" rms="3.1655585765838623e-01" purity="2.6430806517601013e-01" nType="-99"/>
        </Node>
      </Node>
    </BinaryTree>
    <BinaryTree type="DecisionTree" boostWeight="1.0000000000000000e+00" itree="90">
      <Node pos="s" depth="0" NCoef="0" IVar="17" Cut="1.0216845273971558e+00" cType="1" res="-6.4714932814240456e-03" rms="2.8142404556274414e-01" purity="4.9627017974853516e-01" nType="0">
        <Node pos="l" depth="1" NCoef="0" IVar="37" Cut="-1.0314995050430298e+00" cType="1" res="-2.7451870962977409e-02" rms="-nan" purity="2.4519655853509903e-03" nType="-99"/>
        <Node pos="r" depth="1" NCoef="0" IVar="15" Cut="1.4842636585235596e+00" cType="1" res="1.0291439481079578e-02" rms="3.1672093272209167e-01" purity="6.3084417581558228e-01" nType="0">
          <Node pos="l" depth="2" NCoef="0" IVar="-1" Cut="0.0000000000000000e+00" cType="1" res="8.7027726694941521e-03" rms="3.1362217664718628e-01" purity="6.3788837194442749e-01" nType="-99"/>
          <Node pos="r" depth="2" NCoef="0" IVar="-1" Cut="0.0000000000000000e+00" cType="1" res="-7.3355063796043396e-03" rms="3.1401371955871582e-01" purity="6.2127739191055298e-01" nType="-99"/>
        </Node>
      </Node>
    </BinaryTree>
    <BinaryTree type="DecisionTree" boostWeight="1.0000000000000000e+00" itree="91">
      <Node pos="s" depth="0" NCoef="0" IVar="5" Cut="-1.6687376797199249e-01" cType="1" res="5.1023234846070409e-04" rms="2.8967669606208801e-01" purity="4.9713939428329468e-01" nType="0">
        <Node pos="l" depth="1" NCoef="0" IVar="-1" Cut="0.0000000000000000e+00" cType="1" res="-4.9885049462318420e-02" rms="-nan" purity="8.2265019416809082e-02" nType="-99"/>
        <Node pos="r" depth="1" NCoef="0" IVar="46" Cut="1.3469620943069458e+00" cType="1" res="6.7576910369098186e-03" rms="2.9472079873085022e-01" purity="5.1078367233276367e-01" nType="0">
          <Node pos="l" depth="2" NCoef="0" IVar="-1" Cut="0.0000000000000000e+00" cType="1" res="2.7382704429328442e-03" rms="3.0024448037147522e-01" purity="5.2550041675567627e-01" nType="-99"/>
          <Node pos="r" depth="2" NCoef="0" IVar="-1" Cut="0.0000000000000000e+00" cType="1" res="-3.8878288120031357e-02" rms="-nan" purity="1.3029572367668152e-01" nType="-99"/>
        </Node>
      </Node>
    </BinaryTree>
    <BinaryTree type="DecisionTree" boostWeight="1.0000000000000000e+00" itree="92">
      <Node pos="s" depth="0" NCoef="0" IVar="81" Cut="-1.8847891092300415e+00" cType="1" res="-5.6437314487993717e-03" rms="2.8270837664604187e-01" purity="4.8899081349372864e-01" nType="0">
        <Node pos="l" depth="1" NCoef="0" IVar="2" Cut="2.1766526699066162e+00" cType="1" res="3.1830221414566040e-02" rms="3.0280569195747375e-01" purity="6.0515731573104858e-01" nType="0">
          <Node pos="l" depth="2" NCoef="0" IVar="-1" Cut="0.0000000000000000e+00" cType="1" res="-7.0761498063802719e-03" rms="2.7961564064025879e-01" purity="3.3155122399330139e-01" nType="-99"/>
          <Node pos="r" depth="2" NCoef="0" IVar="-1" Cut="0.0000000000000000e+00" cType="1" res="1.1944813653826714e-02" rms="3.0764251947402954e-01" purity="7.1621543169021606e-01" nType="-99"/>
        </Node>
        <Node pos="r" depth="1" NCoef="0" IVar="5" Cut="-9.2172376811504364e-02" cType="1" res="-4.8933025449514389e-02" rms="2.5066807866096497e-01" purity="3.5479712486267090e-01" nType="0">
          <Node pos="l" depth="2" NCoef="0" IVar="-1" Cut="0.0000000000000000e+00" cType="1" res="-4.7860283404588699e-02" rms="-nan" purity="7.9038128256797791e-02" nType="-99"/>
          <Node pos="r" depth="2" NCoef="0" IVar="-1" Cut="0.0000000000000000e+00" cType="1" res="-7.9257003962993622e-03" rms="2.6776975393295288e-01" purity="3.7842378020286560e-01" nType="-99"/>
        </Node>
      </Node>
    </BinaryTree>
    <BinaryTree type="DecisionTree" boostWeight="1.0000000000000000e+00" itree="93">
      <Node pos="s" depth="0" NCoef="0" IVar="0" Cut="1.0824679136276245e+00" cType="1" res="-4.4542280957102776e-03" rms="2.7996858954429626e-01" purity="4.9203467369079590e-01" nType="0">
        <Node pos="l" depth="1" NCoef="0" IVar="2" Cut="2.1094768047332764e+00" cType="1" res="1.4041797257959843e-02" rms="2.9138657450675964e-01" purity="5.3695034980773926e-01" nType="0">
          <Node pos="l" depth="2" NCoef="0" IVar="-1" Cut="0.0000000000000000e+00" cType="1" res="-9.9094817414879799e-03" rms="2.5375217199325562e-01" purity="2.5857302546501160e-01" nType="-99"/>
          <Node pos="r" depth="2" NCoef="0" IVar="-1" Cut="0.0000000000000000e+00" cType="1" res="7.8330868855118752e-03" rms="3.0272141098976135e-01" purity="6.5656125545501709e-01" nType="-99"/>
        </Node>
        <Node pos="r" depth="1" NCoef="0" IVar="17" Cut="1.4447313547134399e+00" cType="1" res="-8.0708131194114685e-02" rms="2.1038512885570526e-01" purity="3.0686014890670776e-01" nType="0">
          <Node pos="l" depth="2" NCoef="0" IVar="-1" Cut="0.0000000000000000e+00" cType="1" res="-4.9128390848636627e-02" rms="-nan" purity="-5.1372412592172623e-02" nType="-99"/>
          <Node pos="r" depth="2" NCoef="0" IVar="-1" Cut="0.0000000000000000e+00" cType="1" res="-7.5828284025192261e-03" rms="3.3793917298316956e-01" purity="5.6552863121032715e-01" nType="-99"/>
        </Node>
      </Node>
    </BinaryTree>
    <BinaryTree type="DecisionTree" boostWeight="1.0000000000000000e+00" itree="94">
      <Node pos="s" depth="0" NCoef="0" IVar="5" Cut="4.1257327795028687e-01" cType="1" res="-3.2473308965563774e-03" rms="2.8260797262191772e-01" purity="4.9304747581481934e-01" nType="0">
        <Node pos="l" depth="1" NCoef="0" IVar="36" Cut="-1.4151666164398193e+00" cType="1" res="1.1601374484598637e-02" rms="2.8748553991317749e-01" purity="5.3106302022933960e-01" nType="0">
          <Node pos="l" depth="2" NCoef="0" IVar="-1" Cut="0.0000000000000000e+00" cType="1" res="-4.1655436158180237e-02" rms="-nan" purity="-3.1040903180837631e-02" nType="-99"/>
          <Node pos="r" depth="2" NCoef="0" IVar="-1" Cut="0.0000000000000000e+00" cType="1" res="4.2078588157892227e-03" rms="2.9783886671066284e-01" purity="5.6566798686981201e-01" nType="-99"/>
        </Node>
        <Node pos="r" depth="1" NCoef="0" IVar="80" Cut="-9.9235683679580688e-01" cType="1" res="-9.1572999954223633e-02" rms="2.3283882439136505e-01" purity="2.6691657304763794e-01" nType="0">
          <Node pos="l" depth="2" NCoef="0" IVar="-1" Cut="0.0000000000000000e+00" cType="1" res="-1.1066300794482231e-02" rms="2.9715025424957275e-01" purity="3.8551926612854004e-01" nType="-99"/>
          <Node pos="r" depth="2" NCoef="0" IVar="-1" Cut="0.0000000000000000e+00" cType="1" res="-4.1390307247638702e-02" rms="-nan" purity="3.3891770988702774e-02" nType="-99"/>
        </Node>
      </Node>
    </BinaryTree>
    <BinaryTree type="DecisionTree" boostWeight="1.0000000000000000e+00" itree="95">
      <Node pos="s" depth="0" NCoef="0" IVar="27" Cut="1.1302375793457031e+00" cType="1" res="4.3807942420244217e-03" rms="2.8741228580474854e-01" purity="5.0114101171493530e-01" nType="0">
        <Node pos="l" depth="1" NCoef="0" IVar="73" Cut="2.8974404335021973e+00" cType="1" res="-7.0501491427421570e-02" rms="2.3784613609313965e-01" purity="2.1346154808998108e-01" nType="0">
          <Node pos="l" depth="2" NCoef="0" IVar="-1" Cut="0.0000000000000000e+00" cType="1" res="-2.7482919394969940e-02" rms="1.6288812458515167e-01" purity="1.1938966810703278e-01" nType="-99"/>
          <Node pos="r" depth="2" NCoef="0" IVar="-1" Cut="0.0000000000000000e+00" cType="1" res="9.2214951291680336e-03" rms="3.3374071121215820e-01" purity="4.4246694445610046e-01" nType="-99"/>
        </Node>
        <Node pos="r" depth="1" NCoef="0" IVar="67" Cut="1.4367457628250122e+00" cType="1" res="1.6693443059921265e-02" rms="2.9293867945671082e-01" purity="5.4844319820404053e-01" nType="0">
          <Node pos="l" depth="2" NCoef="0" IVar="-1" Cut="0.0000000000000000e+00" cType="1" res="4.8129302449524403e-03" rms="2.9699465632438660e-01" purity="5.6249642372131348e-01" nType="-99"/>
          <Node pos="r" depth="2" NCoef="0" IVar="-1" Cut="0.0000000000000000e+00" cType="1" res="-5.3410485386848450e-02" rms="-nan" purity="5.7632133364677429e-02" nType="-99"/>
        </Node>
      </Node>
    </BinaryTree>
    <BinaryTree type="DecisionTree" boostWeight="1.0000000000000000e+00" itree="96">
      <Node pos="s" depth="0" NCoef="0" IVar="15" Cut="1.5223981142044067e+00" cType="1" res="-1.3888978864997625e-03" rms="2.8383919596672058e-01" purity="4.9640709161758423e-01" nType="0">
        <Node pos="l" depth="1" NCoef="0" IVar="36" Cut="-1.4151666164398193e+00" cType="1" res="1.5119212679564953e-02" rms="2.7841696143150330e-01" purity="4.9074834585189819e-01" nType="0">
          <Node pos="l" depth="2" NCoef="0" IVar="-1" Cut="0.0000000000000000e+00" cType="1" res="-4.0680363774299622e-02" rms="-nan" purity="-2.6853259652853012e-02" nType="-99"/>
          <Node pos="r" depth="2" NCoef="0" IVar="-1" Cut="0.0000000000000000e+00" cType="1" res="5.1670703105628490e-03" rms="2.9034021496772766e-01" purity="5.2568149566650391e-01" nType="-99"/>
        </Node>
        <Node pos="r" depth="1" NCoef="0" IVar="17" Cut="1.5256621837615967e+00" cType="1" res="-8.6130216717720032e-02" rms="2.9603126645088196e-01" purity="5.2545511722564697e-01" nType="0">
          <Node pos="l" depth="2" NCoef="0" IVar="-1" Cut="0.0000000000000000e+00" cType="1" res="-4.0710724890232086e-02" rms="1.1234698444604874e-01" purity="6.9869540631771088e-02" nType="-99"/>
          <Node pos="r" depth="2" NCoef="0" IVar="-1" Cut="0.0000000000000000e+00" cType="1" res="-7.5900433585047722e-03" rms="3.1860527396202087e-01" purity="6.6576838493347168e-01" nType="-99"/>
        </Node>
      </Node>
    </BinaryTree>
    <BinaryTree type="DecisionTree" boostWeight="1.0000000000000000e+00" itree="97">
      <Node pos="s" depth="0" NCoef="0" IVar="40" Cut="9.5885193347930908e-01" cType="1" res="6.4362455159425735e-03" rms="2.8955587744712830e-01" purity="5.0860708951950073e-01" nType="0">
        <Node pos="l" depth="1" NCoef="0" IVar="87" Cut="1.2345679104328156e-02" cType="1" res="2.6390740647912025e-02" rms="3.0122202634811401e-01" purity="5.6706726551055908e-01" nType="0">
          <Node pos="l" depth="2" NCoef="0" IVar="-1" Cut="0.0000000000000000e+00" cType="1" res="7.1758972480893135e-03" rms="3.0455571413040161e-01" purity="5.9581458568572998e-01" nType="-99"/>
          <Node pos="r" depth="2" NCoef="0" IVar="-1" Cut="0.0000000000000000e+00" cType="1" res="-3.7055045366287231e-02" rms="1.5925014019012451e-01" purity="0.0000000000000000e+00" nType="-99"/>
        </Node>
        <Node pos="r" depth="1" NCoef="0" IVar="46" Cut="1.0374184846878052e+00" cType="1" res="-5.0627410411834717e-02" rms="2.4441435933113098e-01" purity="3.4142917394638062e-01" nType="0">
          <Node pos="l" depth="2" NCoef="0" IVar="-1" Cut="0.0000000000000000e+00" cType="1" res="-5.2533051930367947e-03" rms="2.8273570537567139e-01" purity="3.9605405926704407e-01" nType="-99"/>
          <Node pos="r" depth="2" NCoef="0" IVar="-1" Cut="0.0000000000000000e+00" cType="1" res="-3.5394426435232162e-02" rms="-nan" purity="1.5705291926860809e-01" nType="-99"/>
        </Node>
      </Node>
    </BinaryTree>
    <BinaryTree type="DecisionTree" boostWeight="1.0000000000000000e+00" itree="98">
      <Node pos="s" depth="0" NCoef="0" IVar="77" Cut="1.3673177957534790e+00" cType="1" res="1.1504826834425330e-03" rms="2.8022339940071106e-01" purity="5.0054514408111572e-01" nType="0">
        <Node pos="l" depth="1" NCoef="0" IVar="60" Cut="-1.9275578260421753e+00" cType="1" res="8.9628258720040321e-03" rms="2.8759500384330750e-01" purity="5.2369821071624756e-01" nType="0">
          <Node pos="l" depth="2" NCoef="0" IVar="-1" Cut="0.0000000000000000e+00" cType="1" res="7.9672094434499741e-03" rms="2.8701275587081909e-01" purity="6.4221638441085815e-01" nType="-99"/>
          <Node pos="r" depth="2" NCoef="0" IVar="-1" Cut="0.0000000000000000e+00" cType="1" res="-5.5661424994468689e-03" rms="2.8447926044464111e-01" purity="3.8461622595787048e-01" nType="-99"/>
        </Node>
        <Node pos="r" depth="1" NCoef="0" IVar="36" Cut="1.3251024484634399e+00" cType="1" res="-4.6085320413112640e-02" rms="-nan" purity="8.1382291391491890e-03" nType="-99"/>
      </Node>
    </BinaryTree>
    <BinaryTree type="DecisionTree" boostWeight="1.0000000000000000e+00" itree="99">
      <Node pos="s" depth="0" NCoef="0" IVar="60" Cut="-1.0932910442352295e+00" cType="1" res="7.2731976397335529e-03" rms="2.9094931483268738e-01" purity="5.0385141372680664e-01" nType="0">
        <Node pos="l" depth="1" NCoef="0" IVar="15" Cut="1.5212062597274780e+00" cType="1" res="2.2870350629091263e-02" rms="2.9583194851875305e-01" purity="5.5625945329666138e-01" nType="0">
          <Node pos="l" depth="2" NCoef="0" IVar="-1" Cut="0.0000000000000000e+00" cType="1" res="8.5078515112400055e-03" rms="2.8874790668487549e-01" purity="5.5047130584716797e-01" nType="-99"/>
          <Node pos="r" depth="2" NCoef="0" IVar="-1" Cut="0.0000000000000000e+00" cType="1" res="-1.0200214572250843e-02" rms="3.1635403633117676e-01" purity="5.8398860692977905e-01" nType="-99"/>
        </Node>
        <Node pos="r" depth="1" NCoef="0" IVar="52" Cut="2.5745139122009277e+00" cType="1" res="-7.0547655224800110e-02" rms="2.5117063522338867e-01" purity="2.4236528575420380e-01" nType="0">
          <Node pos="l" depth="2" NCoef="0" IVar="-1" Cut="0.0000000000000000e+00" cType="1" res="-5.6632000952959061e-02" rms="-nan" purity="-5.4618492722511292e-02" nType="-99"/>
          <Node pos="r" depth="2" NCoef="0" IVar="-1" Cut="0.0000000000000000e+00" cType="1" res="-8.0015016719698906e-03" rms="2.9438874125480652e-01" purity="3.0773758888244629e-01" nType="-99"/>
        </Node>
      </Node>
    </BinaryTree>
    <BinaryTree type="DecisionTree" boostWeight="1.0000000000000000e+00" itree="100">
      <Node pos="s" depth="0" NCoef="0" IVar="5" Cut="4.4030496478080750e-01" cType="1" res="-2.9727318324148655e-03" rms="2.8180569410324097e-01" purity="4.9607336521148682e-01" nType="0">
        <Node pos="l" depth="1" NCoef="0" IVar="67" Cut="1.1233065128326416e+00" cType="1" res="9.0455999597907066e-03" rms="2.8509292006492615e-01" purity="5.2617424726486206e-01" nType="0">
          <Node pos="l" depth="2" NCoef="0" IVar="-1" Cut="0.0000000000000000e+00" cType="1" res="4.4288393110036850e-03" rms="2.9458385705947876e-01" purity="5.5277150869369507e-01" nType="-99"/>
          <Node pos="r" depth="2" NCoef="0" IVar="-1" Cut="0.0000000000000000e+00" cType="1" res="-2.3034507408738136e-02" rms="1.4333276450634003e-01" purity="2.9110521078109741e-01" nType="-99"/>
        </Node>
        <Node pos="r" depth="1" NCoef="0" IVar="0" Cut="5.1398533582687378e-01" cType="1" res="-1.0512126982212067e-01" rms="2.2784535586833954e-01" purity="2.4023437500000000e-01" nType="0">
          <Node pos="l" depth="2" NCoef="0" IVar="-1" Cut="0.0000000000000000e+00" cType="1" res="-3.0331378802657127e-03" rms="3.4031990170478821e-01" purity="3.6153247952461243e-01" nType="-99"/>
          <Node pos="r" depth="2" NCoef="0" IVar="-1" Cut="0.0000000000000000e+00" cType="1" res="-3.1247792765498161e-02" rms="1.5302146971225739e-01" purity="1.9429960846900940e-01" nType="-99"/>
        </Node>
      </Node>
    </BinaryTree>
    <BinaryTree type="DecisionTree" boostWeight="1.0000000000000000e+00" itree="101">
      <Node pos="s" depth="0" NCoef="0" IVar="17" Cut="-9.1227054595947266e-01" cType="1" res="1.4568187762051821e-03" rms="2.8361377120018005e-01" purity="4.9900567531585693e-01" nType="0">
        <Node pos="l" depth="1" NCoef="0" IVar="41" Cut="1.1888975650072098e-01" cType="1" res="-3.3816788345575333e-02" rms="-nan" purity="-1.2491466477513313e-02" nType="-99"/>
        <Node pos="r" depth="1" NCoef="0" IVar="5" Cut="-1.3662083446979523e-01" cType="1" res="1.5784468501806259e-02" rms="3.1282675266265869e-01" purity="5.9723490476608276e-01" nType="0">
          <Node pos="l" depth="2" NCoef="0" IVar="-1" Cut="0.0000000000000000e+00" cType="1" res="-4.2587075382471085e-02" rms="-nan" purity="1.0470490157604218e-01" nType="-99"/>
          <Node pos="r" depth="2" NCoef="0" IVar="-1" Cut="0.0000000000000000e+00" cType="1" res="4.4549340382218361e-03" rms="3.1720489263534546e-01" purity="6.1367595195770264e-01" nType="-99"/>
        </Node>
      </Node>
    </BinaryTree>
    <BinaryTree type="DecisionTree" boostWeight="1.0000000000000000e+00" itree="102">
      <Node pos="s" depth="0" NCoef="0" IVar="3" Cut="4.9361553192138672e+00" cType="1" res="7.0845144800841808e-03" rms="2.8896602988243103e-01" purity="5.0184625387191772e-01" nType="0">
        <Node pos="l" depth="1" NCoef="0" IVar="0" Cut="8.5225385427474976e-01" cType="1" res="-1.6238417476415634e-02" rms="2.8208717703819275e-01" purity="4.7565132379531860e-01" nType="0">
          <Node pos="l" depth="2" NCoef="0" IVar="-1" Cut="0.0000000000000000e+00" cType="1" res="3.2548494637012482e-03" rms="2.9640996456146240e-01" purity="5.6441217660903931e-01" nType="-99"/>
          <Node pos="r" depth="2" NCoef="0" IVar="-1" Cut="0.0000000000000000e+00" cType="1" res="-1.4143095351755619e-02" rms="2.5299888849258423e-01" purity="3.4769427776336670e-01" nType="-99"/>
        </Node>
        <Node pos="r" depth="1" NCoef="0" IVar="17" Cut="1.2122712135314941e+00" cType="1" res="6.1883963644504547e-02" rms="2.9740536212921143e-01" purity="5.6339371204376221e-01" nType="0">
          <Node pos="l" depth="2" NCoef="0" IVar="-1" Cut="0.0000000000000000e+00" cType="1" res="-1.4719694852828979e-02" rms="1.3407158851623535e-01" purity="3.3768370747566223e-02" nType="-99"/>
          <Node pos="r" depth="2" NCoef="0" IVar="-1" Cut="0.0000000000000000e+00" cType="1" res="1.8092826008796692e-02" rms="3.3254763484001160e-01" purity="7.6758456230163574e-01" nType="-99"/>
        </Node>
      </Node>
    </BinaryTree>
    <BinaryTree type="DecisionTree" boostWeight="1.0000000000000000e+00" itree="103">
      <Node pos="s" depth="0" NCoef="0" IVar="15" Cut="1.5220671892166138e+00" cType="1" res="-1.1009196750819683e-02" rms="2.7181655168533325e-01" purity="4.9023470282554626e-01" nType="0">
        <Node pos="l" depth="1" NCoef="0" IVar="52" Cut="2.4734861850738525e+00" cType="1" res="4.0149530395865440e-03" rms="2.6745614409446716e-01" purity="4.8263764381408691e-01" nType="0">
          <Node pos="l" depth="2" NCoef="0" IVar="-1" Cut="0.0000000000000000e+00" cType="1" res="-3.6895792931318283e-02" rms="-nan" purity="1.2055814266204834e-02" nType="-99"/>
          <Node pos="r" depth="2" NCoef="0" IVar="-1" Cut="0.0000000000000000e+00" cType="1" res="2.9321247711777687e-03" rms="2.7517071366310120e-01" purity="5.1190447807312012e-01" nType="-99"/>
        </Node>
        <Node pos="r" depth="1" NCoef="0" IVar="17" Cut="1.5227637290954590e+00" cType="1" res="-8.6030952632427216e-02" rms="2.8083905577659607e-01" purity="5.2816998958587646e-01" nType="0">
          <Node pos="l" depth="2" NCoef="0" IVar="-1" Cut="0.0000000000000000e+00" cType="1" res="-4.7741282731294632e-02" rms="-nan" purity="-2.3010779172182083e-02" nType="-99"/>
          <Node pos="r" depth="2" NCoef="0" IVar="-1" Cut="0.0000000000000000e+00" cType="1" res="-8.6234668269753456e-03" rms="3.0832383036613464e-01" purity="6.6321569681167603e-01" nType="-99"/>
        </Node>
      </Node>
    </BinaryTree>
    <BinaryTree type="DecisionTree" boostWeight="1.0000000000000000e+00" itree="104">
      <Node pos="s" depth="0" NCoef="0" IVar="2" Cut="1.7258217334747314e+00" cType="1" res="5.2614946616813540e-04" rms="2.8294193744659424e-01" purity="4.9416369199752808e-01" nType="0">
        <Node pos="l" depth="1" NCoef="0" IVar="34" Cut="-3.3715790510177612e-01" cType="1" res="-7.9472273588180542e-02" rms="2.0620091259479523e-01" purity="1.0917155444622040e-01" nType="0">
          <Node pos="l" depth="2" NCoef="0" IVar="-1" Cut="0.0000000000000000e+00" cType="1" res="2.3609178606420755e-03" rms="2.5667557120323181e-01" purity="1.2100692093372345e-01" nType="-99"/>
          <Node pos="r" depth="2" NCoef="0" IVar="-1" Cut="0.0000000000000000e+00" cType="1" res="-3.1510658562183380e-02" rms="1.4593809843063354e-01" purity="1.0203611850738525e-01" nType="-99"/>
        </Node>
        <Node pos="r" depth="1" NCoef="0" IVar="3" Cut="4.8419876098632812e+00" cType="1" res="1.4317239634692669e-02" rms="2.9194828867912292e-01" purity="5.6053328514099121e-01" nType="0">
          <Node pos="l" depth="2" NCoef="0" IVar="-1" Cut="0.0000000000000000e+00" cType="1" res="-2.1378765814006329e-03" rms="2.9029336571693420e-01" purity="4.8464244604110718e-01" nType="-99"/>
          <Node pos="r" depth="2" NCoef="0" IVar="-1" Cut="0.0000000000000000e+00" cType="1" res="1.2913575395941734e-02" rms="2.8943964838981628e-01" purity="7.0307010412216187e-01" nType="-99"/>
        </Node>
      </Node>
    </BinaryTree>
    <BinaryTree type="DecisionTree" boostWeight="1.0000000000000000e+00" itree="105">
      <Node pos="s" depth="0" NCoef="0" IVar="2" Cut="2.8235368728637695e+00" cType="1" res="-1.1874438496306539e-03" rms="2.7966400980949402e-01" purity="4.9449813365936279e-01" nType="0">
        <Node pos="l" depth="1" NCoef="0" IVar="1" Cut="2.9942264556884766e+00" cType="1" res="-2.0815122872591019e-02" rms="2.6516732573509216e-01" purity="4.0924477577209473e-01" nType="0">
          <Node pos="l" depth="2" NCoef="0" IVar="-1" Cut="0.0000000000000000e+00" cType="1" res="-8.9518720051273704e-04" rms="2.8119435906410217e-01" purity="4.2471277713775635e-01" nType="-99"/>
          <Node pos="r" depth="2" NCoef="0" IVar="-1" Cut="0.0000000000000000e+00" cType="1" res="-2.2605502977967262e-02" rms="1.5617978572845459e-01" purity="3.4016799926757812e-01" nType="-99"/>
        </Node>
        <Node pos="r" depth="1" NCoef="0" IVar="3" Cut="4.3823461532592773e+00" cType="1" res="5.1339529454708099e-02" rms="3.0912598967552185e-01" purity="7.2265028953552246e-01" nType="0">
          <Node pos="l" depth="2" NCoef="0" IVar="-1" Cut="0.0000000000000000e+00" cType="1" res="3.3295243978500366e-02" rms="3.9633432030677795e-01" purity="6.1052644252777100e-01" nType="-99"/>
          <Node pos="r" depth="2" NCoef="0" IVar="-1" Cut="0.0000000000000000e+00" cType="1" res="7.9202102497220039e-03" rms="2.9560631513595581e-01" purity="7.3357832431793213e-01" nType="-99"/>
        </Node>
      </Node>
    </BinaryTree>
    <BinaryTree type="DecisionTree" boostWeight="1.0000000000000000e+00" itree="106">
      <Node pos="s" depth="0" NCoef="0" IVar="5" Cut="4.9576234817504883e-01" cType="1" res="7.9271551221609116e-03" rms="2.9203802347183228e-01" purity="5.0431388616561890e-01" nType="0">
        <Node pos="l" depth="1" NCoef="0" IVar="45" Cut="1.2345679104328156e-02" cType="1" res="1.4951542019844055e-02" rms="2.9369091987609863e-01" purity="5.2044379711151123e-01" nType="0">
          <Node pos="l" depth="2" NCoef="0" IVar="-1" Cut="0.0000000000000000e+00" cType="1" res="4.6456940472126007e-03" rms="2.9695403575897217e-01" purity="5.4610031843185425e-01" nType="-99"/>
          <Node pos="r" depth="2" NCoef="0" IVar="-1" Cut="0.0000000000000000e+00" cType="1" res="-3.8666017353534698e-02" rms="1.6739988327026367e-01" purity="0.0000000000000000e+00" nType="-99"/>
        </Node>
        <Node pos="r" depth="1" NCoef="0" IVar="84" Cut="4.9029413610696793e-02" cType="1" res="-1.2870430946350098e-01" rms="2.1639563143253326e-01" purity="1.9057084619998932e-01" nType="0">
          <Node pos="l" depth="2" NCoef="0" IVar="-1" Cut="0.0000000000000000e+00" cType="1" res="-4.7841127961874008e-02" rms="-nan" purity="1.4933435618877411e-01" nType="-99"/>
          <Node pos="r" depth="2" NCoef="0" IVar="-1" Cut="0.0000000000000000e+00" cType="1" res="-2.9390901327133179e-03" rms="3.5475695133209229e-01" purity="2.4983792006969452e-01" nType="-99"/>
        </Node>
      </Node>
    </BinaryTree>
    <BinaryTree type="DecisionTree" boostWeight="1.0000000000000000e+00" itree="107">
      <Node pos="s" depth="0" NCoef="0" IVar="87" Cut="1.2345679104328156e-02" cType="1" res="5.6388159282505512e-03" rms="2.9004764556884766e-01" purity="5.0150811672210693e-01" nType="0">
        <Node pos="l" depth="1" NCoef="0" IVar="2" Cut="3.0593199729919434e+00" cType="1" res="1.2157198973000050e-02" rms="2.9527989029884338e-01" purity="5.3148877620697021e-01" nType="0">
          <Node pos="l" depth="2" NCoef="0" IVar="-1" Cut="0.0000000000000000e+00" cType="1" res="-9.2871669039595872e-05" rms="2.9212623834609985e-01" purity="4.7649806737899780e-01" nType="-99"/>
          <Node pos="r" depth="2" NCoef="0" IVar="-1" Cut="0.0000000000000000e+00" cType="1" res="1.5560613013803959e-02" rms="3.0281105637550354e-01" purity="8.0285573005676270e-01" nType="-99"/>
        </Node>
        <Node pos="r" depth="1" NCoef="0" IVar="17" Cut="1.4451141357421875e+00" cType="1" res="-1.0339892655611038e-01" rms="1.4247012138366699e-01" purity="0.0000000000000000e+00" nType="0">
          <Node pos="l" depth="2" NCoef="0" IVar="-1" Cut="0.0000000000000000e+00" cType="1" res="-2.7419351041316986e-02" rms="4.4087696820497513e-02" purity="0.0000000000000000e+00" nType="-99"/>
          <Node pos="r" depth="2" NCoef="0" IVar="-1" Cut="0.0000000000000000e+00" cType="1" res="-4.0283910930156708e-02" rms="1.8956282734870911e-01" purity="0.0000000000000000e+00" nType="-99"/>
        </Node>
      </Node>
    </BinaryTree>
    <BinaryTree type="DecisionTree" boostWeight="1.0000000000000000e+00" itree="108">
      <Node pos="s" depth="0" NCoef="0" IVar="18" Cut="-1.3961910009384155e+00" cType="1" res="1.6533122397959232e-03" rms="2.8634265065193176e-01" purity="4.9738866090774536e-01" nType="0">
        <Node pos="l" depth="1" NCoef="0" IVar="2" Cut="2.3382122516632080e+00" cType="1" res="1.8024919554591179e-02" rms="2.9328039288520813e-01" purity="5.4454773664474487e-01" nType="0">
          <Node pos="l" depth="2" NCoef="0" IVar="-1" Cut="0.0000000000000000e+00" cType="1" res="-5.9456587769091129e-03" rms="2.5313487648963928e-01" purity="3.4082618355751038e-01" nType="-99"/>
          <Node pos="r" depth="2" NCoef="0" IVar="-1" Cut="0.0000000000000000e+00" cType="1" res="1.0496251285076141e-02" rms="3.1450220942497253e-01" purity="6.8535608053207397e-01" nType="-99"/>
        </Node>
        <Node pos="r" depth="1" NCoef="0" IVar="20" Cut="6.5173767507076263e-02" cType="1" res="-6.3153326511383057e-02" rms="2.4660301208496094e-01" purity="3.1071031093597412e-01" nType="0">
          <Node pos="l" depth="2" NCoef="0" IVar="-1" Cut="0.0000000000000000e+00" cType="1" res="-4.1314051486551762e-03" rms="2.9403406381607056e-01" purity="3.8908371329307556e-01" nType="-99"/>
          <Node pos="r" depth="2" NCoef="0" IVar="-1" Cut="0.0000000000000000e+00" cType="1" res="-2.5382181629538536e-02" rms="1.7154540121555328e-01" purity="2.2811903059482574e-01" nType="-99"/>
        </Node>
      </Node>
    </BinaryTree>
    <BinaryTree type="DecisionTree" boostWeight="1.0000000000000000e+00" itree="109">
      <Node pos="s" depth="0" NCoef="0" IVar="40" Cut="1.2988475561141968e+00" cType="1" res="1.0658269748091698e-02" rms="2.8910294175148010e-01" purity="5.0816196203231812e-01" nType="0">
        <Node pos="l" depth="1" NCoef="0" IVar="87" Cut="1.2345679104328156e-02" cType="1" res="2.0461201667785645e-02" rms="2.9731070995330811e-01" purity="5.3553074598312378e-01" nType="0">
          <Node pos="l" depth="2" NCoef="0" IVar="-1" Cut="0.0000000000000000e+00" cType="1" res="5.8936923742294312e-03" rms="3.0240690708160400e-01" purity="5.6633847951889038e-01" nType="-99"/>
          <Node pos="r" depth="2" NCoef="0" IVar="-1" Cut="0.0000000000000000e+00" cType="1" res="-3.5289049148559570e-02" rms="1.3911722600460052e-01" purity="0.0000000000000000e+00" nType="-99"/>
        </Node>
        <Node pos="r" depth="1" NCoef="0" IVar="20" Cut="1.7315967008471489e-02" cType="1" res="-8.7550900876522064e-02" rms="1.5733075141906738e-01" purity="2.3397202789783478e-01" nType="0">
          <Node pos="l" depth="2" NCoef="0" IVar="-1" Cut="0.0000000000000000e+00" cType="1" res="-3.7118617445230484e-02" rms="-nan" purity="1.7043519020080566e-01" nType="-99"/>
          <Node pos="r" depth="2" NCoef="0" IVar="-1" Cut="0.0000000000000000e+00" cType="1" res="-3.4908466041088104e-03" rms="2.5916376709938049e-01" purity="3.0151140689849854e-01" nType="-99"/>
        </Node>
      </Node>
    </BinaryTree>
    <BinaryTree type="DecisionTree" boostWeight="1.0000000000000000e+00" itree="110">
      <Node pos="s" depth="0" NCoef="0" IVar="81" Cut="-1.3891931772232056e+00" cType="1" res="-4.8440140672028065e-03" rms="2.7354770898818970e-01" purity="5.0005298852920532e-01" nType="0">
        <Node pos="l" depth="1" NCoef="0" IVar="31" Cut="2.5799968242645264e+00" cType="1" res="1.6323817893862724e-02" rms="2.8821715712547302e-01" purity="5.7811486721038818e-01" nType="0">
          <Node pos="l" depth="2" NCoef="0" IVar="-1" Cut="0.0000000000000000e+00" cType="1" res="-1.7068976536393166e-02" rms="2.6096421480178833e-01" purity="1.8051846325397491e-01" nType="-99"/>
          <Node pos="r" depth="2" NCoef="0" IVar="-1" Cut="0.0000000000000000e+00" cType="1" res="5.6914994493126869e-03" rms="2.8904387354850769e-01" purity="6.1920434236526489e-01" nType="-99"/>
        </Node>
        <Node pos="r" depth="1" NCoef="0" IVar="55" Cut="-1.4155099391937256e+00" cType="1" res="-6.3684798777103424e-02" rms="2.1728660166263580e-01" purity="2.8306213021278381e-01" nType="0">
          <Node pos="l" depth="2" NCoef="0" IVar="-1" Cut="0.0000000000000000e+00" cType="1" res="1.8460433930158615e-02" rms="3.1799051165580750e-01" purity="2.4190984666347504e-01" nType="-99"/>
          <Node pos="r" depth="2" NCoef="0" IVar="-1" Cut="0.0000000000000000e+00" cType="1" res="-1.9476475194096565e-02" rms="1.9112525880336761e-01" purity="2.8917387127876282e-01" nType="-99"/>
        </Node>
      </Node>
    </BinaryTree>
    <BinaryTree type="DecisionTree" boostWeight="1.0000000000000000e+00" itree="111">
      <Node pos="s" depth="0" NCoef="0" IVar="39" Cut="-8.3375215530395508e-01" cType="1" res="-1.1948483297601342e-03" rms="2.7664130926132202e-01" purity="5.0013393163681030e-01" nType="0">
        <Node pos="l" depth="1" NCoef="0" IVar="3" Cut="5.2991671562194824e+00" cType="1" res="9.7907334566116333e-03" rms="2.8268074989318848e-01" purity="5.3612393140792847e-01" nType="0">
          <Node pos="l" depth="2" NCoef="0" IVar="-1" Cut="0.0000000000000000e+00" cType="1" res="-2.5996750991907902e-05" rms="2.7625310420989990e-01" purity="5.4681909084320068e-01" nType="-99"/>
          <Node pos="r" depth="2" NCoef="0" IVar="-1" Cut="0.0000000000000000e+00" cType="1" res="2.7359385043382645e-02" rms="3.2779264450073242e-01" purity="4.1015368700027466e-01" nType="-99"/>
        </Node>
        <Node pos="r" depth="1" NCoef="0" IVar="61" Cut="5.7463461160659790e-01" cType="1" res="-9.8591208457946777e-02" rms="1.8980418145656586e-01" purity="1.8105226755142212e-01" nType="0">
          <Node pos="l" depth="2" NCoef="0" IVar="-1" Cut="0.0000000000000000e+00" cType="1" res="-2.3712927941232920e-05" rms="3.3775112032890320e-01" purity="3.0261939764022827e-01" nType="-99"/>
          <Node pos="r" depth="2" NCoef="0" IVar="-1" Cut="0.0000000000000000e+00" cType="1" res="-3.5913087427616119e-02" rms="-nan" purity="1.2267260998487473e-01" nType="-99"/>
        </Node>
      </Node>
    </BinaryTree>
    <BinaryTree type="DecisionTree" boostWeight="1.0000000000000000e+00" itree="112">
      <Node pos="s" depth="0" NCoef="0" IVar="46" Cut="9.6545982360839844e-01" cType="1" res="5.2403127774596214e-03" rms="2.8690737485885620e-01" purity="5.0266987085342407e-01" nType="0">
        <Node pos="l" depth="1" NCoef="0" IVar="17" Cut="-1.3765211105346680e+00" cType="1" res="2.8340922668576241e-02" rms="3.0150708556175232e-01" purity="5.7007992267608643e-01" nType="0">
          <Node pos="l" depth="2" NCoef="0" IVar="-1" Cut="0.0000000000000000e+00" cType="1" res="-4.2107094079256058e-02" rms="-nan" purity="-2.9595721513032913e-02" nType="-99"/>
          <Node pos="r" depth="2" NCoef="0" IVar="-1" Cut="0.0000000000000000e+00" cType="1" res="7.7866762876510620e-03" rms="3.1588894128799438e-01" purity="6.1867707967758179e-01" nType="-99"/>
        </Node>
        <Node pos="r" depth="1" NCoef="0" IVar="60" Cut="-6.7079985141754150e-01" cType="1" res="-2.5766938924789429e-02" rms="2.6288226246833801e-01" purity="4.1218727827072144e-01" nType="0">
          <Node pos="l" depth="2" NCoef="0" IVar="-1" Cut="0.0000000000000000e+00" cType="1" res="-3.2099592499434948e-03" rms="2.7350068092346191e-01" purity="4.3933802843093872e-01" nType="-99"/>
          <Node pos="r" depth="2" NCoef="0" IVar="-1" Cut="0.0000000000000000e+00" cType="1" res="-4.7962844371795654e-02" rms="-nan" purity="4.6871598809957504e-02" nType="-99"/>
        </Node>
      </Node>
    </BinaryTree>
    <BinaryTree type="DecisionTree" boostWeight="1.0000000000000000e+00" itree="113">
      <Node pos="s" depth="0" NCoef="0" IVar="40" Cut="1.5730668306350708e+00" cType="1" res="3.2582336571067572e-03" rms="2.8101444244384766e-01" purity="5.0083768367767334e-01" nType="0">
        <Node pos="l" depth="1" NCoef="0" IVar="5" Cut="-8.4804467856884003e-02" cType="1" res="7.9540368169546127e-03" rms="2.8492349386215210e-01" purity="5.1247054338455200e-01" nType="0">
          <Node pos="l" depth="2" NCoef="0" IVar="-1" Cut="0.0000000000000000e+00" cType="1" res="-2.3850029334425926e-02" rms="1.9273182749748230e-01" purity="2.1251556277275085e-01" nType="-99"/>
          <Node pos="r" depth="2" NCoef="0" IVar="-1" Cut="0.0000000000000000e+00" cType="1" res="3.2248578500002623e-03" rms="2.8903663158416748e-01" purity="5.3317660093307495e-01" nType="-99"/>
        </Node>
        <Node pos="r" depth="1" NCoef="0" IVar="-1" Cut="0.0000000000000000e+00" cType="1" res="-3.5250749439001083e-02" rms="-nan" purity="1.4171114563941956e-01" nType="-99"/>
      </Node>
    </BinaryTree>
    <BinaryTree type="DecisionTree" boostWeight="1.0000000000000000e+00" itree="114">
      <Node pos="s" depth="0" NCoef="0" IVar="60" Cut="-2.4129805564880371e+00" cType="1" res="-7.0254346355795860e-03" rms="2.7304333448410034e-01" purity="4.9096795916557312e-01" nType="0">
        <Node pos="l" depth="1" NCoef="0" IVar="25" Cut="1.0667799711227417e+00" cType="1" res="4.3133649975061417e-02" rms="2.9422181844711304e-01" purity="6.7624014616012573e-01" nType="0">
          <Node pos="l" depth="2" NCoef="0" IVar="-1" Cut="0.0000000000000000e+00" cType="1" res="1.2214982882142067e-02" rms="3.0371859669685364e-01" purity="6.9680786132812500e-01" nType="-99"/>
          <Node pos="r" depth="2" NCoef="0" IVar="-1" Cut="0.0000000000000000e+00" cType="1" res="-1.1648656800389290e-02" rms="1.9172881543636322e-01" purity="5.3350579738616943e-01" nType="-99"/>
        </Node>
        <Node pos="r" depth="1" NCoef="0" IVar="15" Cut="1.5223981142044067e+00" cType="1" res="-2.2760462015867233e-02" rms="2.6409667730331421e-01" purity="4.3284761905670166e-01" nType="0">
          <Node pos="l" depth="2" NCoef="0" IVar="-1" Cut="0.0000000000000000e+00" cType="1" res="-2.4725117255002260e-03" rms="2.5508746504783630e-01" purity="4.2378664016723633e-01" nType="-99"/>
          <Node pos="r" depth="2" NCoef="0" IVar="-1" Cut="0.0000000000000000e+00" cType="1" res="-1.7067104578018188e-02" rms="2.9901868104934692e-01" purity="4.8081722855567932e-01" nType="-99"/>
        </Node>
      </Node>
    </BinaryTree>
    <BinaryTree type="DecisionTree" boostWeight="1.0000000000000000e+00" itree="115">
      <Node pos="s" depth="0" NCoef="0" IVar="60" Cut="-1.0932601690292358e+00" cType="1" res="4.3301056139171124e-03" rms="2.8322842717170715e-01" purity="5.0723612308502197e-01" nType="0">
        <Node pos="l" depth="1" NCoef="0" IVar="40" Cut="1.2320959568023682e+00" cType="1" res="1.8779920414090157e-02" rms="2.8901112079620361e-01" purity="5.6082808971405029e-01" nType="0">
          <Node pos="l" depth="2" NCoef="0" IVar="-1" Cut="0.0000000000000000e+00" cType="1" res="6.4522786997258663e-03" rms="2.9632475972175598e-01" purity="5.9099310636520386e-01" nType="-99"/>
          <Node pos="r" depth="2" NCoef="0" IVar="-1" Cut="0.0000000000000000e+00" cType="1" res="-1.8295805901288986e-02" rms="1.8626721203327179e-01" purity="2.8726598620414734e-01" nType="-99"/>
        </Node>
        <Node pos="r" depth="1" NCoef="0" IVar="20" Cut="-1.5893028676509857e-01" cType="1" res="-7.1710452437400818e-02" rms="2.3648205399513245e-01" purity="2.2521425783634186e-01" nType="0">
          <Node pos="l" depth="2" NCoef="0" IVar="-1" Cut="0.0000000000000000e+00" cType="1" res="-4.7489985823631287e-02" rms="-nan" purity="1.0180404037237167e-01" nType="-99"/>
          <Node pos="r" depth="2" NCoef="0" IVar="-1" Cut="0.0000000000000000e+00" cType="1" res="-1.0478471405804157e-02" rms="2.6805171370506287e-01" purity="2.5873577594757080e-01" nType="-99"/>
        </Node>
      </Node>
    </BinaryTree>
    <BinaryTree type="DecisionTree" boostWeight="1.0000000000000000e+00" itree="116">
      <Node pos="s" depth="0" NCoef="0" IVar="77" Cut="1.3276478052139282e+00" cType="1" res="4.2811227031052113e-03" rms="2.7987843751907349e-01" purity="4.9919536709785461e-01" nType="0">
        <Node pos="l" depth="1" NCoef="0" IVar="0" Cut="7.4329739809036255e-01" cType="1" res="1.1290922760963440e-02" rms="2.8652831912040710e-01" purity="5.2439659833908081e-01" nType="0">
          <Node pos="l" depth="2" NCoef="0" IVar="-1" Cut="0.0000000000000000e+00" cType="1" res="8.7642930448055267e-03" rms="3.0592650175094604e-01" purity="6.1333537101745605e-01" nType="-99"/>
          <Node pos="r" depth="2" NCoef="0" IVar="-1" Cut="0.0000000000000000e+00" cType="1" res="-3.3276125323027372e-03" rms="2.6632994413375854e-01" purity="4.4914442300796509e-01" nType="-99"/>
        </Node>
        <Node pos="r" depth="1" NCoef="0" IVar="35" Cut="-1.1064957380294800e+00" cType="1" res="-3.6522533744573593e-02" rms="-nan" purity="5.3796328604221344e-02" nType="-99"/>
      </Node>
    </BinaryTree>
    <BinaryTree type="DecisionTree" boostWeight="1.0000000000000000e+00" itree="117">
      <Node pos="s" depth="0" NCoef="0" IVar="0" Cut="8.5243302583694458e-01" cType="1" res="2.2034426219761372e-03" rms="2.7972033619880676e-01" purity="5.0163370370864868e-01" nType="0">
        <Node pos="l" depth="1" NCoef="0" IVar="57" Cut="-2.3855878040194511e-02" cType="1" res="2.9198337346315384e-02" rms="2.9678922891616821e-01" purity="5.7914155721664429e-01" nType="0">
          <Node pos="l" depth="2" NCoef="0" IVar="-1" Cut="0.0000000000000000e+00" cType="1" res="-1.2805447913706303e-02" rms="2.0126822590827942e-01" purity="7.1051709353923798e-02" nType="-99"/>
          <Node pos="r" depth="2" NCoef="0" IVar="-1" Cut="0.0000000000000000e+00" cType="1" res="8.8349906727671623e-03" rms="3.1019639968872070e-01" purity="6.7885893583297729e-01" nType="-99"/>
        </Node>
        <Node pos="r" depth="1" NCoef="0" IVar="4" Cut="3.5625131130218506e+00" cType="1" res="-3.5164263099431992e-02" rms="2.4943301081657410e-01" purity="3.9434337615966797e-01" nType="0">
          <Node pos="l" depth="2" NCoef="0" IVar="-1" Cut="0.0000000000000000e+00" cType="1" res="-2.2114735096693039e-02" rms="2.1125403046607971e-01" purity="1.6166171431541443e-01" nType="-99"/>
          <Node pos="r" depth="2" NCoef="0" IVar="-1" Cut="0.0000000000000000e+00" cType="1" res="-8.7534601334482431e-04" rms="2.6482865214347839e-01" purity="5.3391075134277344e-01" nType="-99"/>
        </Node>
      </Node>
    </BinaryTree>
    <BinaryTree type="DecisionTree" boostWeight="1.0000000000000000e+00" itree="118">
      <Node pos="s" depth="0" NCoef="0" IVar="5" Cut="4.3988418579101562e-01" cType="1" res="-4.4189174659550190e-03" rms="2.6960608363151550e-01" purity="4.9433559179306030e-01" nType="0">
        <Node pos="l" depth="1" NCoef="0" IVar="36" Cut="-1.4151693582534790e+00" cType="1" res="5.5449344217777252e-03" rms="2.7267560362815857e-01" purity="5.2465003728866577e-01" nType="0">
          <Node pos="l" depth="2" NCoef="0" IVar="-1" Cut="0.0000000000000000e+00" cType="1" res="-3.8144901394844055e-02" rms="-nan" purity="-1.7320794984698296e-02" nType="-99"/>
          <Node pos="r" depth="2" NCoef="0" IVar="-1" Cut="0.0000000000000000e+00" cType="1" res="2.7895276434719563e-03" rms="2.8272649645805359e-01" purity="5.5893033742904663e-01" nType="-99"/>
        </Node>
        <Node pos="r" depth="1" NCoef="0" IVar="61" Cut="4.6935546398162842e-01" cType="1" res="-8.5246160626411438e-02" rms="2.2769761085510254e-01" purity="2.4842326343059540e-01" nType="0">
          <Node pos="l" depth="2" NCoef="0" IVar="-1" Cut="0.0000000000000000e+00" cType="1" res="7.0505365729331970e-03" rms="3.7306061387062073e-01" purity="4.1878217458724976e-01" nType="-99"/>
          <Node pos="r" depth="2" NCoef="0" IVar="-1" Cut="0.0000000000000000e+00" cType="1" res="-3.2400477677583694e-02" rms="1.0040052235126495e-01" purity="1.8149136006832123e-01" nType="-99"/>
        </Node>
      </Node>
    </BinaryTree>
    <BinaryTree type="DecisionTree" boostWeight="1.0000000000000000e+00" itree="119">
      <Node pos="s" depth="0" NCoef="0" IVar="57" Cut="-7.5798666477203369e-01" cType="1" res="2.9861056245863438e-03" rms="2.7680149674415588e-01" purity="5.0196820497512817e-01" nType="0">
        <Node pos="l" depth="1" NCoef="0" IVar="10" Cut="3.1422960758209229e+00" cType="1" res="-6.4723953604698181e-02" rms="7.3138594627380371e-02" purity="2.9874788597226143e-02" nType="0">
          <Node pos="l" depth="2" NCoef="0" IVar="-1" Cut="0.0000000000000000e+00" cType="1" res="-4.8437576740980148e-02" rms="-nan" purity="-4.4901005923748016e-02" nType="-99"/>
          <Node pos="r" depth="2" NCoef="0" IVar="-1" Cut="0.0000000000000000e+00" cType="1" res="-3.3360051456838846e-03" rms="2.3092781007289886e-01" purity="8.8150300085544586e-02" nType="-99"/>
        </Node>
        <Node pos="r" depth="1" NCoef="0" IVar="15" Cut="1.5223981142044067e+00" cType="1" res="1.6587570309638977e-02" rms="2.9971596598625183e-01" purity="5.9680134057998657e-01" nType="0">
          <Node pos="l" depth="2" NCoef="0" IVar="-1" Cut="0.0000000000000000e+00" cType="1" res="6.6912495531141758e-03" rms="2.9609802365303040e-01" purity="5.9108215570449829e-01" nType="-99"/>
          <Node pos="r" depth="2" NCoef="0" IVar="-1" Cut="0.0000000000000000e+00" cType="1" res="-9.3174045905470848e-03" rms="3.0786871910095215e-01" purity="6.2391769886016846e-01" nType="-99"/>
        </Node>
      </Node>
    </BinaryTree>
    <BinaryTree type="DecisionTree" boostWeight="1.0000000000000000e+00" itree="120">
      <Node pos="s" depth="0" NCoef="0" IVar="17" Cut="1.3311150074005127e+00" cType="1" res="-1.4969736337661743e-02" rms="2.5952970981597900e-01" purity="4.8296123743057251e-01" nType="0">
        <Node pos="l" depth="1" NCoef="0" IVar="35" Cut="2.8383255004882812e-01" cType="1" res="-2.7761233970522881e-02" rms="-nan" purity="5.1215970888733864e-03" nType="-99"/>
        <Node pos="r" depth="1" NCoef="0" IVar="13" Cut="6.3416320085525513e-01" cType="1" res="2.3033933248370886e-03" rms="3.0626949667930603e-01" purity="6.5248674154281616e-01" nType="0">
          <Node pos="l" depth="2" NCoef="0" IVar="-1" Cut="0.0000000000000000e+00" cType="1" res="2.4629559367895126e-02" rms="3.4120738506317139e-01" purity="7.3844063282012939e-01" nType="-99"/>
          <Node pos="r" depth="2" NCoef="0" IVar="-1" Cut="0.0000000000000000e+00" cType="1" res="-1.3602158287540078e-03" rms="3.0162405967712402e-01" purity="6.4698606729507446e-01" nType="-99"/>
        </Node>
      </Node>
    </BinaryTree>
    <BinaryTree type="DecisionTree" boostWeight="1.0000000000000000e+00" itree="121">
      <Node pos="s" depth="0" NCoef="0" IVar="27" Cut="1.1699692010879517e+00" cType="1" res="-6.5890154801309109e-03" rms="2.6331579685211182e-01" purity="4.9615877866744995e-01" nType="0">
        <Node pos="l" depth="1" NCoef="0" IVar="0" Cut="1.2053107023239136e+00" cType="1" res="-8.6311563849449158e-02" rms="1.6602972149848938e-01" purity="2.0050504803657532e-01" nType="0">
          <Node pos="l" depth="2" NCoef="0" IVar="-1" Cut="0.0000000000000000e+00" cType="1" res="-1.5668820589780807e-02" rms="2.0264761149883270e-01" purity="2.4102571606636047e-01" nType="-99"/>
          <Node pos="r" depth="2" NCoef="0" IVar="-1" Cut="0.0000000000000000e+00" cType="1" res="-6.9171398878097534e-02" rms="-nan" purity="-5.2576605230569839e-02" nType="-99"/>
        </Node>
        <Node pos="r" depth="1" NCoef="0" IVar="17" Cut="-6.0342001914978027e-01" cType="1" res="7.3104612529277802e-03" rms="2.7443817257881165e-01" purity="5.4770541191101074e-01" nType="0">
          <Node pos="l" depth="2" NCoef="0" IVar="-1" Cut="0.0000000000000000e+00" cType="1" res="-2.9286922886967659e-02" rms="-nan" purity="-2.0407682750374079e-03" nType="-99"/>
          <Node pos="r" depth="2" NCoef="0" IVar="-1" Cut="0.0000000000000000e+00" cType="1" res="3.9402577094733715e-03" rms="3.0023476481437683e-01" purity="6.4935994148254395e-01" nType="-99"/>
        </Node>
      </Node>
    </BinaryTree>
    <BinaryTree type="DecisionTree" boostWeight="1.0000000000000000e+00" itree="122">
      <Node pos="s" depth="0" NCoef="0" IVar="0" Cut="1.0204343795776367e+00" cType="1" res="3.4534733276814222e-03" rms="2.7663609385490417e-01" purity="5.0460320711135864e-01" nType="0">
        <Node pos="l" depth="1" NCoef="0" IVar="2" Cut="1.9201935529708862e+00" cType="1" res="2.1123949438333511e-02" rms="2.9094460606575012e-01" purity="5.6067478656768799e-01" nType="0">
          <Node pos="l" depth="2" NCoef="0" IVar="-1" Cut="0.0000000000000000e+00" cType="1" res="-1.0552813299000263e-02" rms="2.5239020586013794e-01" purity="2.0630191266536713e-01" nType="-99"/>
          <Node pos="r" depth="2" NCoef="0" IVar="-1" Cut="0.0000000000000000e+00" cType="1" res="8.1617888063192368e-03" rms="2.9776573181152344e-01" purity="6.4911913871765137e-01" nType="-99"/>
        </Node>
        <Node pos="r" depth="1" NCoef="0" IVar="52" Cut="2.7176904678344727e+00" cType="1" res="-4.8907380551099777e-02" rms="2.2089800238609314e-01" purity="3.3845287561416626e-01" nType="0">
          <Node pos="l" depth="2" NCoef="0" IVar="-1" Cut="0.0000000000000000e+00" cType="1" res="-4.0203180164098740e-02" rms="-nan" purity="1.4929971657693386e-02" nType="-99"/>
          <Node pos="r" depth="2" NCoef="0" IVar="-1" Cut="0.0000000000000000e+00" cType="1" res="-6.0909111052751541e-03" rms="2.5390046834945679e-01" purity="4.2139348387718201e-01" nType="-99"/>
        </Node>
      </Node>
    </BinaryTree>
    <BinaryTree type="DecisionTree" boostWeight="1.0000000000000000e+00" itree="123">
      <Node pos="s" depth="0" NCoef="0" IVar="3" Cut="4.7824349403381348e+00" cType="1" res="2.2273710928857327e-03" rms="2.7781039476394653e-01" purity="4.9557647109031677e-01" nType="0">
        <Node pos="l" depth="1" NCoef="0" IVar="2" Cut="2.3367300033569336e+00" cType="1" res="-2.5952754542231560e-02" rms="2.6360538601875305e-01" purity="4.2264446616172791e-01" nType="0">
          <Node pos="l" depth="2" NCoef="0" IVar="-1" Cut="0.0000000000000000e+00" cType="1" res="-1.9143261015415192e-02" rms="1.9302314519882202e-01" purity="1.9138899445533752e-01" nType="-99"/>
          <Node pos="r" depth="2" NCoef="0" IVar="-1" Cut="0.0000000000000000e+00" cType="1" res="8.7241583969444036e-04" rms="2.9319727420806885e-01" purity="5.5831634998321533e-01" nType="-99"/>
        </Node>
        <Node pos="r" depth="1" NCoef="0" IVar="15" Cut="1.5220727920532227e+00" cType="1" res="3.3538345247507095e-02" rms="2.8958797454833984e-01" purity="5.7661128044128418e-01" nType="0">
          <Node pos="l" depth="2" NCoef="0" IVar="-1" Cut="0.0000000000000000e+00" cType="1" res="1.0764218866825104e-02" rms="2.8900364041328430e-01" purity="5.9129816293716431e-01" nType="-99"/>
          <Node pos="r" depth="2" NCoef="0" IVar="-1" Cut="0.0000000000000000e+00" cType="1" res="-2.5167375802993774e-02" rms="2.5391128659248352e-01" purity="3.8491541147232056e-01" nType="-99"/>
        </Node>
      </Node>
    </BinaryTree>
    <BinaryTree type="DecisionTree" boostWeight="1.0000000000000000e+00" itree="124">
      <Node pos="s" depth="0" NCoef="0" IVar="15" Cut="1.4834244251251221e+00" cType="1" res="3.9670001715421677e-03" rms="2.7969756722450256e-01" purity="4.9734175205230713e-01" nType="0">
        <Node pos="l" depth="1" NCoef="0" IVar="81" Cut="-1.1837279796600342e+00" cType="1" res="2.5483520701527596e-02" rms="2.7022024989128113e-01" purity="4.5322829484939575e-01" nType="0">
          <Node pos="l" depth="2" NCoef="0" IVar="-1" Cut="0.0000000000000000e+00" cType="1" res="1.0751543566584587e-02" rms="2.8673925995826721e-01" purity="5.1779949665069580e-01" nType="-99"/>
          <Node pos="r" depth="2" NCoef="0" IVar="-1" Cut="0.0000000000000000e+00" cType="1" res="-1.3495705090463161e-02" rms="1.8335534632205963e-01" purity="2.1920675039291382e-01" nType="-99"/>
        </Node>
        <Node pos="r" depth="1" NCoef="0" IVar="17" Cut="1.5235505104064941e+00" cType="1" res="-3.8298558443784714e-02" rms="2.9286950826644897e-01" purity="5.8399522304534912e-01" nType="0">
          <Node pos="l" depth="2" NCoef="0" IVar="-1" Cut="0.0000000000000000e+00" cType="1" res="-1.9085511565208435e-02" rms="2.6049038767814636e-01" purity="2.8292205929756165e-01" nType="-99"/>
          <Node pos="r" depth="2" NCoef="0" IVar="-1" Cut="0.0000000000000000e+00" cType="1" res="-1.1368327541276813e-03" rms="3.0306509137153625e-01" purity="7.3926717042922974e-01" nType="-99"/>
        </Node>
      </Node>
    </BinaryTree>
    <BinaryTree type="DecisionTree" boostWeight="1.0000000000000000e+00" itree="125">
      <Node pos="s" depth="0" NCoef="0" IVar="17" Cut="1.1377209424972534e+00" cType="1" res="2.5093809235841036e-03" rms="2.7107220888137817e-01" purity="5.0928497314453125e-01" nType="0">
        <Node pos="l" depth="1" NCoef="0" IVar="67" Cut="1.1863642930984497e+00" cType="1" res="-2.6709264144301414e-02" rms="-nan" purity="3.5398846957832575e-03" nType="-99"/>
        <Node pos="r" depth="1" NCoef="0" IVar="3" Cut="5.1592187881469727e+00" cType="1" res="1.7618585377931595e-02" rms="3.0717587471008301e-01" purity="6.5001773834228516e-01" nType="0">
          <Node pos="l" depth="2" NCoef="0" IVar="-1" Cut="0.0000000000000000e+00" cType="1" res="1.0845757788047194e-03" rms="3.0121272802352905e-01" purity="6.4305877685546875e-01" nType="-99"/>
          <Node pos="r" depth="2" NCoef="0" IVar="-1" Cut="0.0000000000000000e+00" cType="1" res="2.1657789126038551e-02" rms="3.3615684509277344e-01" purity="7.0967721939086914e-01" nType="-99"/>
        </Node>
      </Node>
    </BinaryTree>
    <BinaryTree type="DecisionTree" boostWeight="1.0000000000000000e+00" itree="126">
      <Node pos="s" depth="0" NCoef="0" IVar="2" Cut="1.7530256509780884e+00" cType="1" res="-5.7337834732607007e-04" rms="2.7163907885551453e-01" purity="5.0122892856597900e-01" nType="0">
        <Node pos="l" depth="1" NCoef="0" IVar="15" Cut="1.5193578004837036e+00" cType="1" res="-6.6853404045104980e-02" rms="2.1067251265048981e-01" purity="1.2221923470497131e-01" nType="0">
          <Node pos="l" depth="2" NCoef="0" IVar="-1" Cut="0.0000000000000000e+00" cType="1" res="-1.3739294372498989e-02" rms="2.2095569968223572e-01" purity="1.4276361465454102e-01" nType="-99"/>
          <Node pos="r" depth="2" NCoef="0" IVar="-1" Cut="0.0000000000000000e+00" cType="1" res="-4.7537550330162048e-02" rms="-nan" purity="-1.2471182271838188e-02" nType="-99"/>
        </Node>
        <Node pos="r" depth="1" NCoef="0" IVar="60" Cut="-9.0462648868560791e-01" cType="1" res="1.1668849736452103e-02" rms="2.7974581718444824e-01" purity="5.7123374938964844e-01" nType="0">
          <Node pos="l" depth="2" NCoef="0" IVar="-1" Cut="0.0000000000000000e+00" cType="1" res="4.9490770325064659e-03" rms="2.8345388174057007e-01" purity="6.0877108573913574e-01" nType="-99"/>
          <Node pos="r" depth="2" NCoef="0" IVar="-1" Cut="0.0000000000000000e+00" cType="1" res="-1.8078519031405449e-02" rms="2.2856506705284119e-01" purity="2.5376787781715393e-01" nType="-99"/>
        </Node>
      </Node>
    </BinaryTree>
    <BinaryTree type="DecisionTree" boostWeight="1.0000000000000000e+00" itree="127">
      <Node pos="s" depth="0" NCoef="0" IVar="39" Cut="-2.3518464565277100e+00" cType="1" res="6.1674676835536957e-03" rms="2.7045288681983948e-01" purity="5.1166200637817383e-01" nType="0">
        <Node pos="l" depth="1" NCoef="0" IVar="57" Cut="-1.0670274496078491e+00" cType="1" res="5.0633415579795837e-02" rms="2.8921043872833252e-01" purity="6.7433238029479980e-01" nType="0">
          <Node pos="l" depth="2" NCoef="0" IVar="-1" Cut="0.0000000000000000e+00" cType="1" res="-2.2311454638838768e-02" rms="8.7375804781913757e-02" purity="4.2105991393327713e-02" nType="-99"/>
          <Node pos="r" depth="2" NCoef="0" IVar="-1" Cut="0.0000000000000000e+00" cType="1" res="1.4151995070278645e-02" rms="3.0023699998855591e-01" purity="7.4457645416259766e-01" nType="-99"/>
        </Node>
        <Node pos="r" depth="1" NCoef="0" IVar="88" Cut="9.8158550262451172e-01" cType="1" res="-1.4589028432965279e-02" rms="2.5863218307495117e-01" purity="4.3572825193405151e-01" nType="0">
          <Node pos="l" depth="2" NCoef="0" IVar="-1" Cut="0.0000000000000000e+00" cType="1" res="2.2108969278633595e-03" rms="2.8429821133613586e-01" purity="4.9775740504264832e-01" nType="-99"/>
          <Node pos="r" depth="2" NCoef="0" IVar="-1" Cut="0.0000000000000000e+00" cType="1" res="-1.3800508342683315e-02" rms="2.0327159762382507e-01" purity="3.3321949839591980e-01" nType="-99"/>
        </Node>
      </Node>
    </BinaryTree>
    <BinaryTree type="DecisionTree" boostWeight="1.0000000000000000e+00" itree="128">
      <Node pos="s" depth="0" NCoef="0" IVar="46" Cut="1.4350348711013794e+00" cType="1" res="9.2329719336703420e-04" rms="2.7230307459831238e-01" purity="5.0478166341781616e-01" nType="0">
        <Node pos="l" depth="1" NCoef="0" IVar="76" Cut="4.6651504933834076e-02" cType="1" res="5.7235066778957844e-03" rms="2.7774184942245483e-01" purity="5.1714813709259033e-01" nType="0">
          <Node pos="l" depth="2" NCoef="0" IVar="-1" Cut="0.0000000000000000e+00" cType="1" res="4.3613151647150517e-03" rms="2.9157209396362305e-01" purity="6.0383611917495728e-01" nType="-99"/>
          <Node pos="r" depth="2" NCoef="0" IVar="-1" Cut="0.0000000000000000e+00" cType="1" res="-1.1361112818121910e-02" rms="2.1471214294433594e-01" purity="2.0769718289375305e-01" nType="-99"/>
        </Node>
        <Node pos="r" depth="1" NCoef="0" IVar="-1" Cut="0.0000000000000000e+00" cType="1" res="-5.7620469480752945e-02" rms="-nan" purity="4.5527573674917221e-02" nType="-99"/>
      </Node>
    </BinaryTree>
    <BinaryTree type="DecisionTree" boostWeight="1.0000000000000000e+00" itree="129">
      <Node pos="s" depth="0" NCoef="0" IVar="39" Cut="-2.3591454029083252e+00" cType="1" res="2.2430419921875000e-03" rms="2.7829438447952271e-01" purity="4.9620166420936584e-01" nType="0">
        <Node pos="l" depth="1" NCoef="0" IVar="0" Cut="1.1136149168014526e+00" cType="1" res="4.0725667029619217e-02" rms="2.8925240039825439e-01" purity="6.6083234548568726e-01" nType="0">
          <Node pos="l" depth="2" NCoef="0" IVar="-1" Cut="0.0000000000000000e+00" cType="1" res="1.2935865670442581e-02" rms="3.0036750435829163e-01" purity="6.9716441631317139e-01" nType="-99"/>
          <Node pos="r" depth="2" NCoef="0" IVar="-1" Cut="0.0000000000000000e+00" cType="1" res="-1.7149910330772400e-02" rms="1.6399899125099182e-01" purity="4.2181128263473511e-01" nType="-99"/>
        </Node>
        <Node pos="r" depth="1" NCoef="0" IVar="2" Cut="3.0405046939849854e+00" cType="1" res="-1.4564442448318005e-02" rms="2.7166560292243958e-01" purity="4.2429840564727783e-01" nType="0">
          <Node pos="l" depth="2" NCoef="0" IVar="-1" Cut="0.0000000000000000e+00" cType="1" res="-6.7031309008598328e-03" rms="2.6165670156478882e-01" purity="3.6344066262245178e-01" nType="-99"/>
          <Node pos="r" depth="2" NCoef="0" IVar="-1" Cut="0.0000000000000000e+00" cType="1" res="1.0305369272828102e-02" rms="3.0891194939613342e-01" purity="7.2267490625381470e-01" nType="-99"/>
        </Node>
      </Node>
    </BinaryTree>
    <BinaryTree type="DecisionTree" boostWeight="1.0000000000000000e+00" itree="130">
      <Node pos="s" depth="0" NCoef="0" IVar="18" Cut="-1.8397582769393921e+00" cType="1" res="4.7281390288844705e-04" rms="2.7253505587577820e-01" purity="5.0249195098876953e-01" nType="0">
        <Node pos="l" depth="1" NCoef="0" IVar="3" Cut="5.4335660934448242e+00" cType="1" res="2.3156823590397835e-02" rms="2.8889349102973938e-01" purity="5.8190006017684937e-01" nType="0">
          <Node pos="l" depth="2" NCoef="0" IVar="-1" Cut="0.0000000000000000e+00" cType="1" res="4.0055341087281704e-03" rms="2.8337806463241577e-01" purity="5.8833599090576172e-01" nType="-99"/>
          <Node pos="r" depth="2" NCoef="0" IVar="-1" Cut="0.0000000000000000e+00" cType="1" res="4.1896402835845947e-02" rms="3.7454840540885925e-01" purity="4.0646716952323914e-01" nType="-99"/>
        </Node>
        <Node pos="r" depth="1" NCoef="0" IVar="78" Cut="-1.4171758890151978e+00" cType="1" res="-3.6855489015579224e-02" rms="2.3858344554901123e-01" purity="3.7181970477104187e-01" nType="0">
          <Node pos="l" depth="2" NCoef="0" IVar="-1" Cut="0.0000000000000000e+00" cType="1" res="-1.0350781958550215e-03" rms="2.8985393047332764e-01" purity="5.4736554622650146e-01" nType="-99"/>
          <Node pos="r" depth="2" NCoef="0" IVar="-1" Cut="0.0000000000000000e+00" cType="1" res="-1.8660616129636765e-02" rms="1.6301637887954712e-01" purity="1.8951220810413361e-01" nType="-99"/>
        </Node>
      </Node>
    </BinaryTree>
    <BinaryTree type="DecisionTree" boostWeight="1.0000000000000000e+00" itree="131">
      <Node pos="s" depth="0" NCoef="0" IVar="57" Cut="-1.7751325666904449e-01" cType="1" res="-1.8379847751930356e-03" rms="2.6671290397644043e-01" purity="4.9585527181625366e-01" nType="0">
        <Node pos="l" depth="1" NCoef="0" IVar="37" Cut="-9.9470090866088867e-01" cType="1" res="-6.2421400099992752e-02" rms="7.0895269513130188e-02" purity="2.3059515282511711e-02" nType="0">
          <Node pos="l" depth="2" NCoef="0" IVar="-1" Cut="0.0000000000000000e+00" cType="1" res="6.5113143064081669e-03" rms="2.6413980126380920e-01" purity="1.0975699871778488e-01" nType="-99"/>
          <Node pos="r" depth="2" NCoef="0" IVar="-1" Cut="0.0000000000000000e+00" cType="1" res="-4.7353513538837433e-02" rms="-nan" purity="-3.4354299306869507e-02" nType="-99"/>
        </Node>
        <Node pos="r" depth="1" NCoef="0" IVar="3" Cut="5.1613450050354004e+00" cType="1" res="1.2013942934572697e-02" rms="2.9192492365837097e-01" purity="6.0395640134811401e-01" nType="0">
          <Node pos="l" depth="2" NCoef="0" IVar="-1" Cut="0.0000000000000000e+00" cType="1" res="-1.7093073984142393e-04" rms="2.8823167085647583e-01" purity="6.0699671506881714e-01" nType="-99"/>
          <Node pos="r" depth="2" NCoef="0" IVar="-1" Cut="0.0000000000000000e+00" cType="1" res="2.0140508189797401e-02" rms="3.0184179544448853e-01" purity="5.8313572406768799e-01" nType="-99"/>
        </Node>
      </Node>
    </BinaryTree>
    <BinaryTree type="DecisionTree" boostWeight="1.0000000000000000e+00" itree="132">
      <Node pos="s" depth="0" NCoef="0" IVar="16" Cut="-7.6035827398300171e-01" cType="1" res="4.0763597935438156e-03" rms="2.7285462617874146e-01" purity="5.0790768861770630e-01" nType="0">
        <Node pos="l" depth="1" NCoef="0" IVar="0" Cut="7.7111124992370605e-01" cType="1" res="-3.3508080989122391e-02" rms="2.4217982590198517e-01" purity="4.0551015734672546e-01" nType="0">
          <Node pos="l" depth="2" NCoef="0" IVar="-1" Cut="0.0000000000000000e+00" cType="1" res="2.1878164261579514e-03" rms="2.8518238663673401e-01" purity="5.1813775300979614e-01" nType="-99"/>
          <Node pos="r" depth="2" NCoef="0" IVar="-1" Cut="0.0000000000000000e+00" cType="1" res="-2.0043594762682915e-02" rms="1.8186433613300323e-01" purity="2.9625278711318970e-01" nType="-99"/>
        </Node>
        <Node pos="r" depth="1" NCoef="0" IVar="27" Cut="1.0506638288497925e+00" cType="1" res="2.1065969020128250e-02" rms="2.8401413559913635e-01" purity="5.5419528484344482e-01" nType="0">
          <Node pos="l" depth="2" NCoef="0" IVar="-1" Cut="0.0000000000000000e+00" cType="1" res="-1.6207884997129440e-02" rms="1.6884219646453857e-01" purity="2.1510101854801178e-01" nType="-99"/>
          <Node pos="r" depth="2" NCoef="0" IVar="-1" Cut="0.0000000000000000e+00" cType="1" res="7.3484582826495171e-03" rms="2.9354369640350342e-01" purity="5.9594458341598511e-01" nType="-99"/>
        </Node>
      </Node>
    </BinaryTree>
    <BinaryTree type="DecisionTree" boostWeight="1.0000000000000000e+00" itree="133">
      <Node pos="s" depth="0" NCoef="0" IVar="0" Cut="7.8190129995346069e-01" cType="1" res="6.2616220675408840e-03" rms="2.7658358216285706e-01" purity="5.0281691551208496e-01" nType="0">
        <Node pos="l" depth="1" NCoef="0" IVar="43" Cut="1.2345679104328156e-02" cType="1" res="3.0936140567064285e-02" rms="2.8518709540367126e-01" purity="5.9739613533020020e-01" nType="0">
          <Node pos="l" depth="2" NCoef="0" IVar="-1" Cut="0.0000000000000000e+00" cType="1" res="4.3596222996711731e-02" rms="3.9208433032035828e-01" purity="5.3095746040344238e-01" nType="-99"/>
          <Node pos="r" depth="2" NCoef="0" IVar="-1" Cut="0.0000000000000000e+00" cType="1" res="5.3928829729557037e-03" rms="2.7722299098968506e-01" purity="6.0023045539855957e-01" nType="-99"/>
        </Node>
        <Node pos="r" depth="1" NCoef="0" IVar="61" Cut="8.3648914098739624e-01" cType="1" res="-1.9107487052679062e-02" rms="2.6506540179252625e-01" purity="4.0557530522346497e-01" nType="0">
          <Node pos="l" depth="2" NCoef="0" IVar="-1" Cut="0.0000000000000000e+00" cType="1" res="1.3234268408268690e-03" rms="2.9161429405212402e-01" purity="4.8704320192337036e-01" nType="-99"/>
          <Node pos="r" depth="2" NCoef="0" IVar="-1" Cut="0.0000000000000000e+00" cType="1" res="-1.5478262677788734e-02" rms="2.1030671894550323e-01" purity="2.7592092752456665e-01" nType="-99"/>
        </Node>
      </Node>
    </BinaryTree>
    <BinaryTree type="DecisionTree" boostWeight="1.0000000000000000e+00" itree="134">
      <Node pos="s" depth="0" NCoef="0" IVar="8" Cut="-9.6956565976142883e-02" cType="1" res="6.1904994072392583e-04" rms="2.7327272295951843e-01" purity="4.9434304237365723e-01" nType="0">
        <Node pos="l" depth="1" NCoef="0" IVar="39" Cut="-2.4041287899017334e+00" cType="1" res="5.2423398010432720e-03" rms="2.7877146005630493e-01" purity="5.0151735544204712e-01" nType="0">
          <Node pos="l" depth="2" NCoef="0" IVar="-1" Cut="0.0000000000000000e+00" cType="1" res="1.0520604439079762e-02" rms="3.0308070778846741e-01" purity="6.6330844163894653e-01" nType="-99"/>
          <Node pos="r" depth="2" NCoef="0" IVar="-1" Cut="0.0000000000000000e+00" cType="1" res="-1.8195114098489285e-03" rms="2.6936954259872437e-01" purity="4.5034182071685791e-01" nType="-99"/>
        </Node>
        <Node pos="r" depth="1" NCoef="0" IVar="-1" Cut="0.0000000000000000e+00" cType="1" res="-4.9679774791002274e-02" rms="-nan" purity="1.8937352299690247e-01" nType="-99"/>
      </Node>
    </BinaryTree>
    <BinaryTree type="DecisionTree" boostWeight="1.0000000000000000e+00" itree="135">
      <Node pos="s" depth="0" NCoef="0" IVar="67" Cut="1.3635039329528809e+00" cType="1" res="2.8564974854816683e-05" rms="2.7261969447135925e-01" purity="5.0156146287918091e-01" nType="0">
        <Node pos="l" depth="1" NCoef="0" IVar="36" Cut="-9.5093262195587158e-01" cType="1" res="5.0607910379767418e-03" rms="2.7735954523086548e-01" purity="5.1591318845748901e-01" nType="0">
          <Node pos="l" depth="2" NCoef="0" IVar="-1" Cut="0.0000000000000000e+00" cType="1" res="-1.7920792102813721e-02" rms="1.6033904254436493e-01" purity="5.3322222083806992e-02" nType="-99"/>
          <Node pos="r" depth="2" NCoef="0" IVar="-1" Cut="0.0000000000000000e+00" cType="1" res="3.7346119061112404e-03" rms="2.9299876093864441e-01" purity="6.0378271341323853e-01" nType="-99"/>
        </Node>
        <Node pos="r" depth="1" NCoef="0" IVar="-1" Cut="0.0000000000000000e+00" cType="1" res="-4.3415099382400513e-02" rms="-nan" purity="1.1667622625827789e-01" nType="-99"/>
      </Node>
    </BinaryTree>
    <BinaryTree type="DecisionTree" boostWeight="1.0000000000000000e+00" itree="136">
      <Node pos="s" depth="0" NCoef="0" IVar="5" Cut="4.8226743936538696e-01" cType="1" res="-3.2954371999949217e-03" rms="2.6722106337547302e-01" purity="4.9638509750366211e-01" nType="0">
        <Node pos="l" depth="1" NCoef="0" IVar="69" Cut="1.0966503620147705e+00" cType="1" res="3.8656403776258230e-03" rms="2.7109318971633911e-01" purity="5.1577430963516235e-01" nType="0">
          <Node pos="l" depth="2" NCoef="0" IVar="-1" Cut="0.0000000000000000e+00" cType="1" res="-1.5750074759125710e-02" rms="2.2087036073207855e-01" purity="2.3542654514312744e-01" nType="-99"/>
          <Node pos="r" depth="2" NCoef="0" IVar="-1" Cut="0.0000000000000000e+00" cType="1" res="4.2442842386662960e-03" rms="2.7935937047004700e-01" purity="5.8002179861068726e-01" nType="-99"/>
        </Node>
        <Node pos="r" depth="1" NCoef="0" IVar="15" Cut="1.1742374897003174e+00" cType="1" res="-1.1754304170608521e-01" rms="1.5582650899887085e-01" purity="1.8705035746097565e-01" nType="0">
          <Node pos="l" depth="2" NCoef="0" IVar="-1" Cut="0.0000000000000000e+00" cType="1" res="2.8051887056790292e-04" rms="2.0299477875232697e-01" purity="1.3177746534347534e-01" nType="-99"/>
          <Node pos="r" depth="2" NCoef="0" IVar="-1" Cut="0.0000000000000000e+00" cType="1" res="-4.2937539517879486e-02" rms="-nan" purity="2.3267148435115814e-01" nType="-99"/>
        </Node>
      </Node>
    </BinaryTree>
    <BinaryTree type="DecisionTree" boostWeight="1.0000000000000000e+00" itree="137">
      <Node pos="s" depth="0" NCoef="0" IVar="5" Cut="4.4291272759437561e-01" cType="1" res="-4.0178224444389343e-03" rms="2.6970234513282776e-01" purity="4.8922595381736755e-01" nType="0">
        <Node pos="l" depth="1" NCoef="0" IVar="0" Cut="7.3827838897705078e-01" cType="1" res="6.7310887388885021e-03" rms="2.7759763598442078e-01" purity="5.1973217725753784e-01" nType="0">
          <Node pos="l" depth="2" NCoef="0" IVar="-1" Cut="0.0000000000000000e+00" cType="1" res="8.1418380141258240e-03" rms="2.9146948456764221e-01" purity="6.1782878637313843e-01" nType="-99"/>
          <Node pos="r" depth="2" NCoef="0" IVar="-1" Cut="0.0000000000000000e+00" cType="1" res="-4.4412212446331978e-03" rms="2.6255515217781067e-01" purity="4.3488723039627075e-01" nType="-99"/>
        </Node>
        <Node pos="r" depth="1" NCoef="0" IVar="3" Cut="5.0216922760009766e+00" cType="1" res="-9.6041694283485413e-02" rms="1.6213589906692505e-01" purity="2.2805498540401459e-01" nType="0">
          <Node pos="l" depth="2" NCoef="0" IVar="-1" Cut="0.0000000000000000e+00" cType="1" res="-1.6387388110160828e-02" rms="2.4569810926914215e-01" purity="2.7165818214416504e-01" nType="-99"/>
          <Node pos="r" depth="2" NCoef="0" IVar="-1" Cut="0.0000000000000000e+00" cType="1" res="-5.6430034339427948e-02" rms="-nan" purity="5.2048932760953903e-02" nType="-99"/>
        </Node>
      </Node>
    </BinaryTree>
    <BinaryTree type="DecisionTree" boostWeight="1.0000000000000000e+00" itree="138">
      <Node pos="s" depth="0" NCoef="0" IVar="40" Cut="1.1108788251876831e+00" cType="1" res="3.9132307283580303e-03" rms="2.7080947160720825e-01" purity="4.9698081612586975e-01" nType="0">
        <Node pos="l" depth="1" NCoef="0" IVar="55" Cut="-1.4155099391937256e+00" cType="1" res="1.6497505828738213e-02" rms="2.8117522597312927e-01" purity="5.4220616817474365e-01" nType="0">
          <Node pos="l" depth="2" NCoef="0" IVar="-1" Cut="0.0000000000000000e+00" cType="1" res="2.4266958236694336e-02" rms="3.3304685354232788e-01" purity="3.9687058329582214e-01" nType="-99"/>
          <Node pos="r" depth="2" NCoef="0" IVar="-1" Cut="0.0000000000000000e+00" cType="1" res="1.6751253278926015e-03" rms="2.7265918254852295e-01" purity="5.6005901098251343e-01" nType="-99"/>
        </Node>
        <Node pos="r" depth="1" NCoef="0" IVar="81" Cut="-8.7430298328399658e-01" cType="1" res="-6.0986902564764023e-02" rms="1.9697873294353485e-01" purity="2.6374292373657227e-01" nType="0">
          <Node pos="l" depth="2" NCoef="0" IVar="-1" Cut="0.0000000000000000e+00" cType="1" res="-9.3114906921982765e-03" rms="2.4275146424770355e-01" purity="3.1163647770881653e-01" nType="-99"/>
          <Node pos="r" depth="2" NCoef="0" IVar="-1" Cut="0.0000000000000000e+00" cType="1" res="-7.2456263005733490e-02" rms="-nan" purity="-3.4969575703144073e-02" nType="-99"/>
        </Node>
      </Node>
    </BinaryTree>
    <BinaryTree type="DecisionTree" boostWeight="1.0000000000000000e+00" itree="139">
      <Node pos="s" depth="0" NCoef="0" IVar="3" Cut="5.3114004135131836e+00" cType="1" res="6.6236970014870167e-03" rms="2.7569976449012756e-01" purity="4.9975770711898804e-01" nType="0">
        <Node pos="l" depth="1" NCoef="0" IVar="77" Cut="1.3673177957534790e+00" cType="1" res="-8.9998886687681079e-04" rms="2.7051928639411926e-01" purity="5.1186943054199219e-01" nType="0">
          <Node pos="l" depth="2" NCoef="0" IVar="-1" Cut="0.0000000000000000e+00" cType="1" res="1.2437397381290793e-03" rms="2.7751699090003967e-01" purity="5.3643685579299927e-01" nType="-99"/>
          <Node pos="r" depth="2" NCoef="0" IVar="-1" Cut="0.0000000000000000e+00" cType="1" res="-4.6132117509841919e-02" rms="-nan" purity="1.0210919193923473e-02" nType="-99"/>
        </Node>
        <Node pos="r" depth="1" NCoef="0" IVar="69" Cut="1.7028899192810059e+00" cType="1" res="1.0316881537437439e-01" rms="3.1980296969413757e-01" purity="3.4433788061141968e-01" nType="0">
          <Node pos="l" depth="2" NCoef="0" IVar="-1" Cut="0.0000000000000000e+00" cType="1" res="5.7776294648647308e-02" rms="3.8443896174430847e-01" purity="3.4003484249114990e-01" nType="-99"/>
          <Node pos="r" depth="2" NCoef="0" IVar="-1" Cut="0.0000000000000000e+00" cType="1" res="-2.7101787272840738e-03" rms="1.2458345293998718e-01" purity="3.5039204359054565e-01" nType="-99"/>
        </Node>
      </Node>
    </BinaryTree>
    <BinaryTree type="DecisionTree" boostWeight="1.0000000000000000e+00" itree="140">
      <Node pos="s" depth="0" NCoef="0" IVar="2" Cut="1.8714259862899780e+00" cType="1" res="7.6410123147070408e-03" rms="2.8392714262008667e-01" purity="4.9529898166656494e-01" nType="0">
        <Node pos="l" depth="1" NCoef="0" IVar="60" Cut="-2.4867229461669922e+00" cType="1" res="-4.5473508536815643e-02" rms="2.2446358203887939e-01" purity="1.5611036121845245e-01" nType="0">
          <Node pos="l" depth="2" NCoef="0" IVar="-1" Cut="0.0000000000000000e+00" cType="1" res="1.3302437961101532e-02" rms="3.0145379900932312e-01" purity="4.0896052122116089e-01" nType="-99"/>
          <Node pos="r" depth="2" NCoef="0" IVar="-1" Cut="0.0000000000000000e+00" cType="1" res="-1.8986921757459641e-02" rms="2.0661720633506775e-01" purity="1.2063453346490860e-01" nType="-99"/>
        </Node>
        <Node pos="r" depth="1" NCoef="0" IVar="66" Cut="1.2345679104328156e-02" cType="1" res="2.0913422107696533e-02" rms="2.9544484615325928e-01" purity="5.8005636930465698e-01" nType="0">
          <Node pos="l" depth="2" NCoef="0" IVar="-1" Cut="0.0000000000000000e+00" cType="1" res="6.1658388003706932e-03" rms="2.9936757683753967e-01" purity="6.1017239093780518e-01" nType="-99"/>
          <Node pos="r" depth="2" NCoef="0" IVar="-1" Cut="0.0000000000000000e+00" cType="1" res="-3.7893291562795639e-02" rms="1.5815961360931396e-01" purity="0.0000000000000000e+00" nType="-99"/>
        </Node>
      </Node>
    </BinaryTree>
    <BinaryTree type="DecisionTree" boostWeight="1.0000000000000000e+00" itree="141">
      <Node pos="s" depth="0" NCoef="0" IVar="69" Cut="1.4542642831802368e+00" cType="1" res="-1.5811760677024722e-03" rms="2.6124605536460876e-01" purity="5.0050926208496094e-01" nType="0">
        <Node pos="l" depth="1" NCoef="0" IVar="0" Cut="1.3055825233459473e+00" cType="1" res="-3.8271527737379074e-02" rms="2.3062743246555328e-01" purity="3.0180749297142029e-01" nType="0">
          <Node pos="l" depth="2" NCoef="0" IVar="-1" Cut="0.0000000000000000e+00" cType="1" res="-7.2925891727209091e-03" rms="2.4410814046859741e-01" purity="3.2580104470252991e-01" nType="-99"/>
          <Node pos="r" depth="2" NCoef="0" IVar="-1" Cut="0.0000000000000000e+00" cType="1" res="-5.3232036530971527e-02" rms="-nan" purity="4.1139037348330021e-03" nType="-99"/>
        </Node>
        <Node pos="r" depth="1" NCoef="0" IVar="57" Cut="-7.9696404933929443e-01" cType="1" res="1.6601881012320518e-02" rms="2.7334126830101013e-01" purity="5.9898227453231812e-01" nType="0">
          <Node pos="l" depth="2" NCoef="0" IVar="-1" Cut="0.0000000000000000e+00" cType="1" res="-1.6740847378969193e-02" rms="1.1384688317775726e-01" purity="5.7046517729759216e-02" nType="-99"/>
          <Node pos="r" depth="2" NCoef="0" IVar="-1" Cut="0.0000000000000000e+00" cType="1" res="6.0690790414810181e-03" rms="2.8884586691856384e-01" purity="6.8261557817459106e-01" nType="-99"/>
        </Node>
      </Node>
    </BinaryTree>
    <BinaryTree type="DecisionTree" boostWeight="1.0000000000000000e+00" itree="142">
      <Node pos="s" depth="0" NCoef="0" IVar="77" Cut="1.3673177957534790e+00" cType="1" res="-3.6506689502857625e-04" rms="2.6691576838493347e-01" purity="5.0176197290420532e-01" nType="0">
        <Node pos="l" depth="1" NCoef="0" IVar="55" Cut="-1.4540815353393555e+00" cType="1" res="5.9999059885740280e-03" rms="2.7536448836326599e-01" purity="5.2704733610153198e-01" nType="0">
          <Node pos="l" depth="2" NCoef="0" IVar="-1" Cut="0.0000000000000000e+00" cType="1" res="2.4875584989786148e-02" rms="3.2154211401939392e-01" purity="4.3282440304756165e-01" nType="-99"/>
          <Node pos="r" depth="2" NCoef="0" IVar="-1" Cut="0.0000000000000000e+00" cType="1" res="-2.7464391314424574e-04" rms="2.6990535855293274e-01" purity="5.3496897220611572e-01" nType="-99"/>
        </Node>
        <Node pos="r" depth="1" NCoef="0" IVar="27" Cut="1.5994203090667725e+00" cType="1" res="-5.4164297878742218e-02" rms="-nan" purity="-2.5690285488963127e-02" nType="-99"/>
      </Node>
    </BinaryTree>
    <BinaryTree type="DecisionTree" boostWeight="1.0000000000000000e+00" itree="143">
      <Node pos="s" depth="0" NCoef="0" IVar="36" Cut="7.1165388822555542e-01" cType="1" res="-5.2658184431493282e-03" rms="2.6146614551544189e-01" purity="4.9343588948249817e-01" nType="0">
        <Node pos="l" depth="1" NCoef="0" IVar="46" Cut="8.6961609125137329e-01" cType="1" res="-5.9740051627159119e-02" rms="1.3570587337017059e-01" purity="5.6624710559844971e-02" nType="0">
          <Node pos="l" depth="2" NCoef="0" IVar="-1" Cut="0.0000000000000000e+00" cType="1" res="1.5578295104205608e-02" rms="3.4271579980850220e-01" purity="2.0658084750175476e-01" nType="-99"/>
          <Node pos="r" depth="2" NCoef="0" IVar="-1" Cut="0.0000000000000000e+00" cType="1" res="-2.7551611885428429e-02" rms="-nan" purity="2.9061404988169670e-02" nType="-99"/>
        </Node>
        <Node pos="r" depth="1" NCoef="0" IVar="87" Cut="1.2345679104328156e-02" cType="1" res="1.1173401027917862e-02" rms="2.8683134913444519e-01" purity="6.2525671720504761e-01" nType="0">
          <Node pos="l" depth="2" NCoef="0" IVar="-1" Cut="0.0000000000000000e+00" cType="1" res="3.7603445816785097e-03" rms="2.8937906026840210e-01" purity="6.5099585056304932e-01" nType="-99"/>
          <Node pos="r" depth="2" NCoef="0" IVar="-1" Cut="0.0000000000000000e+00" cType="1" res="-3.9142411202192307e-02" rms="1.6993011534214020e-01" purity="0.0000000000000000e+00" nType="-99"/>
        </Node>
      </Node>
    </BinaryTree>
    <BinaryTree type="DecisionTree" boostWeight="1.0000000000000000e+00" itree="144">
      <Node pos="s" depth="0" NCoef="0" IVar="61" Cut="9.9800795316696167e-01" cType="1" res="1.2460332363843918e-03" rms="2.6611021161079407e-01" purity="4.9647098779678345e-01" nType="0">
        <Node pos="l" depth="1" NCoef="0" IVar="62" Cut="2.7939149737358093e-01" cType="1" res="1.4630671590566635e-02" rms="2.7606743574142456e-01" purity="5.5053633451461792e-01" nType="0">
          <Node pos="l" depth="2" NCoef="0" IVar="-1" Cut="0.0000000000000000e+00" cType="1" res="1.9696915987879038e-03" rms="2.6692730188369751e-01" purity="5.5384701490402222e-01" nType="-99"/>
          <Node pos="r" depth="2" NCoef="0" IVar="-1" Cut="0.0000000000000000e+00" cType="1" res="2.9521703720092773e-02" rms="3.8419842720031738e-01" purity="4.9446693062782288e-01" nType="-99"/>
        </Node>
        <Node pos="r" depth="1" NCoef="0" IVar="48" Cut="2.1484713554382324e+00" cType="1" res="-4.1129015386104584e-02" rms="2.2662787139415741e-01" purity="3.2530301809310913e-01" nType="0">
          <Node pos="l" depth="2" NCoef="0" IVar="-1" Cut="0.0000000000000000e+00" cType="1" res="-2.1363582462072372e-02" rms="1.7567154765129089e-01" purity="1.9412679970264435e-01" nType="-99"/>
          <Node pos="r" depth="2" NCoef="0" IVar="-1" Cut="0.0000000000000000e+00" cType="1" res="5.3113177418708801e-03" rms="2.8666961193084717e-01" purity="5.6241321563720703e-01" nType="-99"/>
        </Node>
      </Node>
    </BinaryTree>
    <BinaryTree type="DecisionTree" boostWeight="1.0000000000000000e+00" itree="145">
      <Node pos="s" depth="0" NCoef="0" IVar="60" Cut="-9.9670159816741943e-01" cType="1" res="7.2218095883727074e-03" rms="2.7492806315422058e-01" purity="5.0172233581542969e-01" nType="0">
        <Node pos="l" depth="1" NCoef="0" IVar="46" Cut="9.2540574073791504e-01" cType="1" res="1.7028057947754860e-02" rms="2.7830377221107483e-01" purity="5.4891258478164673e-01" nType="0">
          <Node pos="l" depth="2" NCoef="0" IVar="-1" Cut="0.0000000000000000e+00" cType="1" res="1.0914612561464310e-02" rms="3.0149540305137634e-01" purity="6.3398730754852295e-01" nType="-99"/>
          <Node pos="r" depth="2" NCoef="0" IVar="-1" Cut="0.0000000000000000e+00" cType="1" res="-1.3278161641210318e-03" rms="2.5793319940567017e-01" purity="4.8729032278060913e-01" nType="-99"/>
        </Node>
        <Node pos="r" depth="1" NCoef="0" IVar="14" Cut="-1.2217283248901367e+00" cType="1" res="-5.2544366568326950e-02" rms="2.4504134058952332e-01" purity="2.1411196887493134e-01" nType="0">
          <Node pos="l" depth="2" NCoef="0" IVar="-1" Cut="0.0000000000000000e+00" cType="1" res="7.5533939525485039e-03" rms="3.1538569927215576e-01" purity="2.3855753242969513e-01" nType="-99"/>
          <Node pos="r" depth="2" NCoef="0" IVar="-1" Cut="0.0000000000000000e+00" cType="1" res="-2.5638841092586517e-02" rms="1.7949871718883514e-01" purity="2.0022745430469513e-01" nType="-99"/>
        </Node>
      </Node>
    </BinaryTree>
    <BinaryTree type="DecisionTree" boostWeight="1.0000000000000000e+00" itree="146">
      <Node pos="s" depth="0" NCoef="0" IVar="69" Cut="1.0966503620147705e+00" cType="1" res="2.0796649623662233e-03" rms="2.7892491221427917e-01" purity="4.9733471870422363e-01" nType="0">
        <Node pos="l" depth="1" NCoef="0" IVar="79" Cut="1.0038199424743652e+00" cType="1" res="-5.2110690623521805e-02" rms="2.2200861573219299e-01" purity="2.3519520461559296e-01" nType="0">
          <Node pos="l" depth="2" NCoef="0" IVar="-1" Cut="0.0000000000000000e+00" cType="1" res="-1.9948415458202362e-02" rms="1.8500466644763947e-01" purity="2.3043817281723022e-01" nType="-99"/>
          <Node pos="r" depth="2" NCoef="0" IVar="-1" Cut="0.0000000000000000e+00" cType="1" res="1.4484238810837269e-02" rms="3.2610645890235901e-01" purity="2.5691494345664978e-01" nType="-99"/>
        </Node>
        <Node pos="r" depth="1" NCoef="0" IVar="15" Cut="1.4837456941604614e+00" cType="1" res="1.4919256791472435e-02" rms="2.8929880261421204e-01" purity="5.5944478511810303e-01" nType="0">
          <Node pos="l" depth="2" NCoef="0" IVar="-1" Cut="0.0000000000000000e+00" cType="1" res="9.2490157112479210e-03" rms="2.8754958510398865e-01" purity="5.1019620895385742e-01" nType="-99"/>
          <Node pos="r" depth="2" NCoef="0" IVar="-1" Cut="0.0000000000000000e+00" cType="1" res="-5.3036902099847794e-03" rms="2.8836590051651001e-01" purity="6.5279614925384521e-01" nType="-99"/>
        </Node>
      </Node>
    </BinaryTree>
    <BinaryTree type="DecisionTree" boostWeight="1.0000000000000000e+00" itree="147">
      <Node pos="s" depth="0" NCoef="0" IVar="77" Cut="1.4821782112121582e+00" cType="1" res="5.1574539393186569e-03" rms="2.7158403396606445e-01" purity="5.0323319435119629e-01" nType="0">
        <Node pos="l" depth="1" NCoef="0" IVar="5" Cut="-1.8050289154052734e-01" cType="1" res="9.0998178347945213e-03" rms="2.7735373377799988e-01" purity="5.1645511388778687e-01" nType="0">
          <Node pos="l" depth="2" NCoef="0" IVar="-1" Cut="0.0000000000000000e+00" cType="1" res="-4.5661713927984238e-02" rms="-nan" purity="6.9152444601058960e-02" nType="-99"/>
          <Node pos="r" depth="2" NCoef="0" IVar="-1" Cut="0.0000000000000000e+00" cType="1" res="3.1496125739067793e-03" rms="2.8202801942825317e-01" purity="5.2796953916549683e-01" nType="-99"/>
        </Node>
        <Node pos="r" depth="1" NCoef="0" IVar="-1" Cut="0.0000000000000000e+00" cType="1" res="-6.0694377869367599e-02" rms="-nan" purity="-4.8812933266162872e-02" nType="-99"/>
      </Node>
    </BinaryTree>
    <BinaryTree type="DecisionTree" boostWeight="1.0000000000000000e+00" itree="148">
      <Node pos="s" depth="0" NCoef="0" IVar="57" Cut="-7.1895664930343628e-01" cType="1" res="3.0517349950969219e-03" rms="2.7168846130371094e-01" purity="4.9929347634315491e-01" nType="0">
        <Node pos="l" depth="1" NCoef="0" IVar="62" Cut="-1.9107002019882202e-01" cType="1" res="-4.6204857528209686e-02" rms="1.0644803196191788e-01" purity="3.1174883246421814e-02" nType="0">
          <Node pos="l" depth="2" NCoef="0" IVar="-1" Cut="0.0000000000000000e+00" cType="1" res="-6.2935166060924530e-02" rms="-nan" purity="-6.8843811750411987e-02" nType="-99"/>
          <Node pos="r" depth="2" NCoef="0" IVar="-1" Cut="0.0000000000000000e+00" cType="1" res="-1.0488167405128479e-02" rms="1.7939338088035583e-01" purity="5.1672343164682388e-02" nType="-99"/>
        </Node>
        <Node pos="r" depth="1" NCoef="0" IVar="55" Cut="1.0931749343872070e+00" cType="1" res="1.3015358708798885e-02" rms="2.9302513599395752e-01" purity="5.9398448467254639e-01" nType="0">
          <Node pos="l" depth="2" NCoef="0" IVar="-1" Cut="0.0000000000000000e+00" cType="1" res="1.5491859987378120e-02" rms="3.3485236763954163e-01" purity="4.6112057566642761e-01" nType="-99"/>
          <Node pos="r" depth="2" NCoef="0" IVar="-1" Cut="0.0000000000000000e+00" cType="1" res="3.5351622500456870e-04" rms="2.8223624825477600e-01" purity="6.2151330709457397e-01" nType="-99"/>
        </Node>
      </Node>
    </BinaryTree>
    <BinaryTree type="DecisionTree" boostWeight="1.0000000000000000e+00" itree="149">
      <Node pos="s" depth="0" NCoef="0" IVar="15" Cut="1.4830219745635986e+00" cType="1" res="-9.8636036273092031e-04" rms="2.6847371459007263e-01" purity="4.9435558915138245e-01" nType="0">
        <Node pos="l" depth="1" NCoef="0" IVar="82" Cut="1.5579024553298950e+00" cType="1" res="1.5508443117141724e-02" rms="2.5733169913291931e-01" purity="4.4105017185211182e-01" nType="0">
          <Node pos="l" depth="2" NCoef="0" IVar="-1" Cut="0.0000000000000000e+00" cType="1" res="6.1168856918811798e-03" rms="2.6657420396804810e-01" purity="4.5761930942535400e-01" nType="-99"/>
          <Node pos="r" depth="2" NCoef="0" IVar="-1" Cut="0.0000000000000000e+00" cType="1" res="-5.5272396653890610e-02" rms="-nan" purity="5.3985174745321274e-02" nType="-99"/>
        </Node>
        <Node pos="r" depth="1" NCoef="0" IVar="17" Cut="1.4861141443252563e+00" cType="1" res="-3.1822871416807175e-02" rms="2.8560629487037659e-01" purity="5.9400838613510132e-01" nType="0">
          <Node pos="l" depth="2" NCoef="0" IVar="-1" Cut="0.0000000000000000e+00" cType="1" res="-4.5067846775054932e-02" rms="-nan" purity="-2.2716978564858437e-02" nType="-99"/>
          <Node pos="r" depth="2" NCoef="0" IVar="-1" Cut="0.0000000000000000e+00" cType="1" res="-3.9008655585348606e-03" rms="3.0595284700393677e-01" purity="6.5916967391967773e-01" nType="-99"/>
        </Node>
      </Node>
    </BinaryTree>
    <BinaryTree type="DecisionTree" boostWeight="1.0000000000000000e+00" itree="150">
      <Node pos="s" depth="0" NCoef="0" IVar="67" Cut="1.5193970203399658e+00" cType="1" res="-5.4086316376924515e-03" rms="2.6110154390335083e-01" purity="4.9536973237991333e-01" nType="0">
        <Node pos="l" depth="1" NCoef="0" IVar="39" Cut="-2.1412479877471924e+00" cType="1" res="-1.9445981597527862e-03" rms="2.6568400859832764e-01" purity="5.0616449117660522e-01" nType="0">
          <Node pos="l" depth="2" NCoef="0" IVar="-1" Cut="0.0000000000000000e+00" cType="1" res="5.8827809989452362e-03" rms="2.8133279085159302e-01" purity="6.5304541587829590e-01" nType="-99"/>
          <Node pos="r" depth="2" NCoef="0" IVar="-1" Cut="0.0000000000000000e+00" cType="1" res="-6.0709342360496521e-03" rms="2.4965554475784302e-01" purity="3.8251388072967529e-01" nType="-99"/>
        </Node>
        <Node pos="r" depth="1" NCoef="0" IVar="-1" Cut="0.0000000000000000e+00" cType="1" res="-6.3782982528209686e-02" rms="-nan" purity="-2.4585878476500511e-02" nType="-99"/>
      </Node>
    </BinaryTree>
    <BinaryTree type="DecisionTree" boostWeight="1.0000000000000000e+00" itree="151">
      <Node pos="s" depth="0" NCoef="0" IVar="5" Cut="4.8350635170936584e-01" cType="1" res="-5.0648837350308895e-04" rms="2.6863831281661987e-01" purity="4.9982795119285583e-01" nType="0">
        <Node pos="l" depth="1" NCoef="0" IVar="57" Cut="-6.0293310880661011e-01" cType="1" res="6.0359993949532509e-03" rms="2.7044838666915894e-01" purity="5.2176672220230103e-01" nType="0">
          <Node pos="l" depth="2" NCoef="0" IVar="-1" Cut="0.0000000000000000e+00" cType="1" res="-2.1183129400014877e-02" rms="9.0490728616714478e-02" purity="2.9526714235544205e-02" nType="-99"/>
          <Node pos="r" depth="2" NCoef="0" IVar="-1" Cut="0.0000000000000000e+00" cType="1" res="4.0328497998416424e-03" rms="2.9224058985710144e-01" purity="6.2058889865875244e-01" nType="-99"/>
        </Node>
        <Node pos="r" depth="1" NCoef="0" IVar="78" Cut="-8.1746809184551239e-02" cType="1" res="-1.0215581953525543e-01" rms="2.1449519693851471e-01" purity="1.5896971523761749e-01" nType="0">
          <Node pos="l" depth="2" NCoef="0" IVar="-1" Cut="0.0000000000000000e+00" cType="1" res="-4.5599151402711868e-02" rms="-nan" purity="1.4447306096553802e-01" nType="-99"/>
          <Node pos="r" depth="2" NCoef="0" IVar="-1" Cut="0.0000000000000000e+00" cType="1" res="9.8456125706434250e-03" rms="3.1975778937339783e-01" purity="1.8151529133319855e-01" nType="-99"/>
        </Node>
      </Node>
    </BinaryTree>
    <BinaryTree type="DecisionTree" boostWeight="1.0000000000000000e+00" itree="152">
      <Node pos="s" depth="0" NCoef="0" IVar="6" Cut="1.8341233730316162e+00" cType="1" res="-3.9123155875131488e-04" rms="2.7556407451629639e-01" purity="4.8938196897506714e-01" nType="0">
        <Node pos="l" depth="1" NCoef="0" IVar="46" Cut="9.4846719503402710e-01" cType="1" res="-4.2891465127468109e-02" rms="2.2866769134998322e-01" purity="2.7248388528823853e-01" nType="0">
          <Node pos="l" depth="2" NCoef="0" IVar="-1" Cut="0.0000000000000000e+00" cType="1" res="1.2848535552620888e-03" rms="3.0089697241783142e-01" purity="3.5330617427825928e-01" nType="-99"/>
          <Node pos="r" depth="2" NCoef="0" IVar="-1" Cut="0.0000000000000000e+00" cType="1" res="-2.3672292008996010e-02" rms="1.1913401633501053e-01" purity="2.0030751824378967e-01" nType="-99"/>
        </Node>
        <Node pos="r" depth="1" NCoef="0" IVar="5" Cut="-1.0869932174682617e-01" cType="1" res="1.5816034749150276e-02" rms="2.8983029723167419e-01" purity="5.7209503650665283e-01" nType="0">
          <Node pos="l" depth="2" NCoef="0" IVar="-1" Cut="0.0000000000000000e+00" cType="1" res="-3.0849739909172058e-02" rms="5.1247689872980118e-02" purity="2.0685954391956329e-01" nType="-99"/>
          <Node pos="r" depth="2" NCoef="0" IVar="-1" Cut="0.0000000000000000e+00" cType="1" res="5.5870967917144299e-03" rms="2.9691168665885925e-01" purity="5.9483724832534790e-01" nType="-99"/>
        </Node>
      </Node>
    </BinaryTree>
    <BinaryTree type="DecisionTree" boostWeight="1.0000000000000000e+00" itree="153">
      <Node pos="s" depth="0" NCoef="0" IVar="15" Cut="1.5223981142044067e+00" cType="1" res="4.2897379025816917e-03" rms="2.7450871467590332e-01" purity="4.9777957797050476e-01" nType="0">
        <Node pos="l" depth="1" NCoef="0" IVar="82" Cut="1.4508638381958008e+00" cType="1" res="1.5421391464769840e-02" rms="2.7314651012420654e-01" purity="4.9252060055732727e-01" nType="0">
          <Node pos="l" depth="2" NCoef="0" IVar="-1" Cut="0.0000000000000000e+00" cType="1" res="5.5385990999639034e-03" rms="2.8170230984687805e-01" purity="5.1415520906448364e-01" nType="-99"/>
          <Node pos="r" depth="2" NCoef="0" IVar="-1" Cut="0.0000000000000000e+00" cType="1" res="-2.5339953601360321e-02" rms="-nan" purity="1.7355009913444519e-01" nType="-99"/>
        </Node>
        <Node pos="r" depth="1" NCoef="0" IVar="15" Cut="1.5448312759399414e+00" cType="1" res="-5.4696414619684219e-02" rms="2.7417546510696411e-01" purity="5.2564674615859985e-01" nType="0">
          <Node pos="l" depth="2" NCoef="0" IVar="-1" Cut="0.0000000000000000e+00" cType="1" res="-5.3736111149191856e-03" rms="2.6827725768089294e-01" purity="5.7440769672393799e-01" nType="-99"/>
          <Node pos="r" depth="2" NCoef="0" IVar="-1" Cut="0.0000000000000000e+00" cType="1" res="-4.4752392917871475e-02" rms="2.4554955959320068e-01" purity="2.3684680461883545e-01" nType="-99"/>
        </Node>
      </Node>
    </BinaryTree>
    <BinaryTree type="DecisionTree" boostWeight="1.0000000000000000e+00" itree="154">
      <Node pos="s" depth="0" NCoef="0" IVar="7" Cut="-7.5595009326934814e-01" cType="1" res="4.6327952295541763e-03" rms="2.7373594045639038e-01" purity="4.9831229448318481e-01" nType="0">
        <Node pos="l" depth="1" NCoef="0" IVar="82" Cut="1.5910605192184448e+00" cType="1" res="7.7759911073371768e-04" rms="2.6949164271354675e-01" purity="4.9911054968833923e-01" nType="0">
          <Node pos="l" depth="2" NCoef="0" IVar="-1" Cut="0.0000000000000000e+00" cType="1" res="1.1686034267768264e-03" rms="2.7467367053031921e-01" purity="5.1085120439529419e-01" nType="-99"/>
          <Node pos="r" depth="2" NCoef="0" IVar="-1" Cut="0.0000000000000000e+00" cType="1" res="-3.3849664032459259e-02" rms="-nan" purity="1.4225374162197113e-01" nType="-99"/>
        </Node>
        <Node pos="r" depth="1" NCoef="0" IVar="-1" Cut="0.0000000000000000e+00" cType="1" res="3.3126592636108398e-02" rms="3.7616726756095886e-01" purity="4.6729779243469238e-01" nType="-99"/>
      </Node>
    </BinaryTree>
    <BinaryTree type="DecisionTree" boostWeight="1.0000000000000000e+00" itree="155">
      <Node pos="s" depth="0" NCoef="0" IVar="14" Cut="1.3694446086883545e+00" cType="1" res="-1.9450925756245852e-03" rms="2.7452698349952698e-01" purity="4.9337914586067200e-01" nType="0">
        <Node pos="l" depth="1" NCoef="0" IVar="69" Cut="1.4396147727966309e+00" cType="1" res="2.0723901689052582e-03" rms="2.7635937929153442e-01" purity="5.0119280815124512e-01" nType="0">
          <Node pos="l" depth="2" NCoef="0" IVar="-1" Cut="0.0000000000000000e+00" cType="1" res="-8.2237534224987030e-03" rms="2.5257429480552673e-01" purity="2.8776085376739502e-01" nType="-99"/>
          <Node pos="r" depth="2" NCoef="0" IVar="-1" Cut="0.0000000000000000e+00" cType="1" res="4.2516463436186314e-03" rms="2.8577008843421936e-01" purity="6.0334724187850952e-01" nType="-99"/>
        </Node>
        <Node pos="r" depth="1" NCoef="0" IVar="-1" Cut="0.0000000000000000e+00" cType="1" res="-3.0489819124341011e-02" rms="1.6222634911537170e-01" purity="2.4447622895240784e-01" nType="-99"/>
      </Node>
    </BinaryTree>
    <BinaryTree type="DecisionTree" boostWeight="1.0000000000000000e+00" itree="156">
      <Node pos="s" depth="0" NCoef="0" IVar="20" Cut="2.2401206195354462e-01" cType="1" res="-3.7411326775327325e-04" rms="2.6664361357688904e-01" purity="5.0178039073944092e-01" nType="0">
        <Node pos="l" depth="1" NCoef="0" IVar="36" Cut="-1.3764530420303345e+00" cType="1" res="6.2680812552571297e-03" rms="2.7407142519950867e-01" purity="5.1889854669570923e-01" nType="0">
          <Node pos="l" depth="2" NCoef="0" IVar="-1" Cut="0.0000000000000000e+00" cType="1" res="-3.0748302116990089e-02" rms="-nan" purity="6.9627724587917328e-03" nType="-99"/>
          <Node pos="r" depth="2" NCoef="0" IVar="-1" Cut="0.0000000000000000e+00" cType="1" res="3.2850315328687429e-03" rms="2.8770998120307922e-01" purity="5.6451576948165894e-01" nType="-99"/>
        </Node>
        <Node pos="r" depth="1" NCoef="0" IVar="21" Cut="1.4128984883427620e-02" cType="1" res="-6.4936988055706024e-02" rms="1.6571836173534393e-01" purity="3.3539003133773804e-01" nType="0">
          <Node pos="l" depth="2" NCoef="0" IVar="-1" Cut="0.0000000000000000e+00" cType="1" res="-1.5955121489241719e-03" rms="2.3360253870487213e-01" purity="4.1177234053611755e-01" nType="-99"/>
          <Node pos="r" depth="2" NCoef="0" IVar="-1" Cut="0.0000000000000000e+00" cType="1" res="-4.0953990072011948e-02" rms="-nan" purity="2.2528065741062164e-01" nType="-99"/>
        </Node>
      </Node>
    </BinaryTree>
    <BinaryTree type="DecisionTree" boostWeight="1.0000000000000000e+00" itree="157">
      <Node pos="s" depth="0" NCoef="0" IVar="76" Cut="1.3936914205551147e+00" cType="1" res="4.7493614256381989e-03" rms="2.7552849054336548e-01" purity="4.9774590134620667e-01" nType="0">
        <Node pos="l" depth="1" NCoef="0" IVar="15" Cut="1.4837456941604614e+00" cType="1" res="1.3835476711392403e-02" rms="2.8753408789634705e-01" purity="5.4839670658111572e-01" nType="0">
          <Node pos="l" depth="2" NCoef="0" IVar="-1" Cut="0.0000000000000000e+00" cType="1" res="8.2347448915243149e-03" rms="2.7851217985153198e-01" purity="4.9958029389381409e-01" nType="-99"/>
          <Node pos="r" depth="2" NCoef="0" IVar="-1" Cut="0.0000000000000000e+00" cType="1" res="-3.7017210852354765e-03" rms="3.0035239458084106e-01" purity="6.3482469320297241e-01" nType="-99"/>
        </Node>
        <Node pos="r" depth="1" NCoef="0" IVar="58" Cut="-3.4264025092124939e-01" cType="1" res="-7.1134291589260101e-02" rms="1.1407040059566498e-01" purity="7.4730351567268372e-02" nType="0">
          <Node pos="l" depth="2" NCoef="0" IVar="-1" Cut="0.0000000000000000e+00" cType="1" res="-1.1590981855988503e-02" rms="2.0772218704223633e-01" purity="1.2462887167930603e-01" nType="-99"/>
          <Node pos="r" depth="2" NCoef="0" IVar="-1" Cut="0.0000000000000000e+00" cType="1" res="-4.9173716455698013e-02" rms="-nan" purity="-3.4445479977875948e-03" nType="-99"/>
        </Node>
      </Node>
    </BinaryTree>
    <BinaryTree type="DecisionTree" boostWeight="1.0000000000000000e+00" itree="158">
      <Node pos="s" depth="0" NCoef="0" IVar="5" Cut="4.3988379836082458e-01" cType="1" res="8.4466990083456039e-03" rms="2.7434343099594116e-01" purity="5.0344115495681763e-01" nType="0">
        <Node pos="l" depth="1" NCoef="0" IVar="45" Cut="1.2345679104328156e-02" cType="1" res="1.6813732683658600e-02" rms="2.8063809871673584e-01" purity="5.3296107053756714e-01" nType="0">
          <Node pos="l" depth="2" NCoef="0" IVar="-1" Cut="0.0000000000000000e+00" cType="1" res="5.2918768487870693e-03" rms="2.8456047177314758e-01" purity="5.5777364969253540e-01" nType="-99"/>
          <Node pos="r" depth="2" NCoef="0" IVar="-1" Cut="0.0000000000000000e+00" cType="1" res="-3.6486055701971054e-02" rms="1.4083839952945709e-01" purity="0.0000000000000000e+00" nType="-99"/>
        </Node>
        <Node pos="r" depth="1" NCoef="0" IVar="62" Cut="5.9806730598211288e-02" cType="1" res="-6.0208365321159363e-02" rms="2.0325195789337158e-01" purity="2.6121830940246582e-01" nType="0">
          <Node pos="l" depth="2" NCoef="0" IVar="-1" Cut="0.0000000000000000e+00" cType="1" res="-3.5595605149865150e-03" rms="2.8367498517036438e-01" purity="3.3501639962196350e-01" nType="-99"/>
          <Node pos="r" depth="2" NCoef="0" IVar="-1" Cut="0.0000000000000000e+00" cType="1" res="-4.1986018419265747e-02" rms="-nan" purity="1.1282569169998169e-01" nType="-99"/>
        </Node>
      </Node>
    </BinaryTree>
    <BinaryTree type="DecisionTree" boostWeight="1.0000000000000000e+00" itree="159">
      <Node pos="s" depth="0" NCoef="0" IVar="39" Cut="-7.7927631139755249e-01" cType="1" res="1.4404088142327964e-04" rms="2.6661992073059082e-01" purity="4.9299079179763794e-01" nType="0">
        <Node pos="l" depth="1" NCoef="0" IVar="52" Cut="2.5918200016021729e+00" cType="1" res="7.5747473165392876e-03" rms="2.7317219972610474e-01" purity="5.2478694915771484e-01" nType="0">
          <Node pos="l" depth="2" NCoef="0" IVar="-1" Cut="0.0000000000000000e+00" cType="1" res="-1.4794075861573219e-02" rms="2.1137852966785431e-01" purity="1.7735125124454498e-01" nType="-99"/>
          <Node pos="r" depth="2" NCoef="0" IVar="-1" Cut="0.0000000000000000e+00" cType="1" res="3.7925550714135170e-03" rms="2.7866309881210327e-01" purity="5.6618851423263550e-01" nType="-99"/>
        </Node>
        <Node pos="r" depth="1" NCoef="0" IVar="46" Cut="9.7291582822799683e-01" cType="1" res="-7.7486447989940643e-02" rms="1.6592866182327271e-01" purity="1.6080789268016815e-01" nType="0">
          <Node pos="l" depth="2" NCoef="0" IVar="-1" Cut="0.0000000000000000e+00" cType="1" res="-5.1301727071404457e-03" rms="3.0430337786674500e-01" purity="2.3007917404174805e-01" nType="-99"/>
          <Node pos="r" depth="2" NCoef="0" IVar="-1" Cut="0.0000000000000000e+00" cType="1" res="-4.4595524668693542e-02" rms="-nan" purity="8.8378995656967163e-02" nType="-99"/>
        </Node>
      </Node>
    </BinaryTree>
    <BinaryTree type="DecisionTree" boostWeight="1.0000000000000000e+00" itree="160">
      <Node pos="s" depth="0" NCoef="0" IVar="17" Cut="9.0564805269241333e-01" cType="1" res="2.7265229728072882e-03" rms="2.7047163248062134e-01" purity="4.9825918674468994e-01" nType="0">
        <Node pos="l" depth="1" NCoef="0" IVar="36" Cut="5.2069038152694702e-02" cType="1" res="-2.7293656021356583e-02" rms="-nan" purity="1.8069377401843667e-03" nType="-99"/>
        <Node pos="r" depth="1" NCoef="0" IVar="3" Cut="5.2609157562255859e+00" cType="1" res="1.4970945194363594e-02" rms="3.0401349067687988e-01" purity="6.2855798006057739e-01" nType="0">
          <Node pos="l" depth="2" NCoef="0" IVar="-1" Cut="0.0000000000000000e+00" cType="1" res="1.3621081598103046e-03" rms="2.9735231399536133e-01" purity="6.2831616401672363e-01" nType="-99"/>
          <Node pos="r" depth="2" NCoef="0" IVar="-1" Cut="0.0000000000000000e+00" cType="1" res="2.5857457891106606e-02" rms="3.6299183964729309e-01" purity="6.3193184137344360e-01" nType="-99"/>
        </Node>
      </Node>
    </BinaryTree>
    <BinaryTree type="DecisionTree" boostWeight="1.0000000000000000e+00" itree="161">
      <Node pos="s" depth="0" NCoef="0" IVar="46" Cut="9.2737084627151489e-01" cType="1" res="3.4839285071939230e-03" rms="2.7232438325881958e-01" purity="4.9772089719772339e-01" nType="0">
        <Node pos="l" depth="1" NCoef="0" IVar="10" Cut="3.1857824325561523e+00" cType="1" res="2.7228845283389091e-02" rms="2.9967054724693298e-01" purity="5.7461035251617432e-01" nType="0">
          <Node pos="l" depth="2" NCoef="0" IVar="-1" Cut="0.0000000000000000e+00" cType="1" res="1.2951785698533058e-02" rms="3.4197446703910828e-01" purity="4.9100568890571594e-01" nType="-99"/>
          <Node pos="r" depth="2" NCoef="0" IVar="-1" Cut="0.0000000000000000e+00" cType="1" res="6.6508707823231816e-04" rms="2.5728142261505127e-01" purity="6.4315462112426758e-01" nType="-99"/>
        </Node>
        <Node pos="r" depth="1" NCoef="0" IVar="6" Cut="2.9306533336639404e+00" cType="1" res="-1.3616459444165230e-02" rms="2.4939386546611786e-01" purity="4.4234743714332581e-01" nType="0">
          <Node pos="l" depth="2" NCoef="0" IVar="-1" Cut="0.0000000000000000e+00" cType="1" res="-6.6796536557376385e-03" rms="2.3823632299900055e-01" purity="3.9620527625083923e-01" nType="-99"/>
          <Node pos="r" depth="2" NCoef="0" IVar="-1" Cut="0.0000000000000000e+00" cType="1" res="1.2036649510264397e-02" rms="2.9400989413261414e-01" purity="6.8374574184417725e-01" nType="-99"/>
        </Node>
      </Node>
    </BinaryTree>
    <BinaryTree type="DecisionTree" boostWeight="1.0000000000000000e+00" itree="162">
      <Node pos="s" depth="0" NCoef="0" IVar="82" Cut="9.0844446420669556e-01" cType="1" res="-6.6996705718338490e-03" rms="2.5517290830612183e-01" purity="4.9496227502822876e-01" nType="0">
        <Node pos="l" depth="1" NCoef="0" IVar="6" Cut="2.0180082321166992e+00" cType="1" res="1.2270014733076096e-02" rms="2.7752956748008728e-01" purity="5.5941510200500488e-01" nType="0">
          <Node pos="l" depth="2" NCoef="0" IVar="-1" Cut="0.0000000000000000e+00" cType="1" res="-5.2001336589455605e-03" rms="2.4999323487281799e-01" purity="3.8693606853485107e-01" nType="-99"/>
          <Node pos="r" depth="2" NCoef="0" IVar="-1" Cut="0.0000000000000000e+00" cType="1" res="7.7772713266313076e-03" rms="2.9015240073204041e-01" purity="6.5609860420227051e-01" nType="-99"/>
        </Node>
        <Node pos="r" depth="1" NCoef="0" IVar="36" Cut="1.3667283058166504e+00" cType="1" res="-4.4556569308042526e-02" rms="1.9797684252262115e-01" purity="3.6633685231208801e-01" nType="0">
          <Node pos="l" depth="2" NCoef="0" IVar="-1" Cut="0.0000000000000000e+00" cType="1" res="-3.2575588673353195e-02" rms="-nan" purity="2.7950042858719826e-02" nType="-99"/>
          <Node pos="r" depth="2" NCoef="0" IVar="-1" Cut="0.0000000000000000e+00" cType="1" res="-4.2206048965454102e-03" rms="2.6683536171913147e-01" purity="5.7383626699447632e-01" nType="-99"/>
        </Node>
      </Node>
    </BinaryTree>
    <BinaryTree type="DecisionTree" boostWeight="1.0000000000000000e+00" itree="163">
      <Node pos="s" depth="0" NCoef="0" IVar="5" Cut="4.5209753513336182e-01" cType="1" res="1.0410059243440628e-02" rms="2.7347469329833984e-01" purity="5.0943893194198608e-01" nType="0">
        <Node pos="l" depth="1" NCoef="0" IVar="66" Cut="1.2345679104328156e-02" cType="1" res="1.8090449273586273e-02" rms="2.7792853116989136e-01" purity="5.3754246234893799e-01" nType="0">
          <Node pos="l" depth="2" NCoef="0" IVar="-1" Cut="0.0000000000000000e+00" cType="1" res="5.7085780426859856e-03" rms="2.8174659609794617e-01" purity="5.6241708993911743e-01" nType="-99"/>
          <Node pos="r" depth="2" NCoef="0" IVar="-1" Cut="0.0000000000000000e+00" cType="1" res="-3.7010751664638519e-02" rms="1.4207696914672852e-01" purity="0.0000000000000000e+00" nType="-99"/>
        </Node>
        <Node pos="r" depth="1" NCoef="0" IVar="61" Cut="4.8456537723541260e-01" cType="1" res="-6.7730523645877838e-02" rms="2.0759654045104980e-01" purity="2.2351248562335968e-01" nType="0">
          <Node pos="l" depth="2" NCoef="0" IVar="-1" Cut="0.0000000000000000e+00" cType="1" res="4.5433621853590012e-03" rms="3.6849197745323181e-01" purity="3.8344952464103699e-01" nType="-99"/>
          <Node pos="r" depth="2" NCoef="0" IVar="-1" Cut="0.0000000000000000e+00" cType="1" res="-2.9125280678272247e-02" rms="5.1568862050771713e-02" purity="1.6082198917865753e-01" nType="-99"/>
        </Node>
      </Node>
    </BinaryTree>
    <BinaryTree type="DecisionTree" boostWeight="1.0000000000000000e+00" itree="164">
      <Node pos="s" depth="0" NCoef="0" IVar="46" Cut="1.3072779178619385e+00" cType="1" res="-6.6079841926693916e-03" rms="2.5209453701972961e-01" purity="5.0064474344253540e-01" nType="0">
        <Node pos="l" depth="1" NCoef="0" IVar="57" Cut="-1.0285437107086182e+00" cType="1" res="-1.8378902459517121e-03" rms="2.5937357544898987e-01" purity="5.1646882295608521e-01" nType="0">
          <Node pos="l" depth="2" NCoef="0" IVar="-1" Cut="0.0000000000000000e+00" cType="1" res="-2.1343313157558441e-02" rms="7.3543868958950043e-02" purity="3.0460249632596970e-02" nType="-99"/>
          <Node pos="r" depth="2" NCoef="0" IVar="-1" Cut="0.0000000000000000e+00" cType="1" res="1.5596762532368302e-03" rms="2.7803316712379456e-01" purity="5.9902381896972656e-01" nType="-99"/>
        </Node>
        <Node pos="r" depth="1" NCoef="0" IVar="82" Cut="8.2920062541961670e-01" cType="1" res="-3.6705549806356430e-02" rms="-nan" purity="1.7009675502777100e-01" nType="-99"/>
      </Node>
    </BinaryTree>
    <BinaryTree type="DecisionTree" boostWeight="1.0000000000000000e+00" itree="165">
      <Node pos="s" depth="0" NCoef="0" IVar="55" Cut="-1.4926531314849854e+00" cType="1" res="3.7665099371224642e-03" rms="2.7359318733215332e-01" purity="4.9738132953643799e-01" nType="0">
        <Node pos="l" depth="1" NCoef="0" IVar="34" Cut="-1.0690196603536606e-01" cType="1" res="1.1018124222755432e-01" rms="3.4161940217018127e-01" purity="4.4240415096282959e-01" nType="0">
          <Node pos="l" depth="2" NCoef="0" IVar="-1" Cut="0.0000000000000000e+00" cType="1" res="5.4810214787721634e-02" rms="4.1508734226226807e-01" purity="4.1746962070465088e-01" nType="-99"/>
          <Node pos="r" depth="2" NCoef="0" IVar="-1" Cut="0.0000000000000000e+00" cType="1" res="4.6376991085708141e-03" rms="1.9065448641777039e-01" purity="4.7121757268905640e-01" nType="-99"/>
        </Node>
        <Node pos="r" depth="1" NCoef="0" IVar="81" Cut="-2.3308253288269043e+00" cType="1" res="-1.0193561902269721e-03" rms="2.6914468407630920e-01" purity="4.9985393881797791e-01" nType="0">
          <Node pos="l" depth="2" NCoef="0" IVar="-1" Cut="0.0000000000000000e+00" cType="1" res="7.2391852736473083e-03" rms="2.9840594530105591e-01" purity="6.5733987092971802e-01" nType="-99"/>
          <Node pos="r" depth="2" NCoef="0" IVar="-1" Cut="0.0000000000000000e+00" cType="1" res="-4.1153114289045334e-03" rms="2.5286635756492615e-01" purity="4.2540371417999268e-01" nType="-99"/>
        </Node>
      </Node>
    </BinaryTree>
    <BinaryTree type="DecisionTree" boostWeight="1.0000000000000000e+00" itree="166">
      <Node pos="s" depth="0" NCoef="0" IVar="5" Cut="-1.3618460297584534e-01" cType="1" res="-2.0189851056784391e-03" rms="2.6593968272209167e-01" purity="4.9219438433647156e-01" nType="0">
        <Node pos="l" depth="1" NCoef="0" IVar="-1" Cut="0.0000000000000000e+00" cType="1" res="-5.8949198573827744e-02" rms="-nan" purity="4.4084236025810242e-02" nType="-99"/>
        <Node pos="r" depth="1" NCoef="0" IVar="77" Cut="1.4031898975372314e+00" cType="1" res="4.1234106756746769e-03" rms="2.7498346567153931e-01" purity="5.1010483503341675e-01" nType="0">
          <Node pos="l" depth="2" NCoef="0" IVar="-1" Cut="0.0000000000000000e+00" cType="1" res="2.2447076626121998e-03" rms="2.8171581029891968e-01" purity="5.3068286180496216e-01" nType="-99"/>
          <Node pos="r" depth="2" NCoef="0" IVar="-1" Cut="0.0000000000000000e+00" cType="1" res="-4.7734059393405914e-02" rms="-nan" purity="9.9007347598671913e-03" nType="-99"/>
        </Node>
      </Node>
    </BinaryTree>
    <BinaryTree type="DecisionTree" boostWeight="1.0000000000000000e+00" itree="167">
      <Node pos="s" depth="0" NCoef="0" IVar="8" Cut="-6.3991332054138184e-01" cType="1" res="5.0040977075695992e-03" rms="2.7273789048194885e-01" purity="4.9784198403358459e-01" nType="0">
        <Node pos="l" depth="1" NCoef="0" IVar="29" Cut="-1.9391313195228577e-01" cType="1" res="1.0211591608822346e-02" rms="2.7803725004196167e-01" purity="5.1066684722900391e-01" nType="0">
          <Node pos="l" depth="2" NCoef="0" IVar="-1" Cut="0.0000000000000000e+00" cType="1" res="3.9007500745356083e-03" rms="2.8334128856658936e-01" purity="5.1699066162109375e-01" nType="-99"/>
          <Node pos="r" depth="2" NCoef="0" IVar="-1" Cut="0.0000000000000000e+00" cType="1" res="-1.8767662346363068e-02" rms="1.4047555625438690e-01" purity="4.0395662188529968e-01" nType="-99"/>
        </Node>
        <Node pos="r" depth="1" NCoef="0" IVar="-1" Cut="0.0000000000000000e+00" cType="1" res="-3.5193983465433121e-02" rms="-nan" purity="1.6606055200099945e-01" nType="-99"/>
      </Node>
    </BinaryTree>
    <BinaryTree type="DecisionTree" boostWeight="1.0000000000000000e+00" itree="168">
      <Node pos="s" depth="0" NCoef="0" IVar="36" Cut="-1.3764530420303345e+00" cType="1" res="1.5016096876934171e-03" rms="2.6420462131500244e-01" purity="5.0312519073486328e-01" nType="0">
        <Node pos="l" depth="1" NCoef="0" IVar="39" Cut="-2.0545403957366943e+00" cType="1" res="-4.2321994900703430e-02" rms="-nan" purity="-2.2247282788157463e-02" nType="-99"/>
        <Node pos="r" depth="1" NCoef="0" IVar="34" Cut="-1.2504562139511108e+00" cType="1" res="9.5042232424020767e-03" rms="2.7841565012931824e-01" purity="5.5144256353378296e-01" nType="0">
          <Node pos="l" depth="2" NCoef="0" IVar="-1" Cut="0.0000000000000000e+00" cType="1" res="1.9601836800575256e-02" rms="3.2763653993606567e-01" purity="4.5367449522018433e-01" nType="-99"/>
          <Node pos="r" depth="2" NCoef="0" IVar="-1" Cut="0.0000000000000000e+00" cType="1" res="1.1270713002886623e-04" rms="2.7006375789642334e-01" purity="5.6411427259445190e-01" nType="-99"/>
        </Node>
      </Node>
    </BinaryTree>
    <BinaryTree type="DecisionTree" boostWeight="1.0000000000000000e+00" itree="169">
      <Node pos="s" depth="0" NCoef="0" IVar="30" Cut="-4.3209877610206604e-01" cType="1" res="6.8489401601254940e-03" rms="2.7272802591323853e-01" purity="5.0346499681472778e-01" nType="0">
        <Node pos="l" depth="1" NCoef="0" IVar="1" Cut="2.6201167106628418e+00" cType="1" res="7.3682673275470734e-02" rms="3.3418005704879761e-01" purity="4.6214804053306580e-01" nType="0">
          <Node pos="l" depth="2" NCoef="0" IVar="-1" Cut="0.0000000000000000e+00" cType="1" res="-1.2686435133218765e-02" rms="2.0703759789466858e-01" purity="2.1668694913387299e-01" nType="-99"/>
          <Node pos="r" depth="2" NCoef="0" IVar="-1" Cut="0.0000000000000000e+00" cType="1" res="2.6564579457044601e-02" rms="3.6286383867263794e-01" purity="5.5984514951705933e-01" nType="-99"/>
        </Node>
        <Node pos="r" depth="1" NCoef="0" IVar="36" Cut="1.4858430624008179e+00" cType="1" res="6.8371725501492620e-04" rms="2.6549968123435974e-01" purity="5.0727635622024536e-01" nType="0">
          <Node pos="l" depth="2" NCoef="0" IVar="-1" Cut="0.0000000000000000e+00" cType="1" res="-6.5531278960406780e-03" rms="2.4248997867107391e-01" purity="2.1060305833816528e-01" nType="-99"/>
          <Node pos="r" depth="2" NCoef="0" IVar="-1" Cut="0.0000000000000000e+00" cType="1" res="4.9308002926409245e-03" rms="2.8131973743438721e-01" purity="7.4867701530456543e-01" nType="-99"/>
        </Node>
      </Node>
    </BinaryTree>
    <BinaryTree type="DecisionTree" boostWeight="1.0000000000000000e+00" itree="170">
      <Node pos="s" depth="0" NCoef="0" IVar="81" Cut="-9.2172878980636597e-01" cType="1" res="-7.1138807106763124e-04" rms="2.6213872432708740e-01" purity="4.9868124723434448e-01" nType="0">
        <Node pos="l" depth="1" NCoef="0" IVar="60" Cut="-5.6142354011535645e-01" cType="1" res="7.4289403855800629e-03" rms="2.7451080083847046e-01" purity="5.3968870639801025e-01" nType="0">
          <Node pos="l" depth="2" NCoef="0" IVar="-1" Cut="0.0000000000000000e+00" cType="1" res="3.0698650516569614e-03" rms="2.7869558334350586e-01" purity="5.5471771955490112e-01" nType="-99"/>
          <Node pos="r" depth="2" NCoef="0" IVar="-1" Cut="0.0000000000000000e+00" cType="1" res="-3.5823188722133636e-02" rms="-nan" purity="8.6841225624084473e-02" nType="-99"/>
        </Node>
        <Node pos="r" depth="1" NCoef="0" IVar="83" Cut="1.7147745937108994e-02" cType="1" res="-5.8232050389051437e-02" rms="1.3425496220588684e-01" purity="2.0891717076301575e-01" nType="0">
          <Node pos="l" depth="2" NCoef="0" IVar="-1" Cut="0.0000000000000000e+00" cType="1" res="-5.8049906045198441e-02" rms="-nan" purity="8.2814082503318787e-02" nType="-99"/>
          <Node pos="r" depth="2" NCoef="0" IVar="-1" Cut="0.0000000000000000e+00" cType="1" res="-2.6910565793514252e-03" rms="2.4459482729434967e-01" purity="2.6015645265579224e-01" nType="-99"/>
        </Node>
      </Node>
    </BinaryTree>
    <BinaryTree type="DecisionTree" boostWeight="1.0000000000000000e+00" itree="171">
      <Node pos="s" depth="0" NCoef="0" IVar="67" Cut="1.4135686159133911e+00" cType="1" res="-9.3954836484044790e-04" rms="2.6904720067977905e-01" purity="4.9427837133407593e-01" nType="0">
        <Node pos="l" depth="1" NCoef="0" IVar="55" Cut="-1.4540901184082031e+00" cType="1" res="3.0906677711755037e-03" rms="2.7408397197723389e-01" purity="5.0698971748352051e-01" nType="0">
          <Node pos="l" depth="2" NCoef="0" IVar="-1" Cut="0.0000000000000000e+00" cType="1" res="2.4830007925629616e-02" rms="3.2873445749282837e-01" purity="3.8653856515884399e-01" nType="-99"/>
          <Node pos="r" depth="2" NCoef="0" IVar="-1" Cut="0.0000000000000000e+00" cType="1" res="-8.9623773237690330e-04" rms="2.6803389191627502e-01" purity="5.1691216230392456e-01" nType="-99"/>
        </Node>
        <Node pos="r" depth="1" NCoef="0" IVar="-1" Cut="0.0000000000000000e+00" cType="1" res="-4.9172610044479370e-02" rms="-nan" purity="7.4463650584220886e-02" nType="-99"/>
      </Node>
    </BinaryTree>
    <BinaryTree type="DecisionTree" boostWeight="1.0000000000000000e+00" itree="172">
      <Node pos="s" depth="0" NCoef="0" IVar="15" Cut="1.5217282772064209e+00" cType="1" res="2.3236321285367012e-03" rms="2.6921355724334717e-01" purity="4.9687528610229492e-01" nType="0">
        <Node pos="l" depth="1" NCoef="0" IVar="36" Cut="-1.3765485286712646e+00" cType="1" res="1.4586993493139744e-02" rms="2.6658874750137329e-01" purity="4.9144473671913147e-01" nType="0">
          <Node pos="l" depth="2" NCoef="0" IVar="-1" Cut="0.0000000000000000e+00" cType="1" res="-3.3369708806276321e-02" rms="-nan" purity="-2.1170307882130146e-03" nType="-99"/>
          <Node pos="r" depth="2" NCoef="0" IVar="-1" Cut="0.0000000000000000e+00" cType="1" res="5.7808058336377144e-03" rms="2.7966073155403137e-01" purity="5.3933972120285034e-01" nType="-99"/>
        </Node>
        <Node pos="r" depth="1" NCoef="0" IVar="25" Cut="9.8349285125732422e-01" cType="1" res="-6.0707442462444305e-02" rms="2.7378562092781067e-01" purity="5.2478724718093872e-01" nType="0">
          <Node pos="l" depth="2" NCoef="0" IVar="-1" Cut="0.0000000000000000e+00" cType="1" res="-5.2005047909915447e-03" rms="2.8738689422607422e-01" purity="5.9199935197830200e-01" nType="-99"/>
          <Node pos="r" depth="2" NCoef="0" IVar="-1" Cut="0.0000000000000000e+00" cType="1" res="-3.4725941717624664e-02" rms="2.0844568312168121e-01" purity="3.5388791561126709e-01" nType="-99"/>
        </Node>
      </Node>
    </BinaryTree>
    <BinaryTree type="DecisionTree" boostWeight="1.0000000000000000e+00" itree="173">
      <Node pos="s" depth="0" NCoef="0" IVar="36" Cut="-6.0282182693481445e-01" cType="1" res="-6.0201911255717278e-03" rms="2.5774678587913513e-01" purity="4.9702191352844238e-01" nType="0">
        <Node pos="l" depth="1" NCoef="0" IVar="41" Cut="6.6403180360794067e-02" cType="1" res="-5.1050420850515366e-02" rms="1.0470543801784515e-01" purity="4.2171441018581390e-02" nType="0">
          <Node pos="l" depth="2" NCoef="0" IVar="-1" Cut="0.0000000000000000e+00" cType="1" res="-4.1560482233762741e-02" rms="-nan" purity="-1.2158473953604698e-02" nType="-99"/>
          <Node pos="r" depth="2" NCoef="0" IVar="-1" Cut="0.0000000000000000e+00" cType="1" res="6.9040311500430107e-03" rms="2.4973295629024506e-01" purity="1.1208439618349075e-01" nType="-99"/>
        </Node>
        <Node pos="r" depth="1" NCoef="0" IVar="0" Cut="1.3461393117904663e+00" cType="1" res="3.9685000665485859e-03" rms="2.7962177991867065e-01" purity="5.9791767597198486e-01" nType="0">
          <Node pos="l" depth="2" NCoef="0" IVar="-1" Cut="0.0000000000000000e+00" cType="1" res="2.2365632466971874e-03" rms="2.8269672393798828e-01" purity="6.1104017496109009e-01" nType="-99"/>
          <Node pos="r" depth="2" NCoef="0" IVar="-1" Cut="0.0000000000000000e+00" cType="1" res="-2.5649437680840492e-02" rms="1.7954507470130920e-01" purity="3.3682706952095032e-01" nType="-99"/>
        </Node>
      </Node>
    </BinaryTree>
    <BinaryTree type="DecisionTree" boostWeight="1.0000000000000000e+00" itree="174">
      <Node pos="s" depth="0" NCoef="0" IVar="57" Cut="5.9597736597061157e-01" cType="1" res="-1.3215197250247002e-03" rms="2.5838279724121094e-01" purity="4.9869564175605774e-01" nType="0">
        <Node pos="l" depth="1" NCoef="0" IVar="4" Cut="3.7676846981048584e+00" cType="1" res="-4.8939678817987442e-02" rms="8.1803493201732635e-02" purity="4.2211003601551056e-02" nType="0">
          <Node pos="l" depth="2" NCoef="0" IVar="-1" Cut="0.0000000000000000e+00" cType="1" res="-7.6336455531418324e-03" rms="1.8699534237384796e-01" purity="7.8211762011051178e-02" nType="-99"/>
          <Node pos="r" depth="2" NCoef="0" IVar="-1" Cut="0.0000000000000000e+00" cType="1" res="-6.7619845271110535e-02" rms="-nan" purity="-6.0595843940973282e-02" nType="-99"/>
        </Node>
        <Node pos="r" depth="1" NCoef="0" IVar="87" Cut="1.2345679104328156e-02" cType="1" res="1.2262318283319473e-02" rms="2.8821206092834473e-01" purity="6.2891513109207153e-01" nType="0">
          <Node pos="l" depth="2" NCoef="0" IVar="-1" Cut="0.0000000000000000e+00" cType="1" res="4.0353816002607346e-03" rms="2.9192292690277100e-01" purity="6.5727949142456055e-01" nType="-99"/>
          <Node pos="r" depth="2" NCoef="0" IVar="-1" Cut="0.0000000000000000e+00" cType="1" res="-3.7409190088510513e-02" rms="1.5099893510341644e-01" purity="0.0000000000000000e+00" nType="-99"/>
        </Node>
      </Node>
    </BinaryTree>
    <BinaryTree type="DecisionTree" boostWeight="1.0000000000000000e+00" itree="175">
      <Node pos="s" depth="0" NCoef="0" IVar="15" Cut="-1.3379061222076416e+00" cType="1" res="7.3833747592289001e-05" rms="2.6436820626258850e-01" purity="4.9056506156921387e-01" nType="0">
        <Node pos="l" depth="1" NCoef="0" IVar="37" Cut="1.0794516801834106e+00" cType="1" res="-2.6840828359127045e-02" rms="-nan" purity="1.0734095424413681e-01" nType="-99"/>
        <Node pos="r" depth="1" NCoef="0" IVar="4" Cut="3.4609177112579346e+00" cType="1" res="1.0719630867242813e-02" rms="2.8637889027595520e-01" purity="5.5866688489913940e-01" nType="0">
          <Node pos="l" depth="2" NCoef="0" IVar="-1" Cut="0.0000000000000000e+00" cType="1" res="1.3444368727505207e-02" rms="3.6530798673629761e-01" purity="3.8561767339706421e-01" nType="-99"/>
          <Node pos="r" depth="2" NCoef="0" IVar="-1" Cut="0.0000000000000000e+00" cType="1" res="-1.2543854536488652e-03" rms="2.5423371791839600e-01" purity="6.1370205879211426e-01" nType="-99"/>
        </Node>
      </Node>
    </BinaryTree>
    <BinaryTree type="DecisionTree" boostWeight="1.0000000000000000e+00" itree="176">
      <Node pos="s" depth="0" NCoef="0" IVar="69" Cut="9.9776375293731689e-01" cType="1" res="-6.0607031919062138e-03" rms="2.5896725058555603e-01" purity="4.9275815486907959e-01" nType="0">
        <Node pos="l" depth="1" NCoef="0" IVar="14" Cut="-1.4153228998184204e+00" cType="1" res="-6.3152037560939789e-02" rms="1.6561390459537506e-01" purity="2.2329671680927277e-01" nType="0">
          <Node pos="l" depth="2" NCoef="0" IVar="-1" Cut="0.0000000000000000e+00" cType="1" res="2.0896041765809059e-02" rms="3.0472561717033386e-01" purity="1.8568745255470276e-01" nType="-99"/>
          <Node pos="r" depth="2" NCoef="0" IVar="-1" Cut="0.0000000000000000e+00" cType="1" res="-2.5120876729488373e-02" rms="1.0050566494464874e-01" purity="2.3113924264907837e-01" nType="-99"/>
        </Node>
        <Node pos="r" depth="1" NCoef="0" IVar="14" Cut="-1.2608402967453003e+00" cType="1" res="4.5674080029129982e-03" rms="2.7151972055435181e-01" purity="5.4292106628417969e-01" nType="0">
          <Node pos="l" depth="2" NCoef="0" IVar="-1" Cut="0.0000000000000000e+00" cType="1" res="-1.1920491233468056e-02" rms="2.1687722206115723e-01" purity="3.6289462447166443e-01" nType="-99"/>
          <Node pos="r" depth="2" NCoef="0" IVar="-1" Cut="0.0000000000000000e+00" cType="1" res="5.3763776086270809e-03" rms="2.8551042079925537e-01" purity="6.0256618261337280e-01" nType="-99"/>
        </Node>
      </Node>
    </BinaryTree>
    <BinaryTree type="DecisionTree" boostWeight="1.0000000000000000e+00" itree="177">
      <Node pos="s" depth="0" NCoef="0" IVar="18" Cut="-1.3961910009384155e+00" cType="1" res="1.5083047037478536e-04" rms="2.6086160540580750e-01" purity="4.9618396162986755e-01" nType="0">
        <Node pos="l" depth="1" NCoef="0" IVar="41" Cut="3.3178594708442688e-01" cType="1" res="1.3645506463944912e-02" rms="2.7127176523208618e-01" purity="5.4654914140701294e-01" nType="0">
          <Node pos="l" depth="2" NCoef="0" IVar="-1" Cut="0.0000000000000000e+00" cType="1" res="2.1454037632793188e-03" rms="2.6545029878616333e-01" purity="5.4752224683761597e-01" nType="-99"/>
          <Node pos="r" depth="2" NCoef="0" IVar="-1" Cut="0.0000000000000000e+00" cType="1" res="2.8935495764017105e-02" rms="3.4679454565048218e-01" purity="5.2889627218246460e-01" nType="-99"/>
        </Node>
        <Node pos="r" depth="1" NCoef="0" IVar="52" Cut="2.8875865936279297e+00" cType="1" res="-5.5849619209766388e-02" rms="2.0290057361125946e-01" purity="2.8717738389968872e-01" nType="0">
          <Node pos="l" depth="2" NCoef="0" IVar="-1" Cut="0.0000000000000000e+00" cType="1" res="-3.5695057362318039e-02" rms="-nan" purity="1.0510527342557907e-01" nType="-99"/>
          <Node pos="r" depth="2" NCoef="0" IVar="-1" Cut="0.0000000000000000e+00" cType="1" res="-6.0968524776399136e-03" rms="2.5336694717407227e-01" purity="3.8880157470703125e-01" nType="-99"/>
        </Node>
      </Node>
    </BinaryTree>
    <BinaryTree type="DecisionTree" boostWeight="1.0000000000000000e+00" itree="178">
      <Node pos="s" depth="0" NCoef="0" IVar="8" Cut="-1.5513050556182861e-01" cType="1" res="5.5475486442446709e-03" rms="2.7072885632514954e-01" purity="5.0314813852310181e-01" nType="0">
        <Node pos="l" depth="1" NCoef="0" IVar="21" Cut="-5.8335942029953003e-01" cType="1" res="9.2788571491837502e-03" rms="2.7496904134750366e-01" purity="5.1196849346160889e-01" nType="0">
          <Node pos="l" depth="2" NCoef="0" IVar="-1" Cut="0.0000000000000000e+00" cType="1" res="3.3563822507858276e-02" rms="3.7407553195953369e-01" purity="5.8488798141479492e-01" nType="-99"/>
          <Node pos="r" depth="2" NCoef="0" IVar="-1" Cut="0.0000000000000000e+00" cType="1" res="1.4141624560579658e-03" rms="2.6981630921363831e-01" purity="5.0925475358963013e-01" nType="-99"/>
        </Node>
        <Node pos="r" depth="1" NCoef="0" IVar="-1" Cut="0.0000000000000000e+00" cType="1" res="-3.4728311002254486e-02" rms="-nan" purity="1.9782114028930664e-01" nType="-99"/>
      </Node>
    </BinaryTree>
    <BinaryTree type="DecisionTree" boostWeight="1.0000000000000000e+00" itree="179">
      <Node pos="s" depth="0" NCoef="0" IVar="17" Cut="-1.3765211105346680e+00" cType="1" res="-4.4865291565656662e-03" rms="2.5363188982009888e-01" purity="5.0151234865188599e-01" nType="0">
        <Node pos="l" depth="1" NCoef="0" IVar="38" Cut="-1.0693428516387939e+00" cType="1" res="-8.0503873527050018e-02" rms="-nan" purity="-6.5183304250240326e-02" nType="-99"/>
        <Node pos="r" depth="1" NCoef="0" IVar="29" Cut="-4.4600018858909607e-01" cType="1" res="4.1392301209270954e-03" rms="2.7492529153823853e-01" purity="5.5200940370559692e-01" nType="0">
          <Node pos="l" depth="2" NCoef="0" IVar="-1" Cut="0.0000000000000000e+00" cType="1" res="2.7217811439186335e-03" rms="2.8146407008171082e-01" purity="5.6044316291809082e-01" nType="-99"/>
          <Node pos="r" depth="2" NCoef="0" IVar="-1" Cut="0.0000000000000000e+00" cType="1" res="-2.6670387014746666e-02" rms="7.4344038963317871e-02" purity="4.1820535063743591e-01" nType="-99"/>
        </Node>
      </Node>
    </BinaryTree>
    <BinaryTree type="DecisionTree" boostWeight="1.0000000000000000e+00" itree="180">
      <Node pos="s" depth="0" NCoef="0" IVar="0" Cut="1.1341099739074707e+00" cType="1" res="-4.3833209201693535e-03" rms="2.5576552748680115e-01" purity="4.9124106764793396e-01" nType="0">
        <Node pos="l" depth="1" NCoef="0" IVar="3" Cut="4.4113540649414062e+00" cType="1" res="5.1900581456720829e-03" rms="2.6932150125503540e-01" purity="5.2616608142852783e-01" nType="0">
          <Node pos="l" depth="2" NCoef="0" IVar="-1" Cut="0.0000000000000000e+00" cType="1" res="1.8715312704443932e-02" rms="3.5194700956344604e-01" purity="3.8217821717262268e-01" nType="-99"/>
          <Node pos="r" depth="2" NCoef="0" IVar="-1" Cut="0.0000000000000000e+00" cType="1" res="-5.6569499429315329e-04" rms="2.5868380069732666e-01" purity="5.4021954536437988e-01" nType="-99"/>
        </Node>
        <Node pos="r" depth="1" NCoef="0" IVar="17" Cut="-1.3378660678863525e+00" cType="1" res="-5.3367350250482559e-02" rms="1.6163741052150726e-01" purity="3.1254035234451294e-01" nType="0">
          <Node pos="l" depth="2" NCoef="0" IVar="-1" Cut="0.0000000000000000e+00" cType="1" res="-2.6423689723014832e-01" rms="-nan" purity="-1.9983276724815369e-01" nType="-99"/>
          <Node pos="r" depth="2" NCoef="0" IVar="-1" Cut="0.0000000000000000e+00" cType="1" res="-7.7130314894020557e-03" rms="2.4318774044513702e-01" purity="3.8654798269271851e-01" nType="-99"/>
        </Node>
      </Node>
    </BinaryTree>
    <BinaryTree type="DecisionTree" boostWeight="1.0000000000000000e+00" itree="181">
      <Node pos="s" depth="0" NCoef="0" IVar="46" Cut="1.0110279321670532e+00" cType="1" res="-8.1191892968490720e-04" rms="2.5561425089836121e-01" purity="4.9364072084426880e-01" nType="0">
        <Node pos="l" depth="1" NCoef="0" IVar="57" Cut="-1.2604000568389893e+00" cType="1" res="1.5139851719141006e-02" rms="2.7434715628623962e-01" purity="5.5155265331268311e-01" nType="0">
          <Node pos="l" depth="2" NCoef="0" IVar="-1" Cut="0.0000000000000000e+00" cType="1" res="-2.2516766563057899e-02" rms="7.7301442623138428e-02" purity="2.2338131442666054e-02" nType="-99"/>
          <Node pos="r" depth="2" NCoef="0" IVar="-1" Cut="0.0000000000000000e+00" cType="1" res="5.5883326567709446e-03" rms="2.8802010416984558e-01" purity="6.1455154418945312e-01" nType="-99"/>
        </Node>
        <Node pos="r" depth="1" NCoef="0" IVar="61" Cut="5.4132992029190063e-01" cType="1" res="-4.2565282434225082e-02" rms="1.9220739603042603e-01" purity="3.4205755591392517e-01" nType="0">
          <Node pos="l" depth="2" NCoef="0" IVar="-1" Cut="0.0000000000000000e+00" cType="1" res="7.0899571292102337e-03" rms="2.8348320722579956e-01" purity="4.6219652891159058e-01" nType="-99"/>
          <Node pos="r" depth="2" NCoef="0" IVar="-1" Cut="0.0000000000000000e+00" cType="1" res="-2.0982299000024796e-02" rms="1.3028828799724579e-01" purity="2.9407134652137756e-01" nType="-99"/>
        </Node>
      </Node>
    </BinaryTree>
    <BinaryTree type="DecisionTree" boostWeight="1.0000000000000000e+00" itree="182">
      <Node pos="s" depth="0" NCoef="0" IVar="46" Cut="1.4274401664733887e+00" cType="1" res="2.9499977827072144e-03" rms="2.6523479819297791e-01" purity="4.9610382318496704e-01" nType="0">
        <Node pos="l" depth="1" NCoef="0" IVar="38" Cut="-1.4540618658065796e+00" cType="1" res="6.9816969335079193e-03" rms="2.7242851257324219e-01" purity="5.0797033309936523e-01" nType="0">
          <Node pos="l" depth="2" NCoef="0" IVar="-1" Cut="0.0000000000000000e+00" cType="1" res="2.0889032632112503e-02" rms="3.0177560448646545e-01" purity="4.1284868121147156e-01" nType="-99"/>
          <Node pos="r" depth="2" NCoef="0" IVar="-1" Cut="0.0000000000000000e+00" cType="1" res="2.8331816429272294e-04" rms="2.6878908276557922e-01" purity="5.1675987243652344e-01" nType="-99"/>
        </Node>
        <Node pos="r" depth="1" NCoef="0" IVar="-1" Cut="0.0000000000000000e+00" cType="1" res="-5.4932713508605957e-02" rms="-nan" purity="7.0565551519393921e-02" nType="-99"/>
      </Node>
    </BinaryTree>
    <BinaryTree type="DecisionTree" boostWeight="1.0000000000000000e+00" itree="183">
      <Node pos="s" depth="0" NCoef="0" IVar="15" Cut="1.5223981142044067e+00" cType="1" res="4.4060260988771915e-03" rms="2.6904612779617310e-01" purity="4.9753656983375549e-01" nType="0">
        <Node pos="l" depth="1" NCoef="0" IVar="15" Cut="-1.3789205551147461e+00" cType="1" res="1.5696743503212929e-02" rms="2.6747050881385803e-01" purity="4.8845326900482178e-01" nType="0">
          <Node pos="l" depth="2" NCoef="0" IVar="-1" Cut="0.0000000000000000e+00" cType="1" res="-2.0267158746719360e-02" rms="1.0564151406288147e-01" purity="1.0152161121368408e-01" nType="-99"/>
          <Node pos="r" depth="2" NCoef="0" IVar="-1" Cut="0.0000000000000000e+00" cType="1" res="6.6921920515596867e-03" rms="2.8670513629913330e-01" purity="5.6104654073715210e-01" nType="-99"/>
        </Node>
        <Node pos="r" depth="1" NCoef="0" IVar="17" Cut="1.5226092338562012e+00" cType="1" res="-5.3274370729923248e-02" rms="2.6967790722846985e-01" purity="5.4394042491912842e-01" nType="0">
          <Node pos="l" depth="2" NCoef="0" IVar="-1" Cut="0.0000000000000000e+00" cType="1" res="-4.7890149056911469e-02" rms="-nan" purity="-1.6327844932675362e-02" nType="-99"/>
          <Node pos="r" depth="2" NCoef="0" IVar="-1" Cut="0.0000000000000000e+00" cType="1" res="-4.9443840980529785e-03" rms="2.9754737019538879e-01" purity="6.7155718803405762e-01" nType="-99"/>
        </Node>
      </Node>
    </BinaryTree>
    <BinaryTree type="DecisionTree" boostWeight="1.0000000000000000e+00" itree="184">
      <Node pos="s" depth="0" NCoef="0" IVar="16" Cut="1.2828538417816162e+00" cType="1" res="5.0850743427872658e-03" rms="2.6871690154075623e-01" purity="5.0014656782150269e-01" nType="0">
        <Node pos="l" depth="1" NCoef="0" IVar="61" Cut="9.4305157661437988e-01" cType="1" res="9.0300105512142181e-03" rms="2.7167308330535889e-01" purity="5.0954908132553101e-01" nType="0">
          <Node pos="l" depth="2" NCoef="0" IVar="-1" Cut="0.0000000000000000e+00" cType="1" res="6.1012967489659786e-03" rms="2.8273376822471619e-01" purity="5.7155448198318481e-01" nType="-99"/>
          <Node pos="r" depth="2" NCoef="0" IVar="-1" Cut="0.0000000000000000e+00" cType="1" res="-8.0019673332571983e-03" rms="2.3486539721488953e-01" purity="3.4124070405960083e-01" nType="-99"/>
        </Node>
        <Node pos="r" depth="1" NCoef="0" IVar="-1" Cut="0.0000000000000000e+00" cType="1" res="-4.3182812631130219e-02" rms="-nan" purity="1.2838673591613770e-01" nType="-99"/>
      </Node>
    </BinaryTree>
    <BinaryTree type="DecisionTree" boostWeight="1.0000000000000000e+00" itree="185">
      <Node pos="s" depth="0" NCoef="0" IVar="17" Cut="-1.3377233743667603e+00" cType="1" res="2.4350432213395834e-03" rms="2.6083907485008240e-01" purity="5.0017744302749634e-01" nType="0">
        <Node pos="l" depth="1" NCoef="0" IVar="81" Cut="-1.6455470323562622e+00" cType="1" res="-6.2768749892711639e-02" rms="-nan" purity="-3.8472440093755722e-02" nType="-99"/>
        <Node pos="r" depth="1" NCoef="0" IVar="13" Cut="-3.6240485310554504e-01" cType="1" res="1.0428922250866890e-02" rms="2.8254240751266479e-01" purity="5.6040346622467041e-01" nType="0">
          <Node pos="l" depth="2" NCoef="0" IVar="-1" Cut="0.0000000000000000e+00" cType="1" res="3.0196979641914368e-02" rms="3.2607853412628174e-01" purity="3.7391972541809082e-01" nType="-99"/>
          <Node pos="r" depth="2" NCoef="0" IVar="-1" Cut="0.0000000000000000e+00" cType="1" res="-8.0739031545817852e-05" rms="2.7444419264793396e-01" purity="5.8520460128784180e-01" nType="-99"/>
        </Node>
      </Node>
    </BinaryTree>
    <BinaryTree type="DecisionTree" boostWeight="1.0000000000000000e+00" itree="186">
      <Node pos="s" depth="0" NCoef="0" IVar="3" Cut="4.2690706253051758e+00" cType="1" res="-1.2342806439846754e-03" rms="2.5729888677597046e-01" purity="4.9638459086418152e-01" nType="0">
        <Node pos="l" depth="1" NCoef="0" IVar="-1" Cut="0.0000000000000000e+00" cType="1" res="3.4396559000015259e-02" rms="3.5997393727302551e-01" purity="4.0560477972030640e-01" nType="-99"/>
        <Node pos="r" depth="1" NCoef="0" IVar="5" Cut="3.7160694599151611e-01" cType="1" res="-4.6001262962818146e-03" rms="2.5360345840454102e-01" purity="4.9830594658851624e-01" nType="0">
          <Node pos="l" depth="2" NCoef="0" IVar="-1" Cut="0.0000000000000000e+00" cType="1" res="2.1208394318819046e-03" rms="2.5982496142387390e-01" purity="5.3884524106979370e-01" nType="-99"/>
          <Node pos="r" depth="2" NCoef="0" IVar="-1" Cut="0.0000000000000000e+00" cType="1" res="-1.4072902500629425e-02" rms="2.2345232963562012e-01" purity="3.4973394870758057e-01" nType="-99"/>
        </Node>
      </Node>
    </BinaryTree>
    <BinaryTree type="DecisionTree" boostWeight="1.0000000000000000e+00" itree="187">
      <Node pos="s" depth="0" NCoef="0" IVar="46" Cut="1.0595320463180542e+00" cType="1" res="9.6215639496222138e-04" rms="2.5877588987350464e-01" purity="4.9768844246864319e-01" nType="0">
        <Node pos="l" depth="1" NCoef="0" IVar="67" Cut="9.8518824577331543e-01" cType="1" res="1.2256762012839317e-02" rms="2.7539259195327759e-01" purity="5.3584849834442139e-01" nType="0">
          <Node pos="l" depth="2" NCoef="0" IVar="-1" Cut="0.0000000000000000e+00" cType="1" res="6.9566415622830391e-03" rms="2.8434190154075623e-01" purity="5.8304876089096069e-01" nType="-99"/>
          <Node pos="r" depth="2" NCoef="0" IVar="-1" Cut="0.0000000000000000e+00" cType="1" res="-5.5577559396624565e-03" rms="2.5290587544441223e-01" purity="4.3825903534889221e-01" nType="-99"/>
        </Node>
        <Node pos="r" depth="1" NCoef="0" IVar="17" Cut="1.4827731847763062e+00" cType="1" res="-5.3890410810709000e-02" rms="1.4223040640354156e-01" purity="3.1236323714256287e-01" nType="0">
          <Node pos="l" depth="2" NCoef="0" IVar="-1" Cut="0.0000000000000000e+00" cType="1" res="-5.7485416531562805e-02" rms="-nan" purity="-3.6212768405675888e-02" nType="-99"/>
          <Node pos="r" depth="2" NCoef="0" IVar="-1" Cut="0.0000000000000000e+00" cType="1" res="-1.5038046985864639e-03" rms="2.8660449385643005e-01" purity="6.4368999004364014e-01" nType="-99"/>
        </Node>
      </Node>
    </BinaryTree>
    <BinaryTree type="DecisionTree" boostWeight="1.0000000000000000e+00" itree="188">
      <Node pos="s" depth="0" NCoef="0" IVar="5" Cut="3.5519145429134369e-02" cType="1" res="2.3963924031704664e-03" rms="2.6410683989524841e-01" purity="4.9929520487785339e-01" nType="0">
        <Node pos="l" depth="1" NCoef="0" IVar="40" Cut="7.5135612487792969e-01" cType="1" res="-5.0387263298034668e-02" rms="1.5487332642078400e-01" purity="3.5141369700431824e-01" nType="0">
          <Node pos="l" depth="2" NCoef="0" IVar="-1" Cut="0.0000000000000000e+00" cType="1" res="-1.1461180110927671e-04" rms="2.6674273610115051e-01" purity="4.6863949298858643e-01" nType="-99"/>
          <Node pos="r" depth="2" NCoef="0" IVar="-1" Cut="0.0000000000000000e+00" cType="1" res="-3.2799363136291504e-02" rms="-nan" purity="2.3622688651084900e-01" nType="-99"/>
        </Node>
        <Node pos="r" depth="1" NCoef="0" IVar="13" Cut="-1.4926644563674927e+00" cType="1" res="1.2364547699689865e-02" rms="2.7887257933616638e-01" purity="5.2722251415252686e-01" nType="0">
          <Node pos="l" depth="2" NCoef="0" IVar="-1" Cut="0.0000000000000000e+00" cType="1" res="4.3058730661869049e-02" rms="3.4175282716751099e-01" purity="4.0028685331344604e-01" nType="-99"/>
          <Node pos="r" depth="2" NCoef="0" IVar="-1" Cut="0.0000000000000000e+00" cType="1" res="2.2439630702137947e-03" rms="2.7580031752586365e-01" purity="5.3094583749771118e-01" nType="-99"/>
        </Node>
      </Node>
    </BinaryTree>
    <BinaryTree type="DecisionTree" boostWeight="1.0000000000000000e+00" itree="189">
      <Node pos="s" depth="0" NCoef="0" IVar="40" Cut="1.2440336942672729e+00" cType="1" res="1.9830751698464155e-03" rms="2.5912523269653320e-01" purity="5.0116121768951416e-01" nType="0">
        <Node pos="l" depth="1" NCoef="0" IVar="3" Cut="5.4301738739013672e+00" cType="1" res="8.5268151015043259e-03" rms="2.6994809508323669e-01" purity="5.3073847293853760e-01" nType="0">
          <Node pos="l" depth="2" NCoef="0" IVar="-1" Cut="0.0000000000000000e+00" cType="1" res="1.3155912747606635e-03" rms="2.6643198728561401e-01" purity="5.3863233327865601e-01" nType="-99"/>
          <Node pos="r" depth="2" NCoef="0" IVar="-1" Cut="0.0000000000000000e+00" cType="1" res="2.7784392237663269e-02" rms="3.3683386445045471e-01" purity="3.1863561272621155e-01" nType="-99"/>
        </Node>
        <Node pos="r" depth="1" NCoef="0" IVar="78" Cut="-1.4934866428375244e+00" cType="1" res="-5.2953138947486877e-02" rms="1.2528593838214874e-01" purity="2.5285291671752930e-01" nType="0">
          <Node pos="l" depth="2" NCoef="0" IVar="-1" Cut="0.0000000000000000e+00" cType="1" res="8.2213617861270905e-03" rms="2.9754939675331116e-01" purity="5.4432755708694458e-01" nType="-99"/>
          <Node pos="r" depth="2" NCoef="0" IVar="-1" Cut="0.0000000000000000e+00" cType="1" res="-3.6504823714494705e-02" rms="-nan" purity="7.5226753950119019e-02" nType="-99"/>
        </Node>
      </Node>
    </BinaryTree>
    <BinaryTree type="DecisionTree" boostWeight="1.0000000000000000e+00" itree="190">
      <Node pos="s" depth="0" NCoef="0" IVar="73" Cut="2.6068842411041260e+00" cType="1" res="7.6416684314608574e-03" rms="2.7041134238243103e-01" purity="5.0721752643585205e-01" nType="0">
        <Node pos="l" depth="1" NCoef="0" IVar="88" Cut="9.0345400571823120e-01" cType="1" res="-2.3351542651653290e-02" rms="2.4966332316398621e-01" purity="3.5331323742866516e-01" nType="0">
          <Node pos="l" depth="2" NCoef="0" IVar="-1" Cut="0.0000000000000000e+00" cType="1" res="7.9322941601276398e-03" rms="3.2274776697158813e-01" purity="4.3114405870437622e-01" nType="-99"/>
          <Node pos="r" depth="2" NCoef="0" IVar="-1" Cut="0.0000000000000000e+00" cType="1" res="-1.4405189082026482e-02" rms="2.0153942704200745e-01" purity="3.1664839386940002e-01" nType="-99"/>
        </Node>
        <Node pos="r" depth="1" NCoef="0" IVar="20" Cut="2.6594269275665283e-01" cType="1" res="2.1665399894118309e-02" rms="2.7816084027290344e-01" purity="5.7685571908950806e-01" nType="0">
          <Node pos="l" depth="2" NCoef="0" IVar="-1" Cut="0.0000000000000000e+00" cType="1" res="7.0982445031404495e-03" rms="2.8269883990287781e-01" purity="5.9000480175018311e-01" nType="-99"/>
          <Node pos="r" depth="2" NCoef="0" IVar="-1" Cut="0.0000000000000000e+00" cType="1" res="-1.8675616011023521e-02" rms="1.6035167872905731e-01" purity="3.5515406727790833e-01" nType="-99"/>
        </Node>
      </Node>
    </BinaryTree>
    <BinaryTree type="DecisionTree" boostWeight="1.0000000000000000e+00" itree="191">
      <Node pos="s" depth="0" NCoef="0" IVar="67" Cut="8.0113977193832397e-01" cType="1" res="5.3047719411551952e-03" rms="2.6632308959960938e-01" purity="5.0399041175842285e-01" nType="0">
        <Node pos="l" depth="1" NCoef="0" IVar="-1" Cut="0.0000000000000000e+00" cType="1" res="2.6415482163429260e-02" rms="3.5208669304847717e-01" purity="6.3252490758895874e-01" nType="-99"/>
        <Node pos="r" depth="1" NCoef="0" IVar="57" Cut="-7.5794076919555664e-01" cType="1" res="2.5558451307006180e-04" rms="2.6079869270324707e-01" purity="4.9842077493667603e-01" nType="0">
          <Node pos="l" depth="2" NCoef="0" IVar="-1" Cut="0.0000000000000000e+00" cType="1" res="-2.4451764300465584e-02" rms="-nan" purity="1.7158368602395058e-02" nType="-99"/>
          <Node pos="r" depth="2" NCoef="0" IVar="-1" Cut="0.0000000000000000e+00" cType="1" res="2.3920531384646893e-03" rms="2.8440529108047485e-01" purity="5.9220355749130249e-01" nType="-99"/>
        </Node>
      </Node>
    </BinaryTree>
    <BinaryTree type="DecisionTree" boostWeight="1.0000000000000000e+00" itree="192">
      <Node pos="s" depth="0" NCoef="0" IVar="34" Cut="-2.7981990948319435e-02" cType="1" res="4.0757795795798302e-03" rms="2.7204775810241699e-01" purity="4.9284952878952026e-01" nType="0">
        <Node pos="l" depth="1" NCoef="0" IVar="51" Cut="-8.0246913433074951e-01" cType="1" res="4.2155902832746506e-02" rms="2.9109066724777222e-01" purity="2.8814008831977844e-01" nType="0">
          <Node pos="l" depth="2" NCoef="0" IVar="-1" Cut="0.0000000000000000e+00" cType="1" res="5.9184610843658447e-02" rms="4.1043666005134583e-01" purity="4.0203985571861267e-01" nType="-99"/>
          <Node pos="r" depth="2" NCoef="0" IVar="-1" Cut="0.0000000000000000e+00" cType="1" res="6.4802067354321480e-03" rms="2.6381862163543701e-01" purity="2.7276456356048584e-01" nType="-99"/>
        </Node>
        <Node pos="r" depth="1" NCoef="0" IVar="6" Cut="2.0104112625122070e+00" cType="1" res="-7.7477181330323219e-03" rms="2.6474577188491821e-01" purity="5.5640977621078491e-01" nType="0">
          <Node pos="l" depth="2" NCoef="0" IVar="-1" Cut="0.0000000000000000e+00" cType="1" res="-9.9648134782910347e-03" rms="2.4452872574329376e-01" purity="3.5474017262458801e-01" nType="-99"/>
          <Node pos="r" depth="2" NCoef="0" IVar="-1" Cut="0.0000000000000000e+00" cType="1" res="2.2815880365669727e-03" rms="2.7308186888694763e-01" purity="6.5945160388946533e-01" nType="-99"/>
        </Node>
      </Node>
    </BinaryTree>
    <BinaryTree type="DecisionTree" boostWeight="1.0000000000000000e+00" itree="193">
      <Node pos="s" depth="0" NCoef="0" IVar="22" Cut="1.2345679104328156e-02" cType="1" res="3.1543362420052290e-03" rms="2.6145428419113159e-01" purity="5.0044292211532593e-01" nType="0">
        <Node pos="l" depth="1" NCoef="0" IVar="-1" Cut="0.0000000000000000e+00" cType="1" res="3.0966475605964661e-02" rms="3.4916374087333679e-01" purity="3.6118614673614502e-01" nType="-99"/>
        <Node pos="r" depth="1" NCoef="0" IVar="0" Cut="-3.6976572126150131e-02" cType="1" res="-1.0965021792799234e-03" rms="2.5674200057983398e-01" purity="5.0543439388275146e-01" nType="0">
          <Node pos="l" depth="2" NCoef="0" IVar="-1" Cut="0.0000000000000000e+00" cType="1" res="-4.4401191174983978e-02" rms="-nan" purity="3.1224992871284485e-01" nType="-99"/>
          <Node pos="r" depth="2" NCoef="0" IVar="-1" Cut="0.0000000000000000e+00" cType="1" res="6.2389578670263290e-04" rms="2.5946030020713806e-01" purity="5.1000511646270752e-01" nType="-99"/>
        </Node>
      </Node>
    </BinaryTree>
    <BinaryTree type="DecisionTree" boostWeight="1.0000000000000000e+00" itree="194">
      <Node pos="s" depth="0" NCoef="0" IVar="48" Cut="7.0259022712707520e-01" cType="1" res="4.6983677893877029e-03" rms="2.6907926797866821e-01" purity="4.9635457992553711e-01" nType="0">
        <Node pos="l" depth="1" NCoef="0" IVar="-1" Cut="0.0000000000000000e+00" cType="1" res="-5.2085634320974350e-02" rms="-nan" purity="8.6232140660285950e-02" nType="-99"/>
        <Node pos="r" depth="1" NCoef="0" IVar="62" Cut="1.1203746497631073e-01" cType="1" res="8.3088055253028870e-03" rms="2.7348688244819641e-01" purity="5.0674706697463989e-01" nType="0">
          <Node pos="l" depth="2" NCoef="0" IVar="-1" Cut="0.0000000000000000e+00" cType="1" res="5.2364994771778584e-03" rms="2.8468048572540283e-01" purity="5.4589360952377319e-01" nType="-99"/>
          <Node pos="r" depth="2" NCoef="0" IVar="-1" Cut="0.0000000000000000e+00" cType="1" res="-7.0810024626553059e-03" rms="2.3543669283390045e-01" purity="3.9468333125114441e-01" nType="-99"/>
        </Node>
      </Node>
    </BinaryTree>
    <BinaryTree type="DecisionTree" boostWeight="1.0000000000000000e+00" itree="195">
      <Node pos="s" depth="0" NCoef="0" IVar="5" Cut="-2.8625675477087498e-03" cType="1" res="1.9008374074473977e-03" rms="2.6070326566696167e-01" purity="5.0637680292129517e-01" nType="0">
        <Node pos="l" depth="1" NCoef="0" IVar="0" Cut="1.0325559377670288e+00" cType="1" res="-6.1063840985298157e-02" rms="1.1284517496824265e-01" purity="3.2243782281875610e-01" nType="0">
          <Node pos="l" depth="2" NCoef="0" IVar="-1" Cut="0.0000000000000000e+00" cType="1" res="-6.3331541605293751e-03" rms="2.0422723889350891e-01" purity="4.0245601534843445e-01" nType="-99"/>
          <Node pos="r" depth="2" NCoef="0" IVar="-1" Cut="0.0000000000000000e+00" cType="1" res="-6.6735781729221344e-02" rms="-nan" purity="9.9422633647918701e-02" nType="-99"/>
        </Node>
        <Node pos="r" depth="1" NCoef="0" IVar="5" Cut="4.3461781740188599e-01" cType="1" res="1.0707300156354904e-02" rms="2.7396917343139648e-01" purity="5.3210318088531494e-01" nType="0">
          <Node pos="l" depth="2" NCoef="0" IVar="-1" Cut="0.0000000000000000e+00" cType="1" res="5.6688026525080204e-03" rms="2.8409773111343384e-01" purity="5.7002204656600952e-01" nType="-99"/>
          <Node pos="r" depth="2" NCoef="0" IVar="-1" Cut="0.0000000000000000e+00" cType="1" res="-1.6249988228082657e-02" rms="1.7781077325344086e-01" purity="2.7815866470336914e-01" nType="-99"/>
        </Node>
      </Node>
    </BinaryTree>
    <BinaryTree type="DecisionTree" boostWeight="1.0000000000000000e+00" itree="196">
      <Node pos="s" depth="0" NCoef="0" IVar="9" Cut="-6.9135802984237671e-01" cType="1" res="3.5504489205777645e-03" rms="2.6181498169898987e-01" purity="5.0119394063949585e-01" nType="0">
        <Node pos="l" depth="1" NCoef="0" IVar="56" Cut="-4.5015257596969604e-01" cType="1" res="1.1001619696617126e-01" rms="3.3845239877700806e-01" purity="5.0161039829254150e-01" nType="0">
          <Node pos="l" depth="2" NCoef="0" IVar="-1" Cut="0.0000000000000000e+00" cType="1" res="2.4402984417974949e-03" rms="2.2717995941638947e-01" purity="3.9213594794273376e-01" nType="-99"/>
          <Node pos="r" depth="2" NCoef="0" IVar="-1" Cut="0.0000000000000000e+00" cType="1" res="5.2240885794162750e-02" rms="4.0453228354454041e-01" purity="6.3202208280563354e-01" nType="-99"/>
        </Node>
        <Node pos="r" depth="1" NCoef="0" IVar="5" Cut="3.7245047092437744e-01" cType="1" res="-1.3575009070336819e-03" rms="2.5667059421539307e-01" purity="5.0117474794387817e-01" nType="0">
          <Node pos="l" depth="2" NCoef="0" IVar="-1" Cut="0.0000000000000000e+00" cType="1" res="2.4414674844592810e-03" rms="2.6182886958122253e-01" purity="5.4211151599884033e-01" nType="-99"/>
          <Node pos="r" depth="2" NCoef="0" IVar="-1" Cut="0.0000000000000000e+00" cType="1" res="-1.0425754822790623e-02" rms="2.3340219259262085e-01" purity="3.5262849926948547e-01" nType="-99"/>
        </Node>
      </Node>
    </BinaryTree>
    <BinaryTree type="DecisionTree" boostWeight="1.0000000000000000e+00" itree="197">
      <Node pos="s" depth="0" NCoef="0" IVar="62" Cut="2.9733115434646606e-01" cType="1" res="3.1055405270308256e-03" rms="2.7075752615928650e-01" purity="5.0245881080627441e-01" nType="0">
        <Node pos="l" depth="1" NCoef="0" IVar="15" Cut="1.5223981142044067e+00" cType="1" res="-2.4002508725970984e-03" rms="2.6245546340942383e-01" purity="5.0841891765594482e-01" nType="0">
          <Node pos="l" depth="2" NCoef="0" IVar="-1" Cut="0.0000000000000000e+00" cType="1" res="2.1307636052370071e-03" rms="2.5970971584320068e-01" purity="5.0364112854003906e-01" nType="-99"/>
          <Node pos="r" depth="2" NCoef="0" IVar="-1" Cut="0.0000000000000000e+00" cType="1" res="-1.1598510667681694e-02" rms="2.7055960893630981e-01" purity="5.3274840116500854e-01" nType="-99"/>
        </Node>
        <Node pos="r" depth="1" NCoef="0" IVar="37" Cut="3.4051132388412952e-03" cType="1" res="8.3213515579700470e-02" rms="3.6174544692039490e-01" purity="4.1573941707611084e-01" nType="0">
          <Node pos="l" depth="2" NCoef="0" IVar="-1" Cut="0.0000000000000000e+00" cType="1" res="-6.3568558543920517e-03" rms="2.1784390509128571e-01" purity="3.3759021759033203e-01" nType="-99"/>
          <Node pos="r" depth="2" NCoef="0" IVar="-1" Cut="0.0000000000000000e+00" cType="1" res="6.6263385117053986e-02" rms="4.6362015604972839e-01" purity="5.3152966499328613e-01" nType="-99"/>
        </Node>
      </Node>
    </BinaryTree>
    <BinaryTree type="DecisionTree" boostWeight="1.0000000000000000e+00" itree="198">
      <Node pos="s" depth="0" NCoef="0" IVar="0" Cut="8.5225385427474976e-01" cType="1" res="-2.6915525086224079e-03" rms="2.5146564841270447e-01" purity="4.9812984466552734e-01" nType="0">
        <Node pos="l" depth="1" NCoef="0" IVar="25" Cut="1.0119295120239258e+00" cType="1" res="1.6038754954934120e-02" rms="2.7140507102012634e-01" purity="5.8019292354583740e-01" nType="0">
          <Node pos="l" depth="2" NCoef="0" IVar="-1" Cut="0.0000000000000000e+00" cType="1" res="8.2820197567343712e-03" rms="2.8430831432342529e-01" purity="6.2685054540634155e-01" nType="-99"/>
          <Node pos="r" depth="2" NCoef="0" IVar="-1" Cut="0.0000000000000000e+00" cType="1" res="-9.4386376440525055e-03" rms="2.1993286907672882e-01" purity="4.3788379430770874e-01" nType="-99"/>
        </Node>
        <Node pos="r" depth="1" NCoef="0" IVar="62" Cut="2.9464963078498840e-01" cType="1" res="-2.8805963695049286e-02" rms="2.1800905466079712e-01" purity="3.8371479511260986e-01" nType="0">
          <Node pos="l" depth="2" NCoef="0" IVar="-1" Cut="0.0000000000000000e+00" cType="1" res="-1.1268240399658680e-02" rms="1.9366246461868286e-01" purity="3.8554739952087402e-01" nType="-99"/>
          <Node pos="r" depth="2" NCoef="0" IVar="-1" Cut="0.0000000000000000e+00" cType="1" res="3.4206762909889221e-02" rms="3.9871218800544739e-01" purity="3.6001372337341309e-01" nType="-99"/>
        </Node>
      </Node>
    </BinaryTree>
    <BinaryTree type="DecisionTree" boostWeight="1.0000000000000000e+00" itree="199">
      <Node pos="s" depth="0" NCoef="0" IVar="36" Cut="8.6697942018508911e-01" cType="1" res="-4.6209592255763710e-04" rms="2.5567853450775146e-01" purity="5.0132006406784058e-01" nType="0">
        <Node pos="l" depth="1" NCoef="0" IVar="51" Cut="-7.6543211936950684e-01" cType="1" res="-4.1251476854085922e-02" rms="1.5421809256076813e-01" purity="6.6474482417106628e-02" nType="0">
          <Node pos="l" depth="2" NCoef="0" IVar="-1" Cut="0.0000000000000000e+00" cType="1" res="3.7253133952617645e-02" rms="3.6341816186904907e-01" purity="2.2944507002830505e-01" nType="-99"/>
          <Node pos="r" depth="2" NCoef="0" IVar="-1" Cut="0.0000000000000000e+00" cType="1" res="-2.3794243112206459e-02" rms="7.1462444961071014e-02" purity="4.4125474989414215e-02" nType="-99"/>
        </Node>
        <Node pos="r" depth="1" NCoef="0" IVar="87" Cut="1.2345679104328156e-02" cType="1" res="1.2344681657850742e-02" rms="2.7882382273674011e-01" purity="6.3784998655319214e-01" nType="0">
          <Node pos="l" depth="2" NCoef="0" IVar="-1" Cut="0.0000000000000000e+00" cType="1" res="4.3680863454937935e-03" rms="2.8206774592399597e-01" purity="6.6720819473266602e-01" nType="-99"/>
          <Node pos="r" depth="2" NCoef="0" IVar="-1" Cut="0.0000000000000000e+00" cType="1" res="-3.8447860628366470e-02" rms="1.5808060765266418e-01" purity="0.0000000000000000e+00" nType="-99"/>
        </Node>
      </Node>
    </BinaryTree>
    <BinaryTree type="DecisionTree" boostWeight="1.0000000000000000e+00" itree="200">
      <Node pos="s" depth="0" NCoef="0" IVar="83" Cut="-2.3867873847484589e-01" cType="1" res="2.0263404585421085e-03" rms="2.6234599947929382e-01" purity="4.9842339754104614e-01" nType="0">
        <Node pos="l" depth="1" NCoef="0" IVar="1" Cut="2.7901544570922852e+00" cType="1" res="4.8582009971141815e-02" rms="3.1478187441825867e-01" purity="6.0763794183731079e-01" nType="0">
          <Node pos="l" depth="2" NCoef="0" IVar="-1" Cut="0.0000000000000000e+00" cType="1" res="2.7271995320916176e-02" rms="3.6601325869560242e-01" purity="5.2353197336196899e-01" nType="-99"/>
          <Node pos="r" depth="2" NCoef="0" IVar="-1" Cut="0.0000000000000000e+00" cType="1" res="-2.8220328385941684e-04" rms="2.5030258297920227e-01" purity="6.8295645713806152e-01" nType="-99"/>
        </Node>
        <Node pos="r" depth="1" NCoef="0" IVar="40" Cut="9.5923811197280884e-01" cType="1" res="-6.7887087352573872e-03" rms="2.5021460652351379e-01" purity="4.7774419188499451e-01" nType="0">
          <Node pos="l" depth="2" NCoef="0" IVar="-1" Cut="0.0000000000000000e+00" cType="1" res="2.2870372049510479e-03" rms="2.7232372760772705e-01" purity="5.3581643104553223e-01" nType="-99"/>
          <Node pos="r" depth="2" NCoef="0" IVar="-1" Cut="0.0000000000000000e+00" cType="1" res="-1.3865730725228786e-02" rms="1.6696360707283020e-01" purity="3.1562086939811707e-01" nType="-99"/>
        </Node>
      </Node>
    </BinaryTree>
    <BinaryTree type="DecisionTree" boostWeight="1.0000000000000000e+00" itree="201">
      <Node pos="s" depth="0" NCoef="0" IVar="6" Cut="2.0180082321166992e+00" cType="1" res="5.7214042171835899e-03" rms="2.6826617121696472e-01" purity="5.0471258163452148e-01" nType="0">
        <Node pos="l" depth="1" NCoef="0" IVar="1" Cut="3.0665428638458252e+00" cType="1" res="-2.3324245586991310e-02" rms="2.4393977224826813e-01" purity="3.1021630764007568e-01" nType="0">
          <Node pos="l" depth="2" NCoef="0" IVar="-1" Cut="0.0000000000000000e+00" cType="1" res="-3.1092087738215923e-03" rms="2.6052570343017578e-01" purity="3.2580104470252991e-01" nType="-99"/>
          <Node pos="r" depth="2" NCoef="0" IVar="-1" Cut="0.0000000000000000e+00" cType="1" res="-6.4167477190494537e-02" rms="-nan" purity="1.0987278819084167e-01" nType="-99"/>
        </Node>
        <Node pos="r" depth="1" NCoef="0" IVar="81" Cut="-9.5400017499923706e-01" cType="1" res="2.2631751373410225e-02" rms="2.8007832169532776e-01" purity="6.1794811487197876e-01" nType="0">
          <Node pos="l" depth="2" NCoef="0" IVar="-1" Cut="0.0000000000000000e+00" cType="1" res="9.0755447745323181e-03" rms="2.9187121987342834e-01" purity="6.5748053789138794e-01" nType="-99"/>
          <Node pos="r" depth="2" NCoef="0" IVar="-1" Cut="0.0000000000000000e+00" cType="1" res="-1.9311519339680672e-02" rms="1.2569390237331390e-01" purity="3.0233126878738403e-01" nType="-99"/>
        </Node>
      </Node>
    </BinaryTree>
    <BinaryTree type="DecisionTree" boostWeight="1.0000000000000000e+00" itree="202">
      <Node pos="s" depth="0" NCoef="0" IVar="19" Cut="1.0226093530654907e+00" cType="1" res="8.3567388355731964e-03" rms="2.6213884353637695e-01" purity="5.1092809438705444e-01" nType="0">
        <Node pos="l" depth="1" NCoef="0" IVar="5" Cut="4.5235386490821838e-01" cType="1" res="1.8630621954798698e-02" rms="2.7111908793449402e-01" purity="5.4446774721145630e-01" nType="0">
          <Node pos="l" depth="2" NCoef="0" IVar="-1" Cut="0.0000000000000000e+00" cType="1" res="7.0629566907882690e-03" rms="2.7597653865814209e-01" purity="5.7005858421325684e-01" nType="-99"/>
          <Node pos="r" depth="2" NCoef="0" IVar="-1" Cut="0.0000000000000000e+00" cType="1" res="-1.9608603790402412e-02" rms="1.8163670599460602e-01" purity="2.3692542314529419e-01" nType="-99"/>
        </Node>
        <Node pos="r" depth="1" NCoef="0" IVar="17" Cut="-1.2607127428054810e+00" cType="1" res="-4.1521642357110977e-02" rms="2.0607650279998779e-01" purity="3.4809783101081848e-01" nType="0">
          <Node pos="l" depth="2" NCoef="0" IVar="-1" Cut="0.0000000000000000e+00" cType="1" res="-1.7780432105064392e-01" rms="-nan" purity="-1.5270160138607025e-01" nType="-99"/>
          <Node pos="r" depth="2" NCoef="0" IVar="-1" Cut="0.0000000000000000e+00" cType="1" res="-4.8126289620995522e-03" rms="2.7348139882087708e-01" purity="4.2779323458671570e-01" nType="-99"/>
        </Node>
      </Node>
    </BinaryTree>
    <BinaryTree type="DecisionTree" boostWeight="1.0000000000000000e+00" itree="203">
      <Node pos="s" depth="0" NCoef="0" IVar="0" Cut="1.2755683660507202e+00" cType="1" res="8.6296489462256432e-03" rms="2.6456141471862793e-01" purity="5.0756961107254028e-01" nType="0">
        <Node pos="l" depth="1" NCoef="0" IVar="39" Cut="-6.7149680852890015e-01" cType="1" res="1.5148131176829338e-02" rms="2.7234360575675964e-01" purity="5.2715808153152466e-01" nType="0">
          <Node pos="l" depth="2" NCoef="0" IVar="-1" Cut="0.0000000000000000e+00" cType="1" res="5.4449252784252167e-03" rms="2.7810570597648621e-01" purity="5.4973608255386353e-01" nType="-99"/>
          <Node pos="r" depth="2" NCoef="0" IVar="-1" Cut="0.0000000000000000e+00" cType="1" res="-2.2649947553873062e-02" rms="1.2236164510250092e-01" purity="1.5636417269706726e-01" nType="-99"/>
        </Node>
        <Node pos="r" depth="1" NCoef="0" IVar="4" Cut="3.9269430637359619e+00" cType="1" res="-6.3549801707267761e-02" rms="1.3433468341827393e-01" purity="2.9066601395606995e-01" nType="0">
          <Node pos="l" depth="2" NCoef="0" IVar="-1" Cut="0.0000000000000000e+00" cType="1" res="-3.2380502671003342e-02" rms="-nan" purity="2.0843777060508728e-01" nType="-99"/>
          <Node pos="r" depth="2" NCoef="0" IVar="-1" Cut="0.0000000000000000e+00" cType="1" res="1.8309568986296654e-02" rms="2.8264465928077698e-01" purity="5.4386466741561890e-01" nType="-99"/>
        </Node>
      </Node>
    </BinaryTree>
    <BinaryTree type="DecisionTree" boostWeight="1.0000000000000000e+00" itree="204">
      <Node pos="s" depth="0" NCoef="0" IVar="5" Cut="-1.2585178017616272e-01" cType="1" res="2.0745136134792119e-04" rms="2.5719943642616272e-01" purity="5.0056016445159912e-01" nType="0">
        <Node pos="l" depth="1" NCoef="0" IVar="36" Cut="1.3246352672576904e+00" cType="1" res="-3.9895858615636826e-02" rms="-nan" purity="1.4771705865859985e-01" nType="-99"/>
        <Node pos="r" depth="1" NCoef="0" IVar="56" Cut="1.4837484359741211e+00" cType="1" res="4.6343370340764523e-03" rms="2.6525473594665527e-01" purity="5.1724714040756226e-01" nType="0">
          <Node pos="l" depth="2" NCoef="0" IVar="-1" Cut="0.0000000000000000e+00" cType="1" res="2.2023196797817945e-03" rms="2.6763224601745605e-01" purity="5.2602702379226685e-01" nType="-99"/>
          <Node pos="r" depth="2" NCoef="0" IVar="-1" Cut="0.0000000000000000e+00" cType="1" res="-3.7084836512804031e-02" rms="2.6360888034105301e-02" purity="1.6460384428501129e-01" nType="-99"/>
        </Node>
      </Node>
    </BinaryTree>
    <BinaryTree type="DecisionTree" boostWeight="1.0000000000000000e+00" itree="205">
      <Node pos="s" depth="0" NCoef="0" IVar="31" Cut="2.3187191486358643e+00" cType="1" res="-6.1338134109973907e-03" rms="2.5984969735145569e-01" purity="4.9110472202301025e-01" nType="0">
        <Node pos="l" depth="1" NCoef="0" IVar="-1" Cut="0.0000000000000000e+00" cType="1" res="3.0809469521045685e-02" rms="3.8639876246452332e-01" purity="2.7749261260032654e-01" nType="-99"/>
        <Node pos="r" depth="1" NCoef="0" IVar="5" Cut="-1.2369948625564575e-01" cType="1" res="-1.0306508280336857e-02" rms="2.5315013527870178e-01" purity="4.9876862764358521e-01" nType="0">
          <Node pos="l" depth="2" NCoef="0" IVar="-1" Cut="0.0000000000000000e+00" cType="1" res="-5.4224219173192978e-02" rms="-nan" purity="8.6919762194156647e-02" nType="-99"/>
          <Node pos="r" depth="2" NCoef="0" IVar="-1" Cut="0.0000000000000000e+00" cType="1" res="-1.4473883202299476e-03" rms="2.6343327760696411e-01" purity="5.1579767465591431e-01" nType="-99"/>
        </Node>
      </Node>
    </BinaryTree>
    <BinaryTree type="DecisionTree" boostWeight="1.0000000000000000e+00" itree="206">
      <Node pos="s" depth="0" NCoef="0" IVar="2" Cut="3.4387230873107910e+00" cType="1" res="-6.3253859989345074e-03" rms="2.5174492597579956e-01" purity="5.0202178955078125e-01" nType="0">
        <Node pos="l" depth="1" NCoef="0" IVar="0" Cut="1.0640280246734619e+00" cType="1" res="-1.1345538310706615e-02" rms="2.4801288545131683e-01" purity="4.8062083125114441e-01" nType="0">
          <Node pos="l" depth="2" NCoef="0" IVar="-1" Cut="0.0000000000000000e+00" cType="1" res="4.8010613681981340e-05" rms="2.6555323600769043e-01" purity="5.2956706285476685e-01" nType="-99"/>
          <Node pos="r" depth="2" NCoef="0" IVar="-1" Cut="0.0000000000000000e+00" cType="1" res="-1.6537681221961975e-02" rms="1.6332174837589264e-01" purity="3.0340892076492310e-01" nType="-99"/>
        </Node>
        <Node pos="r" depth="1" NCoef="0" IVar="-1" Cut="0.0000000000000000e+00" cType="1" res="1.8208185210824013e-02" rms="2.9280370473861694e-01" purity="8.3160907030105591e-01" nType="-99"/>
      </Node>
    </BinaryTree>
    <BinaryTree type="DecisionTree" boostWeight="1.0000000000000000e+00" itree="207">
      <Node pos="s" depth="0" NCoef="0" IVar="17" Cut="1.2923748493194580e+00" cType="1" res="-4.0972852148115635e-03" rms="2.4725872278213501e-01" purity="4.9076592922210693e-01" nType="0">
        <Node pos="l" depth="1" NCoef="0" IVar="34" Cut="9.9509721621870995e-03" cType="1" res="-2.7526425197720528e-02" rms="-nan" purity="5.6811044923961163e-03" nType="-99"/>
        <Node pos="r" depth="1" NCoef="0" IVar="3" Cut="5.2099394798278809e+00" cType="1" res="8.4236059337854385e-03" rms="2.8979316353797913e-01" purity="6.5299326181411743e-01" nType="0">
          <Node pos="l" depth="2" NCoef="0" IVar="-1" Cut="0.0000000000000000e+00" cType="1" res="-1.8922390881925821e-04" rms="2.8557631373405457e-01" purity="6.4413160085678101e-01" nType="-99"/>
          <Node pos="r" depth="2" NCoef="0" IVar="-1" Cut="0.0000000000000000e+00" cType="1" res="2.2780664265155792e-02" rms="3.1556499004364014e-01" purity="7.5335687398910522e-01" nType="-99"/>
        </Node>
      </Node>
    </BinaryTree>
    <BinaryTree type="DecisionTree" boostWeight="1.0000000000000000e+00" itree="208">
      <Node pos="s" depth="0" NCoef="0" IVar="39" Cut="-9.2218506336212158e-01" cType="1" res="-1.2444597668945789e-03" rms="2.5349706411361694e-01" purity="5.0127887725830078e-01" nType="0">
        <Node pos="l" depth="1" NCoef="0" IVar="21" Cut="3.2148861885070801e-01" cType="1" res="6.0768104158341885e-03" rms="2.6220202445983887e-01" purity="5.4293090105056763e-01" nType="0">
          <Node pos="l" depth="2" NCoef="0" IVar="-1" Cut="0.0000000000000000e+00" cType="1" res="3.0663905199617147e-03" rms="2.6881423592567444e-01" purity="5.5132383108139038e-01" nType="-99"/>
          <Node pos="r" depth="2" NCoef="0" IVar="-1" Cut="0.0000000000000000e+00" cType="1" res="-2.4093097075819969e-02" rms="-nan" purity="3.9697074890136719e-01" nType="-99"/>
        </Node>
        <Node pos="r" depth="1" NCoef="0" IVar="83" Cut="9.2216670513153076e-02" cType="1" res="-5.5090244859457016e-02" rms="1.6718523204326630e-01" purity="1.9494022428989410e-01" nType="0">
          <Node pos="l" depth="2" NCoef="0" IVar="-1" Cut="0.0000000000000000e+00" cType="1" res="-3.1430408358573914e-02" rms="-nan" purity="1.8070112168788910e-01" nType="-99"/>
          <Node pos="r" depth="2" NCoef="0" IVar="-1" Cut="0.0000000000000000e+00" cType="1" res="7.0316675119102001e-03" rms="2.8296095132827759e-01" purity="2.1710295975208282e-01" nType="-99"/>
        </Node>
      </Node>
    </BinaryTree>
    <BinaryTree type="DecisionTree" boostWeight="1.0000000000000000e+00" itree="209">
      <Node pos="s" depth="0" NCoef="0" IVar="40" Cut="1.4467751979827881e+00" cType="1" res="-2.3167245090007782e-03" rms="2.5480049848556519e-01" purity="4.9220803380012512e-01" nType="0">
        <Node pos="l" depth="1" NCoef="0" IVar="70" Cut="-3.8150048255920410e-01" cType="1" res="3.2409250270575285e-03" rms="2.6482522487640381e-01" purity="5.0921177864074707e-01" nType="0">
          <Node pos="l" depth="2" NCoef="0" IVar="-1" Cut="0.0000000000000000e+00" cType="1" res="2.0817925687879324e-03" rms="2.6758310198783875e-01" purity="5.1360517740249634e-01" nType="-99"/>
          <Node pos="r" depth="2" NCoef="0" IVar="-1" Cut="0.0000000000000000e+00" cType="1" res="-3.3585418015718460e-02" rms="1.2127647548913956e-01" purity="3.8757497072219849e-01" nType="-99"/>
        </Node>
        <Node pos="r" depth="1" NCoef="0" IVar="25" Cut="9.7834056615829468e-01" cType="1" res="-3.0852125957608223e-02" rms="-nan" purity="2.0556160807609558e-01" nType="-99"/>
      </Node>
    </BinaryTree>
    <BinaryTree type="DecisionTree" boostWeight="1.0000000000000000e+00" itree="210">
      <Node pos="s" depth="0" NCoef="0" IVar="13" Cut="-1.4926353693008423e+00" cType="1" res="5.9937224723398685e-03" rms="2.6925659179687500e-01" purity="5.0475758314132690e-01" nType="0">
        <Node pos="l" depth="1" NCoef="0" IVar="-1" Cut="0.0000000000000000e+00" cType="1" res="3.1771432608366013e-02" rms="3.2135593891143799e-01" purity="4.0710887312889099e-01" nType="-99"/>
        <Node pos="r" depth="1" NCoef="0" IVar="17" Cut="-1.3212882280349731e+00" cType="1" res="2.3465782869607210e-03" rms="2.6647469401359558e-01" purity="5.0827205181121826e-01" nType="0">
          <Node pos="l" depth="2" NCoef="0" IVar="-1" Cut="0.0000000000000000e+00" cType="1" res="-6.8991102278232574e-02" rms="-nan" purity="-3.4000385552644730e-02" nType="-99"/>
          <Node pos="r" depth="2" NCoef="0" IVar="-1" Cut="0.0000000000000000e+00" cType="1" res="2.1923838648945093e-03" rms="2.8651425242424011e-01" purity="5.6598627567291260e-01" nType="-99"/>
        </Node>
      </Node>
    </BinaryTree>
    <BinaryTree type="DecisionTree" boostWeight="1.0000000000000000e+00" itree="211">
      <Node pos="s" depth="0" NCoef="0" IVar="88" Cut="1.6124289035797119e+00" cType="1" res="3.6705073434859514e-03" rms="2.7599972486495972e-01" purity="4.9527588486671448e-01" nType="0">
        <Node pos="l" depth="1" NCoef="0" IVar="88" Cut="1.2492023706436157e+00" cType="1" res="-1.6796408453956246e-04" rms="2.7062207460403442e-01" purity="5.0066745281219482e-01" nType="0">
          <Node pos="l" depth="2" NCoef="0" IVar="-1" Cut="0.0000000000000000e+00" cType="1" res="1.1497035156935453e-03" rms="2.7627655863761902e-01" purity="5.1216852664947510e-01" nType="-99"/>
          <Node pos="r" depth="2" NCoef="0" IVar="-1" Cut="0.0000000000000000e+00" cType="1" res="-3.5866025835275650e-02" rms="-nan" purity="2.0234291255474091e-01" nType="-99"/>
        </Node>
        <Node pos="r" depth="1" NCoef="0" IVar="-1" Cut="0.0000000000000000e+00" cType="1" res="1.0249385982751846e-01" rms="4.2103722691535950e-01" purity="2.5495338439941406e-01" nType="-99"/>
      </Node>
    </BinaryTree>
    <BinaryTree type="DecisionTree" boostWeight="1.0000000000000000e+00" itree="212">
      <Node pos="s" depth="0" NCoef="0" IVar="4" Cut="3.2662165164947510e+00" cType="1" res="6.5929270349442959e-03" rms="2.6966544985771179e-01" purity="5.0088441371917725e-01" nType="0">
        <Node pos="l" depth="1" NCoef="0" IVar="6" Cut="2.2111411094665527e+00" cType="1" res="1.0067013651132584e-01" rms="3.5736188292503357e-01" purity="2.7276164293289185e-01" nType="0">
          <Node pos="l" depth="2" NCoef="0" IVar="-1" Cut="0.0000000000000000e+00" cType="1" res="1.2790740467607975e-02" rms="2.9149392247200012e-01" purity="1.6369476914405823e-01" nType="-99"/>
          <Node pos="r" depth="2" NCoef="0" IVar="-1" Cut="0.0000000000000000e+00" cType="1" res="5.1437236368656158e-02" rms="4.1644489765167236e-01" purity="4.2547434568405151e-01" nType="-99"/>
        </Node>
        <Node pos="r" depth="1" NCoef="0" IVar="22" Cut="1.2345679104328156e-02" cType="1" res="1.6769635258242488e-03" rms="2.6336178183555603e-01" purity="5.1280486583709717e-01" nType="0">
          <Node pos="l" depth="2" NCoef="0" IVar="-1" Cut="0.0000000000000000e+00" cType="1" res="2.7835741639137268e-02" rms="3.3246251940727234e-01" purity="3.9664241671562195e-01" nType="-99"/>
          <Node pos="r" depth="2" NCoef="0" IVar="-1" Cut="0.0000000000000000e+00" cType="1" res="-5.6733889505267143e-04" rms="2.6008644700050354e-01" purity="5.1633566617965698e-01" nType="-99"/>
        </Node>
      </Node>
    </BinaryTree>
    <BinaryTree type="DecisionTree" boostWeight="1.0000000000000000e+00" itree="213">
      <Node pos="s" depth="0" NCoef="0" IVar="46" Cut="1.0035487413406372e+00" cType="1" res="5.3638098761439323e-03" rms="2.6353603601455688e-01" purity="5.0460809469223022e-01" nType="0">
        <Node pos="l" depth="1" NCoef="0" IVar="0" Cut="1.2492959499359131e+00" cType="1" res="1.7811924219131470e-02" rms="2.7936080098152161e-01" purity="5.5927407741546631e-01" nType="0">
          <Node pos="l" depth="2" NCoef="0" IVar="-1" Cut="0.0000000000000000e+00" cType="1" res="6.8182297982275486e-03" rms="2.8642389178276062e-01" purity="5.7978075742721558e-01" nType="-99"/>
          <Node pos="r" depth="2" NCoef="0" IVar="-1" Cut="0.0000000000000000e+00" cType="1" res="-2.1341005340218544e-02" rms="1.5478044748306274e-01" purity="3.2450947165489197e-01" nType="-99"/>
        </Node>
        <Node pos="r" depth="1" NCoef="0" IVar="5" Cut="2.5609153509140015e-01" cType="1" res="-2.3972555994987488e-02" rms="2.1904020011425018e-01" purity="3.7577709555625916e-01" nType="0">
          <Node pos="l" depth="2" NCoef="0" IVar="-1" Cut="0.0000000000000000e+00" cType="1" res="3.5381754860281944e-03" rms="2.5762248039245605e-01" purity="4.3671628832817078e-01" nType="-99"/>
          <Node pos="r" depth="2" NCoef="0" IVar="-1" Cut="0.0000000000000000e+00" cType="1" res="-2.0199883729219437e-02" rms="1.4836521446704865e-01" purity="3.0119261145591736e-01" nType="-99"/>
        </Node>
      </Node>
    </BinaryTree>
    <BinaryTree type="DecisionTree" boostWeight="1.0000000000000000e+00" itree="214">
      <Node pos="s" depth="0" NCoef="0" IVar="10" Cut="2.7910544872283936e+00" cType="1" res="1.3445351505652070e-03" rms="2.6022189855575562e-01" purity="5.0153547525405884e-01" nType="0">
        <Node pos="l" depth="1" NCoef="0" IVar="76" Cut="-1.0330598354339600e+00" cType="1" res="-3.2902698963880539e-02" rms="-nan" purity="6.3110098242759705e-02" nType="-99"/>
        <Node pos="r" depth="1" NCoef="0" IVar="88" Cut="1.2593632936477661e+00" cType="1" res="5.9684477746486664e-03" rms="2.6594242453575134e-01" purity="5.2136850357055664e-01" nType="0">
          <Node pos="l" depth="2" NCoef="0" IVar="-1" Cut="0.0000000000000000e+00" cType="1" res="2.8483723290264606e-03" rms="2.7383422851562500e-01" purity="5.4056906700134277e-01" nType="-99"/>
          <Node pos="r" depth="2" NCoef="0" IVar="-1" Cut="0.0000000000000000e+00" cType="1" res="-3.0711628496646881e-02" rms="-nan" purity="1.7607468366622925e-01" nType="-99"/>
        </Node>
      </Node>
    </BinaryTree>
    <BinaryTree type="DecisionTree" boostWeight="1.0000000000000000e+00" itree="215">
      <Node pos="s" depth="0" NCoef="0" IVar="77" Cut="1.3640850782394409e+00" cType="1" res="-1.0257867397740483e-03" rms="2.5807300209999084e-01" purity="4.9873581528663635e-01" nType="0">
        <Node pos="l" depth="1" NCoef="0" IVar="18" Cut="-5.5501842498779297e-01" cType="1" res="3.1818270217627287e-03" rms="2.6714807748794556e-01" purity="5.2270954847335815e-01" nType="0">
          <Node pos="l" depth="2" NCoef="0" IVar="-1" Cut="0.0000000000000000e+00" cType="1" res="3.1545718229608610e-05" rms="2.6112195849418640e-01" purity="5.2677458524703979e-01" nType="-99"/>
          <Node pos="r" depth="2" NCoef="0" IVar="-1" Cut="0.0000000000000000e+00" cType="1" res="3.3498141914606094e-02" rms="4.1411420702934265e-01" purity="3.7952876091003418e-01" nType="-99"/>
        </Node>
        <Node pos="r" depth="1" NCoef="0" IVar="83" Cut="6.1609797179698944e-02" cType="1" res="-3.9972200989723206e-02" rms="-nan" purity="2.7912875637412071e-02" nType="-99"/>
      </Node>
    </BinaryTree>
    <BinaryTree type="DecisionTree" boostWeight="1.0000000000000000e+00" itree="216">
      <Node pos="s" depth="0" NCoef="0" IVar="46" Cut="8.2628196477890015e-01" cType="1" res="4.1826811502687633e-04" rms="2.5455000996589661e-01" purity="5.0733077526092529e-01" nType="0">
        <Node pos="l" depth="1" NCoef="0" IVar="57" Cut="1.0192849636077881e+00" cType="1" res="7.8759245574474335e-02" rms="3.5317757725715637e-01" purity="6.1138468980789185e-01" nType="0">
          <Node pos="l" depth="2" NCoef="0" IVar="-1" Cut="0.0000000000000000e+00" cType="1" res="7.7773496508598328e-02" rms="4.5276719331741333e-01" purity="3.5889023542404175e-01" nType="-99"/>
          <Node pos="r" depth="2" NCoef="0" IVar="-1" Cut="0.0000000000000000e+00" cType="1" res="4.3310089968144894e-03" rms="2.8570345044136047e-01" purity="7.0648372173309326e-01" nType="-99"/>
        </Node>
        <Node pos="r" depth="1" NCoef="0" IVar="2" Cut="3.0032167434692383e+00" cType="1" res="-5.7648927904665470e-03" rms="2.4401301145553589e-01" purity="4.9911814928054810e-01" nType="0">
          <Node pos="l" depth="2" NCoef="0" IVar="-1" Cut="0.0000000000000000e+00" cType="1" res="-5.1325857639312744e-03" rms="2.3484982550144196e-01" purity="4.3263188004493713e-01" nType="-99"/>
          <Node pos="r" depth="2" NCoef="0" IVar="-1" Cut="0.0000000000000000e+00" cType="1" res="1.1391310021281242e-02" rms="2.7278667688369751e-01" purity="7.6869922876358032e-01" nType="-99"/>
        </Node>
      </Node>
    </BinaryTree>
    <BinaryTree type="DecisionTree" boostWeight="1.0000000000000000e+00" itree="217">
      <Node pos="s" depth="0" NCoef="0" IVar="56" Cut="1.4830836057662964e+00" cType="1" res="4.4094093027524650e-04" rms="2.5647571682929993e-01" purity="4.9969935417175293e-01" nType="0">
        <Node pos="l" depth="1" NCoef="0" IVar="84" Cut="-6.7485094070434570e-01" cType="1" res="3.2475362531840801e-03" rms="2.5794434547424316e-01" purity="5.0833994150161743e-01" nType="0">
          <Node pos="l" depth="2" NCoef="0" IVar="-1" Cut="0.0000000000000000e+00" cType="1" res="3.7627454847097397e-02" rms="3.9561426639556885e-01" purity="5.8107620477676392e-01" nType="-99"/>
          <Node pos="r" depth="2" NCoef="0" IVar="-1" Cut="0.0000000000000000e+00" cType="1" res="5.1232600526418537e-05" rms="2.5256478786468506e-01" purity="5.0641441345214844e-01" nType="-99"/>
        </Node>
        <Node pos="r" depth="1" NCoef="0" IVar="-1" Cut="0.0000000000000000e+00" cType="1" res="-3.8742288947105408e-02" rms="1.3418954610824585e-01" purity="1.2586064636707306e-01" nType="-99"/>
      </Node>
    </BinaryTree>
    <BinaryTree type="DecisionTree" boostWeight="1.0000000000000000e+00" itree="218">
      <Node pos="s" depth="0" NCoef="0" IVar="73" Cut="2.2002749443054199e+00" cType="1" res="-2.7241543866693974e-03" rms="2.5726214051246643e-01" purity="4.9973896145820618e-01" nType="0">
        <Node pos="l" depth="1" NCoef="0" IVar="-1" Cut="0.0000000000000000e+00" cType="1" res="-3.3028602600097656e-02" rms="3.8549758493900299e-02" purity="1.9766575098037720e-01" nType="-99"/>
        <Node pos="r" depth="1" NCoef="0" IVar="77" Cut="1.4813549518585205e+00" cType="1" res="1.1725199874490499e-03" rms="2.6121202111244202e-01" purity="5.1123452186584473e-01" nType="0">
          <Node pos="l" depth="2" NCoef="0" IVar="-1" Cut="0.0000000000000000e+00" cType="1" res="1.1960992123931646e-03" rms="2.6730692386627197e-01" purity="5.2436327934265137e-01" nType="-99"/>
          <Node pos="r" depth="2" NCoef="0" IVar="-1" Cut="0.0000000000000000e+00" cType="1" res="-9.2465877532958984e-02" rms="-nan" purity="-8.6860008537769318e-02" nType="-99"/>
        </Node>
      </Node>
    </BinaryTree>
    <BinaryTree type="DecisionTree" boostWeight="1.0000000000000000e+00" itree="219">
      <Node pos="s" depth="0" NCoef="0" IVar="15" Cut="1.4837456941604614e+00" cType="1" res="2.2198418155312538e-03" rms="2.5516527891159058e-01" purity="5.0599306821823120e-01" nType="0">
        <Node pos="l" depth="1" NCoef="0" IVar="1" Cut="3.2114260196685791e+00" cType="1" res="1.6342900693416595e-02" rms="2.4289871752262115e-01" purity="4.5638760924339294e-01" nType="0">
          <Node pos="l" depth="2" NCoef="0" IVar="-1" Cut="0.0000000000000000e+00" cType="1" res="9.4703612849116325e-03" rms="2.6109161972999573e-01" purity="4.2243817448616028e-01" nType="-99"/>
          <Node pos="r" depth="2" NCoef="0" IVar="-1" Cut="0.0000000000000000e+00" cType="1" res="-8.2016382366418839e-03" rms="1.7286168038845062e-01" purity="5.5568307638168335e-01" nType="-99"/>
        </Node>
        <Node pos="r" depth="1" NCoef="0" IVar="27" Cut="8.7759190797805786e-01" cType="1" res="-2.4987265467643738e-02" rms="2.7523526549339294e-01" purity="6.0155445337295532e-01" nType="0">
          <Node pos="l" depth="2" NCoef="0" IVar="-1" Cut="0.0000000000000000e+00" cType="1" res="-4.7374103218317032e-02" rms="-nan" purity="1.0707464814186096e-01" nType="-99"/>
          <Node pos="r" depth="2" NCoef="0" IVar="-1" Cut="0.0000000000000000e+00" cType="1" res="-3.6775644402951002e-03" rms="2.8390470147132874e-01" purity="6.3239055871963501e-01" nType="-99"/>
        </Node>
      </Node>
    </BinaryTree>
    <BinaryTree type="DecisionTree" boostWeight="1.0000000000000000e+00" itree="220">
      <Node pos="s" depth="0" NCoef="0" IVar="62" Cut="2.1740797162055969e-01" cType="1" res="2.1500838920474052e-03" rms="2.6398912072181702e-01" purity="5.0198084115982056e-01" nType="0">
        <Node pos="l" depth="1" NCoef="0" IVar="6" Cut="1.7844297885894775e+00" cType="1" res="-5.4727657698094845e-03" rms="2.5366297364234924e-01" purity="5.1320248842239380e-01" nType="0">
          <Node pos="l" depth="2" NCoef="0" IVar="-1" Cut="0.0000000000000000e+00" cType="1" res="-1.4145374298095703e-02" rms="1.8902984261512756e-01" purity="2.6043221354484558e-01" nType="-99"/>
          <Node pos="r" depth="2" NCoef="0" IVar="-1" Cut="0.0000000000000000e+00" cType="1" res="2.4452363140881062e-03" rms="2.6978436112403870e-01" purity="5.9504312276840210e-01" nType="-99"/>
        </Node>
        <Node pos="r" depth="1" NCoef="0" IVar="35" Cut="-1.4103820919990540e-01" cType="1" res="5.0294354557991028e-02" rms="3.1743568181991577e-01" purity="4.3110728263854980e-01" nType="0">
          <Node pos="l" depth="2" NCoef="0" IVar="-1" Cut="0.0000000000000000e+00" cType="1" res="3.8191615603864193e-03" rms="2.5560113787651062e-01" purity="4.1915738582611084e-01" nType="-99"/>
          <Node pos="r" depth="2" NCoef="0" IVar="-1" Cut="0.0000000000000000e+00" cType="1" res="3.9650782942771912e-02" rms="4.1226300597190857e-01" purity="4.5779585838317871e-01" nType="-99"/>
        </Node>
      </Node>
    </BinaryTree>
    <BinaryTree type="DecisionTree" boostWeight="1.0000000000000000e+00" itree="221">
      <Node pos="s" depth="0" NCoef="0" IVar="40" Cut="1.2151658535003662e+00" cType="1" res="1.7007682472467422e-03" rms="2.6047882437705994e-01" purity="4.9703085422515869e-01" nType="0">
        <Node pos="l" depth="1" NCoef="0" IVar="21" Cut="3.2904207706451416e-01" cType="1" res="8.9455461129546165e-03" rms="2.7051591873168945e-01" purity="5.3294694423675537e-01" nType="0">
          <Node pos="l" depth="2" NCoef="0" IVar="-1" Cut="0.0000000000000000e+00" cType="1" res="3.9949896745383739e-03" rms="2.7585899829864502e-01" purity="5.4312497377395630e-01" nType="-99"/>
          <Node pos="r" depth="2" NCoef="0" IVar="-1" Cut="0.0000000000000000e+00" cType="1" res="-2.9553838074207306e-02" rms="5.2060287445783615e-02" purity="3.2980203628540039e-01" nType="-99"/>
        </Node>
        <Node pos="r" depth="1" NCoef="0" IVar="4" Cut="3.3581135272979736e+00" cType="1" res="-5.4526012390851974e-02" rms="1.5138322114944458e-01" purity="2.1828545629978180e-01" nType="0">
          <Node pos="l" depth="2" NCoef="0" IVar="-1" Cut="0.0000000000000000e+00" cType="1" res="-9.2112131416797638e-02" rms="-nan" purity="-9.2543929815292358e-02" nType="-99"/>
          <Node pos="r" depth="2" NCoef="0" IVar="-1" Cut="0.0000000000000000e+00" cType="1" res="-7.8494604676961899e-03" rms="2.2229617834091187e-01" purity="2.8587216138839722e-01" nType="-99"/>
        </Node>
      </Node>
    </BinaryTree>
    <BinaryTree type="DecisionTree" boostWeight="1.0000000000000000e+00" itree="222">
      <Node pos="s" depth="0" NCoef="0" IVar="52" Cut="2.7457389831542969e+00" cType="1" res="1.3475279556587338e-03" rms="2.5884482264518738e-01" purity="4.9947881698608398e-01" nType="0">
        <Node pos="l" depth="1" NCoef="0" IVar="40" Cut="7.6113927364349365e-01" cType="1" res="-3.9190161973237991e-02" rms="2.1520844101905823e-01" purity="2.1335206925868988e-01" nType="0">
          <Node pos="l" depth="2" NCoef="0" IVar="-1" Cut="0.0000000000000000e+00" cType="1" res="3.2389324624091387e-03" rms="2.9894515872001648e-01" purity="3.1067621707916260e-01" nType="-99"/>
          <Node pos="r" depth="2" NCoef="0" IVar="-1" Cut="0.0000000000000000e+00" cType="1" res="-3.0342981219291687e-02" rms="-nan" purity="1.1247795820236206e-01" nType="-99"/>
        </Node>
        <Node pos="r" depth="1" NCoef="0" IVar="16" Cut="1.1589320898056030e+00" cType="1" res="1.1444430798292160e-02" rms="2.6765972375869751e-01" purity="5.7074576616287231e-01" nType="0">
          <Node pos="l" depth="2" NCoef="0" IVar="-1" Cut="0.0000000000000000e+00" cType="1" res="4.3097455054521561e-03" rms="2.7232682704925537e-01" purity="5.7975256443023682e-01" nType="-99"/>
          <Node pos="r" depth="2" NCoef="0" IVar="-1" Cut="0.0000000000000000e+00" cType="1" res="-2.9395718127489090e-02" rms="-nan" purity="3.2257533073425293e-01" nType="-99"/>
        </Node>
      </Node>
    </BinaryTree>
    <BinaryTree type="DecisionTree" boostWeight="1.0000000000000000e+00" itree="223">
      <Node pos="s" depth="0" NCoef="0" IVar="88" Cut="9.4951617717742920e-01" cType="1" res="-1.0152163915336132e-02" rms="2.4790029227733612e-01" purity="4.8733350634574890e-01" nType="0">
        <Node pos="l" depth="1" NCoef="0" IVar="13" Cut="-1.4155485630035400e+00" cType="1" res="1.3035390526056290e-02" rms="2.8202381730079651e-01" purity="5.4377686977386475e-01" nType="0">
          <Node pos="l" depth="2" NCoef="0" IVar="-1" Cut="0.0000000000000000e+00" cType="1" res="5.4512299597263336e-02" rms="3.5381096601486206e-01" purity="3.0655565857887268e-01" nType="-99"/>
          <Node pos="r" depth="2" NCoef="0" IVar="-1" Cut="0.0000000000000000e+00" cType="1" res="4.7414362779818475e-04" rms="2.7143597602844238e-01" purity="5.6674474477767944e-01" nType="-99"/>
        </Node>
        <Node pos="r" depth="1" NCoef="0" IVar="17" Cut="1.4063723087310791e+00" cType="1" res="-3.2217308878898621e-02" rms="2.0796270668506622e-01" purity="4.3362236022949219e-01" nType="0">
          <Node pos="l" depth="2" NCoef="0" IVar="-1" Cut="0.0000000000000000e+00" cType="1" res="-5.2569467574357986e-02" rms="-nan" purity="-3.0578091740608215e-02" nType="-99"/>
          <Node pos="r" depth="2" NCoef="0" IVar="-1" Cut="0.0000000000000000e+00" cType="1" res="-1.7391761066392064e-03" rms="2.9031786322593689e-01" purity="6.4326304197311401e-01" nType="-99"/>
        </Node>
      </Node>
    </BinaryTree>
    <BinaryTree type="DecisionTree" boostWeight="1.0000000000000000e+00" itree="224">
      <Node pos="s" depth="0" NCoef="0" IVar="5" Cut="-1.3319107890129089e-01" cType="1" res="-3.6298668419476599e-05" rms="2.5838792324066162e-01" purity="5.0434976816177368e-01" nType="0">
        <Node pos="l" depth="1" NCoef="0" IVar="88" Cut="9.5694774389266968e-01" cType="1" res="-3.8446165621280670e-02" rms="-nan" purity="1.1354814469814301e-01" nType="-99"/>
        <Node pos="r" depth="1" NCoef="0" IVar="46" Cut="8.4328615665435791e-01" cType="1" res="3.9930259808897972e-03" rms="2.6730012893676758e-01" purity="5.2071851491928101e-01" nType="0">
          <Node pos="l" depth="2" NCoef="0" IVar="-1" Cut="0.0000000000000000e+00" cType="1" res="1.4928223565220833e-02" rms="3.5224983096122742e-01" purity="6.2535655498504639e-01" nType="-99"/>
          <Node pos="r" depth="2" NCoef="0" IVar="-1" Cut="0.0000000000000000e+00" cType="1" res="-8.4119121311232448e-04" rms="2.5366985797882080e-01" purity="5.0747275352478027e-01" nType="-99"/>
        </Node>
      </Node>
    </BinaryTree>
    <BinaryTree type="DecisionTree" boostWeight="1.0000000000000000e+00" itree="225">
      <Node pos="s" depth="0" NCoef="0" IVar="77" Cut="-1.3379188776016235e+00" cType="1" res="1.9665518775582314e-03" rms="2.6260173320770264e-01" purity="5.0171828269958496e-01" nType="0">
        <Node pos="l" depth="1" NCoef="0" IVar="0" Cut="7.1270763874053955e-01" cType="1" res="-9.5521183684468269e-03" rms="2.5217807292938232e-01" purity="5.5573755502700806e-01" nType="0">
          <Node pos="l" depth="2" NCoef="0" IVar="-1" Cut="0.0000000000000000e+00" cType="1" res="4.3848543427884579e-03" rms="2.8085473179817200e-01" purity="6.5889316797256470e-01" nType="-99"/>
          <Node pos="r" depth="2" NCoef="0" IVar="-1" Cut="0.0000000000000000e+00" cType="1" res="-8.3569353446364403e-03" rms="2.2527083754539490e-01" purity="4.7525525093078613e-01" nType="-99"/>
        </Node>
        <Node pos="r" depth="1" NCoef="0" IVar="73" Cut="2.2759933471679688e+00" cType="1" res="3.1569659709930420e-02" rms="2.8553941845893860e-01" purity="3.6288827657699585e-01" nType="0">
          <Node pos="l" depth="2" NCoef="0" IVar="-1" Cut="0.0000000000000000e+00" cType="1" res="6.2873728573322296e-02" rms="4.2898508906364441e-01" purity="3.0151546001434326e-01" nType="-99"/>
          <Node pos="r" depth="2" NCoef="0" IVar="-1" Cut="0.0000000000000000e+00" cType="1" res="4.6004313044250011e-03" rms="2.5646999478340149e-01" purity="3.7082472443580627e-01" nType="-99"/>
        </Node>
      </Node>
    </BinaryTree>
    <BinaryTree type="DecisionTree" boostWeight="1.0000000000000000e+00" itree="226">
      <Node pos="s" depth="0" NCoef="0" IVar="51" Cut="-6.1728394031524658e-01" cType="1" res="3.5299565643072128e-03" rms="2.6646888256072998e-01" purity="5.0002396106719971e-01" nType="0">
        <Node pos="l" depth="1" NCoef="0" IVar="10" Cut="2.9660522937774658e+00" cType="1" res="6.5266378223896027e-02" rms="3.0540031194686890e-01" purity="4.5366832613945007e-01" nType="0">
          <Node pos="l" depth="2" NCoef="0" IVar="-1" Cut="0.0000000000000000e+00" cType="1" res="5.3366206586360931e-02" rms="4.2582958936691284e-01" purity="4.1273942589759827e-01" nType="-99"/>
          <Node pos="r" depth="2" NCoef="0" IVar="-1" Cut="0.0000000000000000e+00" cType="1" res="5.4768435657024384e-03" rms="2.3185761272907257e-01" purity="4.6844160556793213e-01" nType="-99"/>
        </Node>
        <Node pos="r" depth="1" NCoef="0" IVar="18" Cut="-1.8622230291366577e+00" cType="1" res="-1.8843383295461535e-03" rms="2.6208692789077759e-01" purity="5.0408935546875000e-01" nType="0">
          <Node pos="l" depth="2" NCoef="0" IVar="-1" Cut="0.0000000000000000e+00" cType="1" res="3.5367924720048904e-03" rms="2.7463212609291077e-01" purity="5.8662617206573486e-01" nType="-99"/>
          <Node pos="r" depth="2" NCoef="0" IVar="-1" Cut="0.0000000000000000e+00" cType="1" res="-7.7855130657553673e-03" rms="2.3900121450424194e-01" purity="3.7328502535820007e-01" nType="-99"/>
        </Node>
      </Node>
    </BinaryTree>
    <BinaryTree type="DecisionTree" boostWeight="1.0000000000000000e+00" itree="227">
      <Node pos="s" depth="0" NCoef="0" IVar="77" Cut="1.4821782112121582e+00" cType="1" res="-7.9780112719163299e-04" rms="2.5153839588165283e-01" purity="5.0017023086547852e-01" nType="0">
        <Node pos="l" depth="1" NCoef="0" IVar="58" Cut="1.4375879764556885e+00" cType="1" res="3.4258421510457993e-03" rms="2.5962796807289124e-01" purity="5.1433229446411133e-01" nType="0">
          <Node pos="l" depth="2" NCoef="0" IVar="-1" Cut="0.0000000000000000e+00" cType="1" res="1.3055316230747849e-04" rms="2.5368589162826538e-01" purity="5.1707679033279419e-01" nType="-99"/>
          <Node pos="r" depth="2" NCoef="0" IVar="-1" Cut="0.0000000000000000e+00" cType="1" res="4.7116812318563461e-02" rms="4.3502274155616760e-01" purity="3.8753992319107056e-01" nType="-99"/>
        </Node>
        <Node pos="r" depth="1" NCoef="0" IVar="-1" Cut="0.0000000000000000e+00" cType="1" res="-1.8242566287517548e-01" rms="-nan" purity="-1.6136406362056732e-01" nType="-99"/>
      </Node>
    </BinaryTree>
    <BinaryTree type="DecisionTree" boostWeight="1.0000000000000000e+00" itree="228">
      <Node pos="s" depth="0" NCoef="0" IVar="20" Cut="3.5393318533897400e-01" cType="1" res="-7.4687707237899303e-03" rms="2.4849326908588409e-01" purity="4.9173882603645325e-01" nType="0">
        <Node pos="l" depth="1" NCoef="0" IVar="41" Cut="3.4125187993049622e-01" cType="1" res="-4.4034929014742374e-03" rms="2.5254261493682861e-01" purity="4.9827107787132263e-01" nType="0">
          <Node pos="l" depth="2" NCoef="0" IVar="-1" Cut="0.0000000000000000e+00" cType="1" res="-2.6361928321421146e-03" rms="2.4480503797531128e-01" purity="5.0026237964630127e-01" nType="-99"/>
          <Node pos="r" depth="2" NCoef="0" IVar="-1" Cut="0.0000000000000000e+00" cType="1" res="2.8292914852499962e-02" rms="3.6304783821105957e-01" purity="4.5739150047302246e-01" nType="-99"/>
        </Node>
        <Node pos="r" depth="1" NCoef="0" IVar="-1" Cut="0.0000000000000000e+00" cType="1" res="-5.0411917269229889e-02" rms="-nan" purity="1.8326066434383392e-01" nType="-99"/>
      </Node>
    </BinaryTree>
    <BinaryTree type="DecisionTree" boostWeight="1.0000000000000000e+00" itree="229">
      <Node pos="s" depth="0" NCoef="0" IVar="67" Cut="1.0546423196792603e+00" cType="1" res="-1.5770961763337255e-03" rms="2.4982798099517822e-01" purity="4.9838221073150635e-01" nType="0">
        <Node pos="l" depth="1" NCoef="0" IVar="35" Cut="-1.5311394929885864e+00" cType="1" res="8.9065339416265488e-03" rms="2.6438787579536438e-01" purity="5.3647977113723755e-01" nType="0">
          <Node pos="l" depth="2" NCoef="0" IVar="-1" Cut="0.0000000000000000e+00" cType="1" res="4.4628545641899109e-02" rms="4.0461513400077820e-01" purity="4.0555512905120850e-01" nType="-99"/>
          <Node pos="r" depth="2" NCoef="0" IVar="-1" Cut="0.0000000000000000e+00" cType="1" res="1.3481520581990480e-03" rms="2.5846776366233826e-01" purity="5.3991645574569702e-01" nType="-99"/>
        </Node>
        <Node pos="r" depth="1" NCoef="0" IVar="4" Cut="3.6909646987915039e+00" cType="1" res="-4.9559120088815689e-02" rms="1.5919205546379089e-01" purity="3.2401508092880249e-01" nType="0">
          <Node pos="l" depth="2" NCoef="0" IVar="-1" Cut="0.0000000000000000e+00" cType="1" res="-4.3439816683530807e-02" rms="-nan" purity="1.1878988891839981e-01" nType="-99"/>
          <Node pos="r" depth="2" NCoef="0" IVar="-1" Cut="0.0000000000000000e+00" cType="1" res="2.8639452066272497e-03" rms="2.4991200864315033e-01" purity="4.8738160729408264e-01" nType="-99"/>
        </Node>
      </Node>
    </BinaryTree>
    <BinaryTree type="DecisionTree" boostWeight="1.0000000000000000e+00" itree="230">
      <Node pos="s" depth="0" NCoef="0" IVar="84" Cut="-3.6937862634658813e-02" cType="1" res="7.9771010205149651e-03" rms="2.6799711585044861e-01" purity="5.0154983997344971e-01" nType="0">
        <Node pos="l" depth="1" NCoef="0" IVar="34" Cut="-2.8071001172065735e-02" cType="1" res="2.7067895978689194e-02" rms="2.8628405928611755e-01" purity="5.3528237342834473e-01" nType="0">
          <Node pos="l" depth="2" NCoef="0" IVar="-1" Cut="0.0000000000000000e+00" cType="1" res="2.5344504043459892e-02" rms="3.3222326636314392e-01" purity="3.4678182005882263e-01" nType="-99"/>
          <Node pos="r" depth="2" NCoef="0" IVar="-1" Cut="0.0000000000000000e+00" cType="1" res="2.5915587320923805e-03" rms="2.6782315969467163e-01" purity="5.9477961063385010e-01" nType="-99"/>
        </Node>
        <Node pos="r" depth="1" NCoef="0" IVar="88" Cut="1.2517338991165161e+00" cType="1" res="-1.2177675031125546e-02" rms="2.4562256038188934e-01" purity="4.6593737602233887e-01" nType="0">
          <Node pos="l" depth="2" NCoef="0" IVar="-1" Cut="0.0000000000000000e+00" cType="1" res="-1.4319878537207842e-03" rms="2.6146930456161499e-01" purity="4.8715582489967346e-01" nType="-99"/>
          <Node pos="r" depth="2" NCoef="0" IVar="-1" Cut="0.0000000000000000e+00" cType="1" res="-5.6521583348512650e-02" rms="-nan" purity="1.2312801927328110e-01" nType="-99"/>
        </Node>
      </Node>
    </BinaryTree>
    <BinaryTree type="DecisionTree" boostWeight="1.0000000000000000e+00" itree="231">
      <Node pos="s" depth="0" NCoef="0" IVar="7" Cut="-1.2982327938079834e+00" cType="1" res="4.0305652655661106e-03" rms="2.6446765661239624e-01" purity="4.9891009926795959e-01" nType="0">
        <Node pos="l" depth="1" NCoef="0" IVar="4" Cut="3.3772864341735840e+00" cType="1" res="7.4711279012262821e-03" rms="2.6872318983078003e-01" purity="5.1019835472106934e-01" nType="0">
          <Node pos="l" depth="2" NCoef="0" IVar="-1" Cut="0.0000000000000000e+00" cType="1" res="1.4035319909453392e-02" rms="3.1356519460678101e-01" purity="2.5495812296867371e-01" nType="-99"/>
          <Node pos="r" depth="2" NCoef="0" IVar="-1" Cut="0.0000000000000000e+00" cType="1" res="9.6921889053191990e-05" rms="2.5919404625892639e-01" purity="5.5611312389373779e-01" nType="-99"/>
        </Node>
        <Node pos="r" depth="1" NCoef="0" IVar="-1" Cut="0.0000000000000000e+00" cType="1" res="-3.0747950077056885e-02" rms="-nan" purity="1.7058923840522766e-01" nType="-99"/>
      </Node>
    </BinaryTree>
    <BinaryTree type="DecisionTree" boostWeight="1.0000000000000000e+00" itree="232">
      <Node pos="s" depth="0" NCoef="0" IVar="17" Cut="-1.4537624120712280e+00" cType="1" res="1.6368753276765347e-03" rms="2.6131066679954529e-01" purity="4.9806231260299683e-01" nType="0">
        <Node pos="l" depth="1" NCoef="0" IVar="-1" Cut="0.0000000000000000e+00" cType="1" res="1.0656066238880157e-01" rms="3.1234678626060486e-01" purity="1.1912468075752258e-01" nType="-99"/>
        <Node pos="r" depth="1" NCoef="0" IVar="50" Cut="-7.7565252780914307e-02" cType="1" res="-1.4245269121602178e-03" rms="2.5889205932617188e-01" purity="5.1054209470748901e-01" nType="0">
          <Node pos="l" depth="2" NCoef="0" IVar="-1" Cut="0.0000000000000000e+00" cType="1" res="6.4391264459118247e-04" rms="2.6318046450614929e-01" purity="5.1654267311096191e-01" nType="-99"/>
          <Node pos="r" depth="2" NCoef="0" IVar="-1" Cut="0.0000000000000000e+00" cType="1" res="-2.4943660944700241e-02" rms="8.6290508508682251e-02" purity="3.7174820899963379e-01" nType="-99"/>
        </Node>
      </Node>
    </BinaryTree>
    <BinaryTree type="DecisionTree" boostWeight="1.0000000000000000e+00" itree="233">
      <Node pos="s" depth="0" NCoef="0" IVar="2" Cut="2.2619709968566895e+00" cType="1" res="6.7481072619557381e-03" rms="2.6698771119117737e-01" purity="5.0503450632095337e-01" nType="0">
        <Node pos="l" depth="1" NCoef="0" IVar="15" Cut="1.5215367078781128e+00" cType="1" res="-1.9964974373579025e-02" rms="2.3442099988460541e-01" purity="2.7966669201850891e-01" nType="0">
          <Node pos="l" depth="2" NCoef="0" IVar="-1" Cut="0.0000000000000000e+00" cType="1" res="-1.6829072264954448e-03" rms="2.3752938210964203e-01" purity="2.9655748605728149e-01" nType="-99"/>
          <Node pos="r" depth="2" NCoef="0" IVar="-1" Cut="0.0000000000000000e+00" cType="1" res="-2.6162700727581978e-02" rms="1.8818517029285431e-01" purity="1.7221124470233917e-01" nType="-99"/>
        </Node>
        <Node pos="r" depth="1" NCoef="0" IVar="3" Cut="4.4215641021728516e+00" cType="1" res="2.3017542436718941e-02" rms="2.8377518057823181e-01" purity="6.4229333400726318e-01" nType="0">
          <Node pos="l" depth="2" NCoef="0" IVar="-1" Cut="0.0000000000000000e+00" cType="1" res="2.3504951968789101e-02" rms="3.7757489085197449e-01" purity="4.2183816432952881e-01" nType="-99"/>
          <Node pos="r" depth="2" NCoef="0" IVar="-1" Cut="0.0000000000000000e+00" cType="1" res="3.2980644609779119e-03" rms="2.6623371243476868e-01" purity="6.7311853170394897e-01" nType="-99"/>
        </Node>
      </Node>
    </BinaryTree>
    <BinaryTree type="DecisionTree" boostWeight="1.0000000000000000e+00" itree="234">
      <Node pos="s" depth="0" NCoef="0" IVar="17" Cut="1.4471515417098999e+00" cType="1" res="2.1547046490013599e-03" rms="2.4891780316829681e-01" purity="5.1291477680206299e-01" nType="0">
        <Node pos="l" depth="1" NCoef="0" IVar="0" Cut="1.1441287994384766e+00" cType="1" res="-2.5012549012899399e-02" rms="1.2168050557374954e-01" purity="6.6190548241138458e-02" nType="0">
          <Node pos="l" depth="2" NCoef="0" IVar="-1" Cut="0.0000000000000000e+00" cType="1" res="-4.5345971011556685e-04" rms="1.9911406934261322e-01" purity="1.0298883914947510e-01" nType="-99"/>
          <Node pos="r" depth="2" NCoef="0" IVar="-1" Cut="0.0000000000000000e+00" cType="1" res="-1.0838742554187775e-01" rms="-nan" purity="-9.2402532696723938e-02" nType="-99"/>
        </Node>
        <Node pos="r" depth="1" NCoef="0" IVar="2" Cut="1.5085477828979492e+00" cType="1" res="1.4781588688492775e-02" rms="2.8874546289443970e-01" purity="7.2054469585418701e-01" nType="0">
          <Node pos="l" depth="2" NCoef="0" IVar="-1" Cut="0.0000000000000000e+00" cType="1" res="-2.8867859393358231e-02" rms="2.2804816067218781e-01" purity="1.8565614521503448e-01" nType="-99"/>
          <Node pos="r" depth="2" NCoef="0" IVar="-1" Cut="0.0000000000000000e+00" cType="1" res="4.9847504124045372e-03" rms="2.8957673907279968e-01" purity="7.4327039718627930e-01" nType="-99"/>
        </Node>
      </Node>
    </BinaryTree>
    <BinaryTree type="DecisionTree" boostWeight="1.0000000000000000e+00" itree="235">
      <Node pos="s" depth="0" NCoef="0" IVar="16" Cut="-1.4155989885330200e+00" cType="1" res="5.3809555247426033e-03" rms="2.6210612058639526e-01" purity="5.0629657506942749e-01" nType="0">
        <Node pos="l" depth="1" NCoef="0" IVar="-1" Cut="0.0000000000000000e+00" cType="1" res="4.0651936084032059e-02" rms="3.5971111059188843e-01" purity="3.1826189160346985e-01" nType="-99"/>
        <Node pos="r" depth="1" NCoef="0" IVar="27" Cut="1.0420196056365967e+00" cType="1" res="1.0341098532080650e-03" rms="2.5650990009307861e-01" purity="5.1375371217727661e-01" nType="0">
          <Node pos="l" depth="2" NCoef="0" IVar="-1" Cut="0.0000000000000000e+00" cType="1" res="-1.9501531496644020e-02" rms="1.4174018800258636e-01" purity="1.9572950899600983e-01" nType="-99"/>
          <Node pos="r" depth="2" NCoef="0" IVar="-1" Cut="0.0000000000000000e+00" cType="1" res="2.4680935312062502e-03" rms="2.6672372221946716e-01" purity="5.5461251735687256e-01" nType="-99"/>
        </Node>
      </Node>
    </BinaryTree>
    <BinaryTree type="DecisionTree" boostWeight="1.0000000000000000e+00" itree="236">
      <Node pos="s" depth="0" NCoef="0" IVar="55" Cut="-1.4926531314849854e+00" cType="1" res="2.1988893859088421e-03" rms="2.5606071949005127e-01" purity="5.0769168138504028e-01" nType="0">
        <Node pos="l" depth="1" NCoef="0" IVar="62" Cut="-3.3028058707714081e-02" cType="1" res="1.1461193859577179e-01" rms="3.5069668292999268e-01" purity="4.6037539839744568e-01" nType="0">
          <Node pos="l" depth="2" NCoef="0" IVar="-1" Cut="0.0000000000000000e+00" cType="1" res="9.7495201043784618e-04" rms="2.2858545184135437e-01" purity="4.0589225292205811e-01" nType="-99"/>
          <Node pos="r" depth="2" NCoef="0" IVar="-1" Cut="0.0000000000000000e+00" cType="1" res="6.0008633881807327e-02" rms="4.0475407242774963e-01" purity="5.0689780712127686e-01" nType="-99"/>
        </Node>
        <Node pos="r" depth="1" NCoef="0" IVar="77" Cut="1.4813549518585205e+00" cType="1" res="-2.9994328506290913e-03" rms="2.4960044026374817e-01" purity="5.0987970829010010e-01" nType="0">
          <Node pos="l" depth="2" NCoef="0" IVar="-1" Cut="0.0000000000000000e+00" cType="1" res="5.3685853345086798e-05" rms="2.5696828961372375e-01" purity="5.2371644973754883e-01" nType="-99"/>
          <Node pos="r" depth="2" NCoef="0" IVar="-1" Cut="0.0000000000000000e+00" cType="1" res="-1.0438904911279678e-01" rms="-nan" purity="-8.2766681909561157e-02" nType="-99"/>
        </Node>
      </Node>
    </BinaryTree>
    <BinaryTree type="DecisionTree" boostWeight="1.0000000000000000e+00" itree="237">
      <Node pos="s" depth="0" NCoef="0" IVar="6" Cut="2.9142863750457764e+00" cType="1" res="-3.8293828256428242e-03" rms="2.4995127320289612e-01" purity="4.9963027238845825e-01" nType="0">
        <Node pos="l" depth="1" NCoef="0" IVar="57" Cut="-2.2815136238932610e-02" cType="1" res="-1.2985141947865486e-02" rms="2.3841667175292969e-01" purity="4.5693153142929077e-01" nType="0">
          <Node pos="l" depth="2" NCoef="0" IVar="-1" Cut="0.0000000000000000e+00" cType="1" res="-3.3580452203750610e-02" rms="-nan" purity="2.6338892057538033e-03" nType="-99"/>
          <Node pos="r" depth="2" NCoef="0" IVar="-1" Cut="0.0000000000000000e+00" cType="1" res="-2.4829083122313023e-04" rms="2.7275529503822327e-01" purity="5.7080566883087158e-01" nType="-99"/>
        </Node>
        <Node pos="r" depth="1" NCoef="0" IVar="36" Cut="3.2378485798835754e-01" cType="1" res="4.2160049080848694e-02" rms="2.9704341292381287e-01" purity="7.1410620212554932e-01" nType="0">
          <Node pos="l" depth="2" NCoef="0" IVar="-1" Cut="0.0000000000000000e+00" cType="1" res="4.4794112443923950e-02" rms="4.1774973273277283e-01" purity="3.7318688631057739e-01" nType="-99"/>
          <Node pos="r" depth="2" NCoef="0" IVar="-1" Cut="0.0000000000000000e+00" cType="1" res="3.4314640797674656e-03" rms="2.5326892733573914e-01" purity="7.8787916898727417e-01" nType="-99"/>
        </Node>
      </Node>
    </BinaryTree>
    <BinaryTree type="DecisionTree" boostWeight="1.0000000000000000e+00" itree="238">
      <Node pos="s" depth="0" NCoef="0" IVar="83" Cut="-2.5501102209091187e-01" cType="1" res="1.0590446181595325e-03" rms="2.5839802622795105e-01" purity="4.9250560998916626e-01" nType="0">
        <Node pos="l" depth="1" NCoef="0" IVar="18" Cut="-1.1280151605606079e+00" cType="1" res="5.3775284439325333e-02" rms="3.1203189492225647e-01" purity="6.2513858079910278e-01" nType="0">
          <Node pos="l" depth="2" NCoef="0" IVar="-1" Cut="0.0000000000000000e+00" cType="1" res="8.4107825532555580e-03" rms="2.7452906966209412e-01" purity="6.4165663719177246e-01" nType="-99"/>
          <Node pos="r" depth="2" NCoef="0" IVar="-1" Cut="0.0000000000000000e+00" cType="1" res="5.7468049228191376e-02" rms="4.4851002097129822e-01" purity="5.3011417388916016e-01" nType="-99"/>
        </Node>
        <Node pos="r" depth="1" NCoef="0" IVar="41" Cut="1.8710222840309143e-01" cType="1" res="-7.9549727961421013e-03" rms="2.4694478511810303e-01" purity="4.6982654929161072e-01" nType="0">
          <Node pos="l" depth="2" NCoef="0" IVar="-1" Cut="0.0000000000000000e+00" cType="1" res="8.1748381489887834e-05" rms="2.5908371806144714e-01" purity="4.9784237146377563e-01" nType="-99"/>
          <Node pos="r" depth="2" NCoef="0" IVar="-1" Cut="0.0000000000000000e+00" cType="1" res="-1.5997448936104774e-02" rms="1.6379085183143616e-01" purity="3.2405322790145874e-01" nType="-99"/>
        </Node>
      </Node>
    </BinaryTree>
    <BinaryTree type="DecisionTree" boostWeight="1.0000000000000000e+00" itree="239">
      <Node pos="s" depth="0" NCoef="0" IVar="42" Cut="-6.1187225580215454e-01" cType="1" res="5.7023391127586365e-03" rms="2.6012113690376282e-01" purity="5.0157094001770020e-01" nType="0">
        <Node pos="l" depth="1" NCoef="0" IVar="-1" Cut="0.0000000000000000e+00" cType="1" res="3.9138261228799820e-02" rms="3.9316058158874512e-01" purity="5.2564167976379395e-01" nType="-99"/>
        <Node pos="r" depth="1" NCoef="0" IVar="5" Cut="-1.1951818317174911e-01" cType="1" res="1.5963020268827677e-03" rms="2.5326505303382874e-01" purity="5.0073522329330444e-01" nType="0">
          <Node pos="l" depth="2" NCoef="0" IVar="-1" Cut="0.0000000000000000e+00" cType="1" res="-3.4133933484554291e-02" rms="-nan" purity="1.2401630729436874e-01" nType="-99"/>
          <Node pos="r" depth="2" NCoef="0" IVar="-1" Cut="0.0000000000000000e+00" cType="1" res="1.6259044641628861e-03" rms="2.6102524995803833e-01" purity="5.1925331354141235e-01" nType="-99"/>
        </Node>
      </Node>
    </BinaryTree>
    <BinaryTree type="DecisionTree" boostWeight="1.0000000000000000e+00" itree="240">
      <Node pos="s" depth="0" NCoef="0" IVar="37" Cut="1.4039924144744873e+00" cType="1" res="-2.5454172282479703e-04" rms="2.5555154681205750e-01" purity="4.9742993712425232e-01" nType="0">
        <Node pos="l" depth="1" NCoef="0" IVar="4" Cut="3.9436297416687012e+00" cType="1" res="2.9681550804525614e-03" rms="2.5894129276275635e-01" purity="5.0528836250305176e-01" nType="0">
          <Node pos="l" depth="2" NCoef="0" IVar="-1" Cut="0.0000000000000000e+00" cType="1" res="-1.2978165177628398e-03" rms="2.5321990251541138e-01" purity="4.9247482419013977e-01" nType="-99"/>
          <Node pos="r" depth="2" NCoef="0" IVar="-1" Cut="0.0000000000000000e+00" cType="1" res="1.4763179235160351e-02" rms="2.8603884577751160e-01" purity="5.7978683710098267e-01" nType="-99"/>
        </Node>
        <Node pos="r" depth="1" NCoef="0" IVar="-1" Cut="0.0000000000000000e+00" cType="1" res="-4.4272731989622116e-02" rms="-nan" purity="1.4038702845573425e-01" nType="-99"/>
      </Node>
    </BinaryTree>
    <BinaryTree type="DecisionTree" boostWeight="1.0000000000000000e+00" itree="241">
      <Node pos="s" depth="0" NCoef="0" IVar="34" Cut="-9.9153566360473633e-01" cType="1" res="3.5741906613111496e-03" rms="2.5892767310142517e-01" purity="5.0530594587326050e-01" nType="0">
        <Node pos="l" depth="1" NCoef="0" IVar="77" Cut="3.5830914974212646e-01" cType="1" res="-4.2764622718095779e-02" rms="1.4986793696880341e-01" purity="2.1740810573101044e-01" nType="0">
          <Node pos="l" depth="2" NCoef="0" IVar="-1" Cut="0.0000000000000000e+00" cType="1" res="-2.3558259010314941e-02" rms="-nan" purity="2.2028794884681702e-01" nType="-99"/>
          <Node pos="r" depth="2" NCoef="0" IVar="-1" Cut="0.0000000000000000e+00" cType="1" res="3.6019604653120041e-02" rms="3.1318175792694092e-01" purity="2.0574189722537994e-01" nType="-99"/>
        </Node>
        <Node pos="r" depth="1" NCoef="0" IVar="13" Cut="-4.1238230466842651e-01" cType="1" res="1.3845999725162983e-02" rms="2.7630540728569031e-01" purity="5.6912356615066528e-01" nType="0">
          <Node pos="l" depth="2" NCoef="0" IVar="-1" Cut="0.0000000000000000e+00" cType="1" res="2.9470961540937424e-02" rms="2.8178781270980835e-01" purity="2.8536471724510193e-01" nType="-99"/>
          <Node pos="r" depth="2" NCoef="0" IVar="-1" Cut="0.0000000000000000e+00" cType="1" res="9.7587908385321498e-04" rms="2.7408090233802795e-01" purity="6.1903429031372070e-01" nType="-99"/>
        </Node>
      </Node>
    </BinaryTree>
    <BinaryTree type="DecisionTree" boostWeight="1.0000000000000000e+00" itree="242">
      <Node pos="s" depth="0" NCoef="0" IVar="17" Cut="-9.5093524456024170e-01" cType="1" res="-5.4565217578783631e-04" rms="2.5853466987609863e-01" purity="5.0331389904022217e-01" nType="0">
        <Node pos="l" depth="1" NCoef="0" IVar="76" Cut="-6.8511855602264404e-01" cType="1" res="-4.6184118837118149e-02" rms="-nan" purity="-1.7516795545816422e-02" nType="-99"/>
        <Node pos="r" depth="1" NCoef="0" IVar="13" Cut="2.1345223486423492e-01" cType="1" res="7.6976362615823746e-03" rms="2.8800514340400696e-01" purity="5.9622234106063843e-01" nType="0">
          <Node pos="l" depth="2" NCoef="0" IVar="-1" Cut="0.0000000000000000e+00" cType="1" res="2.3406775668263435e-02" rms="3.3968883752822876e-01" purity="4.9520877003669739e-01" nType="-99"/>
          <Node pos="r" depth="2" NCoef="0" IVar="-1" Cut="0.0000000000000000e+00" cType="1" res="6.7736276832874864e-05" rms="2.8161352872848511e-01" purity="6.0551869869232178e-01" nType="-99"/>
        </Node>
      </Node>
    </BinaryTree>
    <BinaryTree type="DecisionTree" boostWeight="1.0000000000000000e+00" itree="243">
      <Node pos="s" depth="0" NCoef="0" IVar="2" Cut="1.6693823337554932e+00" cType="1" res="-3.9341854862868786e-03" rms="2.5188913941383362e-01" purity="4.9585193395614624e-01" nType="0">
        <Node pos="l" depth="1" NCoef="0" IVar="31" Cut="3.4882593154907227e+00" cType="1" res="-5.6280292570590973e-02" rms="1.2514945864677429e-01" purity="8.7648555636405945e-02" nType="0">
          <Node pos="l" depth="2" NCoef="0" IVar="-1" Cut="0.0000000000000000e+00" cType="1" res="-3.2661300152540207e-02" rms="-nan" purity="6.0661677271127701e-02" nType="-99"/>
          <Node pos="r" depth="2" NCoef="0" IVar="-1" Cut="0.0000000000000000e+00" cType="1" res="2.4827580899000168e-02" rms="3.3947893977165222e-01" purity="2.1814405918121338e-01" nType="-99"/>
        </Node>
        <Node pos="r" depth="1" NCoef="0" IVar="31" Cut="3.4179768562316895e+00" cType="1" res="4.0549486875534058e-03" rms="2.6506459712982178e-01" purity="5.5815249681472778e-01" nType="0">
          <Node pos="l" depth="2" NCoef="0" IVar="-1" Cut="0.0000000000000000e+00" cType="1" res="2.5823991745710373e-03" rms="2.7233153581619263e-01" purity="5.5476254224777222e-01" nType="-99"/>
          <Node pos="r" depth="2" NCoef="0" IVar="-1" Cut="0.0000000000000000e+00" cType="1" res="-2.3324511945247650e-02" rms="8.5461825132369995e-02" purity="6.0724228620529175e-01" nType="-99"/>
        </Node>
      </Node>
    </BinaryTree>
    <BinaryTree type="DecisionTree" boostWeight="1.0000000000000000e+00" itree="244">
      <Node pos="s" depth="0" NCoef="0" IVar="6" Cut="1.5381274223327637e+00" cType="1" res="3.1332965008914471e-03" rms="2.5827217102050781e-01" purity="5.0672298669815063e-01" nType="0">
        <Node pos="l" depth="1" NCoef="0" IVar="3" Cut="5.3647198677062988e+00" cType="1" res="5.3695108741521835e-02" rms="3.1953671574592590e-01" purity="3.1319588422775269e-01" nType="0">
          <Node pos="l" depth="2" NCoef="0" IVar="-1" Cut="0.0000000000000000e+00" cType="1" res="9.1063454747200012e-03" rms="2.9613283276557922e-01" purity="3.1086409091949463e-01" nType="-99"/>
          <Node pos="r" depth="2" NCoef="0" IVar="-1" Cut="0.0000000000000000e+00" cType="1" res="8.0818377435207367e-02" rms="4.1469389200210571e-01" purity="3.2903492450714111e-01" nType="-99"/>
        </Node>
        <Node pos="r" depth="1" NCoef="0" IVar="17" Cut="-6.0282588005065918e-01" cType="1" res="-7.0354780182242393e-03" rms="2.4283249676227570e-01" purity="5.4564434289932251e-01" nType="0">
          <Node pos="l" depth="2" NCoef="0" IVar="-1" Cut="0.0000000000000000e+00" cType="1" res="-6.1581782996654510e-02" rms="-nan" purity="-3.2755210995674133e-02" nType="-99"/>
          <Node pos="r" depth="2" NCoef="0" IVar="-1" Cut="0.0000000000000000e+00" cType="1" res="7.0709345163777471e-04" rms="2.7524712681770325e-01" purity="6.4599770307540894e-01" nType="-99"/>
        </Node>
      </Node>
    </BinaryTree>
    <BinaryTree type="DecisionTree" boostWeight="1.0000000000000000e+00" itree="245">
      <Node pos="s" depth="0" NCoef="0" IVar="34" Cut="-6.6527351737022400e-02" cType="1" res="6.7194346338510513e-03" rms="2.6239025592803955e-01" purity="5.0436502695083618e-01" nType="0">
        <Node pos="l" depth="1" NCoef="0" IVar="52" Cut="3.0932354927062988e+00" cType="1" res="4.5929417014122009e-02" rms="2.9240679740905762e-01" purity="3.0738189816474915e-01" nType="0">
          <Node pos="l" depth="2" NCoef="0" IVar="-1" Cut="0.0000000000000000e+00" cType="1" res="2.6282902806997299e-02" rms="3.3174359798431396e-01" purity="2.7842071652412415e-01" nType="-99"/>
          <Node pos="r" depth="2" NCoef="0" IVar="-1" Cut="0.0000000000000000e+00" cType="1" res="-1.8100951565429568e-03" rms="2.1319405734539032e-01" purity="3.4924066066741943e-01" nType="-99"/>
        </Node>
        <Node pos="r" depth="1" NCoef="0" IVar="67" Cut="9.3390202522277832e-01" cType="1" res="-5.5954437702894211e-03" rms="2.5096574425697327e-01" purity="5.6623256206512451e-01" nType="0">
          <Node pos="l" depth="2" NCoef="0" IVar="-1" Cut="0.0000000000000000e+00" cType="1" res="6.1541642062366009e-03" rms="2.7067181468009949e-01" purity="6.4875108003616333e-01" nType="-99"/>
          <Node pos="r" depth="2" NCoef="0" IVar="-1" Cut="0.0000000000000000e+00" cType="1" res="-8.6284708231687546e-03" rms="2.3092888295650482e-01" purity="4.9870011210441589e-01" nType="-99"/>
        </Node>
      </Node>
    </BinaryTree>
    <BinaryTree type="DecisionTree" boostWeight="1.0000000000000000e+00" itree="246">
      <Node pos="s" depth="0" NCoef="0" IVar="62" Cut="8.8886022567749023e-03" cType="1" res="7.3153977282345295e-03" rms="2.5642478466033936e-01" purity="5.0709915161132812e-01" nType="0">
        <Node pos="l" depth="1" NCoef="0" IVar="15" Cut="-7.9674774408340454e-01" cType="1" res="2.4956807494163513e-02" rms="2.7472656965255737e-01" purity="5.6649094820022583e-01" nType="0">
          <Node pos="l" depth="2" NCoef="0" IVar="-1" Cut="0.0000000000000000e+00" cType="1" res="3.2021488994359970e-02" rms="3.0499944090843201e-01" purity="3.4411114454269409e-01" nType="-99"/>
          <Node pos="r" depth="2" NCoef="0" IVar="-1" Cut="0.0000000000000000e+00" cType="1" res="2.3020240478217602e-03" rms="2.6259511709213257e-01" purity="6.3536822795867920e-01" nType="-99"/>
        </Node>
        <Node pos="r" depth="1" NCoef="0" IVar="20" Cut="-3.3762681484222412e-01" cType="1" res="-1.4908064156770706e-02" rms="2.2939458489418030e-01" purity="4.3228140473365784e-01" nType="0">
          <Node pos="l" depth="2" NCoef="0" IVar="-1" Cut="0.0000000000000000e+00" cType="1" res="-3.6032784730195999e-02" rms="-nan" purity="4.0570226311683655e-01" nType="-99"/>
          <Node pos="r" depth="2" NCoef="0" IVar="-1" Cut="0.0000000000000000e+00" cType="1" res="-1.9745933823287487e-03" rms="2.4203571677207947e-01" purity="4.3427351117134094e-01" nType="-99"/>
        </Node>
      </Node>
    </BinaryTree>
    <BinaryTree type="DecisionTree" boostWeight="1.0000000000000000e+00" itree="247">
      <Node pos="s" depth="0" NCoef="0" IVar="15" Cut="1.5220671892166138e+00" cType="1" res="1.4564145822077990e-03" rms="2.6043376326560974e-01" purity="5.0031328201293945e-01" nType="0">
        <Node pos="l" depth="1" NCoef="0" IVar="36" Cut="-1.3765091896057129e+00" cType="1" res="1.1047000996768475e-02" rms="2.5834238529205322e-01" purity="4.9027231335639954e-01" nType="0">
          <Node pos="l" depth="2" NCoef="0" IVar="-1" Cut="0.0000000000000000e+00" cType="1" res="-3.5787623375654221e-02" rms="-nan" purity="9.7341689979657531e-04" nType="-99"/>
          <Node pos="r" depth="2" NCoef="0" IVar="-1" Cut="0.0000000000000000e+00" cType="1" res="5.2067185752093792e-03" rms="2.7452701330184937e-01" purity="5.3750741481781006e-01" nType="-99"/>
        </Node>
        <Node pos="r" depth="1" NCoef="0" IVar="3" Cut="4.6963438987731934e+00" cType="1" res="-4.4963765889406204e-02" rms="2.6547521352767944e-01" purity="5.4891341924667358e-01" nType="0">
          <Node pos="l" depth="2" NCoef="0" IVar="-1" Cut="0.0000000000000000e+00" cType="1" res="-2.8845600318163633e-03" rms="2.9441934823989868e-01" purity="6.1255615949630737e-01" nType="-99"/>
          <Node pos="r" depth="2" NCoef="0" IVar="-1" Cut="0.0000000000000000e+00" cType="1" res="-2.9118785634636879e-02" rms="1.7528672516345978e-01" purity="4.1811969876289368e-01" nType="-99"/>
        </Node>
      </Node>
    </BinaryTree>
    <BinaryTree type="DecisionTree" boostWeight="1.0000000000000000e+00" itree="248">
      <Node pos="s" depth="0" NCoef="0" IVar="88" Cut="1.5367943048477173e+00" cType="1" res="1.0174514027312398e-03" rms="2.6011648774147034e-01" purity="4.9763298034667969e-01" nType="0">
        <Node pos="l" depth="1" NCoef="0" IVar="2" Cut="3.2774379253387451e+00" cType="1" res="-2.1658171899616718e-03" rms="2.5584724545478821e-01" purity="5.0501269102096558e-01" nType="0">
          <Node pos="l" depth="2" NCoef="0" IVar="-1" Cut="0.0000000000000000e+00" cType="1" res="-2.6400708593428135e-03" rms="2.5066509842872620e-01" purity="4.6812126040458679e-01" nType="-99"/>
          <Node pos="r" depth="2" NCoef="0" IVar="-1" Cut="0.0000000000000000e+00" cType="1" res="1.6440773382782936e-02" rms="2.9004803299903870e-01" purity="8.2417243719100952e-01" nType="-99"/>
        </Node>
        <Node pos="r" depth="1" NCoef="0" IVar="-1" Cut="0.0000000000000000e+00" cType="1" res="8.2242548465728760e-02" rms="3.6849039793014526e-01" purity="2.2011943161487579e-01" nType="-99"/>
      </Node>
    </BinaryTree>
    <BinaryTree type="DecisionTree" boostWeight="1.0000000000000000e+00" itree="249">
      <Node pos="s" depth="0" NCoef="0" IVar="2" Cut="3.0070421695709229e+00" cType="1" res="2.9883272945880890e-03" rms="2.5780421495437622e-01" purity="4.9857735633850098e-01" nType="0">
        <Node pos="l" depth="1" NCoef="0" IVar="1" Cut="3.2725021839141846e+00" cType="1" res="-6.7604375071823597e-03" rms="2.4872274696826935e-01" purity="4.3516427278518677e-01" nType="0">
          <Node pos="l" depth="2" NCoef="0" IVar="-1" Cut="0.0000000000000000e+00" cType="1" res="1.3668002793565392e-03" rms="2.6373374462127686e-01" purity="4.4829875230789185e-01" nType="-99"/>
          <Node pos="r" depth="2" NCoef="0" IVar="-1" Cut="0.0000000000000000e+00" cType="1" res="-4.3035682290792465e-02" rms="-nan" purity="2.9686051607131958e-01" nType="-99"/>
        </Node>
        <Node pos="r" depth="1" NCoef="0" IVar="57" Cut="1.2147698402404785e+00" cType="1" res="4.4532023370265961e-02" rms="2.8971499204635620e-01" purity="7.6880776882171631e-01" nType="0">
          <Node pos="l" depth="2" NCoef="0" IVar="-1" Cut="0.0000000000000000e+00" cType="1" res="3.2781064510345459e-02" rms="3.9403933286666870e-01" purity="4.2352473735809326e-01" nType="-99"/>
          <Node pos="r" depth="2" NCoef="0" IVar="-1" Cut="0.0000000000000000e+00" cType="1" res="6.6402354277670383e-03" rms="2.5656408071517944e-01" purity="8.4240019321441650e-01" nType="-99"/>
        </Node>
      </Node>
    </BinaryTree>
    <BinaryTree type="DecisionTree" boostWeight="1.0000000000000000e+00" itree="250">
      <Node pos="s" depth="0" NCoef="0" IVar="8" Cut="-1.1634787917137146e-01" cType="1" res="-1.3722728181164712e-04" rms="2.5472232699394226e-01" purity="5.0062561035156250e-01" nType="0">
        <Node pos="l" depth="1" NCoef="0" IVar="56" Cut="1.4837484359741211e+00" cType="1" res="3.4017125144600868e-03" rms="2.5925406813621521e-01" purity="5.1000148057937622e-01" nType="0">
          <Node pos="l" depth="2" NCoef="0" IVar="-1" Cut="0.0000000000000000e+00" cType="1" res="1.7858416540548205e-03" rms="2.6128628849983215e-01" purity="5.1959502696990967e-01" nType="-99"/>
          <Node pos="r" depth="2" NCoef="0" IVar="-1" Cut="0.0000000000000000e+00" cType="1" res="-3.5170678049325943e-02" rms="8.6708694696426392e-02" purity="1.0162659734487534e-01" nType="-99"/>
        </Node>
        <Node pos="r" depth="1" NCoef="0" IVar="-1" Cut="0.0000000000000000e+00" cType="1" res="-4.7445680946111679e-02" rms="-nan" purity="1.0836903750896454e-01" nType="-99"/>
      </Node>
    </BinaryTree>
    <BinaryTree type="DecisionTree" boostWeight="1.0000000000000000e+00" itree="251">
      <Node pos="s" depth="0" NCoef="0" IVar="81" Cut="-1.7856699228286743e+00" cType="1" res="3.7309338804334402e-03" rms="2.5453358888626099e-01" purity="5.0359952449798584e-01" nType="0">
        <Node pos="l" depth="1" NCoef="0" IVar="2" Cut="2.0999975204467773e+00" cType="1" res="2.0529987290501595e-02" rms="2.7971684932708740e-01" purity="6.0378342866897583e-01" nType="0">
          <Node pos="l" depth="2" NCoef="0" IVar="-1" Cut="0.0000000000000000e+00" cType="1" res="-4.8445854336023331e-03" rms="2.3825752735137939e-01" purity="3.3257532119750977e-01" nType="-99"/>
          <Node pos="r" depth="2" NCoef="0" IVar="-1" Cut="0.0000000000000000e+00" cType="1" res="9.3642184510827065e-03" rms="2.9185006022453308e-01" purity="7.0016670227050781e-01" nType="-99"/>
        </Node>
        <Node pos="r" depth="1" NCoef="0" IVar="5" Cut="9.2858206480741501e-03" cType="1" res="-1.9544880837202072e-02" rms="2.1263402700424194e-01" purity="3.6479029059410095e-01" nType="0">
          <Node pos="l" depth="2" NCoef="0" IVar="-1" Cut="0.0000000000000000e+00" cType="1" res="-3.4277971833944321e-02" rms="-nan" purity="1.8056453764438629e-01" nType="-99"/>
          <Node pos="r" depth="2" NCoef="0" IVar="-1" Cut="0.0000000000000000e+00" cType="1" res="-2.4425098672509193e-03" rms="2.3613214492797852e-01" purity="3.9678475260734558e-01" nType="-99"/>
        </Node>
      </Node>
    </BinaryTree>
    <BinaryTree type="DecisionTree" boostWeight="1.0000000000000000e+00" itree="252">
      <Node pos="s" depth="0" NCoef="0" IVar="5" Cut="4.5353963971138000e-01" cType="1" res="2.9130093753337860e-03" rms="2.5488349795341492e-01" purity="5.0241297483444214e-01" nType="0">
        <Node pos="l" depth="1" NCoef="0" IVar="21" Cut="-6.1186450719833374e-01" cType="1" res="1.0357815772294998e-02" rms="2.6242902874946594e-01" purity="5.3030109405517578e-01" nType="0">
          <Node pos="l" depth="2" NCoef="0" IVar="-1" Cut="0.0000000000000000e+00" cType="1" res="3.5386271774768829e-02" rms="3.4014096856117249e-01" purity="5.9440302848815918e-01" nType="-99"/>
          <Node pos="r" depth="2" NCoef="0" IVar="-1" Cut="0.0000000000000000e+00" cType="1" res="2.0558778196573257e-03" rms="2.5897696614265442e-01" purity="5.2829825878143311e-01" nType="-99"/>
        </Node>
        <Node pos="r" depth="1" NCoef="0" IVar="57" Cut="1.3684318065643311e+00" cType="1" res="-7.4327878654003143e-02" rms="1.3388898968696594e-01" purity="2.1306976675987244e-01" nType="0">
          <Node pos="l" depth="2" NCoef="0" IVar="-1" Cut="0.0000000000000000e+00" cType="1" res="-1.2029716372489929e-01" rms="-nan" purity="-1.2646467983722687e-01" nType="-99"/>
          <Node pos="r" depth="2" NCoef="0" IVar="-1" Cut="0.0000000000000000e+00" cType="1" res="-3.0719449277967215e-03" rms="3.2797044515609741e-01" purity="4.1417992115020752e-01" nType="-99"/>
        </Node>
      </Node>
    </BinaryTree>
    <BinaryTree type="DecisionTree" boostWeight="1.0000000000000000e+00" itree="253">
      <Node pos="s" depth="0" NCoef="0" IVar="70" Cut="-4.2121887207031250e-01" cType="1" res="-4.9269283190369606e-03" rms="2.5226998329162598e-01" purity="4.9321377277374268e-01" nType="0">
        <Node pos="l" depth="1" NCoef="0" IVar="6" Cut="1.4385957717895508e+00" cType="1" res="-1.2912492966279387e-03" rms="2.5679650902748108e-01" purity="4.9762415885925293e-01" nType="0">
          <Node pos="l" depth="2" NCoef="0" IVar="-1" Cut="0.0000000000000000e+00" cType="1" res="-1.6594888642430305e-02" rms="1.5874613821506500e-01" purity="2.0146059989929199e-01" nType="-99"/>
          <Node pos="r" depth="2" NCoef="0" IVar="-1" Cut="0.0000000000000000e+00" cType="1" res="1.5031013172119856e-03" rms="2.6662391424179077e-01" purity="5.3756004571914673e-01" nType="-99"/>
        </Node>
        <Node pos="r" depth="1" NCoef="0" IVar="-1" Cut="0.0000000000000000e+00" cType="1" res="-2.9731852933764458e-02" rms="-nan" purity="3.7610748410224915e-01" nType="-99"/>
      </Node>
    </BinaryTree>
    <BinaryTree type="DecisionTree" boostWeight="1.0000000000000000e+00" itree="254">
      <Node pos="s" depth="0" NCoef="0" IVar="10" Cut="2.7857058048248291e+00" cType="1" res="3.8518805522471666e-03" rms="2.5988236069679260e-01" purity="4.9994379281997681e-01" nType="0">
        <Node pos="l" depth="1" NCoef="0" IVar="2" Cut="2.3711240291595459e+00" cType="1" res="8.2342728972434998e-02" rms="3.4257739782333374e-01" purity="2.4618609249591827e-01" nType="0">
          <Node pos="l" depth="2" NCoef="0" IVar="-1" Cut="0.0000000000000000e+00" cType="1" res="-1.1377095244824886e-02" rms="1.9882351160049438e-01" purity="6.2751881778240204e-02" nType="-99"/>
          <Node pos="r" depth="2" NCoef="0" IVar="-1" Cut="0.0000000000000000e+00" cType="1" res="3.9957139641046524e-02" rms="4.0794980525970459e-01" purity="4.0149727463722229e-01" nType="-99"/>
        </Node>
        <Node pos="r" depth="1" NCoef="0" IVar="17" Cut="1.2150785923004150e+00" cType="1" res="-4.0360327693633735e-04" rms="2.5394022464752197e-01" purity="5.1370161771774292e-01" nType="0">
          <Node pos="l" depth="2" NCoef="0" IVar="-1" Cut="0.0000000000000000e+00" cType="1" res="-2.6978490874171257e-02" rms="-nan" purity="5.4840515367686749e-03" nType="-99"/>
          <Node pos="r" depth="2" NCoef="0" IVar="-1" Cut="0.0000000000000000e+00" cType="1" res="2.1855537779629230e-03" rms="2.9001492261886597e-01" purity="6.5749055147171021e-01" nType="-99"/>
        </Node>
      </Node>
    </BinaryTree>
    <BinaryTree type="DecisionTree" boostWeight="1.0000000000000000e+00" itree="255">
      <Node pos="s" depth="0" NCoef="0" IVar="82" Cut="1.5961631536483765e+00" cType="1" res="4.6858834102749825e-03" rms="2.6696613430976868e-01" purity="4.9061977863311768e-01" nType="0">
        <Node pos="l" depth="1" NCoef="0" IVar="14" Cut="1.3670064210891724e+00" cType="1" res="8.4819048643112183e-03" rms="2.7261096239089966e-01" purity="5.0300085544586182e-01" nType="0">
          <Node pos="l" depth="2" NCoef="0" IVar="-1" Cut="0.0000000000000000e+00" cType="1" res="3.5937107168138027e-03" rms="2.7625715732574463e-01" purity="5.0918585062026978e-01" nType="-99"/>
          <Node pos="r" depth="2" NCoef="0" IVar="-1" Cut="0.0000000000000000e+00" cType="1" res="-2.9420252889394760e-02" rms="-nan" purity="3.0951961874961853e-01" nType="-99"/>
        </Node>
        <Node pos="r" depth="1" NCoef="0" IVar="-1" Cut="0.0000000000000000e+00" cType="1" res="-4.2933758348226547e-02" rms="-nan" purity="1.2032151222229004e-01" nType="-99"/>
      </Node>
    </BinaryTree>
    <BinaryTree type="DecisionTree" boostWeight="1.0000000000000000e+00" itree="256">
      <Node pos="s" depth="0" NCoef="0" IVar="46" Cut="9.2737084627151489e-01" cType="1" res="5.8415280655026436e-03" rms="2.6233270764350891e-01" purity="5.0484591722488403e-01" nType="0">
        <Node pos="l" depth="1" NCoef="0" IVar="13" Cut="1.0150949954986572e+00" cType="1" res="2.6063643395900726e-02" rms="2.9841306805610657e-01" purity="5.7513505220413208e-01" nType="0">
          <Node pos="l" depth="2" NCoef="0" IVar="-1" Cut="0.0000000000000000e+00" cType="1" res="4.7759551554918289e-02" rms="3.4008967876434326e-01" purity="3.0796834826469421e-01" nType="-99"/>
          <Node pos="r" depth="2" NCoef="0" IVar="-1" Cut="0.0000000000000000e+00" cType="1" res="1.1645226040855050e-03" rms="2.8223732113838196e-01" purity="6.4773494005203247e-01" nType="-99"/>
        </Node>
        <Node pos="r" depth="1" NCoef="0" IVar="20" Cut="-4.0197777748107910e-01" cType="1" res="-8.4016416221857071e-03" rms="2.3254565894603729e-01" purity="4.5533868670463562e-01" nType="0">
          <Node pos="l" depth="2" NCoef="0" IVar="-1" Cut="0.0000000000000000e+00" cType="1" res="2.8436202555894852e-02" rms="3.5850217938423157e-01" purity="5.8052456378936768e-01" nType="-99"/>
          <Node pos="r" depth="2" NCoef="0" IVar="-1" Cut="0.0000000000000000e+00" cType="1" res="-4.5502926222980022e-03" rms="2.1982315182685852e-01" purity="4.4687613844871521e-01" nType="-99"/>
        </Node>
      </Node>
    </BinaryTree>
    <BinaryTree type="DecisionTree" boostWeight="1.0000000000000000e+00" itree="257">
      <Node pos="s" depth="0" NCoef="0" IVar="46" Cut="1.5748832225799561e+00" cType="1" res="-2.1293454337865114e-03" rms="2.4723103642463684e-01" purity="4.9929645657539368e-01" nType="0">
        <Node pos="l" depth="1" NCoef="0" IVar="3" Cut="5.4546833038330078e+00" cType="1" res="-5.2382093854248524e-03" rms="2.4249897897243500e-01" purity="5.0540071725845337e-01" nType="0">
          <Node pos="l" depth="2" NCoef="0" IVar="-1" Cut="0.0000000000000000e+00" cType="1" res="-4.3057528091594577e-04" rms="2.5047865509986877e-01" purity="5.1726132631301880e-01" nType="-99"/>
          <Node pos="r" depth="2" NCoef="0" IVar="-1" Cut="0.0000000000000000e+00" cType="1" res="-4.5624494552612305e-02" rms="-nan" purity="2.1561153233051300e-02" nType="-99"/>
        </Node>
        <Node pos="r" depth="1" NCoef="0" IVar="-1" Cut="0.0000000000000000e+00" cType="1" res="6.5127007663249969e-02" rms="3.7592306733131409e-01" purity="2.4161824584007263e-01" nType="-99"/>
      </Node>
    </BinaryTree>
    <BinaryTree type="DecisionTree" boostWeight="1.0000000000000000e+00" itree="258">
      <Node pos="s" depth="0" NCoef="0" IVar="0" Cut="1.4166302680969238e+00" cType="1" res="-8.4588872268795967e-03" rms="2.4626235663890839e-01" purity="4.8417481780052185e-01" nType="0">
        <Node pos="l" depth="1" NCoef="0" IVar="3" Cut="4.8609914779663086e+00" cType="1" res="-4.3569630943238735e-03" rms="2.5374689698219299e-01" purity="4.9660497903823853e-01" nType="0">
          <Node pos="l" depth="2" NCoef="0" IVar="-1" Cut="0.0000000000000000e+00" cType="1" res="-5.9124547988176346e-03" rms="2.4450810253620148e-01" purity="4.4099268317222595e-01" nType="-99"/>
          <Node pos="r" depth="2" NCoef="0" IVar="-1" Cut="0.0000000000000000e+00" cType="1" res="7.0607522502541542e-03" rms="2.6614645123481750e-01" purity="5.8867228031158447e-01" nType="-99"/>
        </Node>
        <Node pos="r" depth="1" NCoef="0" IVar="-1" Cut="0.0000000000000000e+00" cType="1" res="-4.6603739261627197e-02" rms="-nan" purity="1.3970191776752472e-01" nType="-99"/>
      </Node>
    </BinaryTree>
    <BinaryTree type="DecisionTree" boostWeight="1.0000000000000000e+00" itree="259">
      <Node pos="s" depth="0" NCoef="0" IVar="13" Cut="-1.4926724433898926e+00" cType="1" res="-2.6662126183509827e-03" rms="2.5160422921180725e-01" purity="4.9647819995880127e-01" nType="0">
        <Node pos="l" depth="1" NCoef="0" IVar="-1" Cut="0.0000000000000000e+00" cType="1" res="-3.4309051930904388e-02" rms="-nan" purity="2.0265306532382965e-01" nType="-99"/>
        <Node pos="r" depth="1" NCoef="0" IVar="3" Cut="5.4367628097534180e+00" cType="1" res="-2.5006002397276461e-04" rms="2.5785341858863831e-01" purity="5.0429350137710571e-01" nType="0">
          <Node pos="l" depth="2" NCoef="0" IVar="-1" Cut="0.0000000000000000e+00" cType="1" res="-9.3106331769376993e-04" rms="2.5533390045166016e-01" purity="5.0996297597885132e-01" nType="-99"/>
          <Node pos="r" depth="2" NCoef="0" IVar="-1" Cut="0.0000000000000000e+00" cType="1" res="2.9752155765891075e-02" rms="3.1853166222572327e-01" purity="3.0401125550270081e-01" nType="-99"/>
        </Node>
      </Node>
    </BinaryTree>
    <BinaryTree type="DecisionTree" boostWeight="1.0000000000000000e+00" itree="260">
      <Node pos="s" depth="0" NCoef="0" IVar="69" Cut="9.8932635784149170e-01" cType="1" res="3.3773989416658878e-03" rms="2.5401097536087036e-01" purity="5.0361508131027222e-01" nType="0">
        <Node pos="l" depth="1" NCoef="0" IVar="56" Cut="-9.9013555049896240e-01" cType="1" res="-4.0969073772430420e-02" rms="1.7802397906780243e-01" purity="2.1689866483211517e-01" nType="0">
          <Node pos="l" depth="2" NCoef="0" IVar="-1" Cut="0.0000000000000000e+00" cType="1" res="2.4069640785455704e-03" rms="2.6373350620269775e-01" purity="2.6692074537277222e-01" nType="-99"/>
          <Node pos="r" depth="2" NCoef="0" IVar="-1" Cut="0.0000000000000000e+00" cType="1" res="-3.8364790380001068e-02" rms="-nan" purity="1.4833059906959534e-01" nType="-99"/>
        </Node>
        <Node pos="r" depth="1" NCoef="0" IVar="43" Cut="1.2345679104328156e-02" cType="1" res="1.1463822796940804e-02" rms="2.6473352313041687e-01" purity="5.5589681863784790e-01" nType="0">
          <Node pos="l" depth="2" NCoef="0" IVar="-1" Cut="0.0000000000000000e+00" cType="1" res="3.1833961606025696e-02" rms="3.5760140419006348e-01" purity="4.2895594239234924e-01" nType="-99"/>
          <Node pos="r" depth="2" NCoef="0" IVar="-1" Cut="0.0000000000000000e+00" cType="1" res="2.1023715380579233e-03" rms="2.5948411226272583e-01" purity="5.6092476844787598e-01" nType="-99"/>
        </Node>
      </Node>
    </BinaryTree>
    <BinaryTree type="DecisionTree" boostWeight="1.0000000000000000e+00" itree="261">
      <Node pos="s" depth="0" NCoef="0" IVar="15" Cut="1.4834188222885132e+00" cType="1" res="6.9919996894896030e-03" rms="2.6146528124809265e-01" purity="5.0554233789443970e-01" nType="0">
        <Node pos="l" depth="1" NCoef="0" IVar="46" Cut="8.3671456575393677e-01" cType="1" res="2.1631440147757530e-02" rms="2.6078778505325317e-01" purity="4.5434391498565674e-01" nType="0">
          <Node pos="l" depth="2" NCoef="0" IVar="-1" Cut="0.0000000000000000e+00" cType="1" res="2.6163455098867416e-02" rms="3.4063190221786499e-01" purity="5.7076489925384521e-01" nType="-99"/>
          <Node pos="r" depth="2" NCoef="0" IVar="-1" Cut="0.0000000000000000e+00" cType="1" res="5.0273253582417965e-03" rms="2.5075328350067139e-01" purity="4.4327616691589355e-01" nType="-99"/>
        </Node>
        <Node pos="r" depth="1" NCoef="0" IVar="17" Cut="1.5256621837615967e+00" cType="1" res="-2.1459644660353661e-02" rms="2.6043376326560974e-01" purity="6.0504609346389771e-01" nType="0">
          <Node pos="l" depth="2" NCoef="0" IVar="-1" Cut="0.0000000000000000e+00" cType="1" res="-2.1088678389787674e-02" rms="1.9830323755741119e-01" purity="2.7107518911361694e-01" nType="-99"/>
          <Node pos="r" depth="2" NCoef="0" IVar="-1" Cut="0.0000000000000000e+00" cType="1" res="2.8932185377925634e-03" rms="2.8006553649902344e-01" purity="7.6869183778762817e-01" nType="-99"/>
        </Node>
      </Node>
    </BinaryTree>
    <BinaryTree type="DecisionTree" boostWeight="1.0000000000000000e+00" itree="262">
      <Node pos="s" depth="0" NCoef="0" IVar="15" Cut="1.4837456941604614e+00" cType="1" res="9.4187753275036812e-03" rms="2.6466456055641174e-01" purity="5.1127076148986816e-01" nType="0">
        <Node pos="l" depth="1" NCoef="0" IVar="56" Cut="1.4438022375106812e+00" cType="1" res="2.2865632548928261e-02" rms="2.6135259866714478e-01" purity="4.6088796854019165e-01" nType="0">
          <Node pos="l" depth="2" NCoef="0" IVar="-1" Cut="0.0000000000000000e+00" cType="1" res="5.5568106472492218e-03" rms="2.5149872899055481e-01" purity="4.6765759587287903e-01" nType="-99"/>
          <Node pos="r" depth="2" NCoef="0" IVar="-1" Cut="0.0000000000000000e+00" cType="1" res="5.9574387967586517e-02" rms="3.9807823300361633e-01" purity="3.1907948851585388e-01" nType="-99"/>
        </Node>
        <Node pos="r" depth="1" NCoef="0" IVar="17" Cut="1.4483780860900879e+00" cType="1" res="-1.6145180910825729e-02" rms="2.6900193095207214e-01" purity="6.0705393552780151e-01" nType="0">
          <Node pos="l" depth="2" NCoef="0" IVar="-1" Cut="0.0000000000000000e+00" cType="1" res="-1.0156144946813583e-01" rms="-nan" purity="-1.0443277657032013e-01" nType="-99"/>
          <Node pos="r" depth="2" NCoef="0" IVar="-1" Cut="0.0000000000000000e+00" cType="1" res="-1.5267124399542809e-03" rms="2.8891351819038391e-01" purity="6.5316289663314819e-01" nType="-99"/>
        </Node>
      </Node>
    </BinaryTree>
    <BinaryTree type="DecisionTree" boostWeight="1.0000000000000000e+00" itree="263">
      <Node pos="s" depth="0" NCoef="0" IVar="55" Cut="-1.2612235546112061e+00" cType="1" res="-5.6517380289733410e-03" rms="2.3940233886241913e-01" purity="5.0519359111785889e-01" nType="0">
        <Node pos="l" depth="1" NCoef="0" IVar="55" Cut="-1.4517395496368408e+00" cType="1" res="-1.9793637096881866e-02" rms="-nan" purity="2.2830334305763245e-01" nType="-99"/>
        <Node pos="r" depth="1" NCoef="0" IVar="60" Cut="-1.1060001850128174e+00" cType="1" res="2.4862939026206732e-03" rms="2.5937747955322266e-01" purity="5.5184167623519897e-01" nType="0">
          <Node pos="l" depth="2" NCoef="0" IVar="-1" Cut="0.0000000000000000e+00" cType="1" res="3.2352658454328775e-03" rms="2.6510703563690186e-01" purity="6.0965240001678467e-01" nType="-99"/>
          <Node pos="r" depth="2" NCoef="0" IVar="-1" Cut="0.0000000000000000e+00" cType="1" res="-1.4531430788338184e-02" rms="2.2081783413887024e-01" purity="2.4783566594123840e-01" nType="-99"/>
        </Node>
      </Node>
    </BinaryTree>
    <BinaryTree type="DecisionTree" boostWeight="1.0000000000000000e+00" itree="264">
      <Node pos="s" depth="0" NCoef="0" IVar="40" Cut="1.2450350522994995e+00" cType="1" res="-3.7093784194439650e-03" rms="2.5257873535156250e-01" purity="4.9676212668418884e-01" nType="0">
        <Node pos="l" depth="1" NCoef="0" IVar="17" Cut="-1.4538372755050659e+00" cType="1" res="2.3860270157456398e-03" rms="2.6328355073928833e-01" purity="5.2861201763153076e-01" nType="0">
          <Node pos="l" depth="2" NCoef="0" IVar="-1" Cut="0.0000000000000000e+00" cType="1" res="9.9711246788501740e-02" rms="3.2582333683967590e-01" purity="1.3709612190723419e-01" nType="-99"/>
          <Node pos="r" depth="2" NCoef="0" IVar="-1" Cut="0.0000000000000000e+00" cType="1" res="-1.9562094530556351e-04" rms="2.6056373119354248e-01" purity="5.4028743505477905e-01" nType="-99"/>
        </Node>
        <Node pos="r" depth="1" NCoef="0" IVar="82" Cut="9.5621454715728760e-01" cType="1" res="-5.6327611207962036e-02" rms="1.1417771130800247e-01" purity="2.2181957960128784e-01" nType="0">
          <Node pos="l" depth="2" NCoef="0" IVar="-1" Cut="0.0000000000000000e+00" cType="1" res="-4.5339865610003471e-03" rms="2.1549862623214722e-01" purity="2.9926344752311707e-01" nType="-99"/>
          <Node pos="r" depth="2" NCoef="0" IVar="-1" Cut="0.0000000000000000e+00" cType="1" res="-6.6597908735275269e-02" rms="-nan" purity="5.1817663013935089e-02" nType="-99"/>
        </Node>
      </Node>
    </BinaryTree>
    <BinaryTree type="DecisionTree" boostWeight="1.0000000000000000e+00" itree="265">
      <Node pos="s" depth="0" NCoef="0" IVar="57" Cut="-8.3498024940490723e-01" cType="1" res="-5.7491906918585300e-03" rms="2.4129450321197510e-01" purity="4.9746057391166687e-01" nType="0">
        <Node pos="l" depth="1" NCoef="0" IVar="55" Cut="1.1190215349197388e+00" cType="1" res="-3.4457542002201080e-02" rms="-nan" purity="1.6090002609416842e-03" nType="-99"/>
        <Node pos="r" depth="1" NCoef="0" IVar="13" Cut="8.6077314615249634e-01" cType="1" res="4.4675739482045174e-03" rms="2.6953157782554626e-01" purity="5.9146749973297119e-01" nType="0">
          <Node pos="l" depth="2" NCoef="0" IVar="-1" Cut="0.0000000000000000e+00" cType="1" res="1.7110235989093781e-02" rms="2.7456063032150269e-01" purity="2.9521405696868896e-01" nType="-99"/>
          <Node pos="r" depth="2" NCoef="0" IVar="-1" Cut="0.0000000000000000e+00" cType="1" res="-1.1377703631296754e-03" rms="2.6756775379180908e-01" purity="6.5787959098815918e-01" nType="-99"/>
        </Node>
      </Node>
    </BinaryTree>
    <BinaryTree type="DecisionTree" boostWeight="1.0000000000000000e+00" itree="266">
      <Node pos="s" depth="0" NCoef="0" IVar="88" Cut="9.4402831792831421e-01" cType="1" res="3.4036934375762939e-03" rms="2.5868463516235352e-01" purity="5.0568264722824097e-01" nType="0">
        <Node pos="l" depth="1" NCoef="0" IVar="4" Cut="3.3161146640777588e+00" cType="1" res="2.7658049017190933e-02" rms="2.9166892170906067e-01" purity="5.6982821226119995e-01" nType="0">
          <Node pos="l" depth="2" NCoef="0" IVar="-1" Cut="0.0000000000000000e+00" cType="1" res="3.2315462827682495e-02" rms="3.5226240754127502e-01" purity="3.2411819696426392e-01" nType="-99"/>
          <Node pos="r" depth="2" NCoef="0" IVar="-1" Cut="0.0000000000000000e+00" cType="1" res="5.0459122285246849e-03" rms="2.8223279118537903e-01" purity="5.9809166193008423e-01" nType="-99"/>
        </Node>
        <Node pos="r" depth="1" NCoef="0" IVar="57" Cut="1.5229866504669189e+00" cType="1" res="-1.7963174730539322e-02" rms="2.2349737584590912e-01" purity="4.4917368888854980e-01" nType="0">
          <Node pos="l" depth="2" NCoef="0" IVar="-1" Cut="0.0000000000000000e+00" cType="1" res="-1.1619360186159611e-02" rms="1.9188009202480316e-01" purity="2.7564042806625366e-01" nType="-99"/>
          <Node pos="r" depth="2" NCoef="0" IVar="-1" Cut="0.0000000000000000e+00" cType="1" res="3.7849824875593185e-03" rms="2.7067449688911438e-01" purity="7.7747249603271484e-01" nType="-99"/>
        </Node>
      </Node>
    </BinaryTree>
    <BinaryTree type="DecisionTree" boostWeight="1.0000000000000000e+00" itree="267">
      <Node pos="s" depth="0" NCoef="0" IVar="77" Cut="-1.5311501026153564e+00" cType="1" res="5.9850215911865234e-03" rms="2.5292152166366577e-01" purity="5.0820815563201904e-01" nType="0">
        <Node pos="l" depth="1" NCoef="0" IVar="17" Cut="1.3310527801513672e+00" cType="1" res="4.0500134229660034e-02" rms="3.0149120092391968e-01" purity="7.2730416059494019e-01" nType="0">
          <Node pos="l" depth="2" NCoef="0" IVar="-1" Cut="0.0000000000000000e+00" cType="1" res="5.8668296784162521e-02" rms="3.6740022897720337e-01" purity="2.1956574916839600e-01" nType="-99"/>
          <Node pos="r" depth="2" NCoef="0" IVar="-1" Cut="0.0000000000000000e+00" cType="1" res="6.1925398185849190e-03" rms="2.8687492012977600e-01" purity="8.0577039718627930e-01" nType="-99"/>
        </Node>
        <Node pos="r" depth="1" NCoef="0" IVar="31" Cut="2.7634212970733643e+00" cType="1" res="-5.4261106997728348e-03" rms="2.3354358971118927e-01" purity="4.3577226996421814e-01" nType="0">
          <Node pos="l" depth="2" NCoef="0" IVar="-1" Cut="0.0000000000000000e+00" cType="1" res="-1.9437642768025398e-02" rms="1.5903210639953613e-01" purity="1.6112922132015228e-01" nType="-99"/>
          <Node pos="r" depth="2" NCoef="0" IVar="-1" Cut="0.0000000000000000e+00" cType="1" res="2.6046812999993563e-03" rms="2.4907620251178741e-01" purity="5.1458036899566650e-01" nType="-99"/>
        </Node>
      </Node>
    </BinaryTree>
    <BinaryTree type="DecisionTree" boostWeight="1.0000000000000000e+00" itree="268">
      <Node pos="s" depth="0" NCoef="0" IVar="15" Cut="-1.2219244241714478e+00" cType="1" res="2.2707451134920120e-03" rms="2.5810536742210388e-01" purity="4.9913483858108521e-01" nType="0">
        <Node pos="l" depth="1" NCoef="0" IVar="3" Cut="4.8346681594848633e+00" cType="1" res="4.1491270065307617e-02" rms="2.6939672231674194e-01" purity="2.2658456861972809e-01" nType="0">
          <Node pos="l" depth="2" NCoef="0" IVar="-1" Cut="0.0000000000000000e+00" cType="1" res="4.8437677323818207e-03" rms="2.0938625931739807e-01" purity="1.1919670552015305e-01" nType="-99"/>
          <Node pos="r" depth="2" NCoef="0" IVar="-1" Cut="0.0000000000000000e+00" cType="1" res="4.0260121226310730e-02" rms="3.4815269708633423e-01" purity="4.3273699283599854e-01" nType="-99"/>
        </Node>
        <Node pos="r" depth="1" NCoef="0" IVar="38" Cut="6.6773736476898193e-01" cType="1" res="-7.3668430559337139e-03" rms="2.5433030724525452e-01" purity="5.6610804796218872e-01" nType="0">
          <Node pos="l" depth="2" NCoef="0" IVar="-1" Cut="0.0000000000000000e+00" cType="1" res="-1.3578987680375576e-02" rms="1.6723163425922394e-01" purity="2.8022632002830505e-01" nType="-99"/>
          <Node pos="r" depth="2" NCoef="0" IVar="-1" Cut="0.0000000000000000e+00" cType="1" res="1.6699380939826369e-03" rms="2.7730348706245422e-01" purity="6.6693198680877686e-01" nType="-99"/>
        </Node>
      </Node>
    </BinaryTree>
    <BinaryTree type="DecisionTree" boostWeight="1.0000000000000000e+00" itree="269">
      <Node pos="s" depth="0" NCoef="0" IVar="42" Cut="3.7743240594863892e-01" cType="1" res="2.8752710204571486e-03" rms="2.6080510020256042e-01" purity="5.0720506906509399e-01" nType="0">
        <Node pos="l" depth="1" NCoef="0" IVar="10" Cut="2.7706117630004883e+00" cType="1" res="-1.1910048779100180e-03" rms="2.5635710358619690e-01" purity="5.0828969478607178e-01" nType="0">
          <Node pos="l" depth="2" NCoef="0" IVar="-1" Cut="0.0000000000000000e+00" cType="1" res="-3.6573465913534164e-02" rms="-nan" purity="8.0080516636371613e-02" nType="-99"/>
          <Node pos="r" depth="2" NCoef="0" IVar="-1" Cut="0.0000000000000000e+00" cType="1" res="9.1251527192071080e-04" rms="2.6337710022926331e-01" purity="5.2455043792724609e-01" nType="-99"/>
        </Node>
        <Node pos="r" depth="1" NCoef="0" IVar="10" Cut="3.2546236515045166e+00" cType="1" res="8.8247746229171753e-02" rms="3.2966628670692444e-01" purity="4.8443368077278137e-01" nType="0">
          <Node pos="l" depth="2" NCoef="0" IVar="-1" Cut="0.0000000000000000e+00" cType="1" res="4.3930277228355408e-02" rms="3.8375040888786316e-01" purity="4.6350628137588501e-01" nType="-99"/>
          <Node pos="r" depth="2" NCoef="0" IVar="-1" Cut="0.0000000000000000e+00" cType="1" res="1.5247090486809611e-03" rms="2.2620363533496857e-01" purity="5.0857186317443848e-01" nType="-99"/>
        </Node>
      </Node>
    </BinaryTree>
    <BinaryTree type="DecisionTree" boostWeight="1.0000000000000000e+00" itree="270">
      <Node pos="s" depth="0" NCoef="0" IVar="4" Cut="3.5114142894744873e+00" cType="1" res="-1.5344317071139812e-03" rms="2.5255411863327026e-01" purity="5.0351685285568237e-01" nType="0">
        <Node pos="l" depth="1" NCoef="0" IVar="50" Cut="-1.7452181875705719e-01" cType="1" res="2.6919439435005188e-02" rms="3.0115544795989990e-01" purity="3.2086789608001709e-01" nType="0">
          <Node pos="l" depth="2" NCoef="0" IVar="-1" Cut="0.0000000000000000e+00" cType="1" res="1.0930261574685574e-02" rms="3.1186655163764954e-01" purity="3.3463883399963379e-01" nType="-99"/>
          <Node pos="r" depth="2" NCoef="0" IVar="-1" Cut="0.0000000000000000e+00" cType="1" res="-3.6162253469228745e-02" rms="-nan" purity="1.1973249167203903e-01" nType="-99"/>
        </Node>
        <Node pos="r" depth="1" NCoef="0" IVar="17" Cut="1.1763408184051514e+00" cType="1" res="-1.4621566049754620e-02" rms="2.2552694380283356e-01" purity="5.8752483129501343e-01" nType="0">
          <Node pos="l" depth="2" NCoef="0" IVar="-1" Cut="0.0000000000000000e+00" cType="1" res="-6.3046902418136597e-02" rms="-nan" purity="-3.9708919823169708e-02" nType="-99"/>
          <Node pos="r" depth="2" NCoef="0" IVar="-1" Cut="0.0000000000000000e+00" cType="1" res="9.7038056992460042e-05" rms="2.7199313044548035e-01" purity="7.2270447015762329e-01" nType="-99"/>
        </Node>
      </Node>
    </BinaryTree>
    <BinaryTree type="DecisionTree" boostWeight="1.0000000000000000e+00" itree="271">
      <Node pos="s" depth="0" NCoef="0" IVar="62" Cut="2.1047790348529816e-01" cType="1" res="9.7966066095978022e-04" rms="2.5288477540016174e-01" purity="4.9738529324531555e-01" nType="0">
        <Node pos="l" depth="1" NCoef="0" IVar="0" Cut="6.6911220550537109e-01" cType="1" res="-8.6294822394847870e-03" rms="2.3998315632343292e-01" purity="5.0668418407440186e-01" nType="0">
          <Node pos="l" depth="2" NCoef="0" IVar="-1" Cut="0.0000000000000000e+00" cType="1" res="4.9882545135915279e-03" rms="2.7242165803909302e-01" purity="6.0108751058578491e-01" nType="-99"/>
          <Node pos="r" depth="2" NCoef="0" IVar="-1" Cut="0.0000000000000000e+00" cType="1" res="-7.8126015141606331e-03" rms="2.1513824164867401e-01" purity="4.4665145874023438e-01" nType="-99"/>
        </Node>
        <Node pos="r" depth="1" NCoef="0" IVar="55" Cut="1.0884846448898315e+00" cType="1" res="5.5584657937288284e-02" rms="3.1077131628990173e-01" purity="4.4454345107078552e-01" nType="0">
          <Node pos="l" depth="2" NCoef="0" IVar="-1" Cut="0.0000000000000000e+00" cType="1" res="4.9743130803108215e-02" rms="3.7474784255027771e-01" purity="3.3427578210830688e-01" nType="-99"/>
          <Node pos="r" depth="2" NCoef="0" IVar="-1" Cut="0.0000000000000000e+00" cType="1" res="4.4526793062686920e-03" rms="2.6795467734336853e-01" purity="4.9315512180328369e-01" nType="-99"/>
        </Node>
      </Node>
    </BinaryTree>
    <BinaryTree type="DecisionTree" boostWeight="1.0000000000000000e+00" itree="272">
      <Node pos="s" depth="0" NCoef="0" IVar="18" Cut="-2.3849785327911377e+00" cType="1" res="-2.2505118977278471e-03" rms="2.5837209820747375e-01" purity="4.9409595131874084e-01" nType="0">
        <Node pos="l" depth="1" NCoef="0" IVar="78" Cut="9.4844454526901245e-01" cType="1" res="2.9978604987263680e-02" rms="2.9480919241905212e-01" purity="6.3568198680877686e-01" nType="0">
          <Node pos="l" depth="2" NCoef="0" IVar="-1" Cut="0.0000000000000000e+00" cType="1" res="4.8872404731810093e-03" rms="2.7954018115997314e-01" purity="6.6738933324813843e-01" nType="-99"/>
          <Node pos="r" depth="2" NCoef="0" IVar="-1" Cut="0.0000000000000000e+00" cType="1" res="4.1940864175558090e-02" rms="3.8100472092628479e-01" purity="3.8603532314300537e-01" nType="-99"/>
        </Node>
        <Node pos="r" depth="1" NCoef="0" IVar="77" Cut="1.3634248971939087e+00" cType="1" res="-1.6586275771260262e-02" rms="2.3900398612022400e-01" purity="4.3111738562583923e-01" nType="0">
          <Node pos="l" depth="2" NCoef="0" IVar="-1" Cut="0.0000000000000000e+00" cType="1" res="-3.2068323343992233e-03" rms="2.5491544604301453e-01" purity="4.5680606365203857e-01" nType="-99"/>
          <Node pos="r" depth="2" NCoef="0" IVar="-1" Cut="0.0000000000000000e+00" cType="1" res="-7.4535243213176727e-02" rms="-nan" purity="-3.7165995687246323e-02" nType="-99"/>
        </Node>
      </Node>
    </BinaryTree>
    <BinaryTree type="DecisionTree" boostWeight="1.0000000000000000e+00" itree="273">
      <Node pos="s" depth="0" NCoef="0" IVar="30" Cut="-4.3209877610206604e-01" cType="1" res="1.3629761524498463e-03" rms="2.5110536813735962e-01" purity="5.0463557243347168e-01" nType="0">
        <Node pos="l" depth="1" NCoef="0" IVar="34" Cut="-6.7482322454452515e-02" cType="1" res="6.1004873365163803e-02" rms="3.3908519148826599e-01" purity="4.4368663430213928e-01" nType="0">
          <Node pos="l" depth="2" NCoef="0" IVar="-1" Cut="0.0000000000000000e+00" cType="1" res="5.3702790290117264e-02" rms="4.0874782204627991e-01" purity="4.1174927353858948e-01" nType="-99"/>
          <Node pos="r" depth="2" NCoef="0" IVar="-1" Cut="0.0000000000000000e+00" cType="1" res="-4.8923403955996037e-03" rms="2.5901740789413452e-01" purity="4.6278515458106995e-01" nType="-99"/>
        </Node>
        <Node pos="r" depth="1" NCoef="0" IVar="36" Cut="1.4850268363952637e+00" cType="1" res="-3.9646946825087070e-03" rms="2.4097603559494019e-01" purity="5.1007992029190063e-01" nType="0">
          <Node pos="l" depth="2" NCoef="0" IVar="-1" Cut="0.0000000000000000e+00" cType="1" res="-8.3725498989224434e-03" rms="2.0920176804065704e-01" purity="2.0612974464893341e-01" nType="-99"/>
          <Node pos="r" depth="2" NCoef="0" IVar="-1" Cut="0.0000000000000000e+00" cType="1" res="3.4764204174280167e-03" rms="2.6179179549217224e-01" purity="7.4532151222229004e-01" nType="-99"/>
        </Node>
      </Node>
    </BinaryTree>
    <BinaryTree type="DecisionTree" boostWeight="1.0000000000000000e+00" itree="274">
      <Node pos="s" depth="0" NCoef="0" IVar="17" Cut="1.0216288566589355e+00" cType="1" res="-8.5018416866660118e-03" rms="2.3724862933158875e-01" purity="4.8893660306930542e-01" nType="0">
        <Node pos="l" depth="1" NCoef="0" IVar="58" Cut="9.7491347789764404e-01" cType="1" res="-4.1755210608243942e-02" rms="-nan" purity="-1.1976297944784164e-02" nType="-99"/>
        <Node pos="r" depth="1" NCoef="0" IVar="2" Cut="1.3452825546264648e+00" cType="1" res="2.1121071185916662e-03" rms="2.8029417991638184e-01" purity="6.2610614299774170e-01" nType="0">
          <Node pos="l" depth="2" NCoef="0" IVar="-1" Cut="0.0000000000000000e+00" cType="1" res="-3.4804493188858032e-02" rms="1.1208706349134445e-01" purity="8.1058733165264130e-02" nType="-99"/>
          <Node pos="r" depth="2" NCoef="0" IVar="-1" Cut="0.0000000000000000e+00" cType="1" res="1.7147602047771215e-03" rms="2.8398796916007996e-01" purity="6.4814847707748413e-01" nType="-99"/>
        </Node>
      </Node>
    </BinaryTree>
    <BinaryTree type="DecisionTree" boostWeight="1.0000000000000000e+00" itree="275">
      <Node pos="s" depth="0" NCoef="0" IVar="3" Cut="5.5116252899169922e+00" cType="1" res="1.0523803532123566e-02" rms="2.6718559861183167e-01" purity="5.0503057241439819e-01" nType="0">
        <Node pos="l" depth="1" NCoef="0" IVar="61" Cut="1.4731872081756592e+00" cType="1" res="7.6115522533655167e-03" rms="2.6417961716651917e-01" purity="5.1026844978332520e-01" nType="0">
          <Node pos="l" depth="2" NCoef="0" IVar="-1" Cut="0.0000000000000000e+00" cType="1" res="3.5548002924770117e-03" rms="2.6714047789573669e-01" purity="5.2481210231781006e-01" nType="-99"/>
          <Node pos="r" depth="2" NCoef="0" IVar="-1" Cut="0.0000000000000000e+00" cType="1" res="-2.2309703752398491e-02" rms="1.8773092329502106e-01" purity="2.4925301969051361e-01" nType="-99"/>
        </Node>
        <Node pos="r" depth="1" NCoef="0" IVar="-1" Cut="0.0000000000000000e+00" cType="1" res="4.1140768676996231e-02" rms="3.5106930136680603e-01" purity="2.8448164463043213e-01" nType="-99"/>
      </Node>
    </BinaryTree>
    <BinaryTree type="DecisionTree" boostWeight="1.0000000000000000e+00" itree="276">
      <Node pos="s" depth="0" NCoef="0" IVar="1" Cut="2.4602103233337402e+00" cType="1" res="7.6975622214376926e-03" rms="2.6368620991706848e-01" purity="5.0693273544311523e-01" nType="0">
        <Node pos="l" depth="1" NCoef="0" IVar="81" Cut="-2.0003616809844971e+00" cType="1" res="4.2269673198461533e-02" rms="3.0298465490341187e-01" purity="3.4548786282539368e-01" nType="0">
          <Node pos="l" depth="2" NCoef="0" IVar="-1" Cut="0.0000000000000000e+00" cType="1" res="-1.6062736976891756e-03" rms="2.3856885731220245e-01" purity="4.2534691095352173e-01" nType="-99"/>
          <Node pos="r" depth="2" NCoef="0" IVar="-1" Cut="0.0000000000000000e+00" cType="1" res="2.4594839662313461e-02" rms="3.3284521102905273e-01" purity="2.9673627018928528e-01" nType="-99"/>
        </Node>
        <Node pos="r" depth="1" NCoef="0" IVar="2" Cut="2.3603937625885010e+00" cType="1" res="-4.9512656405568123e-03" rms="2.4654720723628998e-01" purity="5.6600016355514526e-01" nType="0">
          <Node pos="l" depth="2" NCoef="0" IVar="-1" Cut="0.0000000000000000e+00" cType="1" res="-1.3567665591835976e-02" rms="1.6915252804756165e-01" purity="3.1739693880081177e-01" nType="-99"/>
          <Node pos="r" depth="2" NCoef="0" IVar="-1" Cut="0.0000000000000000e+00" cType="1" res="2.0378276240080595e-03" rms="2.6705536246299744e-01" purity="6.5173226594924927e-01" nType="-99"/>
        </Node>
      </Node>
    </BinaryTree>
    <BinaryTree type="DecisionTree" boostWeight="1.0000000000000000e+00" itree="277">
      <Node pos="s" depth="0" NCoef="0" IVar="56" Cut="1.4837484359741211e+00" cType="1" res="6.7777256481349468e-03" rms="2.6398402452468872e-01" purity="5.0290614366531372e-01" nType="0">
        <Node pos="l" depth="1" NCoef="0" IVar="3" Cut="4.4131989479064941e+00" cType="1" res="9.5921764150261879e-03" rms="2.6695534586906433e-01" purity="5.1238900423049927e-01" nType="0">
          <Node pos="l" depth="2" NCoef="0" IVar="-1" Cut="0.0000000000000000e+00" cType="1" res="1.5763180330395699e-02" rms="3.1622213125228882e-01" purity="3.5854518413543701e-01" nType="-99"/>
          <Node pos="r" depth="2" NCoef="0" IVar="-1" Cut="0.0000000000000000e+00" cType="1" res="1.3031578855589032e-03" rms="2.6089939475059509e-01" purity="5.2785730361938477e-01" nType="-99"/>
        </Node>
        <Node pos="r" depth="1" NCoef="0" IVar="-1" Cut="0.0000000000000000e+00" cType="1" res="-3.8206331431865692e-02" rms="-nan" purity="1.2676407396793365e-01" nType="-99"/>
      </Node>
    </BinaryTree>
    <BinaryTree type="DecisionTree" boostWeight="1.0000000000000000e+00" itree="278">
      <Node pos="s" depth="0" NCoef="0" IVar="19" Cut="7.9912602901458740e-01" cType="1" res="4.1232160292565823e-03" rms="2.6153007149696350e-01" purity="4.9968573451042175e-01" nType="0">
        <Node pos="l" depth="1" NCoef="0" IVar="15" Cut="-1.0286623239517212e+00" cType="1" res="1.7883870750665665e-02" rms="2.7553030848503113e-01" purity="5.5330997705459595e-01" nType="0">
          <Node pos="l" depth="2" NCoef="0" IVar="-1" Cut="0.0000000000000000e+00" cType="1" res="2.9168775305151939e-02" rms="3.0072394013404846e-01" purity="2.8472137451171875e-01" nType="-99"/>
          <Node pos="r" depth="2" NCoef="0" IVar="-1" Cut="0.0000000000000000e+00" cType="1" res="1.5854185912758112e-03" rms="2.6695248484611511e-01" purity="6.2715393304824829e-01" nType="-99"/>
        </Node>
        <Node pos="r" depth="1" NCoef="0" IVar="83" Cut="8.3677843213081360e-02" cType="1" res="-1.8996724858880043e-02" rms="2.3433378338813782e-01" purity="4.0958905220031738e-01" nType="0">
          <Node pos="l" depth="2" NCoef="0" IVar="-1" Cut="0.0000000000000000e+00" cType="1" res="-1.3233624398708344e-02" rms="2.0626153051853180e-01" purity="4.2503133416175842e-01" nType="-99"/>
          <Node pos="r" depth="2" NCoef="0" IVar="-1" Cut="0.0000000000000000e+00" cType="1" res="7.0461235009133816e-03" rms="2.7015644311904907e-01" purity="3.8338109850883484e-01" nType="-99"/>
        </Node>
      </Node>
    </BinaryTree>
    <BinaryTree type="DecisionTree" boostWeight="1.0000000000000000e+00" itree="279">
      <Node pos="s" depth="0" NCoef="0" IVar="15" Cut="-1.7830882966518402e-01" cType="1" res="6.1510489322245121e-03" rms="2.5824442505836487e-01" purity="5.0705856084823608e-01" nType="0">
        <Node pos="l" depth="1" NCoef="0" IVar="15" Cut="-6.2533861398696899e-01" cType="1" res="3.4130092710256577e-02" rms="2.5467750430107117e-01" purity="2.6545622944831848e-01" nType="0">
          <Node pos="l" depth="2" NCoef="0" IVar="-1" Cut="0.0000000000000000e+00" cType="1" res="1.0407852008938789e-02" rms="2.3672063648700714e-01" purity="2.4251437187194824e-01" nType="-99"/>
          <Node pos="r" depth="2" NCoef="0" IVar="-1" Cut="0.0000000000000000e+00" cType="1" res="5.8277372270822525e-02" rms="3.7045031785964966e-01" purity="5.0142049789428711e-01" nType="-99"/>
        </Node>
        <Node pos="r" depth="1" NCoef="0" IVar="17" Cut="-3.8551381230354309e-01" cType="1" res="-4.1626230813562870e-03" rms="2.5878497958183289e-01" purity="5.9611827135086060e-01" nType="0">
          <Node pos="l" depth="2" NCoef="0" IVar="-1" Cut="0.0000000000000000e+00" cType="1" res="-1.1612194031476974e-01" rms="-nan" purity="-8.5596911609172821e-02" nType="-99"/>
          <Node pos="r" depth="2" NCoef="0" IVar="-1" Cut="0.0000000000000000e+00" cType="1" res="4.5723616494797170e-04" rms="2.7451482415199280e-01" purity="6.3281673192977905e-01" nType="-99"/>
        </Node>
      </Node>
    </BinaryTree>
    <BinaryTree type="DecisionTree" boostWeight="1.0000000000000000e+00" itree="280">
      <Node pos="s" depth="0" NCoef="0" IVar="3" Cut="5.5313186645507812e+00" cType="1" res="3.7017792928963900e-03" rms="2.6167860627174377e-01" purity="5.0851625204086304e-01" nType="0">
        <Node pos="l" depth="1" NCoef="0" IVar="0" Cut="6.4083796739578247e-01" cType="1" res="8.5648958338424563e-04" rms="2.5803595781326294e-01" purity="5.1304984092712402e-01" nType="0">
          <Node pos="l" depth="2" NCoef="0" IVar="-1" Cut="0.0000000000000000e+00" cType="1" res="6.5733348019421101e-03" rms="2.7868577837944031e-01" purity="6.1611950397491455e-01" nType="-99"/>
          <Node pos="r" depth="2" NCoef="0" IVar="-1" Cut="0.0000000000000000e+00" cType="1" res="-3.6929256748408079e-03" rms="2.4425327777862549e-01" purity="4.5286953449249268e-01" nType="-99"/>
        </Node>
        <Node pos="r" depth="1" NCoef="0" IVar="-1" Cut="0.0000000000000000e+00" cType="1" res="4.8299256712198257e-02" rms="3.7659803032875061e-01" purity="2.8461769223213196e-01" nType="-99"/>
      </Node>
    </BinaryTree>
    <BinaryTree type="DecisionTree" boostWeight="1.0000000000000000e+00" itree="281">
      <Node pos="s" depth="0" NCoef="0" IVar="4" Cut="3.4015171527862549e+00" cType="1" res="1.1171636171638966e-02" rms="2.7144506573677063e-01" purity="5.0928556919097900e-01" nType="0">
        <Node pos="l" depth="1" NCoef="0" IVar="83" Cut="1.0527765750885010e-01" cType="1" res="5.3762197494506836e-02" rms="3.3135342597961426e-01" purity="2.8134554624557495e-01" nType="0">
          <Node pos="l" depth="2" NCoef="0" IVar="-1" Cut="0.0000000000000000e+00" cType="1" res="3.3572935499250889e-03" rms="2.9064700007438660e-01" purity="2.5344288349151611e-01" nType="-99"/>
          <Node pos="r" depth="2" NCoef="0" IVar="-1" Cut="0.0000000000000000e+00" cType="1" res="3.8195189088582993e-02" rms="3.7942883372306824e-01" purity="3.2790791988372803e-01" nType="-99"/>
        </Node>
        <Node pos="r" depth="1" NCoef="0" IVar="7" Cut="-1.3568894863128662e+00" cType="1" res="1.1498426320031285e-03" rms="2.5427868962287903e-01" purity="5.6292110681533813e-01" nType="0">
          <Node pos="l" depth="2" NCoef="0" IVar="-1" Cut="0.0000000000000000e+00" cType="1" res="1.2761626858264208e-03" rms="2.5811225175857544e-01" purity="5.7307893037796021e-01" nType="-99"/>
          <Node pos="r" depth="2" NCoef="0" IVar="-1" Cut="0.0000000000000000e+00" cType="1" res="-3.7645392119884491e-02" rms="-nan" purity="1.9996701180934906e-01" nType="-99"/>
        </Node>
      </Node>
    </BinaryTree>
    <BinaryTree type="DecisionTree" boostWeight="1.0000000000000000e+00" itree="282">
      <Node pos="s" depth="0" NCoef="0" IVar="40" Cut="9.5885193347930908e-01" cType="1" res="-1.0051358491182327e-02" rms="2.3694875836372375e-01" purity="4.9374672770500183e-01" nType="0">
        <Node pos="l" depth="1" NCoef="0" IVar="39" Cut="-1.2700277566909790e+00" cType="1" res="2.9456291813403368e-03" rms="2.5509038567543030e-01" purity="5.5662226676940918e-01" nType="0">
          <Node pos="l" depth="2" NCoef="0" IVar="-1" Cut="0.0000000000000000e+00" cType="1" res="-1.3320631114766002e-03" rms="2.4355962872505188e-01" purity="5.7001531124114990e-01" nType="-99"/>
          <Node pos="r" depth="2" NCoef="0" IVar="-1" Cut="0.0000000000000000e+00" cType="1" res="2.2620009258389473e-02" rms="3.3817166090011597e-01" purity="4.2851057648658752e-01" nType="-99"/>
        </Node>
        <Node pos="r" depth="1" NCoef="0" IVar="61" Cut="1.3849595785140991e+00" cType="1" res="-4.6861927956342697e-02" rms="1.7038074135780334e-01" purity="3.1566798686981201e-01" nType="0">
          <Node pos="l" depth="2" NCoef="0" IVar="-1" Cut="0.0000000000000000e+00" cType="1" res="-1.1487998068332672e-02" rms="1.9334723055362701e-01" purity="3.4313881397247314e-01" nType="-99"/>
          <Node pos="r" depth="2" NCoef="0" IVar="-1" Cut="0.0000000000000000e+00" cType="1" res="-7.6190255582332611e-02" rms="-nan" purity="1.2553589418530464e-02" nType="-99"/>
        </Node>
      </Node>
    </BinaryTree>
    <BinaryTree type="DecisionTree" boostWeight="1.0000000000000000e+00" itree="283">
      <Node pos="s" depth="0" NCoef="0" IVar="81" Cut="-1.5501142740249634e+00" cType="1" res="3.1808359199203551e-04" rms="2.4975241720676422e-01" purity="5.0017577409744263e-01" nType="0">
        <Node pos="l" depth="1" NCoef="0" IVar="80" Cut="-1.0694967210292816e-01" cType="1" res="1.4562683179974556e-02" rms="2.7668040990829468e-01" purity="5.8330458402633667e-01" nType="0">
          <Node pos="l" depth="2" NCoef="0" IVar="-1" Cut="0.0000000000000000e+00" cType="1" res="-1.1683660886774305e-05" rms="2.6041656732559204e-01" purity="6.3458520174026489e-01" nType="-99"/>
          <Node pos="r" depth="2" NCoef="0" IVar="-1" Cut="0.0000000000000000e+00" cType="1" res="1.7639290541410446e-02" rms="3.1960219144821167e-01" purity="4.1556569933891296e-01" nType="-99"/>
        </Node>
        <Node pos="r" depth="1" NCoef="0" IVar="5" Cut="-1.0633386671543121e-01" cType="1" res="-3.0181871727108955e-02" rms="1.7509700357913971e-01" purity="3.2218372821807861e-01" nType="0">
          <Node pos="l" depth="2" NCoef="0" IVar="-1" Cut="0.0000000000000000e+00" cType="1" res="-1.1796915531158447e-01" rms="-nan" purity="-5.0143957138061523e-02" nType="-99"/>
          <Node pos="r" depth="2" NCoef="0" IVar="-1" Cut="0.0000000000000000e+00" cType="1" res="-6.6078626550734043e-03" rms="2.0467890799045563e-01" purity="3.4928908944129944e-01" nType="-99"/>
        </Node>
      </Node>
    </BinaryTree>
    <BinaryTree type="DecisionTree" boostWeight="1.0000000000000000e+00" itree="284">
      <Node pos="s" depth="0" NCoef="0" IVar="3" Cut="4.4203314781188965e+00" cType="1" res="5.1391837187111378e-03" rms="2.6081115007400513e-01" purity="4.9852418899536133e-01" nType="0">
        <Node pos="l" depth="1" NCoef="0" IVar="42" Cut="-1.9365124404430389e-01" cType="1" res="7.6336950063705444e-02" rms="3.2637098431587219e-01" purity="3.6266949772834778e-01" nType="0">
          <Node pos="l" depth="2" NCoef="0" IVar="-1" Cut="0.0000000000000000e+00" cType="1" res="6.7778408527374268e-02" rms="4.4600540399551392e-01" purity="4.6751493215560913e-01" nType="-99"/>
          <Node pos="r" depth="2" NCoef="0" IVar="-1" Cut="0.0000000000000000e+00" cType="1" res="5.1444652490317822e-03" rms="2.4688765406608582e-01" purity="3.2465660572052002e-01" nType="-99"/>
        </Node>
        <Node pos="r" depth="1" NCoef="0" IVar="18" Cut="-9.8472559452056885e-01" cType="1" res="-3.2843565568327904e-03" rms="2.5059387087821960e-01" purity="5.1459741592407227e-01" nType="0">
          <Node pos="l" depth="2" NCoef="0" IVar="-1" Cut="0.0000000000000000e+00" cType="1" res="7.7405216870829463e-04" rms="2.5347501039505005e-01" purity="5.4382014274597168e-01" nType="-99"/>
          <Node pos="r" depth="2" NCoef="0" IVar="-1" Cut="0.0000000000000000e+00" cType="1" res="-1.9377658143639565e-02" rms="2.1465775370597839e-01" purity="2.4436806142330170e-01" nType="-99"/>
        </Node>
      </Node>
    </BinaryTree>
    <BinaryTree type="DecisionTree" boostWeight="1.0000000000000000e+00" itree="285">
      <Node pos="s" depth="0" NCoef="0" IVar="73" Cut="2.2859210968017578e+00" cType="1" res="7.1866689249873161e-03" rms="2.6474872231483459e-01" purity="5.0450551509857178e-01" nType="0">
        <Node pos="l" depth="1" NCoef="0" IVar="79" Cut="-8.8192266225814819e-01" cType="1" res="7.8229360282421112e-02" rms="3.6662593483924866e-01" purity="3.6178743839263916e-01" nType="0">
          <Node pos="l" depth="2" NCoef="0" IVar="-1" Cut="0.0000000000000000e+00" cType="1" res="-3.8640273269265890e-03" rms="2.9283818602561951e-01" purity="3.0385360121726990e-01" nType="-99"/>
          <Node pos="r" depth="2" NCoef="0" IVar="-1" Cut="0.0000000000000000e+00" cType="1" res="5.4304856806993484e-02" rms="4.0616387128829956e-01" purity="4.1594013571739197e-01" nType="-99"/>
        </Node>
        <Node pos="r" depth="1" NCoef="0" IVar="55" Cut="-1.4926531314849854e+00" cType="1" res="6.4702436793595552e-04" rms="2.5231620669364929e-01" purity="5.1764309406280518e-01" nType="0">
          <Node pos="l" depth="2" NCoef="0" IVar="-1" Cut="0.0000000000000000e+00" cType="1" res="2.7846844866871834e-02" rms="3.2096764445304871e-01" purity="4.5439532399177551e-01" nType="-99"/>
          <Node pos="r" depth="2" NCoef="0" IVar="-1" Cut="0.0000000000000000e+00" cType="1" res="-1.0556088527664542e-03" rms="2.4765610694885254e-01" purity="5.2079248428344727e-01" nType="-99"/>
        </Node>
      </Node>
    </BinaryTree>
    <BinaryTree type="DecisionTree" boostWeight="1.0000000000000000e+00" itree="286">
      <Node pos="s" depth="0" NCoef="0" IVar="52" Cut="2.4140229225158691e+00" cType="1" res="2.3876412305980921e-03" rms="2.5224438309669495e-01" purity="5.0718605518341064e-01" nType="0">
        <Node pos="l" depth="1" NCoef="0" IVar="40" Cut="6.8922764062881470e-01" cType="1" res="7.6042212545871735e-02" rms="3.2816755771636963e-01" purity="2.6277863979339600e-01" nType="0">
          <Node pos="l" depth="2" NCoef="0" IVar="-1" Cut="0.0000000000000000e+00" cType="1" res="4.8157908022403717e-02" rms="4.2970204353332520e-01" purity="4.1265305876731873e-01" nType="-99"/>
          <Node pos="r" depth="2" NCoef="0" IVar="-1" Cut="0.0000000000000000e+00" cType="1" res="-6.8922727368772030e-03" rms="1.4868815243244171e-01" purity="1.3573923707008362e-01" nType="-99"/>
        </Node>
        <Node pos="r" depth="1" NCoef="0" IVar="73" Cut="2.5147190093994141e+00" cType="1" res="-1.7009921139106154e-03" rms="2.4670465290546417e-01" purity="5.2075338363647461e-01" nType="0">
          <Node pos="l" depth="2" NCoef="0" IVar="-1" Cut="0.0000000000000000e+00" cType="1" res="-1.2760120443999767e-02" rms="1.8733327090740204e-01" purity="3.3542680740356445e-01" nType="-99"/>
          <Node pos="r" depth="2" NCoef="0" IVar="-1" Cut="0.0000000000000000e+00" cType="1" res="2.6059076189994812e-03" rms="2.5961112976074219e-01" purity="5.7143771648406982e-01" nType="-99"/>
        </Node>
      </Node>
    </BinaryTree>
    <BinaryTree type="DecisionTree" boostWeight="1.0000000000000000e+00" itree="287">
      <Node pos="s" depth="0" NCoef="0" IVar="31" Cut="2.6065182685852051e+00" cType="1" res="-3.7098801694810390e-03" rms="2.4875955283641815e-01" purity="4.9849906563758850e-01" nType="0">
        <Node pos="l" depth="1" NCoef="0" IVar="17" Cut="6.3170146942138672e-01" cType="1" res="-5.9790957719087601e-02" rms="1.6890431940555573e-01" purity="1.5689235925674438e-01" nType="0">
          <Node pos="l" depth="2" NCoef="0" IVar="-1" Cut="0.0000000000000000e+00" cType="1" res="3.5697553306818008e-02" rms="2.1716572344303131e-01" purity="6.2553152441978455e-02" nType="-99"/>
          <Node pos="r" depth="2" NCoef="0" IVar="-1" Cut="0.0000000000000000e+00" cType="1" res="-2.7951078489422798e-02" rms="1.0803102701902390e-01" purity="2.0658102631568909e-01" nType="-99"/>
        </Node>
        <Node pos="r" depth="1" NCoef="0" IVar="55" Cut="-1.2998150587081909e+00" cType="1" res="4.3160808272659779e-03" rms="2.5717699527740479e-01" purity="5.4738759994506836e-01" nType="0">
          <Node pos="l" depth="2" NCoef="0" IVar="-1" Cut="0.0000000000000000e+00" cType="1" res="2.1198699250817299e-02" rms="2.9727232456207275e-01" purity="3.3867064118385315e-01" nType="-99"/>
          <Node pos="r" depth="2" NCoef="0" IVar="-1" Cut="0.0000000000000000e+00" cType="1" res="-1.6091899015009403e-03" rms="2.4797464907169342e-01" purity="5.8505094051361084e-01" nType="-99"/>
        </Node>
      </Node>
    </BinaryTree>
    <BinaryTree type="DecisionTree" boostWeight="1.0000000000000000e+00" itree="288">
      <Node pos="s" depth="0" NCoef="0" IVar="36" Cut="-2.5471100211143494e-01" cType="1" res="7.7004160266369581e-04" rms="2.5670948624610901e-01" purity="5.0314891338348389e-01" nType="0">
        <Node pos="l" depth="1" NCoef="0" IVar="18" Cut="-1.7052791118621826e+00" cType="1" res="-3.8831520825624466e-02" rms="1.2098931521177292e-01" purity="4.9313038587570190e-02" nType="0">
          <Node pos="l" depth="2" NCoef="0" IVar="-1" Cut="0.0000000000000000e+00" cType="1" res="-4.1166976094245911e-02" rms="-nan" purity="4.7506070695817471e-03" nType="-99"/>
          <Node pos="r" depth="2" NCoef="0" IVar="-1" Cut="0.0000000000000000e+00" cType="1" res="1.7530074343085289e-02" rms="2.6440972089767456e-01" purity="1.0645999014377594e-01" nType="-99"/>
        </Node>
        <Node pos="r" depth="1" NCoef="0" IVar="18" Cut="-9.8600035905838013e-01" cType="1" res="9.9983680993318558e-03" rms="2.7819874882698059e-01" purity="6.0890597105026245e-01" nType="0">
          <Node pos="l" depth="2" NCoef="0" IVar="-1" Cut="0.0000000000000000e+00" cType="1" res="4.7898394986987114e-03" rms="2.8095710277557373e-01" purity="6.3617616891860962e-01" nType="-99"/>
          <Node pos="r" depth="2" NCoef="0" IVar="-1" Cut="0.0000000000000000e+00" cType="1" res="-2.2309496998786926e-02" rms="2.2674144804477692e-01" purity="2.9335728287696838e-01" nType="-99"/>
        </Node>
      </Node>
    </BinaryTree>
    <BinaryTree type="DecisionTree" boostWeight="1.0000000000000000e+00" itree="289">
      <Node pos="s" depth="0" NCoef="0" IVar="82" Cut="1.4791004657745361e+00" cType="1" res="9.8568033427000046e-03" rms="2.6448708772659302e-01" purity="5.1088184118270874e-01" nType="0">
        <Node pos="l" depth="1" NCoef="0" IVar="62" Cut="2.7002879977226257e-01" cType="1" res="1.4829792082309723e-02" rms="2.7285480499267578e-01" purity="5.3051763772964478e-01" nType="0">
          <Node pos="l" depth="2" NCoef="0" IVar="-1" Cut="0.0000000000000000e+00" cType="1" res="2.4218081962317228e-03" rms="2.6200827956199646e-01" purity="5.3871208429336548e-01" nType="-99"/>
          <Node pos="r" depth="2" NCoef="0" IVar="-1" Cut="0.0000000000000000e+00" cType="1" res="2.7416968718171120e-02" rms="3.6566528677940369e-01" purity="4.3808883428573608e-01" nType="-99"/>
        </Node>
        <Node pos="r" depth="1" NCoef="0" IVar="21" Cut="4.4956408441066742e-02" cType="1" res="-3.3839054405689240e-02" rms="-nan" purity="1.3635548949241638e-01" nType="-99"/>
      </Node>
    </BinaryTree>
    <BinaryTree type="DecisionTree" boostWeight="1.0000000000000000e+00" itree="290">
      <Node pos="s" depth="0" NCoef="0" IVar="46" Cut="1.2262449264526367e+00" cType="1" res="-1.2876060791313648e-03" rms="2.5185894966125488e-01" purity="4.9968892335891724e-01" nType="0">
        <Node pos="l" depth="1" NCoef="0" IVar="25" Cut="1.2449136972427368e+00" cType="1" res="4.3640513904392719e-03" rms="2.6158401370048523e-01" purity="5.1926195621490479e-01" nType="0">
          <Node pos="l" depth="2" NCoef="0" IVar="-1" Cut="0.0000000000000000e+00" cType="1" res="2.4126982316374779e-03" rms="2.6586914062500000e-01" purity="5.3030818700790405e-01" nType="-99"/>
          <Node pos="r" depth="2" NCoef="0" IVar="-1" Cut="0.0000000000000000e+00" cType="1" res="-3.3191967755556107e-02" rms="-nan" purity="2.2845125198364258e-01" nType="-99"/>
        </Node>
        <Node pos="r" depth="1" NCoef="0" IVar="15" Cut="1.4420270919799805e+00" cType="1" res="-3.7032507359981537e-02" rms="-nan" purity="1.9948337972164154e-01" nType="-99"/>
      </Node>
    </BinaryTree>
    <BinaryTree type="DecisionTree" boostWeight="1.0000000000000000e+00" itree="291">
      <Node pos="s" depth="0" NCoef="0" IVar="61" Cut="9.0487772226333618e-01" cType="1" res="4.9309420865029097e-04" rms="2.5650781393051147e-01" purity="5.0265163183212280e-01" nType="0">
        <Node pos="l" depth="1" NCoef="0" IVar="13" Cut="-7.2102606296539307e-01" cType="1" res="1.4785338193178177e-02" rms="2.7361121773719788e-01" purity="5.7232505083084106e-01" nType="0">
          <Node pos="l" depth="2" NCoef="0" IVar="-1" Cut="0.0000000000000000e+00" cType="1" res="3.2318085432052612e-02" rms="2.9248017072677612e-01" purity="2.4993744492530823e-01" nType="-99"/>
          <Node pos="r" depth="2" NCoef="0" IVar="-1" Cut="0.0000000000000000e+00" cType="1" res="1.3816241407766938e-03" rms="2.6874709129333496e-01" purity="6.3391226530075073e-01" nType="-99"/>
        </Node>
        <Node pos="r" depth="1" NCoef="0" IVar="38" Cut="-1.3771018981933594e+00" cType="1" res="-3.1337939202785492e-02" rms="2.1008300781250000e-01" purity="3.4747812151908875e-01" nType="0">
          <Node pos="l" depth="2" NCoef="0" IVar="-1" Cut="0.0000000000000000e+00" cType="1" res="-5.9120859950780869e-02" rms="-nan" purity="4.9209311604499817e-02" nType="-99"/>
          <Node pos="r" depth="2" NCoef="0" IVar="-1" Cut="0.0000000000000000e+00" cType="1" res="-4.9451454542577267e-03" rms="2.4396564066410065e-01" purity="3.9399647712707520e-01" nType="-99"/>
        </Node>
      </Node>
    </BinaryTree>
    <BinaryTree type="DecisionTree" boostWeight="1.0000000000000000e+00" itree="292">
      <Node pos="s" depth="0" NCoef="0" IVar="17" Cut="-1.4537599086761475e+00" cType="1" res="8.9143030345439911e-03" rms="2.6415693759918213e-01" purity="5.1116150617599487e-01" nType="0">
        <Node pos="l" depth="1" NCoef="0" IVar="-1" Cut="0.0000000000000000e+00" cType="1" res="1.2528248131275177e-01" rms="3.5131451487541199e-01" purity="1.6181148588657379e-01" nType="-99"/>
        <Node pos="r" depth="1" NCoef="0" IVar="69" Cut="8.4415620565414429e-01" cType="1" res="4.8444657586514950e-03" rms="2.5975909829139709e-01" purity="5.2282929420471191e-01" nType="0">
          <Node pos="l" depth="2" NCoef="0" IVar="-1" Cut="0.0000000000000000e+00" cType="1" res="-1.9736757501959801e-02" rms="1.7750275135040283e-01" purity="1.8808019161224365e-01" nType="-99"/>
          <Node pos="r" depth="2" NCoef="0" IVar="-1" Cut="0.0000000000000000e+00" cType="1" res="3.2090726308524609e-03" rms="2.6612100005149841e-01" purity="5.5770587921142578e-01" nType="-99"/>
        </Node>
      </Node>
    </BinaryTree>
    <BinaryTree type="DecisionTree" boostWeight="1.0000000000000000e+00" itree="293">
      <Node pos="s" depth="0" NCoef="0" IVar="82" Cut="1.2383316755294800e+00" cType="1" res="2.9807046521455050e-03" rms="2.5876969099044800e-01" purity="5.0161349773406982e-01" nType="0">
        <Node pos="l" depth="1" NCoef="0" IVar="30" Cut="-5.1851850748062134e-01" cType="1" res="-4.0973839350044727e-03" rms="2.4990902841091156e-01" purity="5.2743577957153320e-01" nType="0">
          <Node pos="l" depth="2" NCoef="0" IVar="-1" Cut="0.0000000000000000e+00" cType="1" res="1.7320282757282257e-02" rms="3.2533657550811768e-01" purity="4.8711031675338745e-01" nType="-99"/>
          <Node pos="r" depth="2" NCoef="0" IVar="-1" Cut="0.0000000000000000e+00" cType="1" res="-3.0941006261855364e-03" rms="2.4068246781826019e-01" purity="5.3121674060821533e-01" nType="-99"/>
        </Node>
        <Node pos="r" depth="1" NCoef="0" IVar="59" Cut="1.0931226015090942e+00" cType="1" res="4.7516971826553345e-02" rms="3.0499696731567383e-01" purity="3.3913588523864746e-01" nType="0">
          <Node pos="l" depth="2" NCoef="0" IVar="-1" Cut="0.0000000000000000e+00" cType="1" res="6.9592624902725220e-02" rms="3.5552966594696045e-01" purity="2.5572738051414490e-01" nType="-99"/>
          <Node pos="r" depth="2" NCoef="0" IVar="-1" Cut="0.0000000000000000e+00" cType="1" res="-2.1158817689865828e-03" rms="2.4936285614967346e-01" purity="3.9803317189216614e-01" nType="-99"/>
        </Node>
      </Node>
    </BinaryTree>
    <BinaryTree type="DecisionTree" boostWeight="1.0000000000000000e+00" itree="294">
      <Node pos="s" depth="0" NCoef="0" IVar="52" Cut="2.3446950912475586e+00" cType="1" res="2.8621081728488207e-03" rms="2.6233252882957458e-01" purity="4.9973422288894653e-01" nType="0">
        <Node pos="l" depth="1" NCoef="0" IVar="-1" Cut="0.0000000000000000e+00" cType="1" res="-5.2511259913444519e-02" rms="-nan" purity="2.9866727069020271e-02" nType="-99"/>
        <Node pos="r" depth="1" NCoef="0" IVar="19" Cut="6.5195888280868530e-01" cType="1" res="7.2439406067132950e-03" rms="2.6853832602500916e-01" purity="5.1270991563796997e-01" nType="0">
          <Node pos="l" depth="2" NCoef="0" IVar="-1" Cut="0.0000000000000000e+00" cType="1" res="-5.6009162217378616e-03" rms="2.3859737813472748e-01" purity="5.4243421554565430e-01" nType="-99"/>
          <Node pos="r" depth="2" NCoef="0" IVar="-1" Cut="0.0000000000000000e+00" cType="1" res="7.9612405970692635e-03" rms="2.8738349676132202e-01" purity="4.9051809310913086e-01" nType="-99"/>
        </Node>
      </Node>
    </BinaryTree>
    <BinaryTree type="DecisionTree" boostWeight="1.0000000000000000e+00" itree="295">
      <Node pos="s" depth="0" NCoef="0" IVar="77" Cut="-2.1717797219753265e-01" cType="1" res="4.7770692617632449e-04" rms="2.5540676712989807e-01" purity="5.0301527976989746e-01" nType="0">
        <Node pos="l" depth="1" NCoef="0" IVar="2" Cut="1.8209829330444336e+00" cType="1" res="-7.5111407786607742e-03" rms="2.4895508587360382e-01" purity="5.3883457183837891e-01" nType="0">
          <Node pos="l" depth="2" NCoef="0" IVar="-1" Cut="0.0000000000000000e+00" cType="1" res="-1.8905330449342728e-02" rms="1.6544982790946960e-01" purity="1.5397328138351440e-01" nType="-99"/>
          <Node pos="r" depth="2" NCoef="0" IVar="-1" Cut="0.0000000000000000e+00" cType="1" res="3.3779564546421170e-04" rms="2.6064375042915344e-01" purity="6.1045551300048828e-01" nType="-99"/>
        </Node>
        <Node pos="r" depth="1" NCoef="0" IVar="0" Cut="6.6634625196456909e-01" cType="1" res="4.3980162590742111e-02" rms="2.8409835696220398e-01" purity="3.0796495079994202e-01" nType="0">
          <Node pos="l" depth="2" NCoef="0" IVar="-1" Cut="0.0000000000000000e+00" cType="1" res="-1.9218614324927330e-02" rms="9.1670006513595581e-02" purity="2.5528892874717712e-01" nType="-99"/>
          <Node pos="r" depth="2" NCoef="0" IVar="-1" Cut="0.0000000000000000e+00" cType="1" res="3.3173643052577972e-02" rms="3.2711237668991089e-01" purity="3.3162060379981995e-01" nType="-99"/>
        </Node>
      </Node>
    </BinaryTree>
    <BinaryTree type="DecisionTree" boostWeight="1.0000000000000000e+00" itree="296">
      <Node pos="s" depth="0" NCoef="0" IVar="16" Cut="1.2740348577499390e+00" cType="1" res="5.3329526963352691e-06" rms="2.5214034318923950e-01" purity="4.9836623668670654e-01" nType="0">
        <Node pos="l" depth="1" NCoef="0" IVar="67" Cut="1.2827715873718262e+00" cType="1" res="3.7252688780426979e-03" rms="2.5765216350555420e-01" purity="5.0848740339279175e-01" nType="0">
          <Node pos="l" depth="2" NCoef="0" IVar="-1" Cut="0.0000000000000000e+00" cType="1" res="2.5831714738160372e-03" rms="2.6611086726188660e-01" purity="5.2582585811614990e-01" nType="-99"/>
          <Node pos="r" depth="2" NCoef="0" IVar="-1" Cut="0.0000000000000000e+00" cType="1" res="-4.1981864720582962e-02" rms="-nan" purity="1.6551454365253448e-01" nType="-99"/>
        </Node>
        <Node pos="r" depth="1" NCoef="0" IVar="-1" Cut="0.0000000000000000e+00" cType="1" res="-4.8151183873414993e-02" rms="-nan" purity="9.1702647507190704e-02" nType="-99"/>
      </Node>
    </BinaryTree>
    <BinaryTree type="DecisionTree" boostWeight="1.0000000000000000e+00" itree="297">
      <Node pos="s" depth="0" NCoef="0" IVar="82" Cut="1.3345212936401367e+00" cType="1" res="5.3936364129185677e-03" rms="2.6858323812484741e-01" purity="4.9306041002273560e-01" nType="0">
        <Node pos="l" depth="1" NCoef="0" IVar="60" Cut="-5.0692862272262573e-01" cType="1" res="1.1454009450972080e-02" rms="2.7784240245819092e-01" purity="5.2223867177963257e-01" nType="0">
          <Node pos="l" depth="2" NCoef="0" IVar="-1" Cut="0.0000000000000000e+00" cType="1" res="2.3755878210067749e-03" rms="2.7055096626281738e-01" purity="5.2841812372207642e-01" nType="-99"/>
          <Node pos="r" depth="2" NCoef="0" IVar="-1" Cut="0.0000000000000000e+00" cType="1" res="4.0096361190080643e-02" rms="4.4321733713150024e-01" purity="3.1742414832115173e-01" nType="-99"/>
        </Node>
        <Node pos="r" depth="1" NCoef="0" IVar="0" Cut="1.1443042755126953e+00" cType="1" res="-5.3211845457553864e-02" rms="1.3935896754264832e-01" purity="2.1089904010295868e-01" nType="0">
          <Node pos="l" depth="2" NCoef="0" IVar="-1" Cut="0.0000000000000000e+00" cType="1" res="-3.1042091548442841e-02" rms="-nan" purity="1.9501021504402161e-01" nType="-99"/>
          <Node pos="r" depth="2" NCoef="0" IVar="-1" Cut="0.0000000000000000e+00" cType="1" res="2.1924374625086784e-02" rms="2.8302219510078430e-01" purity="2.6454624533653259e-01" nType="-99"/>
        </Node>
      </Node>
    </BinaryTree>
    <BinaryTree type="DecisionTree" boostWeight="1.0000000000000000e+00" itree="298">
      <Node pos="s" depth="0" NCoef="0" IVar="19" Cut="1.0375864505767822e+00" cType="1" res="8.8740012142807245e-04" rms="2.4930626153945923e-01" purity="5.0532335042953491e-01" nType="0">
        <Node pos="l" depth="1" NCoef="0" IVar="70" Cut="-2.2639216482639313e-01" cType="1" res="1.1166818439960480e-02" rms="2.6008158922195435e-01" purity="5.4098987579345703e-01" nType="0">
          <Node pos="l" depth="2" NCoef="0" IVar="-1" Cut="0.0000000000000000e+00" cType="1" res="2.1091564558446407e-03" rms="2.5289973616600037e-01" purity="5.4030740261077881e-01" nType="-99"/>
          <Node pos="r" depth="2" NCoef="0" IVar="-1" Cut="0.0000000000000000e+00" cType="1" res="4.8494491726160049e-02" rms="4.1177549958229065e-01" purity="5.6350803375244141e-01" nType="-99"/>
        </Node>
        <Node pos="r" depth="1" NCoef="0" IVar="4" Cut="3.8825063705444336e+00" cType="1" res="-5.3487867116928101e-02" rms="1.7205727100372314e-01" purity="3.1665736436843872e-01" nType="0">
          <Node pos="l" depth="2" NCoef="0" IVar="-1" Cut="0.0000000000000000e+00" cType="1" res="-2.4413919076323509e-02" rms="1.1372108757495880e-01" purity="2.8920724987983704e-01" nType="-99"/>
          <Node pos="r" depth="2" NCoef="0" IVar="-1" Cut="0.0000000000000000e+00" cType="1" res="1.0268709622323513e-02" rms="2.8258085250854492e-01" purity="4.1406375169754028e-01" nType="-99"/>
        </Node>
      </Node>
    </BinaryTree>
    <BinaryTree type="DecisionTree" boostWeight="1.0000000000000000e+00" itree="299">
      <Node pos="s" depth="0" NCoef="0" IVar="2" Cut="1.4724985361099243e+00" cType="1" res="-2.9062631074339151e-04" rms="2.5435531139373779e-01" purity="5.0314462184906006e-01" nType="0">
        <Node pos="l" depth="1" NCoef="0" IVar="17" Cut="-8.3543121814727783e-01" cType="1" res="-6.2224790453910828e-02" rms="1.0570725798606873e-01" purity="6.9825276732444763e-02" nType="0">
          <Node pos="l" depth="2" NCoef="0" IVar="-1" Cut="0.0000000000000000e+00" cType="1" res="1.0941436514258385e-02" rms="1.4174701273441315e-01" purity="2.5257973000407219e-02" nType="-99"/>
          <Node pos="r" depth="2" NCoef="0" IVar="-1" Cut="0.0000000000000000e+00" cType="1" res="-3.4191887825727463e-02" rms="2.0249458029866219e-02" purity="9.8305553197860718e-02" nType="-99"/>
        </Node>
        <Node pos="r" depth="1" NCoef="0" IVar="42" Cut="3.5619485378265381e-01" cType="1" res="5.4586180485785007e-03" rms="2.6320317387580872e-01" purity="5.4336893558502197e-01" nType="0">
          <Node pos="l" depth="2" NCoef="0" IVar="-1" Cut="0.0000000000000000e+00" cType="1" res="1.6392688849009573e-04" rms="2.5888198614120483e-01" purity="5.4475092887878418e-01" nType="-99"/>
          <Node pos="r" depth="2" NCoef="0" IVar="-1" Cut="0.0000000000000000e+00" cType="1" res="2.8574854135513306e-02" rms="3.1939086318016052e-01" purity="5.1815325021743774e-01" nType="-99"/>
        </Node>
      </Node>
    </BinaryTree>
    <BinaryTree type="DecisionTree" boostWeight="1.0000000000000000e+00" itree="300">
      <Node pos="s" depth="0" NCoef="0" IVar="76" Cut="8.1646516919136047e-03" cType="1" res="-8.4030898287892342e-03" rms="2.3924240469932556e-01" purity="4.9202978610992432e-01" nType="0">
        <Node pos="l" depth="1" NCoef="0" IVar="73" Cut="2.4647772312164307e+00" cType="1" res="3.0490763019770384e-03" rms="2.6005050539970398e-01" purity="5.8695149421691895e-01" nType="0">
          <Node pos="l" depth="2" NCoef="0" IVar="-1" Cut="0.0000000000000000e+00" cType="1" res="1.1821873486042023e-02" rms="3.2142639160156250e-01" purity="4.2219147086143494e-01" nType="-99"/>
          <Node pos="r" depth="2" NCoef="0" IVar="-1" Cut="0.0000000000000000e+00" cType="1" res="-1.7915297066792846e-03" rms="2.4253875017166138e-01" purity="6.2551808357238770e-01" nType="-99"/>
        </Node>
        <Node pos="r" depth="1" NCoef="0" IVar="3" Cut="4.7812857627868652e+00" cType="1" res="-4.7932658344507217e-02" rms="1.3914255797863007e-01" purity="1.6438740491867065e-01" nType="0">
          <Node pos="l" depth="2" NCoef="0" IVar="-1" Cut="0.0000000000000000e+00" cType="1" res="-3.4427206963300705e-02" rms="-nan" purity="8.1823699176311493e-02" nType="-99"/>
          <Node pos="r" depth="2" NCoef="0" IVar="-1" Cut="0.0000000000000000e+00" cType="1" res="1.2567694066092372e-03" rms="2.2737009823322296e-01" purity="2.8020325303077698e-01" nType="-99"/>
        </Node>
      </Node>
    </BinaryTree>
    <BinaryTree type="DecisionTree" boostWeight="1.0000000000000000e+00" itree="301">
      <Node pos="s" depth="0" NCoef="0" IVar="39" Cut="-1.0516557693481445e+00" cType="1" res="6.3790609128773212e-03" rms="2.6152202486991882e-01" purity="5.0469028949737549e-01" nType="0">
        <Node pos="l" depth="1" NCoef="0" IVar="1" Cut="2.8522000312805176e+00" cType="1" res="-3.3684535883367062e-03" rms="2.4902997910976410e-01" purity="5.4535633325576782e-01" nType="0">
          <Node pos="l" depth="2" NCoef="0" IVar="-1" Cut="0.0000000000000000e+00" cType="1" res="5.6581553071737289e-03" rms="2.8145998716354370e-01" purity="4.5698672533035278e-01" nType="-99"/>
          <Node pos="r" depth="2" NCoef="0" IVar="-1" Cut="0.0000000000000000e+00" cType="1" res="-8.4861051291227341e-03" rms="2.0941796898841858e-01" purity="6.3315367698669434e-01" nType="-99"/>
        </Node>
        <Node pos="r" depth="1" NCoef="0" IVar="69" Cut="2.2342410087585449e+00" cType="1" res="5.5082563310861588e-02" rms="3.1211197376251221e-01" purity="3.0150252580642700e-01" nType="0">
          <Node pos="l" depth="2" NCoef="0" IVar="-1" Cut="0.0000000000000000e+00" cType="1" res="2.9690045863389969e-02" rms="3.3344954252243042e-01" purity="2.8798642754554749e-01" nType="-99"/>
          <Node pos="r" depth="2" NCoef="0" IVar="-1" Cut="0.0000000000000000e+00" cType="1" res="-1.4077926054596901e-02" rms="1.6533151268959045e-01" purity="3.5552811622619629e-01" nType="-99"/>
        </Node>
      </Node>
    </BinaryTree>
    <BinaryTree type="DecisionTree" boostWeight="1.0000000000000000e+00" itree="302">
      <Node pos="s" depth="0" NCoef="0" IVar="52" Cut="2.3601732254028320e+00" cType="1" res="2.5987939443439245e-03" rms="2.5452953577041626e-01" purity="4.9982443451881409e-01" nType="0">
        <Node pos="l" depth="1" NCoef="0" IVar="-1" Cut="0.0000000000000000e+00" cType="1" res="2.9117302969098091e-02" rms="3.4094694256782532e-01" purity="2.8776314854621887e-01" nType="-99"/>
        <Node pos="r" depth="1" NCoef="0" IVar="39" Cut="-2.3128197193145752e+00" cType="1" res="-1.5952680259943008e-03" rms="2.4949437379837036e-01" purity="5.0842237472534180e-01" nType="0">
          <Node pos="l" depth="2" NCoef="0" IVar="-1" Cut="0.0000000000000000e+00" cType="1" res="6.1937286518514156e-03" rms="2.7911999821662903e-01" purity="6.6481381654739380e-01" nType="-99"/>
          <Node pos="r" depth="2" NCoef="0" IVar="-1" Cut="0.0000000000000000e+00" cType="1" res="-4.4038323685526848e-03" rms="2.3019403219223022e-01" purity="4.2061066627502441e-01" nType="-99"/>
        </Node>
      </Node>
    </BinaryTree>
    <BinaryTree type="DecisionTree" boostWeight="1.0000000000000000e+00" itree="303">
      <Node pos="s" depth="0" NCoef="0" IVar="31" Cut="2.6087348461151123e+00" cType="1" res="-1.1141758877784014e-03" rms="2.5318646430969238e-01" purity="5.0274109840393066e-01" nType="0">
        <Node pos="l" depth="1" NCoef="0" IVar="79" Cut="-1.3009858131408691e+00" cType="1" res="-5.3507473319768906e-02" rms="1.7706643044948578e-01" purity="1.5913580358028412e-01" nType="0">
          <Node pos="l" depth="2" NCoef="0" IVar="-1" Cut="0.0000000000000000e+00" cType="1" res="-3.5876695066690445e-02" rms="-nan" purity="1.5827663242816925e-01" nType="-99"/>
          <Node pos="r" depth="2" NCoef="0" IVar="-1" Cut="0.0000000000000000e+00" cType="1" res="2.8812645468860865e-03" rms="2.8500649333000183e-01" purity="1.5994912385940552e-01" nType="-99"/>
        </Node>
        <Node pos="r" depth="1" NCoef="0" IVar="42" Cut="3.7743240594863892e-01" cType="1" res="6.3434774056077003e-03" rms="2.6137864589691162e-01" purity="5.5164980888366699e-01" nType="0">
          <Node pos="l" depth="2" NCoef="0" IVar="-1" Cut="0.0000000000000000e+00" cType="1" res="5.9937720652669668e-04" rms="2.5458541512489319e-01" purity="5.5378597974777222e-01" nType="-99"/>
          <Node pos="r" depth="2" NCoef="0" IVar="-1" Cut="0.0000000000000000e+00" cType="1" res="2.9585495591163635e-02" rms="3.6867874860763550e-01" purity="5.0474327802658081e-01" nType="-99"/>
        </Node>
      </Node>
    </BinaryTree>
    <BinaryTree type="DecisionTree" boostWeight="1.0000000000000000e+00" itree="304">
      <Node pos="s" depth="0" NCoef="0" IVar="31" Cut="2.3195874691009521e+00" cType="1" res="6.5002241171896458e-03" rms="2.5869849324226379e-01" purity="5.0837820768356323e-01" nType="0">
        <Node pos="l" depth="1" NCoef="0" IVar="-1" Cut="0.0000000000000000e+00" cType="1" res="4.3046608567237854e-02" rms="3.9553508162498474e-01" purity="2.4654731154441833e-01" nType="-99"/>
        <Node pos="r" depth="1" NCoef="0" IVar="38" Cut="-1.4926639795303345e+00" cType="1" res="2.7475575916469097e-03" rms="2.5198820233345032e-01" purity="5.1712697744369507e-01" nType="0">
          <Node pos="l" depth="2" NCoef="0" IVar="-1" Cut="0.0000000000000000e+00" cType="1" res="-3.3226996660232544e-02" rms="-nan" purity="3.5799750685691833e-01" nType="-99"/>
          <Node pos="r" depth="2" NCoef="0" IVar="-1" Cut="0.0000000000000000e+00" cType="1" res="1.8480534199625254e-03" rms="2.5891450047492981e-01" purity="5.2279347181320190e-01" nType="-99"/>
        </Node>
      </Node>
    </BinaryTree>
    <BinaryTree type="DecisionTree" boostWeight="1.0000000000000000e+00" itree="305">
      <Node pos="s" depth="0" NCoef="0" IVar="31" Cut="2.2608647346496582e+00" cType="1" res="-8.3567068213596940e-04" rms="2.5371453166007996e-01" purity="4.9772688746452332e-01" nType="0">
        <Node pos="l" depth="1" NCoef="0" IVar="-1" Cut="0.0000000000000000e+00" cType="1" res="4.3424665927886963e-02" rms="3.9852055907249451e-01" purity="3.0004268884658813e-01" nType="-99"/>
        <Node pos="r" depth="1" NCoef="0" IVar="62" Cut="-4.7096332907676697e-01" cType="1" res="-3.5851576831191778e-03" rms="2.4893315136432648e-01" purity="5.0201129913330078e-01" nType="0">
          <Node pos="l" depth="2" NCoef="0" IVar="-1" Cut="0.0000000000000000e+00" cType="1" res="3.0125357210636139e-02" rms="3.5067003965377808e-01" purity="6.2165510654449463e-01" nType="-99"/>
          <Node pos="r" depth="2" NCoef="0" IVar="-1" Cut="0.0000000000000000e+00" cType="1" res="-2.1659100893884897e-03" rms="2.4388635158538818e-01" purity="4.9789929389953613e-01" nType="-99"/>
        </Node>
      </Node>
    </BinaryTree>
    <BinaryTree type="DecisionTree" boostWeight="1.0000000000000000e+00" itree="306">
      <Node pos="s" depth="0" NCoef="0" IVar="81" Cut="-6.2695252895355225e-01" cType="1" res="1.1894437484443188e-02" rms="2.6675480604171753e-01" purity="5.1071101427078247e-01" nType="0">
        <Node pos="l" depth="1" NCoef="0" IVar="87" Cut="1.2345679104328156e-02" cType="1" res="1.6433566808700562e-02" rms="2.7440327405929565e-01" purity="5.3082019090652466e-01" nType="0">
          <Node pos="l" depth="2" NCoef="0" IVar="-1" Cut="0.0000000000000000e+00" cType="1" res="5.9560108929872513e-03" rms="2.8029510378837585e-01" purity="5.6341052055358887e-01" nType="-99"/>
          <Node pos="r" depth="2" NCoef="0" IVar="-1" Cut="0.0000000000000000e+00" cType="1" res="-3.7323005497455597e-02" rms="1.2654918432235718e-01" purity="0.0000000000000000e+00" nType="-99"/>
        </Node>
        <Node pos="r" depth="1" NCoef="0" IVar="76" Cut="-1.0752078145742416e-01" cType="1" res="-2.5152986869215965e-02" rms="-nan" purity="1.4341843128204346e-01" nType="-99"/>
      </Node>
    </BinaryTree>
    <BinaryTree type="DecisionTree" boostWeight="1.0000000000000000e+00" itree="307">
      <Node pos="s" depth="0" NCoef="0" IVar="32" Cut="1.2345679104328156e-02" cType="1" res="6.2160957604646683e-03" rms="2.5878885388374329e-01" purity="5.0640714168548584e-01" nType="0">
        <Node pos="l" depth="1" NCoef="0" IVar="48" Cut="8.0304634571075439e-01" cType="1" res="3.1772334128618240e-02" rms="3.0185967683792114e-01" purity="4.5559927821159363e-01" nType="0">
          <Node pos="l" depth="2" NCoef="0" IVar="-1" Cut="0.0000000000000000e+00" cType="1" res="6.3403591513633728e-02" rms="4.3244314193725586e-01" purity="3.1357228755950928e-01" nType="-99"/>
          <Node pos="r" depth="2" NCoef="0" IVar="-1" Cut="0.0000000000000000e+00" cType="1" res="5.4589775390923023e-03" rms="2.8616362810134888e-01" purity="4.6655106544494629e-01" nType="-99"/>
        </Node>
        <Node pos="r" depth="1" NCoef="0" IVar="57" Cut="1.5230456590652466e+00" cType="1" res="-6.5884361974895000e-03" rms="2.3319888114929199e-01" purity="5.3186351060867310e-01" nType="0">
          <Node pos="l" depth="2" NCoef="0" IVar="-1" Cut="0.0000000000000000e+00" cType="1" res="-9.1067338362336159e-03" rms="2.0534017682075500e-01" purity="3.4442800283432007e-01" nType="-99"/>
          <Node pos="r" depth="2" NCoef="0" IVar="-1" Cut="0.0000000000000000e+00" cType="1" res="7.6337195932865143e-03" rms="2.6793980598449707e-01" purity="8.2456332445144653e-01" nType="-99"/>
        </Node>
      </Node>
    </BinaryTree>
    <BinaryTree type="DecisionTree" boostWeight="1.0000000000000000e+00" itree="308">
      <Node pos="s" depth="0" NCoef="0" IVar="3" Cut="5.4296712875366211e+00" cType="1" res="5.4307649843394756e-03" rms="2.5406995415687561e-01" purity="5.0666224956512451e-01" nType="0">
        <Node pos="l" depth="1" NCoef="0" IVar="60" Cut="-6.9775760173797607e-01" cType="1" res="7.4210716411471367e-04" rms="2.5015449523925781e-01" purity="5.1393109560012817e-01" nType="0">
          <Node pos="l" depth="2" NCoef="0" IVar="-1" Cut="0.0000000000000000e+00" cType="1" res="1.7997751710936427e-03" rms="2.5646179914474487e-01" purity="5.3958731889724731e-01" nType="-99"/>
          <Node pos="r" depth="2" NCoef="0" IVar="-1" Cut="0.0000000000000000e+00" cType="1" res="-2.6171172037720680e-02" rms="1.0244668275117874e-01" purity="1.4456018805503845e-01" nType="-99"/>
        </Node>
        <Node pos="r" depth="1" NCoef="0" IVar="80" Cut="-1.4925903081893921e+00" cType="1" res="1.1457091569900513e-01" rms="3.1318423151969910e-01" purity="3.3746203780174255e-01" nType="0">
          <Node pos="l" depth="2" NCoef="0" IVar="-1" Cut="0.0000000000000000e+00" cType="1" res="5.2111167460680008e-02" rms="3.9541670680046082e-01" purity="4.8787862062454224e-01" nType="-99"/>
          <Node pos="r" depth="2" NCoef="0" IVar="-1" Cut="0.0000000000000000e+00" cType="1" res="6.6997716203331947e-03" rms="1.4440792798995972e-01" purity="1.8435770273208618e-01" nType="-99"/>
        </Node>
      </Node>
    </BinaryTree>
    <BinaryTree type="DecisionTree" boostWeight="1.0000000000000000e+00" itree="309">
      <Node pos="s" depth="0" NCoef="0" IVar="64" Cut="1.2345679104328156e-02" cType="1" res="-5.7039139792323112e-03" rms="2.4800843000411987e-01" purity="4.9133688211441040e-01" nType="0">
        <Node pos="l" depth="1" NCoef="0" IVar="-1" Cut="0.0000000000000000e+00" cType="1" res="-3.0898997560143471e-02" rms="-nan" purity="1.4931154251098633e-01" nType="-99"/>
        <Node pos="r" depth="1" NCoef="0" IVar="55" Cut="-1.4068212509155273e+00" cType="1" res="-2.1118063014000654e-03" rms="2.5539875030517578e-01" purity="5.0321173667907715e-01" nType="0">
          <Node pos="l" depth="2" NCoef="0" IVar="-1" Cut="0.0000000000000000e+00" cType="1" res="1.9346995279192924e-02" rms="2.8956541419029236e-01" purity="3.5636994242668152e-01" nType="-99"/>
          <Node pos="r" depth="2" NCoef="0" IVar="-1" Cut="0.0000000000000000e+00" cType="1" res="-2.7871904894709587e-03" rms="2.4986723065376282e-01" purity="5.2162742614746094e-01" nType="-99"/>
        </Node>
      </Node>
    </BinaryTree>
    <BinaryTree type="DecisionTree" boostWeight="1.0000000000000000e+00" itree="310">
      <Node pos="s" depth="0" NCoef="0" IVar="83" Cut="1.3553872704505920e-01" cType="1" res="1.3776721898466349e-03" rms="2.5752967596054077e-01" purity="4.9954175949096680e-01" nType="0">
        <Node pos="l" depth="1" NCoef="0" IVar="10" Cut="2.8498756885528564e+00" cType="1" res="-9.9589452147483826e-03" rms="2.4755750596523285e-01" purity="5.2018803358078003e-01" nType="0">
          <Node pos="l" depth="2" NCoef="0" IVar="-1" Cut="0.0000000000000000e+00" cType="1" res="-3.7144027650356293e-02" rms="-nan" purity="1.0018106549978256e-01" nType="-99"/>
          <Node pos="r" depth="2" NCoef="0" IVar="-1" Cut="0.0000000000000000e+00" cType="1" res="-8.2426978042349219e-04" rms="2.5908723473548889e-01" purity="5.4915446043014526e-01" nType="-99"/>
        </Node>
        <Node pos="r" depth="1" NCoef="0" IVar="59" Cut="1.0124450922012329e+00" cType="1" res="3.4578677266836166e-02" rms="2.8212398290634155e-01" purity="4.3907603621482849e-01" nType="0">
          <Node pos="l" depth="2" NCoef="0" IVar="-1" Cut="0.0000000000000000e+00" cType="1" res="3.1901970505714417e-02" rms="3.3358615636825562e-01" purity="2.7000290155410767e-01" nType="-99"/>
          <Node pos="r" depth="2" NCoef="0" IVar="-1" Cut="0.0000000000000000e+00" cType="1" res="2.6203298475593328e-03" rms="2.4878782033920288e-01" purity="5.2333754301071167e-01" nType="-99"/>
        </Node>
      </Node>
    </BinaryTree>
    <BinaryTree type="DecisionTree" boostWeight="1.0000000000000000e+00" itree="311">
      <Node pos="s" depth="0" NCoef="0" IVar="0" Cut="7.1148175001144409e-01" cType="1" res="3.7723241839557886e-03" rms="2.6002565026283264e-01" purity="5.0191527605056763e-01" nType="0">
        <Node pos="l" depth="1" NCoef="0" IVar="55" Cut="-1.2227463722229004e+00" cType="1" res="2.6093894615769386e-02" rms="2.8558430075645447e-01" purity="5.9998154640197754e-01" nType="0">
          <Node pos="l" depth="2" NCoef="0" IVar="-1" Cut="0.0000000000000000e+00" cType="1" res="2.9868563637137413e-02" rms="3.2285785675048828e-01" purity="3.9800381660461426e-01" nType="-99"/>
          <Node pos="r" depth="2" NCoef="0" IVar="-1" Cut="0.0000000000000000e+00" cType="1" res="3.7366980686783791e-03" rms="2.7595871686935425e-01" purity="6.3859754800796509e-01" nType="-99"/>
        </Node>
        <Node pos="r" depth="1" NCoef="0" IVar="82" Cut="1.4032413959503174e+00" cType="1" res="-1.2740596197545528e-02" rms="2.3802493512630463e-01" purity="4.2936837673187256e-01" nType="0">
          <Node pos="l" depth="2" NCoef="0" IVar="-1" Cut="0.0000000000000000e+00" cType="1" res="-1.0996274650096893e-03" rms="2.5758135318756104e-01" purity="4.5592895150184631e-01" nType="-99"/>
          <Node pos="r" depth="2" NCoef="0" IVar="-1" Cut="0.0000000000000000e+00" cType="1" res="-5.6979797780513763e-02" rms="-nan" purity="9.6007652580738068e-02" nType="-99"/>
        </Node>
      </Node>
    </BinaryTree>
    <BinaryTree type="DecisionTree" boostWeight="1.0000000000000000e+00" itree="312">
      <Node pos="s" depth="0" NCoef="0" IVar="46" Cut="9.5359963178634644e-01" cType="1" res="-3.2092742621898651e-03" rms="2.4729271233081818e-01" purity="5.0193279981613159e-01" nType="0">
        <Node pos="l" depth="1" NCoef="0" IVar="0" Cut="1.1345597505569458e+00" cType="1" res="1.2991609051823616e-02" rms="2.6908305287361145e-01" purity="5.7500624656677246e-01" nType="0">
          <Node pos="l" depth="2" NCoef="0" IVar="-1" Cut="0.0000000000000000e+00" cType="1" res="6.8975212052464485e-03" rms="2.8132760524749756e-01" purity="6.0735172033309937e-01" nType="-99"/>
          <Node pos="r" depth="2" NCoef="0" IVar="-1" Cut="0.0000000000000000e+00" cType="1" res="-1.7080515623092651e-02" rms="1.6023384034633636e-01" purity="3.7790814042091370e-01" nType="-99"/>
        </Node>
        <Node pos="r" depth="1" NCoef="0" IVar="79" Cut="-1.3767442703247070e+00" cType="1" res="-2.0584039390087128e-02" rms="2.2023399174213409e-01" purity="4.2356452345848083e-01" nType="0">
          <Node pos="l" depth="2" NCoef="0" IVar="-1" Cut="0.0000000000000000e+00" cType="1" res="3.2776636071503162e-03" rms="2.7683132886886597e-01" purity="5.3685683012008667e-01" nType="-99"/>
          <Node pos="r" depth="2" NCoef="0" IVar="-1" Cut="0.0000000000000000e+00" cType="1" res="-1.6375010833144188e-02" rms="1.5963073074817657e-01" purity="3.3631911873817444e-01" nType="-99"/>
        </Node>
      </Node>
    </BinaryTree>
    <BinaryTree type="DecisionTree" boostWeight="1.0000000000000000e+00" itree="313">
      <Node pos="s" depth="0" NCoef="0" IVar="5" Cut="-1.0633386671543121e-01" cType="1" res="-1.1717832647264004e-02" rms="2.3606200516223907e-01" purity="4.8080369830131531e-01" nType="0">
        <Node pos="l" depth="1" NCoef="0" IVar="81" Cut="-1.9039685726165771e+00" cType="1" res="-3.8894463330507278e-02" rms="-nan" purity="1.3380862772464752e-01" nType="-99"/>
        <Node pos="r" depth="1" NCoef="0" IVar="42" Cut="-6.0056495666503906e-01" cType="1" res="-7.0484532043337822e-03" rms="2.4724271893501282e-01" purity="5.0038844347000122e-01" nType="0">
          <Node pos="l" depth="2" NCoef="0" IVar="-1" Cut="0.0000000000000000e+00" cType="1" res="2.6897115632891655e-02" rms="3.5213401913642883e-01" purity="5.1403629779815674e-01" nType="-99"/>
          <Node pos="r" depth="2" NCoef="0" IVar="-1" Cut="0.0000000000000000e+00" cType="1" res="-3.1367947813123465e-03" rms="2.4232779443264008e-01" purity="4.9993467330932617e-01" nType="-99"/>
        </Node>
      </Node>
    </BinaryTree>
    <BinaryTree type="DecisionTree" boostWeight="1.0000000000000000e+00" itree="314">
      <Node pos="s" depth="0" NCoef="0" IVar="62" Cut="2.0718410611152649e-01" cType="1" res="-5.2582165226340294e-03" rms="2.4322739243507385e-01" purity="4.9635025858879089e-01" nType="0">
        <Node pos="l" depth="1" NCoef="0" IVar="17" Cut="-9.1227054595947266e-01" cType="1" res="-1.2454533018171787e-02" rms="2.2969737648963928e-01" purity="5.1023721694946289e-01" nType="0">
          <Node pos="l" depth="2" NCoef="0" IVar="-1" Cut="0.0000000000000000e+00" cType="1" res="-7.4746333062648773e-02" rms="-nan" purity="-3.9590071886777878e-02" nType="-99"/>
          <Node pos="r" depth="2" NCoef="0" IVar="-1" Cut="0.0000000000000000e+00" cType="1" res="-8.7945116683840752e-04" rms="2.6431104540824890e-01" purity="6.0838967561721802e-01" nType="-99"/>
        </Node>
        <Node pos="r" depth="1" NCoef="0" IVar="34" Cut="1.4726364612579346e+00" cType="1" res="3.6579232662916183e-02" rms="3.0709657073020935e-01" purity="4.1561520099639893e-01" nType="0">
          <Node pos="l" depth="2" NCoef="0" IVar="-1" Cut="0.0000000000000000e+00" cType="1" res="2.8437543660402298e-02" rms="3.4903386235237122e-01" purity="3.1924131512641907e-01" nType="-99"/>
          <Node pos="r" depth="2" NCoef="0" IVar="-1" Cut="0.0000000000000000e+00" cType="1" res="-7.0030912756919861e-03" rms="2.3105666041374207e-01" purity="5.3603208065032959e-01" nType="-99"/>
        </Node>
      </Node>
    </BinaryTree>
    <BinaryTree type="DecisionTree" boostWeight="1.0000000000000000e+00" itree="315">
      <Node pos="s" depth="0" NCoef="0" IVar="0" Cut="1.1326156854629517e+00" cType="1" res="1.9172333413735032e-03" rms="2.5227618217468262e-01" purity="5.0294721126556396e-01" nType="0">
        <Node pos="l" depth="1" NCoef="0" IVar="63" Cut="-3.0785998702049255e-01" cType="1" res="1.1186148039996624e-02" rms="2.6829475164413452e-01" purity="5.4060816764831543e-01" nType="0">
          <Node pos="l" depth="2" NCoef="0" IVar="-1" Cut="0.0000000000000000e+00" cType="1" res="1.5394504182040691e-02" rms="3.0088824033737183e-01" purity="5.8140099048614502e-01" nType="-99"/>
          <Node pos="r" depth="2" NCoef="0" IVar="-1" Cut="0.0000000000000000e+00" cType="1" res="8.9012325042858720e-04" rms="2.6070365309715271e-01" purity="5.3268271684646606e-01" nType="-99"/>
        </Node>
        <Node pos="r" depth="1" NCoef="0" IVar="60" Cut="-9.5068287849426270e-01" cType="1" res="-4.7607459127902985e-02" rms="1.2718714773654938e-01" purity="3.0172082781791687e-01" nType="0">
          <Node pos="l" depth="2" NCoef="0" IVar="-1" Cut="0.0000000000000000e+00" cType="1" res="-7.8735966235399246e-03" rms="1.9888158142566681e-01" purity="3.5831692814826965e-01" nType="-99"/>
          <Node pos="r" depth="2" NCoef="0" IVar="-1" Cut="0.0000000000000000e+00" cType="1" res="-8.8351145386695862e-02" rms="-nan" purity="-8.1571293994784355e-03" nType="-99"/>
        </Node>
      </Node>
    </BinaryTree>
    <BinaryTree type="DecisionTree" boostWeight="1.0000000000000000e+00" itree="316">
      <Node pos="s" depth="0" NCoef="0" IVar="84" Cut="4.2250075936317444e-01" cType="1" res="-4.4824196957051754e-03" rms="2.3835231363773346e-01" purity="4.9413359165191650e-01" nType="0">
        <Node pos="l" depth="1" NCoef="0" IVar="60" Cut="-6.7434859275817871e-01" cType="1" res="-1.8277383642271161e-03" rms="2.4423407018184662e-01" purity="4.9928629398345947e-01" nType="0">
          <Node pos="l" depth="2" NCoef="0" IVar="-1" Cut="0.0000000000000000e+00" cType="1" res="8.2579778973013163e-04" rms="2.5131025910377502e-01" purity="5.2212083339691162e-01" nType="-99"/>
          <Node pos="r" depth="2" NCoef="0" IVar="-1" Cut="0.0000000000000000e+00" cType="1" res="-2.4509891867637634e-02" rms="3.7301104515790939e-02" purity="1.5316276252269745e-01" nType="-99"/>
        </Node>
        <Node pos="r" depth="1" NCoef="0" IVar="-1" Cut="0.0000000000000000e+00" cType="1" res="-4.6661969274282455e-02" rms="-nan" purity="2.4668882787227631e-01" nType="-99"/>
      </Node>
    </BinaryTree>
    <BinaryTree type="DecisionTree" boostWeight="1.0000000000000000e+00" itree="317">
      <Node pos="s" depth="0" NCoef="0" IVar="73" Cut="2.1934404373168945e+00" cType="1" res="3.0534551478922367e-03" rms="2.5360628962516785e-01" purity="5.0312060117721558e-01" nType="0">
        <Node pos="l" depth="1" NCoef="0" IVar="-1" Cut="0.0000000000000000e+00" cType="1" res="-4.0003914386034012e-02" rms="-nan" purity="1.2948702275753021e-01" nType="-99"/>
        <Node pos="r" depth="1" NCoef="0" IVar="79" Cut="7.8182721138000488e-01" cType="1" res="6.9501884281635284e-03" rms="2.5719505548477173e-01" purity="5.1598352193832397e-01" nType="0">
          <Node pos="l" depth="2" NCoef="0" IVar="-1" Cut="0.0000000000000000e+00" cType="1" res="4.2741480283439159e-03" rms="2.6897865533828735e-01" purity="5.4348647594451904e-01" nType="-99"/>
          <Node pos="r" depth="2" NCoef="0" IVar="-1" Cut="0.0000000000000000e+00" cType="1" res="-1.8625579774379730e-02" rms="1.3865852355957031e-01" purity="3.2292559742927551e-01" nType="-99"/>
        </Node>
      </Node>
    </BinaryTree>
    <BinaryTree type="DecisionTree" boostWeight="1.0000000000000000e+00" itree="318">
      <Node pos="s" depth="0" NCoef="0" IVar="27" Cut="7.0181399583816528e-01" cType="1" res="6.9635082036256790e-03" rms="2.6176247000694275e-01" purity="4.9744433164596558e-01" nType="0">
        <Node pos="l" depth="1" NCoef="0" IVar="-1" Cut="0.0000000000000000e+00" cType="1" res="4.7632500529289246e-02" rms="4.0601980686187744e-01" purity="3.1580346822738647e-01" nType="-99"/>
        <Node pos="r" depth="1" NCoef="0" IVar="5" Cut="4.9511218070983887e-01" cType="1" res="2.2390445228666067e-03" rms="2.5389301776885986e-01" purity="5.0386267900466919e-01" nType="0">
          <Node pos="l" depth="2" NCoef="0" IVar="-1" Cut="0.0000000000000000e+00" cType="1" res="2.0137464161962271e-03" rms="2.5896763801574707e-01" purity="5.2156394720077515e-01" nType="-99"/>
          <Node pos="r" depth="2" NCoef="0" IVar="-1" Cut="0.0000000000000000e+00" cType="1" res="-2.6327300816774368e-02" rms="9.7258642315864563e-02" purity="1.7768923938274384e-01" nType="-99"/>
        </Node>
      </Node>
    </BinaryTree>
    <BinaryTree type="DecisionTree" boostWeight="1.0000000000000000e+00" itree="319">
      <Node pos="s" depth="0" NCoef="0" IVar="36" Cut="8.6697942018508911e-01" cType="1" res="-2.5192042812705040e-03" rms="2.4345795810222626e-01" purity="5.0466400384902954e-01" nType="0">
        <Node pos="l" depth="1" NCoef="0" IVar="48" Cut="8.8490891456604004e-01" cType="1" res="-3.4433156251907349e-02" rms="1.4004126191139221e-01" purity="8.0151356756687164e-02" nType="0">
          <Node pos="l" depth="2" NCoef="0" IVar="-1" Cut="0.0000000000000000e+00" cType="1" res="5.2395999431610107e-02" rms="3.0425742268562317e-01" purity="1.3314767181873322e-01" nType="-99"/>
          <Node pos="r" depth="2" NCoef="0" IVar="-1" Cut="0.0000000000000000e+00" cType="1" res="-1.8607053905725479e-02" rms="8.9088767766952515e-02" purity="7.3108926415443420e-02" nType="-99"/>
        </Node>
        <Node pos="r" depth="1" NCoef="0" IVar="19" Cut="1.4018220901489258e+00" cType="1" res="7.3463064618408680e-03" rms="2.6668277382850647e-01" purity="6.3589298725128174e-01" nType="0">
          <Node pos="l" depth="2" NCoef="0" IVar="-1" Cut="0.0000000000000000e+00" cType="1" res="3.5455038305372000e-03" rms="2.7138048410415649e-01" purity="6.4471715688705444e-01" nType="-99"/>
          <Node pos="r" depth="2" NCoef="0" IVar="-1" Cut="0.0000000000000000e+00" cType="1" res="-3.6242283880710602e-02" rms="-nan" purity="3.9947575330734253e-01" nType="-99"/>
        </Node>
      </Node>
    </BinaryTree>
    <BinaryTree type="DecisionTree" boostWeight="1.0000000000000000e+00" itree="320">
      <Node pos="s" depth="0" NCoef="0" IVar="16" Cut="-1.1082135438919067e+00" cType="1" res="-3.1158858910202980e-03" rms="2.4245283007621765e-01" purity="5.0374394655227661e-01" nType="0">
        <Node pos="l" depth="1" NCoef="0" IVar="55" Cut="1.3587576150894165e+00" cType="1" res="-4.0010247379541397e-02" rms="1.7553670704364777e-01" purity="3.4183678030967712e-01" nType="0">
          <Node pos="l" depth="2" NCoef="0" IVar="-1" Cut="0.0000000000000000e+00" cType="1" res="-4.1085500270128250e-02" rms="-nan" purity="3.4488249570131302e-02" nType="-99"/>
          <Node pos="r" depth="2" NCoef="0" IVar="-1" Cut="0.0000000000000000e+00" cType="1" res="-3.3165297936648130e-03" rms="2.4082835018634796e-01" purity="4.9996075034141541e-01" nType="-99"/>
        </Node>
        <Node pos="r" depth="1" NCoef="0" IVar="13" Cut="1.7333877086639404e-01" cType="1" res="4.4665448367595673e-03" rms="2.5336635112762451e-01" purity="5.3701865673065186e-01" nType="0">
          <Node pos="l" depth="2" NCoef="0" IVar="-1" Cut="0.0000000000000000e+00" cType="1" res="-1.7481869086623192e-02" rms="-nan" purity="2.0554077625274658e-01" nType="-99"/>
          <Node pos="r" depth="2" NCoef="0" IVar="-1" Cut="0.0000000000000000e+00" cType="1" res="3.8814670406281948e-03" rms="2.8006547689437866e-01" purity="6.0437005758285522e-01" nType="-99"/>
        </Node>
      </Node>
    </BinaryTree>
    <BinaryTree type="DecisionTree" boostWeight="1.0000000000000000e+00" itree="321">
      <Node pos="s" depth="0" NCoef="0" IVar="52" Cut="3.6278266906738281e+00" cType="1" res="2.0381018985062838e-03" rms="2.6415508985519409e-01" purity="5.0227403640747070e-01" nType="0">
        <Node pos="l" depth="1" NCoef="0" IVar="81" Cut="-2.5974895954132080e+00" cType="1" res="-1.2078490108251572e-03" rms="2.6088067889213562e-01" purity="5.0199484825134277e-01" nType="0">
          <Node pos="l" depth="2" NCoef="0" IVar="-1" Cut="0.0000000000000000e+00" cType="1" res="-4.9414239823818207e-02" rms="-nan" purity="4.8217710852622986e-01" nType="-99"/>
          <Node pos="r" depth="2" NCoef="0" IVar="-1" Cut="0.0000000000000000e+00" cType="1" res="5.4536975221708417e-04" rms="2.6440373063087463e-01" purity="5.0247794389724731e-01" nType="-99"/>
        </Node>
        <Node pos="r" depth="1" NCoef="0" IVar="-1" Cut="0.0000000000000000e+00" cType="1" res="4.6980779618024826e-02" rms="3.5607090592384338e-01" purity="5.1538628339767456e-01" nType="-99"/>
      </Node>
    </BinaryTree>
    <BinaryTree type="DecisionTree" boostWeight="1.0000000000000000e+00" itree="322">
      <Node pos="s" depth="0" NCoef="0" IVar="56" Cut="1.4826264381408691e+00" cType="1" res="3.4417549613863230e-03" rms="2.5649502873420715e-01" purity="4.9834042787551880e-01" nType="0">
        <Node pos="l" depth="1" NCoef="0" IVar="3" Cut="4.2847356796264648e+00" cType="1" res="6.3548120670020580e-03" rms="2.5993508100509644e-01" purity="5.0797951221466064e-01" nType="0">
          <Node pos="l" depth="2" NCoef="0" IVar="-1" Cut="0.0000000000000000e+00" cType="1" res="3.5312443971633911e-02" rms="3.9708411693572998e-01" purity="3.5327109694480896e-01" nType="-99"/>
          <Node pos="r" depth="2" NCoef="0" IVar="-1" Cut="0.0000000000000000e+00" cType="1" res="1.0727691696956754e-03" rms="2.5523069500923157e-01" purity="5.1150184869766235e-01" nType="-99"/>
        </Node>
        <Node pos="r" depth="1" NCoef="0" IVar="-1" Cut="0.0000000000000000e+00" cType="1" res="-3.9488177746534348e-02" rms="-nan" purity="1.1082836985588074e-01" nType="-99"/>
      </Node>
    </BinaryTree>
    <BinaryTree type="DecisionTree" boostWeight="1.0000000000000000e+00" itree="323">
      <Node pos="s" depth="0" NCoef="0" IVar="17" Cut="-6.0282588005065918e-01" cType="1" res="-7.7831130474805832e-03" rms="2.4035646021366119e-01" purity="4.8736277222633362e-01" nType="0">
        <Node pos="l" depth="1" NCoef="0" IVar="36" Cut="7.8577005863189697e-01" cType="1" res="-6.6637702286243439e-02" rms="-nan" purity="-2.9796332120895386e-02" nType="-99"/>
        <Node pos="r" depth="1" NCoef="0" IVar="34" Cut="-6.4441728591918945e-01" cType="1" res="1.3808262301608920e-03" rms="2.7644190192222595e-01" purity="5.9445887804031372e-01" nType="0">
          <Node pos="l" depth="2" NCoef="0" IVar="-1" Cut="0.0000000000000000e+00" cType="1" res="1.3465965166687965e-02" rms="3.0820277333259583e-01" purity="4.0110412240028381e-01" nType="-99"/>
          <Node pos="r" depth="2" NCoef="0" IVar="-1" Cut="0.0000000000000000e+00" cType="1" res="-2.5933191645890474e-03" rms="2.6729482412338257e-01" purity="6.3938969373703003e-01" nType="-99"/>
        </Node>
      </Node>
    </BinaryTree>
    <BinaryTree type="DecisionTree" boostWeight="1.0000000000000000e+00" itree="324">
      <Node pos="s" depth="0" NCoef="0" IVar="34" Cut="-7.6008969545364380e-01" cType="1" res="-5.6647225283086300e-03" rms="2.4658326804637909e-01" purity="4.9131754040718079e-01" nType="0">
        <Node pos="l" depth="1" NCoef="0" IVar="76" Cut="-1.3392146825790405e+00" cType="1" res="-4.6394295990467072e-02" rms="7.6549880206584930e-02" purity="2.1471576392650604e-01" nType="0">
          <Node pos="l" depth="2" NCoef="0" IVar="-1" Cut="0.0000000000000000e+00" cType="1" res="-3.0325766652822495e-02" rms="-nan" purity="2.5851476192474365e-01" nType="-99"/>
          <Node pos="r" depth="2" NCoef="0" IVar="-1" Cut="0.0000000000000000e+00" cType="1" res="6.1955433338880539e-03" rms="2.0894587039947510e-01" purity="1.6387683153152466e-01" nType="-99"/>
        </Node>
        <Node pos="r" depth="1" NCoef="0" IVar="34" Cut="-4.5872997492551804e-02" cType="1" res="4.0417541749775410e-03" rms="2.7093839645385742e-01" purity="5.5723595619201660e-01" nType="0">
          <Node pos="l" depth="2" NCoef="0" IVar="-1" Cut="0.0000000000000000e+00" cType="1" res="3.4583650529384613e-02" rms="3.8261538743972778e-01" purity="3.9571911096572876e-01" nType="-99"/>
          <Node pos="r" depth="2" NCoef="0" IVar="-1" Cut="0.0000000000000000e+00" cType="1" res="-1.1185629409737885e-04" rms="2.6468384265899658e-01" purity="5.6349575519561768e-01" nType="-99"/>
        </Node>
      </Node>
    </BinaryTree>
    <BinaryTree type="DecisionTree" boostWeight="1.0000000000000000e+00" itree="325">
      <Node pos="s" depth="0" NCoef="0" IVar="17" Cut="-1.3378660678863525e+00" cType="1" res="-4.9313073977828026e-03" rms="2.4809844791889191e-01" purity="4.9845361709594727e-01" nType="0">
        <Node pos="l" depth="1" NCoef="0" IVar="38" Cut="-1.2233285903930664e+00" cType="1" res="-1.0678935796022415e-01" rms="-nan" purity="-5.2565854042768478e-02" nType="-99"/>
        <Node pos="r" depth="1" NCoef="0" IVar="83" Cut="-1.4024069905281067e-01" cType="1" res="2.6244083419442177e-03" rms="2.7384218573570251e-01" purity="5.6035208702087402e-01" nType="0">
          <Node pos="l" depth="2" NCoef="0" IVar="-1" Cut="0.0000000000000000e+00" cType="1" res="9.9150324240326881e-03" rms="3.0375230312347412e-01" purity="6.6375166177749634e-01" nType="-99"/>
          <Node pos="r" depth="2" NCoef="0" IVar="-1" Cut="0.0000000000000000e+00" cType="1" res="-3.1152972951531410e-03" rms="2.5913223624229431e-01" purity="5.1718014478683472e-01" nType="-99"/>
        </Node>
      </Node>
    </BinaryTree>
    <BinaryTree type="DecisionTree" boostWeight="1.0000000000000000e+00" itree="326">
      <Node pos="s" depth="0" NCoef="0" IVar="69" Cut="9.8932635784149170e-01" cType="1" res="-2.0824278180953115e-05" rms="2.4894654750823975e-01" purity="4.9906042218208313e-01" nType="0">
        <Node pos="l" depth="1" NCoef="0" IVar="69" Cut="9.1277569532394409e-01" cType="1" res="-4.2226314544677734e-02" rms="1.6947634518146515e-01" purity="2.1784988045692444e-01" nType="0">
          <Node pos="l" depth="2" NCoef="0" IVar="-1" Cut="0.0000000000000000e+00" cType="1" res="-8.1882653757929802e-03" rms="2.1598817408084869e-01" purity="2.2475950419902802e-01" nType="-99"/>
          <Node pos="r" depth="2" NCoef="0" IVar="-1" Cut="0.0000000000000000e+00" cType="1" res="-4.3967049568891525e-02" rms="-nan" purity="1.8355910480022430e-01" nType="-99"/>
        </Node>
        <Node pos="r" depth="1" NCoef="0" IVar="0" Cut="1.3460992574691772e+00" cType="1" res="7.6375938951969147e-03" rms="2.6005053520202637e-01" purity="5.5008763074874878e-01" nType="0">
          <Node pos="l" depth="2" NCoef="0" IVar="-1" Cut="0.0000000000000000e+00" cType="1" res="3.7002989556640387e-03" rms="2.6768708229064941e-01" purity="5.6360584497451782e-01" nType="-99"/>
          <Node pos="r" depth="2" NCoef="0" IVar="-1" Cut="0.0000000000000000e+00" cType="1" res="-2.6714591309428215e-02" rms="-nan" purity="2.8963649272918701e-01" nType="-99"/>
        </Node>
      </Node>
    </BinaryTree>
    <BinaryTree type="DecisionTree" boostWeight="1.0000000000000000e+00" itree="327">
      <Node pos="s" depth="0" NCoef="0" IVar="49" Cut="-9.4033932685852051e-01" cType="1" res="-9.3835633015260100e-04" rms="2.5334250926971436e-01" purity="4.8959007859230042e-01" nType="0">
        <Node pos="l" depth="1" NCoef="0" IVar="16" Cut="-1.2614017724990845e+00" cType="1" res="3.5818098112940788e-03" rms="2.6096743345260620e-01" purity="4.9570107460021973e-01" nType="0">
          <Node pos="l" depth="2" NCoef="0" IVar="-1" Cut="0.0000000000000000e+00" cType="1" res="1.8438689410686493e-02" rms="2.9874834418296814e-01" purity="3.4029120206832886e-01" nType="-99"/>
          <Node pos="r" depth="2" NCoef="0" IVar="-1" Cut="0.0000000000000000e+00" cType="1" res="-1.0822190670296550e-03" rms="2.5478202104568481e-01" purity="5.1596844196319580e-01" nType="-99"/>
        </Node>
        <Node pos="r" depth="1" NCoef="0" IVar="58" Cut="-7.9934668540954590e-01" cType="1" res="-3.1563840806484222e-02" rms="-nan" purity="3.5300695896148682e-01" nType="-99"/>
      </Node>
    </BinaryTree>
    <BinaryTree type="DecisionTree" boostWeight="1.0000000000000000e+00" itree="328">
      <Node pos="s" depth="0" NCoef="0" IVar="60" Cut="-8.8813686370849609e-01" cType="1" res="-2.0938483066856861e-03" rms="2.4857246875762939e-01" purity="4.9720117449760437e-01" nType="0">
        <Node pos="l" depth="1" NCoef="0" IVar="2" Cut="1.9161440134048462e+00" cType="1" res="5.4330220445990562e-03" rms="2.6085823774337769e-01" purity="5.3522539138793945e-01" nType="0">
          <Node pos="l" depth="2" NCoef="0" IVar="-1" Cut="0.0000000000000000e+00" cType="1" res="-1.2321039102971554e-02" rms="1.6849867999553680e-01" purity="1.9496268033981323e-01" nType="-99"/>
          <Node pos="r" depth="2" NCoef="0" IVar="-1" Cut="0.0000000000000000e+00" cType="1" res="4.5094671659171581e-03" rms="2.7826747298240662e-01" purity="6.1999738216400146e-01" nType="-99"/>
        </Node>
        <Node pos="r" depth="1" NCoef="0" IVar="16" Cut="3.1304192543029785e-01" cType="1" res="-5.9458781033754349e-02" rms="1.0181186348199844e-01" purity="2.0740529894828796e-01" nType="0">
          <Node pos="l" depth="2" NCoef="0" IVar="-1" Cut="0.0000000000000000e+00" cType="1" res="-1.0664712637662888e-02" rms="1.8580028414726257e-01" purity="2.3903487622737885e-01" nType="-99"/>
          <Node pos="r" depth="2" NCoef="0" IVar="-1" Cut="0.0000000000000000e+00" cType="1" res="-6.1681795865297318e-02" rms="-nan" purity="7.8961290419101715e-02" nType="-99"/>
        </Node>
      </Node>
    </BinaryTree>
    <BinaryTree type="DecisionTree" boostWeight="1.0000000000000000e+00" itree="329">
      <Node pos="s" depth="0" NCoef="0" IVar="25" Cut="1.3164678812026978e+00" cType="1" res="4.6382057480514050e-03" rms="2.5426357984542847e-01" purity="5.0541800260543823e-01" nType="0">
        <Node pos="l" depth="1" NCoef="0" IVar="77" Cut="1.3673177957534790e+00" cType="1" res="8.0662956461310387e-03" rms="2.6109448075294495e-01" purity="5.1760530471801758e-01" nType="0">
          <Node pos="l" depth="2" NCoef="0" IVar="-1" Cut="0.0000000000000000e+00" cType="1" res="3.5525537095963955e-03" rms="2.7005639672279358e-01" purity="5.4145967960357666e-01" nType="-99"/>
          <Node pos="r" depth="2" NCoef="0" IVar="-1" Cut="0.0000000000000000e+00" cType="1" res="-4.6364106237888336e-02" rms="-nan" purity="1.9174119457602501e-02" nType="-99"/>
        </Node>
        <Node pos="r" depth="1" NCoef="0" IVar="37" Cut="-4.1618317365646362e-01" cType="1" res="-2.7690617367625237e-02" rms="-nan" purity="2.1491828560829163e-01" nType="-99"/>
      </Node>
    </BinaryTree>
    <BinaryTree type="DecisionTree" boostWeight="1.0000000000000000e+00" itree="330">
      <Node pos="s" depth="0" NCoef="0" IVar="55" Cut="3.5864087939262390e-01" cType="1" res="-3.2836224418133497e-03" rms="2.4092556536197662e-01" purity="5.0420695543289185e-01" nType="0">
        <Node pos="l" depth="1" NCoef="0" IVar="27" Cut="1.2811332941055298e+00" cType="1" res="-4.8980813473463058e-02" rms="9.1032646596431732e-02" purity="2.0214280486106873e-01" nType="0">
          <Node pos="l" depth="2" NCoef="0" IVar="-1" Cut="0.0000000000000000e+00" cType="1" res="2.5537567213177681e-02" rms="2.7247136831283569e-01" purity="1.8706513941287994e-01" nType="-99"/>
          <Node pos="r" depth="2" NCoef="0" IVar="-1" Cut="0.0000000000000000e+00" cType="1" res="-2.9413403943181038e-02" rms="-nan" purity="2.0748619735240936e-01" nType="-99"/>
        </Node>
        <Node pos="r" depth="1" NCoef="0" IVar="15" Cut="1.4342493377625942e-02" cType="1" res="9.9345026537775993e-03" rms="2.6769229769706726e-01" purity="5.9158033132553101e-01" nType="0">
          <Node pos="l" depth="2" NCoef="0" IVar="-1" Cut="0.0000000000000000e+00" cType="1" res="2.3012215271592140e-02" rms="2.8415730595588684e-01" purity="3.3472633361816406e-01" nType="-99"/>
          <Node pos="r" depth="2" NCoef="0" IVar="-1" Cut="0.0000000000000000e+00" cType="1" res="-9.4332307344302535e-04" rms="2.6073428988456726e-01" purity="6.7454367876052856e-01" nType="-99"/>
        </Node>
      </Node>
    </BinaryTree>
    <BinaryTree type="DecisionTree" boostWeight="1.0000000000000000e+00" itree="331">
      <Node pos="s" depth="0" NCoef="0" IVar="46" Cut="1.6608406305313110e+00" cType="1" res="-3.8704194594174623e-03" rms="2.4459463357925415e-01" purity="4.8980796337127686e-01" nType="0">
        <Node pos="l" depth="1" NCoef="0" IVar="26" Cut="1.2345679104328156e-02" cType="1" res="-7.2428453713655472e-03" rms="2.3907423019409180e-01" purity="4.9438217282295227e-01" nType="0">
          <Node pos="l" depth="2" NCoef="0" IVar="-1" Cut="0.0000000000000000e+00" cType="1" res="-1.2873462401330471e-03" rms="2.4357984960079193e-01" purity="5.0679945945739746e-01" nType="-99"/>
          <Node pos="r" depth="2" NCoef="0" IVar="-1" Cut="0.0000000000000000e+00" cType="1" res="-5.1992546766996384e-02" rms="-nan" purity="8.1681739538908005e-03" nType="-99"/>
        </Node>
        <Node pos="r" depth="1" NCoef="0" IVar="-1" Cut="0.0000000000000000e+00" cType="1" res="8.7476283311843872e-02" rms="4.0247002243995667e-01" purity="2.6806974411010742e-01" nType="-99"/>
      </Node>
    </BinaryTree>
    <BinaryTree type="DecisionTree" boostWeight="1.0000000000000000e+00" itree="332">
      <Node pos="s" depth="0" NCoef="0" IVar="82" Cut="1.2064195871353149e+00" cType="1" res="4.9568683607503772e-04" rms="2.5110864639282227e-01" purity="5.0188171863555908e-01" nType="0">
        <Node pos="l" depth="1" NCoef="0" IVar="31" Cut="2.6080396175384521e+00" cType="1" res="-8.6691249161958694e-03" rms="2.4251933395862579e-01" purity="5.2667516469955444e-01" nType="0">
          <Node pos="l" depth="2" NCoef="0" IVar="-1" Cut="0.0000000000000000e+00" cType="1" res="-2.1430002525448799e-02" rms="1.5678532421588898e-01" purity="1.6186340153217316e-01" nType="-99"/>
          <Node pos="r" depth="2" NCoef="0" IVar="-1" Cut="0.0000000000000000e+00" cType="1" res="-2.1064237807877362e-04" rms="2.5102245807647705e-01" purity="5.7697933912277222e-01" nType="-99"/>
        </Node>
        <Node pos="r" depth="1" NCoef="0" IVar="88" Cut="1.1070190668106079e+00" cType="1" res="5.0235502421855927e-02" rms="2.8833448886871338e-01" purity="3.6732110381126404e-01" nType="0">
          <Node pos="l" depth="2" NCoef="0" IVar="-1" Cut="0.0000000000000000e+00" cType="1" res="8.1440685316920280e-03" rms="2.5074350833892822e-01" purity="3.6808475852012634e-01" nType="-99"/>
          <Node pos="r" depth="2" NCoef="0" IVar="-1" Cut="0.0000000000000000e+00" cType="1" res="8.2753211259841919e-02" rms="3.8431772589683533e-01" purity="3.6437979340553284e-01" nType="-99"/>
        </Node>
      </Node>
    </BinaryTree>
    <BinaryTree type="DecisionTree" boostWeight="1.0000000000000000e+00" itree="333">
      <Node pos="s" depth="0" NCoef="0" IVar="77" Cut="1.4813549518585205e+00" cType="1" res="4.7376120346598327e-04" rms="2.4682292342185974e-01" purity="5.0318223237991333e-01" nType="0">
        <Node pos="l" depth="1" NCoef="0" IVar="5" Cut="3.7270623445510864e-01" cType="1" res="3.5391941200941801e-03" rms="2.5459897518157959e-01" purity="5.1633858680725098e-01" nType="0">
          <Node pos="l" depth="2" NCoef="0" IVar="-1" Cut="0.0000000000000000e+00" cType="1" res="4.0420321747660637e-03" rms="2.6374775171279907e-01" purity="5.5699348449707031e-01" nType="-99"/>
          <Node pos="r" depth="2" NCoef="0" IVar="-1" Cut="0.0000000000000000e+00" cType="1" res="-9.8247667774558067e-03" rms="2.1212548017501831e-01" purity="3.6054161190986633e-01" nType="-99"/>
        </Node>
        <Node pos="r" depth="1" NCoef="0" IVar="-1" Cut="0.0000000000000000e+00" cType="1" res="-1.2665823101997375e-01" rms="-nan" purity="-8.4213353693485260e-02" nType="-99"/>
      </Node>
    </BinaryTree>
    <BinaryTree type="DecisionTree" boostWeight="1.0000000000000000e+00" itree="334">
      <Node pos="s" depth="0" NCoef="0" IVar="11" Cut="1.2345679104328156e-02" cType="1" res="5.2869729697704315e-03" rms="2.6120141148567200e-01" purity="4.9776703119277954e-01" nType="0">
        <Node pos="l" depth="1" NCoef="0" IVar="21" Cut="-1.2647351622581482e-01" cType="1" res="-6.5741419792175293e-02" rms="8.9154832065105438e-02" purity="2.4454449117183685e-01" nType="0">
          <Node pos="l" depth="2" NCoef="0" IVar="-1" Cut="0.0000000000000000e+00" cType="1" res="-5.0989400595426559e-02" rms="-nan" purity="1.8701493740081787e-01" nType="-99"/>
          <Node pos="r" depth="2" NCoef="0" IVar="-1" Cut="0.0000000000000000e+00" cType="1" res="-4.0509793907403946e-03" rms="2.2661381959915161e-01" purity="2.6959377527236938e-01" nType="-99"/>
        </Node>
        <Node pos="r" depth="1" NCoef="0" IVar="63" Cut="3.8191848993301392e-01" cType="1" res="1.1191520839929581e-02" rms="2.6978281140327454e-01" purity="5.1881724596023560e-01" nType="0">
          <Node pos="l" depth="2" NCoef="0" IVar="-1" Cut="0.0000000000000000e+00" cType="1" res="2.3765908554196358e-03" rms="2.6422744989395142e-01" purity="5.2440708875656128e-01" nType="-99"/>
          <Node pos="r" depth="2" NCoef="0" IVar="-1" Cut="0.0000000000000000e+00" cType="1" res="3.8037076592445374e-02" rms="3.7113207578659058e-01" purity="3.8061848282814026e-01" nType="-99"/>
        </Node>
      </Node>
    </BinaryTree>
    <BinaryTree type="DecisionTree" boostWeight="1.0000000000000000e+00" itree="335">
      <Node pos="s" depth="0" NCoef="0" IVar="5" Cut="-2.0259158313274384e-01" cType="1" res="1.5331672038882971e-03" rms="2.4911975860595703e-01" purity="5.0048851966857910e-01" nType="0">
        <Node pos="l" depth="1" NCoef="0" IVar="-1" Cut="0.0000000000000000e+00" cType="1" res="-8.8261328637599945e-02" rms="-nan" purity="-3.0180823057889938e-02" nType="-99"/>
        <Node pos="r" depth="1" NCoef="0" IVar="16" Cut="1.2828538417816162e+00" cType="1" res="4.8217261210083961e-03" rms="2.5587937235832214e-01" purity="5.1183879375457764e-01" nType="0">
          <Node pos="l" depth="2" NCoef="0" IVar="-1" Cut="0.0000000000000000e+00" cType="1" res="2.3207338526844978e-03" rms="2.5978529453277588e-01" purity="5.2167546749114990e-01" nType="-99"/>
          <Node pos="r" depth="2" NCoef="0" IVar="-1" Cut="0.0000000000000000e+00" cType="1" res="-2.9586832970380783e-02" rms="-nan" purity="1.5257595479488373e-01" nType="-99"/>
        </Node>
      </Node>
    </BinaryTree>
    <BinaryTree type="DecisionTree" boostWeight="1.0000000000000000e+00" itree="336">
      <Node pos="s" depth="0" NCoef="0" IVar="13" Cut="1.4780606031417847e+00" cType="1" res="1.3364097103476524e-02" rms="2.6946258544921875e-01" purity="5.0628584623336792e-01" nType="0">
        <Node pos="l" depth="1" NCoef="0" IVar="60" Cut="-8.9954924583435059e-01" cType="1" res="3.8244295865297318e-02" rms="2.6106923818588257e-01" purity="2.6477980613708496e-01" nType="0">
          <Node pos="l" depth="2" NCoef="0" IVar="-1" Cut="0.0000000000000000e+00" cType="1" res="7.1444227360188961e-03" rms="2.3009905219078064e-01" purity="2.7509471774101257e-01" nType="-99"/>
          <Node pos="r" depth="2" NCoef="0" IVar="-1" Cut="0.0000000000000000e+00" cType="1" res="7.0418946444988251e-02" rms="3.5713273286819458e-01" purity="2.1802598237991333e-01" nType="-99"/>
        </Node>
        <Node pos="r" depth="1" NCoef="0" IVar="36" Cut="-1.3764656782150269e+00" cType="1" res="-4.3371669016778469e-03" rms="2.7390587329864502e-01" purity="6.7810773849487305e-01" nType="0">
          <Node pos="l" depth="2" NCoef="0" IVar="-1" Cut="0.0000000000000000e+00" cType="1" res="-5.5117331445217133e-02" rms="-nan" purity="-5.4361153393983841e-02" nType="-99"/>
          <Node pos="r" depth="2" NCoef="0" IVar="-1" Cut="0.0000000000000000e+00" cType="1" res="5.5993435671553016e-04" rms="2.8469628095626831e-01" purity="7.1089792251586914e-01" nType="-99"/>
        </Node>
      </Node>
    </BinaryTree>
    <BinaryTree type="DecisionTree" boostWeight="1.0000000000000000e+00" itree="337">
      <Node pos="s" depth="0" NCoef="0" IVar="5" Cut="-1.2669324874877930e-01" cType="1" res="1.2685152702033520e-02" rms="2.6579946279525757e-01" purity="5.1179766654968262e-01" nType="0">
        <Node pos="l" depth="1" NCoef="0" IVar="60" Cut="-1.6330040693283081e+00" cType="1" res="-4.4923201203346252e-02" rms="-nan" purity="1.0964304953813553e-01" nType="-99"/>
        <Node pos="r" depth="1" NCoef="0" IVar="1" Cut="3.0687928199768066e+00" cType="1" res="1.6846513375639915e-02" rms="2.7478724718093872e-01" purity="5.2913355827331543e-01" nType="0">
          <Node pos="l" depth="2" NCoef="0" IVar="-1" Cut="0.0000000000000000e+00" cType="1" res="9.7019998356699944e-03" rms="2.9023677110671997e-01" purity="4.7405406832695007e-01" nType="-99"/>
          <Node pos="r" depth="2" NCoef="0" IVar="-1" Cut="0.0000000000000000e+00" cType="1" res="-2.9217812698334455e-03" rms="2.4274241924285889e-01" purity="6.2692886590957642e-01" nType="-99"/>
        </Node>
      </Node>
    </BinaryTree>
    <BinaryTree type="DecisionTree" boostWeight="1.0000000000000000e+00" itree="338">
      <Node pos="s" depth="0" NCoef="0" IVar="63" Cut="-3.6001971364021301e-01" cType="1" res="-2.8010508976876736e-03" rms="2.4717645347118378e-01" purity="4.9932128190994263e-01" nType="0">
        <Node pos="l" depth="1" NCoef="0" IVar="34" Cut="1.0510222911834717e+00" cType="1" res="4.9761828035116196e-02" rms="3.0350685119628906e-01" purity="5.3792822360992432e-01" nType="0">
          <Node pos="l" depth="2" NCoef="0" IVar="-1" Cut="0.0000000000000000e+00" cType="1" res="4.5079585164785385e-02" rms="3.9167600870132446e-01" purity="3.6769503355026245e-01" nType="-99"/>
          <Node pos="r" depth="2" NCoef="0" IVar="-1" Cut="0.0000000000000000e+00" cType="1" res="3.6020942497998476e-03" rms="2.4727810919284821e-01" purity="6.1120474338531494e-01" nType="-99"/>
        </Node>
        <Node pos="r" depth="1" NCoef="0" IVar="63" Cut="-1.0879061371088028e-01" cType="1" res="-1.0154191404581070e-02" rms="2.3731023073196411e-01" purity="4.9392047524452209e-01" nType="0">
          <Node pos="l" depth="2" NCoef="0" IVar="-1" Cut="0.0000000000000000e+00" cType="1" res="-1.1781919747591019e-02" rms="1.7432133853435516e-01" purity="4.9666976928710938e-01" nType="-99"/>
          <Node pos="r" depth="2" NCoef="0" IVar="-1" Cut="0.0000000000000000e+00" cType="1" res="5.1416453061392531e-05" rms="2.5696370005607605e-01" purity="4.9285012483596802e-01" nType="-99"/>
        </Node>
      </Node>
    </BinaryTree>
    <BinaryTree type="DecisionTree" boostWeight="1.0000000000000000e+00" itree="339">
      <Node pos="s" depth="0" NCoef="0" IVar="5" Cut="-8.3367943763732910e-02" cType="1" res="-7.7559455530717969e-04" rms="2.4719761312007904e-01" purity="5.0293773412704468e-01" nType="0">
        <Node pos="l" depth="1" NCoef="0" IVar="48" Cut="1.4456017017364502e+00" cType="1" res="-4.4376790523529053e-02" rms="-nan" purity="1.4736148715019226e-01" nType="-99"/>
        <Node pos="r" depth="1" NCoef="0" IVar="20" Cut="-1.9903550855815411e-03" cType="1" res="6.0770534910261631e-03" rms="2.6034876704216003e-01" purity="5.2714288234710693e-01" nType="0">
          <Node pos="l" depth="2" NCoef="0" IVar="-1" Cut="0.0000000000000000e+00" cType="1" res="-3.3866644371300936e-03" rms="2.3730301856994629e-01" purity="5.6139576435089111e-01" nType="-99"/>
          <Node pos="r" depth="2" NCoef="0" IVar="-1" Cut="0.0000000000000000e+00" cType="1" res="8.0255363136529922e-03" rms="2.8441092371940613e-01" purity="4.8567503690719604e-01" nType="-99"/>
        </Node>
      </Node>
    </BinaryTree>
    <BinaryTree type="DecisionTree" boostWeight="1.0000000000000000e+00" itree="340">
      <Node pos="s" depth="0" NCoef="0" IVar="62" Cut="2.1740797162055969e-01" cType="1" res="-3.5039135254919529e-03" rms="2.4172233045101166e-01" purity="4.9895215034484863e-01" nType="0">
        <Node pos="l" depth="1" NCoef="0" IVar="19" Cut="1.3228235244750977e+00" cType="1" res="-1.0793026536703110e-02" rms="2.2897154092788696e-01" purity="5.1158541440963745e-01" nType="0">
          <Node pos="l" depth="2" NCoef="0" IVar="-1" Cut="0.0000000000000000e+00" cType="1" res="-1.9845045171678066e-03" rms="2.3520849645137787e-01" purity="5.2582788467407227e-01" nType="-99"/>
          <Node pos="r" depth="2" NCoef="0" IVar="-1" Cut="0.0000000000000000e+00" cType="1" res="-2.7321983128786087e-02" rms="-nan" purity="2.6666796207427979e-01" nType="-99"/>
        </Node>
        <Node pos="r" depth="1" NCoef="0" IVar="34" Cut="-1.3002104759216309e+00" cType="1" res="4.2325951159000397e-02" rms="3.0615472793579102e-01" purity="4.1952115297317505e-01" nType="0">
          <Node pos="l" depth="2" NCoef="0" IVar="-1" Cut="0.0000000000000000e+00" cType="1" res="7.4305444955825806e-02" rms="4.1375494003295898e-01" purity="3.6926349997520447e-01" nType="-99"/>
          <Node pos="r" depth="2" NCoef="0" IVar="-1" Cut="0.0000000000000000e+00" cType="1" res="2.2490906994789839e-03" rms="2.6323038339614868e-01" purity="4.3115371465682983e-01" nType="-99"/>
        </Node>
      </Node>
    </BinaryTree>
    <BinaryTree type="DecisionTree" boostWeight="1.0000000000000000e+00" itree="341">
      <Node pos="s" depth="0" NCoef="0" IVar="19" Cut="8.0656450986862183e-01" cType="1" res="3.3091926015913486e-03" rms="2.5853687524795532e-01" purity="5.0161218643188477e-01" nType="0">
        <Node pos="l" depth="1" NCoef="0" IVar="57" Cut="-1.4150981903076172e+00" cType="1" res="1.7085283994674683e-02" rms="2.7218598127365112e-01" purity="5.5608785152435303e-01" nType="0">
          <Node pos="l" depth="2" NCoef="0" IVar="-1" Cut="0.0000000000000000e+00" cType="1" res="6.3377849757671356e-02" rms="3.6736324429512024e-01" purity="1.6398015618324280e-01" nType="-99"/>
          <Node pos="r" depth="2" NCoef="0" IVar="-1" Cut="0.0000000000000000e+00" cType="1" res="3.4157265909016132e-03" rms="2.6391810178756714e-01" purity="5.8119499683380127e-01" nType="-99"/>
        </Node>
        <Node pos="r" depth="1" NCoef="0" IVar="14" Cut="-1.7867922782897949e-01" cType="1" res="-2.1263318136334419e-02" rms="2.3016951978206635e-01" purity="4.0444353222846985e-01" nType="0">
          <Node pos="l" depth="2" NCoef="0" IVar="-1" Cut="0.0000000000000000e+00" cType="1" res="1.8836619565263391e-03" rms="2.7859991788864136e-01" purity="4.1621574759483337e-01" nType="-99"/>
          <Node pos="r" depth="2" NCoef="0" IVar="-1" Cut="0.0000000000000000e+00" cType="1" res="-2.3891365155577660e-02" rms="2.5540117174386978e-02" purity="3.8146811723709106e-01" nType="-99"/>
        </Node>
      </Node>
    </BinaryTree>
    <BinaryTree type="DecisionTree" boostWeight="1.0000000000000000e+00" itree="342">
      <Node pos="s" depth="0" NCoef="0" IVar="81" Cut="-5.4102069139480591e-01" cType="1" res="-6.6703539341688156e-03" rms="2.4737557768821716e-01" purity="4.8972508311271667e-01" nType="0">
        <Node pos="l" depth="1" NCoef="0" IVar="2" Cut="3.0166738033294678e+00" cType="1" res="-1.0395924560725689e-02" rms="2.4154873192310333e-01" purity="4.9808856844902039e-01" nType="0">
          <Node pos="l" depth="2" NCoef="0" IVar="-1" Cut="0.0000000000000000e+00" cType="1" res="-5.9424578212201595e-03" rms="2.2818829119205475e-01" purity="4.3978506326675415e-01" nType="-99"/>
          <Node pos="r" depth="2" NCoef="0" IVar="-1" Cut="0.0000000000000000e+00" cType="1" res="7.7355667017400265e-03" rms="2.8942441940307617e-01" purity="7.4856996536254883e-01" nType="-99"/>
        </Node>
        <Node pos="r" depth="1" NCoef="0" IVar="-1" Cut="0.0000000000000000e+00" cType="1" res="3.5751830786466599e-02" rms="3.5413223505020142e-01" purity="2.7271893620491028e-01" nType="-99"/>
      </Node>
    </BinaryTree>
    <BinaryTree type="DecisionTree" boostWeight="1.0000000000000000e+00" itree="343">
      <Node pos="s" depth="0" NCoef="0" IVar="27" Cut="1.0830657482147217e+00" cType="1" res="-7.6984353363513947e-03" rms="2.3551808297634125e-01" purity="4.9775627255439758e-01" nType="0">
        <Node pos="l" depth="1" NCoef="0" IVar="17" Cut="1.4430861473083496e+00" cType="1" res="-6.3739694654941559e-02" rms="5.7043965905904770e-02" purity="1.6727119684219360e-01" nType="0">
          <Node pos="l" depth="2" NCoef="0" IVar="-1" Cut="0.0000000000000000e+00" cType="1" res="-1.0456320643424988e-01" rms="-nan" purity="-7.8286908566951752e-02" nType="-99"/>
          <Node pos="r" depth="2" NCoef="0" IVar="-1" Cut="0.0000000000000000e+00" cType="1" res="-4.9928645603358746e-03" rms="2.8557395935058594e-01" purity="3.7440657615661621e-01" nType="-99"/>
        </Node>
        <Node pos="r" depth="1" NCoef="0" IVar="4" Cut="3.3235640525817871e+00" cType="1" res="1.9142203382216394e-04" rms="2.4963071942329407e-01" purity="5.4428410530090332e-01" nType="0">
          <Node pos="l" depth="2" NCoef="0" IVar="-1" Cut="0.0000000000000000e+00" cType="1" res="2.1272337064146996e-02" rms="3.1539493799209595e-01" purity="2.9491388797760010e-01" nType="-99"/>
          <Node pos="r" depth="2" NCoef="0" IVar="-1" Cut="0.0000000000000000e+00" cType="1" res="-2.1702663507312536e-03" rms="2.4074463546276093e-01" purity="5.6960082054138184e-01" nType="-99"/>
        </Node>
      </Node>
    </BinaryTree>
    <BinaryTree type="DecisionTree" boostWeight="1.0000000000000000e+00" itree="344">
      <Node pos="s" depth="0" NCoef="0" IVar="18" Cut="-5.5500400066375732e-01" cType="1" res="5.2833678200840950e-03" rms="2.5788226723670959e-01" purity="5.1205950975418091e-01" nType="0">
        <Node pos="l" depth="1" NCoef="0" IVar="67" Cut="7.9816895723342896e-01" cType="1" res="2.0215411204844713e-03" rms="2.5221738219261169e-01" purity="5.1590192317962646e-01" nType="0">
          <Node pos="l" depth="2" NCoef="0" IVar="-1" Cut="0.0000000000000000e+00" cType="1" res="2.6799609884619713e-02" rms="3.3694711327552795e-01" purity="6.4436185359954834e-01" nType="-99"/>
          <Node pos="r" depth="2" NCoef="0" IVar="-1" Cut="0.0000000000000000e+00" cType="1" res="-4.2177044088020921e-04" rms="2.4815350770950317e-01" purity="5.1155829429626465e-01" nType="-99"/>
        </Node>
        <Node pos="r" depth="1" NCoef="0" IVar="-1" Cut="0.0000000000000000e+00" cType="1" res="3.9916079491376877e-02" rms="3.9406031370162964e-01" purity="3.7568131089210510e-01" nType="-99"/>
      </Node>
    </BinaryTree>
    <BinaryTree type="DecisionTree" boostWeight="1.0000000000000000e+00" itree="345">
      <Node pos="s" depth="0" NCoef="0" IVar="60" Cut="-5.4787564277648926e-01" cType="1" res="1.5396277885884047e-03" rms="2.5808352231979370e-01" purity="4.9545478820800781e-01" nType="0">
        <Node pos="l" depth="1" NCoef="0" IVar="16" Cut="1.3150961399078369e+00" cType="1" res="-2.6756918523460627e-03" rms="2.5053903460502625e-01" purity="5.0540459156036377e-01" nType="0">
          <Node pos="l" depth="2" NCoef="0" IVar="-1" Cut="0.0000000000000000e+00" cType="1" res="-1.7668503569439054e-03" rms="2.4476455152034760e-01" purity="5.1015466451644897e-01" nType="-99"/>
          <Node pos="r" depth="2" NCoef="0" IVar="-1" Cut="0.0000000000000000e+00" cType="1" res="3.6590419709682465e-02" rms="4.0167748928070068e-01" purity="3.1828892230987549e-01" nType="-99"/>
        </Node>
        <Node pos="r" depth="1" NCoef="0" IVar="34" Cut="1.3187602758407593e+00" cType="1" res="1.0095160454511642e-01" rms="3.8314750790596008e-01" purity="2.6080363988876343e-01" nType="0">
          <Node pos="l" depth="2" NCoef="0" IVar="-1" Cut="0.0000000000000000e+00" cType="1" res="1.1018188297748566e-01" rms="4.4243836402893066e-01" purity="2.7104690670967102e-01" nType="-99"/>
          <Node pos="r" depth="2" NCoef="0" IVar="-1" Cut="0.0000000000000000e+00" cType="1" res="2.2782604210078716e-03" rms="2.8460785746574402e-01" purity="2.5067764520645142e-01" nType="-99"/>
        </Node>
      </Node>
    </BinaryTree>
    <BinaryTree type="DecisionTree" boostWeight="1.0000000000000000e+00" itree="346">
      <Node pos="s" depth="0" NCoef="0" IVar="48" Cut="7.0260983705520630e-01" cType="1" res="-4.3045189231634140e-03" rms="2.3722544312477112e-01" purity="5.0122284889221191e-01" nType="0">
        <Node pos="l" depth="1" NCoef="0" IVar="-1" Cut="0.0000000000000000e+00" cType="1" res="-5.2475746721029282e-02" rms="-nan" purity="7.4024260044097900e-02" nType="-99"/>
        <Node pos="r" depth="1" NCoef="0" IVar="20" Cut="2.6517441868782043e-01" cType="1" res="-9.5210451399907470e-04" rms="2.4240535497665405e-01" purity="5.1206916570663452e-01" nType="0">
          <Node pos="l" depth="2" NCoef="0" IVar="-1" Cut="0.0000000000000000e+00" cType="1" res="1.2231095461174846e-03" rms="2.5324296951293945e-01" purity="5.2268910408020020e-01" nType="-99"/>
          <Node pos="r" depth="2" NCoef="0" IVar="-1" Cut="0.0000000000000000e+00" cType="1" res="-2.2506259381771088e-02" rms="-nan" purity="3.5773301124572754e-01" nType="-99"/>
        </Node>
      </Node>
    </BinaryTree>
    <BinaryTree type="DecisionTree" boostWeight="1.0000000000000000e+00" itree="347">
      <Node pos="s" depth="0" NCoef="0" IVar="6" Cut="9.0375787019729614e-01" cType="1" res="-8.2435704825911671e-05" rms="2.4492609500885010e-01" purity="4.9478226900100708e-01" nType="0">
        <Node pos="l" depth="1" NCoef="0" IVar="-1" Cut="0.0000000000000000e+00" cType="1" res="4.3197825551033020e-02" rms="3.7937182188034058e-01" purity="2.8460893034934998e-01" nType="-99"/>
        <Node pos="r" depth="1" NCoef="0" IVar="17" Cut="1.2536967992782593e+00" cType="1" res="-3.7062168121337891e-03" rms="2.3843292891979218e-01" purity="5.0159370899200439e-01" nType="0">
          <Node pos="l" depth="2" NCoef="0" IVar="-1" Cut="0.0000000000000000e+00" cType="1" res="-2.8495060279965401e-02" rms="-nan" purity="5.3596533834934235e-03" nType="-99"/>
          <Node pos="r" depth="2" NCoef="0" IVar="-1" Cut="0.0000000000000000e+00" cType="1" res="1.4176806434988976e-03" rms="2.8075557947158813e-01" purity="6.5692549943923950e-01" nType="-99"/>
        </Node>
      </Node>
    </BinaryTree>
    <BinaryTree type="DecisionTree" boostWeight="1.0000000000000000e+00" itree="348">
      <Node pos="s" depth="0" NCoef="0" IVar="37" Cut="-1.4539344310760498e+00" cType="1" res="-9.2935329303145409e-03" rms="2.3744097352027893e-01" purity="4.9606743454933167e-01" nType="0">
        <Node pos="l" depth="1" NCoef="0" IVar="20" Cut="3.6156784743070602e-02" cType="1" res="-7.8558169305324554e-02" rms="6.2040563672780991e-02" purity="1.9676670432090759e-01" nType="0">
          <Node pos="l" depth="2" NCoef="0" IVar="-1" Cut="0.0000000000000000e+00" cType="1" res="-5.2694384008646011e-02" rms="-nan" purity="1.5343970060348511e-01" nType="-99"/>
          <Node pos="r" depth="2" NCoef="0" IVar="-1" Cut="0.0000000000000000e+00" cType="1" res="-2.1382099657785147e-04" rms="2.4245111644268036e-01" purity="2.4868418276309967e-01" nType="-99"/>
        </Node>
        <Node pos="r" depth="1" NCoef="0" IVar="84" Cut="4.0475547313690186e-01" cType="1" res="-4.8692668788135052e-03" rms="2.4373652040958405e-01" purity="5.1518529653549194e-01" nType="0">
          <Node pos="l" depth="2" NCoef="0" IVar="-1" Cut="0.0000000000000000e+00" cType="1" res="-5.5033992975950241e-04" rms="2.4992720782756805e-01" purity="5.2126824855804443e-01" nType="-99"/>
          <Node pos="r" depth="2" NCoef="0" IVar="-1" Cut="0.0000000000000000e+00" cType="1" res="-3.8780171424150467e-02" rms="-nan" purity="2.9846414923667908e-01" nType="-99"/>
        </Node>
      </Node>
    </BinaryTree>
    <BinaryTree type="DecisionTree" boostWeight="1.0000000000000000e+00" itree="349">
      <Node pos="s" depth="0" NCoef="0" IVar="31" Cut="3.6204407215118408e+00" cType="1" res="1.0411962866783142e-02" rms="2.5728261470794678e-01" purity="5.0600093603134155e-01" nType="0">
        <Node pos="l" depth="1" NCoef="0" IVar="5" Cut="4.8350635170936584e-01" cType="1" res="7.3332423344254494e-03" rms="2.5377246737480164e-01" purity="5.0558882951736450e-01" nType="0">
          <Node pos="l" depth="2" NCoef="0" IVar="-1" Cut="0.0000000000000000e+00" cType="1" res="3.6640397738665342e-03" rms="2.5798660516738892e-01" purity="5.2707594633102417e-01" nType="-99"/>
          <Node pos="r" depth="2" NCoef="0" IVar="-1" Cut="0.0000000000000000e+00" cType="1" res="-2.3076055571436882e-02" rms="1.5139952301979065e-01" purity="1.4747853577136993e-01" nType="-99"/>
        </Node>
        <Node pos="r" depth="1" NCoef="0" IVar="-1" Cut="0.0000000000000000e+00" cType="1" res="5.9471268206834793e-02" rms="3.5456636548042297e-01" purity="5.2385914325714111e-01" nType="-99"/>
      </Node>
    </BinaryTree>
    <BinaryTree type="DecisionTree" boostWeight="1.0000000000000000e+00" itree="350">
      <Node pos="s" depth="0" NCoef="0" IVar="10" Cut="2.7746419906616211e+00" cType="1" res="-5.2973598940297961e-04" rms="2.4992392957210541e-01" purity="4.9964323639869690e-01" nType="0">
        <Node pos="l" depth="1" NCoef="0" IVar="16" Cut="-8.0443918704986572e-01" cType="1" res="1.0046955943107605e-01" rms="3.4954217076301575e-01" purity="2.8144252300262451e-01" nType="0">
          <Node pos="l" depth="2" NCoef="0" IVar="-1" Cut="0.0000000000000000e+00" cType="1" res="-5.1632239483296871e-03" rms="2.1298198401927948e-01" purity="1.5056622028350830e-01" nType="-99"/>
          <Node pos="r" depth="2" NCoef="0" IVar="-1" Cut="0.0000000000000000e+00" cType="1" res="5.7658333331346512e-02" rms="4.0900996327400208e-01" purity="3.9341786503791809e-01" nType="-99"/>
        </Node>
        <Node pos="r" depth="1" NCoef="0" IVar="77" Cut="4.0116184949874878e-01" cType="1" res="-5.7151173241436481e-03" rms="2.4258072674274445e-01" purity="5.1084583997726440e-01" nType="0">
          <Node pos="l" depth="2" NCoef="0" IVar="-1" Cut="0.0000000000000000e+00" cType="1" res="-4.1339946910738945e-03" rms="2.3647493124008179e-01" purity="5.4040032625198364e-01" nType="-99"/>
          <Node pos="r" depth="2" NCoef="0" IVar="-1" Cut="0.0000000000000000e+00" cType="1" res="2.0745746791362762e-02" rms="2.7510291337966919e-01" purity="3.0525976419448853e-01" nType="-99"/>
        </Node>
      </Node>
    </BinaryTree>
    <BinaryTree type="DecisionTree" boostWeight="1.0000000000000000e+00" itree="351">
      <Node pos="s" depth="0" NCoef="0" IVar="19" Cut="8.3480656147003174e-01" cType="1" res="3.2095133792608976e-03" rms="2.5362631678581238e-01" purity="4.9258038401603699e-01" nType="0">
        <Node pos="l" depth="1" NCoef="0" IVar="69" Cut="1.1345620155334473e+00" cType="1" res="1.5908883884549141e-02" rms="2.6936349272727966e-01" purity="5.3896749019622803e-01" nType="0">
          <Node pos="l" depth="2" NCoef="0" IVar="-1" Cut="0.0000000000000000e+00" cType="1" res="-9.6533009782433510e-03" rms="1.8216383457183838e-01" purity="2.5950825214385986e-01" nType="-99"/>
          <Node pos="r" depth="2" NCoef="0" IVar="-1" Cut="0.0000000000000000e+00" cType="1" res="8.0358562991023064e-03" rms="2.8542360663414001e-01" purity="6.0619616508483887e-01" nType="-99"/>
        </Node>
        <Node pos="r" depth="1" NCoef="0" IVar="57" Cut="1.0959661006927490e+00" cType="1" res="-2.0835908129811287e-02" rms="2.1876718103885651e-01" purity="4.0474945306777954e-01" nType="0">
          <Node pos="l" depth="2" NCoef="0" IVar="-1" Cut="0.0000000000000000e+00" cType="1" res="-4.4125951826572418e-02" rms="-nan" purity="5.2158692851662636e-03" nType="-99"/>
          <Node pos="r" depth="2" NCoef="0" IVar="-1" Cut="0.0000000000000000e+00" cType="1" res="1.6490452690050006e-03" rms="2.9201400279998779e-01" purity="5.6456667184829712e-01" nType="-99"/>
        </Node>
      </Node>
    </BinaryTree>
    <BinaryTree type="DecisionTree" boostWeight="1.0000000000000000e+00" itree="352">
      <Node pos="s" depth="0" NCoef="0" IVar="61" Cut="5.5601286888122559e-01" cType="1" res="1.9116151088383049e-04" rms="2.5438562035560608e-01" purity="4.9230358004570007e-01" nType="0">
        <Node pos="l" depth="1" NCoef="0" IVar="3" Cut="4.4855957031250000e+00" cType="1" res="2.6770910248160362e-02" rms="2.8384223580360413e-01" purity="5.9499633312225342e-01" nType="0">
          <Node pos="l" depth="2" NCoef="0" IVar="-1" Cut="0.0000000000000000e+00" cType="1" res="2.8940632939338684e-02" rms="3.4358790516853333e-01" purity="5.1132518053054810e-01" nType="-99"/>
          <Node pos="r" depth="2" NCoef="0" IVar="-1" Cut="0.0000000000000000e+00" cType="1" res="3.4908165689557791e-03" rms="2.6911514997482300e-01" purity="6.0951006412506104e-01" nType="-99"/>
        </Node>
        <Node pos="r" depth="1" NCoef="0" IVar="0" Cut="1.3461393117904663e+00" cType="1" res="-1.2365882284939289e-02" rms="2.3818175494670868e-01" purity="4.4378855824470520e-01" nType="0">
          <Node pos="l" depth="2" NCoef="0" IVar="-1" Cut="0.0000000000000000e+00" cType="1" res="-1.8406569724902511e-03" rms="2.5151559710502625e-01" purity="4.6303352713584900e-01" nType="-99"/>
          <Node pos="r" depth="2" NCoef="0" IVar="-1" Cut="0.0000000000000000e+00" cType="1" res="-4.9994710832834244e-02" rms="-nan" purity="1.1966557800769806e-01" nType="-99"/>
        </Node>
      </Node>
    </BinaryTree>
    <BinaryTree type="DecisionTree" boostWeight="1.0000000000000000e+00" itree="353">
      <Node pos="s" depth="0" NCoef="0" IVar="73" Cut="3.2582895755767822e+00" cType="1" res="2.1721152588725090e-03" rms="2.5580269098281860e-01" purity="4.9487859010696411e-01" nType="0">
        <Node pos="l" depth="1" NCoef="0" IVar="3" Cut="5.4038300514221191e+00" cType="1" res="-2.9265161138027906e-03" rms="2.5099083781242371e-01" purity="4.8873206973075867e-01" nType="0">
          <Node pos="l" depth="2" NCoef="0" IVar="-1" Cut="0.0000000000000000e+00" cType="1" res="-1.9093909941148013e-05" rms="2.5757029652595520e-01" purity="4.9878165125846863e-01" nType="-99"/>
          <Node pos="r" depth="2" NCoef="0" IVar="-1" Cut="0.0000000000000000e+00" cType="1" res="-3.5051908344030380e-02" rms="-nan" purity="1.2107668817043304e-01" nType="-99"/>
        </Node>
        <Node pos="r" depth="1" NCoef="0" IVar="55" Cut="1.4362734556198120e+00" cType="1" res="7.0249341428279877e-02" rms="3.0498188734054565e-01" purity="5.7694792747497559e-01" nType="0">
          <Node pos="l" depth="2" NCoef="0" IVar="-1" Cut="0.0000000000000000e+00" cType="1" res="4.1736762970685959e-02" rms="3.4171563386917114e-01" purity="4.7467097640037537e-01" nType="-99"/>
          <Node pos="r" depth="2" NCoef="0" IVar="-1" Cut="0.0000000000000000e+00" cType="1" res="2.8536061290651560e-03" rms="2.5367313623428345e-01" purity="6.6547602415084839e-01" nType="-99"/>
        </Node>
      </Node>
    </BinaryTree>
    <BinaryTree type="DecisionTree" boostWeight="1.0000000000000000e+00" itree="354">
      <Node pos="s" depth="0" NCoef="0" IVar="0" Cut="1.0641001462936401e+00" cType="1" res="-7.1793189272284508e-03" rms="2.4372580647468567e-01" purity="4.9261808395385742e-01" nType="0">
        <Node pos="l" depth="1" NCoef="0" IVar="37" Cut="1.3605211973190308e+00" cType="1" res="1.2295062188059092e-03" rms="2.6156681776046753e-01" purity="5.4005342721939087e-01" nType="0">
          <Node pos="l" depth="2" NCoef="0" IVar="-1" Cut="0.0000000000000000e+00" cType="1" res="-6.8107404513284564e-04" rms="2.5383603572845459e-01" purity="5.4442483186721802e-01" nType="-99"/>
          <Node pos="r" depth="2" NCoef="0" IVar="-1" Cut="0.0000000000000000e+00" cType="1" res="2.3757049813866615e-02" rms="3.8995808362960815e-01" purity="4.4125810265541077e-01" nType="-99"/>
        </Node>
        <Node pos="r" depth="1" NCoef="0" IVar="34" Cut="-1.3386137485504150e+00" cType="1" res="-3.8812968879938126e-02" rms="1.5563341975212097e-01" purity="3.1416827440261841e-01" nType="0">
          <Node pos="l" depth="2" NCoef="0" IVar="-1" Cut="0.0000000000000000e+00" cType="1" res="3.9122514426708221e-02" rms="3.1641730666160583e-01" purity="2.5704401731491089e-01" nType="-99"/>
          <Node pos="r" depth="2" NCoef="0" IVar="-1" Cut="0.0000000000000000e+00" cType="1" res="-2.3830309510231018e-02" rms="2.7449233457446098e-02" purity="3.2837200164794922e-01" nType="-99"/>
        </Node>
      </Node>
    </BinaryTree>
    <BinaryTree type="DecisionTree" boostWeight="1.0000000000000000e+00" itree="355">
      <Node pos="s" depth="0" NCoef="0" IVar="67" Cut="1.4284806251525879e+00" cType="1" res="-3.2195783569477499e-04" rms="2.4750548601150513e-01" purity="4.9329441785812378e-01" nType="0">
        <Node pos="l" depth="1" NCoef="0" IVar="28" Cut="-1.4135710000991821e+00" cType="1" res="2.8499036561697721e-03" rms="2.5352165102958679e-01" purity="5.0567853450775146e-01" nType="0">
          <Node pos="l" depth="2" NCoef="0" IVar="-1" Cut="0.0000000000000000e+00" cType="1" res="2.3613160010427237e-03" rms="2.5953203439712524e-01" purity="5.1728940010070801e-01" nType="-99"/>
          <Node pos="r" depth="2" NCoef="0" IVar="-1" Cut="0.0000000000000000e+00" cType="1" res="-1.8679287284612656e-02" rms="1.4371488988399506e-01" purity="3.5661122202873230e-01" nType="-99"/>
        </Node>
        <Node pos="r" depth="1" NCoef="0" IVar="-1" Cut="0.0000000000000000e+00" cType="1" res="-5.4001048207283020e-02" rms="-nan" purity="5.4261967539787292e-02" nType="-99"/>
      </Node>
    </BinaryTree>
    <BinaryTree type="DecisionTree" boostWeight="1.0000000000000000e+00" itree="356">
      <Node pos="s" depth="0" NCoef="0" IVar="64" Cut="1.2345679104328156e-02" cType="1" res="4.5651723630726337e-03" rms="2.5168955326080322e-01" purity="5.0150245428085327e-01" nType="0">
        <Node pos="l" depth="1" NCoef="0" IVar="-1" Cut="0.0000000000000000e+00" cType="1" res="-2.8978260233998299e-02" rms="-nan" purity="1.4294339716434479e-01" nType="-99"/>
        <Node pos="r" depth="1" NCoef="0" IVar="52" Cut="2.4818034172058105e+00" cType="1" res="7.7254655770957470e-03" rms="2.5772523880004883e-01" purity="5.1301920413970947e-01" nType="0">
          <Node pos="l" depth="2" NCoef="0" IVar="-1" Cut="0.0000000000000000e+00" cType="1" res="-2.5694357231259346e-02" rms="1.6881030052900314e-02" purity="9.2643469572067261e-02" nType="-99"/>
          <Node pos="r" depth="2" NCoef="0" IVar="-1" Cut="0.0000000000000000e+00" cType="1" res="3.8219173438847065e-03" rms="2.6432263851165771e-01" purity="5.3727263212203979e-01" nType="-99"/>
        </Node>
      </Node>
    </BinaryTree>
    <BinaryTree type="DecisionTree" boostWeight="1.0000000000000000e+00" itree="357">
      <Node pos="s" depth="0" NCoef="0" IVar="73" Cut="3.1586155891418457e+00" cType="1" res="2.1390398615039885e-04" rms="2.4804732203483582e-01" purity="4.9531617760658264e-01" nType="0">
        <Node pos="l" depth="1" NCoef="0" IVar="36" Cut="1.3698061704635620e+00" cType="1" res="-6.5389694646000862e-03" rms="2.4255247414112091e-01" purity="4.7899124026298523e-01" nType="0">
          <Node pos="l" depth="2" NCoef="0" IVar="-1" Cut="0.0000000000000000e+00" cType="1" res="-1.3093009591102600e-02" rms="1.5110757946968079e-01" purity="1.1489552259445190e-01" nType="-99"/>
          <Node pos="r" depth="2" NCoef="0" IVar="-1" Cut="0.0000000000000000e+00" cType="1" res="2.0865038968622684e-03" rms="2.7655667066574097e-01" purity="6.6335052251815796e-01" nType="-99"/>
        </Node>
        <Node pos="r" depth="1" NCoef="0" IVar="3" Cut="5.3332896232604980e+00" cType="1" res="4.9907933920621872e-02" rms="2.8028631210327148e-01" purity="6.1545056104660034e-01" nType="0">
          <Node pos="l" depth="2" NCoef="0" IVar="-1" Cut="0.0000000000000000e+00" cType="1" res="5.3471978753805161e-03" rms="2.3518878221511841e-01" purity="6.8240308761596680e-01" nType="-99"/>
          <Node pos="r" depth="2" NCoef="0" IVar="-1" Cut="0.0000000000000000e+00" cType="1" res="4.9786917865276337e-02" rms="3.6919569969177246e-01" purity="4.1083729267120361e-01" nType="-99"/>
        </Node>
      </Node>
    </BinaryTree>
    <BinaryTree type="DecisionTree" boostWeight="1.0000000000000000e+00" itree="358">
      <Node pos="s" depth="0" NCoef="0" IVar="56" Cut="1.4450960159301758e+00" cType="1" res="-6.8570917937904596e-04" rms="2.4166153371334076e-01" purity="5.0471335649490356e-01" nType="0">
        <Node pos="l" depth="1" NCoef="0" IVar="51" Cut="-7.1604937314987183e-01" cType="1" res="-5.3389691747725010e-03" rms="2.3461575806140900e-01" purity="5.0852876901626587e-01" nType="0">
          <Node pos="l" depth="2" NCoef="0" IVar="-1" Cut="0.0000000000000000e+00" cType="1" res="2.0015083253383636e-02" rms="3.2498639822006226e-01" purity="4.8407080769538879e-01" nType="-99"/>
          <Node pos="r" depth="2" NCoef="0" IVar="-1" Cut="0.0000000000000000e+00" cType="1" res="-3.8553818594664335e-03" rms="2.2313100099563599e-01" purity="5.1080846786499023e-01" nType="-99"/>
        </Node>
        <Node pos="r" depth="1" NCoef="0" IVar="52" Cut="2.7508640289306641e+00" cType="1" res="9.2345394194126129e-02" rms="3.4117862582206726e-01" purity="4.2843243479728699e-01" nType="0">
          <Node pos="l" depth="2" NCoef="0" IVar="-1" Cut="0.0000000000000000e+00" cType="1" res="5.6438747793436050e-02" rms="4.0316772460937500e-01" purity="3.4027233719825745e-01" nType="-99"/>
          <Node pos="r" depth="2" NCoef="0" IVar="-1" Cut="0.0000000000000000e+00" cType="1" res="5.0872601568698883e-03" rms="2.2999210655689240e-01" purity="5.2863007783889771e-01" nType="-99"/>
        </Node>
      </Node>
    </BinaryTree>
    <BinaryTree type="DecisionTree" boostWeight="1.0000000000000000e+00" itree="359">
      <Node pos="s" depth="0" NCoef="0" IVar="2" Cut="3.0146737098693848e+00" cType="1" res="-4.5637944713234901e-03" rms="2.3911318182945251e-01" purity="4.9950918555259705e-01" nType="0">
        <Node pos="l" depth="1" NCoef="0" IVar="52" Cut="2.8889689445495605e+00" cType="1" res="-1.3462265022099018e-02" rms="2.2484195232391357e-01" purity="4.3969884514808655e-01" nType="0">
          <Node pos="l" depth="2" NCoef="0" IVar="-1" Cut="0.0000000000000000e+00" cType="1" res="-1.3113648630678654e-02" rms="1.6429108381271362e-01" purity="2.6237249374389648e-01" nType="-99"/>
          <Node pos="r" depth="2" NCoef="0" IVar="-1" Cut="0.0000000000000000e+00" cType="1" res="2.7894723461940885e-04" rms="2.5009235739707947e-01" purity="5.3440916538238525e-01" nType="-99"/>
        </Node>
        <Node pos="r" depth="1" NCoef="0" IVar="13" Cut="1.3603564500808716e+00" cType="1" res="3.3776674419641495e-02" rms="2.8964194655418396e-01" purity="7.5721120834350586e-01" nType="0">
          <Node pos="l" depth="2" NCoef="0" IVar="-1" Cut="0.0000000000000000e+00" cType="1" res="4.3939184397459030e-02" rms="3.5486087203025818e-01" purity="4.4661235809326172e-01" nType="-99"/>
          <Node pos="r" depth="2" NCoef="0" IVar="-1" Cut="0.0000000000000000e+00" cType="1" res="2.9583987779915333e-03" rms="2.6712444424629211e-01" purity="8.2612389326095581e-01" nType="-99"/>
        </Node>
      </Node>
    </BinaryTree>
    <BinaryTree type="DecisionTree" boostWeight="1.0000000000000000e+00" itree="360">
      <Node pos="s" depth="0" NCoef="0" IVar="35" Cut="-5.6586951017379761e-01" cType="1" res="-5.7381480000913143e-03" rms="2.4168850481510162e-01" purity="4.9420100450515747e-01" nType="0">
        <Node pos="l" depth="1" NCoef="0" IVar="17" Cut="1.1763408184051514e+00" cType="1" res="-1.9462278112769127e-02" rms="2.2259621322154999e-01" purity="4.9059683084487915e-01" nType="0">
          <Node pos="l" depth="2" NCoef="0" IVar="-1" Cut="0.0000000000000000e+00" cType="1" res="-7.1392908692359924e-02" rms="-nan" purity="-3.5309441387653351e-02" nType="-99"/>
          <Node pos="r" depth="2" NCoef="0" IVar="-1" Cut="0.0000000000000000e+00" cType="1" res="-2.0532365888357162e-03" rms="2.7385595440864563e-01" purity="6.2889546155929565e-01" nType="-99"/>
        </Node>
        <Node pos="r" depth="1" NCoef="0" IVar="62" Cut="3.0742394924163818e-01" cType="1" res="1.8198616802692413e-02" rms="2.7013394236564636e-01" purity="5.0048720836639404e-01" nType="0">
          <Node pos="l" depth="2" NCoef="0" IVar="-1" Cut="0.0000000000000000e+00" cType="1" res="1.8644023220986128e-03" rms="2.4865943193435669e-01" purity="4.9933627247810364e-01" nType="-99"/>
          <Node pos="r" depth="2" NCoef="0" IVar="-1" Cut="0.0000000000000000e+00" cType="1" res="5.9830076992511749e-02" rms="4.4120630621910095e-01" purity="5.1623779535293579e-01" nType="-99"/>
        </Node>
      </Node>
    </BinaryTree>
    <BinaryTree type="DecisionTree" boostWeight="1.0000000000000000e+00" itree="361">
      <Node pos="s" depth="0" NCoef="0" IVar="20" Cut="-2.3071187734603882e-01" cType="1" res="-1.6948018455877900e-03" rms="2.5013801455497742e-01" purity="4.9112468957901001e-01" nType="0">
        <Node pos="l" depth="1" NCoef="0" IVar="17" Cut="1.4449657201766968e+00" cType="1" res="-4.5892547816038132e-02" rms="1.9529329240322113e-01" purity="5.0532358884811401e-01" nType="0">
          <Node pos="l" depth="2" NCoef="0" IVar="-1" Cut="0.0000000000000000e+00" cType="1" res="-8.3740204572677612e-02" rms="-nan" purity="-6.9498278200626373e-02" nType="-99"/>
          <Node pos="r" depth="2" NCoef="0" IVar="-1" Cut="0.0000000000000000e+00" cType="1" res="-3.8163596764206886e-03" rms="2.9414194822311401e-01" purity="7.3239767551422119e-01" nType="-99"/>
        </Node>
        <Node pos="r" depth="1" NCoef="0" IVar="13" Cut="-1.3768560886383057e+00" cType="1" res="7.2009940631687641e-03" rms="2.5887009501457214e-01" purity="4.8826682567596436e-01" nType="0">
          <Node pos="l" depth="2" NCoef="0" IVar="-1" Cut="0.0000000000000000e+00" cType="1" res="3.2715536653995514e-02" rms="2.7700576186180115e-01" purity="2.4152290821075439e-01" nType="-99"/>
          <Node pos="r" depth="2" NCoef="0" IVar="-1" Cut="0.0000000000000000e+00" cType="1" res="-4.8723355575930327e-05" rms="2.5558722019195557e-01" purity="5.1855075359344482e-01" nType="-99"/>
        </Node>
      </Node>
    </BinaryTree>
    <BinaryTree type="DecisionTree" boostWeight="1.0000000000000000e+00" itree="362">
      <Node pos="s" depth="0" NCoef="0" IVar="15" Cut="1.4834188222885132e+00" cType="1" res="2.9111304320394993e-03" rms="2.5711628794670105e-01" purity="4.9727585911750793e-01" nType="0">
        <Node pos="l" depth="1" NCoef="0" IVar="34" Cut="1.3966498374938965e+00" cType="1" res="1.8224816769361496e-02" rms="2.5628918409347534e-01" purity="4.5006296038627625e-01" nType="0">
          <Node pos="l" depth="2" NCoef="0" IVar="-1" Cut="0.0000000000000000e+00" cType="1" res="1.6653612256050110e-02" rms="2.7501055598258972e-01" purity="3.0795940756797791e-01" nType="-99"/>
          <Node pos="r" depth="2" NCoef="0" IVar="-1" Cut="0.0000000000000000e+00" cType="1" res="-1.1191505473107100e-03" rms="2.3737166821956635e-01" purity="5.6906849145889282e-01" nType="-99"/>
        </Node>
        <Node pos="r" depth="1" NCoef="0" IVar="17" Cut="1.5232387781143188e+00" cType="1" res="-2.6968955993652344e-02" rms="2.5609949231147766e-01" purity="5.8939772844314575e-01" nType="0">
          <Node pos="l" depth="2" NCoef="0" IVar="-1" Cut="0.0000000000000000e+00" cType="1" res="-2.1994197741150856e-02" rms="1.5612408518791199e-01" purity="2.3815006017684937e-01" nType="-99"/>
          <Node pos="r" depth="2" NCoef="0" IVar="-1" Cut="0.0000000000000000e+00" cType="1" res="-1.1310750414850190e-04" rms="2.8583043813705444e-01" purity="7.4614965915679932e-01" nType="-99"/>
        </Node>
      </Node>
    </BinaryTree>
    <BinaryTree type="DecisionTree" boostWeight="1.0000000000000000e+00" itree="363">
      <Node pos="s" depth="0" NCoef="0" IVar="5" Cut="-1.8788269162178040e-01" cType="1" res="2.1712083835154772e-03" rms="2.4976833164691925e-01" purity="5.0134831666946411e-01" nType="0">
        <Node pos="l" depth="1" NCoef="0" IVar="-1" Cut="0.0000000000000000e+00" cType="1" res="5.2778396755456924e-02" rms="3.0888369679450989e-01" purity="2.0320411026477814e-01" nType="-99"/>
        <Node pos="r" depth="1" NCoef="0" IVar="5" Cut="-1.0817579180002213e-01" cType="1" res="-3.3169030211865902e-04" rms="2.4717935919761658e-01" purity="5.1119440793991089e-01" nType="0">
          <Node pos="l" depth="2" NCoef="0" IVar="-1" Cut="0.0000000000000000e+00" cType="1" res="-3.9968270808458328e-02" rms="-nan" purity="2.0179915428161621e-01" nType="-99"/>
          <Node pos="r" depth="2" NCoef="0" IVar="-1" Cut="0.0000000000000000e+00" cType="1" res="7.6925108442083001e-04" rms="2.5348421931266785e-01" purity="5.1939499378204346e-01" nType="-99"/>
        </Node>
      </Node>
    </BinaryTree>
    <BinaryTree type="DecisionTree" boostWeight="1.0000000000000000e+00" itree="364">
      <Node pos="s" depth="0" NCoef="0" IVar="52" Cut="2.4587526321411133e+00" cType="1" res="5.2662957459688187e-03" rms="2.5307121872901917e-01" purity="5.0530463457107544e-01" nType="0">
        <Node pos="l" depth="1" NCoef="0" IVar="6" Cut="2.0190067291259766e+00" cType="1" res="-2.0967796444892883e-02" rms="-nan" purity="1.1243165284395218e-01" nType="-99"/>
        <Node pos="r" depth="1" NCoef="0" IVar="3" Cut="4.3104858398437500e+00" cType="1" res="9.4786118716001511e-03" rms="2.6122033596038818e-01" purity="5.2898389101028442e-01" nType="0">
          <Node pos="l" depth="2" NCoef="0" IVar="-1" Cut="0.0000000000000000e+00" cType="1" res="3.3230174332857132e-02" rms="3.5427135229110718e-01" purity="4.0707474946975708e-01" nType="-99"/>
          <Node pos="r" depth="2" NCoef="0" IVar="-1" Cut="0.0000000000000000e+00" cType="1" res="2.0512833725661039e-03" rms="2.5739455223083496e-01" purity="5.3250414133071899e-01" nType="-99"/>
        </Node>
      </Node>
    </BinaryTree>
    <BinaryTree type="DecisionTree" boostWeight="1.0000000000000000e+00" itree="365">
      <Node pos="s" depth="0" NCoef="0" IVar="5" Cut="5.2027028799057007e-01" cType="1" res="2.2254956420511007e-03" rms="2.5465098023414612e-01" purity="4.9483358860015869e-01" nType="0">
        <Node pos="l" depth="1" NCoef="0" IVar="61" Cut="1.3145719766616821e+00" cType="1" res="6.1263754032552242e-03" rms="2.6110050082206726e-01" purity="5.0714260339736938e-01" nType="0">
          <Node pos="l" depth="2" NCoef="0" IVar="-1" Cut="0.0000000000000000e+00" cType="1" res="-4.7556747449561954e-04" rms="2.4834582209587097e-01" purity="5.2476859092712402e-01" nType="-99"/>
          <Node pos="r" depth="2" NCoef="0" IVar="-1" Cut="0.0000000000000000e+00" cType="1" res="2.4808557704091072e-02" rms="3.4809172153472900e-01" purity="3.4918412566184998e-01" nType="-99"/>
        </Node>
        <Node pos="r" depth="1" NCoef="0" IVar="-1" Cut="0.0000000000000000e+00" cType="1" res="-5.8580316603183746e-02" rms="-nan" purity="5.5197387933731079e-02" nType="-99"/>
      </Node>
    </BinaryTree>
    <BinaryTree type="DecisionTree" boostWeight="1.0000000000000000e+00" itree="366">
      <Node pos="s" depth="0" NCoef="0" IVar="13" Cut="-1.0681518316268921e+00" cType="1" res="6.5576792694628239e-03" rms="2.5757935643196106e-01" purity="5.0409418344497681e-01" nType="0">
        <Node pos="l" depth="1" NCoef="0" IVar="34" Cut="-8.3828139305114746e-01" cType="1" res="5.4721366614103317e-02" rms="2.6591491699218750e-01" purity="2.3253457248210907e-01" nType="0">
          <Node pos="l" depth="2" NCoef="0" IVar="-1" Cut="0.0000000000000000e+00" cType="1" res="-1.3026533648371696e-02" rms="-nan" purity="1.5171507000923157e-01" nType="-99"/>
          <Node pos="r" depth="2" NCoef="0" IVar="-1" Cut="0.0000000000000000e+00" cType="1" res="5.4254699498414993e-02" rms="3.2840633392333984e-01" purity="2.8142040967941284e-01" nType="-99"/>
        </Node>
        <Node pos="r" depth="1" NCoef="0" IVar="4" Cut="3.2916676998138428e+00" cType="1" res="-2.8159227222204208e-03" rms="2.5486966967582703e-01" purity="5.5694502592086792e-01" nType="0">
          <Node pos="l" depth="2" NCoef="0" IVar="-1" Cut="0.0000000000000000e+00" cType="1" res="-2.5301322340965271e-02" rms="-nan" purity="1.5157772600650787e-01" nType="-99"/>
          <Node pos="r" depth="2" NCoef="0" IVar="-1" Cut="0.0000000000000000e+00" cType="1" res="6.7534839035943151e-04" rms="2.6228147745132446e-01" purity="5.8042550086975098e-01" nType="-99"/>
        </Node>
      </Node>
    </BinaryTree>
    <BinaryTree type="DecisionTree" boostWeight="1.0000000000000000e+00" itree="367">
      <Node pos="s" depth="0" NCoef="0" IVar="52" Cut="2.5160608291625977e+00" cType="1" res="-4.5742578804492950e-03" rms="2.4544775485992432e-01" purity="4.9214485287666321e-01" nType="0">
        <Node pos="l" depth="1" NCoef="0" IVar="25" Cut="9.8989689350128174e-01" cType="1" res="5.3490240126848221e-02" rms="3.2205170392990112e-01" purity="2.1776536107063293e-01" nType="0">
          <Node pos="l" depth="2" NCoef="0" IVar="-1" Cut="0.0000000000000000e+00" cType="1" res="-2.9565815348178148e-03" rms="2.5452151894569397e-01" purity="1.6756050288677216e-01" nType="-99"/>
          <Node pos="r" depth="2" NCoef="0" IVar="-1" Cut="0.0000000000000000e+00" cType="1" res="5.5994596332311630e-02" rms="3.8427877426147461e-01" purity="2.9345118999481201e-01" nType="-99"/>
        </Node>
        <Node pos="r" depth="1" NCoef="0" IVar="8" Cut="-5.0417411327362061e-01" cType="1" res="-1.0257279500365257e-02" rms="2.3585474491119385e-01" purity="5.1899957656860352e-01" nType="0">
          <Node pos="l" depth="2" NCoef="0" IVar="-1" Cut="0.0000000000000000e+00" cType="1" res="-1.9263640278950334e-03" rms="2.4291147291660309e-01" purity="5.3221130371093750e-01" nType="-99"/>
          <Node pos="r" depth="2" NCoef="0" IVar="-1" Cut="0.0000000000000000e+00" cType="1" res="-5.6798364967107773e-02" rms="-nan" purity="9.9638052284717560e-02" nType="-99"/>
        </Node>
      </Node>
    </BinaryTree>
    <BinaryTree type="DecisionTree" boostWeight="1.0000000000000000e+00" itree="368">
      <Node pos="s" depth="0" NCoef="0" IVar="69" Cut="7.9989653825759888e-01" cType="1" res="4.9793338403105736e-03" rms="2.4899947643280029e-01" purity="5.1104736328125000e-01" nType="0">
        <Node pos="l" depth="1" NCoef="0" IVar="58" Cut="-2.9744142293930054e-01" cType="1" res="-5.6672245264053345e-02" rms="1.3872931897640228e-01" purity="1.7150439321994781e-01" nType="0">
          <Node pos="l" depth="2" NCoef="0" IVar="-1" Cut="0.0000000000000000e+00" cType="1" res="-2.1446074824780226e-03" rms="2.6490145921707153e-01" purity="2.2744147479534149e-01" nType="-99"/>
          <Node pos="r" depth="2" NCoef="0" IVar="-1" Cut="0.0000000000000000e+00" cType="1" res="-5.2673388272523880e-02" rms="-nan" purity="7.5398378074169159e-02" nType="-99"/>
        </Node>
        <Node pos="r" depth="1" NCoef="0" IVar="23" Cut="1.2345679104328156e-02" cType="1" res="1.0239423252642155e-02" rms="2.5553202629089355e-01" purity="5.4001694917678833e-01" nType="0">
          <Node pos="l" depth="2" NCoef="0" IVar="-1" Cut="0.0000000000000000e+00" cType="1" res="1.5810435637831688e-02" rms="3.1059026718139648e-01" purity="4.9123173952102661e-01" nType="-99"/>
          <Node pos="r" depth="2" NCoef="0" IVar="-1" Cut="0.0000000000000000e+00" cType="1" res="1.0404771892353892e-03" rms="2.4496433138847351e-01" purity="5.4774385690689087e-01" nType="-99"/>
        </Node>
      </Node>
    </BinaryTree>
    <BinaryTree type="DecisionTree" boostWeight="1.0000000000000000e+00" itree="369">
      <Node pos="s" depth="0" NCoef="0" IVar="35" Cut="-1.5311394929885864e+00" cType="1" res="5.8823763392865658e-03" rms="2.5824642181396484e-01" purity="5.0235271453857422e-01" nType="0">
        <Node pos="l" depth="1" NCoef="0" IVar="-1" Cut="0.0000000000000000e+00" cType="1" res="4.5062161982059479e-02" rms="3.9069437980651855e-01" purity="3.2607471942901611e-01" nType="-99"/>
        <Node pos="r" depth="1" NCoef="0" IVar="16" Cut="-1.2999836206436157e+00" cType="1" res="2.7945614419877529e-03" rms="2.5360989570617676e-01" purity="5.0633490085601807e-01" nType="0">
          <Node pos="l" depth="2" NCoef="0" IVar="-1" Cut="0.0000000000000000e+00" cType="1" res="2.0901286974549294e-02" rms="3.2173246145248413e-01" purity="3.5955780744552612e-01" nType="-99"/>
          <Node pos="r" depth="2" NCoef="0" IVar="-1" Cut="0.0000000000000000e+00" cType="1" res="-1.1222102912142873e-03" rms="2.4456493556499481e-01" purity="5.2159649133682251e-01" nType="-99"/>
        </Node>
      </Node>
    </BinaryTree>
    <BinaryTree type="DecisionTree" boostWeight="1.0000000000000000e+00" itree="370">
      <Node pos="s" depth="0" NCoef="0" IVar="52" Cut="2.4014444351196289e+00" cType="1" res="2.6555166114121675e-03" rms="2.4503336846828461e-01" purity="5.0461024045944214e-01" nType="0">
        <Node pos="l" depth="1" NCoef="0" IVar="25" Cut="9.3707716464996338e-01" cType="1" res="8.3169646561145782e-02" rms="3.1549599766731262e-01" purity="2.6919564604759216e-01" nType="0">
          <Node pos="l" depth="2" NCoef="0" IVar="-1" Cut="0.0000000000000000e+00" cType="1" res="5.3380440920591354e-02" rms="3.8509541749954224e-01" purity="3.9649671316146851e-01" nType="-99"/>
          <Node pos="r" depth="2" NCoef="0" IVar="-1" Cut="0.0000000000000000e+00" cType="1" res="-1.7687038052827120e-03" rms="1.9511938095092773e-01" purity="1.5092226862907410e-01" nType="-99"/>
        </Node>
        <Node pos="r" depth="1" NCoef="0" IVar="25" Cut="1.0370568037033081e+00" cType="1" res="-1.4178042765706778e-03" rms="2.4020537734031677e-01" purity="5.1652020215988159e-01" nType="0">
          <Node pos="l" depth="2" NCoef="0" IVar="-1" Cut="0.0000000000000000e+00" cType="1" res="2.1458985283970833e-03" rms="2.5211042165756226e-01" purity="5.5855315923690796e-01" nType="-99"/>
          <Node pos="r" depth="2" NCoef="0" IVar="-1" Cut="0.0000000000000000e+00" cType="1" res="-1.2575274333357811e-02" rms="1.8280468881130219e-01" purity="3.5221379995346069e-01" nType="-99"/>
        </Node>
      </Node>
    </BinaryTree>
    <BinaryTree type="DecisionTree" boostWeight="1.0000000000000000e+00" itree="371">
      <Node pos="s" depth="0" NCoef="0" IVar="21" Cut="-5.0763344764709473e-01" cType="1" res="1.2340000830590725e-03" rms="2.5087073445320129e-01" purity="5.0402140617370605e-01" nType="0">
        <Node pos="l" depth="1" NCoef="0" IVar="63" Cut="-1.5490385890007019e-01" cType="1" res="7.7818349003791809e-02" rms="3.4301352500915527e-01" purity="5.5590039491653442e-01" nType="0">
          <Node pos="l" depth="2" NCoef="0" IVar="-1" Cut="0.0000000000000000e+00" cType="1" res="5.2262224256992340e-02" rms="3.9603680372238159e-01" purity="6.1866766214370728e-01" nType="-99"/>
          <Node pos="r" depth="2" NCoef="0" IVar="-1" Cut="0.0000000000000000e+00" cType="1" res="-5.1007424481213093e-03" rms="2.5161954760551453e-01" purity="4.9720871448516846e-01" nType="-99"/>
        </Node>
        <Node pos="r" depth="1" NCoef="0" IVar="79" Cut="1.3259841203689575e+00" cType="1" res="-2.9958765953779221e-03" rms="2.4407353997230530e-01" purity="5.0115603208541870e-01" nType="0">
          <Node pos="l" depth="2" NCoef="0" IVar="-1" Cut="0.0000000000000000e+00" cType="1" res="3.2699343864805996e-04" rms="2.5247672200202942e-01" purity="5.1592373847961426e-01" nType="-99"/>
          <Node pos="r" depth="2" NCoef="0" IVar="-1" Cut="0.0000000000000000e+00" cType="1" res="-3.9620827883481979e-02" rms="-nan" purity="1.7235605418682098e-01" nType="-99"/>
        </Node>
      </Node>
    </BinaryTree>
    <BinaryTree type="DecisionTree" boostWeight="1.0000000000000000e+00" itree="372">
      <Node pos="s" depth="0" NCoef="0" IVar="61" Cut="1.2983227968215942e+00" cType="1" res="9.7366981208324432e-03" rms="2.6417768001556396e-01" purity="5.0651693344116211e-01" nType="0">
        <Node pos="l" depth="1" NCoef="0" IVar="37" Cut="-1.1071145534515381e+00" cType="1" res="2.0926832221448421e-03" rms="2.5228667259216309e-01" purity="5.2630156278610229e-01" nType="0">
          <Node pos="l" depth="2" NCoef="0" IVar="-1" Cut="0.0000000000000000e+00" cType="1" res="9.1580171138048172e-03" rms="2.9332512617111206e-01" purity="4.9740579724311829e-01" nType="-99"/>
          <Node pos="r" depth="2" NCoef="0" IVar="-1" Cut="0.0000000000000000e+00" cType="1" res="-3.4768080804497004e-03" rms="2.2819496691226959e-01" purity="5.4055750370025635e-01" nType="-99"/>
        </Node>
        <Node pos="r" depth="1" NCoef="0" IVar="77" Cut="-1.4540457725524902e+00" cType="1" res="7.4988171458244324e-02" rms="3.4272000193595886e-01" purity="3.3762949705123901e-01" nType="0">
          <Node pos="l" depth="2" NCoef="0" IVar="-1" Cut="0.0000000000000000e+00" cType="1" res="-3.5714516416192055e-03" rms="2.4459519982337952e-01" purity="3.3621671795845032e-01" nType="-99"/>
          <Node pos="r" depth="2" NCoef="0" IVar="-1" Cut="0.0000000000000000e+00" cType="1" res="6.5751925110816956e-02" rms="3.9949324727058411e-01" purity="3.3903026580810547e-01" nType="-99"/>
        </Node>
      </Node>
    </BinaryTree>
    <BinaryTree type="DecisionTree" boostWeight="1.0000000000000000e+00" itree="373">
      <Node pos="s" depth="0" NCoef="0" IVar="36" Cut="-1.4151318073272705e+00" cType="1" res="7.6282699592411518e-03" rms="2.5902980566024780e-01" purity="5.0029164552688599e-01" nType="0">
        <Node pos="l" depth="1" NCoef="0" IVar="57" Cut="-1.4137212932109833e-01" cType="1" res="-5.4335001856088638e-02" rms="-nan" purity="-2.8954409062862396e-02" nType="-99"/>
        <Node pos="r" depth="1" NCoef="0" IVar="18" Cut="-6.1993408203125000e-01" cType="1" res="1.2636591680347919e-02" rms="2.7071779966354370e-01" purity="5.3269422054290771e-01" nType="0">
          <Node pos="l" depth="2" NCoef="0" IVar="-1" Cut="0.0000000000000000e+00" cType="1" res="2.7856042142957449e-03" rms="2.6393386721611023e-01" purity="5.3990489244461060e-01" nType="-99"/>
          <Node pos="r" depth="2" NCoef="0" IVar="-1" Cut="0.0000000000000000e+00" cType="1" res="2.9897967353463173e-02" rms="3.9378359913825989e-01" purity="3.5390862822532654e-01" nType="-99"/>
        </Node>
      </Node>
    </BinaryTree>
    <BinaryTree type="DecisionTree" boostWeight="1.0000000000000000e+00" itree="374">
      <Node pos="s" depth="0" NCoef="0" IVar="57" Cut="-1.3764237165451050e+00" cType="1" res="-1.0302471491741017e-04" rms="2.4984887242317200e-01" purity="5.0011879205703735e-01" nType="0">
        <Node pos="l" depth="1" NCoef="0" IVar="1" Cut="2.8320639133453369e+00" cType="1" res="-4.0352292358875275e-02" rms="-nan" purity="-8.0640986561775208e-03" nType="-99"/>
        <Node pos="r" depth="1" NCoef="0" IVar="10" Cut="3.0245583057403564e+00" cType="1" res="5.7246508076786995e-03" rms="2.6383507251739502e-01" purity="5.4404377937316895e-01" nType="0">
          <Node pos="l" depth="2" NCoef="0" IVar="-1" Cut="0.0000000000000000e+00" cType="1" res="1.0877762921154499e-02" rms="3.1232941150665283e-01" purity="3.6724275350570679e-01" nType="-99"/>
          <Node pos="r" depth="2" NCoef="0" IVar="-1" Cut="0.0000000000000000e+00" cType="1" res="-1.1059026001021266e-03" rms="2.4796882271766663e-01" purity="5.9293365478515625e-01" nType="-99"/>
        </Node>
      </Node>
    </BinaryTree>
    <BinaryTree type="DecisionTree" boostWeight="1.0000000000000000e+00" itree="375">
      <Node pos="s" depth="0" NCoef="0" IVar="31" Cut="2.3534846305847168e+00" cType="1" res="-1.0118526406586170e-03" rms="2.4858653545379639e-01" purity="5.0237691402435303e-01" nType="0">
        <Node pos="l" depth="1" NCoef="0" IVar="-1" Cut="0.0000000000000000e+00" cType="1" res="3.7157304584980011e-02" rms="3.7700378894805908e-01" purity="2.6831069588661194e-01" nType="-99"/>
        <Node pos="r" depth="1" NCoef="0" IVar="36" Cut="-1.4151217937469482e+00" cType="1" res="-5.6880176998674870e-03" rms="2.4081851541996002e-01" purity="5.1180869340896606e-01" nType="0">
          <Node pos="l" depth="2" NCoef="0" IVar="-1" Cut="0.0000000000000000e+00" cType="1" res="-6.6051796078681946e-02" rms="-nan" purity="-3.9651703089475632e-02" nType="-99"/>
          <Node pos="r" depth="2" NCoef="0" IVar="-1" Cut="0.0000000000000000e+00" cType="1" res="-2.9195501701906323e-04" rms="2.5420317053794861e-01" purity="5.4340374469757080e-01" nType="-99"/>
        </Node>
      </Node>
    </BinaryTree>
    <BinaryTree type="DecisionTree" boostWeight="1.0000000000000000e+00" itree="376">
      <Node pos="s" depth="0" NCoef="0" IVar="49" Cut="-1.2771972417831421e+00" cType="1" res="-2.9220369178801775e-03" rms="2.4699400365352631e-01" purity="4.9686470627784729e-01" nType="0">
        <Node pos="l" depth="1" NCoef="0" IVar="84" Cut="5.4813232272863388e-02" cType="1" res="-9.7207082435488701e-03" rms="2.3543722927570343e-01" purity="4.9623459577560425e-01" nType="0">
          <Node pos="l" depth="2" NCoef="0" IVar="-1" Cut="0.0000000000000000e+00" cType="1" res="1.0923574445769191e-03" rms="2.6276320219039917e-01" purity="5.1874899864196777e-01" nType="-99"/>
          <Node pos="r" depth="2" NCoef="0" IVar="-1" Cut="0.0000000000000000e+00" cType="1" res="-1.1549481190741062e-02" rms="1.7013643682003021e-01" purity="4.5397728681564331e-01" nType="-99"/>
        </Node>
        <Node pos="r" depth="1" NCoef="0" IVar="17" Cut="1.4431946277618408e+00" cType="1" res="7.6033011078834534e-02" rms="3.4493997693061829e-01" purity="5.0418227910995483e-01" nType="0">
          <Node pos="l" depth="2" NCoef="0" IVar="-1" Cut="0.0000000000000000e+00" cType="1" res="9.5923401415348053e-02" rms="3.9446505904197693e-01" purity="2.3882947862148285e-01" nType="-99"/>
          <Node pos="r" depth="2" NCoef="0" IVar="-1" Cut="0.0000000000000000e+00" cType="1" res="4.5079053379595280e-03" rms="2.9590573906898499e-01" purity="6.7086893320083618e-01" nType="-99"/>
        </Node>
      </Node>
    </BinaryTree>
    <BinaryTree type="DecisionTree" boostWeight="1.0000000000000000e+00" itree="377">
      <Node pos="s" depth="0" NCoef="0" IVar="84" Cut="-2.0367933437228203e-02" cType="1" res="2.6955176144838333e-04" rms="2.5029876828193665e-01" purity="4.9841424822807312e-01" nType="0">
        <Node pos="l" depth="1" NCoef="0" IVar="19" Cut="5.2093718200922012e-02" cType="1" res="1.9147338345646858e-02" rms="2.8306746482849121e-01" purity="5.2462047338485718e-01" nType="0">
          <Node pos="l" depth="2" NCoef="0" IVar="-1" Cut="0.0000000000000000e+00" cType="1" res="5.2428308874368668e-02" rms="4.1158100962638855e-01" purity="6.6621053218841553e-01" nType="-99"/>
          <Node pos="r" depth="2" NCoef="0" IVar="-1" Cut="0.0000000000000000e+00" cType="1" res="3.7537913303822279e-03" rms="2.7189770340919495e-01" purity="5.1626080274581909e-01" nType="-99"/>
        </Node>
        <Node pos="r" depth="1" NCoef="0" IVar="4" Cut="3.3178067207336426e+00" cType="1" res="-2.0921958610415459e-02" rms="2.0537889003753662e-01" purity="4.6899607777595520e-01" nType="0">
          <Node pos="l" depth="2" NCoef="0" IVar="-1" Cut="0.0000000000000000e+00" cType="1" res="-4.1878663003444672e-02" rms="-nan" purity="7.1391403675079346e-02" nType="-99"/>
          <Node pos="r" depth="2" NCoef="0" IVar="-1" Cut="0.0000000000000000e+00" cType="1" res="-3.7162101361900568e-03" rms="2.2513557970523834e-01" purity="5.0614649057388306e-01" nType="-99"/>
        </Node>
      </Node>
    </BinaryTree>
    <BinaryTree type="DecisionTree" boostWeight="1.0000000000000000e+00" itree="378">
      <Node pos="s" depth="0" NCoef="0" IVar="55" Cut="-1.4540815353393555e+00" cType="1" res="2.7941085863858461e-04" rms="2.4788878858089447e-01" purity="5.0007814168930054e-01" nType="0">
        <Node pos="l" depth="1" NCoef="0" IVar="61" Cut="9.8244476318359375e-01" cType="1" res="6.4678885042667389e-02" rms="3.1639811396598816e-01" purity="3.6982989311218262e-01" nType="0">
          <Node pos="l" depth="2" NCoef="0" IVar="-1" Cut="0.0000000000000000e+00" cType="1" res="3.1344587914645672e-03" rms="2.4084033071994781e-01" purity="3.6266049742698669e-01" nType="-99"/>
          <Node pos="r" depth="2" NCoef="0" IVar="-1" Cut="0.0000000000000000e+00" cType="1" res="8.8050454854965210e-02" rms="4.1740259528160095e-01" purity="3.8667419552803040e-01" nType="-99"/>
        </Node>
        <Node pos="r" depth="1" NCoef="0" IVar="77" Cut="1.3673177957534790e+00" cType="1" res="-4.9302247352898121e-03" rms="2.4074649810791016e-01" purity="5.1061469316482544e-01" nType="0">
          <Node pos="l" depth="2" NCoef="0" IVar="-1" Cut="0.0000000000000000e+00" cType="1" res="-1.0316178668290377e-04" rms="2.5285831093788147e-01" purity="5.3454428911209106e-01" nType="-99"/>
          <Node pos="r" depth="2" NCoef="0" IVar="-1" Cut="0.0000000000000000e+00" cType="1" res="-7.3470905423164368e-02" rms="-nan" purity="-2.0685462281107903e-02" nType="-99"/>
        </Node>
      </Node>
    </BinaryTree>
    <BinaryTree type="DecisionTree" boostWeight="1.0000000000000000e+00" itree="379">
      <Node pos="s" depth="0" NCoef="0" IVar="37" Cut="1.2881305217742920e+00" cType="1" res="7.1236458607017994e-03" rms="2.5652918219566345e-01" purity="5.0502103567123413e-01" nType="0">
        <Node pos="l" depth="1" NCoef="0" IVar="88" Cut="1.5367943048477173e+00" cType="1" res="1.1712640989571810e-03" rms="2.4545720219612122e-01" purity="5.0741690397262573e-01" nType="0">
          <Node pos="l" depth="2" NCoef="0" IVar="-1" Cut="0.0000000000000000e+00" cType="1" res="-5.4815696785226464e-04" rms="2.4145165085792542e-01" purity="5.1360654830932617e-01" nType="-99"/>
          <Node pos="r" depth="2" NCoef="0" IVar="-1" Cut="0.0000000000000000e+00" cType="1" res="6.1623945832252502e-02" rms="3.5495054721832275e-01" purity="2.5041198730468750e-01" nType="-99"/>
        </Node>
        <Node pos="r" depth="1" NCoef="0" IVar="55" Cut="7.8119957447052002e-01" cType="1" res="8.8094674050807953e-02" rms="3.6657193303108215e-01" purity="4.7242903709411621e-01" nType="0">
          <Node pos="l" depth="2" NCoef="0" IVar="-1" Cut="0.0000000000000000e+00" cType="1" res="8.5899502038955688e-02" rms="4.2515629529953003e-01" purity="3.8557094335556030e-01" nType="-99"/>
          <Node pos="r" depth="2" NCoef="0" IVar="-1" Cut="0.0000000000000000e+00" cType="1" res="5.3534326143562794e-03" rms="3.1352061033248901e-01" purity="5.1162278652191162e-01" nType="-99"/>
        </Node>
      </Node>
    </BinaryTree>
    <BinaryTree type="DecisionTree" boostWeight="1.0000000000000000e+00" itree="380">
      <Node pos="s" depth="0" NCoef="0" IVar="16" Cut="-1.4155989885330200e+00" cType="1" res="4.8716473393142223e-03" rms="2.5457733869552612e-01" purity="5.0872212648391724e-01" nType="0">
        <Node pos="l" depth="1" NCoef="0" IVar="-1" Cut="0.0000000000000000e+00" cType="1" res="-4.9090985208749771e-02" rms="-nan" purity="6.9248162209987640e-02" nType="-99"/>
        <Node pos="r" depth="1" NCoef="0" IVar="88" Cut="8.8829934597015381e-01" cType="1" res="8.1008020788431168e-03" rms="2.5973951816558838e-01" purity="5.2108865976333618e-01" nType="0">
          <Node pos="l" depth="2" NCoef="0" IVar="-1" Cut="0.0000000000000000e+00" cType="1" res="1.1997601948678493e-02" rms="3.0252626538276672e-01" purity="5.8125817775726318e-01" nType="-99"/>
          <Node pos="r" depth="2" NCoef="0" IVar="-1" Cut="0.0000000000000000e+00" cType="1" res="-3.1021010363474488e-04" rms="2.4518024921417236e-01" purity="5.0361949205398560e-01" nType="-99"/>
        </Node>
      </Node>
    </BinaryTree>
    <BinaryTree type="DecisionTree" boostWeight="1.0000000000000000e+00" itree="381">
      <Node pos="s" depth="0" NCoef="0" IVar="73" Cut="2.6862339973449707e+00" cType="1" res="-1.6749786445870996e-03" rms="2.4566911160945892e-01" purity="5.0163525342941284e-01" nType="0">
        <Node pos="l" depth="1" NCoef="0" IVar="3" Cut="5.1351270675659180e+00" cType="1" res="-2.3731959983706474e-02" rms="2.2023946046829224e-01" purity="3.6615675687789917e-01" nType="0">
          <Node pos="l" depth="2" NCoef="0" IVar="-1" Cut="0.0000000000000000e+00" cType="1" res="-4.6050301752984524e-03" rms="2.4543708562850952e-01" purity="3.7543708086013794e-01" nType="-99"/>
          <Node pos="r" depth="2" NCoef="0" IVar="-1" Cut="0.0000000000000000e+00" cType="1" res="-5.4717529565095901e-02" rms="-nan" purity="2.5654095411300659e-01" nType="-99"/>
        </Node>
        <Node pos="r" depth="1" NCoef="0" IVar="61" Cut="1.3673977851867676e+00" cType="1" res="1.2677870690822601e-02" rms="2.5988528132438660e-01" purity="5.8979338407516479e-01" nType="0">
          <Node pos="l" depth="2" NCoef="0" IVar="-1" Cut="0.0000000000000000e+00" cType="1" res="1.8071932718157768e-03" rms="2.4843880534172058e-01" purity="6.0370719432830811e-01" nType="-99"/>
          <Node pos="r" depth="2" NCoef="0" IVar="-1" Cut="0.0000000000000000e+00" cType="1" res="3.0266854912042618e-02" rms="3.5961759090423584e-01" purity="4.2502641677856445e-01" nType="-99"/>
        </Node>
      </Node>
    </BinaryTree>
    <BinaryTree type="DecisionTree" boostWeight="1.0000000000000000e+00" itree="382">
      <Node pos="s" depth="0" NCoef="0" IVar="17" Cut="-1.4537599086761475e+00" cType="1" res="8.6696846410632133e-03" rms="2.5897949934005737e-01" purity="5.0447404384613037e-01" nType="0">
        <Node pos="l" depth="1" NCoef="0" IVar="-1" Cut="0.0000000000000000e+00" cType="1" res="1.1676358431577682e-01" rms="3.3378899097442627e-01" purity="1.5434378385543823e-01" nType="-99"/>
        <Node pos="r" depth="1" NCoef="0" IVar="3" Cut="4.2653551101684570e+00" cType="1" res="4.7664716839790344e-03" rms="2.5513827800750732e-01" purity="5.1642107963562012e-01" nType="0">
          <Node pos="l" depth="2" NCoef="0" IVar="-1" Cut="0.0000000000000000e+00" cType="1" res="3.2845865935087204e-02" rms="3.5880345106124878e-01" purity="4.3717589974403381e-01" nType="-99"/>
          <Node pos="r" depth="2" NCoef="0" IVar="-1" Cut="0.0000000000000000e+00" cType="1" res="5.6820735335350037e-04" rms="2.5169250369071960e-01" purity="5.1808166503906250e-01" nType="-99"/>
        </Node>
      </Node>
    </BinaryTree>
    <BinaryTree type="DecisionTree" boostWeight="1.0000000000000000e+00" itree="383">
      <Node pos="s" depth="0" NCoef="0" IVar="3" Cut="5.5059065818786621e+00" cType="1" res="2.9767204541712999e-03" rms="2.4701951444149017e-01" purity="5.0221461057662964e-01" nType="0">
        <Node pos="l" depth="1" NCoef="0" IVar="57" Cut="-6.4160758256912231e-01" cType="1" res="1.2993215932510793e-04" rms="2.4290733039379120e-01" purity="5.0767242908477783e-01" nType="0">
          <Node pos="l" depth="2" NCoef="0" IVar="-1" Cut="0.0000000000000000e+00" cType="1" res="-2.1959507837891579e-02" rms="-nan" purity="2.8986487537622452e-02" nType="-99"/>
          <Node pos="r" depth="2" NCoef="0" IVar="-1" Cut="0.0000000000000000e+00" cType="1" res="2.2801647428423166e-03" rms="2.6941767334938049e-01" purity="6.0493487119674683e-01" nType="-99"/>
        </Node>
        <Node pos="r" depth="1" NCoef="0" IVar="-1" Cut="0.0000000000000000e+00" cType="1" res="3.7932027131319046e-02" rms="3.6159861087799072e-01" purity="2.7399381995201111e-01" nType="-99"/>
      </Node>
    </BinaryTree>
    <BinaryTree type="DecisionTree" boostWeight="1.0000000000000000e+00" itree="384">
      <Node pos="s" depth="0" NCoef="0" IVar="13" Cut="-1.4154744148254395e+00" cType="1" res="3.3455025404691696e-03" rms="2.5196006894111633e-01" purity="4.9633398652076721e-01" nType="0">
        <Node pos="l" depth="1" NCoef="0" IVar="83" Cut="1.9073320925235748e-01" cType="1" res="6.1476044356822968e-02" rms="2.9482015967369080e-01" purity="2.4900642037391663e-01" nType="0">
          <Node pos="l" depth="2" NCoef="0" IVar="-1" Cut="0.0000000000000000e+00" cType="1" res="8.9842760935425758e-03" rms="2.3383119702339172e-01" purity="2.1195575594902039e-01" nType="-99"/>
          <Node pos="r" depth="2" NCoef="0" IVar="-1" Cut="0.0000000000000000e+00" cType="1" res="9.2485152184963226e-02" rms="4.1084659099578857e-01" purity="3.7612351775169373e-01" nType="-99"/>
        </Node>
        <Node pos="r" depth="1" NCoef="0" IVar="15" Cut="-1.2756968736648560e+00" cType="1" res="-2.4143983609974384e-03" rms="2.4656398594379425e-01" purity="5.2084058523178101e-01" nType="0">
          <Node pos="l" depth="2" NCoef="0" IVar="-1" Cut="0.0000000000000000e+00" cType="1" res="-3.5525284707546234e-02" rms="-nan" purity="1.4815467596054077e-01" nType="-99"/>
          <Node pos="r" depth="2" NCoef="0" IVar="-1" Cut="0.0000000000000000e+00" cType="1" res="1.7673879629001021e-03" rms="2.6716959476470947e-01" purity="5.8354914188385010e-01" nType="-99"/>
        </Node>
      </Node>
    </BinaryTree>
    <BinaryTree type="DecisionTree" boostWeight="1.0000000000000000e+00" itree="385">
      <Node pos="s" depth="0" NCoef="0" IVar="48" Cut="7.0259022712707520e-01" cType="1" res="-3.2177800312638283e-03" rms="2.4537022411823273e-01" purity="5.0031673908233643e-01" nType="0">
        <Node pos="l" depth="1" NCoef="0" IVar="-1" Cut="0.0000000000000000e+00" cType="1" res="-6.8844228982925415e-02" rms="-nan" purity="1.2050024233758450e-02" nType="-99"/>
        <Node pos="r" depth="1" NCoef="0" IVar="5" Cut="2.2031016647815704e-01" cType="1" res="7.9349917359650135e-04" rms="2.5153616070747375e-01" purity="5.1254040002822876e-01" nType="0">
          <Node pos="l" depth="2" NCoef="0" IVar="-1" Cut="0.0000000000000000e+00" cType="1" res="6.3866055570542812e-03" rms="2.5665774941444397e-01" purity="5.4608243703842163e-01" nType="-99"/>
          <Node pos="r" depth="2" NCoef="0" IVar="-1" Cut="0.0000000000000000e+00" cType="1" res="-5.4701576009392738e-03" rms="2.4523462355136871e-01" purity="4.8098948597908020e-01" nType="-99"/>
        </Node>
      </Node>
    </BinaryTree>
    <BinaryTree type="DecisionTree" boostWeight="1.0000000000000000e+00" itree="386">
      <Node pos="s" depth="0" NCoef="0" IVar="55" Cut="-1.4926588535308838e+00" cType="1" res="-1.3531914446502924e-03" rms="2.4648912250995636e-01" purity="5.0002980232238770e-01" nType="0">
        <Node pos="l" depth="1" NCoef="0" IVar="62" Cut="-5.4244011640548706e-02" cType="1" res="1.0577874630689621e-01" rms="3.3983668684959412e-01" purity="4.8431992530822754e-01" nType="0">
          <Node pos="l" depth="2" NCoef="0" IVar="-1" Cut="0.0000000000000000e+00" cType="1" res="7.2551850462332368e-04" rms="2.2359991073608398e-01" purity="4.3309184908866882e-01" nType="-99"/>
          <Node pos="r" depth="2" NCoef="0" IVar="-1" Cut="0.0000000000000000e+00" cType="1" res="6.2100313603878021e-02" rms="3.9217045903205872e-01" purity="5.2718746662139893e-01" nType="-99"/>
        </Node>
        <Node pos="r" depth="1" NCoef="0" IVar="57" Cut="1.5242937803268433e+00" cType="1" res="-6.4043137244880199e-03" rms="2.4002020061016083e-01" purity="5.0077056884765625e-01" nType="0">
          <Node pos="l" depth="2" NCoef="0" IVar="-1" Cut="0.0000000000000000e+00" cType="1" res="-6.8767014890909195e-03" rms="2.1385622024536133e-01" purity="3.2954740524291992e-01" nType="-99"/>
          <Node pos="r" depth="2" NCoef="0" IVar="-1" Cut="0.0000000000000000e+00" cType="1" res="5.8917016722261906e-03" rms="2.7796515822410583e-01" purity="7.9928934574127197e-01" nType="-99"/>
        </Node>
      </Node>
    </BinaryTree>
    <BinaryTree type="DecisionTree" boostWeight="1.0000000000000000e+00" itree="387">
      <Node pos="s" depth="0" NCoef="0" IVar="40" Cut="1.1225221157073975e+00" cType="1" res="4.9624829553067684e-03" rms="2.5018379092216492e-01" purity="5.0541162490844727e-01" nType="0">
        <Node pos="l" depth="1" NCoef="0" IVar="32" Cut="1.2345679104328156e-02" cType="1" res="1.2329993769526482e-02" rms="2.6409038901329041e-01" purity="5.4782110452651978e-01" nType="0">
          <Node pos="l" depth="2" NCoef="0" IVar="-1" Cut="0.0000000000000000e+00" cType="1" res="1.2090324424207211e-02" rms="3.0708989500999451e-01" purity="5.0350105762481689e-01" nType="-99"/>
          <Node pos="r" depth="2" NCoef="0" IVar="-1" Cut="0.0000000000000000e+00" cType="1" res="-8.8359846267849207e-04" rms="2.4038007855415344e-01" purity="5.6812447309494019e-01" nType="-99"/>
        </Node>
        <Node pos="r" depth="1" NCoef="0" IVar="4" Cut="3.4671428203582764e+00" cType="1" res="-3.4997496753931046e-02" rms="1.4802284538745880e-01" purity="2.7539062500000000e-01" nType="0">
          <Node pos="l" depth="2" NCoef="0" IVar="-1" Cut="0.0000000000000000e+00" cType="1" res="-5.2600923925638199e-02" rms="-nan" purity="2.9821980744600296e-02" nType="-99"/>
          <Node pos="r" depth="2" NCoef="0" IVar="-1" Cut="0.0000000000000000e+00" cType="1" res="1.5268652932718396e-03" rms="2.3241493105888367e-01" purity="3.8781791925430298e-01" nType="-99"/>
        </Node>
      </Node>
    </BinaryTree>
    <BinaryTree type="DecisionTree" boostWeight="1.0000000000000000e+00" itree="388">
      <Node pos="s" depth="0" NCoef="0" IVar="81" Cut="-1.4944989681243896e+00" cType="1" res="8.0145196989178658e-04" rms="2.4387930333614349e-01" purity="5.0101691484451294e-01" nType="0">
        <Node pos="l" depth="1" NCoef="0" IVar="31" Cut="2.9521813392639160e+00" cType="1" res="1.2597877532243729e-02" rms="2.6256403326988220e-01" purity="5.8540236949920654e-01" nType="0">
          <Node pos="l" depth="2" NCoef="0" IVar="-1" Cut="0.0000000000000000e+00" cType="1" res="1.1394388973712921e-02" rms="2.9565531015396118e-01" purity="4.8589602112770081e-01" nType="-99"/>
          <Node pos="r" depth="2" NCoef="0" IVar="-1" Cut="0.0000000000000000e+00" cType="1" res="-2.2761735599488020e-03" rms="2.3325698077678680e-01" purity="6.5871381759643555e-01" nType="-99"/>
        </Node>
        <Node pos="r" depth="1" NCoef="0" IVar="11" Cut="1.2345679104328156e-02" cType="1" res="-2.6394080370664597e-02" rms="1.9131439924240112e-01" purity="3.0647417902946472e-01" nType="0">
          <Node pos="l" depth="2" NCoef="0" IVar="-1" Cut="0.0000000000000000e+00" cType="1" res="-7.5873076915740967e-02" rms="-nan" purity="-1.2744541279971600e-02" nType="-99"/>
          <Node pos="r" depth="2" NCoef="0" IVar="-1" Cut="0.0000000000000000e+00" cType="1" res="-4.5373099856078625e-03" rms="2.1553418040275574e-01" purity="3.3113992214202881e-01" nType="-99"/>
        </Node>
      </Node>
    </BinaryTree>
    <BinaryTree type="DecisionTree" boostWeight="1.0000000000000000e+00" itree="389">
      <Node pos="s" depth="0" NCoef="0" IVar="20" Cut="-5.0292432308197021e-01" cType="1" res="1.1127970181405544e-02" rms="2.6304957270622253e-01" purity="5.0089424848556519e-01" nType="0">
        <Node pos="l" depth="1" NCoef="0" IVar="-1" Cut="0.0000000000000000e+00" cType="1" res="4.5761875808238983e-02" rms="3.9122810959815979e-01" purity="6.2887966632843018e-01" nType="-99"/>
        <Node pos="r" depth="1" NCoef="0" IVar="20" Cut="-3.4089109301567078e-01" cType="1" res="7.7973706647753716e-03" rms="2.5790283083915710e-01" purity="4.9744808673858643e-01" nType="0">
          <Node pos="l" depth="2" NCoef="0" IVar="-1" Cut="0.0000000000000000e+00" cType="1" res="-2.7252908796072006e-02" rms="8.9793369174003601e-02" purity="4.9882602691650391e-01" nType="-99"/>
          <Node pos="r" depth="2" NCoef="0" IVar="-1" Cut="0.0000000000000000e+00" cType="1" res="4.1651567444205284e-03" rms="2.6356080174446106e-01" purity="4.9736672639846802e-01" nType="-99"/>
        </Node>
      </Node>
    </BinaryTree>
    <BinaryTree type="DecisionTree" boostWeight="1.0000000000000000e+00" itree="390">
      <Node pos="s" depth="0" NCoef="0" IVar="78" Cut="1.4445203542709351e+00" cType="1" res="2.7697707992047071e-03" rms="2.5056809186935425e-01" purity="5.0241416692733765e-01" nType="0">
        <Node pos="l" depth="1" NCoef="0" IVar="35" Cut="-7.1934586763381958e-01" cType="1" res="-1.4851795276626945e-03" rms="2.4327065050601959e-01" purity="5.1948851346969604e-01" nType="0">
          <Node pos="l" depth="2" NCoef="0" IVar="-1" Cut="0.0000000000000000e+00" cType="1" res="-5.0897006876766682e-03" rms="2.2325246036052704e-01" purity="5.0797241926193237e-01" nType="-99"/>
          <Node pos="r" depth="2" NCoef="0" IVar="-1" Cut="0.0000000000000000e+00" cType="1" res="6.3482131808996201e-03" rms="2.6977983117103577e-01" purity="5.3727328777313232e-01" nType="-99"/>
        </Node>
        <Node pos="r" depth="1" NCoef="0" IVar="10" Cut="3.0573871135711670e+00" cType="1" res="7.6795093715190887e-02" rms="3.4595635533332825e-01" purity="2.0536367595195770e-01" nType="0">
          <Node pos="l" depth="2" NCoef="0" IVar="-1" Cut="0.0000000000000000e+00" cType="1" res="8.2127861678600311e-02" rms="4.3679517507553101e-01" purity="2.9708743095397949e-01" nType="-99"/>
          <Node pos="r" depth="2" NCoef="0" IVar="-1" Cut="0.0000000000000000e+00" cType="1" res="1.1606781044974923e-03" rms="2.4089580774307251e-01" purity="1.4365306496620178e-01" nType="-99"/>
        </Node>
      </Node>
    </BinaryTree>
    <BinaryTree type="DecisionTree" boostWeight="1.0000000000000000e+00" itree="391">
      <Node pos="s" depth="0" NCoef="0" IVar="52" Cut="2.3454704284667969e+00" cType="1" res="-8.1998258829116821e-03" rms="2.3160886764526367e-01" purity="4.9806746840476990e-01" nType="0">
        <Node pos="l" depth="1" NCoef="0" IVar="-1" Cut="0.0000000000000000e+00" cType="1" res="-5.4679732769727707e-02" rms="-nan" purity="-2.1047033369541168e-02" nType="-99"/>
        <Node pos="r" depth="1" NCoef="0" IVar="31" Cut="2.4699978828430176e+00" cType="1" res="-4.6388218179345131e-03" rms="2.3756071925163269e-01" purity="5.1121473312377930e-01" nType="0">
          <Node pos="l" depth="2" NCoef="0" IVar="-1" Cut="0.0000000000000000e+00" cType="1" res="-3.1490314751863480e-02" rms="5.0166543573141098e-02" purity="9.3711242079734802e-02" nType="-99"/>
          <Node pos="r" depth="2" NCoef="0" IVar="-1" Cut="0.0000000000000000e+00" cType="1" res="2.2268471366260201e-04" rms="2.4387520551681519e-01" purity="5.3836846351623535e-01" nType="-99"/>
        </Node>
      </Node>
    </BinaryTree>
    <BinaryTree type="DecisionTree" boostWeight="1.0000000000000000e+00" itree="392">
      <Node pos="s" depth="0" NCoef="0" IVar="53" Cut="1.2345679104328156e-02" cType="1" res="2.8024988714605570e-03" rms="2.5183054804801941e-01" purity="4.9636787176132202e-01" nType="0">
        <Node pos="l" depth="1" NCoef="0" IVar="2" Cut="2.4637045860290527e+00" cType="1" res="2.9838535934686661e-02" rms="2.9037085175514221e-01" purity="4.2969897389411926e-01" nType="0">
          <Node pos="l" depth="2" NCoef="0" IVar="-1" Cut="0.0000000000000000e+00" cType="1" res="-5.8561977930366993e-03" rms="2.2830547392368317e-01" purity="2.1257060766220093e-01" nType="-99"/>
          <Node pos="r" depth="2" NCoef="0" IVar="-1" Cut="0.0000000000000000e+00" cType="1" res="1.6777053475379944e-02" rms="3.2780581712722778e-01" purity="6.0720545053482056e-01" nType="-99"/>
        </Node>
        <Node pos="r" depth="1" NCoef="0" IVar="69" Cut="1.5201389789581299e+00" cType="1" res="-9.7679411992430687e-03" rms="2.3066174983978271e-01" purity="5.2736562490463257e-01" nType="0">
          <Node pos="l" depth="2" NCoef="0" IVar="-1" Cut="0.0000000000000000e+00" cType="1" res="5.4682716727256775e-03" rms="2.6533710956573486e-01" purity="3.9262607693672180e-01" nType="-99"/>
          <Node pos="r" depth="2" NCoef="0" IVar="-1" Cut="0.0000000000000000e+00" cType="1" res="-8.9472122490406036e-03" rms="2.0334927737712860e-01" purity="6.1473697423934937e-01" nType="-99"/>
        </Node>
      </Node>
    </BinaryTree>
    <BinaryTree type="DecisionTree" boostWeight="1.0000000000000000e+00" itree="393">
      <Node pos="s" depth="0" NCoef="0" IVar="33" Cut="1.2345679104328156e-02" cType="1" res="-1.8335552886128426e-03" rms="2.4319078028202057e-01" purity="4.9651339650154114e-01" nType="0">
        <Node pos="l" depth="1" NCoef="0" IVar="6" Cut="2.0175676345825195e+00" cType="1" res="1.2868843041360378e-02" rms="2.5838550925254822e-01" purity="5.0983357429504395e-01" nType="0">
          <Node pos="l" depth="2" NCoef="0" IVar="-1" Cut="0.0000000000000000e+00" cType="1" res="-6.5602548420429230e-03" rms="1.8587483465671539e-01" purity="3.1135183572769165e-01" nType="-99"/>
          <Node pos="r" depth="2" NCoef="0" IVar="-1" Cut="0.0000000000000000e+00" cType="1" res="8.9924186468124390e-03" rms="2.8597807884216309e-01" purity="6.0765236616134644e-01" nType="-99"/>
        </Node>
        <Node pos="r" depth="1" NCoef="0" IVar="1" Cut="1.9360131025314331e+00" cType="1" res="-2.6065694168210030e-02" rms="2.1362820267677307e-01" purity="4.7455933690071106e-01" nType="0">
          <Node pos="l" depth="2" NCoef="0" IVar="-1" Cut="0.0000000000000000e+00" cType="1" res="-5.5233459919691086e-02" rms="-nan" purity="6.9273479282855988e-02" nType="-99"/>
          <Node pos="r" depth="2" NCoef="0" IVar="-1" Cut="0.0000000000000000e+00" cType="1" res="-6.6245365887880325e-03" rms="2.2855241596698761e-01" purity="4.9773699045181274e-01" nType="-99"/>
        </Node>
      </Node>
    </BinaryTree>
    <BinaryTree type="DecisionTree" boostWeight="1.0000000000000000e+00" itree="394">
      <Node pos="s" depth="0" NCoef="0" IVar="16" Cut="-1.1072044372558594e+00" cType="1" res="8.3744889125227928e-03" rms="2.5468438863754272e-01" purity="5.0545638799667358e-01" nType="0">
        <Node pos="l" depth="1" NCoef="0" IVar="46" Cut="8.5714620351791382e-01" cType="1" res="-3.0577240511775017e-02" rms="1.6756492853164673e-01" purity="3.4379926323890686e-01" nType="0">
          <Node pos="l" depth="2" NCoef="0" IVar="-1" Cut="0.0000000000000000e+00" cType="1" res="1.7973694950342178e-02" rms="3.4532842040061951e-01" purity="4.5741075277328491e-01" nType="-99"/>
          <Node pos="r" depth="2" NCoef="0" IVar="-1" Cut="0.0000000000000000e+00" cType="1" res="-1.6923915594816208e-02" rms="9.1265186667442322e-02" purity="3.2164704799652100e-01" nType="-99"/>
        </Node>
        <Node pos="r" depth="1" NCoef="0" IVar="36" Cut="-4.4840556383132935e-01" cType="1" res="1.6364999115467072e-02" rms="2.6839393377304077e-01" purity="5.3861856460571289e-01" nType="0">
          <Node pos="l" depth="2" NCoef="0" IVar="-1" Cut="0.0000000000000000e+00" cType="1" res="2.6803970336914062e-02" rms="2.8521624207496643e-01" purity="1.5872503817081451e-01" nType="-99"/>
          <Node pos="r" depth="2" NCoef="0" IVar="-1" Cut="0.0000000000000000e+00" cType="1" res="1.7596163088455796e-03" rms="2.6321214437484741e-01" purity="6.2694180011749268e-01" nType="-99"/>
        </Node>
      </Node>
    </BinaryTree>
    <BinaryTree type="DecisionTree" boostWeight="1.0000000000000000e+00" itree="395">
      <Node pos="s" depth="0" NCoef="0" IVar="31" Cut="2.2609667778015137e+00" cType="1" res="7.0686633698642254e-03" rms="2.6280868053436279e-01" purity="5.0238335132598877e-01" nType="0">
        <Node pos="l" depth="1" NCoef="0" IVar="-1" Cut="0.0000000000000000e+00" cType="1" res="4.7963134944438934e-02" rms="3.8092046976089478e-01" purity="3.0383267998695374e-01" nType="-99"/>
        <Node pos="r" depth="1" NCoef="0" IVar="57" Cut="-1.4150981903076172e+00" cType="1" res="4.4105043634772301e-03" rms="2.5910633802413940e-01" purity="5.0652682781219482e-01" nType="0">
          <Node pos="l" depth="2" NCoef="0" IVar="-1" Cut="0.0000000000000000e+00" cType="1" res="3.5979818552732468e-02" rms="3.1377366185188293e-01" purity="1.3121512532234192e-01" nType="-99"/>
          <Node pos="r" depth="2" NCoef="0" IVar="-1" Cut="0.0000000000000000e+00" cType="1" res="9.0493867901386693e-06" rms="2.5414767861366272e-01" purity="5.3360855579376221e-01" nType="-99"/>
        </Node>
      </Node>
    </BinaryTree>
    <BinaryTree type="DecisionTree" boostWeight="1.0000000000000000e+00" itree="396">
      <Node pos="s" depth="0" NCoef="0" IVar="62" Cut="4.0177601575851440e-01" cType="1" res="1.8316811474505812e-04" rms="2.5032484531402588e-01" purity="4.9999186396598816e-01" nType="0">
        <Node pos="l" depth="1" NCoef="0" IVar="5" Cut="4.6893414855003357e-01" cType="1" res="-2.5464484933763742e-03" rms="2.4537070095539093e-01" purity="5.0232362747192383e-01" nType="0">
          <Node pos="l" depth="2" NCoef="0" IVar="-1" Cut="0.0000000000000000e+00" cType="1" res="-2.3119871038943529e-03" rms="2.3816348612308502e-01" purity="5.2040135860443115e-01" nType="-99"/>
          <Node pos="r" depth="2" NCoef="0" IVar="-1" Cut="0.0000000000000000e+00" cType="1" res="1.5901062637567520e-02" rms="3.1034818291664124e-01" purity="2.9966440796852112e-01" nType="-99"/>
        </Node>
        <Node pos="r" depth="1" NCoef="0" IVar="-1" Cut="0.0000000000000000e+00" cType="1" res="4.5910123735666275e-02" rms="4.0459653735160828e-01" purity="3.8714808225631714e-01" nType="-99"/>
      </Node>
    </BinaryTree>
    <BinaryTree type="DecisionTree" boostWeight="1.0000000000000000e+00" itree="397">
      <Node pos="s" depth="0" NCoef="0" IVar="34" Cut="-5.6730240583419800e-01" cType="1" res="-7.9223131760954857e-03" rms="2.3494987189769745e-01" purity="4.9236690998077393e-01" nType="0">
        <Node pos="l" depth="1" NCoef="0" IVar="2" Cut="2.9695353507995605e+00" cType="1" res="2.6630645617842674e-02" rms="2.6182845234870911e-01" purity="2.7539345622062683e-01" nType="0">
          <Node pos="l" depth="2" NCoef="0" IVar="-1" Cut="0.0000000000000000e+00" cType="1" res="3.1352054793387651e-03" rms="2.2740295529365540e-01" purity="2.1819581091403961e-01" nType="-99"/>
          <Node pos="r" depth="2" NCoef="0" IVar="-1" Cut="0.0000000000000000e+00" cType="1" res="2.9382217675447464e-02" rms="3.8404747843742371e-01" purity="5.8662807941436768e-01" nType="-99"/>
        </Node>
        <Node pos="r" depth="1" NCoef="0" IVar="17" Cut="1.5245091915130615e+00" cType="1" res="-1.7529753968119621e-02" rms="2.2597447037696838e-01" purity="5.5269634723663330e-01" nType="0">
          <Node pos="l" depth="2" NCoef="0" IVar="-1" Cut="0.0000000000000000e+00" cType="1" res="-1.2434846721589565e-02" rms="1.7211897671222687e-01" purity="2.7963003516197205e-01" nType="-99"/>
          <Node pos="r" depth="2" NCoef="0" IVar="-1" Cut="0.0000000000000000e+00" cType="1" res="1.2129774549975991e-03" rms="2.6925194263458252e-01" purity="8.3733052015304565e-01" nType="-99"/>
        </Node>
      </Node>
    </BinaryTree>
    <BinaryTree type="DecisionTree" boostWeight="1.0000000000000000e+00" itree="398">
      <Node pos="s" depth="0" NCoef="0" IVar="4" Cut="3.2658154964447021e+00" cType="1" res="5.7625272311270237e-03" rms="2.5577822327613831e-01" purity="5.1363903284072876e-01" nType="0">
        <Node pos="l" depth="1" NCoef="0" IVar="57" Cut="1.1673878431320190e+00" cType="1" res="-3.1197618693113327e-02" rms="-nan" purity="9.0600699186325073e-02" nType="-99"/>
        <Node pos="r" depth="1" NCoef="0" IVar="13" Cut="8.6077314615249634e-01" cType="1" res="9.7785396501421928e-03" rms="2.6252210140228271e-01" purity="5.3198456764221191e-01" nType="0">
          <Node pos="l" depth="2" NCoef="0" IVar="-1" Cut="0.0000000000000000e+00" cType="1" res="2.2411223500967026e-02" rms="2.5294283032417297e-01" purity="2.4589966237545013e-01" nType="-99"/>
          <Node pos="r" depth="2" NCoef="0" IVar="-1" Cut="0.0000000000000000e+00" cType="1" res="2.2652574989479035e-04" rms="2.6421803236007690e-01" purity="6.0643553733825684e-01" nType="-99"/>
        </Node>
      </Node>
    </BinaryTree>
    <BinaryTree type="DecisionTree" boostWeight="1.0000000000000000e+00" itree="399">
      <Node pos="s" depth="0" NCoef="0" IVar="4" Cut="3.2658154964447021e+00" cType="1" res="1.9333835225552320e-03" rms="2.5149440765380859e-01" purity="4.9886247515678406e-01" nType="0">
        <Node pos="l" depth="1" NCoef="0" IVar="35" Cut="-1.2613641023635864e+00" cType="1" res="9.9335916340351105e-02" rms="3.5608559846878052e-01" purity="2.4826723337173462e-01" nType="0">
          <Node pos="l" depth="2" NCoef="0" IVar="-1" Cut="0.0000000000000000e+00" cType="1" res="9.4101922586560249e-03" rms="2.6231306791305542e-01" purity="1.9524279236793518e-01" nType="-99"/>
          <Node pos="r" depth="2" NCoef="0" IVar="-1" Cut="0.0000000000000000e+00" cType="1" res="7.5628273189067841e-02" rms="4.3061307072639465e-01" purity="3.1583976745605469e-01" nType="-99"/>
        </Node>
        <Node pos="r" depth="1" NCoef="0" IVar="46" Cut="1.0416377782821655e+00" cType="1" res="-2.8015535790473223e-03" rms="2.4428802728652954e-01" purity="5.1104444265365601e-01" nType="0">
          <Node pos="l" depth="2" NCoef="0" IVar="-1" Cut="0.0000000000000000e+00" cType="1" res="2.0109103061258793e-03" rms="2.6068791747093201e-01" purity="5.5652028322219849e-01" nType="-99"/>
          <Node pos="r" depth="2" NCoef="0" IVar="-1" Cut="0.0000000000000000e+00" cType="1" res="-1.4111366122961044e-02" rms="1.5921239554882050e-01" purity="3.3205622434616089e-01" nType="-99"/>
        </Node>
      </Node>
    </BinaryTree>
    <BinaryTree type="DecisionTree" boostWeight="1.0000000000000000e+00" itree="400">
      <Node pos="s" depth="0" NCoef="0" IVar="52" Cut="2.5447149276733398e+00" cType="1" res="-2.0870000589638948e-03" rms="2.4568676948547363e-01" purity="4.9328023195266724e-01" nType="0">
        <Node pos="l" depth="1" NCoef="0" IVar="13" Cut="1.3998875617980957e+00" cType="1" res="-5.2478618919849396e-02" rms="1.5464520454406738e-01" purity="1.1254715174436569e-01" nType="0">
          <Node pos="l" depth="2" NCoef="0" IVar="-1" Cut="0.0000000000000000e+00" cType="1" res="-1.6076357662677765e-01" rms="-nan" purity="-1.1549802124500275e-01" nType="-99"/>
          <Node pos="r" depth="2" NCoef="0" IVar="-1" Cut="0.0000000000000000e+00" cType="1" res="3.6406167782843113e-03" rms="3.4414988756179810e-01" purity="2.5434854626655579e-01" nType="-99"/>
        </Node>
        <Node pos="r" depth="1" NCoef="0" IVar="3" Cut="4.4706373214721680e+00" cType="1" res="2.6712303515523672e-03" rms="2.5207355618476868e-01" purity="5.2923095226287842e-01" nType="0">
          <Node pos="l" depth="2" NCoef="0" IVar="-1" Cut="0.0000000000000000e+00" cType="1" res="1.4098430983722210e-02" rms="3.0648127198219299e-01" purity="3.9927181601524353e-01" nType="-99"/>
          <Node pos="r" depth="2" NCoef="0" IVar="-1" Cut="0.0000000000000000e+00" cType="1" res="-1.2216101167723536e-03" rms="2.4329438805580139e-01" purity="5.4629492759704590e-01" nType="-99"/>
        </Node>
      </Node>
    </BinaryTree>
    <BinaryTree type="DecisionTree" boostWeight="1.0000000000000000e+00" itree="401">
      <Node pos="s" depth="0" NCoef="0" IVar="37" Cut="1.3990780115127563e+00" cType="1" res="2.7003944851458073e-03" rms="2.5095573067665100e-01" purity="5.0229084491729736e-01" nType="0">
        <Node pos="l" depth="1" NCoef="0" IVar="27" Cut="2.0413067340850830e+00" cType="1" res="5.2004070021212101e-03" rms="2.5272497534751892e-01" purity="5.0985819101333618e-01" nType="0">
          <Node pos="l" depth="2" NCoef="0" IVar="-1" Cut="0.0000000000000000e+00" cType="1" res="6.2911850400269032e-03" rms="2.6731470227241516e-01" purity="4.1455805301666260e-01" nType="-99"/>
          <Node pos="r" depth="2" NCoef="0" IVar="-1" Cut="0.0000000000000000e+00" cType="1" res="-3.9769932627677917e-03" rms="2.3271194100379944e-01" purity="6.2452203035354614e-01" nType="-99"/>
        </Node>
        <Node pos="r" depth="1" NCoef="0" IVar="-1" Cut="0.0000000000000000e+00" cType="1" res="-4.1261654347181320e-02" rms="1.1772777140140533e-01" purity="1.8232035636901855e-01" nType="-99"/>
      </Node>
    </BinaryTree>
    <BinaryTree type="DecisionTree" boostWeight="1.0000000000000000e+00" itree="402">
      <Node pos="s" depth="0" NCoef="0" IVar="88" Cut="7.9501318931579590e-01" cType="1" res="3.5231811925768852e-03" rms="2.4727305769920349e-01" purity="5.0646245479583740e-01" nType="0">
        <Node pos="l" depth="1" NCoef="0" IVar="-1" Cut="0.0000000000000000e+00" cType="1" res="-3.1728763133287430e-02" rms="1.1993898451328278e-01" purity="4.3306055665016174e-01" nType="-99"/>
        <Node pos="r" depth="1" NCoef="0" IVar="1" Cut="2.1137464046478271e+00" cType="1" res="6.0132890939712524e-03" rms="2.4884903430938721e-01" purity="5.0812846422195435e-01" nType="0">
          <Node pos="l" depth="2" NCoef="0" IVar="-1" Cut="0.0000000000000000e+00" cType="1" res="1.7451053485274315e-02" rms="2.9509600996971130e-01" purity="2.7162191271781921e-01" nType="-99"/>
          <Node pos="r" depth="2" NCoef="0" IVar="-1" Cut="0.0000000000000000e+00" cType="1" res="1.5557078586425632e-04" rms="2.4179197847843170e-01" purity="5.3814029693603516e-01" nType="-99"/>
        </Node>
      </Node>
    </BinaryTree>
    <BinaryTree type="DecisionTree" boostWeight="1.0000000000000000e+00" itree="403">
      <Node pos="s" depth="0" NCoef="0" IVar="72" Cut="-6.2962961196899414e-01" cType="1" res="-2.0146463066339493e-03" rms="2.4777914583683014e-01" purity="4.9998581409454346e-01" nType="0">
        <Node pos="l" depth="1" NCoef="0" IVar="44" Cut="1.2345679104328156e-02" cType="1" res="4.3236497789621353e-02" rms="3.1409609317779541e-01" purity="4.5637893676757812e-01" nType="0">
          <Node pos="l" depth="2" NCoef="0" IVar="-1" Cut="0.0000000000000000e+00" cType="1" res="3.2338310033082962e-02" rms="3.7580284476280212e-01" purity="4.3038624525070190e-01" nType="-99"/>
          <Node pos="r" depth="2" NCoef="0" IVar="-1" Cut="0.0000000000000000e+00" cType="1" res="-3.5962339024990797e-03" rms="2.2983913123607635e-01" purity="4.8056140542030334e-01" nType="-99"/>
        </Node>
        <Node pos="r" depth="1" NCoef="0" IVar="55" Cut="3.5738116502761841e-01" cType="1" res="-1.1712758801877499e-02" rms="2.2994725406169891e-01" purity="5.0933152437210083e-01" nType="0">
          <Node pos="l" depth="2" NCoef="0" IVar="-1" Cut="0.0000000000000000e+00" cType="1" res="-2.1405203267931938e-02" rms="8.9325822889804840e-02" purity="2.1149067580699921e-01" nType="-99"/>
          <Node pos="r" depth="2" NCoef="0" IVar="-1" Cut="0.0000000000000000e+00" cType="1" res="1.2853833322878927e-04" rms="2.5545978546142578e-01" purity="5.9582704305648804e-01" nType="-99"/>
        </Node>
      </Node>
    </BinaryTree>
    <BinaryTree type="DecisionTree" boostWeight="1.0000000000000000e+00" itree="404">
      <Node pos="s" depth="0" NCoef="0" IVar="77" Cut="-2.1717797219753265e-01" cType="1" res="-3.8729212246835232e-03" rms="2.4738895893096924e-01" purity="4.9465960264205933e-01" nType="0">
        <Node pos="l" depth="1" NCoef="0" IVar="3" Cut="5.3039855957031250e+00" cType="1" res="-1.0953587479889393e-02" rms="2.4077282845973969e-01" purity="5.3019452095031738e-01" nType="0">
          <Node pos="l" depth="2" NCoef="0" IVar="-1" Cut="0.0000000000000000e+00" cType="1" res="-1.6520860372111201e-03" rms="2.5242754817008972e-01" purity="5.4575419425964355e-01" nType="-99"/>
          <Node pos="r" depth="2" NCoef="0" IVar="-1" Cut="0.0000000000000000e+00" cType="1" res="-4.1392367333173752e-02" rms="-nan" purity="1.8075358867645264e-01" nType="-99"/>
        </Node>
        <Node pos="r" depth="1" NCoef="0" IVar="36" Cut="-6.4251196384429932e-01" cType="1" res="3.6201685667037964e-02" rms="2.7855160832405090e-01" purity="2.9354208707809448e-01" nType="0">
          <Node pos="l" depth="2" NCoef="0" IVar="-1" Cut="0.0000000000000000e+00" cType="1" res="8.5411094129085541e-02" rms="3.4060421586036682e-01" purity="1.8147456645965576e-01" nType="-99"/>
          <Node pos="r" depth="2" NCoef="0" IVar="-1" Cut="0.0000000000000000e+00" cType="1" res="-6.1010266654193401e-04" rms="2.3595073819160461e-01" purity="3.4391650557518005e-01" nType="-99"/>
        </Node>
      </Node>
    </BinaryTree>
    <BinaryTree type="DecisionTree" boostWeight="1.0000000000000000e+00" itree="405">
      <Node pos="s" depth="0" NCoef="0" IVar="29" Cut="-1.9391313195228577e-02" cType="1" res="-5.1723900251090527e-03" rms="2.4570402503013611e-01" purity="4.9191328883171082e-01" nType="0">
        <Node pos="l" depth="1" NCoef="0" IVar="16" Cut="3.9621931314468384e-01" cType="1" res="-2.4763995315879583e-03" rms="2.4971455335617065e-01" purity="4.9739637970924377e-01" nType="0">
          <Node pos="l" depth="2" NCoef="0" IVar="-1" Cut="0.0000000000000000e+00" cType="1" res="-3.4951365087181330e-03" rms="2.3788388073444366e-01" purity="4.9815884232521057e-01" nType="-99"/>
          <Node pos="r" depth="2" NCoef="0" IVar="-1" Cut="0.0000000000000000e+00" cType="1" res="8.7093710899353027e-03" rms="2.8796902298927307e-01" purity="4.9450689554214478e-01" nType="-99"/>
        </Node>
        <Node pos="r" depth="1" NCoef="0" IVar="-1" Cut="0.0000000000000000e+00" cType="1" res="-3.4340437501668930e-02" rms="-nan" purity="2.8447109460830688e-01" nType="-99"/>
      </Node>
    </BinaryTree>
    <BinaryTree type="DecisionTree" boostWeight="1.0000000000000000e+00" itree="406">
      <Node pos="s" depth="0" NCoef="0" IVar="77" Cut="-2.5582420825958252e-01" cType="1" res="2.5324113667011261e-03" rms="2.5730401277542114e-01" purity="4.9151647090911865e-01" nType="0">
        <Node pos="l" depth="1" NCoef="0" IVar="6" Cut="2.6527123451232910e+00" cType="1" res="-5.3750639781355858e-03" rms="2.4955849349498749e-01" purity="5.2634060382843018e-01" nType="0">
          <Node pos="l" depth="2" NCoef="0" IVar="-1" Cut="0.0000000000000000e+00" cType="1" res="-5.8903638273477554e-03" rms="2.2912080585956573e-01" purity="4.5707321166992188e-01" nType="-99"/>
          <Node pos="r" depth="2" NCoef="0" IVar="-1" Cut="0.0000000000000000e+00" cType="1" res="9.1137951239943504e-03" rms="2.9250088334083557e-01" purity="7.0307475328445435e-01" nType="-99"/>
        </Node>
        <Node pos="r" depth="1" NCoef="0" IVar="19" Cut="5.3512144088745117e-01" cType="1" res="4.7599144279956818e-02" rms="2.9358604550361633e-01" purity="2.9304444789886475e-01" nType="0">
          <Node pos="l" depth="2" NCoef="0" IVar="-1" Cut="0.0000000000000000e+00" cType="1" res="-2.5354700163006783e-02" rms="-nan" purity="2.2575424611568451e-01" nType="-99"/>
          <Node pos="r" depth="2" NCoef="0" IVar="-1" Cut="0.0000000000000000e+00" cType="1" res="3.5291176289319992e-02" rms="3.3217057585716248e-01" purity="3.1407749652862549e-01" nType="-99"/>
        </Node>
      </Node>
    </BinaryTree>
    <BinaryTree type="DecisionTree" boostWeight="1.0000000000000000e+00" itree="407">
      <Node pos="s" depth="0" NCoef="0" IVar="39" Cut="-9.5000374317169189e-01" cType="1" res="-4.4128857553005219e-03" rms="2.4799068272113800e-01" purity="4.8905551433563232e-01" nType="0">
        <Node pos="l" depth="1" NCoef="0" IVar="1" Cut="2.4740078449249268e+00" cType="1" res="-1.3132255524396896e-02" rms="2.3271305859088898e-01" purity="5.2518606185913086e-01" nType="0">
          <Node pos="l" depth="2" NCoef="0" IVar="-1" Cut="0.0000000000000000e+00" cType="1" res="8.3736227825284004e-03" rms="2.7804750204086304e-01" purity="3.8254645466804504e-01" nType="-99"/>
          <Node pos="r" depth="2" NCoef="0" IVar="-1" Cut="0.0000000000000000e+00" cType="1" res="-9.3038920313119888e-03" rms="2.1192425489425659e-01" purity="5.7675927877426147e-01" nType="-99"/>
        </Node>
        <Node pos="r" depth="1" NCoef="0" IVar="17" Cut="-1.0148291289806366e-01" cType="1" res="4.8391863703727722e-02" rms="3.2050925493240356e-01" purity="2.7024775743484497e-01" nType="0">
          <Node pos="l" depth="2" NCoef="0" IVar="-1" Cut="0.0000000000000000e+00" cType="1" res="2.7343830466270447e-01" rms="3.6258566379547119e-01" purity="1.6380001604557037e-01" nType="-99"/>
          <Node pos="r" depth="2" NCoef="0" IVar="-1" Cut="0.0000000000000000e+00" cType="1" res="3.2337923767045140e-04" rms="2.8669106960296631e-01" purity="3.2054761052131653e-01" nType="-99"/>
        </Node>
      </Node>
    </BinaryTree>
    <BinaryTree type="DecisionTree" boostWeight="1.0000000000000000e+00" itree="408">
      <Node pos="s" depth="0" NCoef="0" IVar="5" Cut="-2.0155557990074158e-01" cType="1" res="-1.0981728555634618e-03" rms="2.4437484145164490e-01" purity="4.9468961358070374e-01" nType="0">
        <Node pos="l" depth="1" NCoef="0" IVar="-1" Cut="0.0000000000000000e+00" cType="1" res="-1.2471212446689606e-01" rms="-nan" purity="-5.9299770742654800e-02" nType="-99"/>
        <Node pos="r" depth="1" NCoef="0" IVar="60" Cut="-1.5961093902587891e+00" cType="1" res="2.5129083078354597e-03" rms="2.5227797031402588e-01" purity="5.0620079040527344e-01" nType="0">
          <Node pos="l" depth="2" NCoef="0" IVar="-1" Cut="0.0000000000000000e+00" cType="1" res="-3.2114651985466480e-03" rms="2.3101091384887695e-01" purity="5.8003580570220947e-01" nType="-99"/>
          <Node pos="r" depth="2" NCoef="0" IVar="-1" Cut="0.0000000000000000e+00" cType="1" res="8.8922763243317604e-03" rms="2.8729578852653503e-01" purity="3.6350187659263611e-01" nType="-99"/>
        </Node>
      </Node>
    </BinaryTree>
    <BinaryTree type="DecisionTree" boostWeight="1.0000000000000000e+00" itree="409">
      <Node pos="s" depth="0" NCoef="0" IVar="27" Cut="1.1708856821060181e+00" cType="1" res="3.3234022557735443e-03" rms="2.5974491238594055e-01" purity="4.9265837669372559e-01" nType="0">
        <Node pos="l" depth="1" NCoef="0" IVar="59" Cut="-7.2145754098892212e-01" cType="1" res="-5.5022500455379486e-02" rms="1.2175527215003967e-01" purity="1.9425097107887268e-01" nType="0">
          <Node pos="l" depth="2" NCoef="0" IVar="-1" Cut="0.0000000000000000e+00" cType="1" res="-9.3988910317420959e-02" rms="-nan" purity="-1.3913938775658607e-02" nType="-99"/>
          <Node pos="r" depth="2" NCoef="0" IVar="-1" Cut="0.0000000000000000e+00" cType="1" res="-8.2836924120783806e-03" rms="2.3192299902439117e-01" purity="2.6490634679794312e-01" nType="-99"/>
        </Node>
        <Node pos="r" depth="1" NCoef="0" IVar="5" Cut="-1.7952294647693634e-01" cType="1" res="1.3637148775160313e-02" rms="2.7579876780509949e-01" purity="5.4540759325027466e-01" nType="0">
          <Node pos="l" depth="2" NCoef="0" IVar="-1" Cut="0.0000000000000000e+00" cType="1" res="6.0380972921848297e-02" rms="3.6018624901771545e-01" purity="3.2395619153976440e-01" nType="-99"/>
          <Node pos="r" depth="2" NCoef="0" IVar="-1" Cut="0.0000000000000000e+00" cType="1" res="2.9543084092438221e-03" rms="2.7191489934921265e-01" purity="5.5194276571273804e-01" nType="-99"/>
        </Node>
      </Node>
    </BinaryTree>
    <BinaryTree type="DecisionTree" boostWeight="1.0000000000000000e+00" itree="410">
      <Node pos="s" depth="0" NCoef="0" IVar="17" Cut="-1.3378660678863525e+00" cType="1" res="-3.7301794509403408e-04" rms="2.3656541109085083e-01" purity="5.0337290763854980e-01" nType="0">
        <Node pos="l" depth="1" NCoef="0" IVar="38" Cut="1.6263015568256378e-01" cType="1" res="-1.1022720485925674e-01" rms="-nan" purity="-5.2853833884000778e-02" nType="-99"/>
        <Node pos="r" depth="1" NCoef="0" IVar="31" Cut="2.5286827087402344e+00" cType="1" res="7.8119039535522461e-03" rms="2.6231849193572998e-01" purity="5.6632065773010254e-01" nType="0">
          <Node pos="l" depth="2" NCoef="0" IVar="-1" Cut="0.0000000000000000e+00" cType="1" res="-1.5298309735953808e-02" rms="2.1000683307647705e-01" purity="1.6607174277305603e-01" nType="-99"/>
          <Node pos="r" depth="2" NCoef="0" IVar="-1" Cut="0.0000000000000000e+00" cType="1" res="3.7852036766707897e-03" rms="2.6590290665626526e-01" purity="6.0218542814254761e-01" nType="-99"/>
        </Node>
      </Node>
    </BinaryTree>
    <BinaryTree type="DecisionTree" boostWeight="1.0000000000000000e+00" itree="411">
      <Node pos="s" depth="0" NCoef="0" IVar="52" Cut="2.7339379787445068e+00" cType="1" res="-2.7500982396304607e-03" rms="2.4441616237163544e-01" purity="4.9337470531463623e-01" nType="0">
        <Node pos="l" depth="1" NCoef="0" IVar="16" Cut="-1.1843496561050415e+00" cType="1" res="-3.7734538316726685e-02" rms="1.7337638139724731e-01" purity="2.2650478780269623e-01" nType="0">
          <Node pos="l" depth="2" NCoef="0" IVar="-1" Cut="0.0000000000000000e+00" cType="1" res="-5.0351791083812714e-02" rms="-nan" purity="9.0209722518920898e-02" nType="-99"/>
          <Node pos="r" depth="2" NCoef="0" IVar="-1" Cut="0.0000000000000000e+00" cType="1" res="-2.8714134823530912e-03" rms="2.4254427850246429e-01" purity="2.6546666026115417e-01" nType="-99"/>
        </Node>
        <Node pos="r" depth="1" NCoef="0" IVar="84" Cut="5.4243125021457672e-02" cType="1" res="5.6551834568381310e-03" rms="2.5788637995719910e-01" purity="5.5749219655990601e-01" nType="0">
          <Node pos="l" depth="2" NCoef="0" IVar="-1" Cut="0.0000000000000000e+00" cType="1" res="5.3916880860924721e-03" rms="2.7964967489242554e-01" purity="5.8405721187591553e-01" nType="-99"/>
          <Node pos="r" depth="2" NCoef="0" IVar="-1" Cut="0.0000000000000000e+00" cType="1" res="-4.9105649814009666e-03" rms="2.1039922535419464e-01" purity="5.0849241018295288e-01" nType="-99"/>
        </Node>
      </Node>
    </BinaryTree>
    <BinaryTree type="DecisionTree" boostWeight="1.0000000000000000e+00" itree="412">
      <Node pos="s" depth="0" NCoef="0" IVar="2" Cut="1.5021748542785645e+00" cType="1" res="2.6888870634138584e-03" rms="2.5193274021148682e-01" purity="5.0419378280639648e-01" nType="0">
        <Node pos="l" depth="1" NCoef="0" IVar="2" Cut="1.2234297990798950e+00" cType="1" res="-3.6981713026762009e-02" rms="-nan" purity="4.2321465909481049e-02" nType="-99"/>
        <Node pos="r" depth="1" NCoef="0" IVar="62" Cut="2.7002879977226257e-01" cType="1" res="9.6609331667423248e-03" rms="2.6373350620269775e-01" purity="5.4744106531143188e-01" nType="0">
          <Node pos="l" depth="2" NCoef="0" IVar="-1" Cut="0.0000000000000000e+00" cType="1" res="1.2140783946961164e-03" rms="2.5430166721343994e-01" purity="5.5326795578002930e-01" nType="-99"/>
          <Node pos="r" depth="2" NCoef="0" IVar="-1" Cut="0.0000000000000000e+00" cType="1" res="2.0835449919104576e-02" rms="3.4216833114624023e-01" purity="4.8608207702636719e-01" nType="-99"/>
        </Node>
      </Node>
    </BinaryTree>
    <BinaryTree type="DecisionTree" boostWeight="1.0000000000000000e+00" itree="413">
      <Node pos="s" depth="0" NCoef="0" IVar="76" Cut="-1.3773620128631592e+00" cType="1" res="4.1121393442153931e-03" rms="2.5646671652793884e-01" purity="5.0197726488113403e-01" nType="0">
        <Node pos="l" depth="1" NCoef="0" IVar="13" Cut="-1.2225720882415771e+00" cType="1" res="-1.1462031863629818e-02" rms="2.4698528647422791e-01" purity="6.2852191925048828e-01" nType="0">
          <Node pos="l" depth="2" NCoef="0" IVar="-1" Cut="0.0000000000000000e+00" cType="1" res="-3.3389750868082047e-02" rms="-nan" purity="1.7646822333335876e-01" nType="-99"/>
          <Node pos="r" depth="2" NCoef="0" IVar="-1" Cut="0.0000000000000000e+00" cType="1" res="-1.1215630220249295e-03" rms="2.6723259687423706e-01" purity="6.8827855587005615e-01" nType="-99"/>
        </Node>
        <Node pos="r" depth="1" NCoef="0" IVar="27" Cut="9.0113097429275513e-01" cType="1" res="2.3237489163875580e-02" rms="2.6640838384628296e-01" purity="3.4657827019691467e-01" nType="0">
          <Node pos="l" depth="2" NCoef="0" IVar="-1" Cut="0.0000000000000000e+00" cType="1" res="4.9723375588655472e-02" rms="3.7371060252189636e-01" purity="2.1913991868495941e-01" nType="-99"/>
          <Node pos="r" depth="2" NCoef="0" IVar="-1" Cut="0.0000000000000000e+00" cType="1" res="4.0659978985786438e-03" rms="2.4717240035533905e-01" purity="3.6307880282402039e-01" nType="-99"/>
        </Node>
      </Node>
    </BinaryTree>
    <BinaryTree type="DecisionTree" boostWeight="1.0000000000000000e+00" itree="414">
      <Node pos="s" depth="0" NCoef="0" IVar="29" Cut="-7.7565252780914307e-02" cType="1" res="2.9075881466269493e-03" rms="2.4998697638511658e-01" purity="4.9990725517272949e-01" nType="0">
        <Node pos="l" depth="1" NCoef="0" IVar="35" Cut="8.2692772150039673e-01" cType="1" res="6.4901979640126228e-03" rms="2.5523102283477783e-01" purity="5.0646036863327026e-01" nType="0">
          <Node pos="l" depth="2" NCoef="0" IVar="-1" Cut="0.0000000000000000e+00" cType="1" res="-4.7018009354360402e-04" rms="2.4274797737598419e-01" purity="4.9980285763740540e-01" nType="-99"/>
          <Node pos="r" depth="2" NCoef="0" IVar="-1" Cut="0.0000000000000000e+00" cType="1" res="1.3109831139445305e-02" rms="2.9922515153884888e-01" purity="5.3403127193450928e-01" nType="-99"/>
        </Node>
        <Node pos="r" depth="1" NCoef="0" IVar="40" Cut="7.9125374555587769e-01" cType="1" res="-2.3287223652005196e-02" rms="-nan" purity="3.5122942924499512e-01" nType="-99"/>
      </Node>
    </BinaryTree>
    <BinaryTree type="DecisionTree" boostWeight="1.0000000000000000e+00" itree="415">
      <Node pos="s" depth="0" NCoef="0" IVar="1" Cut="2.7431504726409912e+00" cType="1" res="4.0501654148101807e-03" rms="2.5090196728706360e-01" purity="4.9791792035102844e-01" nType="0">
        <Node pos="l" depth="1" NCoef="0" IVar="88" Cut="1.0258010625839233e+00" cType="1" res="2.6088794693350792e-02" rms="2.8411126136779785e-01" purity="3.9503982663154602e-01" nType="0">
          <Node pos="l" depth="2" NCoef="0" IVar="-1" Cut="0.0000000000000000e+00" cType="1" res="6.9558905670419335e-04" rms="2.5768086314201355e-01" purity="4.1041055321693420e-01" nType="-99"/>
          <Node pos="r" depth="2" NCoef="0" IVar="-1" Cut="0.0000000000000000e+00" cType="1" res="2.9691837728023529e-02" rms="3.3392328023910522e-01" purity="3.5670334100723267e-01" nType="-99"/>
        </Node>
        <Node pos="r" depth="1" NCoef="0" IVar="57" Cut="-6.8067145347595215e-01" cType="1" res="-1.3450741767883301e-02" rms="2.1943265199661255e-01" purity="5.7961362600326538e-01" nType="0">
          <Node pos="l" depth="2" NCoef="0" IVar="-1" Cut="0.0000000000000000e+00" cType="1" res="-5.3681641817092896e-02" rms="-nan" purity="-2.3234983906149864e-02" nType="-99"/>
          <Node pos="r" depth="2" NCoef="0" IVar="-1" Cut="0.0000000000000000e+00" cType="1" res="5.1725819503189996e-05" rms="2.5206479430198669e-01" purity="6.7524993419647217e-01" nType="-99"/>
        </Node>
      </Node>
    </BinaryTree>
    <BinaryTree type="DecisionTree" boostWeight="1.0000000000000000e+00" itree="416">
      <Node pos="s" depth="0" NCoef="0" IVar="9" Cut="-7.6543211936950684e-01" cType="1" res="7.4593857862055302e-03" rms="2.5511968135833740e-01" purity="5.0660526752471924e-01" nType="0">
        <Node pos="l" depth="1" NCoef="0" IVar="16" Cut="-5.6751382350921631e-01" cType="1" res="9.1705970466136932e-02" rms="3.3397766947746277e-01" purity="4.8869326710700989e-01" nType="0">
          <Node pos="l" depth="2" NCoef="0" IVar="-1" Cut="0.0000000000000000e+00" cType="1" res="5.9413414448499680e-02" rms="4.0244871377944946e-01" purity="4.9309393763542175e-01" nType="-99"/>
          <Node pos="r" depth="2" NCoef="0" IVar="-1" Cut="0.0000000000000000e+00" cType="1" res="3.1073926948010921e-03" rms="2.4371688067913055e-01" purity="4.8553335666656494e-01" nType="-99"/>
        </Node>
        <Node pos="r" depth="1" NCoef="0" IVar="14" Cut="-1.2606592178344727e+00" cType="1" res="3.2156854867935181e-03" rms="2.4974080920219421e-01" purity="5.0750756263732910e-01" nType="0">
          <Node pos="l" depth="2" NCoef="0" IVar="-1" Cut="0.0000000000000000e+00" cType="1" res="-1.0167074389755726e-02" rms="1.8951232731342316e-01" purity="3.4374368190765381e-01" nType="-99"/>
          <Node pos="r" depth="2" NCoef="0" IVar="-1" Cut="0.0000000000000000e+00" cType="1" res="4.6755392104387283e-03" rms="2.6620694994926453e-01" purity="5.6335270404815674e-01" nType="-99"/>
        </Node>
      </Node>
    </BinaryTree>
    <BinaryTree type="DecisionTree" boostWeight="1.0000000000000000e+00" itree="417">
      <Node pos="s" depth="0" NCoef="0" IVar="1" Cut="2.8562698364257812e+00" cType="1" res="5.2564330399036407e-03" rms="2.4883355200290680e-01" purity="5.0657856464385986e-01" nType="0">
        <Node pos="l" depth="1" NCoef="0" IVar="13" Cut="-1.4541236162185669e+00" cType="1" res="2.2815940901637077e-02" rms="2.6974520087242126e-01" purity="4.2193171381950378e-01" nType="0">
          <Node pos="l" depth="2" NCoef="0" IVar="-1" Cut="0.0000000000000000e+00" cType="1" res="5.9975907206535339e-02" rms="3.5382705926895142e-01" purity="2.8532856702804565e-01" nType="-99"/>
          <Node pos="r" depth="2" NCoef="0" IVar="-1" Cut="0.0000000000000000e+00" cType="1" res="4.3944059871137142e-03" rms="2.5997135043144226e-01" purity="4.3285596370697021e-01" nType="-99"/>
        </Node>
        <Node pos="r" depth="1" NCoef="0" IVar="2" Cut="2.4849023818969727e+00" cType="1" res="-1.3177400454878807e-02" rms="2.2331669926643372e-01" purity="5.9544008970260620e-01" nType="0">
          <Node pos="l" depth="2" NCoef="0" IVar="-1" Cut="0.0000000000000000e+00" cType="1" res="-3.3416230231523514e-02" rms="-nan" purity="1.9440999627113342e-01" nType="-99"/>
          <Node pos="r" depth="2" NCoef="0" IVar="-1" Cut="0.0000000000000000e+00" cType="1" res="-2.3466469428967685e-04" rms="2.4418286979198456e-01" purity="6.7328363656997681e-01" nType="-99"/>
        </Node>
      </Node>
    </BinaryTree>
    <BinaryTree type="DecisionTree" boostWeight="1.0000000000000000e+00" itree="418">
      <Node pos="s" depth="0" NCoef="0" IVar="46" Cut="1.3067229986190796e+00" cType="1" res="4.6975594013929367e-03" rms="2.5347635149955750e-01" purity="5.0991719961166382e-01" nType="0">
        <Node pos="l" depth="1" NCoef="0" IVar="37" Cut="-1.2614595890045166e+00" cType="1" res="8.3646029233932495e-03" rms="2.6181009411811829e-01" purity="5.2527183294296265e-01" nType="0">
          <Node pos="l" depth="2" NCoef="0" IVar="-1" Cut="0.0000000000000000e+00" cType="1" res="1.2716636061668396e-02" rms="3.0012789368629456e-01" purity="4.5257353782653809e-01" nType="-99"/>
          <Node pos="r" depth="2" NCoef="0" IVar="-1" Cut="0.0000000000000000e+00" cType="1" res="-6.0561101417988539e-04" rms="2.4756680428981781e-01" purity="5.4828929901123047e-01" nType="-99"/>
        </Node>
        <Node pos="r" depth="1" NCoef="0" IVar="14" Cut="-7.2084105014801025e-01" cType="1" res="-2.9162941500544548e-02" rms="-nan" purity="1.8708950281143188e-01" nType="-99"/>
      </Node>
    </BinaryTree>
    <BinaryTree type="DecisionTree" boostWeight="1.0000000000000000e+00" itree="419">
      <Node pos="s" depth="0" NCoef="0" IVar="77" Cut="1.4049129486083984e+00" cType="1" res="-7.3348293080925941e-03" rms="2.3347088694572449e-01" purity="4.9948155879974365e-01" nType="0">
        <Node pos="l" depth="1" NCoef="0" IVar="10" Cut="2.9334044456481934e+00" cType="1" res="-2.7687323745340109e-03" rms="2.4630217254161835e-01" purity="5.2126973867416382e-01" nType="0">
          <Node pos="l" depth="2" NCoef="0" IVar="-1" Cut="0.0000000000000000e+00" cType="1" res="1.1717467568814754e-02" rms="2.9434788227081299e-01" purity="3.1073239445686340e-01" nType="-99"/>
          <Node pos="r" depth="2" NCoef="0" IVar="-1" Cut="0.0000000000000000e+00" cType="1" res="-3.1008508522063494e-03" rms="2.3688498139381409e-01" purity="5.5519872903823853e-01" nType="-99"/>
        </Node>
        <Node pos="r" depth="1" NCoef="0" IVar="-1" Cut="0.0000000000000000e+00" cType="1" res="-8.2703232765197754e-02" rms="-nan" purity="-2.2931566461920738e-02" nType="-99"/>
      </Node>
    </BinaryTree>
    <BinaryTree type="DecisionTree" boostWeight="1.0000000000000000e+00" itree="420">
      <Node pos="s" depth="0" NCoef="0" IVar="31" Cut="2.6174540519714355e+00" cType="1" res="9.4989994540810585e-03" rms="2.5714039802551270e-01" purity="5.1063764095306396e-01" nType="0">
        <Node pos="l" depth="1" NCoef="0" IVar="39" Cut="-2.4108967781066895e+00" cType="1" res="-3.3901758491992950e-02" rms="2.0297525823116302e-01" purity="1.8407693505287170e-01" nType="0">
          <Node pos="l" depth="2" NCoef="0" IVar="-1" Cut="0.0000000000000000e+00" cType="1" res="2.6879381388425827e-02" rms="3.8345649838447571e-01" purity="4.3543747067451477e-01" nType="-99"/>
          <Node pos="r" depth="2" NCoef="0" IVar="-1" Cut="0.0000000000000000e+00" cType="1" res="-2.1259659901261330e-02" rms="1.3073922693729401e-01" purity="1.3502156734466553e-01" nType="-99"/>
        </Node>
        <Node pos="r" depth="1" NCoef="0" IVar="1" Cut="3.1950900554656982e+00" cType="1" res="1.6020650044083595e-02" rms="2.6370546221733093e-01" purity="5.5970853567123413e-01" nType="0">
          <Node pos="l" depth="2" NCoef="0" IVar="-1" Cut="0.0000000000000000e+00" cType="1" res="8.6537869647145271e-03" rms="2.7823287248611450e-01" purity="5.1847696304321289e-01" nType="-99"/>
          <Node pos="r" depth="2" NCoef="0" IVar="-1" Cut="0.0000000000000000e+00" cType="1" res="-4.7701969742774963e-03" rms="2.2099299728870392e-01" purity="6.6141545772552490e-01" nType="-99"/>
        </Node>
      </Node>
    </BinaryTree>
    <BinaryTree type="DecisionTree" boostWeight="1.0000000000000000e+00" itree="421">
      <Node pos="s" depth="0" NCoef="0" IVar="50" Cut="-9.6956565976142883e-02" cType="1" res="-5.0264373421669006e-03" rms="2.3097045719623566e-01" purity="4.9502888321876526e-01" nType="0">
        <Node pos="l" depth="1" NCoef="0" IVar="14" Cut="-1.4537736177444458e+00" cType="1" res="-1.2910763034597039e-03" rms="2.3741798102855682e-01" purity="5.0050884485244751e-01" nType="0">
          <Node pos="l" depth="2" NCoef="0" IVar="-1" Cut="0.0000000000000000e+00" cType="1" res="-2.0354114472866058e-02" rms="-nan" purity="1.7918793857097626e-01" nType="-99"/>
          <Node pos="r" depth="2" NCoef="0" IVar="-1" Cut="0.0000000000000000e+00" cType="1" res="1.1459849774837494e-03" rms="2.4821414053440094e-01" purity="5.3177684545516968e-01" nType="-99"/>
        </Node>
        <Node pos="r" depth="1" NCoef="0" IVar="58" Cut="-5.6904464960098267e-01" cType="1" res="-2.4679547175765038e-02" rms="-nan" purity="3.7552541494369507e-01" nType="-99"/>
      </Node>
    </BinaryTree>
    <BinaryTree type="DecisionTree" boostWeight="1.0000000000000000e+00" itree="422">
      <Node pos="s" depth="0" NCoef="0" IVar="82" Cut="1.4002985954284668e+00" cType="1" res="2.6661676820367575e-03" rms="2.5149431824684143e-01" purity="5.0422453880310059e-01" nType="0">
        <Node pos="l" depth="1" NCoef="0" IVar="52" Cut="2.4027400016784668e+00" cType="1" res="7.9025719314813614e-03" rms="2.6250967383384705e-01" purity="5.2899259328842163e-01" nType="0">
          <Node pos="l" depth="2" NCoef="0" IVar="-1" Cut="0.0000000000000000e+00" cType="1" res="3.0569083988666534e-02" rms="3.5109922289848328e-01" purity="2.5899055600166321e-01" nType="-99"/>
          <Node pos="r" depth="2" NCoef="0" IVar="-1" Cut="0.0000000000000000e+00" cType="1" res="1.1496242368593812e-03" rms="2.5672951340675354e-01" purity="5.4204541444778442e-01" nType="-99"/>
        </Node>
        <Node pos="r" depth="1" NCoef="0" IVar="36" Cut="-7.9718780517578125e-01" cType="1" res="-2.4991566315293312e-02" rms="-nan" purity="1.9157172739505768e-01" nType="-99"/>
      </Node>
    </BinaryTree>
    <BinaryTree type="DecisionTree" boostWeight="1.0000000000000000e+00" itree="423">
      <Node pos="s" depth="0" NCoef="0" IVar="34" Cut="-1.1842217445373535e+00" cType="1" res="1.0878293775022030e-02" rms="2.6206731796264648e-01" purity="5.0606602430343628e-01" nType="0">
        <Node pos="l" depth="1" NCoef="0" IVar="37" Cut="-2.2305336594581604e-01" cType="1" res="5.0389174371957779e-02" rms="2.8428587317466736e-01" purity="3.0670127272605896e-01" nType="0">
          <Node pos="l" depth="2" NCoef="0" IVar="-1" Cut="0.0000000000000000e+00" cType="1" res="1.2449927453417331e-04" rms="2.0217867195606232e-01" purity="2.9289439320564270e-01" nType="-99"/>
          <Node pos="r" depth="2" NCoef="0" IVar="-1" Cut="0.0000000000000000e+00" cType="1" res="4.5329857617616653e-02" rms="3.6710995435714722e-01" purity="3.2900989055633545e-01" nType="-99"/>
        </Node>
        <Node pos="r" depth="1" NCoef="0" IVar="40" Cut="1.2151658535003662e+00" cType="1" res="2.2062321659177542e-03" rms="2.5611922144889832e-01" purity="5.4982358217239380e-01" nType="0">
          <Node pos="l" depth="2" NCoef="0" IVar="-1" Cut="0.0000000000000000e+00" cType="1" res="3.0727242119610310e-03" rms="2.6767197251319885e-01" purity="5.8789414167404175e-01" nType="-99"/>
          <Node pos="r" depth="2" NCoef="0" IVar="-1" Cut="0.0000000000000000e+00" cType="1" res="-2.0427243784070015e-02" rms="1.1649331450462341e-01" purity="2.4921990931034088e-01" nType="-99"/>
        </Node>
      </Node>
    </BinaryTree>
    <BinaryTree type="DecisionTree" boostWeight="1.0000000000000000e+00" itree="424">
      <Node pos="s" depth="0" NCoef="0" IVar="5" Cut="3.0883727595210075e-02" cType="1" res="6.1344732530415058e-03" rms="2.5317448377609253e-01" purity="5.0496459007263184e-01" nType="0">
        <Node pos="l" depth="1" NCoef="0" IVar="60" Cut="-1.1020998954772949e+00" cType="1" res="-3.5646744072437286e-02" rms="1.3427482545375824e-01" purity="3.4042981266975403e-01" nType="0">
          <Node pos="l" depth="2" NCoef="0" IVar="-1" Cut="0.0000000000000000e+00" cType="1" res="-4.2961807921528816e-03" rms="1.9616793096065521e-01" purity="4.1558185219764709e-01" nType="-99"/>
          <Node pos="r" depth="2" NCoef="0" IVar="-1" Cut="0.0000000000000000e+00" cType="1" res="-5.6663040071725845e-02" rms="-nan" purity="7.0129759609699249e-02" nType="-99"/>
        </Node>
        <Node pos="r" depth="1" NCoef="0" IVar="1" Cut="2.4743137359619141e+00" cType="1" res="1.3667201623320580e-02" rms="2.6838660240173340e-01" purity="5.3462845087051392e-01" nType="0">
          <Node pos="l" depth="2" NCoef="0" IVar="-1" Cut="0.0000000000000000e+00" cType="1" res="1.4456845819950104e-02" rms="3.0390676856040955e-01" purity="3.8687279820442200e-01" nType="-99"/>
          <Node pos="r" depth="2" NCoef="0" IVar="-1" Cut="0.0000000000000000e+00" cType="1" res="3.3920066198334098e-04" rms="2.5273147225379944e-01" purity="5.8968943357467651e-01" nType="-99"/>
        </Node>
      </Node>
    </BinaryTree>
    <BinaryTree type="DecisionTree" boostWeight="1.0000000000000000e+00" itree="425">
      <Node pos="s" depth="0" NCoef="0" IVar="82" Cut="1.2138270139694214e+00" cType="1" res="7.8255720436573029e-03" rms="2.5124627351760864e-01" purity="5.0954157114028931e-01" nType="0">
        <Node pos="l" depth="1" NCoef="0" IVar="36" Cut="1.1377322673797607e+00" cType="1" res="6.7309691803529859e-04" rms="2.4302405118942261e-01" purity="5.3712069988250732e-01" nType="0">
          <Node pos="l" depth="2" NCoef="0" IVar="-1" Cut="0.0000000000000000e+00" cType="1" res="-1.0917873121798038e-02" rms="1.5664628148078918e-01" purity="1.0453092306852341e-01" nType="-99"/>
          <Node pos="r" depth="2" NCoef="0" IVar="-1" Cut="0.0000000000000000e+00" cType="1" res="3.0068396590650082e-03" rms="2.6458352804183960e-01" purity="6.7890548706054688e-01" nType="-99"/>
        </Node>
        <Node pos="r" depth="1" NCoef="0" IVar="84" Cut="-1.4671000838279724e-01" cType="1" res="5.0136856734752655e-02" rms="2.9167264699935913e-01" purity="3.4639382362365723e-01" nType="0">
          <Node pos="l" depth="2" NCoef="0" IVar="-1" Cut="0.0000000000000000e+00" cType="1" res="-1.0970690287649632e-02" rms="1.3037985563278198e-01" purity="2.9677310585975647e-01" nType="-99"/>
          <Node pos="r" depth="2" NCoef="0" IVar="-1" Cut="0.0000000000000000e+00" cType="1" res="3.1242089346051216e-02" rms="3.3038347959518433e-01" purity="3.6680144071578979e-01" nType="-99"/>
        </Node>
      </Node>
    </BinaryTree>
    <BinaryTree type="DecisionTree" boostWeight="1.0000000000000000e+00" itree="426">
      <Node pos="s" depth="0" NCoef="0" IVar="60" Cut="-8.9755755662918091e-01" cType="1" res="-2.4253749288618565e-03" rms="2.3794880509376526e-01" purity="5.0422728061676025e-01" nType="0">
        <Node pos="l" depth="1" NCoef="0" IVar="17" Cut="-1.3764022588729858e+00" cType="1" res="5.3460341878235340e-03" rms="2.4864910542964935e-01" purity="5.4613101482391357e-01" nType="0">
          <Node pos="l" depth="2" NCoef="0" IVar="-1" Cut="0.0000000000000000e+00" cType="1" res="-9.8244033753871918e-02" rms="-nan" purity="-4.1246999055147171e-02" nType="-99"/>
          <Node pos="r" depth="2" NCoef="0" IVar="-1" Cut="0.0000000000000000e+00" cType="1" res="3.2119082752615213e-03" rms="2.6643365621566772e-01" purity="5.9513574838638306e-01" nType="-99"/>
        </Node>
        <Node pos="r" depth="1" NCoef="0" IVar="83" Cut="-1.3804484903812408e-01" cType="1" res="-6.4775504171848297e-02" rms="1.0234132409095764e-01" purity="1.6803328692913055e-01" nType="0">
          <Node pos="l" depth="2" NCoef="0" IVar="-1" Cut="0.0000000000000000e+00" cType="1" res="-6.8219818174839020e-02" rms="-nan" purity="9.8467692732810974e-02" nType="-99"/>
          <Node pos="r" depth="2" NCoef="0" IVar="-1" Cut="0.0000000000000000e+00" cType="1" res="-1.3161948882043362e-02" rms="1.7959858477115631e-01" purity="1.8585248291492462e-01" nType="-99"/>
        </Node>
      </Node>
    </BinaryTree>
    <BinaryTree type="DecisionTree" boostWeight="1.0000000000000000e+00" itree="427">
      <Node pos="s" depth="0" NCoef="0" IVar="15" Cut="1.5220727920532227e+00" cType="1" res="-4.1994960047304630e-03" rms="2.4401088058948517e-01" purity="4.9872386455535889e-01" nType="0">
        <Node pos="l" depth="1" NCoef="0" IVar="46" Cut="8.2385438680648804e-01" cType="1" res="3.8724658079445362e-03" rms="2.4024187028408051e-01" purity="4.9500265717506409e-01" nType="0">
          <Node pos="l" depth="2" NCoef="0" IVar="-1" Cut="0.0000000000000000e+00" cType="1" res="2.2764693945646286e-02" rms="3.3718794584274292e-01" purity="6.1037445068359375e-01" nType="-99"/>
          <Node pos="r" depth="2" NCoef="0" IVar="-1" Cut="0.0000000000000000e+00" cType="1" res="-5.5907387286424637e-04" rms="2.3073181509971619e-01" purity="4.8669528961181641e-01" nType="-99"/>
        </Node>
        <Node pos="r" depth="1" NCoef="0" IVar="13" Cut="1.5169943571090698e+00" cType="1" res="-4.6929340809583664e-02" rms="2.5890585780143738e-01" purity="5.1842272281646729e-01" nType="0">
          <Node pos="l" depth="2" NCoef="0" IVar="-1" Cut="0.0000000000000000e+00" cType="1" res="-7.3049686849117279e-02" rms="-nan" purity="-3.0797053128480911e-02" nType="-99"/>
          <Node pos="r" depth="2" NCoef="0" IVar="-1" Cut="0.0000000000000000e+00" cType="1" res="-5.8940458111464977e-03" rms="2.9569593071937561e-01" purity="6.1326438188552856e-01" nType="-99"/>
        </Node>
      </Node>
    </BinaryTree>
    <BinaryTree type="DecisionTree" boostWeight="1.0000000000000000e+00" itree="428">
      <Node pos="s" depth="0" NCoef="0" IVar="4" Cut="3.3824679851531982e+00" cType="1" res="3.2571747433394194e-03" rms="2.5503066182136536e-01" purity="5.0268787145614624e-01" nType="0">
        <Node pos="l" depth="1" NCoef="0" IVar="19" Cut="7.9604172706604004e-01" cType="1" res="5.6207869201898575e-02" rms="3.1014829874038696e-01" purity="2.6841717958450317e-01" nType="0">
          <Node pos="l" depth="2" NCoef="0" IVar="-1" Cut="0.0000000000000000e+00" cType="1" res="3.2809246331453323e-02" rms="3.5965204238891602e-01" purity="3.3734697103500366e-01" nType="-99"/>
          <Node pos="r" depth="2" NCoef="0" IVar="-1" Cut="0.0000000000000000e+00" cType="1" res="-2.5321722496300936e-03" rms="2.1296672523021698e-01" purity="1.7728382349014282e-01" nType="-99"/>
        </Node>
        <Node pos="r" depth="1" NCoef="0" IVar="5" Cut="4.7892689704895020e-01" cType="1" res="-7.8588072210550308e-03" rms="2.4039310216903687e-01" purity="5.5186849832534790e-01" nType="0">
          <Node pos="l" depth="2" NCoef="0" IVar="-1" Cut="0.0000000000000000e+00" cType="1" res="-1.2237721821293235e-03" rms="2.4319083988666534e-01" purity="5.7209080457687378e-01" nType="-99"/>
          <Node pos="r" depth="2" NCoef="0" IVar="-1" Cut="0.0000000000000000e+00" cType="1" res="-2.3431308567523956e-02" rms="1.7455941438674927e-01" purity="2.1464961767196655e-01" nType="-99"/>
        </Node>
      </Node>
    </BinaryTree>
    <BinaryTree type="DecisionTree" boostWeight="1.0000000000000000e+00" itree="429">
      <Node pos="s" depth="0" NCoef="0" IVar="18" Cut="-1.0080697536468506e+00" cType="1" res="-4.0538920438848436e-04" rms="2.4519987404346466e-01" purity="5.0055068731307983e-01" nType="0">
        <Node pos="l" depth="1" NCoef="0" IVar="13" Cut="-1.4926353693008423e+00" cType="1" res="5.6406413204967976e-03" rms="2.5083759427070618e-01" purity="5.3209435939788818e-01" nType="0">
          <Node pos="l" depth="2" NCoef="0" IVar="-1" Cut="0.0000000000000000e+00" cType="1" res="-3.3637285232543945e-02" rms="-nan" purity="1.8614660203456879e-01" nType="-99"/>
          <Node pos="r" depth="2" NCoef="0" IVar="-1" Cut="0.0000000000000000e+00" cType="1" res="2.6909788139164448e-03" rms="2.5797086954116821e-01" purity="5.4158610105514526e-01" nType="-99"/>
        </Node>
        <Node pos="r" depth="1" NCoef="0" IVar="19" Cut="1.2626749277114868e+00" cType="1" res="-5.3162943571805954e-02" rms="1.8060538172721863e-01" purity="2.2530105710029602e-01" nType="0">
          <Node pos="l" depth="2" NCoef="0" IVar="-1" Cut="0.0000000000000000e+00" cType="1" res="-3.6746196448802948e-02" rms="-nan" purity="1.8221485614776611e-01" nType="-99"/>
          <Node pos="r" depth="2" NCoef="0" IVar="-1" Cut="0.0000000000000000e+00" cType="1" res="-1.2725896667689085e-03" rms="2.6151117682456970e-01" purity="2.6657998561859131e-01" nType="-99"/>
        </Node>
      </Node>
    </BinaryTree>
    <BinaryTree type="DecisionTree" boostWeight="1.0000000000000000e+00" itree="430">
      <Node pos="s" depth="0" NCoef="0" IVar="61" Cut="1.4039385318756104e+00" cType="1" res="-7.3244475061073899e-04" rms="2.4795086681842804e-01" purity="4.9767857789993286e-01" nType="0">
        <Node pos="l" depth="1" NCoef="0" IVar="17" Cut="7.8794759511947632e-01" cType="1" res="-7.0466375909745693e-03" rms="2.3526015877723694e-01" purity="5.1090282201766968e-01" nType="0">
          <Node pos="l" depth="2" NCoef="0" IVar="-1" Cut="0.0000000000000000e+00" cType="1" res="-6.0458254069089890e-02" rms="-nan" purity="-2.4312786757946014e-02" nType="-99"/>
          <Node pos="r" depth="2" NCoef="0" IVar="-1" Cut="0.0000000000000000e+00" cType="1" res="1.1111872736364603e-03" rms="2.7871769666671753e-01" purity="6.3888561725616455e-01" nType="-99"/>
        </Node>
        <Node pos="r" depth="1" NCoef="0" IVar="17" Cut="-4.4942840933799744e-01" cType="1" res="7.6732568442821503e-02" rms="3.6086431145668030e-01" purity="3.3543813228607178e-01" nType="0">
          <Node pos="l" depth="2" NCoef="0" IVar="-1" Cut="0.0000000000000000e+00" cType="1" res="3.6837869882583618e-01" rms="4.1848450899124146e-01" purity="2.3197111487388611e-01" nType="-99"/>
          <Node pos="r" depth="2" NCoef="0" IVar="-1" Cut="0.0000000000000000e+00" cType="1" res="4.9674729816615582e-03" rms="3.1645229458808899e-01" purity="3.7835660576820374e-01" nType="-99"/>
        </Node>
      </Node>
    </BinaryTree>
    <BinaryTree type="DecisionTree" boostWeight="1.0000000000000000e+00" itree="431">
      <Node pos="s" depth="0" NCoef="0" IVar="52" Cut="3.6335704326629639e+00" cType="1" res="7.3588377563282847e-04" rms="2.4453659355640411e-01" purity="5.0041276216506958e-01" nType="0">
        <Node pos="l" depth="1" NCoef="0" IVar="40" Cut="1.1178796291351318e+00" cType="1" res="-2.6411423459649086e-03" rms="2.3914892971515656e-01" purity="5.0061833858489990e-01" nType="0">
          <Node pos="l" depth="2" NCoef="0" IVar="-1" Cut="0.0000000000000000e+00" cType="1" res="2.0738502498716116e-03" rms="2.5711873173713684e-01" purity="5.4773622751235962e-01" nType="-99"/>
          <Node pos="r" depth="2" NCoef="0" IVar="-1" Cut="0.0000000000000000e+00" cType="1" res="-1.8169993534684181e-02" rms="7.9510994255542755e-02" purity="2.4668766558170319e-01" nType="-99"/>
        </Node>
        <Node pos="r" depth="1" NCoef="0" IVar="-1" Cut="0.0000000000000000e+00" cType="1" res="4.7667160630226135e-02" rms="3.9388871192932129e-01" purity="4.9093836545944214e-01" nType="-99"/>
      </Node>
    </BinaryTree>
    <BinaryTree type="DecisionTree" boostWeight="1.0000000000000000e+00" itree="432">
      <Node pos="s" depth="0" NCoef="0" IVar="56" Cut="-1.4151864051818848e+00" cType="1" res="-7.0778611116111279e-03" rms="2.3182310163974762e-01" purity="4.9607035517692566e-01" nType="0">
        <Node pos="l" depth="1" NCoef="0" IVar="81" Cut="-8.2689017057418823e-01" cType="1" res="2.3824455216526985e-02" rms="2.6394289731979370e-01" purity="4.1052713990211487e-01" nType="0">
          <Node pos="l" depth="2" NCoef="0" IVar="-1" Cut="0.0000000000000000e+00" cType="1" res="3.7937283050268888e-03" rms="2.4433042109012604e-01" purity="4.2588326334953308e-01" nType="-99"/>
          <Node pos="r" depth="2" NCoef="0" IVar="-1" Cut="0.0000000000000000e+00" cType="1" res="4.4996578246355057e-02" rms="3.6354067921638489e-01" purity="3.0069527029991150e-01" nType="-99"/>
        </Node>
        <Node pos="r" depth="1" NCoef="0" IVar="17" Cut="1.0974022150039673e+00" cType="1" res="-1.8551534041762352e-02" rms="2.1758535504341125e-01" purity="5.2783161401748657e-01" nType="0">
          <Node pos="l" depth="2" NCoef="0" IVar="-1" Cut="0.0000000000000000e+00" cType="1" res="-6.7722678184509277e-02" rms="-nan" purity="-3.5428691655397415e-02" nType="-99"/>
          <Node pos="r" depth="2" NCoef="0" IVar="-1" Cut="0.0000000000000000e+00" cType="1" res="-1.6824560007080436e-03" rms="2.6945346593856812e-01" purity="6.7000317573547363e-01" nType="-99"/>
        </Node>
      </Node>
    </BinaryTree>
    <BinaryTree type="DecisionTree" boostWeight="1.0000000000000000e+00" itree="433">
      <Node pos="s" depth="0" NCoef="0" IVar="71" Cut="-5.8173939585685730e-02" cType="1" res="4.4570239260792732e-03" rms="2.4716649949550629e-01" purity="5.0562536716461182e-01" nType="0">
        <Node pos="l" depth="1" NCoef="0" IVar="15" Cut="1.5223981142044067e+00" cType="1" res="7.9675111919641495e-03" rms="2.5294592976570129e-01" purity="5.1225739717483521e-01" nType="0">
          <Node pos="l" depth="2" NCoef="0" IVar="-1" Cut="0.0000000000000000e+00" cType="1" res="5.1820660009980202e-03" rms="2.5020310282707214e-01" purity="5.0441902875900269e-01" nType="-99"/>
          <Node pos="r" depth="2" NCoef="0" IVar="-1" Cut="0.0000000000000000e+00" cType="1" res="-7.3500345461070538e-03" rms="2.6325571537017822e-01" purity="5.5217880010604858e-01" nType="-99"/>
        </Node>
        <Node pos="r" depth="1" NCoef="0" IVar="-1" Cut="0.0000000000000000e+00" cType="1" res="-2.7352087199687958e-02" rms="-nan" purity="3.4273919463157654e-01" nType="-99"/>
      </Node>
    </BinaryTree>
    <BinaryTree type="DecisionTree" boostWeight="1.0000000000000000e+00" itree="434">
      <Node pos="s" depth="0" NCoef="0" IVar="35" Cut="1.6844578087329865e-01" cType="1" res="5.5165751837193966e-04" rms="2.4878175556659698e-01" purity="5.0579476356506348e-01" nType="0">
        <Node pos="l" depth="1" NCoef="0" IVar="88" Cut="1.4319411516189575e+00" cType="1" res="-1.0904064401984215e-02" rms="2.2917461395263672e-01" purity="4.9770903587341309e-01" nType="0">
          <Node pos="l" depth="2" NCoef="0" IVar="-1" Cut="0.0000000000000000e+00" cType="1" res="-4.7690975479781628e-03" rms="2.2278112173080444e-01" purity="5.0629287958145142e-01" nType="-99"/>
          <Node pos="r" depth="2" NCoef="0" IVar="-1" Cut="0.0000000000000000e+00" cType="1" res="8.2024507224559784e-02" rms="3.5295110940933228e-01" purity="2.3391416668891907e-01" nType="-99"/>
        </Node>
        <Node pos="r" depth="1" NCoef="0" IVar="36" Cut="1.0730493068695068e+00" cType="1" res="3.3463064581155777e-02" rms="2.9555940628051758e-01" purity="5.2902448177337646e-01" nType="0">
          <Node pos="l" depth="2" NCoef="0" IVar="-1" Cut="0.0000000000000000e+00" cType="1" res="4.1313320398330688e-02" rms="3.3388674259185791e-01" purity="2.1358175575733185e-01" nType="-99"/>
          <Node pos="r" depth="2" NCoef="0" IVar="-1" Cut="0.0000000000000000e+00" cType="1" res="4.7100856900215149e-03" rms="2.8172254562377930e-01" purity="6.1324805021286011e-01" nType="-99"/>
        </Node>
      </Node>
    </BinaryTree>
    <BinaryTree type="DecisionTree" boostWeight="1.0000000000000000e+00" itree="435">
      <Node pos="s" depth="0" NCoef="0" IVar="2" Cut="3.0142693519592285e+00" cType="1" res="1.5486782649531960e-03" rms="2.5327926874160767e-01" purity="4.9300849437713623e-01" nType="0">
        <Node pos="l" depth="1" NCoef="0" IVar="16" Cut="-1.2999510765075684e+00" cType="1" res="-7.6039661653339863e-03" rms="2.4134114384651184e-01" purity="4.3467387557029724e-01" nType="0">
          <Node pos="l" depth="2" NCoef="0" IVar="-1" Cut="0.0000000000000000e+00" cType="1" res="1.8723964691162109e-02" rms="2.9243949055671692e-01" purity="2.9665946960449219e-01" nType="-99"/>
          <Node pos="r" depth="2" NCoef="0" IVar="-1" Cut="0.0000000000000000e+00" cType="1" res="-4.5944270677864552e-03" rms="2.3404163122177124e-01" purity="4.5011794567108154e-01" nType="-99"/>
        </Node>
        <Node pos="r" depth="1" NCoef="0" IVar="57" Cut="1.2921189069747925e+00" cType="1" res="4.2216289788484573e-02" rms="2.9725587368011475e-01" purity="7.5220459699630737e-01" nType="0">
          <Node pos="l" depth="2" NCoef="0" IVar="-1" Cut="0.0000000000000000e+00" cType="1" res="3.7955973297357559e-02" rms="4.0092122554779053e-01" purity="4.1247296333312988e-01" nType="-99"/>
          <Node pos="r" depth="2" NCoef="0" IVar="-1" Cut="0.0000000000000000e+00" cType="1" res="5.5364496074616909e-03" rms="2.6135694980621338e-01" purity="8.2982480525970459e-01" nType="-99"/>
        </Node>
      </Node>
    </BinaryTree>
    <BinaryTree type="DecisionTree" boostWeight="1.0000000000000000e+00" itree="436">
      <Node pos="s" depth="0" NCoef="0" IVar="84" Cut="-1.2015789002180099e-01" cType="1" res="-9.7418160294182599e-06" rms="2.4054163694381714e-01" purity="4.9939844012260437e-01" nType="0">
        <Node pos="l" depth="1" NCoef="0" IVar="67" Cut="1.1147524118423462e+00" cType="1" res="-2.4439578875899315e-02" rms="2.0177297294139862e-01" purity="4.9830138683319092e-01" nType="0">
          <Node pos="l" depth="2" NCoef="0" IVar="-1" Cut="0.0000000000000000e+00" cType="1" res="-4.0315617807209492e-03" rms="2.2644647955894470e-01" purity="5.2436196804046631e-01" nType="-99"/>
          <Node pos="r" depth="2" NCoef="0" IVar="-1" Cut="0.0000000000000000e+00" cType="1" res="-4.7606348991394043e-02" rms="-nan" purity="2.8480049967765808e-01" nType="-99"/>
        </Node>
        <Node pos="r" depth="1" NCoef="0" IVar="59" Cut="-1.1841877698898315e+00" cType="1" res="1.3597672805190086e-02" rms="2.5863891839981079e-01" purity="5.0000947713851929e-01" nType="0">
          <Node pos="l" depth="2" NCoef="0" IVar="-1" Cut="0.0000000000000000e+00" cType="1" res="2.6724353432655334e-02" rms="2.9636433720588684e-01" purity="3.2793709635734558e-01" nType="-99"/>
          <Node pos="r" depth="2" NCoef="0" IVar="-1" Cut="0.0000000000000000e+00" cType="1" res="-1.7854520410764962e-04" rms="2.4566170573234558e-01" purity="5.4594761133193970e-01" nType="-99"/>
        </Node>
      </Node>
    </BinaryTree>
    <BinaryTree type="DecisionTree" boostWeight="1.0000000000000000e+00" itree="437">
      <Node pos="s" depth="0" NCoef="0" IVar="0" Cut="1.3905997276306152e+00" cType="1" res="-2.3702441249042749e-03" rms="2.4254828691482544e-01" purity="5.0449126958847046e-01" nType="0">
        <Node pos="l" depth="1" NCoef="0" IVar="42" Cut="3.6386784911155701e-01" cType="1" res="-5.4812454618513584e-03" rms="2.3818413913249969e-01" purity="5.1399016380310059e-01" nType="0">
          <Node pos="l" depth="2" NCoef="0" IVar="-1" Cut="0.0000000000000000e+00" cType="1" res="-2.7826877776533365e-03" rms="2.3423570394515991e-01" purity="5.1772409677505493e-01" nType="-99"/>
          <Node pos="r" depth="2" NCoef="0" IVar="-1" Cut="0.0000000000000000e+00" cType="1" res="1.8567856401205063e-02" rms="3.0111247301101685e-01" purity="4.3749752640724182e-01" nType="-99"/>
        </Node>
        <Node pos="r" depth="1" NCoef="0" IVar="27" Cut="2.1759738922119141e+00" cType="1" res="5.5756237357854843e-02" rms="3.0735856294631958e-01" purity="3.2701247930526733e-01" nType="0">
          <Node pos="l" depth="2" NCoef="0" IVar="-1" Cut="0.0000000000000000e+00" cType="1" res="-8.5756657645106316e-03" rms="2.2285909950733185e-01" purity="1.5227781236171722e-01" nType="-99"/>
          <Node pos="r" depth="2" NCoef="0" IVar="-1" Cut="0.0000000000000000e+00" cType="1" res="4.3999698013067245e-02" rms="3.6316016316413879e-01" purity="5.3378814458847046e-01" nType="-99"/>
        </Node>
      </Node>
    </BinaryTree>
    <BinaryTree type="DecisionTree" boostWeight="1.0000000000000000e+00" itree="438">
      <Node pos="s" depth="0" NCoef="0" IVar="48" Cut="1.5986214876174927e+00" cType="1" res="3.7104333750903606e-03" rms="2.4865220487117767e-01" purity="5.0287741422653198e-01" nType="0">
        <Node pos="l" depth="1" NCoef="0" IVar="27" Cut="7.7181947231292725e-01" cType="1" res="-2.5254223495721817e-02" rms="2.0900414884090424e-01" purity="2.9366070032119751e-01" nType="0">
          <Node pos="l" depth="2" NCoef="0" IVar="-1" Cut="0.0000000000000000e+00" cType="1" res="-9.2441052198410034e-02" rms="-nan" purity="-3.2422646880149841e-02" nType="-99"/>
          <Node pos="r" depth="2" NCoef="0" IVar="-1" Cut="0.0000000000000000e+00" cType="1" res="-5.2720257081091404e-03" rms="2.3066714406013489e-01" purity="3.1673550605773926e-01" nType="-99"/>
        </Node>
        <Node pos="r" depth="1" NCoef="0" IVar="52" Cut="2.9362809658050537e+00" cType="1" res="1.6736172139644623e-02" rms="2.6351672410964966e-01" purity="5.9696453809738159e-01" nType="0">
          <Node pos="l" depth="2" NCoef="0" IVar="-1" Cut="0.0000000000000000e+00" cType="1" res="1.5359565615653992e-02" rms="3.0078679323196411e-01" purity="5.2278864383697510e-01" nType="-99"/>
          <Node pos="r" depth="2" NCoef="0" IVar="-1" Cut="0.0000000000000000e+00" cType="1" res="-4.8793069436214864e-04" rms="2.4126417934894562e-01" purity="6.3300174474716187e-01" nType="-99"/>
        </Node>
      </Node>
    </BinaryTree>
    <BinaryTree type="DecisionTree" boostWeight="1.0000000000000000e+00" itree="439">
      <Node pos="s" depth="0" NCoef="0" IVar="4" Cut="3.4138879776000977e+00" cType="1" res="-8.9467735961079597e-04" rms="2.4418868124485016e-01" purity="5.0109165906906128e-01" nType="0">
        <Node pos="l" depth="1" NCoef="0" IVar="2" Cut="2.3019988536834717e+00" cType="1" res="3.7967666983604431e-02" rms="2.9336085915565491e-01" purity="2.5992542505264282e-01" nType="0">
          <Node pos="l" depth="2" NCoef="0" IVar="-1" Cut="0.0000000000000000e+00" cType="1" res="-1.0612411424517632e-02" rms="1.7134852707386017e-01" purity="8.2648016512393951e-02" nType="-99"/>
          <Node pos="r" depth="2" NCoef="0" IVar="-1" Cut="0.0000000000000000e+00" cType="1" res="2.1572450175881386e-02" rms="3.4818685054779053e-01" purity="3.8259756565093994e-01" nType="-99"/>
        </Node>
        <Node pos="r" depth="1" NCoef="0" IVar="43" Cut="1.2345679104328156e-02" cType="1" res="-1.0836691595613956e-02" rms="2.2886845469474792e-01" purity="5.6278836727142334e-01" nType="0">
          <Node pos="l" depth="2" NCoef="0" IVar="-1" Cut="0.0000000000000000e+00" cType="1" res="-3.6351159214973450e-02" rms="-nan" purity="2.4182383716106415e-01" nType="-99"/>
          <Node pos="r" depth="2" NCoef="0" IVar="-1" Cut="0.0000000000000000e+00" cType="1" res="-2.4247460532933474e-03" rms="2.3592160642147064e-01" purity="5.7152622938156128e-01" nType="-99"/>
        </Node>
      </Node>
    </BinaryTree>
    <BinaryTree type="DecisionTree" boostWeight="1.0000000000000000e+00" itree="440">
      <Node pos="s" depth="0" NCoef="0" IVar="67" Cut="1.1459056138992310e+00" cType="1" res="-5.1606041379272938e-03" rms="2.3861551284790039e-01" purity="4.9270218610763550e-01" nType="0">
        <Node pos="l" depth="1" NCoef="0" IVar="88" Cut="1.2601146697998047e+00" cType="1" res="1.6934649320319295e-03" rms="2.5257176160812378e-01" purity="5.1825368404388428e-01" nType="0">
          <Node pos="l" depth="2" NCoef="0" IVar="-1" Cut="0.0000000000000000e+00" cType="1" res="1.8233973532915115e-03" rms="2.6057225465774536e-01" purity="5.3165417909622192e-01" nType="-99"/>
          <Node pos="r" depth="2" NCoef="0" IVar="-1" Cut="0.0000000000000000e+00" cType="1" res="-5.3421895951032639e-02" rms="-nan" purity="1.5562628209590912e-01" nType="-99"/>
        </Node>
        <Node pos="r" depth="1" NCoef="0" IVar="69" Cut="1.3798735141754150e+00" cType="1" res="-3.3282026648521423e-02" rms="-nan" purity="2.2664055228233337e-01" nType="-99"/>
      </Node>
    </BinaryTree>
    <BinaryTree type="DecisionTree" boostWeight="1.0000000000000000e+00" itree="441">
      <Node pos="s" depth="0" NCoef="0" IVar="3" Cut="4.4100084304809570e+00" cType="1" res="3.0231035780161619e-03" rms="2.5191894173622131e-01" purity="4.9991697072982788e-01" nType="0">
        <Node pos="l" depth="1" NCoef="0" IVar="2" Cut="2.3430063724517822e+00" cType="1" res="8.1420555710792542e-02" rms="3.3248135447502136e-01" purity="3.9263013005256653e-01" nType="0">
          <Node pos="l" depth="2" NCoef="0" IVar="-1" Cut="0.0000000000000000e+00" cType="1" res="-1.9921259954571724e-02" rms="1.7590123414993286e-01" purity="5.4578892886638641e-02" nType="-99"/>
          <Node pos="r" depth="2" NCoef="0" IVar="-1" Cut="0.0000000000000000e+00" cType="1" res="2.9604261741042137e-02" rms="3.6502215266227722e-01" purity="5.2180808782577515e-01" nType="-99"/>
        </Node>
        <Node pos="r" depth="1" NCoef="0" IVar="83" Cut="-2.1044090390205383e-01" cType="1" res="-5.7131662033498287e-03" rms="2.3969867825508118e-01" purity="5.1187258958816528e-01" nType="0">
          <Node pos="l" depth="2" NCoef="0" IVar="-1" Cut="0.0000000000000000e+00" cType="1" res="1.0997750796377659e-02" rms="2.8712877631187439e-01" purity="6.2972843647003174e-01" nType="-99"/>
          <Node pos="r" depth="2" NCoef="0" IVar="-1" Cut="0.0000000000000000e+00" cType="1" res="-5.0683068111538887e-03" rms="2.2552525997161865e-01" purity="4.8293441534042358e-01" nType="-99"/>
        </Node>
      </Node>
    </BinaryTree>
    <BinaryTree type="DecisionTree" boostWeight="1.0000000000000000e+00" itree="442">
      <Node pos="s" depth="0" NCoef="0" IVar="2" Cut="8.1021142005920410e-01" cType="1" res="-3.7408333737403154e-03" rms="2.3502841591835022e-01" purity="4.9407017230987549e-01" nType="0">
        <Node pos="l" depth="1" NCoef="0" IVar="-1" Cut="0.0000000000000000e+00" cType="1" res="6.2697440385818481e-02" rms="3.3685907721519470e-01" purity="1.8746066093444824e-01" nType="-99"/>
        <Node pos="r" depth="1" NCoef="0" IVar="0" Cut="1.1345704793930054e+00" cType="1" res="-6.2980027869343758e-03" rms="2.3155581951141357e-01" purity="5.0105518102645874e-01" nType="0">
          <Node pos="l" depth="2" NCoef="0" IVar="-1" Cut="0.0000000000000000e+00" cType="1" res="5.0115730846300721e-04" rms="2.4686758220195770e-01" purity="5.4255104064941406e-01" nType="-99"/>
          <Node pos="r" depth="2" NCoef="0" IVar="-1" Cut="0.0000000000000000e+00" cType="1" res="-1.8270831555128098e-02" rms="1.0476461052894592e-01" purity="2.7210462093353271e-01" nType="-99"/>
        </Node>
      </Node>
    </BinaryTree>
    <BinaryTree type="DecisionTree" boostWeight="1.0000000000000000e+00" itree="443">
      <Node pos="s" depth="0" NCoef="0" IVar="84" Cut="-5.4304188489913940e-01" cType="1" res="1.4102392597123981e-03" rms="2.4195671081542969e-01" purity="5.0273853540420532e-01" nType="0">
        <Node pos="l" depth="1" NCoef="0" IVar="-1" Cut="0.0000000000000000e+00" cType="1" res="-2.9909983277320862e-02" rms="-nan" purity="4.4750791788101196e-01" nType="-99"/>
        <Node pos="r" depth="1" NCoef="0" IVar="67" Cut="7.9719018936157227e-01" cType="1" res="4.9599329940974712e-03" rms="2.4680057168006897e-01" purity="5.0501394271850586e-01" nType="0">
          <Node pos="l" depth="2" NCoef="0" IVar="-1" Cut="0.0000000000000000e+00" cType="1" res="2.9549010097980499e-02" rms="3.6921724677085876e-01" purity="6.4242345094680786e-01" nType="-99"/>
          <Node pos="r" depth="2" NCoef="0" IVar="-1" Cut="0.0000000000000000e+00" cType="1" res="3.1386138289235532e-04" rms="2.4016982316970825e-01" purity="4.9994546175003052e-01" nType="-99"/>
        </Node>
      </Node>
    </BinaryTree>
    <BinaryTree type="DecisionTree" boostWeight="1.0000000000000000e+00" itree="444">
      <Node pos="s" depth="0" NCoef="0" IVar="3" Cut="5.4614505767822266e+00" cType="1" res="-5.3243148140609264e-03" rms="2.2958475351333618e-01" purity="5.0139725208282471e-01" nType="0">
        <Node pos="l" depth="1" NCoef="0" IVar="61" Cut="1.4924144744873047e+00" cType="1" res="-1.8763648113235831e-03" rms="2.3799720406532288e-01" purity="5.1257282495498657e-01" nType="0">
          <Node pos="l" depth="2" NCoef="0" IVar="-1" Cut="0.0000000000000000e+00" cType="1" res="6.1181315686553717e-04" rms="2.4343818426132202e-01" purity="5.2578788995742798e-01" nType="-99"/>
          <Node pos="r" depth="2" NCoef="0" IVar="-1" Cut="0.0000000000000000e+00" cType="1" res="-2.7786688879132271e-02" rms="-nan" purity="2.3721270263195038e-01" nType="-99"/>
        </Node>
        <Node pos="r" depth="1" NCoef="0" IVar="-1" Cut="0.0000000000000000e+00" cType="1" res="-4.1667044162750244e-02" rms="-nan" purity="7.1822516620159149e-02" nType="-99"/>
      </Node>
    </BinaryTree>
    <BinaryTree type="DecisionTree" boostWeight="1.0000000000000000e+00" itree="445">
      <Node pos="s" depth="0" NCoef="0" IVar="16" Cut="1.0515578985214233e+00" cType="1" res="1.0698577389121056e-03" rms="2.4678429961204529e-01" purity="4.9677374958992004e-01" nType="0">
        <Node pos="l" depth="1" NCoef="0" IVar="60" Cut="-5.8225822448730469e-01" cType="1" res="6.2836674042046070e-03" rms="2.5447487831115723e-01" purity="5.1037454605102539e-01" nType="0">
          <Node pos="l" depth="2" NCoef="0" IVar="-1" Cut="0.0000000000000000e+00" cType="1" res="6.0398998903110623e-04" rms="2.4576322734355927e-01" purity="5.2327561378479004e-01" nType="-99"/>
          <Node pos="r" depth="2" NCoef="0" IVar="-1" Cut="0.0000000000000000e+00" cType="1" res="3.4614708274602890e-02" rms="3.7434720993041992e-01" purity="2.6510259509086609e-01" nType="-99"/>
        </Node>
        <Node pos="r" depth="1" NCoef="0" IVar="15" Cut="1.1360137462615967e+00" cType="1" res="-7.2345927357673645e-02" rms="2.9117211699485779e-02" purity="3.0526012182235718e-01" nType="0">
          <Node pos="l" depth="2" NCoef="0" IVar="-1" Cut="0.0000000000000000e+00" cType="1" res="-1.5029272437095642e-01" rms="-nan" purity="-5.1684785634279251e-02" nType="-99"/>
          <Node pos="r" depth="2" NCoef="0" IVar="-1" Cut="0.0000000000000000e+00" cType="1" res="-7.4973688460886478e-03" rms="2.5240215659141541e-01" purity="4.6507892012596130e-01" nType="-99"/>
        </Node>
      </Node>
    </BinaryTree>
    <BinaryTree type="DecisionTree" boostWeight="1.0000000000000000e+00" itree="446">
      <Node pos="s" depth="0" NCoef="0" IVar="46" Cut="1.6583437919616699e+00" cType="1" res="2.9245212208479643e-03" rms="2.4604810774326324e-01" purity="5.0261229276657104e-01" nType="0">
        <Node pos="l" depth="1" NCoef="0" IVar="33" Cut="1.2345679104328156e-02" cType="1" res="-4.1060897638089955e-04" rms="2.4086208641529083e-01" purity="5.0708103179931641e-01" nType="0">
          <Node pos="l" depth="2" NCoef="0" IVar="-1" Cut="0.0000000000000000e+00" cType="1" res="3.9863483980298042e-03" rms="2.6137080788612366e-01" purity="5.1837116479873657e-01" nType="-99"/>
          <Node pos="r" depth="2" NCoef="0" IVar="-1" Cut="0.0000000000000000e+00" cType="1" res="-7.8925536945462227e-03" rms="2.0123451948165894e-01" purity="4.8876497149467468e-01" nType="-99"/>
        </Node>
        <Node pos="r" depth="1" NCoef="0" IVar="-1" Cut="0.0000000000000000e+00" cType="1" res="7.3902651667594910e-02" rms="3.9404502511024475e-01" purity="2.8908106684684753e-01" nType="-99"/>
      </Node>
    </BinaryTree>
    <BinaryTree type="DecisionTree" boostWeight="1.0000000000000000e+00" itree="447">
      <Node pos="s" depth="0" NCoef="0" IVar="88" Cut="1.5468164682388306e+00" cType="1" res="1.4710112009197474e-03" rms="2.4656273424625397e-01" purity="5.0105547904968262e-01" nType="0">
        <Node pos="l" depth="1" NCoef="0" IVar="76" Cut="1.3936914205551147e+00" cType="1" res="-1.4909579185768962e-03" rms="2.4268338084220886e-01" purity="5.0890755653381348e-01" nType="0">
          <Node pos="l" depth="2" NCoef="0" IVar="-1" Cut="0.0000000000000000e+00" cType="1" res="1.7439430812373757e-03" rms="2.5534600019454956e-01" purity="5.5921429395675659e-01" nType="-99"/>
          <Node pos="r" depth="2" NCoef="0" IVar="-1" Cut="0.0000000000000000e+00" cType="1" res="-2.9590662568807602e-02" rms="1.8869660794734955e-02" purity="7.5418531894683838e-02" nType="-99"/>
        </Node>
        <Node pos="r" depth="1" NCoef="0" IVar="-1" Cut="0.0000000000000000e+00" cType="1" res="8.0068126320838928e-02" rms="3.4809699654579163e-01" purity="1.9453582167625427e-01" nType="-99"/>
      </Node>
    </BinaryTree>
    <BinaryTree type="DecisionTree" boostWeight="1.0000000000000000e+00" itree="448">
      <Node pos="s" depth="0" NCoef="0" IVar="37" Cut="1.2055108547210693e+00" cType="1" res="2.4600906763225794e-03" rms="2.4833789467811584e-01" purity="4.9971571564674377e-01" nType="0">
        <Node pos="l" depth="1" NCoef="0" IVar="31" Cut="2.6650662422180176e+00" cType="1" res="-3.1101889908313751e-03" rms="2.3745274543762207e-01" purity="5.0483542680740356e-01" nType="0">
          <Node pos="l" depth="2" NCoef="0" IVar="-1" Cut="0.0000000000000000e+00" cType="1" res="-1.7977569252252579e-02" rms="1.4876931905746460e-01" purity="1.7977195978164673e-01" nType="-99"/>
          <Node pos="r" depth="2" NCoef="0" IVar="-1" Cut="0.0000000000000000e+00" cType="1" res="1.6805437626317143e-03" rms="2.4823972582817078e-01" purity="5.5905705690383911e-01" nType="-99"/>
        </Node>
        <Node pos="r" depth="1" NCoef="0" IVar="60" Cut="-1.2381703853607178e+00" cType="1" res="6.0264319181442261e-02" rms="3.3597967028617859e-01" purity="4.4658720493316650e-01" nType="0">
          <Node pos="l" depth="2" NCoef="0" IVar="-1" Cut="0.0000000000000000e+00" cType="1" res="3.7898295558989048e-03" rms="2.8089499473571777e-01" purity="4.6607321500778198e-01" nType="-99"/>
          <Node pos="r" depth="2" NCoef="0" IVar="-1" Cut="0.0000000000000000e+00" cType="1" res="6.3778117299079895e-02" rms="4.2006132006645203e-01" purity="3.9910751581192017e-01" nType="-99"/>
        </Node>
      </Node>
    </BinaryTree>
    <BinaryTree type="DecisionTree" boostWeight="1.0000000000000000e+00" itree="449">
      <Node pos="s" depth="0" NCoef="0" IVar="81" Cut="-5.0273889303207397e-01" cType="1" res="-4.4579189270734787e-03" rms="2.3669487237930298e-01" purity="4.8851686716079712e-01" nType="0">
        <Node pos="l" depth="1" NCoef="0" IVar="80" Cut="-1.4927471876144409e+00" cType="1" res="-7.7065406367182732e-03" rms="2.3158971965312958e-01" purity="4.9481600522994995e-01" nType="0">
          <Node pos="l" depth="2" NCoef="0" IVar="-1" Cut="0.0000000000000000e+00" cType="1" res="4.3178107589483261e-03" rms="2.6615282893180847e-01" purity="6.8984657526016235e-01" nType="-99"/>
          <Node pos="r" depth="2" NCoef="0" IVar="-1" Cut="0.0000000000000000e+00" cType="1" res="-8.4979850798845291e-03" rms="1.9933323562145233e-01" purity="3.4479665756225586e-01" nType="-99"/>
        </Node>
        <Node pos="r" depth="1" NCoef="0" IVar="-1" Cut="0.0000000000000000e+00" cType="1" res="4.2671151459217072e-02" rms="3.5334119200706482e-01" purity="2.7396145462989807e-01" nType="-99"/>
      </Node>
    </BinaryTree>
    <BinaryTree type="DecisionTree" boostWeight="1.0000000000000000e+00" itree="450">
      <Node pos="s" depth="0" NCoef="0" IVar="63" Cut="-3.4738308191299438e-01" cType="1" res="5.8596994495019317e-04" rms="2.4394252896308899e-01" purity="4.9663797020912170e-01" nType="0">
        <Node pos="l" depth="1" NCoef="0" IVar="48" Cut="1.3041781187057495e+00" cType="1" res="5.9313923120498657e-02" rms="2.8406518697738647e-01" purity="5.6074690818786621e-01" nType="0">
          <Node pos="l" depth="2" NCoef="0" IVar="-1" Cut="0.0000000000000000e+00" cType="1" res="5.7669993489980698e-02" rms="3.9289495348930359e-01" purity="3.9758077263832092e-01" nType="-99"/>
          <Node pos="r" depth="2" NCoef="0" IVar="-1" Cut="0.0000000000000000e+00" cType="1" res="7.9512065276503563e-03" rms="2.3191694915294647e-01" purity="6.1025565862655640e-01" nType="-99"/>
        </Node>
        <Node pos="r" depth="1" NCoef="0" IVar="37" Cut="-1.4539344310760498e+00" cType="1" res="-8.9201601222157478e-03" rms="2.3543608188629150e-01" purity="4.8626080155372620e-01" nType="0">
          <Node pos="l" depth="2" NCoef="0" IVar="-1" Cut="0.0000000000000000e+00" cType="1" res="-3.6328736692667007e-02" rms="-nan" purity="1.3921381533145905e-01" nType="-99"/>
          <Node pos="r" depth="2" NCoef="0" IVar="-1" Cut="0.0000000000000000e+00" cType="1" res="-1.3488502008840442e-03" rms="2.4175213277339935e-01" purity="5.0717735290527344e-01" nType="-99"/>
        </Node>
      </Node>
    </BinaryTree>
    <BinaryTree type="DecisionTree" boostWeight="1.0000000000000000e+00" itree="451">
      <Node pos="s" depth="0" NCoef="0" IVar="10" Cut="2.9100086688995361e+00" cType="1" res="1.0201910044997931e-03" rms="2.4745683372020721e-01" purity="5.0022441148757935e-01" nType="0">
        <Node pos="l" depth="1" NCoef="0" IVar="84" Cut="1.6561917960643768e-02" cType="1" res="4.7339040786027908e-02" rms="3.1177461147308350e-01" purity="2.9023277759552002e-01" nType="0">
          <Node pos="l" depth="2" NCoef="0" IVar="-1" Cut="0.0000000000000000e+00" cType="1" res="-1.6580376541242003e-03" rms="2.4285483360290527e-01" purity="2.6362302899360657e-01" nType="-99"/>
          <Node pos="r" depth="2" NCoef="0" IVar="-1" Cut="0.0000000000000000e+00" cType="1" res="3.6446943879127502e-02" rms="3.6957383155822754e-01" purity="3.2298061251640320e-01" nType="-99"/>
        </Node>
        <Node pos="r" depth="1" NCoef="0" IVar="39" Cut="-5.3486222028732300e-01" cType="1" res="-5.7601365260779858e-03" rms="2.3581698536872864e-01" purity="5.3096371889114380e-01" nType="0">
          <Node pos="l" depth="2" NCoef="0" IVar="-1" Cut="0.0000000000000000e+00" cType="1" res="-7.9060951247811317e-04" rms="2.4092113971710205e-01" purity="5.4396611452102661e-01" nType="-99"/>
          <Node pos="r" depth="2" NCoef="0" IVar="-1" Cut="0.0000000000000000e+00" cType="1" res="-5.2387993782758713e-02" rms="-nan" purity="5.9857528656721115e-02" nType="-99"/>
        </Node>
      </Node>
    </BinaryTree>
    <BinaryTree type="DecisionTree" boostWeight="1.0000000000000000e+00" itree="452">
      <Node pos="s" depth="0" NCoef="0" IVar="15" Cut="1.4837456941604614e+00" cType="1" res="3.3532327506691217e-03" rms="2.4585586786270142e-01" purity="5.0086969137191772e-01" nType="0">
        <Node pos="l" depth="1" NCoef="0" IVar="81" Cut="-9.2170834541320801e-01" cType="1" res="1.5124486759305000e-02" rms="2.3977100849151611e-01" purity="4.5075649023056030e-01" nType="0">
          <Node pos="l" depth="2" NCoef="0" IVar="-1" Cut="0.0000000000000000e+00" cType="1" res="8.4780072793364525e-03" rms="2.6079708337783813e-01" purity="4.9672636389732361e-01" nType="-99"/>
          <Node pos="r" depth="2" NCoef="0" IVar="-1" Cut="0.0000000000000000e+00" cType="1" res="-1.8038917332887650e-02" rms="-nan" purity="1.7625002562999725e-01" nType="-99"/>
        </Node>
        <Node pos="r" depth="1" NCoef="0" IVar="15" Cut="1.5448269844055176e+00" cType="1" res="-1.9735429435968399e-02" rms="2.5580510497093201e-01" purity="5.9916394948959351e-01" nType="0">
          <Node pos="l" depth="2" NCoef="0" IVar="-1" Cut="0.0000000000000000e+00" cType="1" res="-2.7064925525337458e-03" rms="2.5425270199775696e-01" purity="6.2089657783508301e-01" nType="-99"/>
          <Node pos="r" depth="2" NCoef="0" IVar="-1" Cut="0.0000000000000000e+00" cType="1" res="-4.0001463145017624e-02" rms="2.3653404414653778e-01" purity="2.8056818246841431e-01" nType="-99"/>
        </Node>
      </Node>
    </BinaryTree>
    <BinaryTree type="DecisionTree" boostWeight="1.0000000000000000e+00" itree="453">
      <Node pos="s" depth="0" NCoef="0" IVar="19" Cut="1.4347895383834839e+00" cType="1" res="-4.0078065358102322e-03" rms="2.4029093980789185e-01" purity="4.9850642681121826e-01" nType="0">
        <Node pos="l" depth="1" NCoef="0" IVar="41" Cut="-1.1520614475011826e-01" cType="1" res="-5.5658514611423016e-04" rms="2.4416232109069824e-01" purity="5.0927853584289551e-01" nType="0">
          <Node pos="l" depth="2" NCoef="0" IVar="-1" Cut="0.0000000000000000e+00" cType="1" res="-8.1296889111399651e-03" rms="2.0843496918678284e-01" purity="5.6305360794067383e-01" nType="-99"/>
          <Node pos="r" depth="2" NCoef="0" IVar="-1" Cut="0.0000000000000000e+00" cType="1" res="3.4789692144840956e-03" rms="2.5816085934638977e-01" purity="4.8457777500152588e-01" nType="-99"/>
        </Node>
        <Node pos="r" depth="1" NCoef="0" IVar="-1" Cut="0.0000000000000000e+00" cType="1" res="-3.0182167887687683e-02" rms="7.1328744292259216e-02" purity="2.3781614005565643e-01" nType="-99"/>
      </Node>
    </BinaryTree>
    <BinaryTree type="DecisionTree" boostWeight="1.0000000000000000e+00" itree="454">
      <Node pos="s" depth="0" NCoef="0" IVar="52" Cut="2.3441362380981445e+00" cType="1" res="-2.3390403948724270e-03" rms="2.3941676318645477e-01" purity="5.0441813468933105e-01" nType="0">
        <Node pos="l" depth="1" NCoef="0" IVar="-1" Cut="0.0000000000000000e+00" cType="1" res="-4.4311217963695526e-02" rms="-nan" purity="4.7740314155817032e-02" nType="-99"/>
        <Node pos="r" depth="1" NCoef="0" IVar="81" Cut="-8.1702554225921631e-01" cType="1" res="7.3214614531025290e-04" rms="2.4541252851486206e-01" purity="5.1618224382400513e-01" nType="0">
          <Node pos="l" depth="2" NCoef="0" IVar="-1" Cut="0.0000000000000000e+00" cType="1" res="-1.7008710419759154e-03" rms="2.3712533712387085e-01" purity="5.4604846239089966e-01" nType="-99"/>
          <Node pos="r" depth="2" NCoef="0" IVar="-1" Cut="0.0000000000000000e+00" cType="1" res="2.2054154425859451e-02" rms="3.0361366271972656e-01" purity="2.5497743487358093e-01" nType="-99"/>
        </Node>
      </Node>
    </BinaryTree>
    <BinaryTree type="DecisionTree" boostWeight="1.0000000000000000e+00" itree="455">
      <Node pos="s" depth="0" NCoef="0" IVar="81" Cut="-4.9342775344848633e-01" cType="1" res="7.8717066207900643e-04" rms="2.4532054364681244e-01" purity="4.9474695324897766e-01" nType="0">
        <Node pos="l" depth="1" NCoef="0" IVar="10" Cut="3.6837551593780518e+00" cType="1" res="-2.6382049545645714e-03" rms="2.3892095685005188e-01" purity="4.9962791800498962e-01" nType="0">
          <Node pos="l" depth="2" NCoef="0" IVar="-1" Cut="0.0000000000000000e+00" cType="1" res="-2.3034152109175920e-03" rms="2.3572951555252075e-01" purity="4.9239924550056458e-01" nType="-99"/>
          <Node pos="r" depth="2" NCoef="0" IVar="-1" Cut="0.0000000000000000e+00" cType="1" res="2.2503281012177467e-02" rms="2.7559530735015869e-01" purity="6.1719560623168945e-01" nType="-99"/>
        </Node>
        <Node pos="r" depth="1" NCoef="0" IVar="-1" Cut="0.0000000000000000e+00" cType="1" res="6.0056410729885101e-02" rms="3.9997380971908569e-01" purity="3.1054362654685974e-01" nType="-99"/>
      </Node>
    </BinaryTree>
    <BinaryTree type="DecisionTree" boostWeight="1.0000000000000000e+00" itree="456">
      <Node pos="s" depth="0" NCoef="0" IVar="82" Cut="1.7220735549926758e+00" cType="1" res="5.2151521667838097e-03" rms="2.5201970338821411e-01" purity="5.0307178497314453e-01" nType="0">
        <Node pos="l" depth="1" NCoef="0" IVar="19" Cut="1.4976050853729248e+00" cType="1" res="2.0367286633700132e-03" rms="2.4669802188873291e-01" purity="5.0608050823211670e-01" nType="0">
          <Node pos="l" depth="2" NCoef="0" IVar="-1" Cut="0.0000000000000000e+00" cType="1" res="1.8102608155459166e-03" rms="2.5117707252502441e-01" purity="5.1409000158309937e-01" nType="-99"/>
          <Node pos="r" depth="2" NCoef="0" IVar="-1" Cut="0.0000000000000000e+00" cType="1" res="-3.5779990255832672e-02" rms="-nan" purity="2.4317869544029236e-01" nType="-99"/>
        </Node>
        <Node pos="r" depth="1" NCoef="0" IVar="-1" Cut="0.0000000000000000e+00" cType="1" res="6.0203637927770615e-02" rms="4.0354478359222412e-01" purity="3.6625957489013672e-01" nType="-99"/>
      </Node>
    </BinaryTree>
    <BinaryTree type="DecisionTree" boostWeight="1.0000000000000000e+00" itree="457">
      <Node pos="s" depth="0" NCoef="0" IVar="52" Cut="2.5524291992187500e+00" cType="1" res="2.7102006133645773e-03" rms="2.5252678990364075e-01" purity="4.9283307790756226e-01" nType="0">
        <Node pos="l" depth="1" NCoef="0" IVar="20" Cut="2.2153152152895927e-02" cType="1" res="-2.4655839428305626e-02" rms="-nan" purity="1.1620812863111496e-01" nType="-99"/>
        <Node pos="r" depth="1" NCoef="0" IVar="57" Cut="-1.4150981903076172e+00" cType="1" res="9.8524652421474457e-03" rms="2.6463705301284790e-01" purity="5.3160738945007324e-01" nType="0">
          <Node pos="l" depth="2" NCoef="0" IVar="-1" Cut="0.0000000000000000e+00" cType="1" res="4.8995908349752426e-02" rms="3.0836474895477295e-01" purity="1.4346154034137726e-01" nType="-99"/>
          <Node pos="r" depth="2" NCoef="0" IVar="-1" Cut="0.0000000000000000e+00" cType="1" res="1.5149345854297280e-03" rms="2.6068252325057983e-01" purity="5.5811107158660889e-01" nType="-99"/>
        </Node>
      </Node>
    </BinaryTree>
    <BinaryTree type="DecisionTree" boostWeight="1.0000000000000000e+00" itree="458">
      <Node pos="s" depth="0" NCoef="0" IVar="18" Cut="-9.2101049423217773e-01" cType="1" res="-1.9523802911862731e-03" rms="2.4119375646114349e-01" purity="4.9781155586242676e-01" nType="0">
        <Node pos="l" depth="1" NCoef="0" IVar="22" Cut="1.2345679104328156e-02" cType="1" res="3.1378252897411585e-03" rms="2.4910824000835419e-01" purity="5.2357697486877441e-01" nType="0">
          <Node pos="l" depth="2" NCoef="0" IVar="-1" Cut="0.0000000000000000e+00" cType="1" res="2.6512123644351959e-02" rms="3.1235900521278381e-01" purity="3.9846506714820862e-01" nType="-99"/>
          <Node pos="r" depth="2" NCoef="0" IVar="-1" Cut="0.0000000000000000e+00" cType="1" res="-1.0962165106320754e-04" rms="2.4585233628749847e-01" purity="5.2801299095153809e-01" nType="-99"/>
        </Node>
        <Node pos="r" depth="1" NCoef="0" IVar="1" Cut="2.5630910396575928e+00" cType="1" res="-5.8314077556133270e-02" rms="1.0836916416883469e-01" purity="2.1252231299877167e-01" nType="0">
          <Node pos="l" depth="2" NCoef="0" IVar="-1" Cut="0.0000000000000000e+00" cType="1" res="5.8567970991134644e-03" rms="2.5541007518768311e-01" purity="1.6094115376472473e-01" nType="-99"/>
          <Node pos="r" depth="2" NCoef="0" IVar="-1" Cut="0.0000000000000000e+00" cType="1" res="-3.8926322013139725e-02" rms="-nan" purity="2.5603374838829041e-01" nType="-99"/>
        </Node>
      </Node>
    </BinaryTree>
    <BinaryTree type="DecisionTree" boostWeight="1.0000000000000000e+00" itree="459">
      <Node pos="s" depth="0" NCoef="0" IVar="25" Cut="8.6068761348724365e-01" cType="1" res="1.1219168081879616e-02" rms="2.6209238171577454e-01" purity="5.0491684675216675e-01" nType="0">
        <Node pos="l" depth="1" NCoef="0" IVar="16" Cut="-2.2056990861892700e-01" cType="1" res="-4.5005258172750473e-02" rms="1.9307066500186920e-01" purity="5.3707945346832275e-01" nType="0">
          <Node pos="l" depth="2" NCoef="0" IVar="-1" Cut="0.0000000000000000e+00" cType="1" res="-4.5744940871372819e-04" rms="2.5412249565124512e-01" purity="5.6135195493698120e-01" nType="-99"/>
          <Node pos="r" depth="2" NCoef="0" IVar="-1" Cut="0.0000000000000000e+00" cType="1" res="-3.5578627139329910e-02" rms="-nan" purity="5.0081288814544678e-01" nType="-99"/>
        </Node>
        <Node pos="r" depth="1" NCoef="0" IVar="56" Cut="1.4439880847930908e+00" cType="1" res="1.9068226218223572e-02" rms="2.6939797401428223e-01" purity="5.0042688846588135e-01" nType="0">
          <Node pos="l" depth="2" NCoef="0" IVar="-1" Cut="0.0000000000000000e+00" cType="1" res="4.7705806791782379e-03" rms="2.6130858063697815e-01" purity="5.0776606798171997e-01" nType="-99"/>
          <Node pos="r" depth="2" NCoef="0" IVar="-1" Cut="0.0000000000000000e+00" cType="1" res="4.2693395167589188e-02" rms="3.8660117983818054e-01" purity="3.5519468784332275e-01" nType="-99"/>
        </Node>
      </Node>
    </BinaryTree>
    <BinaryTree type="DecisionTree" boostWeight="1.0000000000000000e+00" itree="460">
      <Node pos="s" depth="0" NCoef="0" IVar="72" Cut="3.7037037312984467e-02" cType="1" res="-3.7395276594907045e-03" rms="2.4950453639030457e-01" purity="4.8885467648506165e-01" nType="0">
        <Node pos="l" depth="1" NCoef="0" IVar="39" Cut="-2.4949262142181396e+00" cType="1" res="-7.8365532681345940e-03" rms="2.4182167649269104e-01" purity="4.9255836009979248e-01" nType="0">
          <Node pos="l" depth="2" NCoef="0" IVar="-1" Cut="0.0000000000000000e+00" cType="1" res="1.4226962812244892e-02" rms="3.0360421538352966e-01" purity="6.6878992319107056e-01" nType="-99"/>
          <Node pos="r" depth="2" NCoef="0" IVar="-1" Cut="0.0000000000000000e+00" cType="1" res="-5.2540674805641174e-03" rms="2.2973740100860596e-01" purity="4.6530053019523621e-01" nType="-99"/>
        </Node>
        <Node pos="r" depth="1" NCoef="0" IVar="13" Cut="1.3997803926467896e+00" cType="1" res="6.9103196263313293e-02" rms="3.5179752111434937e-01" purity="4.2300584912300110e-01" nType="0">
          <Node pos="l" depth="2" NCoef="0" IVar="-1" Cut="0.0000000000000000e+00" cType="1" res="1.3547176122665405e-01" rms="4.1052913665771484e-01" purity="2.9545247554779053e-01" nType="-99"/>
          <Node pos="r" depth="2" NCoef="0" IVar="-1" Cut="0.0000000000000000e+00" cType="1" res="-5.4601305164396763e-03" rms="2.7265498042106628e-01" purity="5.0614362955093384e-01" nType="-99"/>
        </Node>
      </Node>
    </BinaryTree>
    <BinaryTree type="DecisionTree" boostWeight="1.0000000000000000e+00" itree="461">
      <Node pos="s" depth="0" NCoef="0" IVar="77" Cut="3.6183309555053711e-01" cType="1" res="-2.0010042935609818e-03" rms="2.4518305063247681e-01" purity="5.0064605474472046e-01" nType="0">
        <Node pos="l" depth="1" NCoef="0" IVar="16" Cut="1.1220167875289917e+00" cType="1" res="-9.6294246613979340e-03" rms="2.3881630599498749e-01" purity="5.2784478664398193e-01" nType="0">
          <Node pos="l" depth="2" NCoef="0" IVar="-1" Cut="0.0000000000000000e+00" cType="1" res="-4.8772487789392471e-03" rms="2.2998288273811340e-01" purity="5.3263175487518311e-01" nType="-99"/>
          <Node pos="r" depth="2" NCoef="0" IVar="-1" Cut="0.0000000000000000e+00" cType="1" res="2.0382223650813103e-02" rms="3.2408511638641357e-01" purity="4.6424040198326111e-01" nType="-99"/>
        </Node>
        <Node pos="r" depth="1" NCoef="0" IVar="84" Cut="-2.6476335525512695e-01" cType="1" res="4.9885962158441544e-02" rms="2.7926042675971985e-01" purity="3.1564530730247498e-01" nType="0">
          <Node pos="l" depth="2" NCoef="0" IVar="-1" Cut="0.0000000000000000e+00" cType="1" res="5.1782049238681793e-02" rms="3.7066400051116943e-01" purity="4.2427051067352295e-01" nType="-99"/>
          <Node pos="r" depth="2" NCoef="0" IVar="-1" Cut="0.0000000000000000e+00" cType="1" res="6.6115693189203739e-03" rms="2.3192486166954041e-01" purity="2.8012478351593018e-01" nType="-99"/>
        </Node>
      </Node>
    </BinaryTree>
    <BinaryTree type="DecisionTree" boostWeight="1.0000000000000000e+00" itree="462">
      <Node pos="s" depth="0" NCoef="0" IVar="2" Cut="3.0580782890319824e+00" cType="1" res="-8.0184970283880830e-04" rms="2.3669005930423737e-01" purity="4.9157834053039551e-01" nType="0">
        <Node pos="l" depth="1" NCoef="0" IVar="83" Cut="3.7661630660295486e-02" cType="1" res="-9.1299880295991898e-03" rms="2.2668477892875671e-01" purity="4.3158960342407227e-01" nType="0">
          <Node pos="l" depth="2" NCoef="0" IVar="-1" Cut="0.0000000000000000e+00" cType="1" res="2.1940954029560089e-03" rms="2.5613504648208618e-01" purity="4.8951089382171631e-01" nType="-99"/>
          <Node pos="r" depth="2" NCoef="0" IVar="-1" Cut="0.0000000000000000e+00" cType="1" res="-1.0542131029069424e-02" rms="1.7633579671382904e-01" purity="3.5228854417800903e-01" nType="-99"/>
        </Node>
        <Node pos="r" depth="1" NCoef="0" IVar="38" Cut="-1.0687916278839111e+00" cType="1" res="3.8800761103630066e-02" rms="2.7598983049392700e-01" purity="7.7684122323989868e-01" nType="0">
          <Node pos="l" depth="2" NCoef="0" IVar="-1" Cut="0.0000000000000000e+00" cType="1" res="3.1080761924386024e-02" rms="3.8542595505714417e-01" purity="5.7990735769271851e-01" nType="-99"/>
          <Node pos="r" depth="2" NCoef="0" IVar="-1" Cut="0.0000000000000000e+00" cType="1" res="6.8876398727297783e-03" rms="2.4868555366992950e-01" purity="8.1013083457946777e-01" nType="-99"/>
        </Node>
      </Node>
    </BinaryTree>
    <BinaryTree type="DecisionTree" boostWeight="1.0000000000000000e+00" itree="463">
      <Node pos="s" depth="0" NCoef="0" IVar="39" Cut="-1.8689321279525757e+00" cType="1" res="4.5179743319749832e-03" rms="2.5142914056777954e-01" purity="5.0012439489364624e-01" nType="0">
        <Node pos="l" depth="1" NCoef="0" IVar="17" Cut="1.4452977180480957e+00" cType="1" res="-1.1848254129290581e-02" rms="2.2105132043361664e-01" purity="5.9742045402526855e-01" nType="0">
          <Node pos="l" depth="2" NCoef="0" IVar="-1" Cut="0.0000000000000000e+00" cType="1" res="-3.8696933537721634e-02" rms="-nan" purity="3.0831340700387955e-02" nType="-99"/>
          <Node pos="r" depth="2" NCoef="0" IVar="-1" Cut="0.0000000000000000e+00" cType="1" res="2.5826555211097002e-03" rms="2.7773383259773254e-01" purity="7.7765035629272461e-01" nType="-99"/>
        </Node>
        <Node pos="r" depth="1" NCoef="0" IVar="34" Cut="-1.2228881120681763e+00" cType="1" res="2.4014664813876152e-02" rms="2.8216254711151123e-01" purity="3.8421806693077087e-01" nType="0">
          <Node pos="l" depth="2" NCoef="0" IVar="-1" Cut="0.0000000000000000e+00" cType="1" res="3.9552092552185059e-02" rms="3.1853082776069641e-01" purity="2.6882097125053406e-01" nType="-99"/>
          <Node pos="r" depth="2" NCoef="0" IVar="-1" Cut="0.0000000000000000e+00" cType="1" res="2.8230170719325542e-03" rms="2.7120578289031982e-01" purity="4.0944555401802063e-01" nType="-99"/>
        </Node>
      </Node>
    </BinaryTree>
    <BinaryTree type="DecisionTree" boostWeight="1.0000000000000000e+00" itree="464">
      <Node pos="s" depth="0" NCoef="0" IVar="3" Cut="5.4801101684570312e+00" cType="1" res="2.2002018522471189e-04" rms="2.4894371628761292e-01" purity="4.9588963389396667e-01" nType="0">
        <Node pos="l" depth="1" NCoef="0" IVar="40" Cut="5.3231996297836304e-01" cType="1" res="3.9505558088421822e-03" rms="2.5718489289283752e-01" purity="5.0686407089233398e-01" nType="0">
          <Node pos="l" depth="2" NCoef="0" IVar="-1" Cut="0.0000000000000000e+00" cType="1" res="8.5218958556652069e-03" rms="2.9475727677345276e-01" purity="5.9817981719970703e-01" nType="-99"/>
          <Node pos="r" depth="2" NCoef="0" IVar="-1" Cut="0.0000000000000000e+00" cType="1" res="-1.8003255827352405e-03" rms="2.3892308771610260e-01" purity="4.6828901767730713e-01" nType="-99"/>
        </Node>
        <Node pos="r" depth="1" NCoef="0" IVar="-1" Cut="0.0000000000000000e+00" cType="1" res="-4.7980818897485733e-02" rms="-nan" purity="4.3851915746927261e-02" nType="-99"/>
      </Node>
    </BinaryTree>
    <BinaryTree type="DecisionTree" boostWeight="1.0000000000000000e+00" itree="465">
      <Node pos="s" depth="0" NCoef="0" IVar="52" Cut="2.4874067306518555e+00" cType="1" res="3.4653581678867340e-04" rms="2.5002640485763550e-01" purity="5.0013786554336548e-01" nType="0">
        <Node pos="l" depth="1" NCoef="0" IVar="1" Cut="2.9650444984436035e+00" cType="1" res="-3.1027978286147118e-02" rms="-nan" purity="8.7246097624301910e-02" nType="-99"/>
        <Node pos="r" depth="1" NCoef="0" IVar="3" Cut="5.5370531082153320e+00" cType="1" res="6.0392604209482670e-03" rms="2.5957483053207397e-01" purity="5.2941280603408813e-01" nType="0">
          <Node pos="l" depth="2" NCoef="0" IVar="-1" Cut="0.0000000000000000e+00" cType="1" res="9.1393687762320042e-04" rms="2.5592240691184998e-01" purity="5.3453397750854492e-01" nType="-99"/>
          <Node pos="r" depth="2" NCoef="0" IVar="-1" Cut="0.0000000000000000e+00" cType="1" res="4.4787820428609848e-02" rms="3.6178690195083618e-01" purity="3.0031597614288330e-01" nType="-99"/>
        </Node>
      </Node>
    </BinaryTree>
    <BinaryTree type="DecisionTree" boostWeight="1.0000000000000000e+00" itree="466">
      <Node pos="s" depth="0" NCoef="0" IVar="27" Cut="6.9815677404403687e-01" cType="1" res="6.3887285068631172e-03" rms="2.5569403171539307e-01" purity="5.0760716199874878e-01" nType="0">
        <Node pos="l" depth="1" NCoef="0" IVar="-1" Cut="0.0000000000000000e+00" cType="1" res="4.8617221415042877e-02" rms="3.8646823167800903e-01" purity="2.7621448040008545e-01" nType="-99"/>
        <Node pos="r" depth="1" NCoef="0" IVar="37" Cut="3.1948736310005188e-01" cType="1" res="3.1404753681272268e-03" rms="2.4991317093372345e-01" purity="5.1468062400817871e-01" nType="0">
          <Node pos="l" depth="2" NCoef="0" IVar="-1" Cut="0.0000000000000000e+00" cType="1" res="3.9382129907608032e-03" rms="2.5789800286293030e-01" purity="5.2542418241500854e-01" nType="-99"/>
          <Node pos="r" depth="2" NCoef="0" IVar="-1" Cut="0.0000000000000000e+00" cType="1" res="-8.9991632848978043e-03" rms="2.1873107552528381e-01" purity="4.7915530204772949e-01" nType="-99"/>
        </Node>
      </Node>
    </BinaryTree>
    <BinaryTree type="DecisionTree" boostWeight="1.0000000000000000e+00" itree="467">
      <Node pos="s" depth="0" NCoef="0" IVar="36" Cut="-1.4150804281234741e+00" cType="1" res="8.1717991270124912e-04" rms="2.4826075136661530e-01" purity="4.9291744828224182e-01" nType="0">
        <Node pos="l" depth="1" NCoef="0" IVar="48" Cut="1.7157434225082397e+00" cType="1" res="-6.0427587479352951e-02" rms="-nan" purity="-3.0790420249104500e-02" nType="-99"/>
        <Node pos="r" depth="1" NCoef="0" IVar="73" Cut="2.2287461757659912e+00" cType="1" res="5.5358991958200932e-03" rms="2.6133304834365845e-01" purity="5.2886289358139038e-01" nType="0">
          <Node pos="l" depth="2" NCoef="0" IVar="-1" Cut="0.0000000000000000e+00" cType="1" res="-2.8159307315945625e-02" rms="8.5552908480167389e-02" purity="2.4467140436172485e-01" nType="-99"/>
          <Node pos="r" depth="2" NCoef="0" IVar="-1" Cut="0.0000000000000000e+00" cType="1" res="2.9037718195468187e-03" rms="2.6571145653724670e-01" purity="5.4137277603149414e-01" nType="-99"/>
        </Node>
      </Node>
    </BinaryTree>
    <BinaryTree type="DecisionTree" boostWeight="1.0000000000000000e+00" itree="468">
      <Node pos="s" depth="0" NCoef="0" IVar="79" Cut="1.3986464738845825e+00" cType="1" res="1.5665949322283268e-03" rms="2.4196603894233704e-01" purity="5.0675660371780396e-01" nType="0">
        <Node pos="l" depth="1" NCoef="0" IVar="20" Cut="2.5208353996276855e-01" cType="1" res="4.8398738726973534e-03" rms="2.4727784097194672e-01" purity="5.1811069250106812e-01" nType="0">
          <Node pos="l" depth="2" NCoef="0" IVar="-1" Cut="0.0000000000000000e+00" cType="1" res="3.1205280683934689e-03" rms="2.5482928752899170e-01" purity="5.3306049108505249e-01" nType="-99"/>
          <Node pos="r" depth="2" NCoef="0" IVar="-1" Cut="0.0000000000000000e+00" cType="1" res="-2.2810844704508781e-02" rms="6.6708728671073914e-02" purity="3.1410232186317444e-01" nType="-99"/>
        </Node>
        <Node pos="r" depth="1" NCoef="0" IVar="-1" Cut="0.0000000000000000e+00" cType="1" res="-6.8335458636283875e-02" rms="-nan" purity="5.6535780429840088e-02" nType="-99"/>
      </Node>
    </BinaryTree>
    <BinaryTree type="DecisionTree" boostWeight="1.0000000000000000e+00" itree="469">
      <Node pos="s" depth="0" NCoef="0" IVar="5" Cut="-1.9889588654041290e-01" cType="1" res="2.6890789158642292e-03" rms="2.4511168897151947e-01" purity="5.0602626800537109e-01" nType="0">
        <Node pos="l" depth="1" NCoef="0" IVar="-1" Cut="0.0000000000000000e+00" cType="1" res="-7.8924819827079773e-02" rms="-nan" purity="1.1109999381005764e-02" nType="-99"/>
        <Node pos="r" depth="1" NCoef="0" IVar="73" Cut="2.3146181106567383e+00" cType="1" res="5.4784542880952358e-03" rms="2.5211027264595032e-01" purity="5.1710426807403564e-01" nType="0">
          <Node pos="l" depth="2" NCoef="0" IVar="-1" Cut="0.0000000000000000e+00" cType="1" res="2.1835567429661751e-02" rms="3.4589824080467224e-01" purity="3.4824135899543762e-01" nType="-99"/>
          <Node pos="r" depth="2" NCoef="0" IVar="-1" Cut="0.0000000000000000e+00" cType="1" res="1.6867736121639609e-05" rms="2.4014437198638916e-01" purity="5.3385615348815918e-01" nType="-99"/>
        </Node>
      </Node>
    </BinaryTree>
    <BinaryTree type="DecisionTree" boostWeight="1.0000000000000000e+00" itree="470">
      <Node pos="s" depth="0" NCoef="0" IVar="57" Cut="-1.0670274496078491e+00" cType="1" res="-7.9831797629594803e-03" rms="2.3479034006595612e-01" purity="4.9319723248481750e-01" nType="0">
        <Node pos="l" depth="1" NCoef="0" IVar="14" Cut="-2.9561409354209900e-01" cType="1" res="-3.7453968077898026e-02" rms="-nan" purity="-1.4494257047772408e-03" nType="-99"/>
        <Node pos="r" depth="1" NCoef="0" IVar="81" Cut="-6.1183995008468628e-01" cType="1" res="4.9047562060877681e-04" rms="2.6178044080734253e-01" purity="5.7721018791198730e-01" nType="0">
          <Node pos="l" depth="2" NCoef="0" IVar="-1" Cut="0.0000000000000000e+00" cType="1" res="1.5749774174764752e-03" rms="2.6960155367851257e-01" purity="5.9543597698211670e-01" nType="-99"/>
          <Node pos="r" depth="2" NCoef="0" IVar="-1" Cut="0.0000000000000000e+00" cType="1" res="-3.5662431269884109e-02" rms="-nan" purity="1.8729636073112488e-01" nType="-99"/>
        </Node>
      </Node>
    </BinaryTree>
    <BinaryTree type="DecisionTree" boostWeight="1.0000000000000000e+00" itree="471">
      <Node pos="s" depth="0" NCoef="0" IVar="37" Cut="1.4361741542816162e+00" cType="1" res="3.1752830836921930e-03" rms="2.4351502954959869e-01" purity="5.0155395269393921e-01" nType="0">
        <Node pos="l" depth="1" NCoef="0" IVar="2" Cut="1.7441458702087402e+00" cType="1" res="9.5857460109982640e-05" rms="2.3832644522190094e-01" purity="5.0349193811416626e-01" nType="0">
          <Node pos="l" depth="2" NCoef="0" IVar="-1" Cut="0.0000000000000000e+00" cType="1" res="-1.9546350464224815e-02" rms="1.0518026351928711e-01" purity="1.2697145342826843e-01" nType="-99"/>
          <Node pos="r" depth="2" NCoef="0" IVar="-1" Cut="0.0000000000000000e+00" cType="1" res="2.5272076018154621e-03" rms="2.5395593047142029e-01" purity="5.7039982080459595e-01" nType="-99"/>
        </Node>
        <Node pos="r" depth="1" NCoef="0" IVar="-1" Cut="0.0000000000000000e+00" cType="1" res="4.5033361762762070e-02" rms="3.9526334404945374e-01" purity="4.0946659445762634e-01" nType="-99"/>
      </Node>
    </BinaryTree>
    <BinaryTree type="DecisionTree" boostWeight="1.0000000000000000e+00" itree="472">
      <Node pos="s" depth="0" NCoef="0" IVar="29" Cut="-9.6956565976142883e-02" cType="1" res="-2.9347392264753580e-03" rms="2.4664504826068878e-01" purity="4.9477899074554443e-01" nType="0">
        <Node pos="l" depth="1" NCoef="0" IVar="4" Cut="3.2712028026580811e+00" cType="1" res="1.0364820482209325e-03" rms="2.5371301174163818e-01" purity="5.0232088565826416e-01" nType="0">
          <Node pos="l" depth="2" NCoef="0" IVar="-1" Cut="0.0000000000000000e+00" cType="1" res="2.5563362985849380e-02" rms="2.9986006021499634e-01" purity="2.6160132884979248e-01" nType="-99"/>
          <Node pos="r" depth="2" NCoef="0" IVar="-1" Cut="0.0000000000000000e+00" cType="1" res="-1.0291734943166375e-03" rms="2.5016587972640991e-01" purity="5.1623004674911499e-01" nType="-99"/>
        </Node>
        <Node pos="r" depth="1" NCoef="0" IVar="39" Cut="-1.7596815824508667e+00" cType="1" res="-2.9257671907544136e-02" rms="-nan" purity="3.2318976521492004e-01" nType="-99"/>
      </Node>
    </BinaryTree>
    <BinaryTree type="DecisionTree" boostWeight="1.0000000000000000e+00" itree="473">
      <Node pos="s" depth="0" NCoef="0" IVar="82" Cut="1.9058076664805412e-02" cType="1" res="3.4591455478221178e-03" rms="2.5279253721237183e-01" purity="5.0098693370819092e-01" nType="0">
        <Node pos="l" depth="1" NCoef="0" IVar="-1" Cut="0.0000000000000000e+00" cType="1" res="-2.6145387440919876e-02" rms="-nan" purity="5.6004422903060913e-01" nType="-99"/>
        <Node pos="r" depth="1" NCoef="0" IVar="82" Cut="2.5066015124320984e-01" cType="1" res="5.8917505666613579e-03" rms="2.5643518567085266e-01" purity="4.9926045536994934e-01" nType="0">
          <Node pos="l" depth="2" NCoef="0" IVar="-1" Cut="0.0000000000000000e+00" cType="1" res="1.7961591482162476e-02" rms="3.0899131298065186e-01" purity="6.2383657693862915e-01" nType="-99"/>
          <Node pos="r" depth="2" NCoef="0" IVar="-1" Cut="0.0000000000000000e+00" cType="1" res="6.1922159511595964e-04" rms="2.5156024098396301e-01" purity="4.8984980583190918e-01" nType="-99"/>
        </Node>
      </Node>
    </BinaryTree>
    <BinaryTree type="DecisionTree" boostWeight="1.0000000000000000e+00" itree="474">
      <Node pos="s" depth="0" NCoef="0" IVar="17" Cut="-1.4537599086761475e+00" cType="1" res="-1.7188260098919272e-03" rms="2.3623634874820709e-01" purity="4.9696019291877747e-01" nType="0">
        <Node pos="l" depth="1" NCoef="0" IVar="-1" Cut="0.0000000000000000e+00" cType="1" res="1.0648262500762939e-01" rms="3.0465921759605408e-01" purity="1.2341514974832535e-01" nType="-99"/>
        <Node pos="r" depth="1" NCoef="0" IVar="42" Cut="-1.1156626790761948e-01" cType="1" res="-4.8594553954899311e-03" rms="2.3304955661296844e-01" purity="5.0881934165954590e-01" nType="0">
          <Node pos="l" depth="2" NCoef="0" IVar="-1" Cut="0.0000000000000000e+00" cType="1" res="4.5732744038105011e-03" rms="2.5820589065551758e-01" purity="5.4416763782501221e-01" nType="-99"/>
          <Node pos="r" depth="2" NCoef="0" IVar="-1" Cut="0.0000000000000000e+00" cType="1" res="-5.5647143162786961e-03" rms="2.1569411456584930e-01" purity="4.8762768507003784e-01" nType="-99"/>
        </Node>
      </Node>
    </BinaryTree>
    <BinaryTree type="DecisionTree" boostWeight="1.0000000000000000e+00" itree="475">
      <Node pos="s" depth="0" NCoef="0" IVar="55" Cut="1.0142446756362915e+00" cType="1" res="1.0328635573387146e-02" rms="2.6157993078231812e-01" purity="5.0270187854766846e-01" nType="0">
        <Node pos="l" depth="1" NCoef="0" IVar="80" Cut="-9.5214825868606567e-01" cType="1" res="4.0927927941083908e-02" rms="2.7430284023284912e-01" purity="2.8194403648376465e-01" nType="0">
          <Node pos="l" depth="2" NCoef="0" IVar="-1" Cut="0.0000000000000000e+00" cType="1" res="-9.2340941773727536e-04" rms="2.1162962913513184e-01" purity="3.1755080819129944e-01" nType="-99"/>
          <Node pos="r" depth="2" NCoef="0" IVar="-1" Cut="0.0000000000000000e+00" cType="1" res="5.5477373301982880e-02" rms="3.4019362926483154e-01" purity="2.2552686929702759e-01" nType="-99"/>
        </Node>
        <Node pos="r" depth="1" NCoef="0" IVar="61" Cut="1.2852241992950439e+00" cType="1" res="-1.3275608653202653e-03" rms="2.5560584664344788e-01" purity="5.8679527044296265e-01" nType="0">
          <Node pos="l" depth="2" NCoef="0" IVar="-1" Cut="0.0000000000000000e+00" cType="1" res="2.0654201507568359e-03" rms="2.6368406414985657e-01" purity="6.1725300550460815e-01" nType="-99"/>
          <Node pos="r" depth="2" NCoef="0" IVar="-1" Cut="0.0000000000000000e+00" cType="1" res="-2.6113418862223625e-02" rms="1.2175232172012329e-01" purity="2.7332666516304016e-01" nType="-99"/>
        </Node>
      </Node>
    </BinaryTree>
    <BinaryTree type="DecisionTree" boostWeight="1.0000000000000000e+00" itree="476">
      <Node pos="s" depth="0" NCoef="0" IVar="39" Cut="-1.2841675281524658e+00" cType="1" res="2.8932928107678890e-03" rms="2.5112348794937134e-01" purity="5.0814718008041382e-01" nType="0">
        <Node pos="l" depth="1" NCoef="0" IVar="64" Cut="1.2345679104328156e-02" cType="1" res="-7.0330677554011345e-03" rms="2.3992536962032318e-01" purity="5.6075870990753174e-01" nType="0">
          <Node pos="l" depth="2" NCoef="0" IVar="-1" Cut="0.0000000000000000e+00" cType="1" res="2.1261340007185936e-02" rms="2.9491260647773743e-01" purity="3.6896079778671265e-01" nType="-99"/>
          <Node pos="r" depth="2" NCoef="0" IVar="-1" Cut="0.0000000000000000e+00" cType="1" res="-3.3705793321132660e-03" rms="2.3675578832626343e-01" purity="5.6862205266952515e-01" nType="-99"/>
        </Node>
        <Node pos="r" depth="1" NCoef="0" IVar="17" Cut="-1.2219192981719971e+00" cType="1" res="3.6421276628971100e-02" rms="2.8315952420234680e-01" purity="3.3044269680976868e-01" nType="0">
          <Node pos="l" depth="2" NCoef="0" IVar="-1" Cut="0.0000000000000000e+00" cType="1" res="2.3885211348533630e-01" rms="3.2386663556098938e-01" purity="1.2622699141502380e-01" nType="-99"/>
          <Node pos="r" depth="2" NCoef="0" IVar="-1" Cut="0.0000000000000000e+00" cType="1" res="4.7160950489342213e-03" rms="2.6767554879188538e-01" purity="3.8443994522094727e-01" nType="-99"/>
        </Node>
      </Node>
    </BinaryTree>
    <BinaryTree type="DecisionTree" boostWeight="1.0000000000000000e+00" itree="477">
      <Node pos="s" depth="0" NCoef="0" IVar="56" Cut="-2.1696002781391144e-01" cType="1" res="1.7282607732340693e-03" rms="2.4681228399276733e-01" purity="5.0186175107955933e-01" nType="0">
        <Node pos="l" depth="1" NCoef="0" IVar="16" Cut="-1.2228523492813110e+00" cType="1" res="1.2885259464383125e-02" rms="2.6042956113815308e-01" purity="5.1420688629150391e-01" nType="0">
          <Node pos="l" depth="2" NCoef="0" IVar="-1" Cut="0.0000000000000000e+00" cType="1" res="2.2250233218073845e-02" rms="3.0179700255393982e-01" purity="3.7933519482612610e-01" nType="-99"/>
          <Node pos="r" depth="2" NCoef="0" IVar="-1" Cut="0.0000000000000000e+00" cType="1" res="1.1185661423951387e-03" rms="2.5132912397384644e-01" purity="5.3775238990783691e-01" nType="-99"/>
        </Node>
        <Node pos="r" depth="1" NCoef="0" IVar="18" Cut="-7.1559125185012817e-01" cType="1" res="-2.4629810824990273e-02" rms="2.0882840454578400e-01" purity="4.7269666194915771e-01" nType="0">
          <Node pos="l" depth="2" NCoef="0" IVar="-1" Cut="0.0000000000000000e+00" cType="1" res="-1.1339334771037102e-02" rms="1.8477901816368103e-01" purity="4.8383083939552307e-01" nType="-99"/>
          <Node pos="r" depth="2" NCoef="0" IVar="-1" Cut="0.0000000000000000e+00" cType="1" res="4.3679378926753998e-02" rms="3.9101654291152954e-01" purity="3.1937724351882935e-01" nType="-99"/>
        </Node>
      </Node>
    </BinaryTree>
    <BinaryTree type="DecisionTree" boostWeight="1.0000000000000000e+00" itree="478">
      <Node pos="s" depth="0" NCoef="0" IVar="2" Cut="2.8986005783081055e+00" cType="1" res="4.5295809395611286e-03" rms="2.4980062246322632e-01" purity="5.0479388236999512e-01" nType="0">
        <Node pos="l" depth="1" NCoef="0" IVar="1" Cut="3.2550244331359863e+00" cType="1" res="-5.2054119296371937e-03" rms="2.3649305105209351e-01" purity="4.2745906114578247e-01" nType="0">
          <Node pos="l" depth="2" NCoef="0" IVar="-1" Cut="0.0000000000000000e+00" cType="1" res="9.9831039551645517e-04" rms="2.4885305762290955e-01" purity="4.4182202219963074e-01" nType="-99"/>
          <Node pos="r" depth="2" NCoef="0" IVar="-1" Cut="0.0000000000000000e+00" cType="1" res="-4.7267388552427292e-02" rms="-nan" purity="2.4117119610309601e-01" nType="-99"/>
        </Node>
        <Node pos="r" depth="1" NCoef="0" IVar="17" Cut="1.2514925003051758e+00" cType="1" res="3.5457950085401535e-02" rms="2.8583648800849915e-01" purity="7.5048899650573730e-01" nType="0">
          <Node pos="l" depth="2" NCoef="0" IVar="-1" Cut="0.0000000000000000e+00" cType="1" res="5.6150425225496292e-02" rms="3.3830395340919495e-01" purity="2.0905619859695435e-01" nType="-99"/>
          <Node pos="r" depth="2" NCoef="0" IVar="-1" Cut="0.0000000000000000e+00" cType="1" res="6.0604689642786980e-03" rms="2.7321815490722656e-01" purity="8.3958369493484497e-01" nType="-99"/>
        </Node>
      </Node>
    </BinaryTree>
    <BinaryTree type="DecisionTree" boostWeight="1.0000000000000000e+00" itree="479">
      <Node pos="s" depth="0" NCoef="0" IVar="31" Cut="2.3526284694671631e+00" cType="1" res="2.6852348819375038e-03" rms="2.4808615446090698e-01" purity="4.9923777580261230e-01" nType="0">
        <Node pos="l" depth="1" NCoef="0" IVar="16" Cut="-3.0409675836563110e-01" cType="1" res="1.2647716701030731e-01" rms="4.1198793053627014e-01" purity="2.8245621919631958e-01" nType="0">
          <Node pos="l" depth="2" NCoef="0" IVar="-1" Cut="0.0000000000000000e+00" cType="1" res="1.9198207184672356e-02" rms="3.4759044647216797e-01" purity="1.9022955000400543e-01" nType="-99"/>
          <Node pos="r" depth="2" NCoef="0" IVar="-1" Cut="0.0000000000000000e+00" cType="1" res="6.9975107908248901e-02" rms="4.5973029732704163e-01" purity="3.8085904717445374e-01" nType="-99"/>
        </Node>
        <Node pos="r" depth="1" NCoef="0" IVar="52" Cut="2.3864405155181885e+00" cType="1" res="-2.7788046281784773e-03" rms="2.3678094148635864e-01" purity="5.0880628824234009e-01" nType="0">
          <Node pos="l" depth="2" NCoef="0" IVar="-1" Cut="0.0000000000000000e+00" cType="1" res="-4.0721967816352844e-02" rms="-nan" purity="4.1235517710447311e-02" nType="-99"/>
          <Node pos="r" depth="2" NCoef="0" IVar="-1" Cut="0.0000000000000000e+00" cType="1" res="2.6884188991971314e-04" rms="2.4340331554412842e-01" purity="5.2401214838027954e-01" nType="-99"/>
        </Node>
      </Node>
    </BinaryTree>
    <BinaryTree type="DecisionTree" boostWeight="1.0000000000000000e+00" itree="480">
      <Node pos="s" depth="0" NCoef="0" IVar="76" Cut="6.9811898469924927e-01" cType="1" res="7.9516042023897171e-03" rms="2.5259664654731750e-01" purity="5.0569021701812744e-01" nType="0">
        <Node pos="l" depth="1" NCoef="0" IVar="40" Cut="1.4864801168441772e+00" cType="1" res="1.6284314915537834e-02" rms="2.6725602149963379e-01" purity="5.8849340677261353e-01" nType="0">
          <Node pos="l" depth="2" NCoef="0" IVar="-1" Cut="0.0000000000000000e+00" cType="1" res="3.1174768228083849e-03" rms="2.5834238529205322e-01" purity="5.9858322143554688e-01" nType="-99"/>
          <Node pos="r" depth="2" NCoef="0" IVar="-1" Cut="0.0000000000000000e+00" cType="1" res="4.1010189801454544e-02" rms="3.7789201736450195e-01" purity="4.1112777590751648e-01" nType="-99"/>
        </Node>
        <Node pos="r" depth="1" NCoef="0" IVar="36" Cut="-2.5680527091026306e-01" cType="1" res="-2.6506435126066208e-02" rms="1.7554727196693420e-01" purity="1.6327622532844543e-01" nType="0">
          <Node pos="l" depth="2" NCoef="0" IVar="-1" Cut="0.0000000000000000e+00" cType="1" res="2.3463517427444458e-02" rms="2.1090319752693176e-01" purity="6.3555367290973663e-02" nType="-99"/>
          <Node pos="r" depth="2" NCoef="0" IVar="-1" Cut="0.0000000000000000e+00" cType="1" res="-1.8347376957535744e-02" rms="1.4926329255104065e-01" purity="2.1078982949256897e-01" nType="-99"/>
        </Node>
      </Node>
    </BinaryTree>
    <BinaryTree type="DecisionTree" boostWeight="1.0000000000000000e+00" itree="481">
      <Node pos="s" depth="0" NCoef="0" IVar="57" Cut="-8.3523929119110107e-01" cType="1" res="-8.5142897441983223e-03" rms="2.3499816656112671e-01" purity="4.9403485655784607e-01" nType="0">
        <Node pos="l" depth="1" NCoef="0" IVar="17" Cut="-3.3409610390663147e-01" cType="1" res="-3.9637517184019089e-02" rms="-nan" purity="-3.0960631556808949e-03" nType="-99"/>
        <Node pos="r" depth="1" NCoef="0" IVar="48" Cut="2.1633026599884033e+00" cType="1" res="9.0509094297885895e-04" rms="2.6579838991165161e-01" purity="5.8936613798141479e-01" nType="0">
          <Node pos="l" depth="2" NCoef="0" IVar="-1" Cut="0.0000000000000000e+00" cType="1" res="-4.8868651501834393e-03" rms="2.4709618091583252e-01" purity="4.7972765564918518e-01" nType="-99"/>
          <Node pos="r" depth="2" NCoef="0" IVar="-1" Cut="0.0000000000000000e+00" cType="1" res="7.3218755424022675e-03" rms="2.8594338893890381e-01" purity="7.2673386335372925e-01" nType="-99"/>
        </Node>
      </Node>
    </BinaryTree>
    <BinaryTree type="DecisionTree" boostWeight="1.0000000000000000e+00" itree="482">
      <Node pos="s" depth="0" NCoef="0" IVar="46" Cut="1.1374554634094238e+00" cType="1" res="6.1553181149065495e-03" rms="2.4745251238346100e-01" purity="5.0602418184280396e-01" nType="0">
        <Node pos="l" depth="1" NCoef="0" IVar="0" Cut="1.4872181415557861e+00" cType="1" res="6.1938969884067774e-04" rms="2.4202980101108551e-01" purity="5.2475392818450928e-01" nType="0">
          <Node pos="l" depth="2" NCoef="0" IVar="-1" Cut="0.0000000000000000e+00" cType="1" res="1.2679572682827711e-03" rms="2.4727584421634674e-01" purity="5.3228586912155151e-01" nType="-99"/>
          <Node pos="r" depth="2" NCoef="0" IVar="-1" Cut="0.0000000000000000e+00" cType="1" res="-4.4221352785825729e-02" rms="-nan" purity="2.2566697001457214e-01" nType="-99"/>
        </Node>
        <Node pos="r" depth="1" NCoef="0" IVar="36" Cut="1.2495294809341431e+00" cType="1" res="4.9740422517061234e-02" rms="2.8282436728477478e-01" purity="3.5856276750564575e-01" nType="0">
          <Node pos="l" depth="2" NCoef="0" IVar="-1" Cut="0.0000000000000000e+00" cType="1" res="7.3833212256431580e-02" rms="3.3878746628761292e-01" purity="1.8190346658229828e-01" nType="-99"/>
          <Node pos="r" depth="2" NCoef="0" IVar="-1" Cut="0.0000000000000000e+00" cType="1" res="1.0808694642037153e-03" rms="2.2109721601009369e-01" purity="4.9155825376510620e-01" nType="-99"/>
        </Node>
      </Node>
    </BinaryTree>
    <BinaryTree type="DecisionTree" boostWeight="1.0000000000000000e+00" itree="483">
      <Node pos="s" depth="0" NCoef="0" IVar="88" Cut="8.0466252565383911e-01" cType="1" res="-3.0350396991707385e-04" rms="2.4860212206840515e-01" purity="4.9895688891410828e-01" nType="0">
        <Node pos="l" depth="1" NCoef="0" IVar="-1" Cut="0.0000000000000000e+00" cType="1" res="-3.4222438931465149e-02" rms="-nan" purity="4.1613319516181946e-01" nType="-99"/>
        <Node pos="r" depth="1" NCoef="0" IVar="30" Cut="1.1604938507080078e+00" cType="1" res="2.8041389305144548e-03" rms="2.5256729125976562e-01" purity="5.0145977735519409e-01" nType="0">
          <Node pos="l" depth="2" NCoef="0" IVar="-1" Cut="0.0000000000000000e+00" cType="1" res="1.6917919274419546e-03" rms="2.5658008456230164e-01" purity="5.0897645950317383e-01" nType="-99"/>
          <Node pos="r" depth="2" NCoef="0" IVar="-1" Cut="0.0000000000000000e+00" cType="1" res="-4.0761679410934448e-02" rms="-nan" purity="1.4758051931858063e-01" nType="-99"/>
        </Node>
      </Node>
    </BinaryTree>
    <BinaryTree type="DecisionTree" boostWeight="1.0000000000000000e+00" itree="484">
      <Node pos="s" depth="0" NCoef="0" IVar="36" Cut="-1.4151693582534790e+00" cType="1" res="4.6564452350139618e-03" rms="2.4540236592292786e-01" purity="5.1080554723739624e-01" nType="0">
        <Node pos="l" depth="1" NCoef="0" IVar="59" Cut="-3.7523740530014038e-01" cType="1" res="-6.7833952605724335e-02" rms="-nan" purity="-3.6572068929672241e-02" nType="-99"/>
        <Node pos="r" depth="1" NCoef="0" IVar="15" Cut="-1.7830882966518402e-01" cType="1" res="9.7664752975106239e-03" rms="2.5852441787719727e-01" purity="5.4537832736968994e-01" nType="0">
          <Node pos="l" depth="2" NCoef="0" IVar="-1" Cut="0.0000000000000000e+00" cType="1" res="1.8742723390460014e-02" rms="2.6606923341751099e-01" purity="3.0523145198822021e-01" nType="-99"/>
          <Node pos="r" depth="2" NCoef="0" IVar="-1" Cut="0.0000000000000000e+00" cType="1" res="-1.5152922424022108e-04" rms="2.5505581498146057e-01" purity="6.2835156917572021e-01" nType="-99"/>
        </Node>
      </Node>
    </BinaryTree>
    <BinaryTree type="DecisionTree" boostWeight="1.0000000000000000e+00" itree="485">
      <Node pos="s" depth="0" NCoef="0" IVar="73" Cut="2.3146181106567383e+00" cType="1" res="8.7104568956419826e-04" rms="2.5043421983718872e-01" purity="4.9049001932144165e-01" nType="0">
        <Node pos="l" depth="1" NCoef="0" IVar="35" Cut="-1.4094243943691254e-01" cType="1" res="6.2192019075155258e-02" rms="3.4526297450065613e-01" purity="3.2695394754409790e-01" nType="0">
          <Node pos="l" depth="2" NCoef="0" IVar="-1" Cut="0.0000000000000000e+00" cType="1" res="-1.5662664372939616e-04" rms="2.6905614137649536e-01" purity="2.7844706177711487e-01" nType="-99"/>
          <Node pos="r" depth="2" NCoef="0" IVar="-1" Cut="0.0000000000000000e+00" cType="1" res="6.2741458415985107e-02" rms="4.3759286403656006e-01" purity="4.2788946628570557e-01" nType="-99"/>
        </Node>
        <Node pos="r" depth="1" NCoef="0" IVar="36" Cut="5.1886862516403198e-01" cType="1" res="-5.5766808800399303e-03" rms="2.3736186325550079e-01" purity="5.0768536329269409e-01" nType="0">
          <Node pos="l" depth="2" NCoef="0" IVar="-1" Cut="0.0000000000000000e+00" cType="1" res="-1.9663007929921150e-02" rms="7.0136167109012604e-02" purity="5.8746613562107086e-02" nType="-99"/>
          <Node pos="r" depth="2" NCoef="0" IVar="-1" Cut="0.0000000000000000e+00" cType="1" res="1.3823090121150017e-03" rms="2.6490718126296997e-01" purity="6.3260376453399658e-01" nType="-99"/>
        </Node>
      </Node>
    </BinaryTree>
    <BinaryTree type="DecisionTree" boostWeight="1.0000000000000000e+00" itree="486">
      <Node pos="s" depth="0" NCoef="0" IVar="19" Cut="1.5622066259384155e+00" cType="1" res="-9.7664939239621162e-03" rms="2.2876480221748352e-01" purity="4.8835253715515137e-01" nType="0">
        <Node pos="l" depth="1" NCoef="0" IVar="73" Cut="2.1843051910400391e+00" cType="1" res="-6.7680017091333866e-03" rms="2.3322951793670654e-01" purity="4.9517416954040527e-01" nType="0">
          <Node pos="l" depth="2" NCoef="0" IVar="-1" Cut="0.0000000000000000e+00" cType="1" res="-4.3270226567983627e-02" rms="-nan" purity="1.4642778038978577e-01" nType="-99"/>
          <Node pos="r" depth="2" NCoef="0" IVar="-1" Cut="0.0000000000000000e+00" cType="1" res="-1.1434177868068218e-03" rms="2.3746792972087860e-01" purity="5.0622296333312988e-01" nType="-99"/>
        </Node>
        <Node pos="r" depth="1" NCoef="0" IVar="-1" Cut="0.0000000000000000e+00" cType="1" res="-5.2128873765468597e-02" rms="-nan" purity="1.7539928853511810e-01" nType="-99"/>
      </Node>
    </BinaryTree>
    <BinaryTree type="DecisionTree" boostWeight="1.0000000000000000e+00" itree="487">
      <Node pos="s" depth="0" NCoef="0" IVar="3" Cut="4.3576073646545410e+00" cType="1" res="-2.0811641588807106e-03" rms="2.4567824602127075e-01" purity="4.9802017211914062e-01" nType="0">
        <Node pos="l" depth="1" NCoef="0" IVar="76" Cut="-7.9565477371215820e-01" cType="1" res="-2.9418008401989937e-02" rms="-nan" purity="1.7541545629501343e-01" nType="-99"/>
        <Node pos="r" depth="1" NCoef="0" IVar="4" Cut="3.3125102519989014e+00" cType="1" res="2.3605371825397015e-03" rms="2.5216457247734070e-01" purity="5.1418316364288330e-01" nType="0">
          <Node pos="l" depth="2" NCoef="0" IVar="-1" Cut="0.0000000000000000e+00" cType="1" res="2.8909860178828239e-02" rms="3.3412700891494751e-01" purity="2.6856756210327148e-01" nType="-99"/>
          <Node pos="r" depth="2" NCoef="0" IVar="-1" Cut="0.0000000000000000e+00" cType="1" res="-1.4183305902406573e-03" rms="2.4245911836624146e-01" purity="5.3590553998947144e-01" nType="-99"/>
        </Node>
      </Node>
    </BinaryTree>
    <BinaryTree type="DecisionTree" boostWeight="1.0000000000000000e+00" itree="488">
      <Node pos="s" depth="0" NCoef="0" IVar="8" Cut="-1.5513050556182861e-01" cType="1" res="-5.2972167031839490e-04" rms="2.4705414474010468e-01" purity="4.9244984984397888e-01" nType="0">
        <Node pos="l" depth="1" NCoef="0" IVar="28" Cut="-1.1386017799377441e+00" cType="1" res="2.6074207853525877e-03" rms="2.5380316376686096e-01" purity="5.0185024738311768e-01" nType="0">
          <Node pos="l" depth="2" NCoef="0" IVar="-1" Cut="0.0000000000000000e+00" cType="1" res="-5.9812329709529877e-04" rms="2.4850308895111084e-01" purity="5.0281381607055664e-01" nType="-99"/>
          <Node pos="r" depth="2" NCoef="0" IVar="-1" Cut="0.0000000000000000e+00" cType="1" res="2.1792091429233551e-02" rms="3.1256842613220215e-01" purity="4.8833507299423218e-01" nType="-99"/>
        </Node>
        <Node pos="r" depth="1" NCoef="0" IVar="-1" Cut="0.0000000000000000e+00" cType="1" res="-3.9982173591852188e-02" rms="-nan" purity="1.4981327950954437e-01" nType="-99"/>
      </Node>
    </BinaryTree>
    <BinaryTree type="DecisionTree" boostWeight="1.0000000000000000e+00" itree="489">
      <Node pos="s" depth="0" NCoef="0" IVar="31" Cut="2.3826830387115479e+00" cType="1" res="4.3992297723889351e-03" rms="2.4893952906131744e-01" purity="4.9322569370269775e-01" nType="0">
        <Node pos="l" depth="1" NCoef="0" IVar="-1" Cut="0.0000000000000000e+00" cType="1" res="-4.0155909955501556e-02" rms="-nan" purity="5.3772777318954468e-02" nType="-99"/>
        <Node pos="r" depth="1" NCoef="0" IVar="34" Cut="-1.3384516239166260e+00" cType="1" res="8.8591342791914940e-03" rms="2.5410717725753784e-01" purity="5.1138663291931152e-01" nType="0">
          <Node pos="l" depth="2" NCoef="0" IVar="-1" Cut="0.0000000000000000e+00" cType="1" res="2.0280990749597549e-02" rms="2.8363162279129028e-01" purity="3.4631660580635071e-01" nType="-99"/>
          <Node pos="r" depth="2" NCoef="0" IVar="-1" Cut="0.0000000000000000e+00" cType="1" res="7.0872411015443504e-06" rms="2.4740211665630341e-01" purity="5.4101359844207764e-01" nType="-99"/>
        </Node>
      </Node>
    </BinaryTree>
    <BinaryTree type="DecisionTree" boostWeight="1.0000000000000000e+00" itree="490">
      <Node pos="s" depth="0" NCoef="0" IVar="7" Cut="-7.7909445762634277e-01" cType="1" res="3.0546647030860186e-03" rms="2.5350433588027954e-01" purity="4.9567720293998718e-01" nType="0">
        <Node pos="l" depth="1" NCoef="0" IVar="2" Cut="9.2536050081253052e-01" cType="1" res="-1.0476128663867712e-03" rms="2.4828846752643585e-01" purity="4.9625837802886963e-01" nType="0">
          <Node pos="l" depth="2" NCoef="0" IVar="-1" Cut="0.0000000000000000e+00" cType="1" res="6.6223129630088806e-02" rms="3.7866950035095215e-01" purity="1.8842014670372009e-01" nType="-99"/>
          <Node pos="r" depth="2" NCoef="0" IVar="-1" Cut="0.0000000000000000e+00" cType="1" res="-1.4984711306169629e-03" rms="2.4194711446762085e-01" purity="5.0647670030593872e-01" nType="-99"/>
        </Node>
        <Node pos="r" depth="1" NCoef="0" IVar="-1" Cut="0.0000000000000000e+00" cType="1" res="5.2007667720317841e-02" rms="3.7934732437133789e-01" purity="4.7121492028236389e-01" nType="-99"/>
      </Node>
    </BinaryTree>
    <BinaryTree type="DecisionTree" boostWeight="1.0000000000000000e+00" itree="491">
      <Node pos="s" depth="0" NCoef="0" IVar="42" Cut="-5.9251928329467773e-01" cType="1" res="3.9555220864713192e-03" rms="2.5605994462966919e-01" purity="5.0433212518692017e-01" nType="0">
        <Node pos="l" depth="1" NCoef="0" IVar="-1" Cut="0.0000000000000000e+00" cType="1" res="4.5333847403526306e-02" rms="4.1124060750007629e-01" purity="5.6189697980880737e-01" nType="-99"/>
        <Node pos="r" depth="1" NCoef="0" IVar="62" Cut="-4.8043006658554077e-01" cType="1" res="-1.6096853651106358e-03" rms="2.4591116607189178e-01" purity="5.0192993879318237e-01" nType="0">
          <Node pos="l" depth="2" NCoef="0" IVar="-1" Cut="0.0000000000000000e+00" cType="1" res="3.0572492629289627e-02" rms="3.7026894092559814e-01" purity="5.8746236562728882e-01" nType="-99"/>
          <Node pos="r" depth="2" NCoef="0" IVar="-1" Cut="0.0000000000000000e+00" cType="1" res="-1.5763433184474707e-03" rms="2.4046438932418823e-01" purity="4.9933540821075439e-01" nType="-99"/>
        </Node>
      </Node>
    </BinaryTree>
    <BinaryTree type="DecisionTree" boostWeight="1.0000000000000000e+00" itree="492">
      <Node pos="s" depth="0" NCoef="0" IVar="77" Cut="1.2890152931213379e+00" cType="1" res="6.3297274755313993e-04" rms="2.5030866265296936e-01" purity="4.9882856011390686e-01" nType="0">
        <Node pos="l" depth="1" NCoef="0" IVar="5" Cut="5.2126216888427734e-01" cType="1" res="-5.6778928264975548e-03" rms="2.4423816800117493e-01" purity="5.2051866054534912e-01" nType="0">
          <Node pos="l" depth="2" NCoef="0" IVar="-1" Cut="0.0000000000000000e+00" cType="1" res="-5.3909607231616974e-04" rms="2.5177028775215149e-01" purity="5.3176212310791016e-01" nType="-99"/>
          <Node pos="r" depth="2" NCoef="0" IVar="-1" Cut="0.0000000000000000e+00" cType="1" res="-5.6849878281354904e-02" rms="-nan" purity="6.5423697233200073e-02" nType="-99"/>
        </Node>
        <Node pos="r" depth="1" NCoef="0" IVar="56" Cut="-3.3515074849128723e-01" cType="1" res="8.3059012889862061e-02" rms="3.0749157071113586e-01" purity="2.1553343534469604e-01" nType="0">
          <Node pos="l" depth="2" NCoef="0" IVar="-1" Cut="0.0000000000000000e+00" cType="1" res="7.8517749905586243e-02" rms="3.7205666303634644e-01" purity="2.6109918951988220e-01" nType="-99"/>
          <Node pos="r" depth="2" NCoef="0" IVar="-1" Cut="0.0000000000000000e+00" cType="1" res="-1.9181562587618828e-02" rms="-nan" purity="1.2076503038406372e-01" nType="-99"/>
        </Node>
      </Node>
    </BinaryTree>
    <BinaryTree type="DecisionTree" boostWeight="1.0000000000000000e+00" itree="493">
      <Node pos="s" depth="0" NCoef="0" IVar="27" Cut="1.5491153001785278e+00" cType="1" res="-1.1944916332140565e-04" rms="2.4322916567325592e-01" purity="4.9206164479255676e-01" nType="0">
        <Node pos="l" depth="1" NCoef="0" IVar="38" Cut="-1.4541734457015991e+00" cType="1" res="-3.5909906029701233e-02" rms="1.8898506462574005e-01" purity="2.7765381336212158e-01" nType="0">
          <Node pos="l" depth="2" NCoef="0" IVar="-1" Cut="0.0000000000000000e+00" cType="1" res="3.7816457450389862e-02" rms="3.1232574582099915e-01" purity="2.8734540939331055e-01" nType="-99"/>
          <Node pos="r" depth="2" NCoef="0" IVar="-1" Cut="0.0000000000000000e+00" cType="1" res="-1.6294863075017929e-02" rms="1.6552643477916718e-01" purity="2.7658888697624207e-01" nType="-99"/>
        </Node>
        <Node pos="r" depth="1" NCoef="0" IVar="69" Cut="6.9895118474960327e-01" cType="1" res="1.4671037904918194e-02" rms="2.6096177101135254e-01" purity="5.8066618442535400e-01" nType="0">
          <Node pos="l" depth="2" NCoef="0" IVar="-1" Cut="0.0000000000000000e+00" cType="1" res="5.3273666650056839e-02" rms="3.9708402752876282e-01" purity="4.1435199975967407e-01" nType="-99"/>
          <Node pos="r" depth="2" NCoef="0" IVar="-1" Cut="0.0000000000000000e+00" cType="1" res="3.1208335421979427e-03" rms="2.5302910804748535e-01" purity="5.8706021308898926e-01" nType="-99"/>
        </Node>
      </Node>
    </BinaryTree>
    <BinaryTree type="DecisionTree" boostWeight="1.0000000000000000e+00" itree="494">
      <Node pos="s" depth="0" NCoef="0" IVar="20" Cut="-4.6952870488166809e-01" cType="1" res="2.6157933752983809e-03" rms="2.4930922687053680e-01" purity="4.9629047513008118e-01" nType="0">
        <Node pos="l" depth="1" NCoef="0" IVar="-1" Cut="0.0000000000000000e+00" cType="1" res="3.9700724184513092e-02" rms="3.6680674552917480e-01" purity="6.2545353174209595e-01" nType="-99"/>
        <Node pos="r" depth="1" NCoef="0" IVar="34" Cut="-1.4155664443969727e+00" cType="1" res="-1.2689585564658046e-03" rms="2.4318909645080566e-01" purity="4.9169653654098511e-01" nType="0">
          <Node pos="l" depth="2" NCoef="0" IVar="-1" Cut="0.0000000000000000e+00" cType="1" res="-2.6250081136822701e-02" rms="-nan" purity="2.1317762136459351e-01" nType="-99"/>
          <Node pos="r" depth="2" NCoef="0" IVar="-1" Cut="0.0000000000000000e+00" cType="1" res="1.5934985131025314e-03" rms="2.5792330503463745e-01" purity="5.2125877141952515e-01" nType="-99"/>
        </Node>
      </Node>
    </BinaryTree>
    <BinaryTree type="DecisionTree" boostWeight="1.0000000000000000e+00" itree="495">
      <Node pos="s" depth="0" NCoef="0" IVar="60" Cut="-6.7032217979431152e-01" cType="1" res="-1.1078008683398366e-03" rms="2.4679023027420044e-01" purity="4.9973919987678528e-01" nType="0">
        <Node pos="l" depth="1" NCoef="0" IVar="57" Cut="-2.1618779003620148e-01" cType="1" res="-7.1633495390415192e-03" rms="2.3498739302158356e-01" purity="5.1749569177627563e-01" nType="0">
          <Node pos="l" depth="2" NCoef="0" IVar="-1" Cut="0.0000000000000000e+00" cType="1" res="-2.8941856697201729e-02" rms="-nan" purity="2.2878212854266167e-02" nType="-99"/>
          <Node pos="r" depth="2" NCoef="0" IVar="-1" Cut="0.0000000000000000e+00" cType="1" res="4.0972791612148285e-04" rms="2.6528874039649963e-01" purity="6.2236416339874268e-01" nType="-99"/>
        </Node>
        <Node pos="r" depth="1" NCoef="0" IVar="16" Cut="-3.1617432832717896e-02" cType="1" res="7.8767284750938416e-02" rms="3.5923093557357788e-01" purity="2.6552405953407288e-01" nType="0">
          <Node pos="l" depth="2" NCoef="0" IVar="-1" Cut="0.0000000000000000e+00" cType="1" res="3.6718535702675581e-03" rms="2.8955477476119995e-01" purity="2.0284065604209900e-01" nType="-99"/>
          <Node pos="r" depth="2" NCoef="0" IVar="-1" Cut="0.0000000000000000e+00" cType="1" res="6.7248418927192688e-02" rms="4.1901376843452454e-01" purity="3.5071277618408203e-01" nType="-99"/>
        </Node>
      </Node>
    </BinaryTree>
    <BinaryTree type="DecisionTree" boostWeight="1.0000000000000000e+00" itree="496">
      <Node pos="s" depth="0" NCoef="0" IVar="7" Cut="-7.3655140399932861e-01" cType="1" res="1.2224453967064619e-03" rms="2.4785864353179932e-01" purity="5.0219249725341797e-01" nType="0">
        <Node pos="l" depth="1" NCoef="0" IVar="13" Cut="-1.4540985822677612e+00" cType="1" res="-1.7115337541326880e-03" rms="2.4424722790718079e-01" purity="5.0406229496002197e-01" nType="0">
          <Node pos="l" depth="2" NCoef="0" IVar="-1" Cut="0.0000000000000000e+00" cType="1" res="-4.3041530996561050e-02" rms="-nan" purity="1.4981827139854431e-01" nType="-99"/>
          <Node pos="r" depth="2" NCoef="0" IVar="-1" Cut="0.0000000000000000e+00" cType="1" res="9.1303588123992085e-04" rms="2.5484704971313477e-01" purity="5.2378237247467041e-01" nType="-99"/>
        </Node>
        <Node pos="r" depth="1" NCoef="0" IVar="-1" Cut="0.0000000000000000e+00" cType="1" res="3.7416797131299973e-02" rms="3.5228461027145386e-01" purity="4.1707572340965271e-01" nType="-99"/>
      </Node>
    </BinaryTree>
    <BinaryTree type="DecisionTree" boostWeight="1.0000000000000000e+00" itree="497">
      <Node pos="s" depth="0" NCoef="0" IVar="62" Cut="4.0113785862922668e-01" cType="1" res="8.5365921258926392e-03" rms="2.5079956650733948e-01" purity="5.0569945573806763e-01" nType="0">
        <Node pos="l" depth="1" NCoef="0" IVar="17" Cut="1.2924362421035767e+00" cType="1" res="5.9491228312253952e-03" rms="2.4527898430824280e-01" purity="5.0778537988662720e-01" nType="0">
          <Node pos="l" depth="2" NCoef="0" IVar="-1" Cut="0.0000000000000000e+00" cType="1" res="-2.5557758286595345e-02" rms="-nan" purity="1.0608009994029999e-02" nType="-99"/>
          <Node pos="r" depth="2" NCoef="0" IVar="-1" Cut="0.0000000000000000e+00" cType="1" res="4.4612800702452660e-03" rms="2.8794920444488525e-01" purity="6.6640448570251465e-01" nType="-99"/>
        </Node>
        <Node pos="r" depth="1" NCoef="0" IVar="-1" Cut="0.0000000000000000e+00" cType="1" res="3.9865732192993164e-02" rms="4.2348933219909668e-01" purity="4.0483787655830383e-01" nType="-99"/>
      </Node>
    </BinaryTree>
    <BinaryTree type="DecisionTree" boostWeight="1.0000000000000000e+00" itree="498">
      <Node pos="s" depth="0" NCoef="0" IVar="0" Cut="1.2050373554229736e+00" cType="1" res="1.4580138958990574e-03" rms="2.4439772963523865e-01" purity="4.9659821391105652e-01" nType="0">
        <Node pos="l" depth="1" NCoef="0" IVar="43" Cut="1.2345679104328156e-02" cType="1" res="-5.3686657920479774e-03" rms="2.3652110993862152e-01" purity="5.1656067371368408e-01" nType="0">
          <Node pos="l" depth="2" NCoef="0" IVar="-1" Cut="0.0000000000000000e+00" cType="1" res="2.2456886246800423e-02" rms="3.2490989565849304e-01" purity="4.0420383214950562e-01" nType="-99"/>
          <Node pos="r" depth="2" NCoef="0" IVar="-1" Cut="0.0000000000000000e+00" cType="1" res="-3.0719949863851070e-03" rms="2.3100803792476654e-01" purity="5.2159523963928223e-01" nType="-99"/>
        </Node>
        <Node pos="r" depth="1" NCoef="0" IVar="25" Cut="1.0743081569671631e+00" cType="1" res="4.6739041805267334e-02" rms="2.8722202777862549e-01" purity="3.6418834328651428e-01" nType="0">
          <Node pos="l" depth="2" NCoef="0" IVar="-1" Cut="0.0000000000000000e+00" cType="1" res="3.8487873971462250e-03" rms="2.3554661870002747e-01" purity="3.5939961671829224e-01" nType="-99"/>
          <Node pos="r" depth="2" NCoef="0" IVar="-1" Cut="0.0000000000000000e+00" cType="1" res="8.1900432705879211e-02" rms="3.9416885375976562e-01" purity="3.8051626086235046e-01" nType="-99"/>
        </Node>
      </Node>
    </BinaryTree>
    <BinaryTree type="DecisionTree" boostWeight="1.0000000000000000e+00" itree="499">
      <Node pos="s" depth="0" NCoef="0" IVar="5" Cut="-7.8499481081962585e-02" cType="1" res="1.6383491456508636e-03" rms="2.5195318460464478e-01" purity="4.9724408984184265e-01" nType="0">
        <Node pos="l" depth="1" NCoef="0" IVar="56" Cut="-1.1068042516708374e+00" cType="1" res="-4.0473870933055878e-02" rms="-nan" purity="1.6263625025749207e-01" nType="-99"/>
        <Node pos="r" depth="1" NCoef="0" IVar="57" Cut="-1.3378331661224365e+00" cType="1" res="7.8243194147944450e-03" rms="2.6435524225234985e-01" purity="5.2108281850814819e-01" nType="0">
          <Node pos="l" depth="2" NCoef="0" IVar="-1" Cut="0.0000000000000000e+00" cType="1" res="3.6846593022346497e-02" rms="2.8905886411666870e-01" purity="1.3554964959621429e-01" nType="-99"/>
          <Node pos="r" depth="2" NCoef="0" IVar="-1" Cut="0.0000000000000000e+00" cType="1" res="2.6212737429887056e-04" rms="2.6041179895401001e-01" purity="5.6646150350570679e-01" nType="-99"/>
        </Node>
      </Node>
    </BinaryTree>
    <BinaryTree type="DecisionTree" boostWeight="1.0000000000000000e+00" itree="500">
      <Node pos="s" depth="0" NCoef="0" IVar="48" Cut="6.9289785623550415e-01" cType="1" res="5.5347313173115253e-03" rms="2.5544565916061401e-01" purity="5.0262343883514404e-01" nType="0">
        <Node pos="l" depth="1" NCoef="0" IVar="-1" Cut="0.0000000000000000e+00" cType="1" res="-5.8689847588539124e-02" rms="-nan" purity="1.0423877090215683e-01" nType="-99"/>
        <Node pos="r" depth="1" NCoef="0" IVar="52" Cut="2.4036049842834473e+00" cType="1" res="8.2219559699296951e-03" rms="2.6044124364852905e-01" purity="5.1196306943893433e-01" nType="0">
          <Node pos="l" depth="2" NCoef="0" IVar="-1" Cut="0.0000000000000000e+00" cType="1" res="3.6815427243709564e-02" rms="3.4090426564216614e-01" purity="2.4847273528575897e-01" nType="-99"/>
          <Node pos="r" depth="2" NCoef="0" IVar="-1" Cut="0.0000000000000000e+00" cType="1" res="1.3768519274890423e-03" rms="2.5532060861587524e-01" purity="5.2433604001998901e-01" nType="-99"/>
        </Node>
      </Node>
    </BinaryTree>
    <BinaryTree type="DecisionTree" boostWeight="1.0000000000000000e+00" itree="501">
      <Node pos="s" depth="0" NCoef="0" IVar="3" Cut="5.5107936859130859e+00" cType="1" res="-4.9878526479005814e-03" rms="2.3756743967533112e-01" purity="4.9549877643585205e-01" nType="0">
        <Node pos="l" depth="1" NCoef="0" IVar="48" Cut="9.9082189798355103e-01" cType="1" res="-8.9629692956805229e-03" rms="2.3116512596607208e-01" purity="5.0035959482192993e-01" nType="0">
          <Node pos="l" depth="2" NCoef="0" IVar="-1" Cut="0.0000000000000000e+00" cType="1" res="-3.0121797695755959e-02" rms="6.5698683261871338e-02" purity="1.4649297297000885e-01" nType="-99"/>
          <Node pos="r" depth="2" NCoef="0" IVar="-1" Cut="0.0000000000000000e+00" cType="1" res="-7.4618763756006956e-04" rms="2.4105995893478394e-01" purity="5.3735816478729248e-01" nType="-99"/>
        </Node>
        <Node pos="r" depth="1" NCoef="0" IVar="-1" Cut="0.0000000000000000e+00" cType="1" res="5.8369204401969910e-02" rms="3.8904413580894470e-01" purity="2.9881852865219116e-01" nType="-99"/>
      </Node>
    </BinaryTree>
    <BinaryTree type="DecisionTree" boostWeight="1.0000000000000000e+00" itree="502">
      <Node pos="s" depth="0" NCoef="0" IVar="25" Cut="1.4105631113052368e+00" cType="1" res="7.1204635314643383e-03" rms="2.4656943976879120e-01" purity="5.1458734273910522e-01" nType="0">
        <Node pos="l" depth="1" NCoef="0" IVar="17" Cut="-1.4537624120712280e+00" cType="1" res="1.0361689142882824e-02" rms="2.5308445096015930e-01" purity="5.2451264858245850e-01" nType="0">
          <Node pos="l" depth="2" NCoef="0" IVar="-1" Cut="0.0000000000000000e+00" cType="1" res="9.9322050809860229e-02" rms="3.3964064717292786e-01" purity="1.5000829100608826e-01" nType="-99"/>
          <Node pos="r" depth="2" NCoef="0" IVar="-1" Cut="0.0000000000000000e+00" cType="1" res="2.2129036951810122e-03" rms="2.4900580942630768e-01" purity="5.3680843114852905e-01" nType="-99"/>
        </Node>
        <Node pos="r" depth="1" NCoef="0" IVar="-1" Cut="0.0000000000000000e+00" cType="1" res="-5.5188469588756561e-02" rms="-nan" purity="1.1942619085311890e-01" nType="-99"/>
      </Node>
    </BinaryTree>
    <BinaryTree type="DecisionTree" boostWeight="1.0000000000000000e+00" itree="503">
      <Node pos="s" depth="0" NCoef="0" IVar="8" Cut="-5.2356547117233276e-01" cType="1" res="-4.3038097210228443e-03" rms="2.3638531565666199e-01" purity="4.9855589866638184e-01" nType="0">
        <Node pos="l" depth="1" NCoef="0" IVar="76" Cut="7.7754074335098267e-01" cType="1" res="-7.4531848076730967e-04" rms="2.4361522495746613e-01" purity="5.1011782884597778e-01" nType="0">
          <Node pos="l" depth="2" NCoef="0" IVar="-1" Cut="0.0000000000000000e+00" cType="1" res="2.2932249121367931e-03" rms="2.6183399558067322e-01" purity="5.9092319011688232e-01" nType="-99"/>
          <Node pos="r" depth="2" NCoef="0" IVar="-1" Cut="0.0000000000000000e+00" cType="1" res="-1.4556651934981346e-02" rms="1.3632245361804962e-01" purity="1.6567327082157135e-01" nType="-99"/>
        </Node>
        <Node pos="r" depth="1" NCoef="0" IVar="-1" Cut="0.0000000000000000e+00" cType="1" res="-3.4498270601034164e-02" rms="-nan" purity="1.8332612514495850e-01" nType="-99"/>
      </Node>
    </BinaryTree>
    <BinaryTree type="DecisionTree" boostWeight="1.0000000000000000e+00" itree="504">
      <Node pos="s" depth="0" NCoef="0" IVar="9" Cut="1.1111111193895340e-01" cType="1" res="-1.3877883611712605e-04" rms="2.4298195540904999e-01" purity="4.9976631999015808e-01" nType="0">
        <Node pos="l" depth="1" NCoef="0" IVar="14" Cut="1.4056485891342163e+00" cType="1" res="-2.5694402866065502e-03" rms="2.3858870565891266e-01" purity="5.0370287895202637e-01" nType="0">
          <Node pos="l" depth="2" NCoef="0" IVar="-1" Cut="0.0000000000000000e+00" cType="1" res="-4.1660641727503389e-05" rms="2.4116832017898560e-01" purity="5.1043456792831421e-01" nType="-99"/>
          <Node pos="r" depth="2" NCoef="0" IVar="-1" Cut="0.0000000000000000e+00" cType="1" res="-3.0005376785993576e-02" rms="-nan" purity="2.2088347375392914e-01" nType="-99"/>
        </Node>
        <Node pos="r" depth="1" NCoef="0" IVar="-1" Cut="0.0000000000000000e+00" cType="1" res="4.5229744166135788e-02" rms="3.7398090958595276e-01" purity="3.2796612381935120e-01" nType="-99"/>
      </Node>
    </BinaryTree>
    <BinaryTree type="DecisionTree" boostWeight="1.0000000000000000e+00" itree="505">
      <Node pos="s" depth="0" NCoef="0" IVar="69" Cut="8.4410172700881958e-01" cType="1" res="4.7614146023988724e-03" rms="2.4408347904682159e-01" purity="4.9844691157341003e-01" nType="0">
        <Node pos="l" depth="1" NCoef="0" IVar="57" Cut="6.7251414060592651e-01" cType="1" res="-2.2183233872056007e-02" rms="-nan" purity="1.6331253945827484e-01" nType="-99"/>
        <Node pos="r" depth="1" NCoef="0" IVar="1" Cut="2.7977366447448730e+00" cType="1" res="1.0961907915771008e-02" rms="2.5635451078414917e-01" purity="5.3382945060729980e-01" nType="0">
          <Node pos="l" depth="2" NCoef="0" IVar="-1" Cut="0.0000000000000000e+00" cType="1" res="1.0052811354398727e-02" rms="2.8345185518264771e-01" purity="4.5700919628143311e-01" nType="-99"/>
          <Node pos="r" depth="2" NCoef="0" IVar="-1" Cut="0.0000000000000000e+00" cType="1" res="-2.1216175518929958e-03" rms="2.3063822090625763e-01" purity="5.9605383872985840e-01" nType="-99"/>
        </Node>
      </Node>
    </BinaryTree>
    <BinaryTree type="DecisionTree" boostWeight="1.0000000000000000e+00" itree="506">
      <Node pos="s" depth="0" NCoef="0" IVar="4" Cut="3.2503008842468262e+00" cType="1" res="6.0254395939409733e-03" rms="2.5954985618591309e-01" purity="5.0564974546432495e-01" nType="0">
        <Node pos="l" depth="1" NCoef="0" IVar="-1" Cut="0.0000000000000000e+00" cType="1" res="3.3015806227922440e-02" rms="3.7763181328773499e-01" purity="2.6871028542518616e-01" nType="-99"/>
        <Node pos="r" depth="1" NCoef="0" IVar="63" Cut="-8.9698113501071930e-02" cType="1" res="2.9158315155655146e-03" rms="2.5382694602012634e-01" purity="5.1400828361511230e-01" nType="0">
          <Node pos="l" depth="2" NCoef="0" IVar="-1" Cut="0.0000000000000000e+00" cType="1" res="-6.2785604968667030e-03" rms="2.0883640646934509e-01" purity="5.0217247009277344e-01" nType="-99"/>
          <Node pos="r" depth="2" NCoef="0" IVar="-1" Cut="0.0000000000000000e+00" cType="1" res="5.3034047596156597e-03" rms="2.7600947022438049e-01" purity="5.2095109224319458e-01" nType="-99"/>
        </Node>
      </Node>
    </BinaryTree>
    <BinaryTree type="DecisionTree" boostWeight="1.0000000000000000e+00" itree="507">
      <Node pos="s" depth="0" NCoef="0" IVar="57" Cut="-1.3764237165451050e+00" cType="1" res="-8.6764777079224586e-03" rms="2.3419934511184692e-01" purity="4.9766167998313904e-01" nType="0">
        <Node pos="l" depth="1" NCoef="0" IVar="36" Cut="9.1792412102222443e-02" cType="1" res="-5.1014076918363571e-02" rms="-nan" purity="-1.9634591415524483e-02" nType="-99"/>
        <Node pos="r" depth="1" NCoef="0" IVar="77" Cut="1.1354403495788574e+00" cType="1" res="-3.0023790895938873e-03" rms="2.5086769461631775e-01" purity="5.4338300228118896e-01" nType="0">
          <Node pos="l" depth="2" NCoef="0" IVar="-1" Cut="0.0000000000000000e+00" cType="1" res="-2.6739316526800394e-03" rms="2.4593906104564667e-01" purity="5.6694436073303223e-01" nType="-99"/>
          <Node pos="r" depth="2" NCoef="0" IVar="-1" Cut="0.0000000000000000e+00" cType="1" res="2.7480611577630043e-02" rms="2.9145562648773193e-01" purity="2.9229164123535156e-01" nType="-99"/>
        </Node>
      </Node>
    </BinaryTree>
    <BinaryTree type="DecisionTree" boostWeight="1.0000000000000000e+00" itree="508">
      <Node pos="s" depth="0" NCoef="0" IVar="67" Cut="9.6661579608917236e-01" cType="1" res="-1.9710629712790251e-03" rms="2.4403265118598938e-01" purity="4.9354326725006104e-01" nType="0">
        <Node pos="l" depth="1" NCoef="0" IVar="18" Cut="-8.2644349336624146e-01" cType="1" res="1.3250793330371380e-02" rms="2.6007327437400818e-01" purity="5.6116420030593872e-01" nType="0">
          <Node pos="l" depth="2" NCoef="0" IVar="-1" Cut="0.0000000000000000e+00" cType="1" res="1.5501255402341485e-03" rms="2.4691900610923767e-01" purity="5.7095712423324585e-01" nType="-99"/>
          <Node pos="r" depth="2" NCoef="0" IVar="-1" Cut="0.0000000000000000e+00" cType="1" res="3.6552254110574722e-02" rms="3.7937298417091370e-01" purity="4.2948892712593079e-01" nType="-99"/>
        </Node>
        <Node pos="r" depth="1" NCoef="0" IVar="15" Cut="-7.1964442729949951e-01" cType="1" res="-2.2746574133634567e-02" rms="2.1855814754962921e-01" purity="4.0125098824501038e-01" nType="0">
          <Node pos="l" depth="2" NCoef="0" IVar="-1" Cut="0.0000000000000000e+00" cType="1" res="2.0328897982835770e-02" rms="2.5638547539710999e-01" purity="1.9520230591297150e-01" nType="-99"/>
          <Node pos="r" depth="2" NCoef="0" IVar="-1" Cut="0.0000000000000000e+00" cType="1" res="-1.3535108417272568e-02" rms="1.9801597297191620e-01" purity="4.8142525553703308e-01" nType="-99"/>
        </Node>
      </Node>
    </BinaryTree>
    <BinaryTree type="DecisionTree" boostWeight="1.0000000000000000e+00" itree="509">
      <Node pos="s" depth="0" NCoef="0" IVar="48" Cut="9.0352100133895874e-01" cType="1" res="4.4246455654501915e-03" rms="2.5269457697868347e-01" purity="4.9298658967018127e-01" nType="0">
        <Node pos="l" depth="1" NCoef="0" IVar="37" Cut="-1.2618453502655029e+00" cType="1" res="7.9315878450870514e-02" rms="3.3636307716369629e-01" purity="2.6353612542152405e-01" nType="0">
          <Node pos="l" depth="2" NCoef="0" IVar="-1" Cut="0.0000000000000000e+00" cType="1" res="7.6871261000633240e-02" rms="3.8754871487617493e-01" purity="3.4571826457977295e-01" nType="-99"/>
          <Node pos="r" depth="2" NCoef="0" IVar="-1" Cut="0.0000000000000000e+00" cType="1" res="1.1021080426871777e-02" rms="2.9440158605575562e-01" purity="2.2429938614368439e-01" nType="-99"/>
        </Node>
        <Node pos="r" depth="1" NCoef="0" IVar="88" Cut="8.8829934597015381e-01" cType="1" res="-2.8729590121656656e-03" rms="2.4176900088787079e-01" purity="5.1534485816955566e-01" nType="0">
          <Node pos="l" depth="2" NCoef="0" IVar="-1" Cut="0.0000000000000000e+00" cType="1" res="8.5275545716285706e-03" rms="2.8322166204452515e-01" purity="5.8125901222229004e-01" nType="-99"/>
          <Node pos="r" depth="2" NCoef="0" IVar="-1" Cut="0.0000000000000000e+00" cType="1" res="-3.9137178100645542e-03" rms="2.2716754674911499e-01" purity="4.9570435285568237e-01" nType="-99"/>
        </Node>
      </Node>
    </BinaryTree>
    <BinaryTree type="DecisionTree" boostWeight="1.0000000000000000e+00" itree="510">
      <Node pos="s" depth="0" NCoef="0" IVar="73" Cut="2.1892852783203125e+00" cType="1" res="-4.2299479246139526e-03" rms="2.4366664886474609e-01" purity="4.9625596404075623e-01" nType="0">
        <Node pos="l" depth="1" NCoef="0" IVar="-1" Cut="0.0000000000000000e+00" cType="1" res="-4.1599325835704803e-02" rms="-nan" purity="1.5599329769611359e-01" nType="-99"/>
        <Node pos="r" depth="1" NCoef="0" IVar="73" Cut="2.3127198219299316e+00" cType="1" res="-5.6425103684887290e-04" rms="2.4807332456111908e-01" purity="5.0738120079040527e-01" nType="0">
          <Node pos="l" depth="2" NCoef="0" IVar="-1" Cut="0.0000000000000000e+00" cType="1" res="2.4755928665399551e-02" rms="3.6162829399108887e-01" purity="3.7447634339332581e-01" nType="-99"/>
          <Node pos="r" depth="2" NCoef="0" IVar="-1" Cut="0.0000000000000000e+00" cType="1" res="-1.6873297281563282e-03" rms="2.3850035667419434e-01" purity="5.1564663648605347e-01" nType="-99"/>
        </Node>
      </Node>
    </BinaryTree>
    <BinaryTree type="DecisionTree" boostWeight="1.0000000000000000e+00" itree="511">
      <Node pos="s" depth="0" NCoef="0" IVar="14" Cut="1.3694446086883545e+00" cType="1" res="1.9796283449977636e-03" rms="2.4918261170387268e-01" purity="5.0316137075424194e-01" nType="0">
        <Node pos="l" depth="1" NCoef="0" IVar="0" Cut="1.3386213779449463e+00" cType="1" res="5.4871914908289909e-03" rms="2.5337773561477661e-01" purity="5.1031178236007690e-01" nType="0">
          <Node pos="l" depth="2" NCoef="0" IVar="-1" Cut="0.0000000000000000e+00" cType="1" res="7.8251017839647830e-05" rms="2.4769520759582520e-01" purity="5.2187323570251465e-01" nType="-99"/>
          <Node pos="r" depth="2" NCoef="0" IVar="-1" Cut="0.0000000000000000e+00" cType="1" res="2.9336117208003998e-02" rms="3.1154066324234009e-01" purity="3.5528498888015747e-01" nType="-99"/>
        </Node>
        <Node pos="r" depth="1" NCoef="0" IVar="-1" Cut="0.0000000000000000e+00" cType="1" res="-2.6840917766094208e-02" rms="-nan" purity="2.8218856453895569e-01" nType="-99"/>
      </Node>
    </BinaryTree>
    <BinaryTree type="DecisionTree" boostWeight="1.0000000000000000e+00" itree="512">
      <Node pos="s" depth="0" NCoef="0" IVar="52" Cut="2.3154821395874023e+00" cType="1" res="-9.3125412240624428e-03" rms="2.3437094688415527e-01" purity="4.9154075980186462e-01" nType="0">
        <Node pos="l" depth="1" NCoef="0" IVar="-1" Cut="0.0000000000000000e+00" cType="1" res="-6.0759071260690689e-02" rms="-nan" purity="-2.5708884000778198e-02" nType="-99"/>
        <Node pos="r" depth="1" NCoef="0" IVar="13" Cut="-1.4926644563674927e+00" cType="1" res="-6.1158640310168266e-03" rms="2.4105630815029144e-01" purity="5.0253736972808838e-01" nType="0">
          <Node pos="l" depth="2" NCoef="0" IVar="-1" Cut="0.0000000000000000e+00" cType="1" res="-5.4249342530965805e-02" rms="-nan" purity="1.5136069059371948e-01" nType="-99"/>
          <Node pos="r" depth="2" NCoef="0" IVar="-1" Cut="0.0000000000000000e+00" cType="1" res="-1.0183207923546433e-03" rms="2.4820443987846375e-01" purity="5.1094937324523926e-01" nType="-99"/>
        </Node>
      </Node>
    </BinaryTree>
    <BinaryTree type="DecisionTree" boostWeight="1.0000000000000000e+00" itree="513">
      <Node pos="s" depth="0" NCoef="0" IVar="3" Cut="5.4555673599243164e+00" cType="1" res="2.3172514047473669e-03" rms="2.4013032019138336e-01" purity="5.0293666124343872e-01" nType="0">
        <Node pos="l" depth="1" NCoef="0" IVar="48" Cut="1.1546425819396973e+00" cType="1" res="5.8238953351974487e-03" rms="2.4830737709999084e-01" purity="5.1423740386962891e-01" nType="0">
          <Node pos="l" depth="2" NCoef="0" IVar="-1" Cut="0.0000000000000000e+00" cType="1" res="1.6914376989006996e-02" rms="3.0277332663536072e-01" purity="2.9105427861213684e-01" nType="-99"/>
          <Node pos="r" depth="2" NCoef="0" IVar="-1" Cut="0.0000000000000000e+00" cType="1" res="-4.0306898881681263e-04" rms="2.3603658378124237e-01" purity="5.5607461929321289e-01" nType="-99"/>
        </Node>
        <Node pos="r" depth="1" NCoef="0" IVar="-1" Cut="0.0000000000000000e+00" cType="1" res="-4.4873200356960297e-02" rms="-nan" purity="6.8561688065528870e-02" nType="-99"/>
      </Node>
    </BinaryTree>
    <BinaryTree type="DecisionTree" boostWeight="1.0000000000000000e+00" itree="514">
      <Node pos="s" depth="0" NCoef="0" IVar="1" Cut="2.4636070728302002e+00" cType="1" res="1.1840534862130880e-03" rms="2.4841709434986115e-01" purity="4.9290689826011658e-01" nType="0">
        <Node pos="l" depth="1" NCoef="0" IVar="82" Cut="5.0165891647338867e-01" cType="1" res="2.6937469840049744e-02" rms="2.8015223145484924e-01" purity="3.3934763073921204e-01" nType="0">
          <Node pos="l" depth="2" NCoef="0" IVar="-1" Cut="0.0000000000000000e+00" cType="1" res="2.6261961087584496e-02" rms="3.2830581068992615e-01" purity="4.7310471534729004e-01" nType="-99"/>
          <Node pos="r" depth="2" NCoef="0" IVar="-1" Cut="0.0000000000000000e+00" cType="1" res="2.3859459906816483e-03" rms="2.6021102070808411e-01" purity="2.9775890707969666e-01" nType="-99"/>
        </Node>
        <Node pos="r" depth="1" NCoef="0" IVar="20" Cut="-4.6952870488166809e-01" cType="1" res="-8.4064956754446030e-03" rms="2.3478794097900391e-01" purity="5.5009227991104126e-01" nType="0">
          <Node pos="l" depth="2" NCoef="0" IVar="-1" Cut="0.0000000000000000e+00" cType="1" res="3.2145805656909943e-02" rms="3.4625148773193359e-01" purity="6.9696617126464844e-01" nType="-99"/>
          <Node pos="r" depth="2" NCoef="0" IVar="-1" Cut="0.0000000000000000e+00" cType="1" res="-4.1543105617165565e-03" rms="2.2808460891246796e-01" purity="5.4398792982101440e-01" nType="-99"/>
        </Node>
      </Node>
    </BinaryTree>
    <BinaryTree type="DecisionTree" boostWeight="1.0000000000000000e+00" itree="515">
      <Node pos="s" depth="0" NCoef="0" IVar="78" Cut="1.4826129674911499e+00" cType="1" res="1.5519523294642568e-03" rms="2.4109502136707306e-01" purity="5.0159853696823120e-01" nType="0">
        <Node pos="l" depth="1" NCoef="0" IVar="48" Cut="1.0262651443481445e+00" cType="1" res="4.4892202131450176e-03" rms="2.4477604031562805e-01" purity="5.1381850242614746e-01" nType="0">
          <Node pos="l" depth="2" NCoef="0" IVar="-1" Cut="0.0000000000000000e+00" cType="1" res="2.3933045566082001e-02" rms="3.2727304100990295e-01" purity="2.9008504748344421e-01" nType="-99"/>
          <Node pos="r" depth="2" NCoef="0" IVar="-1" Cut="0.0000000000000000e+00" cType="1" res="-1.1389708379283547e-03" rms="2.2996725142002106e-01" purity="5.4459786415100098e-01" nType="-99"/>
        </Node>
        <Node pos="r" depth="1" NCoef="0" IVar="-1" Cut="0.0000000000000000e+00" cType="1" res="-6.0375787317752838e-02" rms="-nan" purity="-2.9920188710093498e-02" nType="-99"/>
      </Node>
    </BinaryTree>
    <BinaryTree type="DecisionTree" boostWeight="1.0000000000000000e+00" itree="516">
      <Node pos="s" depth="0" NCoef="0" IVar="18" Cut="-1.5070828199386597e+00" cType="1" res="4.4357920996844769e-03" rms="2.5313290953636169e-01" purity="4.9529966711997986e-01" nType="0">
        <Node pos="l" depth="1" NCoef="0" IVar="55" Cut="-1.4540901184082031e+00" cType="1" res="-6.6373324953019619e-03" rms="2.3899941146373749e-01" purity="5.3290385007858276e-01" nType="0">
          <Node pos="l" depth="2" NCoef="0" IVar="-1" Cut="0.0000000000000000e+00" cType="1" res="3.0601078644394875e-02" rms="3.3432996273040771e-01" purity="3.9426043629646301e-01" nType="-99"/>
          <Node pos="r" depth="2" NCoef="0" IVar="-1" Cut="0.0000000000000000e+00" cType="1" res="-4.2527536861598492e-03" rms="2.2888696193695068e-01" purity="5.4339098930358887e-01" nType="-99"/>
        </Node>
        <Node pos="r" depth="1" NCoef="0" IVar="84" Cut="1.6831846535205841e-01" cType="1" res="3.6086119711399078e-02" rms="2.8741109371185303e-01" purity="3.8781556487083435e-01" nType="0">
          <Node pos="l" depth="2" NCoef="0" IVar="-1" Cut="0.0000000000000000e+00" cType="1" res="5.2606640383601189e-03" rms="2.6464831829071045e-01" purity="3.8956409692764282e-01" nType="-99"/>
          <Node pos="r" depth="2" NCoef="0" IVar="-1" Cut="0.0000000000000000e+00" cType="1" res="3.6660477519035339e-02" rms="3.4530162811279297e-01" purity="3.8186347484588623e-01" nType="-99"/>
        </Node>
      </Node>
    </BinaryTree>
    <BinaryTree type="DecisionTree" boostWeight="1.0000000000000000e+00" itree="517">
      <Node pos="s" depth="0" NCoef="0" IVar="77" Cut="9.4220918416976929e-01" cType="1" res="2.2947588004171848e-03" rms="2.4789130687713623e-01" purity="5.0117981433868408e-01" nType="0">
        <Node pos="l" depth="1" NCoef="0" IVar="0" Cut="1.3461948633193970e+00" cType="1" res="7.4507449753582478e-03" rms="2.5919240713119507e-01" purity="5.3395438194274902e-01" nType="0">
          <Node pos="l" depth="2" NCoef="0" IVar="-1" Cut="0.0000000000000000e+00" cType="1" res="8.3584245294332504e-04" rms="2.5420293211936951e-01" purity="5.4314559698104858e-01" nType="-99"/>
          <Node pos="r" depth="2" NCoef="0" IVar="-1" Cut="0.0000000000000000e+00" cType="1" res="2.8627982363104820e-02" rms="3.1394305825233459e-01" purity="4.0347295999526978e-01" nType="-99"/>
        </Node>
        <Node pos="r" depth="1" NCoef="0" IVar="81" Cut="-2.0279469490051270e+00" cType="1" res="-2.8714638203382492e-02" rms="-nan" purity="1.5937891602516174e-01" nType="-99"/>
      </Node>
    </BinaryTree>
    <BinaryTree type="DecisionTree" boostWeight="1.0000000000000000e+00" itree="518">
      <Node pos="s" depth="0" NCoef="0" IVar="64" Cut="1.2345679104328156e-02" cType="1" res="9.9228275939822197e-04" rms="2.4099361896514893e-01" purity="4.9966743588447571e-01" nType="0">
        <Node pos="l" depth="1" NCoef="0" IVar="-1" Cut="0.0000000000000000e+00" cType="1" res="2.5491777807474136e-02" rms="2.9997327923774719e-01" purity="3.2725572586059570e-01" nType="-99"/>
        <Node pos="r" depth="1" NCoef="0" IVar="27" Cut="3.1939723491668701e+00" cType="1" res="-2.1908523049205542e-03" rms="2.3780523240566254e-01" purity="5.0647532939910889e-01" nType="0">
          <Node pos="l" depth="2" NCoef="0" IVar="-1" Cut="0.0000000000000000e+00" cType="1" res="-1.8986664945259690e-03" rms="2.3107385635375977e-01" purity="4.9209731817245483e-01" nType="-99"/>
          <Node pos="r" depth="2" NCoef="0" IVar="-1" Cut="0.0000000000000000e+00" cType="1" res="2.0342288538813591e-02" rms="3.2452139258384705e-01" purity="7.4693936109542847e-01" nType="-99"/>
        </Node>
      </Node>
    </BinaryTree>
    <BinaryTree type="DecisionTree" boostWeight="1.0000000000000000e+00" itree="519">
      <Node pos="s" depth="0" NCoef="0" IVar="0" Cut="1.3068689107894897e+00" cType="1" res="1.0139001533389091e-03" rms="2.3974965512752533e-01" purity="5.0546228885650635e-01" nType="0">
        <Node pos="l" depth="1" NCoef="0" IVar="55" Cut="-7.9836452007293701e-01" cType="1" res="5.3190928883850574e-03" rms="2.4645814299583435e-01" purity="5.2415394783020020e-01" nType="0">
          <Node pos="l" depth="2" NCoef="0" IVar="-1" Cut="0.0000000000000000e+00" cType="1" res="1.6726786270737648e-02" rms="2.5752547383308411e-01" purity="2.9256978631019592e-01" nType="-99"/>
          <Node pos="r" depth="2" NCoef="0" IVar="-1" Cut="0.0000000000000000e+00" cType="1" res="-1.0128028225153685e-03" rms="2.4293637275695801e-01" purity="5.7998025417327881e-01" nType="-99"/>
        </Node>
        <Node pos="r" depth="1" NCoef="0" IVar="57" Cut="1.4454613924026489e+00" cType="1" res="-5.8319360017776489e-02" rms="9.3550480902194977e-02" purity="2.4785789847373962e-01" nType="0">
          <Node pos="l" depth="2" NCoef="0" IVar="-1" Cut="0.0000000000000000e+00" cType="1" res="-1.0087387263774872e-01" rms="-nan" purity="-9.4563014805316925e-02" nType="-99"/>
          <Node pos="r" depth="2" NCoef="0" IVar="-1" Cut="0.0000000000000000e+00" cType="1" res="1.2492917478084564e-02" rms="3.3385565876960754e-01" purity="5.3761625289916992e-01" nType="-99"/>
        </Node>
      </Node>
    </BinaryTree>
    <BinaryTree type="DecisionTree" boostWeight="1.0000000000000000e+00" itree="520">
      <Node pos="s" depth="0" NCoef="0" IVar="57" Cut="-1.1057019233703613e+00" cType="1" res="2.7796637732535601e-03" rms="2.4502776563167572e-01" purity="5.0604575872421265e-01" nType="0">
        <Node pos="l" depth="1" NCoef="0" IVar="18" Cut="-2.1565449237823486e+00" cType="1" res="-2.4516990408301353e-02" rms="-nan" purity="1.9936501979827881e-02" nType="-99"/>
        <Node pos="r" depth="1" NCoef="0" IVar="34" Cut="4.7310766577720642e-01" cType="1" res="9.1539965942502022e-03" rms="2.6732790470123291e-01" purity="5.8638828992843628e-01" nType="0">
          <Node pos="l" depth="2" NCoef="0" IVar="-1" Cut="0.0000000000000000e+00" cType="1" res="1.4319346286356449e-02" rms="3.0645722150802612e-01" purity="3.5064798593521118e-01" nType="-99"/>
          <Node pos="r" depth="2" NCoef="0" IVar="-1" Cut="0.0000000000000000e+00" cType="1" res="-4.9627677071839571e-04" rms="2.5348314642906189e-01" purity="6.5672743320465088e-01" nType="-99"/>
        </Node>
      </Node>
    </BinaryTree>
    <BinaryTree type="DecisionTree" boostWeight="1.0000000000000000e+00" itree="521">
      <Node pos="s" depth="0" NCoef="0" IVar="5" Cut="4.1364565491676331e-01" cType="1" res="9.8492177203297615e-03" rms="2.5000721216201782e-01" purity="5.0785595178604126e-01" nType="0">
        <Node pos="l" depth="1" NCoef="0" IVar="37" Cut="1.3990780115127563e+00" cType="1" res="1.7387652769684792e-02" rms="2.6055285334587097e-01" purity="5.4267990589141846e-01" nType="0">
          <Node pos="l" depth="2" NCoef="0" IVar="-1" Cut="0.0000000000000000e+00" cType="1" res="6.6457907669246197e-03" rms="2.6271572709083557e-01" purity="5.5013608932495117e-01" nType="-99"/>
          <Node pos="r" depth="2" NCoef="0" IVar="-1" Cut="0.0000000000000000e+00" cType="1" res="-2.8001567348837852e-02" rms="1.3266834616661072e-01" purity="2.8222388029098511e-01" nType="-99"/>
        </Node>
        <Node pos="r" depth="1" NCoef="0" IVar="10" Cut="3.2665295600891113e+00" cType="1" res="-3.4481778740882874e-02" rms="1.6894246637821198e-01" purity="3.0306801199913025e-01" nType="0">
          <Node pos="l" depth="2" NCoef="0" IVar="-1" Cut="0.0000000000000000e+00" cType="1" res="-2.0732900127768517e-02" rms="2.2051608189940453e-02" purity="2.5152921676635742e-01" nType="-99"/>
          <Node pos="r" depth="2" NCoef="0" IVar="-1" Cut="0.0000000000000000e+00" cType="1" res="1.5288238413631916e-02" rms="2.9797607660293579e-01" purity="4.2971828579902649e-01" nType="-99"/>
        </Node>
      </Node>
    </BinaryTree>
    <BinaryTree type="DecisionTree" boostWeight="1.0000000000000000e+00" itree="522">
      <Node pos="s" depth="0" NCoef="0" IVar="78" Cut="1.4445203542709351e+00" cType="1" res="3.0029648914933205e-03" rms="2.5309732556343079e-01" purity="4.9687689542770386e-01" nType="0">
        <Node pos="l" depth="1" NCoef="0" IVar="72" Cut="1.0740740299224854e+00" cType="1" res="-1.2587641831487417e-03" rms="2.4750640988349915e-01" purity="5.1429039239883423e-01" nType="0">
          <Node pos="l" depth="2" NCoef="0" IVar="-1" Cut="0.0000000000000000e+00" cType="1" res="4.9794581718742847e-04" rms="2.5148949027061462e-01" purity="5.2099037170410156e-01" nType="-99"/>
          <Node pos="r" depth="2" NCoef="0" IVar="-1" Cut="0.0000000000000000e+00" cType="1" res="-4.4725023210048676e-02" rms="-nan" purity="2.3751534521579742e-01" nType="-99"/>
        </Node>
        <Node pos="r" depth="1" NCoef="0" IVar="37" Cut="-1.1118286848068237e+00" cType="1" res="7.5650259852409363e-02" rms="3.2585477828979492e-01" purity="2.0003855228424072e-01" nType="0">
          <Node pos="l" depth="2" NCoef="0" IVar="-1" Cut="0.0000000000000000e+00" cType="1" res="9.4137489795684814e-02" rms="4.3956458568572998e-01" purity="2.7541625499725342e-01" nType="-99"/>
          <Node pos="r" depth="2" NCoef="0" IVar="-1" Cut="0.0000000000000000e+00" cType="1" res="3.5579458344727755e-03" rms="2.0938700437545776e-01" purity="1.5681248903274536e-01" nType="-99"/>
        </Node>
      </Node>
    </BinaryTree>
    <BinaryTree type="DecisionTree" boostWeight="1.0000000000000000e+00" itree="523">
      <Node pos="s" depth="0" NCoef="0" IVar="82" Cut="1.5579024553298950e+00" cType="1" res="7.2366613894701004e-03" rms="2.6037585735321045e-01" purity="5.0320124626159668e-01" nType="0">
        <Node pos="l" depth="1" NCoef="0" IVar="3" Cut="5.5040206909179688e+00" cType="1" res="1.0638091713190079e-02" rms="2.6724103093147278e-01" purity="5.1712554693222046e-01" nType="0">
          <Node pos="l" depth="2" NCoef="0" IVar="-1" Cut="0.0000000000000000e+00" cType="1" res="2.5526348035782576e-03" rms="2.6377150416374207e-01" purity="5.2269721031188965e-01" nType="-99"/>
          <Node pos="r" depth="2" NCoef="0" IVar="-1" Cut="0.0000000000000000e+00" cType="1" res="4.1594158858060837e-02" rms="3.6494088172912598e-01" purity="2.8801059722900391e-01" nType="-99"/>
        </Node>
        <Node pos="r" depth="1" NCoef="0" IVar="-1" Cut="0.0000000000000000e+00" cType="1" res="-3.5009097307920456e-02" rms="-nan" purity="1.5902432799339294e-01" nType="-99"/>
      </Node>
    </BinaryTree>
    <BinaryTree type="DecisionTree" boostWeight="1.0000000000000000e+00" itree="524">
      <Node pos="s" depth="0" NCoef="0" IVar="6" Cut="9.5406305789947510e-01" cType="1" res="-2.9867002740502357e-03" rms="2.4054825305938721e-01" purity="4.9176916480064392e-01" nType="0">
        <Node pos="l" depth="1" NCoef="0" IVar="-1" Cut="0.0000000000000000e+00" cType="1" res="3.7295814603567123e-02" rms="3.5061115026473999e-01" purity="2.9922276735305786e-01" nType="-99"/>
        <Node pos="r" depth="1" NCoef="0" IVar="60" Cut="-1.0474377870559692e+00" cType="1" res="-6.7209061235189438e-03" rms="2.3440776765346527e-01" purity="4.9930414557456970e-01" nType="0">
          <Node pos="l" depth="2" NCoef="0" IVar="-1" Cut="0.0000000000000000e+00" cType="1" res="6.2374194385483861e-04" rms="2.4870289862155914e-01" purity="5.4716384410858154e-01" nType="-99"/>
          <Node pos="r" depth="2" NCoef="0" IVar="-1" Cut="0.0000000000000000e+00" cType="1" res="-1.9678380340337753e-02" rms="1.1423562467098236e-01" purity="2.2842241823673248e-01" nType="-99"/>
        </Node>
      </Node>
    </BinaryTree>
    <BinaryTree type="DecisionTree" boostWeight="1.0000000000000000e+00" itree="525">
      <Node pos="s" depth="0" NCoef="0" IVar="83" Cut="-1.4024069905281067e-01" cType="1" res="8.0144228413701057e-03" rms="2.6016342639923096e-01" purity="5.0045567750930786e-01" nType="0">
        <Node pos="l" depth="1" NCoef="0" IVar="36" Cut="-2.9437431693077087e-01" cType="1" res="3.4903511404991150e-02" rms="3.0191719532012939e-01" purity="5.9291219711303711e-01" nType="0">
          <Node pos="l" depth="2" NCoef="0" IVar="-1" Cut="0.0000000000000000e+00" cType="1" res="5.6066565215587616e-02" rms="3.6976128816604614e-01" purity="2.2933945059776306e-01" nType="-99"/>
          <Node pos="r" depth="2" NCoef="0" IVar="-1" Cut="0.0000000000000000e+00" cType="1" res="4.4319424778223038e-03" rms="2.8036996722221375e-01" purity="6.7436498403549194e-01" nType="-99"/>
        </Node>
        <Node pos="r" depth="1" NCoef="0" IVar="0" Cut="1.4167184829711914e+00" cType="1" res="-2.4021624121814966e-03" rms="2.4125657975673676e-01" purity="4.6463888883590698e-01" nType="0">
          <Node pos="l" depth="2" NCoef="0" IVar="-1" Cut="0.0000000000000000e+00" cType="1" res="5.5085006169974804e-04" rms="2.4810133874416351e-01" purity="4.7602322697639465e-01" nType="-99"/>
          <Node pos="r" depth="2" NCoef="0" IVar="-1" Cut="0.0000000000000000e+00" cType="1" res="-4.4388700276613235e-02" rms="-nan" purity="1.8691179156303406e-01" nType="-99"/>
        </Node>
      </Node>
    </BinaryTree>
    <BinaryTree type="DecisionTree" boostWeight="1.0000000000000000e+00" itree="526">
      <Node pos="s" depth="0" NCoef="0" IVar="60" Cut="-5.6520980596542358e-01" cType="1" res="8.1041445955634117e-03" rms="2.5187414884567261e-01" purity="5.0720614194869995e-01" nType="0">
        <Node pos="l" depth="1" NCoef="0" IVar="37" Cut="1.2823184728622437e+00" cType="1" res="4.9586873501539230e-03" rms="2.4521026015281677e-01" purity="5.1953792572021484e-01" nType="0">
          <Node pos="l" depth="2" NCoef="0" IVar="-1" Cut="0.0000000000000000e+00" cType="1" res="3.4743879223242402e-04" rms="2.3646917939186096e-01" purity="5.2767521142959595e-01" nType="-99"/>
          <Node pos="r" depth="2" NCoef="0" IVar="-1" Cut="0.0000000000000000e+00" cType="1" res="2.0210746675729752e-02" rms="3.4499534964561462e-01" purity="3.9881649613380432e-01" nType="-99"/>
        </Node>
        <Node pos="r" depth="1" NCoef="0" IVar="17" Cut="1.3256785869598389e+00" cType="1" res="7.5302615761756897e-02" rms="3.5983473062515259e-01" purity="2.4375483393669128e-01" nType="0">
          <Node pos="l" depth="2" NCoef="0" IVar="-1" Cut="0.0000000000000000e+00" cType="1" res="1.2927961349487305e-01" rms="3.9856684207916260e-01" purity="2.2109889984130859e-01" nType="-99"/>
          <Node pos="r" depth="2" NCoef="0" IVar="-1" Cut="0.0000000000000000e+00" cType="1" res="-9.8492652177810669e-03" rms="2.6654431223869324e-01" purity="2.6911073923110962e-01" nType="-99"/>
        </Node>
      </Node>
    </BinaryTree>
    <BinaryTree type="DecisionTree" boostWeight="1.0000000000000000e+00" itree="527">
      <Node pos="s" depth="0" NCoef="0" IVar="61" Cut="9.5795255899429321e-01" cType="1" res="-4.7700805589556694e-03" rms="2.3605567216873169e-01" purity="4.9601566791534424e-01" nType="0">
        <Node pos="l" depth="1" NCoef="0" IVar="35" Cut="1.4810805320739746e+00" cType="1" res="6.8485639058053493e-03" rms="2.5400659441947937e-01" purity="5.5698436498641968e-01" nType="0">
          <Node pos="l" depth="2" NCoef="0" IVar="-1" Cut="0.0000000000000000e+00" cType="1" res="8.8318233611062169e-04" rms="2.4380363523960114e-01" purity="5.6350845098495483e-01" nType="-99"/>
          <Node pos="r" depth="2" NCoef="0" IVar="-1" Cut="0.0000000000000000e+00" cType="1" res="6.1881527304649353e-02" rms="4.6362674236297607e-01" purity="3.3761259913444519e-01" nType="-99"/>
        </Node>
        <Node pos="r" depth="1" NCoef="0" IVar="48" Cut="1.1175953149795532e+00" cType="1" res="-3.6329634487628937e-02" rms="1.7454002797603607e-01" purity="3.3040735125541687e-01" nType="0">
          <Node pos="l" depth="2" NCoef="0" IVar="-1" Cut="0.0000000000000000e+00" cType="1" res="-5.1620509475469589e-02" rms="-nan" purity="4.4174499809741974e-02" nType="-99"/>
          <Node pos="r" depth="2" NCoef="0" IVar="-1" Cut="0.0000000000000000e+00" cType="1" res="-6.6001899540424347e-03" rms="2.1158993244171143e-01" purity="3.9351919293403625e-01" nType="-99"/>
        </Node>
      </Node>
    </BinaryTree>
    <BinaryTree type="DecisionTree" boostWeight="1.0000000000000000e+00" itree="528">
      <Node pos="s" depth="0" NCoef="0" IVar="17" Cut="-1.7735886573791504e-01" cType="1" res="2.6768259704113007e-03" rms="2.4966651201248169e-01" purity="5.0239610671997070e-01" nType="0">
        <Node pos="l" depth="1" NCoef="0" IVar="73" Cut="2.2863137722015381e+00" cType="1" res="3.7904828786849976e-02" rms="2.1535536646842957e-01" purity="6.6004551947116852e-02" nType="0">
          <Node pos="l" depth="2" NCoef="0" IVar="-1" Cut="0.0000000000000000e+00" cType="1" res="2.2000052034854889e-01" rms="3.8024786114692688e-01" purity="1.9316354393959045e-01" nType="-99"/>
          <Node pos="r" depth="2" NCoef="0" IVar="-1" Cut="0.0000000000000000e+00" cType="1" res="1.9396265968680382e-02" rms="1.6805960237979889e-01" purity="4.6497259289026260e-02" nType="-99"/>
        </Node>
        <Node pos="r" depth="1" NCoef="0" IVar="52" Cut="2.5476131439208984e+00" cType="1" res="-5.6395796127617359e-03" rms="2.5639402866363525e-01" purity="6.0541665554046631e-01" nType="0">
          <Node pos="l" depth="2" NCoef="0" IVar="-1" Cut="0.0000000000000000e+00" cType="1" res="-2.4587430059909821e-02" rms="1.4660800993442535e-01" purity="1.3415652513504028e-01" nType="-99"/>
          <Node pos="r" depth="2" NCoef="0" IVar="-1" Cut="0.0000000000000000e+00" cType="1" res="1.1653624824248254e-04" rms="2.6223856210708618e-01" purity="6.4300042390823364e-01" nType="-99"/>
        </Node>
      </Node>
    </BinaryTree>
    <BinaryTree type="DecisionTree" boostWeight="1.0000000000000000e+00" itree="529">
      <Node pos="s" depth="0" NCoef="0" IVar="55" Cut="3.5864087939262390e-01" cType="1" res="-1.8302666721865535e-03" rms="2.4257360398769379e-01" purity="5.0001299381256104e-01" nType="0">
        <Node pos="l" depth="1" NCoef="0" IVar="81" Cut="-2.4439320564270020e+00" cType="1" res="-3.4388247877359390e-02" rms="9.7789235413074493e-02" purity="2.0667186379432678e-01" nType="0">
          <Node pos="l" depth="2" NCoef="0" IVar="-1" Cut="0.0000000000000000e+00" cType="1" res="2.0800266414880753e-02" rms="3.1285876035690308e-01" purity="3.9802667498588562e-01" nType="-99"/>
          <Node pos="r" depth="2" NCoef="0" IVar="-1" Cut="0.0000000000000000e+00" cType="1" res="-2.2811276838183403e-02" rms="-nan" purity="1.6875714063644409e-01" nType="-99"/>
        </Node>
        <Node pos="r" depth="1" NCoef="0" IVar="55" Cut="8.0265218019485474e-01" cType="1" res="7.4342000298202038e-03" rms="2.6921558380126953e-01" purity="5.8348405361175537e-01" nType="0">
          <Node pos="l" depth="2" NCoef="0" IVar="-1" Cut="0.0000000000000000e+00" cType="1" res="3.9932750165462494e-02" rms="3.6912387609481812e-01" purity="4.0821897983551025e-01" nType="-99"/>
          <Node pos="r" depth="2" NCoef="0" IVar="-1" Cut="0.0000000000000000e+00" cType="1" res="1.1392732849344611e-03" rms="2.6498964428901672e-01" purity="5.8825302124023438e-01" nType="-99"/>
        </Node>
      </Node>
    </BinaryTree>
    <BinaryTree type="DecisionTree" boostWeight="1.0000000000000000e+00" itree="530">
      <Node pos="s" depth="0" NCoef="0" IVar="61" Cut="1.4815813302993774e+00" cType="1" res="2.3125368170440197e-03" rms="2.5147071480751038e-01" purity="5.0207597017288208e-01" nType="0">
        <Node pos="l" depth="1" NCoef="0" IVar="3" Cut="5.4555673599243164e+00" cType="1" res="-2.1802170667797327e-03" rms="2.4294267594814301e-01" purity="5.1325857639312744e-01" nType="0">
          <Node pos="l" depth="2" NCoef="0" IVar="-1" Cut="0.0000000000000000e+00" cType="1" res="7.2500662645325065e-04" rms="2.5274336338043213e-01" purity="5.2524060010910034e-01" nType="-99"/>
          <Node pos="r" depth="2" NCoef="0" IVar="-1" Cut="0.0000000000000000e+00" cType="1" res="-5.2902929484844208e-02" rms="-nan" purity="7.0847496390342712e-02" nType="-99"/>
        </Node>
        <Node pos="r" depth="1" NCoef="0" IVar="17" Cut="7.0957285165786743e-01" cType="1" res="7.3903225362300873e-02" rms="3.5352125763893127e-01" purity="3.2388469576835632e-01" nType="0">
          <Node pos="l" depth="2" NCoef="0" IVar="-1" Cut="0.0000000000000000e+00" cType="1" res="1.3630454242229462e-01" rms="4.2378610372543335e-01" purity="3.0133706331253052e-01" nType="-99"/>
          <Node pos="r" depth="2" NCoef="0" IVar="-1" Cut="0.0000000000000000e+00" cType="1" res="-8.3288587629795074e-03" rms="2.5337520241737366e-01" purity="3.3717086911201477e-01" nType="-99"/>
        </Node>
      </Node>
    </BinaryTree>
    <BinaryTree type="DecisionTree" boostWeight="1.0000000000000000e+00" itree="531">
      <Node pos="s" depth="0" NCoef="0" IVar="16" Cut="1.2443045377731323e+00" cType="1" res="-3.0093151144683361e-03" rms="2.3620058596134186e-01" purity="5.0118052959442139e-01" nType="0">
        <Node pos="l" depth="1" NCoef="0" IVar="69" Cut="7.4332201480865479e-01" cType="1" res="7.7725714072585106e-04" rms="2.4238522350788116e-01" purity="5.1124542951583862e-01" nType="0">
          <Node pos="l" depth="2" NCoef="0" IVar="-1" Cut="0.0000000000000000e+00" cType="1" res="2.8198888525366783e-02" rms="3.3821713924407959e-01" purity="2.5423613190650940e-01" nType="-99"/>
          <Node pos="r" depth="2" NCoef="0" IVar="-1" Cut="0.0000000000000000e+00" cType="1" res="-1.2445610482245684e-03" rms="2.3358024656772614e-01" purity="5.2908164262771606e-01" nType="-99"/>
        </Node>
        <Node pos="r" depth="1" NCoef="0" IVar="-1" Cut="0.0000000000000000e+00" cType="1" res="-4.2939439415931702e-02" rms="-nan" purity="1.8733933568000793e-01" nType="-99"/>
      </Node>
    </BinaryTree>
    <BinaryTree type="DecisionTree" boostWeight="1.0000000000000000e+00" itree="532">
      <Node pos="s" depth="0" NCoef="0" IVar="58" Cut="-5.2924531698226929e-01" cType="1" res="3.4018319565802813e-03" rms="2.5107073783874512e-01" purity="5.0913912057876587e-01" nType="0">
        <Node pos="l" depth="1" NCoef="0" IVar="16" Cut="-1.1072044372558594e+00" cType="1" res="-1.3911278918385506e-02" rms="2.3015607893466949e-01" purity="5.0510561466217041e-01" nType="0">
          <Node pos="l" depth="2" NCoef="0" IVar="-1" Cut="0.0000000000000000e+00" cType="1" res="-2.2492419928312302e-02" rms="7.4873410165309906e-02" purity="3.1246724724769592e-01" nType="-99"/>
          <Node pos="r" depth="2" NCoef="0" IVar="-1" Cut="0.0000000000000000e+00" cType="1" res="-7.2248326614499092e-04" rms="2.5173038244247437e-01" purity="5.5030018091201782e-01" nType="-99"/>
        </Node>
        <Node pos="r" depth="1" NCoef="0" IVar="55" Cut="-8.6706042289733887e-01" cType="1" res="2.2987289354205132e-02" rms="2.7147653698921204e-01" purity="5.1370209455490112e-01" nType="0">
          <Node pos="l" depth="2" NCoef="0" IVar="-1" Cut="0.0000000000000000e+00" cType="1" res="3.8640543818473816e-02" rms="3.1632822751998901e-01" purity="3.6373189091682434e-01" nType="-99"/>
          <Node pos="r" depth="2" NCoef="0" IVar="-1" Cut="0.0000000000000000e+00" cType="1" res="1.1788200354203582e-03" rms="2.5521633028984070e-01" purity="5.5202555656433105e-01" nType="-99"/>
        </Node>
      </Node>
    </BinaryTree>
    <BinaryTree type="DecisionTree" boostWeight="1.0000000000000000e+00" itree="533">
      <Node pos="s" depth="0" NCoef="0" IVar="10" Cut="3.0549428462982178e+00" cType="1" res="-5.8308192528784275e-03" rms="2.3536653816699982e-01" purity="4.8839798569679260e-01" nType="0">
        <Node pos="l" depth="1" NCoef="0" IVar="62" Cut="2.2372041642665863e-01" cType="1" res="-4.4288445264101028e-02" rms="1.7462228238582611e-01" purity="2.7223441004753113e-01" nType="0">
          <Node pos="l" depth="2" NCoef="0" IVar="-1" Cut="0.0000000000000000e+00" cType="1" res="-2.0925881341099739e-02" rms="9.5970585942268372e-02" purity="2.6172333955764771e-01" nType="-99"/>
          <Node pos="r" depth="2" NCoef="0" IVar="-1" Cut="0.0000000000000000e+00" cType="1" res="1.9305342808365822e-02" rms="3.4573766589164734e-01" purity="3.2283526659011841e-01" nType="-99"/>
        </Node>
        <Node pos="r" depth="1" NCoef="0" IVar="40" Cut="1.4341244697570801e+00" cType="1" res="6.1890836805105209e-03" rms="2.5014904141426086e-01" purity="5.5595976114273071e-01" nType="0">
          <Node pos="l" depth="2" NCoef="0" IVar="-1" Cut="0.0000000000000000e+00" cType="1" res="3.5513143520802259e-03" rms="2.5991070270538330e-01" purity="5.7463645935058594e-01" nType="-99"/>
          <Node pos="r" depth="2" NCoef="0" IVar="-1" Cut="0.0000000000000000e+00" cType="1" res="-3.0868273228406906e-02" rms="-nan" purity="1.9043366611003876e-01" nType="-99"/>
        </Node>
      </Node>
    </BinaryTree>
    <BinaryTree type="DecisionTree" boostWeight="1.0000000000000000e+00" itree="534">
      <Node pos="s" depth="0" NCoef="0" IVar="36" Cut="-1.1830065250396729e+00" cType="1" res="-4.3951999396085739e-03" rms="2.3328751325607300e-01" purity="5.0376141071319580e-01" nType="0">
        <Node pos="l" depth="1" NCoef="0" IVar="35" Cut="-3.3588290214538574e-01" cType="1" res="-2.9285762459039688e-02" rms="-nan" purity="2.7797950431704521e-02" nType="-99"/>
        <Node pos="r" depth="1" NCoef="0" IVar="1" Cut="2.1207308769226074e+00" cType="1" res="2.8751790523529053e-03" rms="2.5452300906181335e-01" purity="5.7824450731277466e-01" nType="0">
          <Node pos="l" depth="2" NCoef="0" IVar="-1" Cut="0.0000000000000000e+00" cType="1" res="1.5145878307521343e-02" rms="2.9600292444229126e-01" purity="3.3547607064247131e-01" nType="-99"/>
          <Node pos="r" depth="2" NCoef="0" IVar="-1" Cut="0.0000000000000000e+00" cType="1" res="-9.1783079551532865e-04" rms="2.4833843111991882e-01" purity="6.0799545049667358e-01" nType="-99"/>
        </Node>
      </Node>
    </BinaryTree>
    <BinaryTree type="DecisionTree" boostWeight="1.0000000000000000e+00" itree="535">
      <Node pos="s" depth="0" NCoef="0" IVar="58" Cut="-1.4927184581756592e+00" cType="1" res="3.0497106490656734e-04" rms="2.5150269269943237e-01" purity="5.0030755996704102e-01" nType="0">
        <Node pos="l" depth="1" NCoef="0" IVar="-1" Cut="0.0000000000000000e+00" cType="1" res="5.1652826368808746e-02" rms="3.7111285328865051e-01" purity="3.5572403669357300e-01" nType="-99"/>
        <Node pos="r" depth="1" NCoef="0" IVar="16" Cut="1.2443045377731323e+00" cType="1" res="-3.5041447263211012e-03" rms="2.4608033895492554e-01" purity="5.0455975532531738e-01" nType="0">
          <Node pos="l" depth="2" NCoef="0" IVar="-1" Cut="0.0000000000000000e+00" cType="1" res="-7.0266272814478725e-05" rms="2.5097516179084778e-01" purity="5.1412427425384521e-01" nType="-99"/>
          <Node pos="r" depth="2" NCoef="0" IVar="-1" Cut="0.0000000000000000e+00" cType="1" res="-3.5996738821268082e-02" rms="-nan" purity="1.9462093710899353e-01" nType="-99"/>
        </Node>
      </Node>
    </BinaryTree>
    <BinaryTree type="DecisionTree" boostWeight="1.0000000000000000e+00" itree="536">
      <Node pos="s" depth="0" NCoef="0" IVar="3" Cut="5.3646922111511230e+00" cType="1" res="1.1293069692328572e-03" rms="2.4836641550064087e-01" purity="5.0105810165405273e-01" nType="0">
        <Node pos="l" depth="1" NCoef="0" IVar="20" Cut="-4.8761162161827087e-01" cType="1" res="4.9113491550087929e-03" rms="2.5803679227828979e-01" purity="5.1695507764816284e-01" nType="0">
          <Node pos="l" depth="2" NCoef="0" IVar="-1" Cut="0.0000000000000000e+00" cType="1" res="3.4242209047079086e-02" rms="3.6220836639404297e-01" purity="6.2907397747039795e-01" nType="-99"/>
          <Node pos="r" depth="2" NCoef="0" IVar="-1" Cut="0.0000000000000000e+00" cType="1" res="6.9650437217205763e-04" rms="2.5327977538108826e-01" purity="5.1314747333526611e-01" nType="-99"/>
        </Node>
        <Node pos="r" depth="1" NCoef="0" IVar="56" Cut="-2.5349774956703186e-01" cType="1" res="-2.4168098345398903e-02" rms="-nan" purity="1.8929454684257507e-01" nType="-99"/>
      </Node>
    </BinaryTree>
    <BinaryTree type="DecisionTree" boostWeight="1.0000000000000000e+00" itree="537">
      <Node pos="s" depth="0" NCoef="0" IVar="5" Cut="2.6700699329376221e-01" cType="1" res="1.2651286087930202e-03" rms="2.5117456912994385e-01" purity="4.9721282720565796e-01" nType="0">
        <Node pos="l" depth="1" NCoef="0" IVar="58" Cut="1.3206231594085693e+00" cType="1" res="1.5424497425556183e-02" rms="2.6434686779975891e-01" purity="5.3364604711532593e-01" nType="0">
          <Node pos="l" depth="2" NCoef="0" IVar="-1" Cut="0.0000000000000000e+00" cType="1" res="2.9753190465271473e-03" rms="2.5371426343917847e-01" purity="5.3835165500640869e-01" nType="-99"/>
          <Node pos="r" depth="2" NCoef="0" IVar="-1" Cut="0.0000000000000000e+00" cType="1" res="3.0827345326542854e-02" rms="3.6990550160408020e-01" purity="4.6933600306510925e-01" nType="-99"/>
        </Node>
        <Node pos="r" depth="1" NCoef="0" IVar="14" Cut="2.4638432264328003e-01" cType="1" res="-1.8271552398800850e-02" rms="2.3034949600696564e-01" purity="4.4694334268569946e-01" nType="0">
          <Node pos="l" depth="2" NCoef="0" IVar="-1" Cut="0.0000000000000000e+00" cType="1" res="-1.1393981985747814e-02" rms="2.0727090537548065e-01" purity="4.1279289126396179e-01" nType="-99"/>
          <Node pos="r" depth="2" NCoef="0" IVar="-1" Cut="0.0000000000000000e+00" cType="1" res="7.0013199001550674e-03" rms="2.7801048755645752e-01" purity="5.3728383779525757e-01" nType="-99"/>
        </Node>
      </Node>
    </BinaryTree>
    <BinaryTree type="DecisionTree" boostWeight="1.0000000000000000e+00" itree="538">
      <Node pos="s" depth="0" NCoef="0" IVar="2" Cut="1.5593006610870361e+00" cType="1" res="5.8425944298505783e-03" rms="2.4606218934059143e-01" purity="5.0195759534835815e-01" nType="0">
        <Node pos="l" depth="1" NCoef="0" IVar="17" Cut="-8.3543121814727783e-01" cType="1" res="-5.2152324467897415e-02" rms="1.2181722372770309e-01" purity="8.5632316768169403e-02" nType="0">
          <Node pos="l" depth="2" NCoef="0" IVar="-1" Cut="0.0000000000000000e+00" cType="1" res="3.8182120770215988e-02" rms="1.6793453693389893e-01" purity="4.4439017772674561e-02" nType="-99"/>
          <Node pos="r" depth="2" NCoef="0" IVar="-1" Cut="0.0000000000000000e+00" cType="1" res="-3.4020129591226578e-02" rms="4.2269319295883179e-02" purity="1.0934553295373917e-01" nType="-99"/>
        </Node>
        <Node pos="r" depth="1" NCoef="0" IVar="7" Cut="-1.3032099008560181e+00" cType="1" res="1.2445145286619663e-02" rms="2.5558504462242126e-01" purity="5.4935491085052490e-01" nType="0">
          <Node pos="l" depth="2" NCoef="0" IVar="-1" Cut="0.0000000000000000e+00" cType="1" res="5.0664371810853481e-03" rms="2.6305484771728516e-01" purity="5.6218588352203369e-01" nType="-99"/>
          <Node pos="r" depth="2" NCoef="0" IVar="-1" Cut="0.0000000000000000e+00" cType="1" res="-2.8088035061955452e-02" rms="-nan" purity="1.9516879320144653e-01" nType="-99"/>
        </Node>
      </Node>
    </BinaryTree>
    <BinaryTree type="DecisionTree" boostWeight="1.0000000000000000e+00" itree="539">
      <Node pos="s" depth="0" NCoef="0" IVar="79" Cut="1.0943216085433960e+00" cType="1" res="4.7127632424235344e-03" rms="2.5315049290657043e-01" purity="4.9094113707542419e-01" nType="0">
        <Node pos="l" depth="1" NCoef="0" IVar="35" Cut="-1.5311721563339233e+00" cType="1" res="1.0806563310325146e-02" rms="2.6629418134689331e-01" purity="5.1310956478118896e-01" nType="0">
          <Node pos="l" depth="2" NCoef="0" IVar="-1" Cut="0.0000000000000000e+00" cType="1" res="3.8300957530736923e-02" rms="3.4953334927558899e-01" purity="3.4874793887138367e-01" nType="-99"/>
          <Node pos="r" depth="2" NCoef="0" IVar="-1" Cut="0.0000000000000000e+00" cType="1" res="2.5123211089521646e-03" rms="2.6324784755706787e-01" purity="5.1714199781417847e-01" nType="-99"/>
        </Node>
        <Node pos="r" depth="1" NCoef="0" IVar="36" Cut="-8.7429064512252808e-01" cType="1" res="-2.2595504298806190e-02" rms="-nan" purity="2.7511754631996155e-01" nType="-99"/>
      </Node>
    </BinaryTree>
    <BinaryTree type="DecisionTree" boostWeight="1.0000000000000000e+00" itree="540">
      <Node pos="s" depth="0" NCoef="0" IVar="57" Cut="-1.4150981903076172e+00" cType="1" res="3.2121466938406229e-03" rms="2.4683213233947754e-01" purity="4.9868899583816528e-01" nType="0">
        <Node pos="l" depth="1" NCoef="0" IVar="58" Cut="-7.1896560490131378e-02" cType="1" res="7.3915198445320129e-02" rms="3.0219402909278870e-01" purity="1.3202784955501556e-01" nType="0">
          <Node pos="l" depth="2" NCoef="0" IVar="-1" Cut="0.0000000000000000e+00" cType="1" res="1.4694888377562165e-03" rms="1.6593463718891144e-01" purity="7.3375292122364044e-02" nType="-99"/>
          <Node pos="r" depth="2" NCoef="0" IVar="-1" Cut="0.0000000000000000e+00" cType="1" res="2.2825583815574646e-01" rms="4.3896281719207764e-01" purity="2.5596696138381958e-01" nType="-99"/>
        </Node>
        <Node pos="r" depth="1" NCoef="0" IVar="57" Cut="-6.0624194145202637e-01" cType="1" res="-1.8989453092217445e-03" rms="2.4153956770896912e-01" purity="5.2519476413726807e-01" nType="0">
          <Node pos="l" depth="2" NCoef="0" IVar="-1" Cut="0.0000000000000000e+00" cType="1" res="-3.5657029598951340e-02" rms="-nan" purity="1.1155560612678528e-02" nType="-99"/>
          <Node pos="r" depth="2" NCoef="0" IVar="-1" Cut="0.0000000000000000e+00" cType="1" res="1.3966750120744109e-03" rms="2.6582446694374084e-01" purity="5.9296298027038574e-01" nType="-99"/>
        </Node>
      </Node>
    </BinaryTree>
    <BinaryTree type="DecisionTree" boostWeight="1.0000000000000000e+00" itree="541">
      <Node pos="s" depth="0" NCoef="0" IVar="9" Cut="-6.9135802984237671e-01" cType="1" res="8.1903655081987381e-03" rms="2.6250264048576355e-01" purity="5.0845783948898315e-01" nType="0">
        <Node pos="l" depth="1" NCoef="0" IVar="17" Cut="1.2105211019515991e+00" cType="1" res="1.0976950079202652e-01" rms="3.6089891195297241e-01" purity="4.5420876145362854e-01" nType="0">
          <Node pos="l" depth="2" NCoef="0" IVar="-1" Cut="0.0000000000000000e+00" cType="1" res="8.3742424845695496e-02" rms="3.7475222349166870e-01" purity="3.2085451483726501e-01" nType="-99"/>
          <Node pos="r" depth="2" NCoef="0" IVar="-1" Cut="0.0000000000000000e+00" cType="1" res="6.0882917605340481e-03" rms="3.2522788643836975e-01" purity="5.6591069698333740e-01" nType="-99"/>
        </Node>
        <Node pos="r" depth="1" NCoef="0" IVar="20" Cut="-3.5904729366302490e-01" cType="1" res="3.5366809461265802e-03" rms="2.5613093376159668e-01" purity="5.1094317436218262e-01" nType="0">
          <Node pos="l" depth="2" NCoef="0" IVar="-1" Cut="0.0000000000000000e+00" cType="1" res="-2.4741129949688911e-02" rms="1.0554198920726776e-01" purity="5.4045438766479492e-01" nType="-99"/>
          <Node pos="r" depth="2" NCoef="0" IVar="-1" Cut="0.0000000000000000e+00" cType="1" res="2.9797209426760674e-03" rms="2.6334580779075623e-01" purity="5.0867789983749390e-01" nType="-99"/>
        </Node>
      </Node>
    </BinaryTree>
    <BinaryTree type="DecisionTree" boostWeight="1.0000000000000000e+00" itree="542">
      <Node pos="s" depth="0" NCoef="0" IVar="67" Cut="9.5262867212295532e-01" cType="1" res="5.4645785130560398e-03" rms="2.4519881606101990e-01" purity="5.1066076755523682e-01" nType="0">
        <Node pos="l" depth="1" NCoef="0" IVar="4" Cut="3.3693928718566895e+00" cType="1" res="2.6331193745136261e-02" rms="2.7127006649971008e-01" purity="5.8405584096908569e-01" nType="0">
          <Node pos="l" depth="2" NCoef="0" IVar="-1" Cut="0.0000000000000000e+00" cType="1" res="2.6588879525661469e-02" rms="3.4655234217643738e-01" purity="3.5889363288879395e-01" nType="-99"/>
          <Node pos="r" depth="2" NCoef="0" IVar="-1" Cut="0.0000000000000000e+00" cType="1" res="3.8121955003589392e-03" rms="2.5110876560211182e-01" purity="6.2942779064178467e-01" nType="-99"/>
        </Node>
        <Node pos="r" depth="1" NCoef="0" IVar="58" Cut="5.8557796478271484e-01" cType="1" res="-1.7537143081426620e-02" rms="2.1040591597557068e-01" purity="4.2975580692291260e-01" nType="0">
          <Node pos="l" depth="2" NCoef="0" IVar="-1" Cut="0.0000000000000000e+00" cType="1" res="-1.1245732894167304e-03" rms="2.3105303943157196e-01" purity="4.5055121183395386e-01" nType="-99"/>
          <Node pos="r" depth="2" NCoef="0" IVar="-1" Cut="0.0000000000000000e+00" cType="1" res="-2.8130294755101204e-02" rms="6.3104256987571716e-02" purity="3.4706595540046692e-01" nType="-99"/>
        </Node>
      </Node>
    </BinaryTree>
    <BinaryTree type="DecisionTree" boostWeight="1.0000000000000000e+00" itree="543">
      <Node pos="s" depth="0" NCoef="0" IVar="40" Cut="1.4346443414688110e+00" cType="1" res="6.1932047829031944e-03" rms="2.5624689459800720e-01" purity="5.0241547822952271e-01" nType="0">
        <Node pos="l" depth="1" NCoef="0" IVar="36" Cut="-9.8976659774780273e-01" cType="1" res="9.9512934684753418e-04" rms="2.5110542774200439e-01" purity="5.1491951942443848e-01" nType="0">
          <Node pos="l" depth="2" NCoef="0" IVar="-1" Cut="0.0000000000000000e+00" cType="1" res="-2.4141833186149597e-02" rms="1.0039444081485271e-02" purity="3.0936611816287041e-02" nType="-99"/>
          <Node pos="r" depth="2" NCoef="0" IVar="-1" Cut="0.0000000000000000e+00" cType="1" res="2.7695710305124521e-03" rms="2.7215677499771118e-01" purity="6.0289210081100464e-01" nType="-99"/>
        </Node>
        <Node pos="r" depth="1" NCoef="0" IVar="41" Cut="1.5188917517662048e-01" cType="1" res="7.7626563608646393e-02" rms="3.0989608168601990e-01" purity="3.3058190345764160e-01" nType="0">
          <Node pos="l" depth="2" NCoef="0" IVar="-1" Cut="0.0000000000000000e+00" cType="1" res="4.3192788958549500e-02" rms="3.4856647253036499e-01" purity="3.7355777621269226e-01" nType="-99"/>
          <Node pos="r" depth="2" NCoef="0" IVar="-1" Cut="0.0000000000000000e+00" cType="1" res="-2.4527299683541059e-03" rms="1.9500984251499176e-01" purity="2.5145608186721802e-01" nType="-99"/>
        </Node>
      </Node>
    </BinaryTree>
    <BinaryTree type="DecisionTree" boostWeight="1.0000000000000000e+00" itree="544">
      <Node pos="s" depth="0" NCoef="0" IVar="35" Cut="1.4045290946960449e+00" cType="1" res="-3.2275924459099770e-03" rms="2.4218022823333740e-01" purity="4.8986908793449402e-01" nType="0">
        <Node pos="l" depth="1" NCoef="0" IVar="62" Cut="3.0159515142440796e-01" cType="1" res="2.0478682126849890e-03" rms="2.4637484550476074e-01" purity="5.0166249275207520e-01" nType="0">
          <Node pos="l" depth="2" NCoef="0" IVar="-1" Cut="0.0000000000000000e+00" cType="1" res="-8.8459986727684736e-04" rms="2.3707292973995209e-01" purity="5.0819039344787598e-01" nType="-99"/>
          <Node pos="r" depth="2" NCoef="0" IVar="-1" Cut="0.0000000000000000e+00" cType="1" res="2.3704009130597115e-02" rms="3.5126137733459473e-01" purity="4.0277683734893799e-01" nType="-99"/>
        </Node>
        <Node pos="r" depth="1" NCoef="0" IVar="77" Cut="-1.4155992269515991e+00" cType="1" res="-9.5445483922958374e-02" rms="1.1763385683298111e-01" purity="2.8371390700340271e-01" nType="0">
          <Node pos="l" depth="2" NCoef="0" IVar="-1" Cut="0.0000000000000000e+00" cType="1" res="-6.1312641948461533e-02" rms="-nan" purity="2.9035845398902893e-01" nType="-99"/>
          <Node pos="r" depth="2" NCoef="0" IVar="-1" Cut="0.0000000000000000e+00" cType="1" res="2.2319527342915535e-03" rms="2.1692538261413574e-01" purity="2.7432882785797119e-01" nType="-99"/>
        </Node>
      </Node>
    </BinaryTree>
    <BinaryTree type="DecisionTree" boostWeight="1.0000000000000000e+00" itree="545">
      <Node pos="s" depth="0" NCoef="0" IVar="4" Cut="3.2713780403137207e+00" cType="1" res="2.9216802213340998e-03" rms="2.5487565994262695e-01" purity="4.9954721331596375e-01" nType="0">
        <Node pos="l" depth="1" NCoef="0" IVar="36" Cut="1.2856606245040894e+00" cType="1" res="8.4120355546474457e-02" rms="3.4095656871795654e-01" purity="2.5736206769943237e-01" nType="0">
          <Node pos="l" depth="2" NCoef="0" IVar="-1" Cut="0.0000000000000000e+00" cType="1" res="7.2985731065273285e-02" rms="3.7696874141693115e-01" purity="2.6447007060050964e-01" nType="-99"/>
          <Node pos="r" depth="2" NCoef="0" IVar="-1" Cut="0.0000000000000000e+00" cType="1" res="-8.9764501899480820e-03" rms="2.2674173116683960e-01" purity="2.4588029086589813e-01" nType="-99"/>
        </Node>
        <Node pos="r" depth="1" NCoef="0" IVar="73" Cut="2.2761783599853516e+00" cType="1" res="-1.6726325266063213e-03" rms="2.4832521378993988e-01" purity="5.1325029134750366e-01" nType="0">
          <Node pos="l" depth="2" NCoef="0" IVar="-1" Cut="0.0000000000000000e+00" cType="1" res="-2.6527700945734978e-02" rms="1.6323019564151764e-01" purity="2.6164370775222778e-01" nType="-99"/>
          <Node pos="r" depth="2" NCoef="0" IVar="-1" Cut="0.0000000000000000e+00" cType="1" res="9.3711179215461016e-04" rms="2.5191441178321838e-01" purity="5.2867239713668823e-01" nType="-99"/>
        </Node>
      </Node>
    </BinaryTree>
    <BinaryTree type="DecisionTree" boostWeight="1.0000000000000000e+00" itree="546">
      <Node pos="s" depth="0" NCoef="0" IVar="79" Cut="-9.5202982425689697e-01" cType="1" res="-1.7252948600798845e-03" rms="2.3972123861312866e-01" purity="4.9725264310836792e-01" nType="0">
        <Node pos="l" depth="1" NCoef="0" IVar="57" Cut="-6.0327386856079102e-01" cType="1" res="-1.6118369996547699e-02" rms="2.2251428663730621e-01" purity="5.3450405597686768e-01" nType="0">
          <Node pos="l" depth="2" NCoef="0" IVar="-1" Cut="0.0000000000000000e+00" cType="1" res="-5.3084816783666611e-02" rms="-nan" purity="-1.9404821097850800e-02" nType="-99"/>
          <Node pos="r" depth="2" NCoef="0" IVar="-1" Cut="0.0000000000000000e+00" cType="1" res="-1.6058029141277075e-03" rms="2.5732067227363586e-01" purity="6.3407015800476074e-01" nType="-99"/>
        </Node>
        <Node pos="r" depth="1" NCoef="0" IVar="16" Cut="-1.2999836206436157e+00" cType="1" res="2.2515757009387016e-02" rms="2.6443415880203247e-01" purity="4.3451309204101562e-01" nType="0">
          <Node pos="l" depth="2" NCoef="0" IVar="-1" Cut="0.0000000000000000e+00" cType="1" res="4.3212298303842545e-02" rms="3.4065720438957214e-01" purity="3.2872545719146729e-01" nType="-99"/>
          <Node pos="r" depth="2" NCoef="0" IVar="-1" Cut="0.0000000000000000e+00" cType="1" res="4.6185911633074284e-03" rms="2.5421786308288574e-01" purity="4.4426301121711731e-01" nType="-99"/>
        </Node>
      </Node>
    </BinaryTree>
    <BinaryTree type="DecisionTree" boostWeight="1.0000000000000000e+00" itree="547">
      <Node pos="s" depth="0" NCoef="0" IVar="52" Cut="2.5165710449218750e+00" cType="1" res="5.5990219116210938e-03" rms="2.5528603792190552e-01" purity="5.0124067068099976e-01" nType="0">
        <Node pos="l" depth="1" NCoef="0" IVar="36" Cut="7.0803558826446533e-01" cType="1" res="7.4997998774051666e-02" rms="3.3342763781547546e-01" purity="2.2652521729469299e-01" nType="0">
          <Node pos="l" depth="2" NCoef="0" IVar="-1" Cut="0.0000000000000000e+00" cType="1" res="9.6647478640079498e-02" rms="3.7408226728439331e-01" purity="2.3167611658573151e-01" nType="-99"/>
          <Node pos="r" depth="2" NCoef="0" IVar="-1" Cut="0.0000000000000000e+00" cType="1" res="3.1291029881685972e-03" rms="2.8498908877372742e-01" purity="2.2302652895450592e-01" nType="-99"/>
        </Node>
        <Node pos="r" depth="1" NCoef="0" IVar="5" Cut="4.5353963971138000e-01" cType="1" res="-1.2226644903421402e-03" rms="2.4521227180957794e-01" purity="5.2824425697326660e-01" nType="0">
          <Node pos="l" depth="2" NCoef="0" IVar="-1" Cut="0.0000000000000000e+00" cType="1" res="1.8401013221591711e-03" rms="2.5458315014839172e-01" purity="5.6240260601043701e-01" nType="-99"/>
          <Node pos="r" depth="2" NCoef="0" IVar="-1" Cut="0.0000000000000000e+00" cType="1" res="-2.4819627404212952e-02" rms="8.4400057792663574e-02" purity="1.8118000030517578e-01" nType="-99"/>
        </Node>
      </Node>
    </BinaryTree>
    <BinaryTree type="DecisionTree" boostWeight="1.0000000000000000e+00" itree="548">
      <Node pos="s" depth="0" NCoef="0" IVar="8" Cut="-1.3573919236660004e-01" cType="1" res="1.1931682820431888e-04" rms="2.4412946403026581e-01" purity="4.9514174461364746e-01" nType="0">
        <Node pos="l" depth="1" NCoef="0" IVar="42" Cut="-7.6596766710281372e-02" cType="1" res="3.5685589537024498e-03" rms="2.5108560919761658e-01" purity="5.0403636693954468e-01" nType="0">
          <Node pos="l" depth="2" NCoef="0" IVar="-1" Cut="0.0000000000000000e+00" cType="1" res="7.4151488952338696e-03" rms="2.7410987019538879e-01" purity="5.4122215509414673e-01" nType="-99"/>
          <Node pos="r" depth="2" NCoef="0" IVar="-1" Cut="0.0000000000000000e+00" cType="1" res="-3.4758802503347397e-03" rms="2.3203693330287933e-01" purity="4.7719085216522217e-01" nType="-99"/>
        </Node>
        <Node pos="r" depth="1" NCoef="0" IVar="-1" Cut="0.0000000000000000e+00" cType="1" res="-4.7863498330116272e-02" rms="-nan" purity="1.2277910113334656e-01" nType="-99"/>
      </Node>
    </BinaryTree>
    <BinaryTree type="DecisionTree" boostWeight="1.0000000000000000e+00" itree="549">
      <Node pos="s" depth="0" NCoef="0" IVar="73" Cut="2.1716890335083008e+00" cType="1" res="5.8649214915931225e-03" rms="2.5042656064033508e-01" purity="5.0197905302047729e-01" nType="0">
        <Node pos="l" depth="1" NCoef="0" IVar="-1" Cut="0.0000000000000000e+00" cType="1" res="-3.4252077341079712e-02" rms="-nan" purity="2.0941907167434692e-01" nType="-99"/>
        <Node pos="r" depth="1" NCoef="0" IVar="16" Cut="-1.3385003805160522e+00" cType="1" res="9.0354196727275848e-03" rms="2.5511154532432556e-01" purity="5.1136744022369385e-01" nType="0">
          <Node pos="l" depth="2" NCoef="0" IVar="-1" Cut="0.0000000000000000e+00" cType="1" res="2.3504877462983131e-02" rms="3.0775234103202820e-01" purity="3.4651267528533936e-01" nType="-99"/>
          <Node pos="r" depth="2" NCoef="0" IVar="-1" Cut="0.0000000000000000e+00" cType="1" res="1.2989827664569020e-03" rms="2.4969436228275299e-01" purity="5.2472901344299316e-01" nType="-99"/>
        </Node>
      </Node>
    </BinaryTree>
    <BinaryTree type="DecisionTree" boostWeight="1.0000000000000000e+00" itree="550">
      <Node pos="s" depth="0" NCoef="0" IVar="64" Cut="1.2345679104328156e-02" cType="1" res="6.4915930852293968e-04" rms="2.4662886559963226e-01" purity="4.9839046597480774e-01" nType="0">
        <Node pos="l" depth="1" NCoef="0" IVar="-1" Cut="0.0000000000000000e+00" cType="1" res="-4.0005955845117569e-02" rms="-nan" purity="1.8519803881645203e-01" nType="-99"/>
        <Node pos="r" depth="1" NCoef="0" IVar="31" Cut="3.5586965084075928e+00" cType="1" res="4.5738168992102146e-03" rms="2.5494155287742615e-01" purity="5.0857627391815186e-01" nType="0">
          <Node pos="l" depth="2" NCoef="0" IVar="-1" Cut="0.0000000000000000e+00" cType="1" res="1.4976011880207807e-04" rms="2.4991145730018616e-01" purity="5.0724786520004272e-01" nType="-99"/>
          <Node pos="r" depth="2" NCoef="0" IVar="-1" Cut="0.0000000000000000e+00" cType="1" res="3.6619257181882858e-02" rms="3.3683043718338013e-01" purity="5.3872001171112061e-01" nType="-99"/>
        </Node>
      </Node>
    </BinaryTree>
    <BinaryTree type="DecisionTree" boostWeight="1.0000000000000000e+00" itree="551">
      <Node pos="s" depth="0" NCoef="0" IVar="81" Cut="-5.5510765314102173e-01" cType="1" res="-7.3804021812975407e-03" rms="2.2538253664970398e-01" purity="5.0613248348236084e-01" nType="0">
        <Node pos="l" depth="1" NCoef="0" IVar="6" Cut="2.0288512706756592e+00" cType="1" res="-3.2162652350962162e-03" rms="2.3341539502143860e-01" purity="5.2125215530395508e-01" nType="0">
          <Node pos="l" depth="2" NCoef="0" IVar="-1" Cut="0.0000000000000000e+00" cType="1" res="-8.5295783355832100e-03" rms="1.9679528474807739e-01" purity="3.5040691494941711e-01" nType="-99"/>
          <Node pos="r" depth="2" NCoef="0" IVar="-1" Cut="0.0000000000000000e+00" cType="1" res="3.5302087198942900e-03" rms="2.5169694423675537e-01" purity="6.2301623821258545e-01" nType="-99"/>
        </Node>
        <Node pos="r" depth="1" NCoef="0" IVar="-1" Cut="0.0000000000000000e+00" cType="1" res="-5.3732540458440781e-02" rms="-nan" purity="7.1351833641529083e-02" nType="-99"/>
      </Node>
    </BinaryTree>
    <BinaryTree type="DecisionTree" boostWeight="1.0000000000000000e+00" itree="552">
      <Node pos="s" depth="0" NCoef="0" IVar="13" Cut="-1.4540549516677856e+00" cType="1" res="2.7239266782999039e-03" rms="2.3933172225952148e-01" purity="5.0102335214614868e-01" nType="0">
        <Node pos="l" depth="1" NCoef="0" IVar="4" Cut="3.8202531337738037e+00" cType="1" res="-3.6375753581523895e-02" rms="-nan" purity="1.5715532004833221e-01" nType="-99"/>
        <Node pos="r" depth="1" NCoef="0" IVar="14" Cut="-1.4331433773040771e+00" cType="1" res="7.2790961712598801e-03" rms="2.4980391561985016e-01" purity="5.1974731683731079e-01" nType="0">
          <Node pos="l" depth="2" NCoef="0" IVar="-1" Cut="0.0000000000000000e+00" cType="1" res="-1.9051956012845039e-02" rms="-nan" purity="2.2121071815490723e-01" nType="-99"/>
          <Node pos="r" depth="2" NCoef="0" IVar="-1" Cut="0.0000000000000000e+00" cType="1" res="4.3804659508168697e-03" rms="2.6445758342742920e-01" purity="5.5535680055618286e-01" nType="-99"/>
        </Node>
      </Node>
    </BinaryTree>
    <BinaryTree type="DecisionTree" boostWeight="1.0000000000000000e+00" itree="553">
      <Node pos="s" depth="0" NCoef="0" IVar="19" Cut="5.6571251153945923e-01" cType="1" res="2.3063311818987131e-03" rms="2.4850323796272278e-01" purity="5.0252085924148560e-01" nType="0">
        <Node pos="l" depth="1" NCoef="0" IVar="55" Cut="-9.9122244119644165e-01" cType="1" res="-2.2312091663479805e-02" rms="2.2398324310779572e-01" purity="5.3564572334289551e-01" nType="0">
          <Node pos="l" depth="2" NCoef="0" IVar="-1" Cut="0.0000000000000000e+00" cType="1" res="-3.8351964205503464e-02" rms="-nan" purity="2.3875972628593445e-01" nType="-99"/>
          <Node pos="r" depth="2" NCoef="0" IVar="-1" Cut="0.0000000000000000e+00" cType="1" res="-2.8201066888868809e-03" rms="2.5760656595230103e-01" purity="5.9619843959808350e-01" nType="-99"/>
        </Node>
        <Node pos="r" depth="1" NCoef="0" IVar="37" Cut="1.2437764406204224e+00" cType="1" res="1.4953659847378731e-02" rms="2.5929588079452515e-01" purity="4.8550355434417725e-01" nType="0">
          <Node pos="l" depth="2" NCoef="0" IVar="-1" Cut="0.0000000000000000e+00" cType="1" res="2.5975715834647417e-03" rms="2.4818032979965210e-01" purity="4.9012756347656250e-01" nType="-99"/>
          <Node pos="r" depth="2" NCoef="0" IVar="-1" Cut="0.0000000000000000e+00" cType="1" res="2.9529087245464325e-02" rms="3.5046046972274780e-01" purity="4.3446037173271179e-01" nType="-99"/>
        </Node>
      </Node>
    </BinaryTree>
    <BinaryTree type="DecisionTree" boostWeight="1.0000000000000000e+00" itree="554">
      <Node pos="s" depth="0" NCoef="0" IVar="73" Cut="2.2861840724945068e+00" cType="1" res="-1.3854929711669683e-03" rms="2.4571113288402557e-01" purity="4.9736097455024719e-01" nType="0">
        <Node pos="l" depth="1" NCoef="0" IVar="34" Cut="1.3176449537277222e+00" cType="1" res="6.1900652945041656e-02" rms="3.4265184402465820e-01" purity="3.5404527187347412e-01" nType="0">
          <Node pos="l" depth="2" NCoef="0" IVar="-1" Cut="0.0000000000000000e+00" cType="1" res="6.1476785689592361e-02" rms="3.9678165316581726e-01" purity="3.0695191025733948e-01" nType="-99"/>
          <Node pos="r" depth="2" NCoef="0" IVar="-1" Cut="0.0000000000000000e+00" cType="1" res="-5.1350165158510208e-03" rms="2.6160803437232971e-01" purity="3.9686679840087891e-01" nType="-99"/>
        </Node>
        <Node pos="r" depth="1" NCoef="0" IVar="64" Cut="1.2345679104328156e-02" cType="1" res="-7.2835911996662617e-03" rms="2.3377399146556854e-01" purity="5.1071763038635254e-01" nType="0">
          <Node pos="l" depth="2" NCoef="0" IVar="-1" Cut="0.0000000000000000e+00" cType="1" res="-4.7179743647575378e-02" rms="-nan" purity="1.6150726377964020e-01" nType="-99"/>
          <Node pos="r" depth="2" NCoef="0" IVar="-1" Cut="0.0000000000000000e+00" cType="1" res="-1.0456220479682088e-03" rms="2.4343463778495789e-01" purity="5.2132982015609741e-01" nType="-99"/>
        </Node>
      </Node>
    </BinaryTree>
    <BinaryTree type="DecisionTree" boostWeight="1.0000000000000000e+00" itree="555">
      <Node pos="s" depth="0" NCoef="0" IVar="37" Cut="8.2072585821151733e-01" cType="1" res="-3.6697762552648783e-03" rms="2.4289433658123016e-01" purity="4.9979057908058167e-01" nType="0">
        <Node pos="l" depth="1" NCoef="0" IVar="25" Cut="1.0748716592788696e+00" cType="1" res="-1.2866345234215260e-02" rms="2.2468988597393036e-01" purity="4.9908035993576050e-01" nType="0">
          <Node pos="l" depth="2" NCoef="0" IVar="-1" Cut="0.0000000000000000e+00" cType="1" res="-7.2790761478245258e-03" rms="2.1261715888977051e-01" purity="5.1988554000854492e-01" nType="-99"/>
          <Node pos="r" depth="2" NCoef="0" IVar="-1" Cut="0.0000000000000000e+00" cType="1" res="1.1829321272671223e-02" rms="2.7348354458808899e-01" purity="3.9372971653938293e-01" nType="-99"/>
        </Node>
        <Node pos="r" depth="1" NCoef="0" IVar="13" Cut="-4.8991125822067261e-01" cType="1" res="3.9831325411796570e-02" rms="3.1139811873435974e-01" purity="5.0315004587173462e-01" nType="0">
          <Node pos="l" depth="2" NCoef="0" IVar="-1" Cut="0.0000000000000000e+00" cType="1" res="1.0013973712921143e-01" rms="3.6980107426643372e-01" purity="2.8165617585182190e-01" nType="-99"/>
          <Node pos="r" depth="2" NCoef="0" IVar="-1" Cut="0.0000000000000000e+00" cType="1" res="3.3028202597051859e-03" rms="2.8929594159126282e-01" purity="5.5131155252456665e-01" nType="-99"/>
        </Node>
      </Node>
    </BinaryTree>
    <BinaryTree type="DecisionTree" boostWeight="1.0000000000000000e+00" itree="556">
      <Node pos="s" depth="0" NCoef="0" IVar="19" Cut="1.3167853355407715e+00" cType="1" res="5.4461054969578981e-04" rms="2.4712410569190979e-01" purity="4.9451586604118347e-01" nType="0">
        <Node pos="l" depth="1" NCoef="0" IVar="31" Cut="2.5287342071533203e+00" cType="1" res="-4.6426211483776569e-03" rms="2.3755694925785065e-01" purity="5.0445473194122314e-01" nType="0">
          <Node pos="l" depth="2" NCoef="0" IVar="-1" Cut="0.0000000000000000e+00" cType="1" res="-2.4249108508229256e-02" rms="1.3907448947429657e-01" purity="1.1194662004709244e-01" nType="-99"/>
          <Node pos="r" depth="2" NCoef="0" IVar="-1" Cut="0.0000000000000000e+00" cType="1" res="1.8571910914033651e-04" rms="2.4400390684604645e-01" purity="5.4070234298706055e-01" nType="-99"/>
        </Node>
        <Node pos="r" depth="1" NCoef="0" IVar="5" Cut="2.9568943381309509e-01" cType="1" res="6.8088166415691376e-02" rms="3.4137514233589172e-01" purity="3.6510056257247925e-01" nType="0">
          <Node pos="l" depth="2" NCoef="0" IVar="-1" Cut="0.0000000000000000e+00" cType="1" res="2.8043685233569704e-05" rms="2.6724830269813538e-01" purity="3.4207406640052795e-01" nType="-99"/>
          <Node pos="r" depth="2" NCoef="0" IVar="-1" Cut="0.0000000000000000e+00" cType="1" res="4.4154394418001175e-02" rms="3.8401418924331665e-01" purity="3.8457030057907104e-01" nType="-99"/>
        </Node>
      </Node>
    </BinaryTree>
    <BinaryTree type="DecisionTree" boostWeight="1.0000000000000000e+00" itree="557">
      <Node pos="s" depth="0" NCoef="0" IVar="3" Cut="5.5317492485046387e+00" cType="1" res="6.0964119620621204e-03" rms="2.4822390079498291e-01" purity="5.0823146104812622e-01" nType="0">
        <Node pos="l" depth="1" NCoef="0" IVar="14" Cut="1.4038170576095581e+00" cType="1" res="3.2357508316636086e-03" rms="2.4425294995307922e-01" purity="5.1264309883117676e-01" nType="0">
          <Node pos="l" depth="2" NCoef="0" IVar="-1" Cut="0.0000000000000000e+00" cType="1" res="1.9008326344192028e-03" rms="2.4709492921829224e-01" purity="5.2044451236724854e-01" nType="-99"/>
          <Node pos="r" depth="2" NCoef="0" IVar="-1" Cut="0.0000000000000000e+00" cType="1" res="-3.7073157727718353e-02" rms="-nan" purity="1.5176180005073547e-01" nType="-99"/>
        </Node>
        <Node pos="r" depth="1" NCoef="0" IVar="-1" Cut="0.0000000000000000e+00" cType="1" res="4.5005358755588531e-02" rms="3.7099960446357727e-01" purity="2.9109382629394531e-01" nType="-99"/>
      </Node>
    </BinaryTree>
    <BinaryTree type="DecisionTree" boostWeight="1.0000000000000000e+00" itree="558">
      <Node pos="s" depth="0" NCoef="0" IVar="29" Cut="-1.3573919236660004e-01" cType="1" res="-7.2583435103297234e-03" rms="2.3096996545791626e-01" purity="4.9667021632194519e-01" nType="0">
        <Node pos="l" depth="1" NCoef="0" IVar="17" Cut="1.0199549198150635e+00" cType="1" res="-1.1443405412137508e-02" rms="2.2574461996555328e-01" purity="4.9757158756256104e-01" nType="0">
          <Node pos="l" depth="2" NCoef="0" IVar="-1" Cut="0.0000000000000000e+00" cType="1" res="-4.4149093329906464e-02" rms="-nan" purity="-1.1286857537925243e-02" nType="-99"/>
          <Node pos="r" depth="2" NCoef="0" IVar="-1" Cut="0.0000000000000000e+00" cType="1" res="-8.0642005195841193e-04" rms="2.6836290955543518e-01" purity="6.3176447153091431e-01" nType="-99"/>
        </Node>
        <Node pos="r" depth="1" NCoef="0" IVar="48" Cut="1.7055530548095703e+00" cType="1" res="6.4353130757808685e-02" rms="2.9791769385337830e-01" purity="4.8124751448631287e-01" nType="0">
          <Node pos="l" depth="2" NCoef="0" IVar="-1" Cut="0.0000000000000000e+00" cType="1" res="5.9692375361919403e-02" rms="4.0708169341087341e-01" purity="4.0557730197906494e-01" nType="-99"/>
          <Node pos="r" depth="2" NCoef="0" IVar="-1" Cut="0.0000000000000000e+00" cType="1" res="-3.4325518645346165e-03" rms="1.3509391248226166e-01" purity="5.3689146041870117e-01" nType="-99"/>
        </Node>
      </Node>
    </BinaryTree>
    <BinaryTree type="DecisionTree" boostWeight="1.0000000000000000e+00" itree="559">
      <Node pos="s" depth="0" NCoef="0" IVar="18" Cut="-6.1993408203125000e-01" cType="1" res="4.3061971664428711e-03" rms="2.4654072523117065e-01" purity="5.0434410572052002e-01" nType="0">
        <Node pos="l" depth="1" NCoef="0" IVar="39" Cut="-5.6149125099182129e-01" cType="1" res="1.2677386985160410e-04" rms="2.3767693340778351e-01" purity="5.1168632507324219e-01" nType="0">
          <Node pos="l" depth="2" NCoef="0" IVar="-1" Cut="0.0000000000000000e+00" cType="1" res="1.0230354964733124e-03" rms="2.4225172400474548e-01" purity="5.2535825967788696e-01" nType="-99"/>
          <Node pos="r" depth="2" NCoef="0" IVar="-1" Cut="0.0000000000000000e+00" cType="1" res="-3.4367922693490982e-02" rms="-nan" purity="1.2064789235591888e-01" nType="-99"/>
        </Node>
        <Node pos="r" depth="1" NCoef="0" IVar="-1" Cut="0.0000000000000000e+00" cType="1" res="4.0788222104310989e-02" rms="3.9284166693687439e-01" purity="3.2595935463905334e-01" nType="-99"/>
      </Node>
    </BinaryTree>
    <BinaryTree type="DecisionTree" boostWeight="1.0000000000000000e+00" itree="560">
      <Node pos="s" depth="0" NCoef="0" IVar="79" Cut="-9.5202982425689697e-01" cType="1" res="-8.2598235458135605e-03" rms="2.3493368923664093e-01" purity="4.8711779713630676e-01" nType="0">
        <Node pos="l" depth="1" NCoef="0" IVar="73" Cut="2.4539873600006104e+00" cType="1" res="-2.0468508824706078e-02" rms="2.2092865407466888e-01" purity="5.2293652296066284e-01" nType="0">
          <Node pos="l" depth="2" NCoef="0" IVar="-1" Cut="0.0000000000000000e+00" cType="1" res="-3.1913712620735168e-02" rms="-nan" purity="2.8432890772819519e-01" nType="-99"/>
          <Node pos="r" depth="2" NCoef="0" IVar="-1" Cut="0.0000000000000000e+00" cType="1" res="-2.5290213525295258e-03" rms="2.3994331061840057e-01" purity="5.6811571121215820e-01" nType="-99"/>
        </Node>
        <Node pos="r" depth="1" NCoef="0" IVar="73" Cut="2.4108111858367920e+00" cType="1" res="1.2309984304010868e-02" rms="2.5549226999282837e-01" purity="4.2676857113838196e-01" nType="0">
          <Node pos="l" depth="2" NCoef="0" IVar="-1" Cut="0.0000000000000000e+00" cType="1" res="2.5255698710680008e-02" rms="3.2028746604919434e-01" purity="3.5644724965095520e-01" nType="-99"/>
          <Node pos="r" depth="2" NCoef="0" IVar="-1" Cut="0.0000000000000000e+00" cType="1" res="-1.3357407879084349e-03" rms="2.3369885981082916e-01" purity="4.4444659352302551e-01" nType="-99"/>
        </Node>
      </Node>
    </BinaryTree>
    <BinaryTree type="DecisionTree" boostWeight="1.0000000000000000e+00" itree="561">
      <Node pos="s" depth="0" NCoef="0" IVar="7" Cut="-9.4792252779006958e-01" cType="1" res="3.8413242436945438e-03" rms="2.5047138333320618e-01" purity="5.0152373313903809e-01" nType="0">
        <Node pos="l" depth="1" NCoef="0" IVar="0" Cut="1.3381638526916504e+00" cType="1" res="3.1450073583982885e-04" rms="2.4537618458271027e-01" purity="5.0493639707565308e-01" nType="0">
          <Node pos="l" depth="2" NCoef="0" IVar="-1" Cut="0.0000000000000000e+00" cType="1" res="-1.3753754319623113e-03" rms="2.4048058688640594e-01" purity="5.1510047912597656e-01" nType="-99"/>
          <Node pos="r" depth="2" NCoef="0" IVar="-1" Cut="0.0000000000000000e+00" cType="1" res="2.4852808564901352e-02" rms="2.9821726679801941e-01" purity="3.6417147517204285e-01" nType="-99"/>
        </Node>
        <Node pos="r" depth="1" NCoef="0" IVar="-1" Cut="0.0000000000000000e+00" cType="1" res="4.7678485512733459e-02" rms="3.8050812482833862e-01" purity="3.6186921596527100e-01" nType="-99"/>
      </Node>
    </BinaryTree>
    <BinaryTree type="DecisionTree" boostWeight="1.0000000000000000e+00" itree="562">
      <Node pos="s" depth="0" NCoef="0" IVar="20" Cut="2.8897261619567871e-01" cType="1" res="-3.4703891724348068e-03" rms="2.3532621562480927e-01" purity="4.9888607859611511e-01" nType="0">
        <Node pos="l" depth="1" NCoef="0" IVar="76" Cut="-9.9249351024627686e-01" cType="1" res="7.8786892117932439e-04" rms="2.4143294990062714e-01" purity="5.0973832607269287e-01" nType="0">
          <Node pos="l" depth="2" NCoef="0" IVar="-1" Cut="0.0000000000000000e+00" cType="1" res="4.3800361454486847e-03" rms="2.6669627428054810e-01" purity="6.2328785657882690e-01" nType="-99"/>
          <Node pos="r" depth="2" NCoef="0" IVar="-1" Cut="0.0000000000000000e+00" cType="1" res="-9.9065899848937988e-03" rms="1.7350770533084869e-01" purity="2.7016523480415344e-01" nType="-99"/>
        </Node>
        <Node pos="r" depth="1" NCoef="0" IVar="83" Cut="2.9435977339744568e-02" cType="1" res="-3.2847575843334198e-02" rms="-nan" purity="2.8340879082679749e-01" nType="-99"/>
      </Node>
    </BinaryTree>
    <BinaryTree type="DecisionTree" boostWeight="1.0000000000000000e+00" itree="563">
      <Node pos="s" depth="0" NCoef="0" IVar="16" Cut="1.0897858142852783e+00" cType="1" res="-4.5232214033603668e-03" rms="2.4194499850273132e-01" purity="4.8916551470756531e-01" nType="0">
        <Node pos="l" depth="1" NCoef="0" IVar="13" Cut="-1.4154744148254395e+00" cType="1" res="4.5640056487172842e-04" rms="2.4788922071456909e-01" purity="5.0295233726501465e-01" nType="0">
          <Node pos="l" depth="2" NCoef="0" IVar="-1" Cut="0.0000000000000000e+00" cType="1" res="2.8437031432986259e-02" rms="2.8271564841270447e-01" purity="2.4674536287784576e-01" nType="-99"/>
          <Node pos="r" depth="2" NCoef="0" IVar="-1" Cut="0.0000000000000000e+00" cType="1" res="-1.5756123466417193e-03" rms="2.4346826970577240e-01" purity="5.2888625860214233e-01" nType="-99"/>
        </Node>
        <Node pos="r" depth="1" NCoef="0" IVar="81" Cut="-2.1487872600555420e+00" cType="1" res="-8.1646859645843506e-02" rms="8.4318459033966064e-02" purity="2.7563652396202087e-01" nType="0">
          <Node pos="l" depth="2" NCoef="0" IVar="-1" Cut="0.0000000000000000e+00" cType="1" res="3.1233082991093397e-03" rms="2.7320945262908936e-01" purity="4.7007581591606140e-01" nType="-99"/>
          <Node pos="r" depth="2" NCoef="0" IVar="-1" Cut="0.0000000000000000e+00" cType="1" res="-6.6584818065166473e-02" rms="-nan" purity="1.1611428111791611e-01" nType="-99"/>
        </Node>
      </Node>
    </BinaryTree>
    <BinaryTree type="DecisionTree" boostWeight="1.0000000000000000e+00" itree="564">
      <Node pos="s" depth="0" NCoef="0" IVar="52" Cut="2.2882010936737061e+00" cType="1" res="-4.6604690141975880e-03" rms="2.3709683120250702e-01" purity="4.9177548289299011e-01" nType="0">
        <Node pos="l" depth="1" NCoef="0" IVar="-1" Cut="0.0000000000000000e+00" cType="1" res="5.3400438278913498e-02" rms="3.3794948458671570e-01" purity="2.0116458833217621e-01" nType="-99"/>
        <Node pos="r" depth="1" NCoef="0" IVar="17" Cut="-1.3377283811569214e+00" cType="1" res="-7.3759602382779121e-03" rms="2.3351743817329407e-01" purity="4.9860793352127075e-01" nType="0">
          <Node pos="l" depth="2" NCoef="0" IVar="-1" Cut="0.0000000000000000e+00" cType="1" res="-9.4770900905132294e-02" rms="-nan" purity="-4.3388158082962036e-02" nType="-99"/>
          <Node pos="r" depth="2" NCoef="0" IVar="-1" Cut="0.0000000000000000e+00" cType="1" res="-4.3191824806854129e-04" rms="2.5693792104721069e-01" purity="5.5803811550140381e-01" nType="-99"/>
        </Node>
      </Node>
    </BinaryTree>
    <BinaryTree type="DecisionTree" boostWeight="1.0000000000000000e+00" itree="565">
      <Node pos="s" depth="0" NCoef="0" IVar="3" Cut="4.3104858398437500e+00" cType="1" res="-5.2098222076892853e-03" rms="2.3323722183704376e-01" purity="4.9789234995841980e-01" nType="0">
        <Node pos="l" depth="1" NCoef="0" IVar="-1" Cut="0.0000000000000000e+00" cType="1" res="2.1676208823919296e-02" rms="3.4869956970214844e-01" purity="3.2433077692985535e-01" nType="-99"/>
        <Node pos="r" depth="1" NCoef="0" IVar="7" Cut="-8.5061407089233398e-01" cType="1" res="-8.1427590921521187e-03" rms="2.2771693766117096e-01" purity="5.0378906726837158e-01" nType="0">
          <Node pos="l" depth="2" NCoef="0" IVar="-1" Cut="0.0000000000000000e+00" cType="1" res="-3.6766906268894672e-03" rms="2.2312039136886597e-01" purity="5.0515693426132202e-01" nType="-99"/>
          <Node pos="r" depth="2" NCoef="0" IVar="-1" Cut="0.0000000000000000e+00" cType="1" res="3.3980742096900940e-02" rms="3.6066308617591858e-01" purity="4.4118198752403259e-01" nType="-99"/>
        </Node>
      </Node>
    </BinaryTree>
    <BinaryTree type="DecisionTree" boostWeight="1.0000000000000000e+00" itree="566">
      <Node pos="s" depth="0" NCoef="0" IVar="61" Cut="9.3076264858245850e-01" cType="1" res="5.0749783404171467e-03" rms="2.4755102396011353e-01" purity="5.0564521551132202e-01" nType="0">
        <Node pos="l" depth="1" NCoef="0" IVar="13" Cut="7.4548590183258057e-01" cType="1" res="1.5490990132093430e-02" rms="2.6637384295463562e-01" purity="5.6380838155746460e-01" nType="0">
          <Node pos="l" depth="2" NCoef="0" IVar="-1" Cut="0.0000000000000000e+00" cType="1" res="2.8681270778179169e-02" rms="2.4507845938205719e-01" purity="2.8011295199394226e-01" nType="-99"/>
          <Node pos="r" depth="2" NCoef="0" IVar="-1" Cut="0.0000000000000000e+00" cType="1" res="1.7463716212660074e-03" rms="2.7038162946701050e-01" purity="6.3263225555419922e-01" nType="-99"/>
        </Node>
        <Node pos="r" depth="1" NCoef="0" IVar="48" Cut="2.2481582164764404e+00" cType="1" res="-2.0154943689703941e-02" rms="1.9222572445869446e-01" purity="3.6476090550422668e-01" nType="0">
          <Node pos="l" depth="2" NCoef="0" IVar="-1" Cut="0.0000000000000000e+00" cType="1" res="-1.7021248117089272e-02" rms="1.2043134868144989e-01" purity="2.5903058052062988e-01" nType="-99"/>
          <Node pos="r" depth="2" NCoef="0" IVar="-1" Cut="0.0000000000000000e+00" cType="1" res="1.1660513468086720e-02" rms="2.7980020642280579e-01" purity="5.8319479227066040e-01" nType="-99"/>
        </Node>
      </Node>
    </BinaryTree>
    <BinaryTree type="DecisionTree" boostWeight="1.0000000000000000e+00" itree="567">
      <Node pos="s" depth="0" NCoef="0" IVar="2" Cut="3.2655744552612305e+00" cType="1" res="9.6394307911396027e-03" rms="2.5553706288337708e-01" purity="5.0325369834899902e-01" nType="0">
        <Node pos="l" depth="1" NCoef="0" IVar="41" Cut="-1.1455434374511242e-02" cType="1" res="3.3872453495860100e-03" rms="2.4691386520862579e-01" purity="4.6973448991775513e-01" nType="0">
          <Node pos="l" depth="2" NCoef="0" IVar="-1" Cut="0.0000000000000000e+00" cType="1" res="-5.5984766222536564e-03" rms="2.0363798737525940e-01" purity="5.2037459611892700e-01" nType="-99"/>
          <Node pos="r" depth="2" NCoef="0" IVar="-1" Cut="0.0000000000000000e+00" cType="1" res="7.8952796757221222e-03" rms="2.8172397613525391e-01" purity="4.1981816291809082e-01" nType="-99"/>
        </Node>
        <Node pos="r" depth="1" NCoef="0" IVar="57" Cut="1.4068391323089600e+00" cType="1" res="6.4848460257053375e-02" rms="3.1648936867713928e-01" purity="7.9924035072326660e-01" nType="0">
          <Node pos="l" depth="2" NCoef="0" IVar="-1" Cut="0.0000000000000000e+00" cType="1" res="4.2477700859308243e-02" rms="4.3573179841041565e-01" purity="5.4999333620071411e-01" nType="-99"/>
          <Node pos="r" depth="2" NCoef="0" IVar="-1" Cut="0.0000000000000000e+00" cType="1" res="9.0746125206351280e-03" rms="2.5723099708557129e-01" purity="8.7294024229049683e-01" nType="-99"/>
        </Node>
      </Node>
    </BinaryTree>
    <BinaryTree type="DecisionTree" boostWeight="1.0000000000000000e+00" itree="568">
      <Node pos="s" depth="0" NCoef="0" IVar="77" Cut="9.4132190942764282e-01" cType="1" res="-8.2624815404415131e-03" rms="2.2521568834781647e-01" purity="4.9658852815628052e-01" nType="0">
        <Node pos="l" depth="1" NCoef="0" IVar="48" Cut="1.1365797519683838e+00" cType="1" res="-1.8722390523180366e-03" rms="2.4063187837600708e-01" purity="5.2986317873001099e-01" nType="0">
          <Node pos="l" depth="2" NCoef="0" IVar="-1" Cut="0.0000000000000000e+00" cType="1" res="-2.0561950281262398e-02" rms="1.2715514004230499e-01" purity="2.1794725954532623e-01" nType="-99"/>
          <Node pos="r" depth="2" NCoef="0" IVar="-1" Cut="0.0000000000000000e+00" cType="1" res="1.9445882644504309e-03" rms="2.5251838564872742e-01" purity="5.7733994722366333e-01" nType="-99"/>
        </Node>
        <Node pos="r" depth="1" NCoef="0" IVar="58" Cut="-3.6877475678920746e-02" cType="1" res="-4.0340706706047058e-02" rms="-nan" purity="1.5165024995803833e-01" nType="-99"/>
      </Node>
    </BinaryTree>
    <BinaryTree type="DecisionTree" boostWeight="1.0000000000000000e+00" itree="569">
      <Node pos="s" depth="0" NCoef="0" IVar="42" Cut="3.7743240594863892e-01" cType="1" res="1.2776248157024384e-02" rms="2.5506547093391418e-01" purity="5.1277261972427368e-01" nType="0">
        <Node pos="l" depth="1" NCoef="0" IVar="37" Cut="1.2495098114013672e+00" cType="1" res="9.3666827306151390e-03" rms="2.5084283947944641e-01" purity="5.1537060737609863e-01" nType="0">
          <Node pos="l" depth="2" NCoef="0" IVar="-1" Cut="0.0000000000000000e+00" cType="1" res="1.5381784178316593e-03" rms="2.4038060009479523e-01" purity="5.2069169282913208e-01" nType="-99"/>
          <Node pos="r" depth="2" NCoef="0" IVar="-1" Cut="0.0000000000000000e+00" cType="1" res="2.1593779325485229e-02" rms="3.4960764646530151e-01" purity="4.5040041208267212e-01" nType="-99"/>
        </Node>
        <Node pos="r" depth="1" NCoef="0" IVar="59" Cut="1.3552531003952026e+00" cType="1" res="9.1427087783813477e-02" rms="3.2845523953437805e-01" purity="4.5284396409988403e-01" nType="0">
          <Node pos="l" depth="2" NCoef="0" IVar="-1" Cut="0.0000000000000000e+00" cType="1" res="6.6814310848712921e-02" rms="3.7793624401092529e-01" purity="3.4464204311370850e-01" nType="-99"/>
          <Node pos="r" depth="2" NCoef="0" IVar="-1" Cut="0.0000000000000000e+00" cType="1" res="8.3851329982280731e-03" rms="2.5825762748718262e-01" purity="5.5297660827636719e-01" nType="-99"/>
        </Node>
      </Node>
    </BinaryTree>
    <BinaryTree type="DecisionTree" boostWeight="1.0000000000000000e+00" itree="570">
      <Node pos="s" depth="0" NCoef="0" IVar="63" Cut="-8.9698113501071930e-02" cType="1" res="8.9626258704811335e-04" rms="2.4810868501663208e-01" purity="4.9658197164535522e-01" nType="0">
        <Node pos="l" depth="1" NCoef="0" IVar="61" Cut="1.1333224773406982e+00" cType="1" res="-2.1998921409249306e-02" rms="2.0245572924613953e-01" purity="4.8495146632194519e-01" nType="0">
          <Node pos="l" depth="2" NCoef="0" IVar="-1" Cut="0.0000000000000000e+00" cType="1" res="-2.8084120713174343e-03" rms="2.1900437772274017e-01" purity="5.2909302711486816e-01" nType="-99"/>
          <Node pos="r" depth="2" NCoef="0" IVar="-1" Cut="0.0000000000000000e+00" cType="1" res="-3.8458146154880524e-02" rms="-nan" purity="2.1732455492019653e-01" nType="-99"/>
        </Node>
        <Node pos="r" depth="1" NCoef="0" IVar="57" Cut="-1.1445264816284180e+00" cType="1" res="1.4593199826776981e-02" rms="2.7085492014884949e-01" purity="5.0353986024856567e-01" nType="0">
          <Node pos="l" depth="2" NCoef="0" IVar="-1" Cut="0.0000000000000000e+00" cType="1" res="6.0528658330440521e-02" rms="2.9080200195312500e-01" purity="1.1033644527196884e-01" nType="-99"/>
          <Node pos="r" depth="2" NCoef="0" IVar="-1" Cut="0.0000000000000000e+00" cType="1" res="1.3616994256153703e-03" rms="2.6586923003196716e-01" purity="5.7405704259872437e-01" nType="-99"/>
        </Node>
      </Node>
    </BinaryTree>
    <BinaryTree type="DecisionTree" boostWeight="1.0000000000000000e+00" itree="571">
      <Node pos="s" depth="0" NCoef="0" IVar="19" Cut="1.1066896915435791e+00" cType="1" res="-3.5399727057665586e-03" rms="2.3935230076313019e-01" purity="4.9368610978126526e-01" nType="0">
        <Node pos="l" depth="1" NCoef="0" IVar="52" Cut="2.4027018547058105e+00" cType="1" res="2.9549326281994581e-03" rms="2.4670499563217163e-01" purity="5.2061080932617188e-01" nType="0">
          <Node pos="l" depth="2" NCoef="0" IVar="-1" Cut="0.0000000000000000e+00" cType="1" res="3.3780321478843689e-02" rms="3.3165353536605835e-01" purity="2.7870321273803711e-01" nType="-99"/>
          <Node pos="r" depth="2" NCoef="0" IVar="-1" Cut="0.0000000000000000e+00" cType="1" res="-7.1651872713118792e-04" rms="2.4032276868820190e-01" purity="5.3329646587371826e-01" nType="-99"/>
        </Node>
        <Node pos="r" depth="1" NCoef="0" IVar="36" Cut="9.4104468822479248e-01" cType="1" res="-4.8612970858812332e-02" rms="1.7367713153362274e-01" purity="3.0683547258377075e-01" nType="0">
          <Node pos="l" depth="2" NCoef="0" IVar="-1" Cut="0.0000000000000000e+00" cType="1" res="9.5259454101324081e-03" rms="2.2265180945396423e-01" purity="1.0975314676761627e-01" nType="-99"/>
          <Node pos="r" depth="2" NCoef="0" IVar="-1" Cut="0.0000000000000000e+00" cType="1" res="-2.6695840060710907e-02" rms="1.2396459281444550e-01" purity="4.1757073998451233e-01" nType="-99"/>
        </Node>
      </Node>
    </BinaryTree>
    <BinaryTree type="DecisionTree" boostWeight="1.0000000000000000e+00" itree="572">
      <Node pos="s" depth="0" NCoef="0" IVar="62" Cut="2.9114621877670288e-01" cType="1" res="-3.6447092425078154e-03" rms="2.4461056292057037e-01" purity="4.8914030194282532e-01" nType="0">
        <Node pos="l" depth="1" NCoef="0" IVar="10" Cut="2.9368994235992432e+00" cType="1" res="-8.2970755174756050e-03" rms="2.3680822551250458e-01" purity="4.9585837125778198e-01" nType="0">
          <Node pos="l" depth="2" NCoef="0" IVar="-1" Cut="0.0000000000000000e+00" cType="1" res="1.0114774107933044e-02" rms="2.8069868683815002e-01" purity="2.9713597893714905e-01" nType="-99"/>
          <Node pos="r" depth="2" NCoef="0" IVar="-1" Cut="0.0000000000000000e+00" cType="1" res="-5.0840736366808414e-03" rms="2.2768701612949371e-01" purity="5.3008437156677246e-01" nType="-99"/>
        </Node>
        <Node pos="r" depth="1" NCoef="0" IVar="55" Cut="9.7290718555450439e-01" cType="1" res="5.8432590216398239e-02" rms="3.2528674602508545e-01" purity="3.9949980378150940e-01" nType="0">
          <Node pos="l" depth="2" NCoef="0" IVar="-1" Cut="0.0000000000000000e+00" cType="1" res="6.2899723649024963e-02" rms="4.0148869156837463e-01" purity="4.1934430599212646e-01" nType="-99"/>
          <Node pos="r" depth="2" NCoef="0" IVar="-1" Cut="0.0000000000000000e+00" cType="1" res="-8.0384304746985435e-03" rms="2.3824793100357056e-01" purity="3.8925355672836304e-01" nType="-99"/>
        </Node>
      </Node>
    </BinaryTree>
    <BinaryTree type="DecisionTree" boostWeight="1.0000000000000000e+00" itree="573">
      <Node pos="s" depth="0" NCoef="0" IVar="61" Cut="5.1027250289916992e-01" cType="1" res="-1.1705628130584955e-03" rms="2.3331600427627563e-01" purity="5.0446754693984985e-01" nType="0">
        <Node pos="l" depth="1" NCoef="0" IVar="10" Cut="2.9687800407409668e+00" cType="1" res="2.8173536062240601e-02" rms="2.7361699938774109e-01" purity="6.0764980316162109e-01" nType="0">
          <Node pos="l" depth="2" NCoef="0" IVar="-1" Cut="0.0000000000000000e+00" cType="1" res="3.3841401338577271e-02" rms="3.7087202072143555e-01" purity="4.3378397822380066e-01" nType="-99"/>
          <Node pos="r" depth="2" NCoef="0" IVar="-1" Cut="0.0000000000000000e+00" cType="1" res="3.0443095602095127e-03" rms="2.4649126827716827e-01" purity="6.4064037799835205e-01" nType="-99"/>
        </Node>
        <Node pos="r" depth="1" NCoef="0" IVar="10" Cut="2.8644104003906250e+00" cType="1" res="-1.2610035017132759e-02" rms="2.1448878943920135e-01" purity="4.6424314379692078e-01" nType="0">
          <Node pos="l" depth="2" NCoef="0" IVar="-1" Cut="0.0000000000000000e+00" cType="1" res="-3.4257348626852036e-02" rms="-nan" purity="1.2043579667806625e-01" nType="-99"/>
          <Node pos="r" depth="2" NCoef="0" IVar="-1" Cut="0.0000000000000000e+00" cType="1" res="-1.8039779970422387e-03" rms="2.2846545279026031e-01" purity="4.9439176917076111e-01" nType="-99"/>
        </Node>
      </Node>
    </BinaryTree>
    <BinaryTree type="DecisionTree" boostWeight="1.0000000000000000e+00" itree="574">
      <Node pos="s" depth="0" NCoef="0" IVar="3" Cut="5.5313186645507812e+00" cType="1" res="5.9761228039860725e-03" rms="2.4955965578556061e-01" purity="4.9704691767692566e-01" nType="0">
        <Node pos="l" depth="1" NCoef="0" IVar="3" Cut="4.4226002693176270e+00" cType="1" res="2.8056262526661158e-03" rms="2.4527913331985474e-01" purity="5.0138044357299805e-01" nType="0">
          <Node pos="l" depth="2" NCoef="0" IVar="-1" Cut="0.0000000000000000e+00" cType="1" res="1.8628209829330444e-02" rms="3.2778412103652954e-01" purity="3.1959339976310730e-01" nType="-99"/>
          <Node pos="r" depth="2" NCoef="0" IVar="-1" Cut="0.0000000000000000e+00" cType="1" res="-1.3005858054384589e-03" rms="2.3267336189746857e-01" purity="5.2293604612350464e-01" nType="-99"/>
        </Node>
        <Node pos="r" depth="1" NCoef="0" IVar="-1" Cut="0.0000000000000000e+00" cType="1" res="4.7214627265930176e-02" rms="3.7135192751884460e-01" purity="2.9800361394882202e-01" nType="-99"/>
      </Node>
    </BinaryTree>
    <BinaryTree type="DecisionTree" boostWeight="1.0000000000000000e+00" itree="575">
      <Node pos="s" depth="0" NCoef="0" IVar="36" Cut="5.9622657299041748e-01" cType="1" res="-1.8850341439247131e-03" rms="2.3578836023807526e-01" purity="4.9550044536590576e-01" nType="0">
        <Node pos="l" depth="1" NCoef="0" IVar="52" Cut="3.0326790809631348e+00" cType="1" res="-3.7696473300457001e-02" rms="6.6720917820930481e-02" purity="7.2166211903095245e-02" nType="0">
          <Node pos="l" depth="2" NCoef="0" IVar="-1" Cut="0.0000000000000000e+00" cType="1" res="-1.3076994800940156e-03" rms="1.9001552462577820e-01" purity="1.0138076543807983e-01" nType="-99"/>
          <Node pos="r" depth="2" NCoef="0" IVar="-1" Cut="0.0000000000000000e+00" cType="1" res="-4.2822103947401047e-02" rms="-nan" purity="2.3052163422107697e-02" nType="-99"/>
        </Node>
        <Node pos="r" depth="1" NCoef="0" IVar="78" Cut="1.2918868064880371e+00" cType="1" res="8.6482167243957520e-03" rms="2.6486063003540039e-01" purity="6.2001609802246094e-01" nType="0">
          <Node pos="l" depth="2" NCoef="0" IVar="-1" Cut="0.0000000000000000e+00" cType="1" res="4.5819906517863274e-03" rms="2.7510091662406921e-01" purity="6.6565781831741333e-01" nType="-99"/>
          <Node pos="r" depth="2" NCoef="0" IVar="-1" Cut="0.0000000000000000e+00" cType="1" res="-2.4069363251328468e-02" rms="6.7677609622478485e-02" purity="1.2503349781036377e-01" nType="-99"/>
        </Node>
      </Node>
    </BinaryTree>
    <BinaryTree type="DecisionTree" boostWeight="1.0000000000000000e+00" itree="576">
      <Node pos="s" depth="0" NCoef="0" IVar="46" Cut="1.6129722595214844e+00" cType="1" res="7.5927828438580036e-03" rms="2.4838691949844360e-01" purity="5.0616216659545898e-01" nType="0">
        <Node pos="l" depth="1" NCoef="0" IVar="83" Cut="3.8895574212074280e-01" cType="1" res="4.7439234331250191e-03" rms="2.4393299221992493e-01" purity="5.1106113195419312e-01" nType="0">
          <Node pos="l" depth="2" NCoef="0" IVar="-1" Cut="0.0000000000000000e+00" cType="1" res="2.3859187494963408e-03" rms="2.4714915454387665e-01" purity="5.1613157987594604e-01" nType="-99"/>
          <Node pos="r" depth="2" NCoef="0" IVar="-1" Cut="0.0000000000000000e+00" cType="1" res="-3.8033027201890945e-02" rms="-nan" purity="2.8913778066635132e-01" nType="-99"/>
        </Node>
        <Node pos="r" depth="1" NCoef="0" IVar="-1" Cut="0.0000000000000000e+00" cType="1" res="7.4765942990779877e-02" rms="3.8188239932060242e-01" purity="2.7801448106765747e-01" nType="-99"/>
      </Node>
    </BinaryTree>
    <BinaryTree type="DecisionTree" boostWeight="1.0000000000000000e+00" itree="577">
      <Node pos="s" depth="0" NCoef="0" IVar="62" Cut="4.0177601575851440e-01" cType="1" res="3.7410762161016464e-03" rms="2.4503679573535919e-01" purity="4.9698993563652039e-01" nType="0">
        <Node pos="l" depth="1" NCoef="0" IVar="15" Cut="1.5220727920532227e+00" cType="1" res="6.0740543995052576e-04" rms="2.3879908025264740e-01" purity="4.9785670638084412e-01" nType="0">
          <Node pos="l" depth="2" NCoef="0" IVar="-1" Cut="0.0000000000000000e+00" cType="1" res="2.8590271249413490e-03" rms="2.3910397291183472e-01" purity="4.8907741904258728e-01" nType="-99"/>
          <Node pos="r" depth="2" NCoef="0" IVar="-1" Cut="0.0000000000000000e+00" cType="1" res="-9.3712247908115387e-03" rms="2.3390807211399078e-01" purity="5.4086542129516602e-01" nType="-99"/>
        </Node>
        <Node pos="r" depth="1" NCoef="0" IVar="-1" Cut="0.0000000000000000e+00" cType="1" res="4.5252669602632523e-02" rms="4.1867882013320923e-01" purity="4.5808225870132446e-01" nType="-99"/>
      </Node>
    </BinaryTree>
    <BinaryTree type="DecisionTree" boostWeight="1.0000000000000000e+00" itree="578">
      <Node pos="s" depth="0" NCoef="0" IVar="27" Cut="6.9226908683776855e-01" cType="1" res="7.0124189369380474e-03" rms="2.5116935372352600e-01" purity="5.0610989332199097e-01" nType="0">
        <Node pos="l" depth="1" NCoef="0" IVar="-1" Cut="0.0000000000000000e+00" cType="1" res="4.1793741285800934e-02" rms="3.7852936983108521e-01" purity="2.9659685492515564e-01" nType="-99"/>
        <Node pos="r" depth="1" NCoef="0" IVar="37" Cut="1.3990780115127563e+00" cType="1" res="4.0649729780852795e-03" rms="2.4588920176029205e-01" purity="5.1215738058090210e-01" nType="0">
          <Node pos="l" depth="2" NCoef="0" IVar="-1" Cut="0.0000000000000000e+00" cType="1" res="2.1712081506848335e-03" rms="2.4836017191410065e-01" purity="5.1917862892150879e-01" nType="-99"/>
          <Node pos="r" depth="2" NCoef="0" IVar="-1" Cut="0.0000000000000000e+00" cType="1" res="-3.7074610590934753e-02" rms="1.8438456580042839e-02" purity="2.2924447059631348e-01" nType="-99"/>
        </Node>
      </Node>
    </BinaryTree>
    <BinaryTree type="DecisionTree" boostWeight="1.0000000000000000e+00" itree="579">
      <Node pos="s" depth="0" NCoef="0" IVar="42" Cut="-6.0056495666503906e-01" cType="1" res="4.2209448292851448e-03" rms="2.5373753905296326e-01" purity="5.0456392765045166e-01" nType="0">
        <Node pos="l" depth="1" NCoef="0" IVar="-1" Cut="0.0000000000000000e+00" cType="1" res="3.4513067454099655e-02" rms="3.8107380270957947e-01" purity="5.2324783802032471e-01" nType="-99"/>
        <Node pos="r" depth="1" NCoef="0" IVar="1" Cut="3.2523291110992432e+00" cType="1" res="1.7579109407961369e-04" rms="2.4638976156711578e-01" purity="5.0381237268447876e-01" nType="0">
          <Node pos="l" depth="2" NCoef="0" IVar="-1" Cut="0.0000000000000000e+00" cType="1" res="3.8479566574096680e-03" rms="2.5903972983360291e-01" purity="4.6211782097816467e-01" nType="-99"/>
          <Node pos="r" depth="2" NCoef="0" IVar="-1" Cut="0.0000000000000000e+00" cType="1" res="-1.2011377140879631e-02" rms="2.0104040205478668e-01" purity="6.2632495164871216e-01" nType="-99"/>
        </Node>
      </Node>
    </BinaryTree>
    <BinaryTree type="DecisionTree" boostWeight="1.0000000000000000e+00" itree="580">
      <Node pos="s" depth="0" NCoef="0" IVar="17" Cut="-1.4537599086761475e+00" cType="1" res="-2.9060672968626022e-03" rms="2.3370227217674255e-01" purity="5.0022804737091064e-01" nType="0">
        <Node pos="l" depth="1" NCoef="0" IVar="-1" Cut="0.0000000000000000e+00" cType="1" res="9.9907420575618744e-02" rms="3.4220695495605469e-01" purity="1.5789847075939178e-01" nType="-99"/>
        <Node pos="r" depth="1" NCoef="0" IVar="13" Cut="-1.2100689411163330e+00" cType="1" res="-6.9338427856564522e-03" rms="2.2814506292343140e-01" purity="5.1150065660476685e-01" nType="0">
          <Node pos="l" depth="2" NCoef="0" IVar="-1" Cut="0.0000000000000000e+00" cType="1" res="-3.3528685569763184e-02" rms="-nan" purity="1.7133831977844238e-01" nType="-99"/>
          <Node pos="r" depth="2" NCoef="0" IVar="-1" Cut="0.0000000000000000e+00" cType="1" res="2.4442852009087801e-04" rms="2.5558552145957947e-01" purity="5.5532473325729370e-01" nType="-99"/>
        </Node>
      </Node>
    </BinaryTree>
    <BinaryTree type="DecisionTree" boostWeight="1.0000000000000000e+00" itree="581">
      <Node pos="s" depth="0" NCoef="0" IVar="17" Cut="1.4084726572036743e+00" cType="1" res="-1.5334248309955001e-03" rms="2.3635239899158478e-01" purity="5.0244939327239990e-01" nType="0">
        <Node pos="l" depth="1" NCoef="0" IVar="34" Cut="1.1669241189956665e+00" cType="1" res="-2.3927714675664902e-02" rms="-nan" purity="2.9523767530918121e-02" nType="-99"/>
        <Node pos="r" depth="1" NCoef="0" IVar="77" Cut="1.4446103572845459e+00" cType="1" res="1.2797041796147823e-02" rms="2.8875321149826050e-01" purity="6.9467389583587646e-01" nType="0">
          <Node pos="l" depth="2" NCoef="0" IVar="-1" Cut="0.0000000000000000e+00" cType="1" res="2.0140160340815783e-03" rms="2.8371042013168335e-01" purity="7.0550119876861572e-01" nType="-99"/>
          <Node pos="r" depth="2" NCoef="0" IVar="-1" Cut="0.0000000000000000e+00" cType="1" res="7.5094163417816162e-02" rms="3.8384675979614258e-01" purity="3.2485827803611755e-01" nType="-99"/>
        </Node>
      </Node>
    </BinaryTree>
    <BinaryTree type="DecisionTree" boostWeight="1.0000000000000000e+00" itree="582">
      <Node pos="s" depth="0" NCoef="0" IVar="7" Cut="-9.8684585094451904e-01" cType="1" res="9.2324782162904739e-03" rms="2.5397339463233948e-01" purity="5.0235736370086670e-01" nType="0">
        <Node pos="l" depth="1" NCoef="0" IVar="16" Cut="-1.4155989885330200e+00" cType="1" res="5.7675405405461788e-03" rms="2.4838887155056000e-01" purity="5.0557214021682739e-01" nType="0">
          <Node pos="l" depth="2" NCoef="0" IVar="-1" Cut="0.0000000000000000e+00" cType="1" res="-3.8631275296211243e-02" rms="-nan" purity="1.2724031507968903e-01" nType="-99"/>
          <Node pos="r" depth="2" NCoef="0" IVar="-1" Cut="0.0000000000000000e+00" cType="1" res="2.8891894035041332e-03" rms="2.5440180301666260e-01" purity="5.1646596193313599e-01" nType="-99"/>
        </Node>
        <Node pos="r" depth="1" NCoef="0" IVar="-1" Cut="0.0000000000000000e+00" cType="1" res="3.5464510321617126e-02" rms="3.7940293550491333e-01" purity="3.9573225378990173e-01" nType="-99"/>
      </Node>
    </BinaryTree>
    <BinaryTree type="DecisionTree" boostWeight="1.0000000000000000e+00" itree="583">
      <Node pos="s" depth="0" NCoef="0" IVar="57" Cut="1.5300459228456020e-02" cType="1" res="6.5002092160284519e-03" rms="2.4985522031784058e-01" purity="5.0817012786865234e-01" nType="0">
        <Node pos="l" depth="1" NCoef="0" IVar="2" Cut="2.6105105876922607e+00" cType="1" res="3.6661617457866669e-02" rms="2.3081156611442566e-01" purity="1.1553701013326645e-01" nType="0">
          <Node pos="l" depth="2" NCoef="0" IVar="-1" Cut="0.0000000000000000e+00" cType="1" res="1.4854017645120621e-03" rms="1.4967660605907440e-01" purity="4.8453688621520996e-02" nType="-99"/>
          <Node pos="r" depth="2" NCoef="0" IVar="-1" Cut="0.0000000000000000e+00" cType="1" res="3.9916008710861206e-02" rms="3.4969243407249451e-01" purity="2.9002469778060913e-01" nType="-99"/>
        </Node>
        <Node pos="r" depth="1" NCoef="0" IVar="2" Cut="1.5649168491363525e+00" cType="1" res="-1.6429827082902193e-03" rms="2.5413987040519714e-01" purity="6.1417603492736816e-01" nType="0">
          <Node pos="l" depth="2" NCoef="0" IVar="-1" Cut="0.0000000000000000e+00" cType="1" res="-2.5032531470060349e-02" rms="1.2064197659492493e-01" purity="1.1734732240438461e-01" nType="-99"/>
          <Node pos="r" depth="2" NCoef="0" IVar="-1" Cut="0.0000000000000000e+00" cType="1" res="1.2485852930694818e-03" rms="2.6154053211212158e-01" purity="6.5635389089584351e-01" nType="-99"/>
        </Node>
      </Node>
    </BinaryTree>
    <BinaryTree type="DecisionTree" boostWeight="1.0000000000000000e+00" itree="584">
      <Node pos="s" depth="0" NCoef="0" IVar="46" Cut="1.4309659004211426e+00" cType="1" res="2.1344250999391079e-03" rms="2.4360340833663940e-01" purity="5.0281935930252075e-01" nType="0">
        <Node pos="l" depth="1" NCoef="0" IVar="88" Cut="9.9323445558547974e-01" cType="1" res="4.8395753838121891e-03" rms="2.4861505627632141e-01" purity="5.1606303453445435e-01" nType="0">
          <Node pos="l" depth="2" NCoef="0" IVar="-1" Cut="0.0000000000000000e+00" cType="1" res="4.8175523988902569e-03" rms="2.6864382624626160e-01" purity="5.5882012844085693e-01" nType="-99"/>
          <Node pos="r" depth="2" NCoef="0" IVar="-1" Cut="0.0000000000000000e+00" cType="1" res="-6.3079162500798702e-03" rms="1.9985911250114441e-01" purity="4.2890232801437378e-01" nType="-99"/>
        </Node>
        <Node pos="r" depth="1" NCoef="0" IVar="-1" Cut="0.0000000000000000e+00" cType="1" res="-4.7345172613859177e-02" rms="-nan" purity="4.5588023960590363e-02" nType="-99"/>
      </Node>
    </BinaryTree>
    <BinaryTree type="DecisionTree" boostWeight="1.0000000000000000e+00" itree="585">
      <Node pos="s" depth="0" NCoef="0" IVar="33" Cut="1.2345679104328156e-02" cType="1" res="2.5870914105325937e-03" rms="2.4818478524684906e-01" purity="5.0422483682632446e-01" nType="0">
        <Node pos="l" depth="1" NCoef="0" IVar="57" Cut="1.2910825014114380e+00" cType="1" res="1.6372997313737869e-02" rms="2.6764291524887085e-01" purity="5.1875436305999756e-01" nType="0">
          <Node pos="l" depth="2" NCoef="0" IVar="-1" Cut="0.0000000000000000e+00" cType="1" res="2.0536439493298531e-02" rms="2.8513774275779724e-01" purity="1.7830732464790344e-01" nType="-99"/>
          <Node pos="r" depth="2" NCoef="0" IVar="-1" Cut="0.0000000000000000e+00" cType="1" res="6.0115876840427518e-04" rms="2.5854057073593140e-01" purity="6.6321051120758057e-01" nType="-99"/>
        </Node>
        <Node pos="r" depth="1" NCoef="0" IVar="52" Cut="2.6962327957153320e+00" cType="1" res="-2.0744420588016510e-02" rms="2.0914781093597412e-01" purity="4.7963476181030273e-01" nType="0">
          <Node pos="l" depth="2" NCoef="0" IVar="-1" Cut="0.0000000000000000e+00" cType="1" res="-4.5953392982482910e-02" rms="-nan" purity="1.0192182660102844e-01" nType="-99"/>
          <Node pos="r" depth="2" NCoef="0" IVar="-1" Cut="0.0000000000000000e+00" cType="1" res="-4.8554586246609688e-03" rms="2.2107820212841034e-01" purity="5.1074212789535522e-01" nType="-99"/>
        </Node>
      </Node>
    </BinaryTree>
    <BinaryTree type="DecisionTree" boostWeight="1.0000000000000000e+00" itree="586">
      <Node pos="s" depth="0" NCoef="0" IVar="73" Cut="2.6863558292388916e+00" cType="1" res="-1.5576648293063045e-03" rms="2.3912006616592407e-01" purity="4.9809560179710388e-01" nType="0">
        <Node pos="l" depth="1" NCoef="0" IVar="59" Cut="1.3597775697708130e+00" cType="1" res="-2.5955785065889359e-02" rms="1.8553954362869263e-01" purity="3.7668794393539429e-01" nType="0">
          <Node pos="l" depth="2" NCoef="0" IVar="-1" Cut="0.0000000000000000e+00" cType="1" res="-3.2253980636596680e-02" rms="-nan" purity="1.4146570861339569e-01" nType="-99"/>
          <Node pos="r" depth="2" NCoef="0" IVar="-1" Cut="0.0000000000000000e+00" cType="1" res="2.6268844958394766e-03" rms="2.7105480432510376e-01" purity="5.3141492605209351e-01" nType="-99"/>
        </Node>
        <Node pos="r" depth="1" NCoef="0" IVar="39" Cut="-1.7802821397781372e+00" cType="1" res="1.4268560335040092e-02" rms="2.6702287793159485e-01" purity="5.7684868574142456e-01" nType="0">
          <Node pos="l" depth="2" NCoef="0" IVar="-1" Cut="0.0000000000000000e+00" cType="1" res="-1.7076221993193030e-03" rms="2.4052365124225616e-01" purity="6.5615278482437134e-01" nType="-99"/>
          <Node pos="r" depth="2" NCoef="0" IVar="-1" Cut="0.0000000000000000e+00" cType="1" res="1.4155508950352669e-02" rms="3.0021020770072937e-01" purity="4.5742747187614441e-01" nType="-99"/>
        </Node>
      </Node>
    </BinaryTree>
    <BinaryTree type="DecisionTree" boostWeight="1.0000000000000000e+00" itree="587">
      <Node pos="s" depth="0" NCoef="0" IVar="5" Cut="2.1573503036051989e-03" cType="1" res="-1.7078458331525326e-03" rms="2.3839357495307922e-01" purity="5.0614106655120850e-01" nType="0">
        <Node pos="l" depth="1" NCoef="0" IVar="76" Cut="1.0473096370697021e+00" cType="1" res="-2.5235066190361977e-02" rms="-nan" purity="2.8855943679809570e-01" nType="-99"/>
        <Node pos="r" depth="1" NCoef="0" IVar="31" Cut="2.5286827087402344e+00" cType="1" res="6.1726984567940235e-03" rms="2.5355547666549683e-01" purity="5.3552234172821045e-01" nType="0">
          <Node pos="l" depth="2" NCoef="0" IVar="-1" Cut="0.0000000000000000e+00" cType="1" res="-2.2487463429570198e-02" rms="1.5719461441040039e-01" purity="1.5494064986705780e-01" nType="-99"/>
          <Node pos="r" depth="2" NCoef="0" IVar="-1" Cut="0.0000000000000000e+00" cType="1" res="3.7909965030848980e-03" rms="2.5867003202438354e-01" purity="5.6476050615310669e-01" nType="-99"/>
        </Node>
      </Node>
    </BinaryTree>
    <BinaryTree type="DecisionTree" boostWeight="1.0000000000000000e+00" itree="588">
      <Node pos="s" depth="0" NCoef="0" IVar="13" Cut="-3.3571919798851013e-01" cType="1" res="1.2746498687192798e-03" rms="2.3639604449272156e-01" purity="5.0271612405776978e-01" nType="0">
        <Node pos="l" depth="1" NCoef="0" IVar="35" Cut="-1.2608526945114136e+00" cType="1" res="4.1757494211196899e-02" rms="2.2553245723247528e-01" purity="2.2382839024066925e-01" nType="0">
          <Node pos="l" depth="2" NCoef="0" IVar="-1" Cut="0.0000000000000000e+00" cType="1" res="8.7942920625209808e-02" rms="3.2379630208015442e-01" purity="1.8961265683174133e-01" nType="-99"/>
          <Node pos="r" depth="2" NCoef="0" IVar="-1" Cut="0.0000000000000000e+00" cType="1" res="4.8695623263483867e-05" rms="1.1502967029809952e-01" purity="2.4478934705257416e-01" nType="-99"/>
        </Node>
        <Node pos="r" depth="1" NCoef="0" IVar="61" Cut="1.4877625703811646e+00" cType="1" res="-8.0868136137723923e-03" rms="2.3785901069641113e-01" purity="5.6720751523971558e-01" nType="0">
          <Node pos="l" depth="2" NCoef="0" IVar="-1" Cut="0.0000000000000000e+00" cType="1" res="-1.1705609504133463e-03" rms="2.4355481564998627e-01" purity="5.8197945356369019e-01" nType="-99"/>
          <Node pos="r" depth="2" NCoef="0" IVar="-1" Cut="0.0000000000000000e+00" cType="1" res="-2.8378495946526527e-02" rms="-nan" purity="2.5584879517555237e-01" nType="-99"/>
        </Node>
      </Node>
    </BinaryTree>
    <BinaryTree type="DecisionTree" boostWeight="1.0000000000000000e+00" itree="589">
      <Node pos="s" depth="0" NCoef="0" IVar="18" Cut="-1.1743949651718140e+00" cType="1" res="-1.1303359642624855e-03" rms="2.3663838207721710e-01" purity="4.9669402837753296e-01" nType="0">
        <Node pos="l" depth="1" NCoef="0" IVar="55" Cut="1.0145002603530884e+00" cType="1" res="6.1435890384018421e-03" rms="2.4667786061763763e-01" purity="5.3228193521499634e-01" nType="0">
          <Node pos="l" depth="2" NCoef="0" IVar="-1" Cut="0.0000000000000000e+00" cType="1" res="1.3749014586210251e-02" rms="2.5958225131034851e-01" purity="2.9656600952148438e-01" nType="-99"/>
          <Node pos="r" depth="2" NCoef="0" IVar="-1" Cut="0.0000000000000000e+00" cType="1" res="-1.4759739860892296e-03" rms="2.4093782901763916e-01" purity="6.1754941940307617e-01" nType="-99"/>
        </Node>
        <Node pos="r" depth="1" NCoef="0" IVar="79" Cut="-1.0964829474687576e-01" cType="1" res="-4.6864200383424759e-02" rms="1.5187373757362366e-01" purity="2.7293962240219116e-01" nType="0">
          <Node pos="l" depth="2" NCoef="0" IVar="-1" Cut="0.0000000000000000e+00" cType="1" res="-2.7749609202146530e-02" rms="-nan" purity="2.6589831709861755e-01" nType="-99"/>
          <Node pos="r" depth="2" NCoef="0" IVar="-1" Cut="0.0000000000000000e+00" cType="1" res="1.2172510847449303e-02" rms="2.5285226106643677e-01" purity="2.8788053989410400e-01" nType="-99"/>
        </Node>
      </Node>
    </BinaryTree>
    <BinaryTree type="DecisionTree" boostWeight="1.0000000000000000e+00" itree="590">
      <Node pos="s" depth="0" NCoef="0" IVar="10" Cut="2.9281790256500244e+00" cType="1" res="5.2742795087397099e-03" rms="2.4278114736080170e-01" purity="5.1432693004608154e-01" nType="0">
        <Node pos="l" depth="1" NCoef="0" IVar="63" Cut="1.2710794806480408e-01" cType="1" res="4.5367151498794556e-02" rms="3.0267778038978577e-01" purity="2.9427105188369751e-01" nType="0">
          <Node pos="l" depth="2" NCoef="0" IVar="-1" Cut="0.0000000000000000e+00" cType="1" res="2.3570068180561066e-02" rms="3.2854208350181580e-01" purity="3.4307548403739929e-01" nType="-99"/>
          <Node pos="r" depth="2" NCoef="0" IVar="-1" Cut="0.0000000000000000e+00" cType="1" res="-2.7948625385761261e-02" rms="1.1078876256942749e-01" purity="1.0899934917688370e-01" nType="-99"/>
        </Node>
        <Node pos="r" depth="1" NCoef="0" IVar="18" Cut="-6.4302545785903931e-01" cType="1" res="-7.4226781725883484e-04" rms="2.3186732828617096e-01" purity="5.4734969139099121e-01" nType="0">
          <Node pos="l" depth="2" NCoef="0" IVar="-1" Cut="0.0000000000000000e+00" cType="1" res="7.1345863398164511e-04" rms="2.3505964875221252e-01" purity="5.5966413021087646e-01" nType="-99"/>
          <Node pos="r" depth="2" NCoef="0" IVar="-1" Cut="0.0000000000000000e+00" cType="1" res="-3.5769455134868622e-02" rms="-nan" purity="1.4729538559913635e-01" nType="-99"/>
        </Node>
      </Node>
    </BinaryTree>
    <BinaryTree type="DecisionTree" boostWeight="1.0000000000000000e+00" itree="591">
      <Node pos="s" depth="0" NCoef="0" IVar="71" Cut="-7.7565252780914307e-02" cType="1" res="1.0981984669342637e-03" rms="2.4033582210540771e-01" purity="5.0646108388900757e-01" nType="0">
        <Node pos="l" depth="1" NCoef="0" IVar="32" Cut="1.2345679104328156e-02" cType="1" res="5.1529365591704845e-03" rms="2.4579368531703949e-01" purity="5.1444333791732788e-01" nType="0">
          <Node pos="l" depth="2" NCoef="0" IVar="-1" Cut="0.0000000000000000e+00" cType="1" res="9.7826290875673294e-03" rms="2.8743377327919006e-01" purity="4.6846589446067810e-01" nType="-99"/>
          <Node pos="r" depth="2" NCoef="0" IVar="-1" Cut="0.0000000000000000e+00" cType="1" res="-3.1996816396713257e-03" rms="2.2018602490425110e-01" purity="5.3794974088668823e-01" nType="-99"/>
        </Node>
        <Node pos="r" depth="1" NCoef="0" IVar="78" Cut="-1.4553551673889160e+00" cType="1" res="-3.0867049470543861e-02" rms="-nan" purity="3.2083439826965332e-01" nType="-99"/>
      </Node>
    </BinaryTree>
    <BinaryTree type="DecisionTree" boostWeight="1.0000000000000000e+00" itree="592">
      <Node pos="s" depth="0" NCoef="0" IVar="64" Cut="1.2345679104328156e-02" cType="1" res="3.1686404254287481e-03" rms="2.4838222563266754e-01" purity="4.9500805139541626e-01" nType="0">
        <Node pos="l" depth="1" NCoef="0" IVar="-1" Cut="0.0000000000000000e+00" cType="1" res="-3.1160153448581696e-02" rms="-nan" purity="1.7602895200252533e-01" nType="-99"/>
        <Node pos="r" depth="1" NCoef="0" IVar="17" Cut="4.4150221347808838e-01" cType="1" res="6.0628512874245644e-03" rms="2.5540217757225037e-01" purity="5.0517094135284424e-01" nType="0">
          <Node pos="l" depth="2" NCoef="0" IVar="-1" Cut="0.0000000000000000e+00" cType="1" res="3.6126568913459778e-02" rms="2.1202999353408813e-01" purity="6.8885624408721924e-02" nType="-99"/>
          <Node pos="r" depth="2" NCoef="0" IVar="-1" Cut="0.0000000000000000e+00" cType="1" res="-4.8674535355530679e-04" rms="2.6465061306953430e-01" purity="6.1511456966400146e-01" nType="-99"/>
        </Node>
      </Node>
    </BinaryTree>
    <BinaryTree type="DecisionTree" boostWeight="1.0000000000000000e+00" itree="593">
      <Node pos="s" depth="0" NCoef="0" IVar="36" Cut="-1.2604672908782959e+00" cType="1" res="-1.1349836131557822e-03" rms="2.3863601684570312e-01" purity="4.9935543537139893e-01" nType="0">
        <Node pos="l" depth="1" NCoef="0" IVar="18" Cut="-1.7694904804229736e+00" cType="1" res="4.2630415409803391e-02" rms="2.5977671146392822e-01" purity="1.1216096580028534e-01" nType="0">
          <Node pos="l" depth="2" NCoef="0" IVar="-1" Cut="0.0000000000000000e+00" cType="1" res="-6.6136494278907776e-03" rms="1.4490200579166412e-01" purity="6.8079680204391479e-02" nType="-99"/>
          <Node pos="r" depth="2" NCoef="0" IVar="-1" Cut="0.0000000000000000e+00" cType="1" res="6.8293072283267975e-02" rms="3.3670243620872498e-01" purity="1.6279827058315277e-01" nType="-99"/>
        </Node>
        <Node pos="r" depth="1" NCoef="0" IVar="15" Cut="-1.0673675537109375e+00" cType="1" res="-8.2200523465871811e-03" rms="2.3426714539527893e-01" purity="5.6203734874725342e-01" nType="0">
          <Node pos="l" depth="2" NCoef="0" IVar="-1" Cut="0.0000000000000000e+00" cType="1" res="-2.9215002432465553e-02" rms="-nan" purity="2.1839363873004913e-01" nType="-99"/>
          <Node pos="r" depth="2" NCoef="0" IVar="-1" Cut="0.0000000000000000e+00" cType="1" res="8.2250038394704461e-04" rms="2.6299679279327393e-01" purity="6.3778537511825562e-01" nType="-99"/>
        </Node>
      </Node>
    </BinaryTree>
    <BinaryTree type="DecisionTree" boostWeight="1.0000000000000000e+00" itree="594">
      <Node pos="s" depth="0" NCoef="0" IVar="52" Cut="2.5175998210906982e+00" cType="1" res="-2.8970281127840281e-03" rms="2.4200159311294556e-01" purity="4.9461430311203003e-01" nType="0">
        <Node pos="l" depth="1" NCoef="0" IVar="81" Cut="-1.8491940498352051e+00" cType="1" res="5.4973974823951721e-02" rms="2.9778829216957092e-01" purity="2.2415944933891296e-01" nType="0">
          <Node pos="l" depth="2" NCoef="0" IVar="-1" Cut="0.0000000000000000e+00" cType="1" res="3.4640867263078690e-02" rms="3.7771576642990112e-01" purity="3.4742006659507751e-01" nType="-99"/>
          <Node pos="r" depth="2" NCoef="0" IVar="-1" Cut="0.0000000000000000e+00" cType="1" res="-3.6510399077087641e-03" rms="1.6937029361724854e-01" purity="1.0533620417118073e-01" nType="-99"/>
        </Node>
        <Node pos="r" depth="1" NCoef="0" IVar="19" Cut="2.4545510113239288e-01" cType="1" res="-8.5381697863340378e-03" rms="2.3509812355041504e-01" purity="5.2097767591476440e-01" nType="0">
          <Node pos="l" depth="2" NCoef="0" IVar="-1" Cut="0.0000000000000000e+00" cType="1" res="-2.1874068304896355e-02" rms="1.6556182503700256e-01" purity="5.4170626401901245e-01" nType="-99"/>
          <Node pos="r" depth="2" NCoef="0" IVar="-1" Cut="0.0000000000000000e+00" cType="1" res="-7.0879101986065507e-04" rms="2.4093179404735565e-01" purity="5.1861548423767090e-01" nType="-99"/>
        </Node>
      </Node>
    </BinaryTree>
    <BinaryTree type="DecisionTree" boostWeight="1.0000000000000000e+00" itree="595">
      <Node pos="s" depth="0" NCoef="0" IVar="48" Cut="7.5283759832382202e-01" cType="1" res="-4.2734481394290924e-03" rms="2.4076509475708008e-01" purity="4.8835578560829163e-01" nType="0">
        <Node pos="l" depth="1" NCoef="0" IVar="81" Cut="-1.5448952913284302e+00" cType="1" res="6.6410914063453674e-02" rms="3.1570619344711304e-01" purity="2.3035399615764618e-01" nType="0">
          <Node pos="l" depth="2" NCoef="0" IVar="-1" Cut="0.0000000000000000e+00" cType="1" res="-9.1259460896253586e-03" rms="2.1426421403884888e-01" purity="1.7156423628330231e-01" nType="-99"/>
          <Node pos="r" depth="2" NCoef="0" IVar="-1" Cut="0.0000000000000000e+00" cType="1" res="7.9097405076026917e-02" rms="3.7389340996742249e-01" purity="2.9315033555030823e-01" nType="-99"/>
        </Node>
        <Node pos="r" depth="1" NCoef="0" IVar="57" Cut="1.4070928096771240e+00" cType="1" res="-7.4251252226531506e-03" rms="2.3638038337230682e-01" purity="4.9985957145690918e-01" nType="0">
          <Node pos="l" depth="2" NCoef="0" IVar="-1" Cut="0.0000000000000000e+00" cType="1" res="-1.2821975164115429e-02" rms="1.3308876752853394e-01" purity="1.2489026784896851e-01" nType="-99"/>
          <Node pos="r" depth="2" NCoef="0" IVar="-1" Cut="0.0000000000000000e+00" cType="1" res="1.4037056826055050e-03" rms="2.7397939562797546e-01" purity="6.9273483753204346e-01" nType="-99"/>
        </Node>
      </Node>
    </BinaryTree>
    <BinaryTree type="DecisionTree" boostWeight="1.0000000000000000e+00" itree="596">
      <Node pos="s" depth="0" NCoef="0" IVar="52" Cut="2.9008767604827881e+00" cType="1" res="-2.1905824542045593e-03" rms="2.3172046244144440e-01" purity="5.0463187694549561e-01" nType="0">
        <Node pos="l" depth="1" NCoef="0" IVar="79" Cut="1.2829928398132324e+00" cType="1" res="-3.0803045257925987e-02" rms="1.8643768131732941e-01" purity="3.2574856281280518e-01" nType="0">
          <Node pos="l" depth="2" NCoef="0" IVar="-1" Cut="0.0000000000000000e+00" cType="1" res="-6.9387215189635754e-03" rms="2.1212925016880035e-01" purity="3.4823092818260193e-01" nType="-99"/>
          <Node pos="r" depth="2" NCoef="0" IVar="-1" Cut="0.0000000000000000e+00" cType="1" res="-7.5434878468513489e-02" rms="-nan" purity="1.2693478725850582e-02" nType="-99"/>
        </Node>
        <Node pos="r" depth="1" NCoef="0" IVar="47" Cut="1.2345679104328156e-02" cType="1" res="1.2924601323902607e-02" rms="2.5107061862945557e-01" purity="5.9913098812103271e-01" nType="0">
          <Node pos="l" depth="2" NCoef="0" IVar="-1" Cut="0.0000000000000000e+00" cType="1" res="2.7062811423093081e-03" rms="2.4189300835132599e-01" purity="6.0034549236297607e-01" nType="-99"/>
          <Node pos="r" depth="2" NCoef="0" IVar="-1" Cut="0.0000000000000000e+00" cType="1" res="4.1608236730098724e-02" rms="3.9643034338951111e-01" purity="5.7000094652175903e-01" nType="-99"/>
        </Node>
      </Node>
    </BinaryTree>
    <BinaryTree type="DecisionTree" boostWeight="1.0000000000000000e+00" itree="597">
      <Node pos="s" depth="0" NCoef="0" IVar="61" Cut="1.2938823699951172e+00" cType="1" res="-3.4396233968436718e-03" rms="2.3975431919097900e-01" purity="4.9350008368492126e-01" nType="0">
        <Node pos="l" depth="1" NCoef="0" IVar="84" Cut="-3.4525614976882935e-01" cType="1" res="-9.7932051867246628e-03" rms="2.2871264815330505e-01" purity="5.1188880205154419e-01" nType="0">
          <Node pos="l" depth="2" NCoef="0" IVar="-1" Cut="0.0000000000000000e+00" cType="1" res="-2.3857664316892624e-02" rms="9.2777304351329803e-02" purity="4.5824983716011047e-01" nType="-99"/>
          <Node pos="r" depth="2" NCoef="0" IVar="-1" Cut="0.0000000000000000e+00" cType="1" res="-7.7195966150611639e-04" rms="2.4033060669898987e-01" purity="5.1915401220321655e-01" nType="-99"/>
        </Node>
        <Node pos="r" depth="1" NCoef="0" IVar="56" Cut="-1.4539256095886230e+00" cType="1" res="5.1434677094221115e-02" rms="3.1432032585144043e-01" purity="3.3468121290206909e-01" nType="0">
          <Node pos="l" depth="2" NCoef="0" IVar="-1" Cut="0.0000000000000000e+00" cType="1" res="6.5573804080486298e-02" rms="4.2426511645317078e-01" purity="4.4915863871574402e-01" nType="-99"/>
          <Node pos="r" depth="2" NCoef="0" IVar="-1" Cut="0.0000000000000000e+00" cType="1" res="3.1407570349983871e-04" rms="2.4727208912372589e-01" purity="2.9577079415321350e-01" nType="-99"/>
        </Node>
      </Node>
    </BinaryTree>
    <BinaryTree type="DecisionTree" boostWeight="1.0000000000000000e+00" itree="598">
      <Node pos="s" depth="0" NCoef="0" IVar="77" Cut="1.1354403495788574e+00" cType="1" res="7.4184932745993137e-03" rms="2.4668243527412415e-01" purity="5.0716292858123779e-01" nType="0">
        <Node pos="l" depth="1" NCoef="0" IVar="5" Cut="5.3427433967590332e-01" cType="1" res="1.3215438462793827e-02" rms="2.6126235723495483e-01" purity="5.3699713945388794e-01" nType="0">
          <Node pos="l" depth="2" NCoef="0" IVar="-1" Cut="0.0000000000000000e+00" cType="1" res="3.1562573276460171e-03" rms="2.5688138604164124e-01" purity="5.4170286655426025e-01" nType="-99"/>
          <Node pos="r" depth="2" NCoef="0" IVar="-1" Cut="0.0000000000000000e+00" cType="1" res="4.9485631287097931e-02" rms="3.7322947382926941e-01" purity="3.5458707809448242e-01" nType="-99"/>
        </Node>
        <Node pos="r" depth="1" NCoef="0" IVar="37" Cut="1.2365700304508209e-01" cType="1" res="-3.4395214170217514e-02" rms="-nan" purity="1.4296698570251465e-01" nType="-99"/>
      </Node>
    </BinaryTree>
    <BinaryTree type="DecisionTree" boostWeight="1.0000000000000000e+00" itree="599">
      <Node pos="s" depth="0" NCoef="0" IVar="51" Cut="-6.1728394031524658e-01" cType="1" res="4.7314935363829136e-03" rms="2.4054977297782898e-01" purity="5.0340896844863892e-01" nType="0">
        <Node pos="l" depth="1" NCoef="0" IVar="42" Cut="1.1872117221355438e-01" cType="1" res="6.7177899181842804e-02" rms="3.1426817178726196e-01" purity="4.6165075898170471e-01" nType="0">
          <Node pos="l" depth="2" NCoef="0" IVar="-1" Cut="0.0000000000000000e+00" cType="1" res="2.6379562914371490e-03" rms="2.3461385071277618e-01" purity="4.3416836857795715e-01" nType="-99"/>
          <Node pos="r" depth="2" NCoef="0" IVar="-1" Cut="0.0000000000000000e+00" cType="1" res="5.9129383414983749e-02" rms="4.0983989834785461e-01" purity="5.1938861608505249e-01" nType="-99"/>
        </Node>
        <Node pos="r" depth="1" NCoef="0" IVar="13" Cut="-1.0295637845993042e+00" cType="1" res="-8.5672922432422638e-04" rms="2.3199978470802307e-01" purity="5.0714588165283203e-01" nType="0">
          <Node pos="l" depth="2" NCoef="0" IVar="-1" Cut="0.0000000000000000e+00" cType="1" res="-2.6747409254312515e-02" rms="-nan" purity="1.4460465312004089e-01" nType="-99"/>
          <Node pos="r" depth="2" NCoef="0" IVar="-1" Cut="0.0000000000000000e+00" cType="1" res="2.3583141155540943e-03" rms="2.5946030020713806e-01" purity="5.7087981700897217e-01" nType="-99"/>
        </Node>
      </Node>
    </BinaryTree>
    <BinaryTree type="DecisionTree" boostWeight="1.0000000000000000e+00" itree="600">
      <Node pos="s" depth="0" NCoef="0" IVar="52" Cut="2.2874031066894531e+00" cType="1" res="-9.8992660641670227e-03" rms="2.2683225572109222e-01" purity="4.9307984113693237e-01" nType="0">
        <Node pos="l" depth="1" NCoef="0" IVar="-1" Cut="0.0000000000000000e+00" cType="1" res="4.4570889323949814e-02" rms="3.5849085450172424e-01" purity="2.3102296888828278e-01" nType="-99"/>
        <Node pos="r" depth="1" NCoef="0" IVar="52" Cut="2.5636188983917236e+00" cType="1" res="-1.2457525357604027e-02" rms="2.2235493361949921e-01" purity="4.9889340996742249e-01" nType="0">
          <Node pos="l" depth="2" NCoef="0" IVar="-1" Cut="0.0000000000000000e+00" cType="1" res="-2.8091985732316971e-02" rms="-nan" purity="1.1269884556531906e-01" nType="-99"/>
          <Node pos="r" depth="2" NCoef="0" IVar="-1" Cut="0.0000000000000000e+00" cType="1" res="-2.3595304228365421e-03" rms="2.3364572227001190e-01" purity="5.3243601322174072e-01" nType="-99"/>
        </Node>
      </Node>
    </BinaryTree>
    <BinaryTree type="DecisionTree" boostWeight="1.0000000000000000e+00" itree="601">
      <Node pos="s" depth="0" NCoef="0" IVar="77" Cut="2.4593533575534821e-01" cType="1" res="2.3943358100950718e-03" rms="2.4540980160236359e-01" purity="5.0162738561630249e-01" nType="0">
        <Node pos="l" depth="1" NCoef="0" IVar="14" Cut="-1.1063623428344727e+00" cType="1" res="-4.6441070735454559e-03" rms="2.3802085220813751e-01" purity="5.3423607349395752e-01" nType="0">
          <Node pos="l" depth="2" NCoef="0" IVar="-1" Cut="0.0000000000000000e+00" cType="1" res="-1.0386964306235313e-02" rms="2.1851263940334320e-01" purity="4.0430927276611328e-01" nType="-99"/>
          <Node pos="r" depth="2" NCoef="0" IVar="-1" Cut="0.0000000000000000e+00" cType="1" res="2.7138679288327694e-03" rms="2.4643829464912415e-01" purity="6.0122561454772949e-01" nType="-99"/>
        </Node>
        <Node pos="r" depth="1" NCoef="0" IVar="55" Cut="-1.3384296894073486e+00" cType="1" res="5.0324898213148117e-02" rms="2.8621020913124084e-01" purity="2.7956739068031311e-01" nType="0">
          <Node pos="l" depth="2" NCoef="0" IVar="-1" Cut="0.0000000000000000e+00" cType="1" res="9.5905244350433350e-02" rms="4.0038731694221497e-01" purity="3.5725328326225281e-01" nType="-99"/>
          <Node pos="r" depth="2" NCoef="0" IVar="-1" Cut="0.0000000000000000e+00" cType="1" res="5.5146962404251099e-03" rms="2.2294898331165314e-01" purity="2.5305423140525818e-01" nType="-99"/>
        </Node>
      </Node>
    </BinaryTree>
    <BinaryTree type="DecisionTree" boostWeight="1.0000000000000000e+00" itree="602">
      <Node pos="s" depth="0" NCoef="0" IVar="55" Cut="1.2055894136428833e+00" cType="1" res="-2.9199258424341679e-03" rms="2.3290118575096130e-01" purity="4.9003222584724426e-01" nType="0">
        <Node pos="l" depth="1" NCoef="0" IVar="73" Cut="2.2734177112579346e+00" cType="1" res="-3.5298809409141541e-02" rms="1.0836450010538101e-01" purity="2.1870535612106323e-01" nType="0">
          <Node pos="l" depth="2" NCoef="0" IVar="-1" Cut="0.0000000000000000e+00" cType="1" res="3.7927374243736267e-02" rms="3.0287814140319824e-01" purity="2.3074616491794586e-01" nType="-99"/>
          <Node pos="r" depth="2" NCoef="0" IVar="-1" Cut="0.0000000000000000e+00" cType="1" res="-1.8755722790956497e-02" rms="4.0102824568748474e-02" purity="2.1741722524166107e-01" nType="-99"/>
        </Node>
        <Node pos="r" depth="1" NCoef="0" IVar="82" Cut="1.4458196163177490e+00" cType="1" res="9.8236454650759697e-03" rms="2.6532053947448730e-01" purity="5.9682011604309082e-01" nType="0">
          <Node pos="l" depth="2" NCoef="0" IVar="-1" Cut="0.0000000000000000e+00" cType="1" res="4.3764063157141209e-03" rms="2.7351912856101990e-01" purity="6.1763978004455566e-01" nType="-99"/>
          <Node pos="r" depth="2" NCoef="0" IVar="-1" Cut="0.0000000000000000e+00" cType="1" res="-2.8076598420739174e-02" rms="-nan" purity="2.2075176239013672e-01" nType="-99"/>
        </Node>
      </Node>
    </BinaryTree>
    <BinaryTree type="DecisionTree" boostWeight="1.0000000000000000e+00" itree="603">
      <Node pos="s" depth="0" NCoef="0" IVar="88" Cut="1.5367943048477173e+00" cType="1" res="4.3471609242260456e-03" rms="2.4567542970180511e-01" purity="5.0639951229095459e-01" nType="0">
        <Node pos="l" depth="1" NCoef="0" IVar="57" Cut="-1.2991726398468018e+00" cType="1" res="1.3891118578612804e-03" rms="2.4174934625625610e-01" purity="5.1362401247024536e-01" nType="0">
          <Node pos="l" depth="2" NCoef="0" IVar="-1" Cut="0.0000000000000000e+00" cType="1" res="-4.0795147418975830e-02" rms="-nan" purity="-4.6426053158938885e-03" nType="-99"/>
          <Node pos="r" depth="2" NCoef="0" IVar="-1" Cut="0.0000000000000000e+00" cType="1" res="2.5620870292186737e-03" rms="2.6037329435348511e-01" purity="5.7434469461441040e-01" nType="-99"/>
        </Node>
        <Node pos="r" depth="1" NCoef="0" IVar="-1" Cut="0.0000000000000000e+00" cType="1" res="5.7545140385627747e-02" rms="3.4116426110267639e-01" purity="2.5307661294937134e-01" nType="-99"/>
      </Node>
    </BinaryTree>
    <BinaryTree type="DecisionTree" boostWeight="1.0000000000000000e+00" itree="604">
      <Node pos="s" depth="0" NCoef="0" IVar="1" Cut="3.1202630996704102e+00" cType="1" res="4.1116027205134742e-07" rms="2.4747066199779510e-01" purity="4.9660474061965942e-01" nType="0">
        <Node pos="l" depth="1" NCoef="0" IVar="15" Cut="1.5223981142044067e+00" cType="1" res="1.4212503097951412e-02" rms="2.5705203413963318e-01" purity="4.4832384586334229e-01" nType="0">
          <Node pos="l" depth="2" NCoef="0" IVar="-1" Cut="0.0000000000000000e+00" cType="1" res="9.3252481892704964e-03" rms="2.6603055000305176e-01" purity="4.4640088081359863e-01" nType="-99"/>
          <Node pos="r" depth="2" NCoef="0" IVar="-1" Cut="0.0000000000000000e+00" cType="1" res="-1.4992985874414444e-02" rms="1.8705800175666809e-01" purity="4.5871314406394958e-01" nType="-99"/>
        </Node>
        <Node pos="r" depth="1" NCoef="0" IVar="2" Cut="2.7056536674499512e+00" cType="1" res="-3.0577002093195915e-02" rms="2.2242248058319092e-01" purity="6.0048162937164307e-01" nType="0">
          <Node pos="l" depth="2" NCoef="0" IVar="-1" Cut="0.0000000000000000e+00" cType="1" res="-5.6499730795621872e-02" rms="-nan" purity="1.3781246542930603e-01" nType="-99"/>
          <Node pos="r" depth="2" NCoef="0" IVar="-1" Cut="0.0000000000000000e+00" cType="1" res="-3.9209863170981407e-03" rms="2.6236793398857117e-01" purity="6.9176822900772095e-01" nType="-99"/>
        </Node>
      </Node>
    </BinaryTree>
    <BinaryTree type="DecisionTree" boostWeight="1.0000000000000000e+00" itree="605">
      <Node pos="s" depth="0" NCoef="0" IVar="73" Cut="2.5196809768676758e+00" cType="1" res="-6.5311845391988754e-03" rms="2.2861939668655396e-01" purity="4.9796104431152344e-01" nType="0">
        <Node pos="l" depth="1" NCoef="0" IVar="52" Cut="2.6246941089630127e+00" cType="1" res="-4.3396111577749252e-02" rms="1.1213694512844086e-01" purity="3.2293003797531128e-01" nType="0">
          <Node pos="l" depth="2" NCoef="0" IVar="-1" Cut="0.0000000000000000e+00" cType="1" res="-7.5773105025291443e-02" rms="-nan" purity="-1.6018079593777657e-02" nType="-99"/>
          <Node pos="r" depth="2" NCoef="0" IVar="-1" Cut="0.0000000000000000e+00" cType="1" res="-5.6085349060595036e-03" rms="1.9728399813175201e-01" purity="4.0040844678878784e-01" nType="-99"/>
        </Node>
        <Node pos="r" depth="1" NCoef="0" IVar="52" Cut="2.4030811786651611e+00" cType="1" res="4.5478185638785362e-03" rms="2.5231790542602539e-01" purity="5.5056303739547729e-01" nType="0">
          <Node pos="l" depth="2" NCoef="0" IVar="-1" Cut="0.0000000000000000e+00" cType="1" res="4.1922293603420258e-02" rms="3.8896605372428894e-01" purity="2.8334021568298340e-01" nType="-99"/>
          <Node pos="r" depth="2" NCoef="0" IVar="-1" Cut="0.0000000000000000e+00" cType="1" res="2.8495955120888539e-05" rms="2.4442458152770996e-01" purity="5.6088829040527344e-01" nType="-99"/>
        </Node>
      </Node>
    </BinaryTree>
    <BinaryTree type="DecisionTree" boostWeight="1.0000000000000000e+00" itree="606">
      <Node pos="s" depth="0" NCoef="0" IVar="41" Cut="-1.3115218281745911e-01" cType="1" res="1.0274734348058701e-02" rms="2.4965901672840118e-01" purity="5.1348090171813965e-01" nType="0">
        <Node pos="l" depth="1" NCoef="0" IVar="14" Cut="-1.3382685184478760e+00" cType="1" res="-1.6531115397810936e-02" rms="2.0161640644073486e-01" purity="5.7122451066970825e-01" nType="0">
          <Node pos="l" depth="2" NCoef="0" IVar="-1" Cut="0.0000000000000000e+00" cType="1" res="-4.3895982205867767e-02" rms="-nan" purity="3.0704751610755920e-01" nType="-99"/>
          <Node pos="r" depth="2" NCoef="0" IVar="-1" Cut="0.0000000000000000e+00" cType="1" res="2.5058904429897666e-04" rms="2.3256194591522217e-01" purity="6.2151104211807251e-01" nType="-99"/>
        </Node>
        <Node pos="r" depth="1" NCoef="0" IVar="37" Cut="1.2062939405441284e+00" cType="1" res="2.1262114867568016e-02" rms="2.6608443260192871e-01" purity="4.8981255292892456e-01" nType="0">
          <Node pos="l" depth="2" NCoef="0" IVar="-1" Cut="0.0000000000000000e+00" cType="1" res="4.0657431818544865e-03" rms="2.5244700908660889e-01" purity="4.8690643906593323e-01" nType="-99"/>
          <Node pos="r" depth="2" NCoef="0" IVar="-1" Cut="0.0000000000000000e+00" cType="1" res="2.9704235494136810e-02" rms="3.5455042123794556e-01" purity="5.1513177156448364e-01" nType="-99"/>
        </Node>
      </Node>
    </BinaryTree>
    <BinaryTree type="DecisionTree" boostWeight="1.0000000000000000e+00" itree="607">
      <Node pos="s" depth="0" NCoef="0" IVar="71" Cut="-5.8173939585685730e-02" cType="1" res="-8.0842396710067987e-04" rms="2.3439027369022369e-01" purity="5.0780206918716431e-01" nType="0">
        <Node pos="l" depth="1" NCoef="0" IVar="5" Cut="4.9578121304512024e-01" cType="1" res="2.5286085437983274e-03" rms="2.3916338384151459e-01" purity="5.1455867290496826e-01" nType="0">
          <Node pos="l" depth="2" NCoef="0" IVar="-1" Cut="0.0000000000000000e+00" cType="1" res="2.1684987004846334e-03" rms="2.4552945792675018e-01" purity="5.3349995613098145e-01" nType="-99"/>
          <Node pos="r" depth="2" NCoef="0" IVar="-1" Cut="0.0000000000000000e+00" cType="1" res="-3.0359625816345215e-02" rms="-nan" purity="1.3102665543556213e-01" nType="-99"/>
        </Node>
        <Node pos="r" depth="1" NCoef="0" IVar="-1" Cut="0.0000000000000000e+00" cType="1" res="-2.9474597424268723e-02" rms="-nan" purity="3.3245703577995300e-01" nType="-99"/>
      </Node>
    </BinaryTree>
    <BinaryTree type="DecisionTree" boostWeight="1.0000000000000000e+00" itree="608">
      <Node pos="s" depth="0" NCoef="0" IVar="56" Cut="1.4064434766769409e+00" cType="1" res="6.3867019489407539e-03" rms="2.4747867882251740e-01" purity="4.9866759777069092e-01" nType="0">
        <Node pos="l" depth="1" NCoef="0" IVar="5" Cut="-1.2449581176042557e-01" cType="1" res="8.6775043746456504e-04" rms="2.3979613184928894e-01" purity="5.0196617841720581e-01" nType="0">
          <Node pos="l" depth="2" NCoef="0" IVar="-1" Cut="0.0000000000000000e+00" cType="1" res="-6.5011054277420044e-02" rms="-nan" purity="6.8827845156192780e-02" nType="-99"/>
          <Node pos="r" depth="2" NCoef="0" IVar="-1" Cut="0.0000000000000000e+00" cType="1" res="1.8939656438305974e-03" rms="2.5249230861663818e-01" purity="5.2086758613586426e-01" nType="-99"/>
        </Node>
        <Node pos="r" depth="1" NCoef="0" IVar="27" Cut="1.7584246397018433e+00" cType="1" res="8.1747949123382568e-02" rms="3.2598781585693359e-01" purity="4.5362573862075806e-01" nType="0">
          <Node pos="l" depth="2" NCoef="0" IVar="-1" Cut="0.0000000000000000e+00" cType="1" res="6.4221501350402832e-02" rms="3.9351481199264526e-01" purity="4.2969092726707458e-01" nType="-99"/>
          <Node pos="r" depth="2" NCoef="0" IVar="-1" Cut="0.0000000000000000e+00" cType="1" res="4.2660264298319817e-03" rms="2.3438633978366852e-01" purity="4.7379824519157410e-01" nType="-99"/>
        </Node>
      </Node>
    </BinaryTree>
    <BinaryTree type="DecisionTree" boostWeight="1.0000000000000000e+00" itree="609">
      <Node pos="s" depth="0" NCoef="0" IVar="10" Cut="2.7317180633544922e+00" cType="1" res="-1.2395334197208285e-03" rms="2.3754549026489258e-01" purity="5.0153917074203491e-01" nType="0">
        <Node pos="l" depth="1" NCoef="0" IVar="-1" Cut="0.0000000000000000e+00" cType="1" res="-3.4957263618707657e-02" rms="-nan" purity="1.3346715271472931e-01" nType="-99"/>
        <Node pos="r" depth="1" NCoef="0" IVar="16" Cut="1.2828538417816162e+00" cType="1" res="1.8842716235667467e-03" rms="2.4467155337333679e-01" purity="5.1303911209106445e-01" nType="0">
          <Node pos="l" depth="2" NCoef="0" IVar="-1" Cut="0.0000000000000000e+00" cType="1" res="1.5130137326195836e-03" rms="2.4885894358158112e-01" purity="5.2039098739624023e-01" nType="-99"/>
          <Node pos="r" depth="2" NCoef="0" IVar="-1" Cut="0.0000000000000000e+00" cType="1" res="-3.8225334137678146e-02" rms="-nan" purity="1.6892799735069275e-01" nType="-99"/>
        </Node>
      </Node>
    </BinaryTree>
    <BinaryTree type="DecisionTree" boostWeight="1.0000000000000000e+00" itree="610">
      <Node pos="s" depth="0" NCoef="0" IVar="63" Cut="3.8103771209716797e-01" cType="1" res="-1.1336785973981023e-03" rms="2.3991416394710541e-01" purity="4.9963960051536560e-01" nType="0">
        <Node pos="l" depth="1" NCoef="0" IVar="8" Cut="-3.8782626390457153e-02" cType="1" res="-4.5722881332039833e-03" rms="2.3373745381832123e-01" purity="5.0457972288131714e-01" nType="0">
          <Node pos="l" depth="2" NCoef="0" IVar="-1" Cut="0.0000000000000000e+00" cType="1" res="-2.4939824361354113e-03" rms="2.2968633472919464e-01" purity="5.0650709867477417e-01" nType="-99"/>
          <Node pos="r" depth="2" NCoef="0" IVar="-1" Cut="0.0000000000000000e+00" cType="1" res="3.1852044165134430e-02" rms="3.3946666121482849e-01" purity="4.2956125736236572e-01" nType="-99"/>
        </Node>
        <Node pos="r" depth="1" NCoef="0" IVar="52" Cut="2.9914333820343018e+00" cType="1" res="8.0202393233776093e-02" rms="3.4621560573577881e-01" purity="3.8278585672378540e-01" nType="0">
          <Node pos="l" depth="2" NCoef="0" IVar="-1" Cut="0.0000000000000000e+00" cType="1" res="7.2814367711544037e-02" rms="4.2545852065086365e-01" purity="3.2559716701507568e-01" nType="-99"/>
          <Node pos="r" depth="2" NCoef="0" IVar="-1" Cut="0.0000000000000000e+00" cType="1" res="-1.4917618827894330e-03" rms="2.1218261122703552e-01" purity="4.3932276964187622e-01" nType="-99"/>
        </Node>
      </Node>
    </BinaryTree>
    <BinaryTree type="DecisionTree" boostWeight="1.0000000000000000e+00" itree="611">
      <Node pos="s" depth="0" NCoef="0" IVar="16" Cut="-1.4155989885330200e+00" cType="1" res="4.8136012628674507e-03" rms="2.4800072610378265e-01" purity="5.0634920597076416e-01" nType="0">
        <Node pos="l" depth="1" NCoef="0" IVar="-1" Cut="0.0000000000000000e+00" cType="1" res="-4.5667473226785660e-02" rms="-nan" purity="9.1700114309787750e-02" nType="-99"/>
        <Node pos="r" depth="1" NCoef="0" IVar="1" Cut="3.2494268417358398e+00" cType="1" res="7.7609475702047348e-03" rms="2.5325450301170349e-01" purity="5.1880049705505371e-01" nType="0">
          <Node pos="l" depth="2" NCoef="0" IVar="-1" Cut="0.0000000000000000e+00" cType="1" res="5.7556512765586376e-03" rms="2.6617020368576050e-01" purity="4.7925418615341187e-01" nType="-99"/>
          <Node pos="r" depth="2" NCoef="0" IVar="-1" Cut="0.0000000000000000e+00" cType="1" res="-6.8352650851011276e-03" rms="2.0869565010070801e-01" purity="6.3441079854965210e-01" nType="-99"/>
        </Node>
      </Node>
    </BinaryTree>
    <BinaryTree type="DecisionTree" boostWeight="1.0000000000000000e+00" itree="612">
      <Node pos="s" depth="0" NCoef="0" IVar="21" Cut="2.6265662908554077e-01" cType="1" res="2.9611359350383282e-03" rms="2.4775309860706329e-01" purity="5.0263530015945435e-01" nType="0">
        <Node pos="l" depth="1" NCoef="0" IVar="17" Cut="-1.3764022588729858e+00" cType="1" res="-3.3200387842953205e-03" rms="2.3910333216190338e-01" purity="5.0790894031524658e-01" nType="0">
          <Node pos="l" depth="2" NCoef="0" IVar="-1" Cut="0.0000000000000000e+00" cType="1" res="-1.4387041330337524e-01" rms="-nan" purity="-6.7700929939746857e-02" nType="-99"/>
          <Node pos="r" depth="2" NCoef="0" IVar="-1" Cut="0.0000000000000000e+00" cType="1" res="1.3219350948929787e-03" rms="2.6264879107475281e-01" purity="5.6187397241592407e-01" nType="-99"/>
        </Node>
        <Node pos="r" depth="1" NCoef="0" IVar="73" Cut="2.4737801551818848e+00" cType="1" res="5.5402163416147232e-02" rms="3.0571407079696655e-01" purity="4.5860606431961060e-01" nType="0">
          <Node pos="l" depth="2" NCoef="0" IVar="-1" Cut="0.0000000000000000e+00" cType="1" res="7.1196652948856354e-02" rms="4.0555694699287415e-01" purity="3.7376192212104797e-01" nType="-99"/>
          <Node pos="r" depth="2" NCoef="0" IVar="-1" Cut="0.0000000000000000e+00" cType="1" res="7.5904815457761288e-03" rms="2.6566225290298462e-01" purity="4.7982490062713623e-01" nType="-99"/>
        </Node>
      </Node>
    </BinaryTree>
    <BinaryTree type="DecisionTree" boostWeight="1.0000000000000000e+00" itree="613">
      <Node pos="s" depth="0" NCoef="0" IVar="58" Cut="-1.3386614322662354e+00" cType="1" res="2.9678607825189829e-03" rms="2.4447856843471527e-01" purity="5.0166887044906616e-01" nType="0">
        <Node pos="l" depth="1" NCoef="0" IVar="13" Cut="8.5994505882263184e-01" cType="1" res="5.3418200463056564e-02" rms="3.0342882871627808e-01" purity="4.0116572380065918e-01" nType="0">
          <Node pos="l" depth="2" NCoef="0" IVar="-1" Cut="0.0000000000000000e+00" cType="1" res="1.6700339317321777e-01" rms="3.9152982831001282e-01" purity="2.4808084964752197e-01" nType="-99"/>
          <Node pos="r" depth="2" NCoef="0" IVar="-1" Cut="0.0000000000000000e+00" cType="1" res="2.3857266642153263e-03" rms="2.5359266996383667e-01" purity="4.4872897863388062e-01" nType="-99"/>
        </Node>
        <Node pos="r" depth="1" NCoef="0" IVar="31" Cut="2.6648981571197510e+00" cType="1" res="-7.5796465389430523e-03" rms="2.2885295748710632e-01" purity="5.2268075942993164e-01" nType="0">
          <Node pos="l" depth="2" NCoef="0" IVar="-1" Cut="0.0000000000000000e+00" cType="1" res="-1.8476897850632668e-02" rms="1.3922832906246185e-01" purity="2.3759590089321136e-01" nType="-99"/>
          <Node pos="r" depth="2" NCoef="0" IVar="-1" Cut="0.0000000000000000e+00" cType="1" res="-7.2186703619081527e-05" rms="2.3935307562351227e-01" purity="5.6855130195617676e-01" nType="-99"/>
        </Node>
      </Node>
    </BinaryTree>
    <BinaryTree type="DecisionTree" boostWeight="1.0000000000000000e+00" itree="614">
      <Node pos="s" depth="0" NCoef="0" IVar="42" Cut="3.7743240594863892e-01" cType="1" res="4.7668465413153172e-03" rms="2.4655222892761230e-01" purity="5.0085657835006714e-01" nType="0">
        <Node pos="l" depth="1" NCoef="0" IVar="36" Cut="-1.4150804281234741e+00" cType="1" res="1.4345527160912752e-03" rms="2.4228569865226746e-01" purity="5.0360178947448730e-01" nType="0">
          <Node pos="l" depth="2" NCoef="0" IVar="-1" Cut="0.0000000000000000e+00" cType="1" res="-5.4486498236656189e-02" rms="-nan" purity="-2.5069335475564003e-02" nType="-99"/>
          <Node pos="r" depth="2" NCoef="0" IVar="-1" Cut="0.0000000000000000e+00" cType="1" res="1.7787655815482140e-03" rms="2.5505283474922180e-01" purity="5.3717648983001709e-01" nType="-99"/>
        </Node>
        <Node pos="r" depth="1" NCoef="0" IVar="58" Cut="-4.5685425400733948e-01" cType="1" res="7.7397674322128296e-02" rms="3.1737902760505676e-01" purity="4.4102141261100769e-01" nType="0">
          <Node pos="l" depth="2" NCoef="0" IVar="-1" Cut="0.0000000000000000e+00" cType="1" res="-2.5134356692433357e-03" rms="2.1462103724479675e-01" purity="3.8899049162864685e-01" nType="-99"/>
          <Node pos="r" depth="2" NCoef="0" IVar="-1" Cut="0.0000000000000000e+00" cType="1" res="4.3132323771715164e-02" rms="3.6920025944709778e-01" purity="4.8579564690589905e-01" nType="-99"/>
        </Node>
      </Node>
    </BinaryTree>
    <BinaryTree type="DecisionTree" boostWeight="1.0000000000000000e+00" itree="615">
      <Node pos="s" depth="0" NCoef="0" IVar="36" Cut="-1.2604672908782959e+00" cType="1" res="7.2815585881471634e-03" rms="2.5745156407356262e-01" purity="4.9632072448730469e-01" nType="0">
        <Node pos="l" depth="1" NCoef="0" IVar="35" Cut="-1.3387376070022583e+00" cType="1" res="5.4162558168172836e-02" rms="2.7547293901443481e-01" purity="1.2783233821392059e-01" nType="0">
          <Node pos="l" depth="2" NCoef="0" IVar="-1" Cut="0.0000000000000000e+00" cType="1" res="-1.4249530620872974e-02" rms="1.0430203378200531e-01" purity="4.8101596534252167e-02" nType="-99"/>
          <Node pos="r" depth="2" NCoef="0" IVar="-1" Cut="0.0000000000000000e+00" cType="1" res="7.7125407755374908e-02" rms="3.6228403449058533e-01" purity="2.1284073591232300e-01" nType="-99"/>
        </Node>
        <Node pos="r" depth="1" NCoef="0" IVar="58" Cut="-1.0531710088253021e-01" cType="1" res="-2.7044094167649746e-04" rms="2.5362005829811096e-01" purity="5.5568009614944458e-01" nType="0">
          <Node pos="l" depth="2" NCoef="0" IVar="-1" Cut="0.0000000000000000e+00" cType="1" res="3.8705570623278618e-03" rms="2.6841205358505249e-01" purity="5.7888913154602051e-01" nType="-99"/>
          <Node pos="r" depth="2" NCoef="0" IVar="-1" Cut="0.0000000000000000e+00" cType="1" res="-8.2866279408335686e-03" rms="2.1839037537574768e-01" purity="5.0859647989273071e-01" nType="-99"/>
        </Node>
      </Node>
    </BinaryTree>
    <BinaryTree type="DecisionTree" boostWeight="1.0000000000000000e+00" itree="616">
      <Node pos="s" depth="0" NCoef="0" IVar="8" Cut="-2.7147838473320007e-01" cType="1" res="-3.6551181692630053e-03" rms="2.3903556168079376e-01" purity="4.9823260307312012e-01" nType="0">
        <Node pos="l" depth="1" NCoef="0" IVar="35" Cut="1.3294667005538940e+00" cType="1" res="-7.7972165308892727e-04" rms="2.4491773545742035e-01" purity="5.0857579708099365e-01" nType="0">
          <Node pos="l" depth="2" NCoef="0" IVar="-1" Cut="0.0000000000000000e+00" cType="1" res="1.4802325749769807e-03" rms="2.5176930427551270e-01" purity="5.1709842681884766e-01" nType="-99"/>
          <Node pos="r" depth="2" NCoef="0" IVar="-1" Cut="0.0000000000000000e+00" cType="1" res="-1.8928674980998039e-02" rms="1.4416232705116272e-01" purity="4.1848382353782654e-01" nType="-99"/>
        </Node>
        <Node pos="r" depth="1" NCoef="0" IVar="-1" Cut="0.0000000000000000e+00" cType="1" res="-3.5655066370964050e-02" rms="-nan" purity="1.7405320703983307e-01" nType="-99"/>
      </Node>
    </BinaryTree>
    <BinaryTree type="DecisionTree" boostWeight="1.0000000000000000e+00" itree="617">
      <Node pos="s" depth="0" NCoef="0" IVar="69" Cut="1.4963617324829102e+00" cType="1" res="6.1897048726677895e-03" rms="2.4786964058876038e-01" purity="5.0226736068725586e-01" nType="0">
        <Node pos="l" depth="1" NCoef="0" IVar="31" Cut="3.4972941875457764e+00" cType="1" res="2.8598492965102196e-02" rms="2.7825820446014404e-01" purity="3.4783113002777100e-01" nType="0">
          <Node pos="l" depth="2" NCoef="0" IVar="-1" Cut="0.0000000000000000e+00" cType="1" res="5.8718123473227024e-03" rms="2.6336735486984253e-01" purity="3.3726787567138672e-01" nType="-99"/>
          <Node pos="r" depth="2" NCoef="0" IVar="-1" Cut="0.0000000000000000e+00" cType="1" res="7.1534767746925354e-02" rms="4.0426653623580933e-01" purity="5.0314390659332275e-01" nType="-99"/>
        </Node>
        <Node pos="r" depth="1" NCoef="0" IVar="57" Cut="-7.9630571603775024e-01" cType="1" res="-6.9197425618767738e-03" rms="2.2720117866992950e-01" purity="5.9261459112167358e-01" nType="0">
          <Node pos="l" depth="2" NCoef="0" IVar="-1" Cut="0.0000000000000000e+00" cType="1" res="-6.1767961829900742e-02" rms="-nan" purity="-3.9256349205970764e-02" nType="-99"/>
          <Node pos="r" depth="2" NCoef="0" IVar="-1" Cut="0.0000000000000000e+00" cType="1" res="2.0358737092465162e-03" rms="2.6048010587692261e-01" purity="6.7912387847900391e-01" nType="-99"/>
        </Node>
      </Node>
    </BinaryTree>
    <BinaryTree type="DecisionTree" boostWeight="1.0000000000000000e+00" itree="618">
      <Node pos="s" depth="0" NCoef="0" IVar="82" Cut="1.7220735549926758e+00" cType="1" res="1.6661491245031357e-03" rms="2.4457955360412598e-01" purity="5.0331360101699829e-01" nType="0">
        <Node pos="l" depth="1" NCoef="0" IVar="73" Cut="2.1431031227111816e+00" cType="1" res="-1.1126709869131446e-03" rms="2.4055607616901398e-01" purity="5.0724714994430542e-01" nType="0">
          <Node pos="l" depth="2" NCoef="0" IVar="-1" Cut="0.0000000000000000e+00" cType="1" res="3.7952702492475510e-02" rms="3.8590782880783081e-01" purity="3.7029790878295898e-01" nType="-99"/>
          <Node pos="r" depth="2" NCoef="0" IVar="-1" Cut="0.0000000000000000e+00" cType="1" res="-1.4326237142086029e-03" rms="2.3423525691032410e-01" purity="5.1122468709945679e-01" nType="-99"/>
        </Node>
        <Node pos="r" depth="1" NCoef="0" IVar="-1" Cut="0.0000000000000000e+00" cType="1" res="5.7081881910562515e-02" rms="3.6819568276405334e-01" purity="3.1379106640815735e-01" nType="-99"/>
      </Node>
    </BinaryTree>
    <BinaryTree type="DecisionTree" boostWeight="1.0000000000000000e+00" itree="619">
      <Node pos="s" depth="0" NCoef="0" IVar="28" Cut="-4.2107319831848145e-01" cType="1" res="4.3827351182699203e-03" rms="2.4620515108108521e-01" purity="5.0274205207824707e-01" nType="0">
        <Node pos="l" depth="1" NCoef="0" IVar="3" Cut="4.6429862976074219e+00" cType="1" res="7.7024423517286777e-03" rms="2.5120779871940613e-01" purity="5.0795161724090576e-01" nType="0">
          <Node pos="l" depth="2" NCoef="0" IVar="-1" Cut="0.0000000000000000e+00" cType="1" res="1.0982817038893700e-02" rms="2.8500965237617493e-01" purity="4.1831067204475403e-01" nType="-99"/>
          <Node pos="r" depth="2" NCoef="0" IVar="-1" Cut="0.0000000000000000e+00" cType="1" res="-2.5997650809586048e-03" rms="2.2876645624637604e-01" purity="5.5804622173309326e-01" nType="-99"/>
        </Node>
        <Node pos="r" depth="1" NCoef="0" IVar="-1" Cut="0.0000000000000000e+00" cType="1" res="-4.2588517069816589e-02" rms="-nan" purity="2.7703997492790222e-01" nType="-99"/>
      </Node>
    </BinaryTree>
    <BinaryTree type="DecisionTree" boostWeight="1.0000000000000000e+00" itree="620">
      <Node pos="s" depth="0" NCoef="0" IVar="46" Cut="1.6522518396377563e+00" cType="1" res="2.2001394536346197e-03" rms="2.4785086512565613e-01" purity="4.9084722995758057e-01" nType="0">
        <Node pos="l" depth="1" NCoef="0" IVar="46" Cut="1.3344378471374512e+00" cType="1" res="-2.1282583475112915e-04" rms="2.4387323856353760e-01" purity="4.9590960144996643e-01" nType="0">
          <Node pos="l" depth="2" NCoef="0" IVar="-1" Cut="0.0000000000000000e+00" cType="1" res="9.1832585167139769e-04" rms="2.5016826391220093e-01" purity="5.0438308715820312e-01" nType="-99"/>
          <Node pos="r" depth="2" NCoef="0" IVar="-1" Cut="0.0000000000000000e+00" cType="1" res="-5.5620409548282623e-02" rms="-nan" purity="1.6908098757266998e-01" nType="-99"/>
        </Node>
        <Node pos="r" depth="1" NCoef="0" IVar="-1" Cut="0.0000000000000000e+00" cType="1" res="4.7884814441204071e-02" rms="3.7249729037284851e-01" purity="2.5819075107574463e-01" nType="-99"/>
      </Node>
    </BinaryTree>
    <BinaryTree type="DecisionTree" boostWeight="1.0000000000000000e+00" itree="621">
      <Node pos="s" depth="0" NCoef="0" IVar="62" Cut="2.7500694990158081e-01" cType="1" res="-2.2989902645349503e-03" rms="2.4583417177200317e-01" purity="4.9803632497787476e-01" nType="0">
        <Node pos="l" depth="1" NCoef="0" IVar="17" Cut="-1.3765423297882080e+00" cType="1" res="-7.2187464684247971e-03" rms="2.3383109271526337e-01" purity="5.0693196058273315e-01" nType="0">
          <Node pos="l" depth="2" NCoef="0" IVar="-1" Cut="0.0000000000000000e+00" cType="1" res="-1.4112211763858795e-01" rms="-nan" purity="-5.3714327514171600e-02" nType="-99"/>
          <Node pos="r" depth="2" NCoef="0" IVar="-1" Cut="0.0000000000000000e+00" cType="1" res="-5.9017847524955869e-04" rms="2.5458052754402161e-01" purity="5.5708104372024536e-01" nType="-99"/>
        </Node>
        <Node pos="r" depth="1" NCoef="0" IVar="57" Cut="-7.2030258178710938e-01" cType="1" res="5.5146139115095139e-02" rms="3.5224768519401550e-01" purity="3.9416694641113281e-01" nType="0">
          <Node pos="l" depth="2" NCoef="0" IVar="-1" Cut="0.0000000000000000e+00" cType="1" res="1.0326521098613739e-01" rms="3.9869359135627747e-01" purity="2.5953060388565063e-01" nType="-99"/>
          <Node pos="r" depth="2" NCoef="0" IVar="-1" Cut="0.0000000000000000e+00" cType="1" res="2.6330519467592239e-03" rms="3.2206588983535767e-01" purity="4.4018039107322693e-01" nType="-99"/>
        </Node>
      </Node>
    </BinaryTree>
    <BinaryTree type="DecisionTree" boostWeight="1.0000000000000000e+00" itree="622">
      <Node pos="s" depth="0" NCoef="0" IVar="5" Cut="2.6332303881645203e-01" cType="1" res="8.9590303832665086e-04" rms="2.3959198594093323e-01" purity="5.0375491380691528e-01" nType="0">
        <Node pos="l" depth="1" NCoef="0" IVar="46" Cut="1.3252531290054321e+00" cType="1" res="1.7358699813485146e-02" rms="2.5756123661994934e-01" purity="5.4181414842605591e-01" nType="0">
          <Node pos="l" depth="2" NCoef="0" IVar="-1" Cut="0.0000000000000000e+00" cType="1" res="7.2638527490198612e-03" rms="2.6511073112487793e-01" purity="5.5638629198074341e-01" nType="-99"/>
          <Node pos="r" depth="2" NCoef="0" IVar="-1" Cut="0.0000000000000000e+00" cType="1" res="-4.2478613555431366e-02" rms="-nan" purity="1.5322372317314148e-01" nType="-99"/>
        </Node>
        <Node pos="r" depth="1" NCoef="0" IVar="36" Cut="1.4850268363952637e+00" cType="1" res="-2.1497977897524834e-02" rms="2.1067087352275848e-01" purity="4.5198386907577515e-01" nType="0">
          <Node pos="l" depth="2" NCoef="0" IVar="-1" Cut="0.0000000000000000e+00" cType="1" res="-1.8471535295248032e-02" rms="7.0429161190986633e-02" purity="1.7453148961067200e-01" nType="-99"/>
          <Node pos="r" depth="2" NCoef="0" IVar="-1" Cut="0.0000000000000000e+00" cType="1" res="6.4612925052642822e-04" rms="2.7887192368507385e-01" purity="6.9535201787948608e-01" nType="-99"/>
        </Node>
      </Node>
    </BinaryTree>
    <BinaryTree type="DecisionTree" boostWeight="1.0000000000000000e+00" itree="623">
      <Node pos="s" depth="0" NCoef="0" IVar="16" Cut="-1.4155989885330200e+00" cType="1" res="2.5744107551872730e-03" rms="2.4863637983798981e-01" purity="4.9578735232353210e-01" nType="0">
        <Node pos="l" depth="1" NCoef="0" IVar="-1" Cut="0.0000000000000000e+00" cType="1" res="-4.0860518813133240e-02" rms="-nan" purity="8.4352523088455200e-02" nType="-99"/>
        <Node pos="r" depth="1" NCoef="0" IVar="10" Cut="2.9368994235992432e+00" cType="1" res="5.5080014280974865e-03" rms="2.5471276044845581e-01" purity="5.0893783569335938e-01" nType="0">
          <Node pos="l" depth="2" NCoef="0" IVar="-1" Cut="0.0000000000000000e+00" cType="1" res="1.4549345709383488e-02" rms="3.0884498357772827e-01" purity="3.3635622262954712e-01" nType="-99"/>
          <Node pos="r" depth="2" NCoef="0" IVar="-1" Cut="0.0000000000000000e+00" cType="1" res="-4.5808279537595809e-04" rms="2.4459777772426605e-01" purity="5.3552043437957764e-01" nType="-99"/>
        </Node>
      </Node>
    </BinaryTree>
    <BinaryTree type="DecisionTree" boostWeight="1.0000000000000000e+00" itree="624">
      <Node pos="s" depth="0" NCoef="0" IVar="6" Cut="2.5121805667877197e+00" cType="1" res="-3.3466325839981437e-04" rms="2.4360746145248413e-01" purity="4.9835658073425293e-01" nType="0">
        <Node pos="l" depth="1" NCoef="0" IVar="31" Cut="2.7070691585540771e+00" cType="1" res="-1.2335957027971745e-02" rms="2.2306695580482483e-01" purity="4.1745761036872864e-01" nType="0">
          <Node pos="l" depth="2" NCoef="0" IVar="-1" Cut="0.0000000000000000e+00" cType="1" res="-2.5217264890670776e-02" rms="1.2534643709659576e-01" purity="1.3356949388980865e-01" nType="-99"/>
          <Node pos="r" depth="2" NCoef="0" IVar="-1" Cut="0.0000000000000000e+00" cType="1" res="-4.4885053648613393e-04" rms="2.3809705674648285e-01" purity="4.8073431849479675e-01" nType="-99"/>
        </Node>
        <Node pos="r" depth="1" NCoef="0" IVar="57" Cut="7.1100229024887085e-01" cType="1" res="2.3050434887409210e-02" rms="2.7784046530723572e-01" purity="6.5599215030670166e-01" nType="0">
          <Node pos="l" depth="2" NCoef="0" IVar="-1" Cut="0.0000000000000000e+00" cType="1" res="5.2127949893474579e-02" rms="3.7512135505676270e-01" purity="2.9044741392135620e-01" nType="-99"/>
          <Node pos="r" depth="2" NCoef="0" IVar="-1" Cut="0.0000000000000000e+00" cType="1" res="-1.9381430465728045e-03" rms="2.4023593962192535e-01" purity="7.4341845512390137e-01" nType="-99"/>
        </Node>
      </Node>
    </BinaryTree>
    <BinaryTree type="DecisionTree" boostWeight="1.0000000000000000e+00" itree="625">
      <Node pos="s" depth="0" NCoef="0" IVar="7" Cut="-7.8162509202957153e-01" cType="1" res="5.5450270883738995e-04" rms="2.4503339827060699e-01" purity="4.9664351344108582e-01" nType="0">
        <Node pos="l" depth="1" NCoef="0" IVar="40" Cut="1.4588211774826050e+00" cType="1" res="-2.5026213843375444e-03" rms="2.4086122214794159e-01" purity="4.9922302365303040e-01" nType="0">
          <Node pos="l" depth="2" NCoef="0" IVar="-1" Cut="0.0000000000000000e+00" cType="1" res="4.3202118831686676e-04" rms="2.4846734106540680e-01" purity="5.1576530933380127e-01" nType="-99"/>
          <Node pos="r" depth="2" NCoef="0" IVar="-1" Cut="0.0000000000000000e+00" cType="1" res="-2.9101125895977020e-02" rms="-nan" purity="1.9221533834934235e-01" nType="-99"/>
        </Node>
        <Node pos="r" depth="1" NCoef="0" IVar="-1" Cut="0.0000000000000000e+00" cType="1" res="4.4143259525299072e-02" rms="3.6455789208412170e-01" purity="3.7839767336845398e-01" nType="-99"/>
      </Node>
    </BinaryTree>
    <BinaryTree type="DecisionTree" boostWeight="1.0000000000000000e+00" itree="626">
      <Node pos="s" depth="0" NCoef="0" IVar="52" Cut="2.4101805686950684e+00" cType="1" res="1.2104352004826069e-02" rms="2.5855982303619385e-01" purity="5.1290112733840942e-01" nType="0">
        <Node pos="l" depth="1" NCoef="0" IVar="61" Cut="8.5552787780761719e-01" cType="1" res="9.4170853495597839e-02" rms="3.4182199835777283e-01" purity="2.5200098752975464e-01" nType="0">
          <Node pos="l" depth="2" NCoef="0" IVar="-1" Cut="0.0000000000000000e+00" cType="1" res="5.6225471198558807e-02" rms="3.8984900712966919e-01" purity="4.0266466140747070e-01" nType="-99"/>
          <Node pos="r" depth="2" NCoef="0" IVar="-1" Cut="0.0000000000000000e+00" cType="1" res="2.2054493892937899e-03" rms="2.5656145811080933e-01" purity="1.0186377167701721e-01" nType="-99"/>
        </Node>
        <Node pos="r" depth="1" NCoef="0" IVar="19" Cut="6.2450629472732544e-01" cType="1" res="7.6283598318696022e-03" rms="2.5246655941009521e-01" purity="5.2713090181350708e-01" nType="0">
          <Node pos="l" depth="2" NCoef="0" IVar="-1" Cut="0.0000000000000000e+00" cType="1" res="-5.9947809204459190e-03" rms="2.2170646488666534e-01" purity="5.5095809698104858e-01" nType="-99"/>
          <Node pos="r" depth="2" NCoef="0" IVar="-1" Cut="0.0000000000000000e+00" cType="1" res="8.0983312800526619e-03" rms="2.6963031291961670e-01" purity="5.1129931211471558e-01" nType="-99"/>
        </Node>
      </Node>
    </BinaryTree>
    <BinaryTree type="DecisionTree" boostWeight="1.0000000000000000e+00" itree="627">
      <Node pos="s" depth="0" NCoef="0" IVar="37" Cut="-1.4542480707168579e+00" cType="1" res="5.8220216305926442e-04" rms="2.4255895614624023e-01" purity="4.9763450026512146e-01" nType="0">
        <Node pos="l" depth="1" NCoef="0" IVar="56" Cut="-1.2219241857528687e+00" cType="1" res="-3.0160052701830864e-02" rms="-nan" purity="1.7852233350276947e-01" nType="-99"/>
        <Node pos="r" depth="1" NCoef="0" IVar="60" Cut="-5.0694793462753296e-01" cType="1" res="5.3082648664712906e-03" rms="2.4910458922386169e-01" purity="5.1705199480056763e-01" nType="0">
          <Node pos="l" depth="2" NCoef="0" IVar="-1" Cut="0.0000000000000000e+00" cType="1" res="2.7032138314098120e-03" rms="2.5193598866462708e-01" purity="5.2796351909637451e-01" nType="-99"/>
          <Node pos="r" depth="2" NCoef="0" IVar="-1" Cut="0.0000000000000000e+00" cType="1" res="-4.1384924203157425e-02" rms="-nan" purity="6.0217913240194321e-02" nType="-99"/>
        </Node>
      </Node>
    </BinaryTree>
    <BinaryTree type="DecisionTree" boostWeight="1.0000000000000000e+00" itree="628">
      <Node pos="s" depth="0" NCoef="0" IVar="4" Cut="3.4913828372955322e+00" cType="1" res="3.0174993444234133e-03" rms="2.4784825742244720e-01" purity="5.0103384256362915e-01" nType="0">
        <Node pos="l" depth="1" NCoef="0" IVar="36" Cut="-6.0440027713775635e-01" cType="1" res="3.3932406455278397e-02" rms="2.9518619179725647e-01" purity="3.1242927908897400e-01" nType="0">
          <Node pos="l" depth="2" NCoef="0" IVar="-1" Cut="0.0000000000000000e+00" cType="1" res="5.4500337690114975e-02" rms="3.5574135184288025e-01" purity="1.9194661080837250e-01" nType="-99"/>
          <Node pos="r" depth="2" NCoef="0" IVar="-1" Cut="0.0000000000000000e+00" cType="1" res="-2.1539941371884197e-04" rms="2.5629013776779175e-01" purity="3.6604130268096924e-01" nType="-99"/>
        </Node>
        <Node pos="r" depth="1" NCoef="0" IVar="17" Cut="1.2517117261886597e+00" cType="1" res="-1.0058566927909851e-02" rms="2.2356344759464264e-01" purity="5.8080780506134033e-01" nType="0">
          <Node pos="l" depth="2" NCoef="0" IVar="-1" Cut="0.0000000000000000e+00" cType="1" res="-6.2816657125949860e-02" rms="-nan" purity="-2.9397312551736832e-02" nType="-99"/>
          <Node pos="r" depth="2" NCoef="0" IVar="-1" Cut="0.0000000000000000e+00" cType="1" res="9.1978895943611860e-04" rms="2.7175995707511902e-01" purity="7.2694301605224609e-01" nType="-99"/>
        </Node>
      </Node>
    </BinaryTree>
    <BinaryTree type="DecisionTree" boostWeight="1.0000000000000000e+00" itree="629">
      <Node pos="s" depth="0" NCoef="0" IVar="41" Cut="-3.0066847801208496e-01" cType="1" res="-1.8876403337344527e-03" rms="2.3674938082695007e-01" purity="4.9881345033645630e-01" nType="0">
        <Node pos="l" depth="1" NCoef="0" IVar="57" Cut="1.4843851327896118e+00" cType="1" res="4.9510344862937927e-02" rms="2.8903749585151672e-01" purity="6.1552983522415161e-01" nType="0">
          <Node pos="l" depth="2" NCoef="0" IVar="-1" Cut="0.0000000000000000e+00" cType="1" res="3.4376878291368484e-02" rms="3.4459725022315979e-01" purity="3.8801255822181702e-01" nType="-99"/>
          <Node pos="r" depth="2" NCoef="0" IVar="-1" Cut="0.0000000000000000e+00" cType="1" res="1.5791532350704074e-03" rms="2.2878551483154297e-01" purity="7.8740864992141724e-01" nType="-99"/>
        </Node>
        <Node pos="r" depth="1" NCoef="0" IVar="79" Cut="1.4032049179077148e+00" cType="1" res="-8.4441965445876122e-03" rms="2.2839272022247314e-01" purity="4.8392459750175476e-01" nType="0">
          <Node pos="l" depth="2" NCoef="0" IVar="-1" Cut="0.0000000000000000e+00" cType="1" res="-1.7362837679684162e-03" rms="2.3669615387916565e-01" purity="4.9436879158020020e-01" nType="-99"/>
          <Node pos="r" depth="2" NCoef="0" IVar="-1" Cut="0.0000000000000000e+00" cType="1" res="-6.6628806293010712e-02" rms="-nan" purity="7.4167713522911072e-02" nType="-99"/>
        </Node>
      </Node>
    </BinaryTree>
    <BinaryTree type="DecisionTree" boostWeight="1.0000000000000000e+00" itree="630">
      <Node pos="s" depth="0" NCoef="0" IVar="60" Cut="-6.2829577922821045e-01" cType="1" res="-8.3369594067335129e-03" rms="2.2777335345745087e-01" purity="4.8820120096206665e-01" nType="0">
        <Node pos="l" depth="1" NCoef="0" IVar="42" Cut="-2.8144541382789612e-01" cType="1" res="-1.3727528974413872e-02" rms="2.1771766245365143e-01" purity="5.0348907709121704e-01" nType="0">
          <Node pos="l" depth="2" NCoef="0" IVar="-1" Cut="0.0000000000000000e+00" cType="1" res="-2.0616950467228889e-02" rms="1.2896715104579926e-01" purity="4.6129491925239563e-01" nType="-99"/>
          <Node pos="r" depth="2" NCoef="0" IVar="-1" Cut="0.0000000000000000e+00" cType="1" res="-1.7549995100125670e-03" rms="2.2900520265102386e-01" purity="5.1105195283889771e-01" nType="-99"/>
        </Node>
        <Node pos="r" depth="1" NCoef="0" IVar="59" Cut="1.3198362588882446e+00" cType="1" res="6.9198064506053925e-02" rms="3.3148887753486633e-01" purity="2.6830857992172241e-01" nType="0">
          <Node pos="l" depth="2" NCoef="0" IVar="-1" Cut="0.0000000000000000e+00" cType="1" res="6.6659085452556610e-02" rms="3.7882897257804871e-01" purity="2.7563881874084473e-01" nType="-99"/>
          <Node pos="r" depth="2" NCoef="0" IVar="-1" Cut="0.0000000000000000e+00" cType="1" res="-6.6756224259734154e-03" rms="2.4433742463588715e-01" purity="2.6099476218223572e-01" nType="-99"/>
        </Node>
      </Node>
    </BinaryTree>
    <BinaryTree type="DecisionTree" boostWeight="1.0000000000000000e+00" itree="631">
      <Node pos="s" depth="0" NCoef="0" IVar="2" Cut="2.7637727260589600e+00" cType="1" res="-9.4562227604910731e-04" rms="2.3550227284431458e-01" purity="5.0104027986526489e-01" nType="0">
        <Node pos="l" depth="1" NCoef="0" IVar="1" Cut="2.9983160495758057e+00" cType="1" res="-1.1749950237572193e-02" rms="2.1932297945022583e-01" purity="4.0460953116416931e-01" nType="0">
          <Node pos="l" depth="2" NCoef="0" IVar="-1" Cut="0.0000000000000000e+00" cType="1" res="-2.3222214076668024e-04" rms="2.3890332877635956e-01" purity="4.2424869537353516e-01" nType="-99"/>
          <Node pos="r" depth="2" NCoef="0" IVar="-1" Cut="0.0000000000000000e+00" cType="1" res="-2.9296169057488441e-02" rms="-nan" purity="2.9702639579772949e-01" nType="-99"/>
        </Node>
        <Node pos="r" depth="1" NCoef="0" IVar="78" Cut="-4.3709963560104370e-02" cType="1" res="2.3374579846858978e-02" rms="2.6677969098091125e-01" purity="7.1810275316238403e-01" nType="0">
          <Node pos="l" depth="2" NCoef="0" IVar="-1" Cut="0.0000000000000000e+00" cType="1" res="1.1649320367723703e-03" rms="2.4455496668815613e-01" purity="7.6026880741119385e-01" nType="-99"/>
          <Node pos="r" depth="2" NCoef="0" IVar="-1" Cut="0.0000000000000000e+00" cType="1" res="2.3671597242355347e-02" rms="3.2016220688819885e-01" purity="5.8187514543533325e-01" nType="-99"/>
        </Node>
      </Node>
    </BinaryTree>
    <BinaryTree type="DecisionTree" boostWeight="1.0000000000000000e+00" itree="632">
      <Node pos="s" depth="0" NCoef="0" IVar="73" Cut="2.2002749443054199e+00" cType="1" res="-4.1644659359008074e-04" rms="2.3397430777549744e-01" purity="5.0062125921249390e-01" nType="0">
        <Node pos="l" depth="1" NCoef="0" IVar="-1" Cut="0.0000000000000000e+00" cType="1" res="-3.7865728139877319e-02" rms="-nan" purity="1.8489445745944977e-01" nType="-99"/>
        <Node pos="r" depth="1" NCoef="0" IVar="52" Cut="2.4019870758056641e+00" cType="1" res="3.1895863357931376e-03" rms="2.3997280001640320e-01" purity="5.1206815242767334e-01" nType="0">
          <Node pos="l" depth="2" NCoef="0" IVar="-1" Cut="0.0000000000000000e+00" cType="1" res="3.3926546573638916e-02" rms="3.3856007456779480e-01" purity="2.9313287138938904e-01" nType="-99"/>
          <Node pos="r" depth="2" NCoef="0" IVar="-1" Cut="0.0000000000000000e+00" cType="1" res="-6.4420653507113457e-04" rms="2.3264023661613464e-01" purity="5.2332293987274170e-01" nType="-99"/>
        </Node>
      </Node>
    </BinaryTree>
    <BinaryTree type="DecisionTree" boostWeight="1.0000000000000000e+00" itree="633">
      <Node pos="s" depth="0" NCoef="0" IVar="19" Cut="1.0375864505767822e+00" cType="1" res="-4.8310076817870140e-04" rms="2.4032776057720184e-01" purity="5.0036889314651489e-01" nType="0">
        <Node pos="l" depth="1" NCoef="0" IVar="27" Cut="1.1005178689956665e+00" cType="1" res="5.8735073544085026e-03" rms="2.4538145959377289e-01" purity="5.3478688001632690e-01" nType="0">
          <Node pos="l" depth="2" NCoef="0" IVar="-1" Cut="0.0000000000000000e+00" cType="1" res="-1.5561902895569801e-02" rms="1.4850075542926788e-01" purity="2.3357889056205750e-01" nType="-99"/>
          <Node pos="r" depth="2" NCoef="0" IVar="-1" Cut="0.0000000000000000e+00" cType="1" res="4.0300143882632256e-03" rms="2.5590068101882935e-01" purity="5.7918041944503784e-01" nType="-99"/>
        </Node>
        <Node pos="r" depth="1" NCoef="0" IVar="5" Cut="4.9198575317859650e-02" cType="1" res="-3.3484037965536118e-02" rms="2.0908176898956299e-01" purity="3.2168442010879517e-01" nType="0">
          <Node pos="l" depth="2" NCoef="0" IVar="-1" Cut="0.0000000000000000e+00" cType="1" res="3.1082220375537872e-02" rms="3.2367905974388123e-01" purity="3.0256310105323792e-01" nType="-99"/>
          <Node pos="r" depth="2" NCoef="0" IVar="-1" Cut="0.0000000000000000e+00" cType="1" res="-1.9134949892759323e-02" rms="1.6675101220607758e-01" purity="3.2575583457946777e-01" nType="-99"/>
        </Node>
      </Node>
    </BinaryTree>
    <BinaryTree type="DecisionTree" boostWeight="1.0000000000000000e+00" itree="634">
      <Node pos="s" depth="0" NCoef="0" IVar="55" Cut="5.1306957006454468e-01" cType="1" res="2.6976324152201414e-03" rms="2.3725773394107819e-01" purity="5.0060307979583740e-01" nType="0">
        <Node pos="l" depth="1" NCoef="0" IVar="79" Cut="5.1003974676132202e-01" cType="1" res="-1.4360181987285614e-02" rms="-nan" purity="2.1142891049385071e-01" nType="-99"/>
        <Node pos="r" depth="1" NCoef="0" IVar="34" Cut="-1.0299918651580811e+00" cType="1" res="1.3872331939637661e-02" rms="2.6926112174987793e-01" purity="5.8612996339797974e-01" nType="0">
          <Node pos="l" depth="2" NCoef="0" IVar="-1" Cut="0.0000000000000000e+00" cType="1" res="2.1086111664772034e-02" rms="3.0841261148452759e-01" purity="3.6253058910369873e-01" nType="-99"/>
          <Node pos="r" depth="2" NCoef="0" IVar="-1" Cut="0.0000000000000000e+00" cType="1" res="1.5396628296002746e-03" rms="2.6042944192886353e-01" purity="6.2733554840087891e-01" nType="-99"/>
        </Node>
      </Node>
    </BinaryTree>
    <BinaryTree type="DecisionTree" boostWeight="1.0000000000000000e+00" itree="635">
      <Node pos="s" depth="0" NCoef="0" IVar="58" Cut="-1.3385800123214722e+00" cType="1" res="8.0730655463412404e-04" rms="2.4784436821937561e-01" purity="4.9959826469421387e-01" nType="0">
        <Node pos="l" depth="1" NCoef="0" IVar="40" Cut="7.7830731868743896e-01" cType="1" res="4.0656901895999908e-02" rms="2.9029524326324463e-01" purity="3.9744433760643005e-01" nType="0">
          <Node pos="l" depth="2" NCoef="0" IVar="-1" Cut="0.0000000000000000e+00" cType="1" res="2.6432586833834648e-02" rms="3.4925505518913269e-01" purity="4.7264522314071655e-01" nType="-99"/>
          <Node pos="r" depth="2" NCoef="0" IVar="-1" Cut="0.0000000000000000e+00" cType="1" res="-3.7168019916862249e-03" rms="1.8342489004135132e-01" purity="3.0590701103210449e-01" nType="-99"/>
        </Node>
        <Node pos="r" depth="1" NCoef="0" IVar="62" Cut="3.3214610815048218e-01" cType="1" res="-7.7283862046897411e-03" rms="2.3689785599708557e-01" purity="5.2147942781448364e-01" nType="0">
          <Node pos="l" depth="2" NCoef="0" IVar="-1" Cut="0.0000000000000000e+00" cType="1" res="-1.4638100983574986e-03" rms="2.4017342925071716e-01" purity="5.3085976839065552e-01" nType="-99"/>
          <Node pos="r" depth="2" NCoef="0" IVar="-1" Cut="0.0000000000000000e+00" cType="1" res="-3.2978150993585587e-02" rms="8.8821597397327423e-02" purity="2.8056585788726807e-01" nType="-99"/>
        </Node>
      </Node>
    </BinaryTree>
    <BinaryTree type="DecisionTree" boostWeight="1.0000000000000000e+00" itree="636">
      <Node pos="s" depth="0" NCoef="0" IVar="88" Cut="1.6376404762268066e+00" cType="1" res="2.2668067831546068e-03" rms="2.4217389523983002e-01" purity="4.9982690811157227e-01" nType="0">
        <Node pos="l" depth="1" NCoef="0" IVar="3" Cut="5.4546833038330078e+00" cType="1" res="-4.0538143366575241e-04" rms="2.3786975443363190e-01" purity="5.0496494770050049e-01" nType="0">
          <Node pos="l" depth="2" NCoef="0" IVar="-1" Cut="0.0000000000000000e+00" cType="1" res="8.6587481200695038e-04" rms="2.4508090317249298e-01" purity="5.1506382226943970e-01" nType="-99"/>
          <Node pos="r" depth="2" NCoef="0" IVar="-1" Cut="0.0000000000000000e+00" cType="1" res="-3.2300036400556564e-02" rms="-nan" purity="1.2468322366476059e-01" nType="-99"/>
        </Node>
        <Node pos="r" depth="1" NCoef="0" IVar="-1" Cut="0.0000000000000000e+00" cType="1" res="7.5935035943984985e-02" rms="3.7557715177536011e-01" purity="2.5309431552886963e-01" nType="-99"/>
      </Node>
    </BinaryTree>
    <BinaryTree type="DecisionTree" boostWeight="1.0000000000000000e+00" itree="637">
      <Node pos="s" depth="0" NCoef="0" IVar="60" Cut="-4.9011811614036560e-01" cType="1" res="-2.1320916712284088e-03" rms="2.4050740897655487e-01" purity="4.9357497692108154e-01" nType="0">
        <Node pos="l" depth="1" NCoef="0" IVar="29" Cut="-9.5017433166503906e-01" cType="1" res="1.0573943145573139e-03" rms="2.4465043842792511e-01" purity="5.0349825620651245e-01" nType="0">
          <Node pos="l" depth="2" NCoef="0" IVar="-1" Cut="0.0000000000000000e+00" cType="1" res="-1.2982781045138836e-03" rms="2.3717644810676575e-01" purity="5.0607252120971680e-01" nType="-99"/>
          <Node pos="r" depth="2" NCoef="0" IVar="-1" Cut="0.0000000000000000e+00" cType="1" res="2.0244644954800606e-02" rms="3.1488001346588135e-01" purity="4.7271522879600525e-01" nType="-99"/>
        </Node>
        <Node pos="r" depth="1" NCoef="0" IVar="-1" Cut="0.0000000000000000e+00" cType="1" res="-6.3389427959918976e-02" rms="-nan" purity="1.3055151328444481e-02" nType="-99"/>
      </Node>
    </BinaryTree>
    <BinaryTree type="DecisionTree" boostWeight="1.0000000000000000e+00" itree="638">
      <Node pos="s" depth="0" NCoef="0" IVar="61" Cut="1.2983227968215942e+00" cType="1" res="-1.3580564409494400e-03" rms="2.3914042115211487e-01" purity="4.9815410375595093e-01" nType="0">
        <Node pos="l" depth="1" NCoef="0" IVar="16" Cut="-1.2228523492813110e+00" cType="1" res="-8.2068238407373428e-03" rms="2.2830413281917572e-01" purity="5.1765841245651245e-01" nType="0">
          <Node pos="l" depth="2" NCoef="0" IVar="-1" Cut="0.0000000000000000e+00" cType="1" res="1.3508775271475315e-02" rms="2.8160354495048523e-01" purity="3.6603784561157227e-01" nType="-99"/>
          <Node pos="r" depth="2" NCoef="0" IVar="-1" Cut="0.0000000000000000e+00" cType="1" res="-5.2403169684112072e-03" rms="2.1857358515262604e-01" purity="5.3983783721923828e-01" nType="-99"/>
        </Node>
        <Node pos="r" depth="1" NCoef="0" IVar="74" Cut="1.2345679104328156e-02" cType="1" res="5.7125587016344070e-02" rms="3.1084057688713074e-01" purity="3.3160090446472168e-01" nType="0">
          <Node pos="l" depth="2" NCoef="0" IVar="-1" Cut="0.0000000000000000e+00" cType="1" res="-3.1311558559536934e-03" rms="2.3521246016025543e-01" purity="2.7019199728965759e-01" nType="-99"/>
          <Node pos="r" depth="2" NCoef="0" IVar="-1" Cut="0.0000000000000000e+00" cType="1" res="4.9142569303512573e-02" rms="3.6994016170501709e-01" purity="4.1117611527442932e-01" nType="-99"/>
        </Node>
      </Node>
    </BinaryTree>
    <BinaryTree type="DecisionTree" boostWeight="1.0000000000000000e+00" itree="639">
      <Node pos="s" depth="0" NCoef="0" IVar="84" Cut="-2.9512900114059448e-01" cType="1" res="-3.9319627103395760e-04" rms="2.4156881868839264e-01" purity="5.0387203693389893e-01" nType="0">
        <Node pos="l" depth="1" NCoef="0" IVar="31" Cut="2.8106207847595215e+00" cType="1" res="-4.6229891479015350e-02" rms="1.2905091047286987e-01" purity="4.9469667673110962e-01" nType="0">
          <Node pos="l" depth="2" NCoef="0" IVar="-1" Cut="0.0000000000000000e+00" cType="1" res="-5.2599038928747177e-02" rms="-nan" purity="1.8358749151229858e-01" nType="-99"/>
          <Node pos="r" depth="2" NCoef="0" IVar="-1" Cut="0.0000000000000000e+00" cType="1" res="-5.5497870780527592e-03" rms="2.0108503103256226e-01" purity="5.9597206115722656e-01" nType="-99"/>
        </Node>
        <Node pos="r" depth="1" NCoef="0" IVar="51" Cut="-7.1604937314987183e-01" cType="1" res="8.6487820371985435e-03" rms="2.5707098841667175e-01" purity="5.0568205118179321e-01" nType="0">
          <Node pos="l" depth="2" NCoef="0" IVar="-1" Cut="0.0000000000000000e+00" cType="1" res="2.4272760376334190e-02" rms="3.3777016401290894e-01" purity="5.0510752201080322e-01" nType="-99"/>
          <Node pos="r" depth="2" NCoef="0" IVar="-1" Cut="0.0000000000000000e+00" cType="1" res="4.3278586235828698e-04" rms="2.4692139029502869e-01" purity="5.0573569536209106e-01" nType="-99"/>
        </Node>
      </Node>
    </BinaryTree>
    <BinaryTree type="DecisionTree" boostWeight="1.0000000000000000e+00" itree="640">
      <Node pos="s" depth="0" NCoef="0" IVar="61" Cut="3.5034596920013428e-01" cType="1" res="4.5954245142638683e-03" rms="2.4992644786834717e-01" purity="5.0024735927581787e-01" nType="0">
        <Node pos="l" depth="1" NCoef="0" IVar="55" Cut="1.2587936222553253e-01" cType="1" res="-3.5468131303787231e-02" rms="2.1507789194583893e-01" purity="5.4949748516082764e-01" nType="0">
          <Node pos="l" depth="2" NCoef="0" IVar="-1" Cut="0.0000000000000000e+00" cType="1" res="-5.0659716129302979e-02" rms="-nan" purity="2.0813627541065216e-01" nType="-99"/>
          <Node pos="r" depth="2" NCoef="0" IVar="-1" Cut="0.0000000000000000e+00" cType="1" res="-4.7038099728524685e-03" rms="2.7144223451614380e-01" purity="6.3376522064208984e-01" nType="-99"/>
        </Node>
        <Node pos="r" depth="1" NCoef="0" IVar="21" Cut="-5.1899987459182739e-01" cType="1" res="1.1040920391678810e-02" rms="2.5450047850608826e-01" purity="4.9232393503189087e-01" nType="0">
          <Node pos="l" depth="2" NCoef="0" IVar="-1" Cut="0.0000000000000000e+00" cType="1" res="3.3414788544178009e-02" rms="3.5784712433815002e-01" purity="5.3178143501281738e-01" nType="-99"/>
          <Node pos="r" depth="2" NCoef="0" IVar="-1" Cut="0.0000000000000000e+00" cType="1" res="2.2349541541188955e-03" rms="2.4700437486171722e-01" purity="4.9022611975669861e-01" nType="-99"/>
        </Node>
      </Node>
    </BinaryTree>
    <BinaryTree type="DecisionTree" boostWeight="1.0000000000000000e+00" itree="641">
      <Node pos="s" depth="0" NCoef="0" IVar="82" Cut="1.3822661638259888e+00" cType="1" res="-2.7954347897320986e-03" rms="2.3051299154758453e-01" purity="4.9957716464996338e-01" nType="0">
        <Node pos="l" depth="1" NCoef="0" IVar="6" Cut="2.7696390151977539e+00" cType="1" res="-7.7758971601724625e-03" rms="2.2630065679550171e-01" purity="5.1683992147445679e-01" nType="0">
          <Node pos="l" depth="2" NCoef="0" IVar="-1" Cut="0.0000000000000000e+00" cType="1" res="-5.3302086889743805e-03" rms="2.1271246671676636e-01" purity="4.6077758073806763e-01" nType="-99"/>
          <Node pos="r" depth="2" NCoef="0" IVar="-1" Cut="0.0000000000000000e+00" cType="1" res="7.0252115838229656e-03" rms="2.6644802093505859e-01" purity="7.1232694387435913e-01" nType="-99"/>
        </Node>
        <Node pos="r" depth="1" NCoef="0" IVar="6" Cut="2.4854516983032227e+00" cType="1" res="4.6140711754560471e-02" rms="2.6344791054725647e-01" purity="3.2995980978012085e-01" nType="0">
          <Node pos="l" depth="2" NCoef="0" IVar="-1" Cut="0.0000000000000000e+00" cType="1" res="3.4710187464952469e-02" rms="3.0114734172821045e-01" purity="3.1291902065277100e-01" nType="-99"/>
          <Node pos="r" depth="2" NCoef="0" IVar="-1" Cut="0.0000000000000000e+00" cType="1" res="-2.0404662936925888e-02" rms="-nan" purity="3.7465733289718628e-01" nType="-99"/>
        </Node>
      </Node>
    </BinaryTree>
    <BinaryTree type="DecisionTree" boostWeight="1.0000000000000000e+00" itree="642">
      <Node pos="s" depth="0" NCoef="0" IVar="46" Cut="1.5916908979415894e+00" cType="1" res="6.8571851588785648e-03" rms="2.5298905372619629e-01" purity="5.0486105680465698e-01" nType="0">
        <Node pos="l" depth="1" NCoef="0" IVar="62" Cut="1.4863397181034088e-01" cType="1" res="4.3336772359907627e-03" rms="2.4822583794593811e-01" purity="5.1073545217514038e-01" nType="0">
          <Node pos="l" depth="2" NCoef="0" IVar="-1" Cut="0.0000000000000000e+00" cType="1" res="4.2810062877833843e-03" rms="2.5480413436889648e-01" purity="5.4189151525497437e-01" nType="-99"/>
          <Node pos="r" depth="2" NCoef="0" IVar="-1" Cut="0.0000000000000000e+00" cType="1" res="-9.7654554992914200e-03" rms="2.1870121359825134e-01" purity="3.9347076416015625e-01" nType="-99"/>
        </Node>
        <Node pos="r" depth="1" NCoef="0" IVar="-1" Cut="0.0000000000000000e+00" cType="1" res="8.0349490046501160e-02" rms="4.0313750505447388e-01" purity="2.2653645277023315e-01" nType="-99"/>
      </Node>
    </BinaryTree>
    <BinaryTree type="DecisionTree" boostWeight="1.0000000000000000e+00" itree="643">
      <Node pos="s" depth="0" NCoef="0" IVar="13" Cut="-1.4154744148254395e+00" cType="1" res="5.0545991398394108e-03" rms="2.4754776060581207e-01" purity="5.0079369544982910e-01" nType="0">
        <Node pos="l" depth="1" NCoef="0" IVar="59" Cut="-1.1457790136337280e+00" cType="1" res="6.0981255024671555e-02" rms="2.7588415145874023e-01" purity="2.4144597351551056e-01" nType="0">
          <Node pos="l" depth="2" NCoef="0" IVar="-1" Cut="0.0000000000000000e+00" cType="1" res="-2.6871403679251671e-02" rms="-nan" purity="1.7139026522636414e-01" nType="-99"/>
          <Node pos="r" depth="2" NCoef="0" IVar="-1" Cut="0.0000000000000000e+00" cType="1" res="6.9301567971706390e-02" rms="3.5629257559776306e-01" purity="2.8715583682060242e-01" nType="-99"/>
        </Node>
        <Node pos="r" depth="1" NCoef="0" IVar="16" Cut="-1.1185870170593262e+00" cType="1" res="-5.7147728512063622e-04" rms="2.4380631744861603e-01" purity="5.2688342332839966e-01" nType="0">
          <Node pos="l" depth="2" NCoef="0" IVar="-1" Cut="0.0000000000000000e+00" cType="1" res="-1.2601930648088455e-02" rms="1.4681440591812134e-01" purity="3.5391348600387573e-01" nType="-99"/>
          <Node pos="r" depth="2" NCoef="0" IVar="-1" Cut="0.0000000000000000e+00" cType="1" res="2.3265257477760315e-03" rms="2.5795713067054749e-01" purity="5.6094163656234741e-01" nType="-99"/>
        </Node>
      </Node>
    </BinaryTree>
    <BinaryTree type="DecisionTree" boostWeight="1.0000000000000000e+00" itree="644">
      <Node pos="s" depth="0" NCoef="0" IVar="73" Cut="2.2859210968017578e+00" cType="1" res="4.1234109085053205e-04" rms="2.3950928449630737e-01" purity="5.0276172161102295e-01" nType="0">
        <Node pos="l" depth="1" NCoef="0" IVar="17" Cut="1.0544028282165527e+00" cType="1" res="6.1948556452989578e-02" rms="3.3752116560935974e-01" purity="3.2625457644462585e-01" nType="0">
          <Node pos="l" depth="2" NCoef="0" IVar="-1" Cut="0.0000000000000000e+00" cType="1" res="1.8211409449577332e-01" rms="4.0160769224166870e-01" purity="2.3437483608722687e-01" nType="-99"/>
          <Node pos="r" depth="2" NCoef="0" IVar="-1" Cut="0.0000000000000000e+00" cType="1" res="-7.1729379706084728e-03" rms="2.5209921598434448e-01" purity="3.8584020733833313e-01" nType="-99"/>
        </Node>
        <Node pos="r" depth="1" NCoef="0" IVar="17" Cut="1.2517660856246948e+00" cType="1" res="-4.6944576315581799e-03" rms="2.2875943779945374e-01" purity="5.1740974187850952e-01" nType="0">
          <Node pos="l" depth="2" NCoef="0" IVar="-1" Cut="0.0000000000000000e+00" cType="1" res="-3.7706483155488968e-02" rms="-nan" purity="-4.2371274903416634e-03" nType="-99"/>
          <Node pos="r" depth="2" NCoef="0" IVar="-1" Cut="0.0000000000000000e+00" cType="1" res="1.4256215654313564e-03" rms="2.7364265918731689e-01" purity="6.6756039857864380e-01" nType="-99"/>
        </Node>
      </Node>
    </BinaryTree>
    <BinaryTree type="DecisionTree" boostWeight="1.0000000000000000e+00" itree="645">
      <Node pos="s" depth="0" NCoef="0" IVar="5" Cut="5.3477603197097778e-01" cType="1" res="6.3113626092672348e-03" rms="2.4558433890342712e-01" purity="5.0704628229141235e-01" nType="0">
        <Node pos="l" depth="1" NCoef="0" IVar="19" Cut="7.2152769565582275e-01" cType="1" res="3.3631413243710995e-03" rms="2.4280308187007904e-01" purity="5.1275843381881714e-01" nType="0">
          <Node pos="l" depth="2" NCoef="0" IVar="-1" Cut="0.0000000000000000e+00" cType="1" res="-3.4566572867333889e-03" rms="2.2833232581615448e-01" purity="5.4492974281311035e-01" nType="-99"/>
          <Node pos="r" depth="2" NCoef="0" IVar="-1" Cut="0.0000000000000000e+00" cType="1" res="5.8992495760321617e-03" rms="2.5669527053833008e-01" purity="4.7805055975914001e-01" nType="-99"/>
        </Node>
        <Node pos="r" depth="1" NCoef="0" IVar="-1" Cut="0.0000000000000000e+00" cType="1" res="4.0130648761987686e-02" rms="3.1144779920578003e-01" purity="3.0636209249496460e-01" nType="-99"/>
      </Node>
    </BinaryTree>
    <BinaryTree type="DecisionTree" boostWeight="1.0000000000000000e+00" itree="646">
      <Node pos="s" depth="0" NCoef="0" IVar="0" Cut="1.4871611595153809e+00" cType="1" res="2.9582730494439602e-03" rms="2.4462828040122986e-01" purity="4.9509605765342712e-01" nType="0">
        <Node pos="l" depth="1" NCoef="0" IVar="59" Cut="-1.3382381200790405e+00" cType="1" res="6.0861487872898579e-03" rms="2.4898715317249298e-01" purity="5.0432240962982178e-01" nType="0">
          <Node pos="l" depth="2" NCoef="0" IVar="-1" Cut="0.0000000000000000e+00" cType="1" res="-1.6929328441619873e-02" rms="-nan" purity="2.6745399832725525e-01" nType="-99"/>
          <Node pos="r" depth="2" NCoef="0" IVar="-1" Cut="0.0000000000000000e+00" cType="1" res="4.5180674642324448e-03" rms="2.6976534724235535e-01" purity="5.4626375436782837e-01" nType="-99"/>
        </Node>
        <Node pos="r" depth="1" NCoef="0" IVar="-1" Cut="0.0000000000000000e+00" cType="1" res="-5.1690384745597839e-02" rms="-nan" purity="1.2528386712074280e-01" nType="-99"/>
      </Node>
    </BinaryTree>
    <BinaryTree type="DecisionTree" boostWeight="1.0000000000000000e+00" itree="647">
      <Node pos="s" depth="0" NCoef="0" IVar="31" Cut="2.3526849746704102e+00" cType="1" res="-6.3135302625596523e-03" rms="2.3808622360229492e-01" purity="4.8665171861648560e-01" nType="0">
        <Node pos="l" depth="1" NCoef="0" IVar="-1" Cut="0.0000000000000000e+00" cType="1" res="2.7596795931458473e-02" rms="3.5983857512474060e-01" purity="2.4667455255985260e-01" nType="-99"/>
        <Node pos="r" depth="1" NCoef="0" IVar="67" Cut="1.0121606588363647e+00" cType="1" res="-9.6843466162681580e-03" rms="2.3116433620452881e-01" purity="4.9639934301376343e-01" nType="0">
          <Node pos="l" depth="2" NCoef="0" IVar="-1" Cut="0.0000000000000000e+00" cType="1" res="3.2103477860800922e-04" rms="2.5422662496566772e-01" purity="5.4361778497695923e-01" nType="-99"/>
          <Node pos="r" depth="2" NCoef="0" IVar="-1" Cut="0.0000000000000000e+00" cType="1" res="-1.5206223353743553e-02" rms="1.4937418699264526e-01" purity="3.6983278393745422e-01" nType="-99"/>
        </Node>
      </Node>
    </BinaryTree>
    <BinaryTree type="DecisionTree" boostWeight="1.0000000000000000e+00" itree="648">
      <Node pos="s" depth="0" NCoef="0" IVar="0" Cut="5.9048244729638100e-03" cType="1" res="5.0376593135297298e-03" rms="2.5459647178649902e-01" purity="5.0095206499099731e-01" nType="0">
        <Node pos="l" depth="1" NCoef="0" IVar="-1" Cut="0.0000000000000000e+00" cType="1" res="-3.6691728979349136e-02" rms="-nan" purity="4.3790945410728455e-01" nType="-99"/>
        <Node pos="r" depth="1" NCoef="0" IVar="1" Cut="1.8206949234008789e+00" cType="1" res="8.2770716398954391e-03" rms="2.5843036174774170e-01" purity="5.0298607349395752e-01" nType="0">
          <Node pos="l" depth="2" NCoef="0" IVar="-1" Cut="0.0000000000000000e+00" cType="1" res="-3.9987582713365555e-02" rms="-nan" purity="4.9232900142669678e-02" nType="-99"/>
          <Node pos="r" depth="2" NCoef="0" IVar="-1" Cut="0.0000000000000000e+00" cType="1" res="3.9198440499603748e-03" rms="2.6432019472122192e-01" purity="5.1806896924972534e-01" nType="-99"/>
        </Node>
      </Node>
    </BinaryTree>
    <BinaryTree type="DecisionTree" boostWeight="1.0000000000000000e+00" itree="649">
      <Node pos="s" depth="0" NCoef="0" IVar="60" Cut="-1.0416984558105469e+00" cType="1" res="2.5375923141837120e-03" rms="2.4333822727203369e-01" purity="5.0070744752883911e-01" nType="0">
        <Node pos="l" depth="1" NCoef="0" IVar="10" Cut="2.9124820232391357e+00" cType="1" res="1.1118148453533649e-02" rms="2.5628823041915894e-01" purity="5.5093473196029663e-01" nType="0">
          <Node pos="l" depth="2" NCoef="0" IVar="-1" Cut="0.0000000000000000e+00" cType="1" res="2.3322558030486107e-02" rms="3.4652838110923767e-01" purity="3.5094422101974487e-01" nType="-99"/>
          <Node pos="r" depth="2" NCoef="0" IVar="-1" Cut="0.0000000000000000e+00" cType="1" res="5.6996790226548910e-04" rms="2.3983547091484070e-01" purity="5.7823216915130615e-01" nType="-99"/>
        </Node>
        <Node pos="r" depth="1" NCoef="0" IVar="52" Cut="2.5090565681457520e+00" cType="1" res="-4.6192437410354614e-02" rms="1.4027073979377747e-01" purity="2.1546034514904022e-01" nType="0">
          <Node pos="l" depth="2" NCoef="0" IVar="-1" Cut="0.0000000000000000e+00" cType="1" res="-9.6283257007598877e-02" rms="-nan" purity="-8.6609810590744019e-02" nType="-99"/>
          <Node pos="r" depth="2" NCoef="0" IVar="-1" Cut="0.0000000000000000e+00" cType="1" res="-6.8797995336353779e-03" rms="2.1494257450103760e-01" purity="2.6881498098373413e-01" nType="-99"/>
        </Node>
      </Node>
    </BinaryTree>
    <BinaryTree type="DecisionTree" boostWeight="1.0000000000000000e+00" itree="650">
      <Node pos="s" depth="0" NCoef="0" IVar="46" Cut="1.2320826053619385e+00" cType="1" res="4.5586592023028061e-05" rms="2.3903208971023560e-01" purity="5.0014799833297729e-01" nType="0">
        <Node pos="l" depth="1" NCoef="0" IVar="15" Cut="1.5223981142044067e+00" cType="1" res="4.6251779422163963e-03" rms="2.4768613278865814e-01" purity="5.2012616395950317e-01" nType="0">
          <Node pos="l" depth="2" NCoef="0" IVar="-1" Cut="0.0000000000000000e+00" cType="1" res="4.6172006987035275e-03" rms="2.5125119090080261e-01" purity="5.1238363981246948e-01" nType="-99"/>
          <Node pos="r" depth="2" NCoef="0" IVar="-1" Cut="0.0000000000000000e+00" cType="1" res="-1.0430133901536465e-02" rms="2.2319352626800537e-01" purity="5.6018751859664917e-01" nType="-99"/>
        </Node>
        <Node pos="r" depth="1" NCoef="0" IVar="5" Cut="2.7938944101333618e-01" cType="1" res="-3.3178087323904037e-02" rms="-nan" purity="1.6377416253089905e-01" nType="-99"/>
      </Node>
    </BinaryTree>
    <BinaryTree type="DecisionTree" boostWeight="1.0000000000000000e+00" itree="651">
      <Node pos="s" depth="0" NCoef="0" IVar="88" Cut="1.3872590065002441e+00" cType="1" res="1.5089669032022357e-03" rms="2.3942799866199493e-01" purity="4.9923354387283325e-01" nType="0">
        <Node pos="l" depth="1" NCoef="0" IVar="35" Cut="1.3004074990749359e-01" cType="1" res="4.8611913807690144e-03" rms="2.4601541459560394e-01" purity="5.1329016685485840e-01" nType="0">
          <Node pos="l" depth="2" NCoef="0" IVar="-1" Cut="0.0000000000000000e+00" cType="1" res="-2.0604021847248077e-03" rms="2.2801129519939423e-01" purity="5.0347226858139038e-01" nType="-99"/>
          <Node pos="r" depth="2" NCoef="0" IVar="-1" Cut="0.0000000000000000e+00" cType="1" res="1.1258718557655811e-02" rms="2.8953424096107483e-01" purity="5.4166656732559204e-01" nType="-99"/>
        </Node>
        <Node pos="r" depth="1" NCoef="0" IVar="-1" Cut="0.0000000000000000e+00" cType="1" res="-6.2434639781713486e-02" rms="-nan" purity="8.4331110119819641e-02" nType="-99"/>
      </Node>
    </BinaryTree>
    <BinaryTree type="DecisionTree" boostWeight="1.0000000000000000e+00" itree="652">
      <Node pos="s" depth="0" NCoef="0" IVar="17" Cut="-1.4538372755050659e+00" cType="1" res="2.1344741981010884e-04" rms="2.4855388700962067e-01" purity="4.9655517935752869e-01" nType="0">
        <Node pos="l" depth="1" NCoef="0" IVar="-1" Cut="0.0000000000000000e+00" cType="1" res="1.0553792864084244e-01" rms="3.0793285369873047e-01" purity="1.1633435636758804e-01" nType="-99"/>
        <Node pos="r" depth="1" NCoef="0" IVar="88" Cut="1.5501110553741455e+00" cType="1" res="-2.6248265057802200e-03" rms="2.4588167667388916e-01" purity="5.0878322124481201e-01" nType="0">
          <Node pos="l" depth="2" NCoef="0" IVar="-1" Cut="0.0000000000000000e+00" cType="1" res="-1.6973079182207584e-03" rms="2.4277995526790619e-01" purity="5.1576274633407593e-01" nType="-99"/>
          <Node pos="r" depth="2" NCoef="0" IVar="-1" Cut="0.0000000000000000e+00" cType="1" res="6.4199082553386688e-02" rms="3.3288565278053284e-01" purity="2.3344194889068604e-01" nType="-99"/>
        </Node>
      </Node>
    </BinaryTree>
    <BinaryTree type="DecisionTree" boostWeight="1.0000000000000000e+00" itree="653">
      <Node pos="s" depth="0" NCoef="0" IVar="0" Cut="-2.7199201285839081e-02" cType="1" res="4.3135504238307476e-03" rms="2.4509343504905701e-01" purity="4.9836310744285583e-01" nType="0">
        <Node pos="l" depth="1" NCoef="0" IVar="-1" Cut="0.0000000000000000e+00" cType="1" res="-3.8090474903583527e-02" rms="5.5611789226531982e-02" purity="3.6494401097297668e-01" nType="-99"/>
        <Node pos="r" depth="1" NCoef="0" IVar="19" Cut="1.5412600040435791e+00" cType="1" res="6.9924723356962204e-03" rms="2.4769441783428192e-01" purity="5.0199800729751587e-01" nType="0">
          <Node pos="l" depth="2" NCoef="0" IVar="-1" Cut="0.0000000000000000e+00" cType="1" res="3.1573507003486156e-03" rms="2.4976181983947754e-01" purity="5.0851863622665405e-01" nType="-99"/>
          <Node pos="r" depth="2" NCoef="0" IVar="-1" Cut="0.0000000000000000e+00" cType="1" res="-2.8902662917971611e-02" rms="9.1532431542873383e-02" purity="2.3248317837715149e-01" nType="-99"/>
        </Node>
      </Node>
    </BinaryTree>
    <BinaryTree type="DecisionTree" boostWeight="1.0000000000000000e+00" itree="654">
      <Node pos="s" depth="0" NCoef="0" IVar="27" Cut="1.1503524780273438e+00" cType="1" res="-1.1773320147767663e-03" rms="2.3684437572956085e-01" purity="5.0462889671325684e-01" nType="0">
        <Node pos="l" depth="1" NCoef="0" IVar="34" Cut="1.4730463027954102e+00" cType="1" res="-4.7391172498464584e-02" rms="1.1194228380918503e-01" purity="2.1388266980648041e-01" nType="0">
          <Node pos="l" depth="2" NCoef="0" IVar="-1" Cut="0.0000000000000000e+00" cType="1" res="-4.1933566331863403e-02" rms="-nan" purity="6.3783437013626099e-02" nType="-99"/>
          <Node pos="r" depth="2" NCoef="0" IVar="-1" Cut="0.0000000000000000e+00" cType="1" res="1.0338901542127132e-02" rms="2.7369821071624756e-01" purity="5.1281493902206421e-01" nType="-99"/>
        </Node>
        <Node pos="r" depth="1" NCoef="0" IVar="42" Cut="3.9353165030479431e-01" cType="1" res="6.6188904456794262e-03" rms="2.5104463100433350e-01" purity="5.5367743968963623e-01" nType="0">
          <Node pos="l" depth="2" NCoef="0" IVar="-1" Cut="0.0000000000000000e+00" cType="1" res="1.0766139021143317e-03" rms="2.4775433540344238e-01" purity="5.5620747804641724e-01" nType="-99"/>
          <Node pos="r" depth="2" NCoef="0" IVar="-1" Cut="0.0000000000000000e+00" cType="1" res="3.4939005970954895e-02" rms="3.1809675693511963e-01" purity="4.7855734825134277e-01" nType="-99"/>
        </Node>
      </Node>
    </BinaryTree>
    <BinaryTree type="DecisionTree" boostWeight="1.0000000000000000e+00" itree="655">
      <Node pos="s" depth="0" NCoef="0" IVar="64" Cut="1.2345679104328156e-02" cType="1" res="5.5160769261419773e-03" rms="2.4505189061164856e-01" purity="4.9882709980010986e-01" nType="0">
        <Node pos="l" depth="1" NCoef="0" IVar="-1" Cut="0.0000000000000000e+00" cType="1" res="3.4899838268756866e-02" rms="3.4363630414009094e-01" purity="3.0451643466949463e-01" nType="-99"/>
        <Node pos="r" depth="1" NCoef="0" IVar="20" Cut="-4.9055412411689758e-01" cType="1" res="1.5632715076208115e-03" rms="2.3941580951213837e-01" purity="5.0661092996597290e-01" nType="0">
          <Node pos="l" depth="2" NCoef="0" IVar="-1" Cut="0.0000000000000000e+00" cType="1" res="3.6021597683429718e-02" rms="3.5503509640693665e-01" purity="6.3392668962478638e-01" nType="-99"/>
          <Node pos="r" depth="2" NCoef="0" IVar="-1" Cut="0.0000000000000000e+00" cType="1" res="-5.4594239918515086e-04" rms="2.3393549025058746e-01" purity="5.0239527225494385e-01" nType="-99"/>
        </Node>
      </Node>
    </BinaryTree>
    <BinaryTree type="DecisionTree" boostWeight="1.0000000000000000e+00" itree="656">
      <Node pos="s" depth="0" NCoef="0" IVar="56" Cut="-1.4924913644790649e+00" cType="1" res="-4.9616396427154541e-03" rms="2.3980008065700531e-01" purity="4.9652466177940369e-01" nType="0">
        <Node pos="l" depth="1" NCoef="0" IVar="21" Cut="-1.5540117025375366e-01" cType="1" res="-5.2004337310791016e-02" rms="1.1762501299381256e-01" purity="2.4700829386711121e-01" nType="0">
          <Node pos="l" depth="2" NCoef="0" IVar="-1" Cut="0.0000000000000000e+00" cType="1" res="-5.7023283094167709e-02" rms="-nan" purity="1.9066876173019409e-01" nType="-99"/>
          <Node pos="r" depth="2" NCoef="0" IVar="-1" Cut="0.0000000000000000e+00" cType="1" res="-4.4934540055692196e-03" rms="2.1637527644634247e-01" purity="2.6812914013862610e-01" nType="-99"/>
        </Node>
        <Node pos="r" depth="1" NCoef="0" IVar="52" Cut="3.0604884624481201e+00" cType="1" res="8.2140025915578008e-04" rms="2.5013360381126404e-01" purity="5.2719813585281372e-01" nType="0">
          <Node pos="l" depth="2" NCoef="0" IVar="-1" Cut="0.0000000000000000e+00" cType="1" res="6.3756527379155159e-03" rms="2.7804407477378845e-01" purity="4.7540730237960815e-01" nType="-99"/>
          <Node pos="r" depth="2" NCoef="0" IVar="-1" Cut="0.0000000000000000e+00" cType="1" res="-6.9407811388373375e-03" rms="2.1481780707836151e-01" purity="5.8211964368820190e-01" nType="-99"/>
        </Node>
      </Node>
    </BinaryTree>
    <BinaryTree type="DecisionTree" boostWeight="1.0000000000000000e+00" itree="657">
      <Node pos="s" depth="0" NCoef="0" IVar="40" Cut="8.7567514181137085e-01" cType="1" res="-1.3917078031226993e-03" rms="2.3826518654823303e-01" purity="4.9746775627136230e-01" nType="0">
        <Node pos="l" depth="1" NCoef="0" IVar="79" Cut="-1.2995234727859497e+00" cType="1" res="1.2242447584867477e-02" rms="2.6290029287338257e-01" purity="5.6546849012374878e-01" nType="0">
          <Node pos="l" depth="2" NCoef="0" IVar="-1" Cut="0.0000000000000000e+00" cType="1" res="-2.9350249096751213e-03" rms="2.4709114432334900e-01" purity="6.1361014842987061e-01" nType="-99"/>
          <Node pos="r" depth="2" NCoef="0" IVar="-1" Cut="0.0000000000000000e+00" cType="1" res="1.1959487572312355e-02" rms="2.7635675668716431e-01" purity="5.1647043228149414e-01" nType="-99"/>
        </Node>
        <Node pos="r" depth="1" NCoef="0" IVar="73" Cut="2.2502698898315430e+00" cType="1" res="-2.7994656935334206e-02" rms="1.7779159545898438e-01" purity="3.6478483676910400e-01" nType="0">
          <Node pos="l" depth="2" NCoef="0" IVar="-1" Cut="0.0000000000000000e+00" cType="1" res="-7.1887113153934479e-02" rms="-nan" purity="4.7181848436594009e-02" nType="-99"/>
          <Node pos="r" depth="2" NCoef="0" IVar="-1" Cut="0.0000000000000000e+00" cType="1" res="-6.8521820940077305e-03" rms="1.9451102614402771e-01" purity="3.8771578669548035e-01" nType="-99"/>
        </Node>
      </Node>
    </BinaryTree>
    <BinaryTree type="DecisionTree" boostWeight="1.0000000000000000e+00" itree="658">
      <Node pos="s" depth="0" NCoef="0" IVar="43" Cut="1.2345679104328156e-02" cType="1" res="6.3179745338857174e-03" rms="2.4180272221565247e-01" purity="5.0655043125152588e-01" nType="0">
        <Node pos="l" depth="1" NCoef="0" IVar="55" Cut="1.2048902511596680e+00" cType="1" res="8.6408428847789764e-02" rms="3.3207535743713379e-01" purity="3.7257322669029236e-01" nType="0">
          <Node pos="l" depth="2" NCoef="0" IVar="-1" Cut="0.0000000000000000e+00" cType="1" res="-6.7298039793968201e-03" rms="9.7855903208255768e-02" purity="1.9680657982826233e-01" nType="-99"/>
          <Node pos="r" depth="2" NCoef="0" IVar="-1" Cut="0.0000000000000000e+00" cType="1" res="4.3875079602003098e-02" rms="4.1854971647262573e-01" purity="5.1328229904174805e-01" nType="-99"/>
        </Node>
        <Node pos="r" depth="1" NCoef="0" IVar="36" Cut="-1.3961701393127441e+00" cType="1" res="2.5152552407234907e-03" rms="2.3598685860633850e-01" purity="5.1291167736053467e-01" nType="0">
          <Node pos="l" depth="2" NCoef="0" IVar="-1" Cut="0.0000000000000000e+00" cType="1" res="-5.6529741734266281e-02" rms="-nan" purity="-2.5009678676724434e-02" nType="-99"/>
          <Node pos="r" depth="2" NCoef="0" IVar="-1" Cut="0.0000000000000000e+00" cType="1" res="2.4394092615693808e-03" rms="2.4986352026462555e-01" purity="5.5210953950881958e-01" nType="-99"/>
        </Node>
      </Node>
    </BinaryTree>
    <BinaryTree type="DecisionTree" boostWeight="1.0000000000000000e+00" itree="659">
      <Node pos="s" depth="0" NCoef="0" IVar="38" Cut="-1.4541432857513428e+00" cType="1" res="4.8026978038251400e-03" rms="2.4612677097320557e-01" purity="5.0248533487319946e-01" nType="0">
        <Node pos="l" depth="1" NCoef="0" IVar="10" Cut="3.2244434356689453e+00" cType="1" res="7.1546763181686401e-02" rms="3.0317249894142151e-01" purity="3.9404091238975525e-01" nType="0">
          <Node pos="l" depth="2" NCoef="0" IVar="-1" Cut="0.0000000000000000e+00" cType="1" res="6.7776143550872803e-02" rms="3.7306514382362366e-01" purity="3.0825060606002808e-01" nType="-99"/>
          <Node pos="r" depth="2" NCoef="0" IVar="-1" Cut="0.0000000000000000e+00" cType="1" res="1.1175340041518211e-02" rms="2.5404325127601624e-01" purity="4.3426251411437988e-01" nType="-99"/>
        </Node>
        <Node pos="r" depth="1" NCoef="0" IVar="83" Cut="3.7979465723037720e-01" cType="1" res="-1.4281097101047635e-03" rms="2.3916195333003998e-01" purity="5.1260900497436523e-01" nType="0">
          <Node pos="l" depth="2" NCoef="0" IVar="-1" Cut="0.0000000000000000e+00" cType="1" res="4.1859361226670444e-04" rms="2.4284629523754120e-01" purity="5.1803177595138550e-01" nType="-99"/>
          <Node pos="r" depth="2" NCoef="0" IVar="-1" Cut="0.0000000000000000e+00" cType="1" res="-4.2855609208345413e-02" rms="-nan" purity="2.8480085730552673e-01" nType="-99"/>
        </Node>
      </Node>
    </BinaryTree>
    <BinaryTree type="DecisionTree" boostWeight="1.0000000000000000e+00" itree="660">
      <Node pos="s" depth="0" NCoef="0" IVar="13" Cut="-1.4926353693008423e+00" cType="1" res="-3.8873380981385708e-03" rms="2.2921088337898254e-01" purity="4.9263456463813782e-01" nType="0">
        <Node pos="l" depth="1" NCoef="0" IVar="-1" Cut="0.0000000000000000e+00" cType="1" res="-4.6265251934528351e-02" rms="-nan" purity="1.4783169329166412e-01" nType="-99"/>
        <Node pos="r" depth="1" NCoef="0" IVar="15" Cut="-1.3907071352005005e+00" cType="1" res="-1.1475875508040190e-03" rms="2.3730897903442383e-01" purity="5.0169795751571655e-01" nType="0">
          <Node pos="l" depth="2" NCoef="0" IVar="-1" Cut="0.0000000000000000e+00" cType="1" res="2.6968812569975853e-02" rms="2.4262112379074097e-01" purity="1.7526401579380035e-01" nType="-99"/>
          <Node pos="r" depth="2" NCoef="0" IVar="-1" Cut="0.0000000000000000e+00" cType="1" res="-2.3677367717027664e-03" rms="2.3583462834358215e-01" purity="5.5389755964279175e-01" nType="-99"/>
        </Node>
      </Node>
    </BinaryTree>
    <BinaryTree type="DecisionTree" boostWeight="1.0000000000000000e+00" itree="661">
      <Node pos="s" depth="0" NCoef="0" IVar="39" Cut="-8.3377563953399658e-01" cType="1" res="5.2011040970683098e-03" rms="2.5051069259643555e-01" purity="5.0331544876098633e-01" nType="0">
        <Node pos="l" depth="1" NCoef="0" IVar="52" Cut="2.4112584590911865e+00" cType="1" res="1.1469868943095207e-02" rms="2.6000887155532837e-01" purity="5.3916054964065552e-01" nType="0">
          <Node pos="l" depth="2" NCoef="0" IVar="-1" Cut="0.0000000000000000e+00" cType="1" res="2.6237947866320610e-02" rms="3.4246301651000977e-01" purity="3.0190739035606384e-01" nType="-99"/>
          <Node pos="r" depth="2" NCoef="0" IVar="-1" Cut="0.0000000000000000e+00" cType="1" res="2.4575404822826385e-03" rms="2.5429838895797729e-01" purity="5.5164003372192383e-01" nType="-99"/>
        </Node>
        <Node pos="r" depth="1" NCoef="0" IVar="48" Cut="2.5477850437164307e+00" cType="1" res="-5.1162242889404297e-02" rms="1.2500910460948944e-01" purity="1.8102717399597168e-01" nType="0">
          <Node pos="l" depth="2" NCoef="0" IVar="-1" Cut="0.0000000000000000e+00" cType="1" res="-3.9406578987836838e-02" rms="-nan" purity="1.0419858992099762e-01" nType="-99"/>
          <Node pos="r" depth="2" NCoef="0" IVar="-1" Cut="0.0000000000000000e+00" cType="1" res="3.0569139868021011e-02" rms="3.2477205991744995e-01" purity="4.8454168438911438e-01" nType="-99"/>
        </Node>
      </Node>
    </BinaryTree>
    <BinaryTree type="DecisionTree" boostWeight="1.0000000000000000e+00" itree="662">
      <Node pos="s" depth="0" NCoef="0" IVar="55" Cut="-1.4926588535308838e+00" cType="1" res="-3.0558756552636623e-03" rms="2.3314620554447174e-01" purity="4.9567711353302002e-01" nType="0">
        <Node pos="l" depth="1" NCoef="0" IVar="3" Cut="5.3501949310302734e+00" cType="1" res="9.0034954249858856e-02" rms="3.2241931557655334e-01" purity="4.5330661535263062e-01" nType="0">
          <Node pos="l" depth="2" NCoef="0" IVar="-1" Cut="0.0000000000000000e+00" cType="1" res="1.8411258934065700e-03" rms="2.1135461330413818e-01" purity="4.7414076328277588e-01" nType="-99"/>
          <Node pos="r" depth="2" NCoef="0" IVar="-1" Cut="0.0000000000000000e+00" cType="1" res="6.8176157772541046e-02" rms="3.9185765385627747e-01" purity="4.2979219555854797e-01" nType="-99"/>
        </Node>
        <Node pos="r" depth="1" NCoef="0" IVar="17" Cut="-1.0673263072967529e+00" cType="1" res="-7.2594708763062954e-03" rms="2.2739517688751221e-01" purity="4.9759033322334290e-01" nType="0">
          <Node pos="l" depth="2" NCoef="0" IVar="-1" Cut="0.0000000000000000e+00" cType="1" res="-7.0863999426364899e-02" rms="-nan" purity="-2.8067633509635925e-02" nType="-99"/>
          <Node pos="r" depth="2" NCoef="0" IVar="-1" Cut="0.0000000000000000e+00" cType="1" res="3.4732758649624884e-05" rms="2.5932434201240540e-01" purity="5.8568173646926880e-01" nType="-99"/>
        </Node>
      </Node>
    </BinaryTree>
    <BinaryTree type="DecisionTree" boostWeight="1.0000000000000000e+00" itree="663">
      <Node pos="s" depth="0" NCoef="0" IVar="46" Cut="1.6495872735977173e+00" cType="1" res="-2.1860070992261171e-03" rms="2.3988302052021027e-01" purity="5.0305324792861938e-01" nType="0">
        <Node pos="l" depth="1" NCoef="0" IVar="19" Cut="7.9912602901458740e-01" cType="1" res="-4.6475282870233059e-03" rms="2.3525583744049072e-01" purity="5.0783365964889526e-01" nType="0">
          <Node pos="l" depth="2" NCoef="0" IVar="-1" Cut="0.0000000000000000e+00" cType="1" res="2.6189188938587904e-03" rms="2.5359505414962769e-01" purity="5.6278318166732788e-01" nType="-99"/>
          <Node pos="r" depth="2" NCoef="0" IVar="-1" Cut="0.0000000000000000e+00" cType="1" res="-8.8437758386135101e-03" rms="1.9756872951984406e-01" purity="4.1228607296943665e-01" nType="-99"/>
        </Node>
        <Node pos="r" depth="1" NCoef="0" IVar="-1" Cut="0.0000000000000000e+00" cType="1" res="4.7417420893907547e-02" rms="3.8326996564865112e-01" purity="2.7928933501243591e-01" nType="-99"/>
      </Node>
    </BinaryTree>
    <BinaryTree type="DecisionTree" boostWeight="1.0000000000000000e+00" itree="664">
      <Node pos="s" depth="0" NCoef="0" IVar="19" Cut="2.5723157450556755e-03" cType="1" res="4.5219887979328632e-03" rms="2.4288898706436157e-01" purity="4.9812340736389160e-01" nType="0">
        <Node pos="l" depth="1" NCoef="0" IVar="-1" Cut="0.0000000000000000e+00" cType="1" res="3.1514223664999008e-02" rms="3.4168991446495056e-01" purity="6.0278719663619995e-01" nType="-99"/>
        <Node pos="r" depth="1" NCoef="0" IVar="83" Cut="-4.3081983923912048e-01" cType="1" res="1.0558260837569833e-03" rms="2.3744866251945496e-01" purity="4.9395653605461121e-01" nType="0">
          <Node pos="l" depth="2" NCoef="0" IVar="-1" Cut="0.0000000000000000e+00" cType="1" res="2.8791263699531555e-02" rms="3.5670939087867737e-01" purity="6.2801820039749146e-01" nType="-99"/>
          <Node pos="r" depth="2" NCoef="0" IVar="-1" Cut="0.0000000000000000e+00" cType="1" res="-9.4901787815615535e-04" rms="2.3055033385753632e-01" purity="4.8857942223548889e-01" nType="-99"/>
        </Node>
      </Node>
    </BinaryTree>
    <BinaryTree type="DecisionTree" boostWeight="1.0000000000000000e+00" itree="665">
      <Node pos="s" depth="0" NCoef="0" IVar="42" Cut="-2.0399458706378937e-01" cType="1" res="3.7522232159972191e-03" rms="2.4972009658813477e-01" purity="4.9502068758010864e-01" nType="0">
        <Node pos="l" depth="1" NCoef="0" IVar="55" Cut="1.3994088172912598e+00" cType="1" res="3.0732540413737297e-02" rms="2.7659845352172852e-01" purity="5.3039574623107910e-01" nType="0">
          <Node pos="l" depth="2" NCoef="0" IVar="-1" Cut="0.0000000000000000e+00" cType="1" res="2.5312598794698715e-02" rms="3.0059525370597839e-01" purity="3.6323961615562439e-01" nType="-99"/>
          <Node pos="r" depth="2" NCoef="0" IVar="-1" Cut="0.0000000000000000e+00" cType="1" res="3.4929017419926822e-04" rms="2.5468486547470093e-01" purity="6.4482671022415161e-01" nType="-99"/>
        </Node>
        <Node pos="r" depth="1" NCoef="0" IVar="31" Cut="2.6087348461151123e+00" cType="1" res="-5.3885267116129398e-03" rms="2.3924295604228973e-01" purity="4.8303592205047607e-01" nType="0">
          <Node pos="l" depth="2" NCoef="0" IVar="-1" Cut="0.0000000000000000e+00" cType="1" res="-2.3701665922999382e-02" rms="7.1658574044704437e-02" purity="1.4092390239238739e-01" nType="-99"/>
          <Node pos="r" depth="2" NCoef="0" IVar="-1" Cut="0.0000000000000000e+00" cType="1" res="8.1974320346489549e-04" rms="2.5277632474899292e-01" purity="5.3000932931900024e-01" nType="-99"/>
        </Node>
      </Node>
    </BinaryTree>
    <BinaryTree type="DecisionTree" boostWeight="1.0000000000000000e+00" itree="666">
      <Node pos="s" depth="0" NCoef="0" IVar="15" Cut="-1.2993335723876953e+00" cType="1" res="1.0102361440658569e-02" rms="2.4672524631023407e-01" purity="5.1334702968597412e-01" nType="0">
        <Node pos="l" depth="1" NCoef="0" IVar="17" Cut="9.3987905979156494e-01" cType="1" res="-2.2056451067328453e-02" rms="-nan" purity="1.5806983411312103e-01" nType="-99"/>
        <Node pos="r" depth="1" NCoef="0" IVar="60" Cut="-4.9073103070259094e-01" cType="1" res="1.8022317439317703e-02" rms="2.6875901222229004e-01" purity="5.8063471317291260e-01" nType="0">
          <Node pos="l" depth="2" NCoef="0" IVar="-1" Cut="0.0000000000000000e+00" cType="1" res="4.3666232377290726e-03" rms="2.6306274533271790e-01" purity="5.8525902032852173e-01" nType="-99"/>
          <Node pos="r" depth="2" NCoef="0" IVar="-1" Cut="0.0000000000000000e+00" cType="1" res="5.0202518701553345e-02" rms="4.1720634698867798e-01" purity="3.9243295788764954e-01" nType="-99"/>
        </Node>
      </Node>
    </BinaryTree>
    <BinaryTree type="DecisionTree" boostWeight="1.0000000000000000e+00" itree="667">
      <Node pos="s" depth="0" NCoef="0" IVar="46" Cut="1.4676792621612549e+00" cType="1" res="2.3703870829194784e-03" rms="2.3989716172218323e-01" purity="5.0283038616180420e-01" nType="0">
        <Node pos="l" depth="1" NCoef="0" IVar="62" Cut="-4.8098281025886536e-01" cType="1" res="6.1172163113951683e-03" rms="2.4700646102428436e-01" purity="5.1403200626373291e-01" nType="0">
          <Node pos="l" depth="2" NCoef="0" IVar="-1" Cut="0.0000000000000000e+00" cType="1" res="3.1429223716259003e-02" rms="3.3887279033660889e-01" purity="6.6692453622817993e-01" nType="-99"/>
          <Node pos="r" depth="2" NCoef="0" IVar="-1" Cut="0.0000000000000000e+00" cType="1" res="9.9895661696791649e-04" rms="2.4283888936042786e-01" purity="5.0913906097412109e-01" nType="-99"/>
        </Node>
        <Node pos="r" depth="1" NCoef="0" IVar="-1" Cut="0.0000000000000000e+00" cType="1" res="-7.2515465319156647e-02" rms="-nan" purity="2.9217043891549110e-02" nType="-99"/>
      </Node>
    </BinaryTree>
    <BinaryTree type="DecisionTree" boostWeight="1.0000000000000000e+00" itree="668">
      <Node pos="s" depth="0" NCoef="0" IVar="19" Cut="7.0288383960723877e-01" cType="1" res="5.9550139121711254e-04" rms="2.4810902774333954e-01" purity="4.9610677361488342e-01" nType="0">
        <Node pos="l" depth="1" NCoef="0" IVar="16" Cut="-1.2620744705200195e+00" cType="1" res="-1.9299121573567390e-02" rms="2.2353744506835938e-01" purity="5.3121334314346313e-01" nType="0">
          <Node pos="l" depth="2" NCoef="0" IVar="-1" Cut="0.0000000000000000e+00" cType="1" res="-3.5713937133550644e-02" rms="-nan" purity="2.6584821939468384e-01" nType="-99"/>
          <Node pos="r" depth="2" NCoef="0" IVar="-1" Cut="0.0000000000000000e+00" cType="1" res="-3.6847009323537350e-03" rms="2.3910719156265259e-01" purity="5.6000876426696777e-01" nType="-99"/>
        </Node>
        <Node pos="r" depth="1" NCoef="0" IVar="61" Cut="1.3145719766616821e+00" cType="1" res="2.0270386710762978e-02" rms="2.6877623796463013e-01" purity="4.6138799190521240e-01" nType="0">
          <Node pos="l" depth="2" NCoef="0" IVar="-1" Cut="0.0000000000000000e+00" cType="1" res="3.8220698479562998e-03" rms="2.5409898161888123e-01" purity="4.7845336794853210e-01" nType="-99"/>
          <Node pos="r" depth="2" NCoef="0" IVar="-1" Cut="0.0000000000000000e+00" cType="1" res="3.1428381800651550e-02" rms="3.5227340459823608e-01" purity="3.3470699191093445e-01" nType="-99"/>
        </Node>
      </Node>
    </BinaryTree>
    <BinaryTree type="DecisionTree" boostWeight="1.0000000000000000e+00" itree="669">
      <Node pos="s" depth="0" NCoef="0" IVar="46" Cut="9.4879090785980225e-01" cType="1" res="4.3608518317341805e-03" rms="2.5561693310737610e-01" purity="4.9675178527832031e-01" nType="0">
        <Node pos="l" depth="1" NCoef="0" IVar="55" Cut="1.0128543376922607e+00" cType="1" res="2.3183410987257957e-02" rms="2.8687191009521484e-01" purity="5.6959247589111328e-01" nType="0">
          <Node pos="l" depth="2" NCoef="0" IVar="-1" Cut="0.0000000000000000e+00" cType="1" res="2.4482868611812592e-02" rms="3.1835982203483582e-01" purity="3.5948497056961060e-01" nType="-99"/>
          <Node pos="r" depth="2" NCoef="0" IVar="-1" Cut="0.0000000000000000e+00" cType="1" res="1.7549877520650625e-03" rms="2.7226430177688599e-01" purity="6.4710813760757446e-01" nType="-99"/>
        </Node>
        <Node pos="r" depth="1" NCoef="0" IVar="42" Cut="8.5044883191585541e-02" cType="1" res="-1.4400939457118511e-02" rms="2.1848145127296448e-01" purity="4.2414620518684387e-01" nType="0">
          <Node pos="l" depth="2" NCoef="0" IVar="-1" Cut="0.0000000000000000e+00" cType="1" res="-1.3315632008016109e-02" rms="1.8057127296924591e-01" purity="4.2035380005836487e-01" nType="-99"/>
          <Node pos="r" depth="2" NCoef="0" IVar="-1" Cut="0.0000000000000000e+00" cType="1" res="7.7755977399647236e-03" rms="2.6799610257148743e-01" purity="4.3070846796035767e-01" nType="-99"/>
        </Node>
      </Node>
    </BinaryTree>
    <BinaryTree type="DecisionTree" boostWeight="1.0000000000000000e+00" itree="670">
      <Node pos="s" depth="0" NCoef="0" IVar="35" Cut="-1.5311636924743652e+00" cType="1" res="-2.6385292876511812e-03" rms="2.3202137649059296e-01" purity="4.9994957447052002e-01" nType="0">
        <Node pos="l" depth="1" NCoef="0" IVar="-1" Cut="0.0000000000000000e+00" cType="1" res="4.2125310748815536e-02" rms="3.8732972741127014e-01" purity="3.2738700509071350e-01" nType="-99"/>
        <Node pos="r" depth="1" NCoef="0" IVar="36" Cut="-1.3587193489074707e+00" cType="1" res="-5.5311298929154873e-03" rms="2.2631144523620605e-01" purity="5.0398808717727661e-01" nType="0">
          <Node pos="l" depth="2" NCoef="0" IVar="-1" Cut="0.0000000000000000e+00" cType="1" res="-5.6608311831951141e-02" rms="-nan" purity="-1.8684476613998413e-02" nType="-99"/>
          <Node pos="r" depth="2" NCoef="0" IVar="-1" Cut="0.0000000000000000e+00" cType="1" res="2.9819144401699305e-04" rms="2.4591152369976044e-01" purity="5.5008471012115479e-01" nType="-99"/>
        </Node>
      </Node>
    </BinaryTree>
    <BinaryTree type="DecisionTree" boostWeight="1.0000000000000000e+00" itree="671">
      <Node pos="s" depth="0" NCoef="0" IVar="34" Cut="-9.1443419456481934e-01" cType="1" res="5.7943686842918396e-03" rms="2.4712191522121429e-01" purity="5.0328117609024048e-01" nType="0">
        <Node pos="l" depth="1" NCoef="0" IVar="35" Cut="-7.2126609086990356e-01" cType="1" res="-2.8386762365698814e-02" rms="1.3692440092563629e-01" purity="2.3413056135177612e-01" nType="0">
          <Node pos="l" depth="2" NCoef="0" IVar="-1" Cut="0.0000000000000000e+00" cType="1" res="-3.3894356340169907e-02" rms="-nan" purity="1.9091367721557617e-01" nType="-99"/>
          <Node pos="r" depth="2" NCoef="0" IVar="-1" Cut="0.0000000000000000e+00" cType="1" res="1.7908146604895592e-02" rms="2.7903541922569275e-01" purity="3.0472970008850098e-01" nType="-99"/>
        </Node>
        <Node pos="r" depth="1" NCoef="0" IVar="34" Cut="-5.7924461364746094e-01" cType="1" res="1.3836679980158806e-02" rms="2.6587057113647461e-01" purity="5.6660836935043335e-01" nType="0">
          <Node pos="l" depth="2" NCoef="0" IVar="-1" Cut="0.0000000000000000e+00" cType="1" res="4.9804478883743286e-02" rms="3.7579768896102905e-01" purity="4.2817032337188721e-01" nType="-99"/>
          <Node pos="r" depth="2" NCoef="0" IVar="-1" Cut="0.0000000000000000e+00" cType="1" res="3.2016246113926172e-03" rms="2.6112937927246094e-01" purity="5.7011747360229492e-01" nType="-99"/>
        </Node>
      </Node>
    </BinaryTree>
    <BinaryTree type="DecisionTree" boostWeight="1.0000000000000000e+00" itree="672">
      <Node pos="s" depth="0" NCoef="0" IVar="52" Cut="2.4587526321411133e+00" cType="1" res="-5.0631673075258732e-03" rms="2.3082348704338074e-01" purity="4.9650743603706360e-01" nType="0">
        <Node pos="l" depth="1" NCoef="0" IVar="15" Cut="1.0948715209960938e+00" cType="1" res="-3.5917423665523529e-02" rms="-nan" purity="8.3075039088726044e-02" nType="-99"/>
        <Node pos="r" depth="1" NCoef="0" IVar="46" Cut="1.1178157329559326e+00" cType="1" res="4.2356747144367546e-05" rms="2.4118649959564209e-01" purity="5.2056241035461426e-01" nType="0">
          <Node pos="l" depth="2" NCoef="0" IVar="-1" Cut="0.0000000000000000e+00" cType="1" res="-2.0187394693493843e-03" rms="2.3589120805263519e-01" purity="5.4141449928283691e-01" nType="-99"/>
          <Node pos="r" depth="2" NCoef="0" IVar="-1" Cut="0.0000000000000000e+00" cType="1" res="1.6933431848883629e-02" rms="2.7260699868202209e-01" purity="3.6940655112266541e-01" nType="-99"/>
        </Node>
      </Node>
    </BinaryTree>
    <BinaryTree type="DecisionTree" boostWeight="1.0000000000000000e+00" itree="673">
      <Node pos="s" depth="0" NCoef="0" IVar="4" Cut="4.1546006202697754e+00" cType="1" res="1.6824254998937249e-04" rms="2.4321080744266510e-01" purity="5.0500386953353882e-01" nType="0">
        <Node pos="l" depth="1" NCoef="0" IVar="35" Cut="-1.5311636924743652e+00" cType="1" res="3.0535138212144375e-03" rms="2.4926525354385376e-01" purity="5.0684553384780884e-01" nType="0">
          <Node pos="l" depth="2" NCoef="0" IVar="-1" Cut="0.0000000000000000e+00" cType="1" res="4.0666397660970688e-02" rms="3.6192312836647034e-01" purity="3.3529829978942871e-01" nType="-99"/>
          <Node pos="r" depth="2" NCoef="0" IVar="-1" Cut="0.0000000000000000e+00" cType="1" res="6.8693385401275009e-05" rms="2.4509504437446594e-01" purity="5.1115465164184570e-01" nType="-99"/>
        </Node>
        <Node pos="r" depth="1" NCoef="0" IVar="-1" Cut="0.0000000000000000e+00" cType="1" res="-5.1013816148042679e-02" rms="-nan" purity="4.2948797345161438e-01" nType="-99"/>
      </Node>
    </BinaryTree>
    <BinaryTree type="DecisionTree" boostWeight="1.0000000000000000e+00" itree="674">
      <Node pos="s" depth="0" NCoef="0" IVar="31" Cut="2.2899484634399414e+00" cType="1" res="-1.8413503421470523e-03" rms="2.3915545642375946e-01" purity="4.9427103996276855e-01" nType="0">
        <Node pos="l" depth="1" NCoef="0" IVar="-1" Cut="0.0000000000000000e+00" cType="1" res="-5.1103435456752777e-02" rms="-nan" purity="5.5139590054750443e-02" nType="-99"/>
        <Node pos="r" depth="1" NCoef="0" IVar="19" Cut="2.3161186277866364e-01" cType="1" res="5.3919234778732061e-04" rms="2.4191144108772278e-01" purity="5.0336140394210815e-01" nType="0">
          <Node pos="l" depth="2" NCoef="0" IVar="-1" Cut="0.0000000000000000e+00" cType="1" res="-1.7657771706581116e-02" rms="1.5326699614524841e-01" purity="5.4787445068359375e-01" nType="-99"/>
          <Node pos="r" depth="2" NCoef="0" IVar="-1" Cut="0.0000000000000000e+00" cType="1" res="2.0272198598831892e-03" rms="2.4933168292045593e-01" purity="4.9834820628166199e-01" nType="-99"/>
        </Node>
      </Node>
    </BinaryTree>
    <BinaryTree type="DecisionTree" boostWeight="1.0000000000000000e+00" itree="675">
      <Node pos="s" depth="0" NCoef="0" IVar="82" Cut="5.6591087579727173e-01" cType="1" res="7.8445961698889732e-03" rms="2.5108507275581360e-01" purity="5.0547039508819580e-01" nType="0">
        <Node pos="l" depth="1" NCoef="0" IVar="10" Cut="2.8717596530914307e+00" cType="1" res="3.3114302903413773e-02" rms="2.7690237760543823e-01" purity="5.9853649139404297e-01" nType="0">
          <Node pos="l" depth="2" NCoef="0" IVar="-1" Cut="0.0000000000000000e+00" cType="1" res="5.1676884293556213e-02" rms="4.0168747305870056e-01" purity="4.6531307697296143e-01" nType="-99"/>
          <Node pos="r" depth="2" NCoef="0" IVar="-1" Cut="0.0000000000000000e+00" cType="1" res="5.8780144900083542e-03" rms="2.5650212168693542e-01" purity="6.1201018095016479e-01" nType="-99"/>
        </Node>
        <Node pos="r" depth="1" NCoef="0" IVar="77" Cut="1.3654884099960327e+00" cType="1" res="-3.6166571080684662e-03" rms="2.3757144808769226e-01" purity="4.6325951814651489e-01" nType="0">
          <Node pos="l" depth="2" NCoef="0" IVar="-1" Cut="0.0000000000000000e+00" cType="1" res="6.3476269133388996e-04" rms="2.5147897005081177e-01" purity="4.9227616190910339e-01" nType="-99"/>
          <Node pos="r" depth="2" NCoef="0" IVar="-1" Cut="0.0000000000000000e+00" cType="1" res="-9.8781898617744446e-02" rms="-nan" purity="-5.9271253645420074e-02" nType="-99"/>
        </Node>
      </Node>
    </BinaryTree>
    <BinaryTree type="DecisionTree" boostWeight="1.0000000000000000e+00" itree="676">
      <Node pos="s" depth="0" NCoef="0" IVar="19" Cut="1.6285698413848877e+00" cType="1" res="6.0895415954291821e-03" rms="2.5472146272659302e-01" purity="4.9142849445343018e-01" nType="0">
        <Node pos="l" depth="1" NCoef="0" IVar="55" Cut="-1.4155213832855225e+00" cType="1" res="3.2479206565767527e-03" rms="2.5081130862236023e-01" purity="4.9293103814125061e-01" nType="0">
          <Node pos="l" depth="2" NCoef="0" IVar="-1" Cut="0.0000000000000000e+00" cType="1" res="2.2080063819885254e-02" rms="2.9430514574050903e-01" purity="3.4439557790756226e-01" nType="-99"/>
          <Node pos="r" depth="2" NCoef="0" IVar="-1" Cut="0.0000000000000000e+00" cType="1" res="-1.0646405862644315e-03" rms="2.4412690103054047e-01" purity="5.1130622625350952e-01" nType="-99"/>
        </Node>
        <Node pos="r" depth="1" NCoef="0" IVar="-1" Cut="0.0000000000000000e+00" cType="1" res="4.6752724796533585e-02" rms="3.7270337343215942e-01" purity="4.2163166403770447e-01" nType="-99"/>
      </Node>
    </BinaryTree>
    <BinaryTree type="DecisionTree" boostWeight="1.0000000000000000e+00" itree="677">
      <Node pos="s" depth="0" NCoef="0" IVar="14" Cut="8.6667966842651367e-01" cType="1" res="7.6237176544964314e-03" rms="2.5102889537811279e-01" purity="5.0839072465896606e-01" nType="0">
        <Node pos="l" depth="1" NCoef="0" IVar="4" Cut="3.3976795673370361e+00" cType="1" res="1.5491042286157608e-02" rms="2.5618904829025269e-01" purity="5.1597660779953003e-01" nType="0">
          <Node pos="l" depth="2" NCoef="0" IVar="-1" Cut="0.0000000000000000e+00" cType="1" res="2.2669790312647820e-02" rms="3.0832830071449280e-01" purity="2.7371108531951904e-01" nType="-99"/>
          <Node pos="r" depth="2" NCoef="0" IVar="-1" Cut="0.0000000000000000e+00" cType="1" res="1.7910185270011425e-03" rms="2.4252066016197205e-01" purity="5.6713545322418213e-01" nType="-99"/>
        </Node>
        <Node pos="r" depth="1" NCoef="0" IVar="20" Cut="1.6853118315339088e-02" cType="1" res="-4.4568356126546860e-02" rms="2.0619750022888184e-01" purity="4.5806586742401123e-01" nType="0">
          <Node pos="l" depth="2" NCoef="0" IVar="-1" Cut="0.0000000000000000e+00" cType="1" res="-2.7888456359505653e-02" rms="1.2717601656913757e-01" purity="4.5726686716079712e-01" nType="-99"/>
          <Node pos="r" depth="2" NCoef="0" IVar="-1" Cut="0.0000000000000000e+00" cType="1" res="2.0683920010924339e-03" rms="2.6463669538497925e-01" purity="4.5904207229614258e-01" nType="-99"/>
        </Node>
      </Node>
    </BinaryTree>
    <BinaryTree type="DecisionTree" boostWeight="1.0000000000000000e+00" itree="678">
      <Node pos="s" depth="0" NCoef="0" IVar="60" Cut="-5.0694793462753296e-01" cType="1" res="3.7893785629421473e-03" rms="2.4592944979667664e-01" purity="5.0544089078903198e-01" nType="0">
        <Node pos="l" depth="1" NCoef="0" IVar="6" Cut="1.7582324743270874e+00" cType="1" res="6.0813263989984989e-03" rms="2.4874790012836456e-01" purity="5.1531195640563965e-01" nType="0">
          <Node pos="l" depth="2" NCoef="0" IVar="-1" Cut="0.0000000000000000e+00" cType="1" res="1.1289099231362343e-02" rms="2.8099349141120911e-01" purity="3.3006173372268677e-01" nType="-99"/>
          <Node pos="r" depth="2" NCoef="0" IVar="-1" Cut="0.0000000000000000e+00" cType="1" res="-7.4376788688823581e-04" rms="2.3658734560012817e-01" purity="5.7630026340484619e-01" nType="-99"/>
        </Node>
        <Node pos="r" depth="1" NCoef="0" IVar="-1" Cut="0.0000000000000000e+00" cType="1" res="-3.4046869724988937e-02" rms="-nan" purity="9.5659300684928894e-02" nType="-99"/>
      </Node>
    </BinaryTree>
    <BinaryTree type="DecisionTree" boostWeight="1.0000000000000000e+00" itree="679">
      <Node pos="s" depth="0" NCoef="0" IVar="5" Cut="5.3678107261657715e-01" cType="1" res="-4.2861509136855602e-03" rms="2.3543095588684082e-01" purity="4.9357271194458008e-01" nType="0">
        <Node pos="l" depth="1" NCoef="0" IVar="76" Cut="-1.5313094854354858e+00" cType="1" res="-7.2886557318270206e-03" rms="2.3197062313556671e-01" purity="4.9817857146263123e-01" nType="0">
          <Node pos="l" depth="2" NCoef="0" IVar="-1" Cut="0.0000000000000000e+00" cType="1" res="8.3749331533908844e-03" rms="2.7505001425743103e-01" purity="7.7492517232894897e-01" nType="-99"/>
          <Node pos="r" depth="2" NCoef="0" IVar="-1" Cut="0.0000000000000000e+00" cType="1" res="-5.4367096163332462e-03" rms="2.1788425743579865e-01" purity="4.2250072956085205e-01" nType="-99"/>
        </Node>
        <Node pos="r" depth="1" NCoef="0" IVar="-1" Cut="0.0000000000000000e+00" cType="1" res="4.2772196233272552e-02" rms="3.2460603117942810e-01" purity="3.0917629599571228e-01" nType="-99"/>
      </Node>
    </BinaryTree>
    <BinaryTree type="DecisionTree" boostWeight="1.0000000000000000e+00" itree="680">
      <Node pos="s" depth="0" NCoef="0" IVar="17" Cut="-1.3955941796302795e-01" cType="1" res="4.6775238588452339e-03" rms="2.5034159421920776e-01" purity="5.0495147705078125e-01" nType="0">
        <Node pos="l" depth="1" NCoef="0" IVar="19" Cut="9.4018250703811646e-01" cType="1" res="3.8663074374198914e-02" rms="2.1381635963916779e-01" purity="6.1400111764669418e-02" nType="0">
          <Node pos="l" depth="2" NCoef="0" IVar="-1" Cut="0.0000000000000000e+00" cType="1" res="8.8970929384231567e-02" rms="2.7395218610763550e-01" purity="9.5555283129215240e-02" nType="-99"/>
          <Node pos="r" depth="2" NCoef="0" IVar="-1" Cut="0.0000000000000000e+00" cType="1" res="-9.4242170453071594e-02" rms="-nan" purity="-3.3736567944288254e-02" nType="-99"/>
        </Node>
        <Node pos="r" depth="1" NCoef="0" IVar="10" Cut="3.7060835361480713e+00" cType="1" res="-3.2103124540299177e-03" rms="2.5744014978408813e-01" purity="6.0789698362350464e-01" nType="0">
          <Node pos="l" depth="2" NCoef="0" IVar="-1" Cut="0.0000000000000000e+00" cType="1" res="-1.9586209673434496e-03" rms="2.5450783967971802e-01" purity="6.0294407606124878e-01" nType="-99"/>
          <Node pos="r" depth="2" NCoef="0" IVar="-1" Cut="0.0000000000000000e+00" cType="1" res="2.1434113383293152e-02" rms="3.0445873737335205e-01" purity="7.1409690380096436e-01" nType="-99"/>
        </Node>
      </Node>
    </BinaryTree>
    <BinaryTree type="DecisionTree" boostWeight="1.0000000000000000e+00" itree="681">
      <Node pos="s" depth="0" NCoef="0" IVar="57" Cut="-1.3377491235733032e+00" cType="1" res="6.4263581298291683e-03" rms="2.4707053601741791e-01" purity="5.0746220350265503e-01" nType="0">
        <Node pos="l" depth="1" NCoef="0" IVar="73" Cut="2.7776844501495361e+00" cType="1" res="6.4511291682720184e-02" rms="2.7908104658126831e-01" purity="1.1790216714143753e-01" nType="0">
          <Node pos="l" depth="2" NCoef="0" IVar="-1" Cut="0.0000000000000000e+00" cType="1" res="7.9390928149223328e-02" rms="3.3270466327667236e-01" purity="1.6857090592384338e-01" nType="-99"/>
          <Node pos="r" depth="2" NCoef="0" IVar="-1" Cut="0.0000000000000000e+00" cType="1" res="-2.2027822211384773e-02" rms="3.2026864588260651e-02" purity="1.9691390916705132e-02" nType="-99"/>
        </Node>
        <Node pos="r" depth="1" NCoef="0" IVar="49" Cut="-9.4456481933593750e-01" cType="1" res="-6.7868223413825035e-04" rms="2.4191008508205414e-01" purity="5.5511385202407837e-01" nType="0">
          <Node pos="l" depth="2" NCoef="0" IVar="-1" Cut="0.0000000000000000e+00" cType="1" res="9.3517370987683535e-04" rms="2.4619235098361969e-01" purity="5.6159436702728271e-01" nType="-99"/>
          <Node pos="r" depth="2" NCoef="0" IVar="-1" Cut="0.0000000000000000e+00" cType="1" res="-2.8496244922280312e-02" rms="5.8843117207288742e-02" purity="4.0624511241912842e-01" nType="-99"/>
        </Node>
      </Node>
    </BinaryTree>
    <BinaryTree type="DecisionTree" boostWeight="1.0000000000000000e+00" itree="682">
      <Node pos="s" depth="0" NCoef="0" IVar="0" Cut="1.4522305727005005e+00" cType="1" res="3.8322377949953079e-03" rms="2.4837066233158112e-01" purity="5.0151103734970093e-01" nType="0">
        <Node pos="l" depth="1" NCoef="0" IVar="81" Cut="-5.7288378477096558e-01" cType="1" res="1.4852483582217246e-04" rms="2.4201008677482605e-01" purity="5.0734364986419678e-01" nType="0">
          <Node pos="l" depth="2" NCoef="0" IVar="-1" Cut="0.0000000000000000e+00" cType="1" res="1.2364530703052878e-03" rms="2.4927431344985962e-01" purity="5.2263677120208740e-01" nType="-99"/>
          <Node pos="r" depth="2" NCoef="0" IVar="-1" Cut="0.0000000000000000e+00" cType="1" res="-4.4771943241357803e-02" rms="-nan" purity="1.2597359716892242e-01" nType="-99"/>
        </Node>
        <Node pos="r" depth="1" NCoef="0" IVar="-1" Cut="0.0000000000000000e+00" cType="1" res="3.5944901406764984e-02" rms="3.6498790979385376e-01" purity="3.4996673464775085e-01" nType="-99"/>
      </Node>
    </BinaryTree>
    <BinaryTree type="DecisionTree" boostWeight="1.0000000000000000e+00" itree="683">
      <Node pos="s" depth="0" NCoef="0" IVar="39" Cut="-9.4270396232604980e-01" cType="1" res="-2.7365793939679861e-03" rms="2.4302087724208832e-01" purity="4.9423435330390930e-01" nType="0">
        <Node pos="l" depth="1" NCoef="0" IVar="31" Cut="2.4344816207885742e+00" cType="1" res="-9.9693406373262405e-03" rms="2.3332737386226654e-01" purity="5.3087413311004639e-01" nType="0">
          <Node pos="l" depth="2" NCoef="0" IVar="-1" Cut="0.0000000000000000e+00" cType="1" res="-4.1496504098176956e-02" rms="-nan" purity="8.8980704545974731e-02" nType="-99"/>
          <Node pos="r" depth="2" NCoef="0" IVar="-1" Cut="0.0000000000000000e+00" cType="1" res="-1.8156641162931919e-03" rms="2.3926308751106262e-01" purity="5.4997318983078003e-01" nType="-99"/>
        </Node>
        <Node pos="r" depth="1" NCoef="0" IVar="14" Cut="-1.1836819648742676e+00" cType="1" res="4.0694504976272583e-02" rms="2.9083618521690369e-01" purity="2.7422115206718445e-01" nType="0">
          <Node pos="l" depth="2" NCoef="0" IVar="-1" Cut="0.0000000000000000e+00" cType="1" res="4.2358964681625366e-02" rms="3.6085912585258484e-01" purity="2.9819428920745850e-01" nType="-99"/>
          <Node pos="r" depth="2" NCoef="0" IVar="-1" Cut="0.0000000000000000e+00" cType="1" res="-1.0427369124954566e-04" rms="2.2976009547710419e-01" purity="2.5987228751182556e-01" nType="-99"/>
        </Node>
      </Node>
    </BinaryTree>
    <BinaryTree type="DecisionTree" boostWeight="1.0000000000000000e+00" itree="684">
      <Node pos="s" depth="0" NCoef="0" IVar="22" Cut="1.2345679104328156e-02" cType="1" res="-1.5653263835702091e-04" rms="2.4216279387474060e-01" purity="4.9969881772994995e-01" nType="0">
        <Node pos="l" depth="1" NCoef="0" IVar="-1" Cut="0.0000000000000000e+00" cType="1" res="-4.2442921549081802e-02" rms="-nan" purity="1.4334532618522644e-01" nType="-99"/>
        <Node pos="r" depth="1" NCoef="0" IVar="35" Cut="1.4840940237045288e+00" cType="1" res="3.7334284279495478e-03" rms="2.5054669380187988e-01" purity="5.0895750522613525e-01" nType="0">
          <Node pos="l" depth="2" NCoef="0" IVar="-1" Cut="0.0000000000000000e+00" cType="1" res="2.2944442462176085e-03" rms="2.5329944491386414e-01" purity="5.1839518547058105e-01" nType="-99"/>
          <Node pos="r" depth="2" NCoef="0" IVar="-1" Cut="0.0000000000000000e+00" cType="1" res="-5.4745912551879883e-02" rms="-nan" purity="9.2825427651405334e-02" nType="-99"/>
        </Node>
      </Node>
    </BinaryTree>
    <BinaryTree type="DecisionTree" boostWeight="1.0000000000000000e+00" itree="685">
      <Node pos="s" depth="0" NCoef="0" IVar="88" Cut="1.2286378145217896e+00" cType="1" res="-1.3732910156250000e-03" rms="2.3665533959865570e-01" purity="4.9963837862014771e-01" nType="0">
        <Node pos="l" depth="1" NCoef="0" IVar="3" Cut="5.4546833038330078e+00" cType="1" res="2.8723436407744884e-03" rms="2.4545717239379883e-01" purity="5.2230477333068848e-01" nType="0">
          <Node pos="l" depth="2" NCoef="0" IVar="-1" Cut="0.0000000000000000e+00" cType="1" res="1.9002528861165047e-03" rms="2.5275894999504089e-01" purity="5.3197550773620605e-01" nType="-99"/>
          <Node pos="r" depth="2" NCoef="0" IVar="-1" Cut="0.0000000000000000e+00" cType="1" res="-2.9981598258018494e-02" rms="-nan" purity="1.3316224515438080e-01" nType="-99"/>
        </Node>
        <Node pos="r" depth="1" NCoef="0" IVar="55" Cut="5.4868113994598389e-01" cType="1" res="-3.7782099097967148e-02" rms="-nan" purity="1.2894135713577271e-01" nType="-99"/>
      </Node>
    </BinaryTree>
    <BinaryTree type="DecisionTree" boostWeight="1.0000000000000000e+00" itree="686">
      <Node pos="s" depth="0" NCoef="0" IVar="20" Cut="-1.0217714309692383e-01" cType="1" res="-6.1834906227886677e-03" rms="2.3520576953887939e-01" purity="4.9757775664329529e-01" nType="0">
        <Node pos="l" depth="1" NCoef="0" IVar="58" Cut="-1.4156405925750732e+00" cType="1" res="-2.8150158002972603e-02" rms="2.0104931294918060e-01" purity="5.2630484104156494e-01" nType="0">
          <Node pos="l" depth="2" NCoef="0" IVar="-1" Cut="0.0000000000000000e+00" cType="1" res="2.3258388042449951e-02" rms="2.9840755462646484e-01" purity="4.1141957044601440e-01" nType="-99"/>
          <Node pos="r" depth="2" NCoef="0" IVar="-1" Cut="0.0000000000000000e+00" cType="1" res="-1.4306223951280117e-02" rms="1.8199254572391510e-01" purity="5.4080498218536377e-01" nType="-99"/>
        </Node>
        <Node pos="r" depth="1" NCoef="0" IVar="88" Cut="1.3673533201217651e+00" cType="1" res="5.7257045991718769e-03" rms="2.5099170207977295e-01" purity="4.8200345039367676e-01" nType="0">
          <Node pos="l" depth="2" NCoef="0" IVar="-1" Cut="0.0000000000000000e+00" cType="1" res="3.1212561298161745e-03" rms="2.5694069266319275e-01" purity="4.9734148383140564e-01" nType="-99"/>
          <Node pos="r" depth="2" NCoef="0" IVar="-1" Cut="0.0000000000000000e+00" cType="1" res="-5.7288907468318939e-02" rms="-nan" purity="3.9463810622692108e-02" nType="-99"/>
        </Node>
      </Node>
    </BinaryTree>
    <BinaryTree type="DecisionTree" boostWeight="1.0000000000000000e+00" itree="687">
      <Node pos="s" depth="0" NCoef="0" IVar="61" Cut="1.5060656070709229e+00" cType="1" res="1.3493062579073012e-04" rms="2.3949968814849854e-01" purity="5.0331783294677734e-01" nType="0">
        <Node pos="l" depth="1" NCoef="0" IVar="48" Cut="1.3053451776504517e+00" cType="1" res="3.9161602035164833e-03" rms="2.4495919048786163e-01" purity="5.1733690500259399e-01" nType="0">
          <Node pos="l" depth="2" NCoef="0" IVar="-1" Cut="0.0000000000000000e+00" cType="1" res="1.3715182431042194e-02" rms="2.9216140508651733e-01" purity="3.1852248311042786e-01" nType="-99"/>
          <Node pos="r" depth="2" NCoef="0" IVar="-1" Cut="0.0000000000000000e+00" cType="1" res="-1.6134647885337472e-03" rms="2.3067215085029602e-01" purity="5.6773185729980469e-01" nType="-99"/>
        </Node>
        <Node pos="r" depth="1" NCoef="0" IVar="84" Cut="-3.6161661148071289e-02" cType="1" res="-2.6288697496056557e-02" rms="-nan" purity="2.1154831349849701e-01" nType="-99"/>
      </Node>
    </BinaryTree>
    <BinaryTree type="DecisionTree" boostWeight="1.0000000000000000e+00" itree="688">
      <Node pos="s" depth="0" NCoef="0" IVar="5" Cut="5.0816142559051514e-01" cType="1" res="9.8716677166521549e-04" rms="2.3601427674293518e-01" purity="5.0407695770263672e-01" nType="0">
        <Node pos="l" depth="1" NCoef="0" IVar="21" Cut="-2.4300600588321686e-01" cType="1" res="4.7245356254279613e-03" rms="2.4217095971107483e-01" purity="5.1927483081817627e-01" nType="0">
          <Node pos="l" depth="2" NCoef="0" IVar="-1" Cut="0.0000000000000000e+00" cType="1" res="1.1868060566484928e-02" rms="2.8459328413009644e-01" purity="5.5168980360031128e-01" nType="-99"/>
          <Node pos="r" depth="2" NCoef="0" IVar="-1" Cut="0.0000000000000000e+00" cType="1" res="-1.2691585579887033e-03" rms="2.2929331660270691e-01" purity="5.1098603010177612e-01" nType="-99"/>
        </Node>
        <Node pos="r" depth="1" NCoef="0" IVar="-1" Cut="0.0000000000000000e+00" cType="1" res="-3.6974050104618073e-02" rms="-nan" purity="1.0507684201002121e-01" nType="-99"/>
      </Node>
    </BinaryTree>
    <BinaryTree type="DecisionTree" boostWeight="1.0000000000000000e+00" itree="689">
      <Node pos="s" depth="0" NCoef="0" IVar="40" Cut="1.4930970668792725e+00" cType="1" res="-4.5604296610690653e-04" rms="2.3575198650360107e-01" purity="4.9810296297073364e-01" nType="0">
        <Node pos="l" depth="1" NCoef="0" IVar="41" Cut="3.3178594708442688e-01" cType="1" res="3.7880493327975273e-03" rms="2.4176521599292755e-01" purity="5.1573383808135986e-01" nType="0">
          <Node pos="l" depth="2" NCoef="0" IVar="-1" Cut="0.0000000000000000e+00" cType="1" res="9.6811163530219346e-05" rms="2.3632706701755524e-01" purity="5.1889330148696899e-01" nType="-99"/>
          <Node pos="r" depth="2" NCoef="0" IVar="-1" Cut="0.0000000000000000e+00" cType="1" res="2.5067413225769997e-02" rms="3.2620590925216675e-01" purity="4.5086997747421265e-01" nType="-99"/>
        </Node>
        <Node pos="r" depth="1" NCoef="0" IVar="63" Cut="1.7014344921335578e-03" cType="1" res="-4.0683109313249588e-02" rms="-nan" purity="1.2449286133050919e-01" nType="-99"/>
      </Node>
    </BinaryTree>
    <BinaryTree type="DecisionTree" boostWeight="1.0000000000000000e+00" itree="690">
      <Node pos="s" depth="0" NCoef="0" IVar="13" Cut="-1.4155325889587402e+00" cType="1" res="-1.7225700430572033e-03" rms="2.3668940365314484e-01" purity="4.9562075734138489e-01" nType="0">
        <Node pos="l" depth="1" NCoef="0" IVar="52" Cut="3.1393802165985107e+00" cType="1" res="5.4381988942623138e-02" rms="2.6948550343513489e-01" purity="2.2730346024036407e-01" nType="0">
          <Node pos="l" depth="2" NCoef="0" IVar="-1" Cut="0.0000000000000000e+00" cType="1" res="8.3472333848476410e-02" rms="3.6397296190261841e-01" purity="2.5733533501625061e-01" nType="-99"/>
          <Node pos="r" depth="2" NCoef="0" IVar="-1" Cut="0.0000000000000000e+00" cType="1" res="-3.7411853671073914e-02" rms="-nan" purity="1.8162401020526886e-01" nType="-99"/>
        </Node>
        <Node pos="r" depth="1" NCoef="0" IVar="14" Cut="-1.5096181631088257e+00" cType="1" res="-7.1476357989013195e-03" rms="2.3255723714828491e-01" purity="5.2156585454940796e-01" nType="0">
          <Node pos="l" depth="2" NCoef="0" IVar="-1" Cut="0.0000000000000000e+00" cType="1" res="4.6923249959945679e-02" rms="3.0192321538925171e-01" purity="3.0172392725944519e-01" nType="-99"/>
          <Node pos="r" depth="2" NCoef="0" IVar="-1" Cut="0.0000000000000000e+00" cType="1" res="-3.2208675984293222e-03" rms="2.2987334430217743e-01" purity="5.2721738815307617e-01" nType="-99"/>
        </Node>
      </Node>
    </BinaryTree>
    <BinaryTree type="DecisionTree" boostWeight="1.0000000000000000e+00" itree="691">
      <Node pos="s" depth="0" NCoef="0" IVar="30" Cut="1.2716048955917358e+00" cType="1" res="2.2837575525045395e-03" rms="2.4045440554618835e-01" purity="5.0401324033737183e-01" nType="0">
        <Node pos="l" depth="1" NCoef="0" IVar="4" Cut="3.3177499771118164e+00" cType="1" res="4.4170920737087727e-03" rms="2.4344013631343842e-01" purity="5.1194846630096436e-01" nType="0">
          <Node pos="l" depth="2" NCoef="0" IVar="-1" Cut="0.0000000000000000e+00" cType="1" res="1.8696831539273262e-02" rms="2.9807338118553162e-01" purity="2.5092226266860962e-01" nType="-99"/>
          <Node pos="r" depth="2" NCoef="0" IVar="-1" Cut="0.0000000000000000e+00" cType="1" res="-3.4559669438749552e-04" rms="2.3625914752483368e-01" purity="5.3961580991744995e-01" nType="-99"/>
        </Node>
        <Node pos="r" depth="1" NCoef="0" IVar="-1" Cut="0.0000000000000000e+00" cType="1" res="-4.0612287819385529e-02" rms="-nan" purity="1.1509948968887329e-01" nType="-99"/>
      </Node>
    </BinaryTree>
    <BinaryTree type="DecisionTree" boostWeight="1.0000000000000000e+00" itree="692">
      <Node pos="s" depth="0" NCoef="0" IVar="62" Cut="1.0010819137096405e-01" cType="1" res="2.4043226148933172e-03" rms="2.3805864155292511e-01" purity="4.9659839272499084e-01" nType="0">
        <Node pos="l" depth="1" NCoef="0" IVar="4" Cut="3.6382427215576172e+00" cType="1" res="1.2929354794323444e-02" rms="2.4915878474712372e-01" purity="5.4234313964843750e-01" nType="0">
          <Node pos="l" depth="2" NCoef="0" IVar="-1" Cut="0.0000000000000000e+00" cType="1" res="1.0476669296622276e-02" rms="2.7239596843719482e-01" purity="4.4411984086036682e-01" nType="-99"/>
          <Node pos="r" depth="2" NCoef="0" IVar="-1" Cut="0.0000000000000000e+00" cType="1" res="-2.1863197907805443e-03" rms="2.2563734650611877e-01" purity="6.2650430202484131e-01" nType="-99"/>
        </Node>
        <Node pos="r" depth="1" NCoef="0" IVar="83" Cut="-2.3652650415897369e-01" cType="1" res="-2.4752713739871979e-02" rms="2.0419158041477203e-01" purity="3.7856626510620117e-01" nType="0">
          <Node pos="l" depth="2" NCoef="0" IVar="-1" Cut="0.0000000000000000e+00" cType="1" res="1.7869677394628525e-02" rms="3.3867809176445007e-01" purity="5.0685060024261475e-01" nType="-99"/>
          <Node pos="r" depth="2" NCoef="0" IVar="-1" Cut="0.0000000000000000e+00" cType="1" res="-1.4628371223807335e-02" rms="1.6359767317771912e-01" purity="3.5499548912048340e-01" nType="-99"/>
        </Node>
      </Node>
    </BinaryTree>
    <BinaryTree type="DecisionTree" boostWeight="1.0000000000000000e+00" itree="693">
      <Node pos="s" depth="0" NCoef="0" IVar="78" Cut="-1.4934844970703125e+00" cType="1" res="-1.2394809164106846e-02" rms="2.1733410656452179e-01" purity="4.9210897088050842e-01" nType="0">
        <Node pos="l" depth="1" NCoef="0" IVar="37" Cut="-5.6853896379470825e-01" cType="1" res="4.7762542963027954e-03" rms="2.5568452477455139e-01" purity="6.9800674915313721e-01" nType="0">
          <Node pos="l" depth="2" NCoef="0" IVar="-1" Cut="0.0000000000000000e+00" cType="1" res="8.9190565049648285e-03" rms="2.8786790370941162e-01" purity="7.2862499952316284e-01" nType="-99"/>
          <Node pos="r" depth="2" NCoef="0" IVar="-1" Cut="0.0000000000000000e+00" cType="1" res="-7.9641435295343399e-03" rms="2.0613458752632141e-01" purity="6.6065239906311035e-01" nType="-99"/>
        </Node>
        <Node pos="r" depth="1" NCoef="0" IVar="36" Cut="1.3301634788513184e+00" cType="1" res="-2.5909628719091415e-02" rms="1.8039289116859436e-01" purity="3.3005318045616150e-01" nType="0">
          <Node pos="l" depth="2" NCoef="0" IVar="-1" Cut="0.0000000000000000e+00" cType="1" res="-2.8035290539264679e-02" rms="-nan" purity="4.7673169523477554e-02" nType="-99"/>
          <Node pos="r" depth="2" NCoef="0" IVar="-1" Cut="0.0000000000000000e+00" cType="1" res="-2.0092928316444159e-03" rms="2.4825987219810486e-01" purity="5.1165962219238281e-01" nType="-99"/>
        </Node>
      </Node>
    </BinaryTree>
    <BinaryTree type="DecisionTree" boostWeight="1.0000000000000000e+00" itree="694">
      <Node pos="s" depth="0" NCoef="0" IVar="77" Cut="-2.5664263963699341e-01" cType="1" res="6.4651845023036003e-03" rms="2.4889525771141052e-01" purity="5.0637149810791016e-01" nType="0">
        <Node pos="l" depth="1" NCoef="0" IVar="77" Cut="-9.3797409534454346e-01" cType="1" res="-8.9727586600929499e-04" rms="2.4529018998146057e-01" purity="5.4145085811614990e-01" nType="0">
          <Node pos="l" depth="2" NCoef="0" IVar="-1" Cut="0.0000000000000000e+00" cType="1" res="1.2896392727270722e-03" rms="2.5274842977523804e-01" purity="5.5259960889816284e-01" nType="-99"/>
          <Node pos="r" depth="2" NCoef="0" IVar="-1" Cut="0.0000000000000000e+00" cType="1" res="-4.7178339213132858e-02" rms="-nan" purity="2.5602042675018311e-01" nType="-99"/>
        </Node>
        <Node pos="r" depth="1" NCoef="0" IVar="77" Cut="9.0870779752731323e-01" cType="1" res="4.7009751200675964e-02" rms="2.6422998309135437e-01" purity="3.1319180130958557e-01" nType="0">
          <Node pos="l" depth="2" NCoef="0" IVar="-1" Cut="0.0000000000000000e+00" cType="1" res="4.0824066847562790e-02" rms="3.7525436282157898e-01" purity="4.5671454071998596e-01" nType="-99"/>
          <Node pos="r" depth="2" NCoef="0" IVar="-1" Cut="0.0000000000000000e+00" cType="1" res="1.7704354831948876e-03" rms="1.4835321903228760e-01" purity="2.2670359909534454e-01" nType="-99"/>
        </Node>
      </Node>
    </BinaryTree>
    <BinaryTree type="DecisionTree" boostWeight="1.0000000000000000e+00" itree="695">
      <Node pos="s" depth="0" NCoef="0" IVar="40" Cut="1.5553416013717651e+00" cType="1" res="8.3313994109630585e-03" rms="2.4969886243343353e-01" purity="5.0368314981460571e-01" nType="0">
        <Node pos="l" depth="1" NCoef="0" IVar="88" Cut="1.2044320106506348e+00" cType="1" res="4.8129218630492687e-03" rms="2.4536553025245667e-01" purity="5.1189273595809937e-01" nType="0">
          <Node pos="l" depth="2" NCoef="0" IVar="-1" Cut="0.0000000000000000e+00" cType="1" res="3.1376343686133623e-03" rms="2.5439608097076416e-01" purity="5.3383076190948486e-01" nType="-99"/>
          <Node pos="r" depth="2" NCoef="0" IVar="-1" Cut="0.0000000000000000e+00" cType="1" res="-3.2083954662084579e-02" rms="-nan" purity="1.8102431297302246e-01" nType="-99"/>
        </Node>
        <Node pos="r" depth="1" NCoef="0" IVar="35" Cut="-9.1465175151824951e-01" cType="1" res="8.9693941175937653e-02" rms="3.2411640882492065e-01" purity="3.1384101510047913e-01" nType="0">
          <Node pos="l" depth="2" NCoef="0" IVar="-1" Cut="0.0000000000000000e+00" cType="1" res="-3.5147129092365503e-03" rms="2.0645339787006378e-01" purity="2.5295880436897278e-01" nType="-99"/>
          <Node pos="r" depth="2" NCoef="0" IVar="-1" Cut="0.0000000000000000e+00" cType="1" res="6.8943575024604797e-02" rms="3.8175278902053833e-01" purity="3.7104526162147522e-01" nType="-99"/>
        </Node>
      </Node>
    </BinaryTree>
    <BinaryTree type="DecisionTree" boostWeight="1.0000000000000000e+00" itree="696">
      <Node pos="s" depth="0" NCoef="0" IVar="19" Cut="8.0656450986862183e-01" cType="1" res="4.4575580977834761e-04" rms="2.3597924411296844e-01" purity="5.0778245925903320e-01" nType="0">
        <Node pos="l" depth="1" NCoef="0" IVar="82" Cut="1.2497448921203613e+00" cType="1" res="1.3709048740565777e-02" rms="2.5861337780952454e-01" purity="5.5377006530761719e-01" nType="0">
          <Node pos="l" depth="2" NCoef="0" IVar="-1" Cut="0.0000000000000000e+00" cType="1" res="1.4944999711588025e-03" rms="2.4852383136749268e-01" purity="5.7434320449829102e-01" nType="-99"/>
          <Node pos="r" depth="2" NCoef="0" IVar="-1" Cut="0.0000000000000000e+00" cType="1" res="3.0743625015020370e-02" rms="3.1200757622718811e-01" purity="4.1285711526870728e-01" nType="-99"/>
        </Node>
        <Node pos="r" depth="1" NCoef="0" IVar="52" Cut="2.7452933788299561e+00" cType="1" res="-2.2658040747046471e-02" rms="1.8800419569015503e-01" purity="4.2767494916915894e-01" nType="0">
          <Node pos="l" depth="2" NCoef="0" IVar="-1" Cut="0.0000000000000000e+00" cType="1" res="-3.7637669593095779e-02" rms="-nan" purity="1.2898312509059906e-01" nType="-99"/>
          <Node pos="r" depth="2" NCoef="0" IVar="-1" Cut="0.0000000000000000e+00" cType="1" res="-1.2086894130334258e-03" rms="2.2541438043117523e-01" purity="5.0129115581512451e-01" nType="-99"/>
        </Node>
      </Node>
    </BinaryTree>
    <BinaryTree type="DecisionTree" boostWeight="1.0000000000000000e+00" itree="697">
      <Node pos="s" depth="0" NCoef="0" IVar="60" Cut="-1.5969212055206299e+00" cType="1" res="2.8219062369316816e-03" rms="2.4487252533435822e-01" purity="5.0711447000503540e-01" nType="0">
        <Node pos="l" depth="1" NCoef="0" IVar="31" Cut="2.3979275226593018e+00" cType="1" res="-8.6740115657448769e-03" rms="2.2923347353935242e-01" purity="5.7744508981704712e-01" nType="0">
          <Node pos="l" depth="2" NCoef="0" IVar="-1" Cut="0.0000000000000000e+00" cType="1" res="-4.9567606300115585e-02" rms="-nan" purity="5.4190598428249359e-02" nType="-99"/>
          <Node pos="r" depth="2" NCoef="0" IVar="-1" Cut="0.0000000000000000e+00" cType="1" res="-1.0978223290294409e-03" rms="2.3483169078826904e-01" purity="5.9759169816970825e-01" nType="-99"/>
        </Node>
        <Node pos="r" depth="1" NCoef="0" IVar="39" Cut="-2.4680426120758057e+00" cType="1" res="2.4801168590784073e-02" rms="2.7092957496643066e-01" purity="3.7264794111251831e-01" nType="0">
          <Node pos="l" depth="2" NCoef="0" IVar="-1" Cut="0.0000000000000000e+00" cType="1" res="3.8982640951871872e-02" rms="3.6495473980903625e-01" purity="5.9107595682144165e-01" nType="-99"/>
          <Node pos="r" depth="2" NCoef="0" IVar="-1" Cut="0.0000000000000000e+00" cType="1" res="3.0113244429230690e-03" rms="2.4905543029308319e-01" purity="3.3852761983871460e-01" nType="-99"/>
        </Node>
      </Node>
    </BinaryTree>
    <BinaryTree type="DecisionTree" boostWeight="1.0000000000000000e+00" itree="698">
      <Node pos="s" depth="0" NCoef="0" IVar="50" Cut="-3.8782626390457153e-02" cType="1" res="2.4128730728989467e-05" rms="2.3495310544967651e-01" purity="5.0716400146484375e-01" nType="0">
        <Node pos="l" depth="1" NCoef="0" IVar="46" Cut="8.2385438680648804e-01" cType="1" res="3.5223183222115040e-03" rms="2.4209770560264587e-01" purity="5.1172029972076416e-01" nType="0">
          <Node pos="l" depth="2" NCoef="0" IVar="-1" Cut="0.0000000000000000e+00" cType="1" res="1.9122157245874405e-02" rms="3.3182433247566223e-01" purity="6.1829167604446411e-01" nType="-99"/>
          <Node pos="r" depth="2" NCoef="0" IVar="-1" Cut="0.0000000000000000e+00" cType="1" res="-4.4009680277667940e-04" rms="2.3340299725532532e-01" purity="5.0385123491287231e-01" nType="-99"/>
        </Node>
        <Node pos="r" depth="1" NCoef="0" IVar="-1" Cut="0.0000000000000000e+00" cType="1" res="-3.2687559723854065e-02" rms="-nan" purity="3.7003237009048462e-01" nType="-99"/>
      </Node>
    </BinaryTree>
    <BinaryTree type="DecisionTree" boostWeight="1.0000000000000000e+00" itree="699">
      <Node pos="s" depth="0" NCoef="0" IVar="52" Cut="2.3277742862701416e+00" cType="1" res="4.7213360667228699e-03" rms="2.4049447476863861e-01" purity="4.9976336956024170e-01" nType="0">
        <Node pos="l" depth="1" NCoef="0" IVar="-1" Cut="0.0000000000000000e+00" cType="1" res="-3.5052135586738586e-02" rms="-nan" purity="8.9637801051139832e-02" nType="-99"/>
        <Node pos="r" depth="1" NCoef="0" IVar="63" Cut="2.9724398255348206e-01" cType="1" res="7.4955434538424015e-03" rms="2.4659857153892517e-01" purity="5.0979942083358765e-01" nType="0">
          <Node pos="l" depth="2" NCoef="0" IVar="-1" Cut="0.0000000000000000e+00" cType="1" res="4.0216455236077309e-03" rms="2.5348624587059021e-01" purity="5.2234607934951782e-01" nType="-99"/>
          <Node pos="r" depth="2" NCoef="0" IVar="-1" Cut="0.0000000000000000e+00" cType="1" res="-2.1073628216981888e-02" rms="1.0805701464414597e-01" purity="3.4475433826446533e-01" nType="-99"/>
        </Node>
      </Node>
    </BinaryTree>
    <BinaryTree type="DecisionTree" boostWeight="1.0000000000000000e+00" itree="700">
      <Node pos="s" depth="0" NCoef="0" IVar="57" Cut="9.0450108051300049e-01" cType="1" res="4.0340619161725044e-03" rms="2.4505966901779175e-01" purity="5.0216889381408691e-01" nType="0">
        <Node pos="l" depth="1" NCoef="0" IVar="61" Cut="1.2401287555694580e+00" cType="1" res="3.6878500133752823e-02" rms="2.5079455971717834e-01" purity="1.3129328191280365e-01" nType="0">
          <Node pos="l" depth="2" NCoef="0" IVar="-1" Cut="0.0000000000000000e+00" cType="1" res="7.5782029889523983e-03" rms="2.1022842824459076e-01" purity="1.1319524794816971e-01" nType="-99"/>
          <Node pos="r" depth="2" NCoef="0" IVar="-1" Cut="0.0000000000000000e+00" cType="1" res="7.3069624602794647e-02" rms="3.6942929029464722e-01" purity="2.1492908895015717e-01" nType="-99"/>
        </Node>
        <Node pos="r" depth="1" NCoef="0" IVar="57" Cut="1.4968705177307129e+00" cType="1" res="-6.8980171345174313e-03" rms="2.4213461577892303e-01" purity="6.2561267614364624e-01" nType="0">
          <Node pos="l" depth="2" NCoef="0" IVar="-1" Cut="0.0000000000000000e+00" cType="1" res="-1.2509144842624664e-02" rms="1.6461871564388275e-01" purity="3.6103081703186035e-01" nType="-99"/>
          <Node pos="r" depth="2" NCoef="0" IVar="-1" Cut="0.0000000000000000e+00" cType="1" res="3.1958327163010836e-03" rms="2.7095463871955872e-01" purity="7.5711798667907715e-01" nType="-99"/>
        </Node>
      </Node>
    </BinaryTree>
    <BinaryTree type="DecisionTree" boostWeight="1.0000000000000000e+00" itree="701">
      <Node pos="s" depth="0" NCoef="0" IVar="36" Cut="1.4848279953002930e+00" cType="1" res="-3.9570564404129982e-03" rms="2.3432923853397369e-01" purity="4.9256396293640137e-01" nType="0">
        <Node pos="l" depth="1" NCoef="0" IVar="48" Cut="1.7409754991531372e+00" cType="1" res="-2.1663384512066841e-02" rms="1.8773148953914642e-01" purity="2.0589739084243774e-01" nType="0">
          <Node pos="l" depth="2" NCoef="0" IVar="-1" Cut="0.0000000000000000e+00" cType="1" res="6.1238561756908894e-03" rms="2.2994260489940643e-01" purity="1.4717261493206024e-01" nType="-99"/>
          <Node pos="r" depth="2" NCoef="0" IVar="-1" Cut="0.0000000000000000e+00" cType="1" res="-1.7720019444823265e-02" rms="1.3024498522281647e-01" purity="2.5987255573272705e-01" nType="-99"/>
        </Node>
        <Node pos="r" depth="1" NCoef="0" IVar="4" Cut="3.3337972164154053e+00" cType="1" res="1.1458651162683964e-02" rms="2.6743671298027039e-01" purity="7.4214524030685425e-01" nType="0">
          <Node pos="l" depth="2" NCoef="0" IVar="-1" Cut="0.0000000000000000e+00" cType="1" res="3.2129146158695221e-02" rms="3.5931086540222168e-01" purity="4.7639691829681396e-01" nType="-99"/>
          <Node pos="r" depth="2" NCoef="0" IVar="-1" Cut="0.0000000000000000e+00" cType="1" res="1.8456005491316319e-03" rms="2.6011115312576294e-01" purity="7.5705230236053467e-01" nType="-99"/>
        </Node>
      </Node>
    </BinaryTree>
    <BinaryTree type="DecisionTree" boostWeight="1.0000000000000000e+00" itree="702">
      <Node pos="s" depth="0" NCoef="0" IVar="80" Cut="7.8498685359954834e-01" cType="1" res="7.4881617911159992e-03" rms="2.4148462712764740e-01" purity="5.1367938518524170e-01" nType="0">
        <Node pos="l" depth="1" NCoef="0" IVar="64" Cut="1.2345679104328156e-02" cType="1" res="1.5630872920155525e-02" rms="2.5892221927642822e-01" purity="5.8627569675445557e-01" nType="0">
          <Node pos="l" depth="2" NCoef="0" IVar="-1" Cut="0.0000000000000000e+00" cType="1" res="3.3711031079292297e-02" rms="3.2157716155052185e-01" purity="4.1362574696540833e-01" nType="-99"/>
          <Node pos="r" depth="2" NCoef="0" IVar="-1" Cut="0.0000000000000000e+00" cType="1" res="3.6300218198448420e-03" rms="2.5507006049156189e-01" purity="5.9362351894378662e-01" nType="-99"/>
        </Node>
        <Node pos="r" depth="1" NCoef="0" IVar="88" Cut="1.0901650190353394e+00" cType="1" res="-3.1939551234245300e-02" rms="1.1911211907863617e-01" purity="1.6216149926185608e-01" nType="0">
          <Node pos="l" depth="2" NCoef="0" IVar="-1" Cut="0.0000000000000000e+00" cType="1" res="-5.4720491170883179e-03" rms="1.8582284450531006e-01" purity="1.9386585056781769e-01" nType="-99"/>
          <Node pos="r" depth="2" NCoef="0" IVar="-1" Cut="0.0000000000000000e+00" cType="1" res="-7.4954733252525330e-02" rms="-nan" purity="2.6179336011409760e-02" nType="-99"/>
        </Node>
      </Node>
    </BinaryTree>
    <BinaryTree type="DecisionTree" boostWeight="1.0000000000000000e+00" itree="703">
      <Node pos="s" depth="0" NCoef="0" IVar="39" Cut="-2.5769937038421631e+00" cType="1" res="1.4510464388877153e-03" rms="2.4335406720638275e-01" purity="5.0143706798553467e-01" nType="0">
        <Node pos="l" depth="1" NCoef="0" IVar="-1" Cut="0.0000000000000000e+00" cType="1" res="-3.0048619955778122e-02" rms="1.0665136575698853e-01" purity="5.6089848279953003e-01" nType="-99"/>
        <Node pos="r" depth="1" NCoef="0" IVar="10" Cut="2.8526039123535156e+00" cType="1" res="4.8819398507475853e-03" rms="2.4694919586181641e-01" purity="4.9889028072357178e-01" nType="0">
          <Node pos="l" depth="2" NCoef="0" IVar="-1" Cut="0.0000000000000000e+00" cType="1" res="-2.0145254209637642e-02" rms="3.0203709378838539e-02" purity="1.5874959528446198e-01" nType="-99"/>
          <Node pos="r" depth="2" NCoef="0" IVar="-1" Cut="0.0000000000000000e+00" cType="1" res="3.2817746978253126e-03" rms="2.5583842396736145e-01" purity="5.2599102258682251e-01" nType="-99"/>
        </Node>
      </Node>
    </BinaryTree>
    <BinaryTree type="DecisionTree" boostWeight="1.0000000000000000e+00" itree="704">
      <Node pos="s" depth="0" NCoef="0" IVar="58" Cut="-1.4926838874816895e+00" cType="1" res="1.6850138781592250e-03" rms="2.4340765178203583e-01" purity="4.9903756380081177e-01" nType="0">
        <Node pos="l" depth="1" NCoef="0" IVar="-1" Cut="0.0000000000000000e+00" cType="1" res="-6.1123605817556381e-02" rms="-nan" purity="8.4720104932785034e-02" nType="-99"/>
        <Node pos="r" depth="1" NCoef="0" IVar="37" Cut="-6.0428053140640259e-01" cType="1" res="4.6640401706099510e-03" rms="2.4809671938419342e-01" purity="5.0833469629287720e-01" nType="0">
          <Node pos="l" depth="2" NCoef="0" IVar="-1" Cut="0.0000000000000000e+00" cType="1" res="7.5742583721876144e-03" rms="2.7329033613204956e-01" purity="5.3474503755569458e-01" nType="-99"/>
          <Node pos="r" depth="2" NCoef="0" IVar="-1" Cut="0.0000000000000000e+00" cType="1" res="-5.3267665207386017e-03" rms="2.1508294343948364e-01" purity="4.7907713055610657e-01" nType="-99"/>
        </Node>
      </Node>
    </BinaryTree>
    <BinaryTree type="DecisionTree" boostWeight="1.0000000000000000e+00" itree="705">
      <Node pos="s" depth="0" NCoef="0" IVar="22" Cut="1.2345679104328156e-02" cType="1" res="7.9172747209668159e-03" rms="2.5586414337158203e-01" purity="5.0175392627716064e-01" nType="0">
        <Node pos="l" depth="1" NCoef="0" IVar="-1" Cut="0.0000000000000000e+00" cType="1" res="2.4349430575966835e-02" rms="3.0510812997817993e-01" purity="3.8665640354156494e-01" nType="-99"/>
        <Node pos="r" depth="1" NCoef="0" IVar="39" Cut="-9.5768666267395020e-01" cType="1" res="4.7063608653843403e-03" rms="2.5333783030509949e-01" purity="5.0586938858032227e-01" nType="0">
          <Node pos="l" depth="2" NCoef="0" IVar="-1" Cut="0.0000000000000000e+00" cType="1" res="-1.3212560443207622e-03" rms="2.4133937060832977e-01" purity="5.4174894094467163e-01" nType="-99"/>
          <Node pos="r" depth="2" NCoef="0" IVar="-1" Cut="0.0000000000000000e+00" cType="1" res="2.1252347156405449e-02" rms="3.1097260117530823e-01" purity="2.9068568348884583e-01" nType="-99"/>
        </Node>
      </Node>
    </BinaryTree>
    <BinaryTree type="DecisionTree" boostWeight="1.0000000000000000e+00" itree="706">
      <Node pos="s" depth="0" NCoef="0" IVar="35" Cut="-1.5311394929885864e+00" cType="1" res="-9.4381077215075493e-03" rms="2.2916144132614136e-01" purity="4.9564540386199951e-01" nType="0">
        <Node pos="l" depth="1" NCoef="0" IVar="-1" Cut="0.0000000000000000e+00" cType="1" res="3.4570109099149704e-02" rms="3.6418318748474121e-01" purity="3.3435809612274170e-01" nType="-99"/>
        <Node pos="r" depth="1" NCoef="0" IVar="57" Cut="1.4844145774841309e+00" cType="1" res="-1.2448932044208050e-02" rms="2.2397902607917786e-01" purity="4.9961310625076294e-01" nType="0">
          <Node pos="l" depth="2" NCoef="0" IVar="-1" Cut="0.0000000000000000e+00" cType="1" res="-1.0819732211530209e-02" rms="1.5585227310657501e-01" purity="1.9919082522392273e-01" nType="-99"/>
          <Node pos="r" depth="2" NCoef="0" IVar="-1" Cut="0.0000000000000000e+00" cType="1" res="2.9716175049543381e-04" rms="2.6661092042922974e-01" purity="7.4703574180603027e-01" nType="-99"/>
        </Node>
      </Node>
    </BinaryTree>
    <BinaryTree type="DecisionTree" boostWeight="1.0000000000000000e+00" itree="707">
      <Node pos="s" depth="0" NCoef="0" IVar="6" Cut="1.8829817771911621e+00" cType="1" res="-1.3347491621971130e-03" rms="2.4549983441829681e-01" purity="4.9663269519805908e-01" nType="0">
        <Node pos="l" depth="1" NCoef="0" IVar="6" Cut="1.0291430950164795e+00" cType="1" res="-3.1128128990530968e-02" rms="1.9881628453731537e-01" purity="2.7306178212165833e-01" nType="0">
          <Node pos="l" depth="2" NCoef="0" IVar="-1" Cut="0.0000000000000000e+00" cType="1" res="2.4688124656677246e-02" rms="3.1436491012573242e-01" purity="2.6062017679214478e-01" nType="-99"/>
          <Node pos="r" depth="2" NCoef="0" IVar="-1" Cut="0.0000000000000000e+00" cType="1" res="-1.6451222822070122e-02" rms="1.6490145027637482e-01" purity="2.7526506781578064e-01" nType="-99"/>
        </Node>
        <Node pos="r" depth="1" NCoef="0" IVar="27" Cut="7.8488332033157349e-01" cType="1" res="1.0996900498867035e-02" rms="2.6141160726547241e-01" purity="5.8916997909545898e-01" nType="0">
          <Node pos="l" depth="2" NCoef="0" IVar="-1" Cut="0.0000000000000000e+00" cType="1" res="5.5791806429624557e-02" rms="4.0989670157432556e-01" purity="3.4154218435287476e-01" nType="-99"/>
          <Node pos="r" depth="2" NCoef="0" IVar="-1" Cut="0.0000000000000000e+00" cType="1" res="1.8374682404100895e-03" rms="2.5112542510032654e-01" purity="6.0045677423477173e-01" nType="-99"/>
        </Node>
      </Node>
    </BinaryTree>
    <BinaryTree type="DecisionTree" boostWeight="1.0000000000000000e+00" itree="708">
      <Node pos="s" depth="0" NCoef="0" IVar="4" Cut="3.4468595981597900e+00" cType="1" res="4.2078844271600246e-03" rms="2.4739944934844971e-01" purity="5.0150716304779053e-01" nType="0">
        <Node pos="l" depth="1" NCoef="0" IVar="77" Cut="-1.4926292896270752e+00" cType="1" res="3.6509681493043900e-02" rms="2.8769952058792114e-01" purity="2.9288834333419800e-01" nType="0">
          <Node pos="l" depth="2" NCoef="0" IVar="-1" Cut="0.0000000000000000e+00" cType="1" res="-2.8946271631866693e-03" rms="2.3869185149669647e-01" purity="3.5615271329879761e-01" nType="-99"/>
          <Node pos="r" depth="2" NCoef="0" IVar="-1" Cut="0.0000000000000000e+00" cType="1" res="3.5230755805969238e-02" rms="3.2151168584823608e-01" purity="2.3211225867271423e-01" nType="-99"/>
        </Node>
        <Node pos="r" depth="1" NCoef="0" IVar="17" Cut="-1.3377283811569214e+00" cType="1" res="-6.2183868139982224e-03" rms="2.3194925487041473e-01" purity="5.6884443759918213e-01" nType="0">
          <Node pos="l" depth="2" NCoef="0" IVar="-1" Cut="0.0000000000000000e+00" cType="1" res="-1.4097154140472412e-01" rms="-nan" purity="-5.1175877451896667e-02" nType="-99"/>
          <Node pos="r" depth="2" NCoef="0" IVar="-1" Cut="0.0000000000000000e+00" cType="1" res="-2.0889226289000362e-04" rms="2.5386267900466919e-01" purity="6.2735497951507568e-01" nType="-99"/>
        </Node>
      </Node>
    </BinaryTree>
    <BinaryTree type="DecisionTree" boostWeight="1.0000000000000000e+00" itree="709">
      <Node pos="s" depth="0" NCoef="0" IVar="6" Cut="1.9796272516250610e+00" cType="1" res="1.3054513372480869e-02" rms="2.5408506393432617e-01" purity="5.1220762729644775e-01" nType="0">
        <Node pos="l" depth="1" NCoef="0" IVar="81" Cut="-8.4403765201568604e-01" cType="1" res="-1.1936803348362446e-02" rms="2.0865201950073242e-01" purity="3.2836896181106567e-01" nType="0">
          <Node pos="l" depth="2" NCoef="0" IVar="-1" Cut="0.0000000000000000e+00" cType="1" res="-9.4745475798845291e-03" rms="1.8698221445083618e-01" purity="3.4832838177680969e-01" nType="-99"/>
          <Node pos="r" depth="2" NCoef="0" IVar="-1" Cut="0.0000000000000000e+00" cType="1" res="3.4107569605112076e-02" rms="2.8580018877983093e-01" purity="2.1936236321926117e-01" nType="-99"/>
        </Node>
        <Node pos="r" depth="1" NCoef="0" IVar="6" Cut="2.1083917617797852e+00" cType="1" res="2.6451349258422852e-02" rms="2.7443546056747437e-01" purity="6.1075615882873535e-01" nType="0">
          <Node pos="l" depth="2" NCoef="0" IVar="-1" Cut="0.0000000000000000e+00" cType="1" res="3.1637586653232574e-02" rms="3.4217765927314758e-01" purity="5.4687440395355225e-01" nType="-99"/>
          <Node pos="r" depth="2" NCoef="0" IVar="-1" Cut="0.0000000000000000e+00" cType="1" res="5.8016646653413773e-03" rms="2.6282033324241638e-01" purity="6.1916071176528931e-01" nType="-99"/>
        </Node>
      </Node>
    </BinaryTree>
    <BinaryTree type="DecisionTree" boostWeight="1.0000000000000000e+00" itree="710">
      <Node pos="s" depth="0" NCoef="0" IVar="10" Cut="2.7125668525695801e+00" cType="1" res="-7.9197632148861885e-03" rms="2.2260755300521851e-01" purity="4.9755689501762390e-01" nType="0">
        <Node pos="l" depth="1" NCoef="0" IVar="-1" Cut="0.0000000000000000e+00" cType="1" res="-5.0249360501766205e-02" rms="-nan" purity="4.7661885619163513e-02" nType="-99"/>
        <Node pos="r" depth="1" NCoef="0" IVar="2" Cut="2.7745306491851807e+00" cType="1" res="-5.1356223411858082e-03" rms="2.2884237766265869e-01" purity="5.0862783193588257e-01" nType="0">
          <Node pos="l" depth="2" NCoef="0" IVar="-1" Cut="0.0000000000000000e+00" cType="1" res="-5.2912826649844646e-03" rms="2.0353148877620697e-01" purity="4.1320693492889404e-01" nType="-99"/>
          <Node pos="r" depth="2" NCoef="0" IVar="-1" Cut="0.0000000000000000e+00" cType="1" res="5.8843679726123810e-03" rms="2.7712622284889221e-01" purity="7.2829174995422363e-01" nType="-99"/>
        </Node>
      </Node>
    </BinaryTree>
    <BinaryTree type="DecisionTree" boostWeight="1.0000000000000000e+00" itree="711">
      <Node pos="s" depth="0" NCoef="0" IVar="6" Cut="8.4861046075820923e-01" cType="1" res="-1.5836332459002733e-03" rms="2.4333131313323975e-01" purity="4.9177685379981995e-01" nType="0">
        <Node pos="l" depth="1" NCoef="0" IVar="-1" Cut="0.0000000000000000e+00" cType="1" res="6.1967160552740097e-02" rms="3.9850366115570068e-01" purity="2.8874352574348450e-01" nType="-99"/>
        <Node pos="r" depth="1" NCoef="0" IVar="31" Cut="2.7934336662292480e+00" cType="1" res="-4.4394079595804214e-03" rms="2.3749944567680359e-01" purity="4.9680545926094055e-01" nType="0">
          <Node pos="l" depth="2" NCoef="0" IVar="-1" Cut="0.0000000000000000e+00" cType="1" res="-1.3868710957467556e-02" rms="1.8834280967712402e-01" purity="2.6261928677558899e-01" nType="-99"/>
          <Node pos="r" depth="2" NCoef="0" IVar="-1" Cut="0.0000000000000000e+00" cType="1" res="2.4915745016187429e-03" rms="2.5081443786621094e-01" purity="5.7559990882873535e-01" nType="-99"/>
        </Node>
      </Node>
    </BinaryTree>
    <BinaryTree type="DecisionTree" boostWeight="1.0000000000000000e+00" itree="712">
      <Node pos="s" depth="0" NCoef="0" IVar="14" Cut="1.4044910669326782e+00" cType="1" res="2.1279132924973965e-03" rms="2.4361550807952881e-01" purity="4.9660211801528931e-01" nType="0">
        <Node pos="l" depth="1" NCoef="0" IVar="5" Cut="4.8034378886222839e-01" cType="1" res="4.8319976776838303e-03" rms="2.4959997832775116e-01" purity="5.0368118286132812e-01" nType="0">
          <Node pos="l" depth="2" NCoef="0" IVar="-1" Cut="0.0000000000000000e+00" cType="1" res="1.2815288209822029e-04" rms="2.4204096198081970e-01" purity="5.2059483528137207e-01" nType="-99"/>
          <Node pos="r" depth="2" NCoef="0" IVar="-1" Cut="0.0000000000000000e+00" cType="1" res="2.4133553728461266e-02" rms="3.2932785153388977e-01" purity="2.7600243687629700e-01" nType="-99"/>
        </Node>
        <Node pos="r" depth="1" NCoef="0" IVar="-1" Cut="0.0000000000000000e+00" cType="1" res="-3.5418916493654251e-02" rms="-nan" purity="1.9849425554275513e-01" nType="-99"/>
      </Node>
    </BinaryTree>
    <BinaryTree type="DecisionTree" boostWeight="1.0000000000000000e+00" itree="713">
      <Node pos="s" depth="0" NCoef="0" IVar="36" Cut="1.0969951152801514e+00" cType="1" res="3.8553331978619099e-04" rms="2.4227331578731537e-01" purity="4.9921938776969910e-01" nType="0">
        <Node pos="l" depth="1" NCoef="0" IVar="5" Cut="3.1087613105773926e-01" cType="1" res="2.8871884569525719e-02" rms="2.5320968031883240e-01" purity="1.4620722830295563e-01" nType="0">
          <Node pos="l" depth="2" NCoef="0" IVar="-1" Cut="0.0000000000000000e+00" cType="1" res="-3.0366578139364719e-03" rms="1.8605525791645050e-01" purity="1.2206791341304779e-01" nType="-99"/>
          <Node pos="r" depth="2" NCoef="0" IVar="-1" Cut="0.0000000000000000e+00" cType="1" res="4.1986424475908279e-02" rms="3.2574301958084106e-01" purity="1.8506793677806854e-01" nType="-99"/>
        </Node>
        <Node pos="r" depth="1" NCoef="0" IVar="61" Cut="1.1194024085998535e+00" cType="1" res="-1.0725122876465321e-02" rms="2.3694492876529694e-01" purity="6.3690626621246338e-01" nType="0">
          <Node pos="l" depth="2" NCoef="0" IVar="-1" Cut="0.0000000000000000e+00" cType="1" res="-2.3698138829786330e-04" rms="2.4652326107025146e-01" purity="6.7378097772598267e-01" nType="-99"/>
          <Node pos="r" depth="2" NCoef="0" IVar="-1" Cut="0.0000000000000000e+00" cType="1" res="-2.2596303373575211e-02" rms="1.4976494014263153e-01" purity="4.0493494272232056e-01" nType="-99"/>
        </Node>
      </Node>
    </BinaryTree>
    <BinaryTree type="DecisionTree" boostWeight="1.0000000000000000e+00" itree="714">
      <Node pos="s" depth="0" NCoef="0" IVar="35" Cut="1.4840940237045288e+00" cType="1" res="3.0522230081260204e-03" rms="2.5348648428916931e-01" purity="5.0358968973159790e-01" nType="0">
        <Node pos="l" depth="1" NCoef="0" IVar="38" Cut="-1.3769654035568237e+00" cType="1" res="-1.1753550097637344e-05" rms="2.4696972966194153e-01" purity="5.0931650400161743e-01" nType="0">
          <Node pos="l" depth="2" NCoef="0" IVar="-1" Cut="0.0000000000000000e+00" cType="1" res="1.7106246203184128e-02" rms="2.6906853914260864e-01" purity="3.2883074879646301e-01" nType="-99"/>
          <Node pos="r" depth="2" NCoef="0" IVar="-1" Cut="0.0000000000000000e+00" cType="1" res="-2.3117279633879662e-03" rms="2.4219214916229248e-01" purity="5.4104596376419067e-01" nType="-99"/>
        </Node>
        <Node pos="r" depth="1" NCoef="0" IVar="-1" Cut="0.0000000000000000e+00" cType="1" res="4.8721276223659515e-02" rms="4.0930318832397461e-01" purity="3.0103889107704163e-01" nType="-99"/>
      </Node>
    </BinaryTree>
    <BinaryTree type="DecisionTree" boostWeight="1.0000000000000000e+00" itree="715">
      <Node pos="s" depth="0" NCoef="0" IVar="62" Cut="2.9087275266647339e-01" cType="1" res="1.3087354600429535e-03" rms="2.4162381887435913e-01" purity="5.0471913814544678e-01" nType="0">
        <Node pos="l" depth="1" NCoef="0" IVar="62" Cut="2.3111738264560699e-02" cType="1" res="-3.3022481948137283e-03" rms="2.3358337581157684e-01" purity="5.1073670387268066e-01" nType="0">
          <Node pos="l" depth="2" NCoef="0" IVar="-1" Cut="0.0000000000000000e+00" cType="1" res="3.5256769042462111e-03" rms="2.4623435735702515e-01" purity="5.5906164646148682e-01" nType="-99"/>
          <Node pos="r" depth="2" NCoef="0" IVar="-1" Cut="0.0000000000000000e+00" cType="1" res="-9.2179505154490471e-03" rms="2.0916675031185150e-01" purity="4.3126738071441650e-01" nType="-99"/>
        </Node>
        <Node pos="r" depth="1" NCoef="0" IVar="20" Cut="-1.1528361588716507e-02" cType="1" res="6.3675835728645325e-02" rms="3.2539987564086914e-01" purity="4.2332741618156433e-01" nType="0">
          <Node pos="l" depth="2" NCoef="0" IVar="-1" Cut="0.0000000000000000e+00" cType="1" res="-9.5911072567105293e-03" rms="1.9574171304702759e-01" purity="3.9461395144462585e-01" nType="-99"/>
          <Node pos="r" depth="2" NCoef="0" IVar="-1" Cut="0.0000000000000000e+00" cType="1" res="4.4534482061862946e-02" rms="3.8430985808372498e-01" purity="4.4624802470207214e-01" nType="-99"/>
        </Node>
      </Node>
    </BinaryTree>
    <BinaryTree type="DecisionTree" boostWeight="1.0000000000000000e+00" itree="716">
      <Node pos="s" depth="0" NCoef="0" IVar="70" Cut="-2.1693828701972961e-01" cType="1" res="1.8902771407738328e-03" rms="2.3605330288410187e-01" purity="4.9254560470581055e-01" nType="0">
        <Node pos="l" depth="1" NCoef="0" IVar="17" Cut="-1.1832809448242188e+00" cType="1" res="-1.2281734962016344e-03" rms="2.3181045055389404e-01" purity="4.9113270640373230e-01" nType="0">
          <Node pos="l" depth="2" NCoef="0" IVar="-1" Cut="0.0000000000000000e+00" cType="1" res="-6.6547997295856476e-02" rms="-nan" purity="-2.4759078398346901e-02" nType="-99"/>
          <Node pos="r" depth="2" NCoef="0" IVar="-1" Cut="0.0000000000000000e+00" cType="1" res="1.7706603975966573e-03" rms="2.6139751076698303e-01" purity="5.7285916805267334e-01" nType="-99"/>
        </Node>
        <Node pos="r" depth="1" NCoef="0" IVar="-1" Cut="0.0000000000000000e+00" cType="1" res="3.8115769624710083e-02" rms="3.3768653869628906e-01" purity="5.4319101572036743e-01" nType="-99"/>
      </Node>
    </BinaryTree>
    <BinaryTree type="DecisionTree" boostWeight="1.0000000000000000e+00" itree="717">
      <Node pos="s" depth="0" NCoef="0" IVar="60" Cut="-1.4970265626907349e+00" cType="1" res="8.3154616877436638e-03" rms="2.5098609924316406e-01" purity="5.0511264801025391e-01" nType="0">
        <Node pos="l" depth="1" NCoef="0" IVar="17" Cut="-1.3377283811569214e+00" cType="1" res="-3.4022228792309761e-03" rms="2.3235630989074707e-01" purity="5.7323354482650757e-01" nType="0">
          <Node pos="l" depth="2" NCoef="0" IVar="-1" Cut="0.0000000000000000e+00" cType="1" res="-1.8719533085823059e-01" rms="-nan" purity="-6.3764892518520355e-02" nType="-99"/>
          <Node pos="r" depth="2" NCoef="0" IVar="-1" Cut="0.0000000000000000e+00" cType="1" res="1.0932268342003226e-03" rms="2.5611695647239685e-01" purity="6.3366955518722534e-01" nType="-99"/>
        </Node>
        <Node pos="r" depth="1" NCoef="0" IVar="31" Cut="3.5002367496490479e+00" cType="1" res="3.5568166524171829e-02" rms="2.8787940740585327e-01" purity="3.4667867422103882e-01" nType="0">
          <Node pos="l" depth="2" NCoef="0" IVar="-1" Cut="0.0000000000000000e+00" cType="1" res="8.7107792496681213e-03" rms="2.7605137228965759e-01" purity="3.3908522129058838e-01" nType="-99"/>
          <Node pos="r" depth="2" NCoef="0" IVar="-1" Cut="0.0000000000000000e+00" cType="1" res="5.3979799151420593e-02" rms="3.8021439313888550e-01" purity="4.3821552395820618e-01" nType="-99"/>
        </Node>
      </Node>
    </BinaryTree>
    <BinaryTree type="DecisionTree" boostWeight="1.0000000000000000e+00" itree="718">
      <Node pos="s" depth="0" NCoef="0" IVar="81" Cut="-7.9447805881500244e-01" cType="1" res="2.1639082115143538e-03" rms="2.4604073166847229e-01" purity="5.0188082456588745e-01" nType="0">
        <Node pos="l" depth="1" NCoef="0" IVar="21" Cut="3.3259332180023193e-01" cType="1" res="-4.3342481367290020e-03" rms="2.4004094302654266e-01" purity="5.2706372737884521e-01" nType="0">
          <Node pos="l" depth="2" NCoef="0" IVar="-1" Cut="0.0000000000000000e+00" cType="1" res="-3.0218699248507619e-04" rms="2.4459084868431091e-01" purity="5.3633463382720947e-01" nType="-99"/>
          <Node pos="r" depth="2" NCoef="0" IVar="-1" Cut="0.0000000000000000e+00" cType="1" res="-2.8461104258894920e-02" rms="7.5055919587612152e-02" purity="3.3157771825790405e-01" nType="-99"/>
        </Node>
        <Node pos="r" depth="1" NCoef="0" IVar="55" Cut="-1.3001309633255005e+00" cType="1" res="5.9129048138856888e-02" rms="2.8720536828041077e-01" purity="2.8111851215362549e-01" nType="0">
          <Node pos="l" depth="2" NCoef="0" IVar="-1" Cut="0.0000000000000000e+00" cType="1" res="1.0902104526758194e-01" rms="4.0995958447456360e-01" purity="2.9714849591255188e-01" nType="-99"/>
          <Node pos="r" depth="2" NCoef="0" IVar="-1" Cut="0.0000000000000000e+00" cType="1" res="8.5775433108210564e-03" rms="2.2623676061630249e-01" purity="2.7646294236183167e-01" nType="-99"/>
        </Node>
      </Node>
    </BinaryTree>
    <BinaryTree type="DecisionTree" boostWeight="1.0000000000000000e+00" itree="719">
      <Node pos="s" depth="0" NCoef="0" IVar="5" Cut="-1.7420978844165802e-01" cType="1" res="-5.3383535705506802e-03" rms="2.3154726624488831e-01" purity="4.9737325310707092e-01" nType="0">
        <Node pos="l" depth="1" NCoef="0" IVar="-1" Cut="0.0000000000000000e+00" cType="1" res="-1.0509597510099411e-01" rms="-nan" purity="-3.4439418464899063e-02" nType="-99"/>
        <Node pos="r" depth="1" NCoef="0" IVar="0" Cut="9.5923405885696411e-01" cType="1" res="-1.7575004603713751e-03" rms="2.4155913293361664e-01" purity="5.1210886240005493e-01" nType="0">
          <Node pos="l" depth="2" NCoef="0" IVar="-1" Cut="0.0000000000000000e+00" cType="1" res="-4.7345221973955631e-03" rms="2.2700749337673187e-01" purity="5.6064194440841675e-01" nType="-99"/>
          <Node pos="r" depth="2" NCoef="0" IVar="-1" Cut="0.0000000000000000e+00" cType="1" res="9.0457107871770859e-03" rms="2.6750376820564270e-01" purity="4.1086110472679138e-01" nType="-99"/>
        </Node>
      </Node>
    </BinaryTree>
    <BinaryTree type="DecisionTree" boostWeight="1.0000000000000000e+00" itree="720">
      <Node pos="s" depth="0" NCoef="0" IVar="31" Cut="2.7225828170776367e+00" cType="1" res="-5.7039046660065651e-03" rms="2.2721922397613525e-01" purity="4.9662053585052490e-01" nType="0">
        <Node pos="l" depth="1" NCoef="0" IVar="21" Cut="-2.9749736189842224e-01" cType="1" res="-4.9038555473089218e-02" rms="1.3763943314552307e-01" purity="2.1466773748397827e-01" nType="0">
          <Node pos="l" depth="2" NCoef="0" IVar="-1" Cut="0.0000000000000000e+00" cType="1" res="-8.6303494870662689e-02" rms="-nan" purity="4.3252501636743546e-02" nType="-99"/>
          <Node pos="r" depth="2" NCoef="0" IVar="-1" Cut="0.0000000000000000e+00" cType="1" res="-1.0550322011113167e-02" rms="1.9176737964153290e-01" purity="2.3714089393615723e-01" nType="-99"/>
        </Node>
        <Node pos="r" depth="1" NCoef="0" IVar="83" Cut="1.2339748442173004e-01" cType="1" res="4.4949464499950409e-03" rms="2.4243514239788055e-01" purity="5.6297844648361206e-01" nType="0">
          <Node pos="l" depth="2" NCoef="0" IVar="-1" Cut="0.0000000000000000e+00" cType="1" res="-2.2385492920875549e-03" rms="2.3310498893260956e-01" purity="5.8656889200210571e-01" nType="-99"/>
          <Node pos="r" depth="2" NCoef="0" IVar="-1" Cut="0.0000000000000000e+00" cType="1" res="1.1670012958347797e-02" rms="2.6396697759628296e-01" purity="4.9842563271522522e-01" nType="-99"/>
        </Node>
      </Node>
    </BinaryTree>
    <BinaryTree type="DecisionTree" boostWeight="1.0000000000000000e+00" itree="721">
      <Node pos="s" depth="0" NCoef="0" IVar="63" Cut="4.2404109239578247e-01" cType="1" res="2.2940074559301138e-03" rms="2.4868693947792053e-01" purity="4.9565544724464417e-01" nType="0">
        <Node pos="l" depth="1" NCoef="0" IVar="1" Cut="3.0085248947143555e+00" cType="1" res="5.3963996469974518e-03" rms="2.5399398803710938e-01" purity="5.0212377309799194e-01" nType="0">
          <Node pos="l" depth="2" NCoef="0" IVar="-1" Cut="0.0000000000000000e+00" cType="1" res="6.9998772814869881e-03" rms="2.7546566724777222e-01" purity="4.4349145889282227e-01" nType="-99"/>
          <Node pos="r" depth="2" NCoef="0" IVar="-1" Cut="0.0000000000000000e+00" cType="1" res="-6.5669626928865910e-03" rms="2.1257428824901581e-01" purity="5.9690123796463013e-01" nType="-99"/>
        </Node>
        <Node pos="r" depth="1" NCoef="0" IVar="-1" Cut="0.0000000000000000e+00" cType="1" res="-5.2874136716127396e-02" rms="-nan" purity="2.2198536992073059e-01" nType="-99"/>
      </Node>
    </BinaryTree>
    <BinaryTree type="DecisionTree" boostWeight="1.0000000000000000e+00" itree="722">
      <Node pos="s" depth="0" NCoef="0" IVar="81" Cut="-5.0278311967849731e-01" cType="1" res="-3.0112050008028746e-03" rms="2.4159623682498932e-01" purity="4.9934077262878418e-01" nType="0">
        <Node pos="l" depth="1" NCoef="0" IVar="55" Cut="4.3538117408752441e-01" cType="1" res="-5.8250008150935173e-03" rms="2.3806202411651611e-01" purity="5.0519412755966187e-01" nType="0">
          <Node pos="l" depth="2" NCoef="0" IVar="-1" Cut="0.0000000000000000e+00" cType="1" res="-1.5974253416061401e-02" rms="8.0930404365062714e-02" purity="2.2822648286819458e-01" nType="-99"/>
          <Node pos="r" depth="2" NCoef="0" IVar="-1" Cut="0.0000000000000000e+00" cType="1" res="1.3921064091846347e-03" rms="2.6670962572097778e-01" purity="5.8752465248107910e-01" nType="-99"/>
        </Node>
        <Node pos="r" depth="1" NCoef="0" IVar="-1" Cut="0.0000000000000000e+00" cType="1" res="4.1972775012254715e-02" rms="3.2720059156417847e-01" purity="2.9789593815803528e-01" nType="-99"/>
      </Node>
    </BinaryTree>
    <BinaryTree type="DecisionTree" boostWeight="1.0000000000000000e+00" itree="723">
      <Node pos="s" depth="0" NCoef="0" IVar="5" Cut="8.9490592479705811e-02" cType="1" res="3.6188706289976835e-03" rms="2.4062867462635040e-01" purity="5.0758558511734009e-01" nType="0">
        <Node pos="l" depth="1" NCoef="0" IVar="34" Cut="-9.9199706315994263e-01" cType="1" res="-3.2741762697696686e-02" rms="1.6539141535758972e-01" purity="4.0506222844123840e-01" nType="0">
          <Node pos="l" depth="2" NCoef="0" IVar="-1" Cut="0.0000000000000000e+00" cType="1" res="-6.1346903443336487e-02" rms="-nan" purity="4.5488197356462479e-02" nType="-99"/>
          <Node pos="r" depth="2" NCoef="0" IVar="-1" Cut="0.0000000000000000e+00" cType="1" res="-4.1196350939571857e-03" rms="2.3435732722282410e-01" purity="4.9028924107551575e-01" nType="-99"/>
        </Node>
        <Node pos="r" depth="1" NCoef="0" IVar="78" Cut="2.2352510690689087e-01" cType="1" res="1.4357019215822220e-02" rms="2.5771671533584595e-01" purity="5.3786313533782959e-01" nType="0">
          <Node pos="l" depth="2" NCoef="0" IVar="-1" Cut="0.0000000000000000e+00" cType="1" res="8.1753055565059185e-04" rms="2.4558065831661224e-01" purity="5.9542971849441528e-01" nType="-99"/>
          <Node pos="r" depth="2" NCoef="0" IVar="-1" Cut="0.0000000000000000e+00" cType="1" res="2.4528054520487785e-02" rms="3.0002194643020630e-01" purity="2.8399193286895752e-01" nType="-99"/>
        </Node>
      </Node>
    </BinaryTree>
    <BinaryTree type="DecisionTree" boostWeight="1.0000000000000000e+00" itree="724">
      <Node pos="s" depth="0" NCoef="0" IVar="80" Cut="1.3254288434982300e+00" cType="1" res="-1.8141696928068995e-03" rms="2.3719388246536255e-01" purity="4.9590086936950684e-01" nType="0">
        <Node pos="l" depth="1" NCoef="0" IVar="31" Cut="3.4969799518585205e+00" cType="1" res="-9.3744779005646706e-03" rms="2.2908315062522888e-01" purity="5.4087340831756592e-01" nType="0">
          <Node pos="l" depth="2" NCoef="0" IVar="-1" Cut="0.0000000000000000e+00" cType="1" res="-4.7625545412302017e-03" rms="2.2316217422485352e-01" purity="5.3928571939468384e-01" nType="-99"/>
          <Node pos="r" depth="2" NCoef="0" IVar="-1" Cut="0.0000000000000000e+00" cType="1" res="2.0236734300851822e-02" rms="2.9494544863700867e-01" purity="5.6460410356521606e-01" nType="-99"/>
        </Node>
        <Node pos="r" depth="1" NCoef="0" IVar="77" Cut="-1.4300923347473145e+00" cType="1" res="4.7908291220664978e-02" rms="2.7979472279548645e-01" purity="2.0012640953063965e-01" nType="0">
          <Node pos="l" depth="2" NCoef="0" IVar="-1" Cut="0.0000000000000000e+00" cType="1" res="-2.0440863445401192e-02" rms="3.6946162581443787e-02" purity="1.4012062549591064e-01" nType="-99"/>
          <Node pos="r" depth="2" NCoef="0" IVar="-1" Cut="0.0000000000000000e+00" cType="1" res="4.3121982365846634e-02" rms="3.2338684797286987e-01" purity="2.2455364465713501e-01" nType="-99"/>
        </Node>
      </Node>
    </BinaryTree>
    <BinaryTree type="DecisionTree" boostWeight="1.0000000000000000e+00" itree="725">
      <Node pos="s" depth="0" NCoef="0" IVar="37" Cut="1.3990780115127563e+00" cType="1" res="-4.6759992837905884e-03" rms="2.3446933925151825e-01" purity="4.9623522162437439e-01" nType="0">
        <Node pos="l" depth="1" NCoef="0" IVar="52" Cut="3.6337647438049316e+00" cType="1" res="-2.1532007958739996e-03" rms="2.3752310872077942e-01" purity="5.0395357608795166e-01" nType="0">
          <Node pos="l" depth="2" NCoef="0" IVar="-1" Cut="0.0000000000000000e+00" cType="1" res="-1.5140813775360584e-03" rms="2.3481687903404236e-01" purity="5.0461953878402710e-01" nType="-99"/>
          <Node pos="r" depth="2" NCoef="0" IVar="-1" Cut="0.0000000000000000e+00" cType="1" res="2.8828827664256096e-02" rms="3.1844863295555115e-01" purity="4.7544029355049133e-01" nType="-99"/>
        </Node>
        <Node pos="r" depth="1" NCoef="0" IVar="-1" Cut="0.0000000000000000e+00" cType="1" res="-3.4356117248535156e-02" rms="-nan" purity="2.0795460045337677e-01" nType="-99"/>
      </Node>
    </BinaryTree>
    <BinaryTree type="DecisionTree" boostWeight="1.0000000000000000e+00" itree="726">
      <Node pos="s" depth="0" NCoef="0" IVar="40" Cut="1.2271084785461426e+00" cType="1" res="-6.1048981733620167e-03" rms="2.2388802468776703e-01" purity="5.0177192687988281e-01" nType="0">
        <Node pos="l" depth="1" NCoef="0" IVar="58" Cut="-1.4156521558761597e+00" cType="1" res="1.8590755062177777e-03" rms="2.3906281590461731e-01" purity="5.3868550062179565e-01" nType="0">
          <Node pos="l" depth="2" NCoef="0" IVar="-1" Cut="0.0000000000000000e+00" cType="1" res="-2.0478887483477592e-02" rms="8.8239461183547974e-02" purity="2.8427317738533020e-01" nType="-99"/>
          <Node pos="r" depth="2" NCoef="0" IVar="-1" Cut="0.0000000000000000e+00" cType="1" res="2.5588101707398891e-03" rms="2.4830746650695801e-01" purity="5.6385588645935059e-01" nType="-99"/>
        </Node>
        <Node pos="r" depth="1" NCoef="0" IVar="58" Cut="1.9285075366497040e-01" cType="1" res="-2.8773974627256393e-02" rms="-nan" purity="1.9938811659812927e-01" nType="-99"/>
      </Node>
    </BinaryTree>
    <BinaryTree type="DecisionTree" boostWeight="1.0000000000000000e+00" itree="727">
      <Node pos="s" depth="0" NCoef="0" IVar="77" Cut="1.3673177957534790e+00" cType="1" res="-3.3223519567400217e-03" rms="2.2952641546726227e-01" purity="4.9599876999855042e-01" nType="0">
        <Node pos="l" depth="1" NCoef="0" IVar="19" Cut="2.4896137416362762e-01" cType="1" res="5.4462818661704659e-04" rms="2.4132823944091797e-01" purity="5.2188193798065186e-01" nType="0">
          <Node pos="l" depth="2" NCoef="0" IVar="-1" Cut="0.0000000000000000e+00" cType="1" res="-1.4784609898924828e-02" rms="1.7652843892574310e-01" purity="5.4461389780044556e-01" nType="-99"/>
          <Node pos="r" depth="2" NCoef="0" IVar="-1" Cut="0.0000000000000000e+00" cType="1" res="1.9291735952720046e-03" rms="2.4734663963317871e-01" purity="5.1919865608215332e-01" nType="-99"/>
        </Node>
        <Node pos="r" depth="1" NCoef="0" IVar="37" Cut="-1.8635392189025879e-01" cType="1" res="-6.9918945431709290e-02" rms="-nan" purity="-1.3501111418008804e-02" nType="-99"/>
      </Node>
    </BinaryTree>
    <BinaryTree type="DecisionTree" boostWeight="1.0000000000000000e+00" itree="728">
      <Node pos="s" depth="0" NCoef="0" IVar="3" Cut="4.3301115036010742e+00" cType="1" res="5.0504961982369423e-03" rms="2.4470853805541992e-01" purity="5.0489878654479980e-01" nType="0">
        <Node pos="l" depth="1" NCoef="0" IVar="-1" Cut="0.0000000000000000e+00" cType="1" res="-3.8369148969650269e-02" rms="-nan" purity="1.5445411205291748e-01" nType="-99"/>
        <Node pos="r" depth="1" NCoef="0" IVar="10" Cut="2.7746419906616211e+00" cType="1" res="8.8346218690276146e-03" rms="2.5061097741127014e-01" purity="5.1597321033477783e-01" nType="0">
          <Node pos="l" depth="2" NCoef="0" IVar="-1" Cut="0.0000000000000000e+00" cType="1" res="3.4159511327743530e-02" rms="3.3589497208595276e-01" purity="2.5272929668426514e-01" nType="-99"/>
          <Node pos="r" depth="2" NCoef="0" IVar="-1" Cut="0.0000000000000000e+00" cType="1" res="1.9326282199472189e-03" rms="2.4604940414428711e-01" purity="5.2653497457504272e-01" nType="-99"/>
        </Node>
      </Node>
    </BinaryTree>
    <BinaryTree type="DecisionTree" boostWeight="1.0000000000000000e+00" itree="729">
      <Node pos="s" depth="0" NCoef="0" IVar="79" Cut="1.4371976852416992e+00" cType="1" res="8.4579503163695335e-03" rms="2.4696907401084900e-01" purity="5.1021462678909302e-01" nType="0">
        <Node pos="l" depth="1" NCoef="0" IVar="39" Cut="-1.9232699871063232e+00" cType="1" res="5.6436946615576744e-03" rms="2.4373389780521393e-01" purity="5.1456856727600098e-01" nType="0">
          <Node pos="l" depth="2" NCoef="0" IVar="-1" Cut="0.0000000000000000e+00" cType="1" res="-3.2257814891636372e-03" rms="2.2218301892280579e-01" purity="6.1855572462081909e-01" nType="-99"/>
          <Node pos="r" depth="2" NCoef="0" IVar="-1" Cut="0.0000000000000000e+00" cType="1" res="7.9947784543037415e-03" rms="2.6528379321098328e-01" purity="3.9501431584358215e-01" nType="-99"/>
        </Node>
        <Node pos="r" depth="1" NCoef="0" IVar="-1" Cut="0.0000000000000000e+00" cType="1" res="7.3386788368225098e-02" rms="3.3938494324684143e-01" purity="3.1854230165481567e-01" nType="-99"/>
      </Node>
    </BinaryTree>
    <BinaryTree type="DecisionTree" boostWeight="1.0000000000000000e+00" itree="730">
      <Node pos="s" depth="0" NCoef="0" IVar="31" Cut="3.4758296012878418e+00" cType="1" res="5.5222688242793083e-03" rms="2.4198916554450989e-01" purity="5.1061236858367920e-01" nType="0">
        <Node pos="l" depth="1" NCoef="0" IVar="34" Cut="-1.4926948547363281e+00" cType="1" res="1.1404282413423061e-03" rms="2.3570846021175385e-01" purity="5.1028192043304443e-01" nType="0">
          <Node pos="l" depth="2" NCoef="0" IVar="-1" Cut="0.0000000000000000e+00" cType="1" res="4.2906738817691803e-02" rms="3.5806104540824890e-01" purity="4.3052050471305847e-01" nType="-99"/>
          <Node pos="r" depth="2" NCoef="0" IVar="-1" Cut="0.0000000000000000e+00" cType="1" res="-7.9014588845893741e-04" rms="2.2982740402221680e-01" purity="5.1287055015563965e-01" nType="-99"/>
        </Node>
        <Node pos="r" depth="1" NCoef="0" IVar="62" Cut="-7.8765332698822021e-02" cType="1" res="6.5296970307826996e-02" rms="3.0927661061286926e-01" purity="5.1512050628662109e-01" nType="0">
          <Node pos="l" depth="2" NCoef="0" IVar="-1" Cut="0.0000000000000000e+00" cType="1" res="-1.5802452340722084e-02" rms="1.3019752502441406e-01" purity="4.9350205063819885e-01" nType="-99"/>
          <Node pos="r" depth="2" NCoef="0" IVar="-1" Cut="0.0000000000000000e+00" cType="1" res="4.6623073518276215e-02" rms="3.6219838261604309e-01" purity="5.2807956933975220e-01" nType="-99"/>
        </Node>
      </Node>
    </BinaryTree>
    <BinaryTree type="DecisionTree" boostWeight="1.0000000000000000e+00" itree="731">
      <Node pos="s" depth="0" NCoef="0" IVar="40" Cut="1.1688439846038818e+00" cType="1" res="8.0337850376963615e-03" rms="2.4704973399639130e-01" purity="5.0897133350372314e-01" nType="0">
        <Node pos="l" depth="1" NCoef="0" IVar="1" Cut="2.6896667480468750e+00" cType="1" res="1.4007075689733028e-02" rms="2.6030632853507996e-01" purity="5.4950708150863647e-01" nType="0">
          <Node pos="l" depth="2" NCoef="0" IVar="-1" Cut="0.0000000000000000e+00" cType="1" res="1.2084334157407284e-02" rms="2.9425942897796631e-01" purity="4.2762917280197144e-01" nType="-99"/>
          <Node pos="r" depth="2" NCoef="0" IVar="-1" Cut="0.0000000000000000e+00" cType="1" res="-1.4706740330439061e-04" rms="2.3495748639106750e-01" purity="6.2731307744979858e-01" nType="-99"/>
        </Node>
        <Node pos="r" depth="1" NCoef="0" IVar="63" Cut="-1.1118314415216446e-01" cType="1" res="-3.1697887927293777e-02" rms="1.2033486366271973e-01" purity="2.3934571444988251e-01" nType="0">
          <Node pos="l" depth="2" NCoef="0" IVar="-1" Cut="0.0000000000000000e+00" cType="1" res="-3.8550648838281631e-02" rms="-nan" purity="1.7679971456527710e-01" nType="-99"/>
          <Node pos="r" depth="2" NCoef="0" IVar="-1" Cut="0.0000000000000000e+00" cType="1" res="-5.9107056586071849e-04" rms="2.1108362078666687e-01" purity="2.6625037193298340e-01" nType="-99"/>
        </Node>
      </Node>
    </BinaryTree>
    <BinaryTree type="DecisionTree" boostWeight="1.0000000000000000e+00" itree="732">
      <Node pos="s" depth="0" NCoef="0" IVar="48" Cut="7.5281828641891479e-01" cType="1" res="-3.6849740426987410e-03" rms="2.3368160426616669e-01" purity="4.9522095918655396e-01" nType="0">
        <Node pos="l" depth="1" NCoef="0" IVar="-1" Cut="0.0000000000000000e+00" cType="1" res="-4.9080319702625275e-02" rms="-nan" purity="6.8261280655860901e-02" nType="-99"/>
        <Node pos="r" depth="1" NCoef="0" IVar="14" Cut="-1.4537736177444458e+00" cType="1" res="1.9037110905628651e-04" rms="2.4148996174335480e-01" purity="5.1164472103118896e-01" nType="0">
          <Node pos="l" depth="2" NCoef="0" IVar="-1" Cut="0.0000000000000000e+00" cType="1" res="-2.1345306187868118e-02" rms="-nan" purity="2.2628749907016754e-01" nType="-99"/>
          <Node pos="r" depth="2" NCoef="0" IVar="-1" Cut="0.0000000000000000e+00" cType="1" res="1.8402660498395562e-03" rms="2.5598883628845215e-01" purity="5.3967010974884033e-01" nType="-99"/>
        </Node>
      </Node>
    </BinaryTree>
    <BinaryTree type="DecisionTree" boostWeight="1.0000000000000000e+00" itree="733">
      <Node pos="s" depth="0" NCoef="0" IVar="52" Cut="2.3864405155181885e+00" cType="1" res="3.5180447157472372e-03" rms="2.4561730027198792e-01" purity="5.0508195161819458e-01" nType="0">
        <Node pos="l" depth="1" NCoef="0" IVar="-1" Cut="0.0000000000000000e+00" cType="1" res="-3.6274366080760956e-02" rms="-nan" purity="5.9398867189884186e-02" nType="-99"/>
        <Node pos="r" depth="1" NCoef="0" IVar="20" Cut="-1.0217714309692383e-01" cType="1" res="7.4355187825858593e-03" rms="2.5333386659622192e-01" purity="5.2179181575775146e-01" nType="0">
          <Node pos="l" depth="2" NCoef="0" IVar="-1" Cut="0.0000000000000000e+00" cType="1" res="-4.6525769867002964e-03" rms="2.1615171432495117e-01" purity="5.5821007490158081e-01" nType="-99"/>
          <Node pos="r" depth="2" NCoef="0" IVar="-1" Cut="0.0000000000000000e+00" cType="1" res="6.3746757805347443e-03" rms="2.7122789621353149e-01" purity="5.0145924091339111e-01" nType="-99"/>
        </Node>
      </Node>
    </BinaryTree>
    <BinaryTree type="DecisionTree" boostWeight="1.0000000000000000e+00" itree="734">
      <Node pos="s" depth="0" NCoef="0" IVar="83" Cut="3.7720018625259399e-01" cType="1" res="1.4315417502075434e-03" rms="2.3549491167068481e-01" purity="4.9864342808723450e-01" nType="0">
        <Node pos="l" depth="1" NCoef="0" IVar="16" Cut="1.1672058105468750e+00" cType="1" res="4.0221703238785267e-03" rms="2.4058730900287628e-01" purity="5.0439780950546265e-01" nType="0">
          <Node pos="l" depth="2" NCoef="0" IVar="-1" Cut="0.0000000000000000e+00" cType="1" res="2.5491323322057724e-03" rms="2.4701847136020660e-01" purity="5.1763039827346802e-01" nType="-99"/>
          <Node pos="r" depth="2" NCoef="0" IVar="-1" Cut="0.0000000000000000e+00" cType="1" res="-2.5008611381053925e-02" rms="-nan" purity="2.1030829846858978e-01" nType="-99"/>
        </Node>
        <Node pos="r" depth="1" NCoef="0" IVar="-1" Cut="0.0000000000000000e+00" cType="1" res="-4.0302183479070663e-02" rms="-nan" purity="2.5525638461112976e-01" nType="-99"/>
      </Node>
    </BinaryTree>
    <BinaryTree type="DecisionTree" boostWeight="1.0000000000000000e+00" itree="735">
      <Node pos="s" depth="0" NCoef="0" IVar="6" Cut="2.1638894081115723e+00" cType="1" res="1.5041277511045337e-03" rms="2.3851820826530457e-01" purity="4.9994170665740967e-01" nType="0">
        <Node pos="l" depth="1" NCoef="0" IVar="58" Cut="-1.8419855833053589e-01" cType="1" res="-2.1464401856064796e-02" rms="2.1012336015701294e-01" purity="3.4042772650718689e-01" nType="0">
          <Node pos="l" depth="2" NCoef="0" IVar="-1" Cut="0.0000000000000000e+00" cType="1" res="-1.6049442812800407e-02" rms="1.7998929321765900e-01" purity="3.3473467826843262e-01" nType="-99"/>
          <Node pos="r" depth="2" NCoef="0" IVar="-1" Cut="0.0000000000000000e+00" cType="1" res="4.6763760037720203e-03" rms="2.4371621012687683e-01" purity="3.4881412982940674e-01" nType="-99"/>
        </Node>
        <Node pos="r" depth="1" NCoef="0" IVar="10" Cut="2.9294929504394531e+00" cType="1" res="1.9882507622241974e-02" rms="2.5753504037857056e-01" purity="6.2757760286331177e-01" nType="0">
          <Node pos="l" depth="2" NCoef="0" IVar="-1" Cut="0.0000000000000000e+00" cType="1" res="3.0191307887434959e-02" rms="3.5169047117233276e-01" purity="4.7107544541358948e-01" nType="-99"/>
          <Node pos="r" depth="2" NCoef="0" IVar="-1" Cut="0.0000000000000000e+00" cType="1" res="3.5910157021135092e-03" rms="2.4386982619762421e-01" purity="6.4363437891006470e-01" nType="-99"/>
        </Node>
      </Node>
    </BinaryTree>
    <BinaryTree type="DecisionTree" boostWeight="1.0000000000000000e+00" itree="736">
      <Node pos="s" depth="0" NCoef="0" IVar="46" Cut="1.6510611772537231e+00" cType="1" res="-1.5918988501653075e-03" rms="2.3395669460296631e-01" purity="5.0132751464843750e-01" nType="0">
        <Node pos="l" depth="1" NCoef="0" IVar="3" Cut="4.3104858398437500e+00" cType="1" res="-4.7036763280630112e-03" rms="2.2862790524959564e-01" purity="5.0518089532852173e-01" nType="0">
          <Node pos="l" depth="2" NCoef="0" IVar="-1" Cut="0.0000000000000000e+00" cType="1" res="2.8567809611558914e-02" rms="3.5277926921844482e-01" purity="3.4452041983604431e-01" nType="-99"/>
          <Node pos="r" depth="2" NCoef="0" IVar="-1" Cut="0.0000000000000000e+00" cType="1" res="-2.8012725524604321e-03" rms="2.2268542647361755e-01" purity="5.1034939289093018e-01" nType="-99"/>
        </Node>
        <Node pos="r" depth="1" NCoef="0" IVar="-1" Cut="0.0000000000000000e+00" cType="1" res="7.3281779885292053e-02" rms="3.8676384091377258e-01" purity="3.1811925768852234e-01" nType="-99"/>
      </Node>
    </BinaryTree>
    <BinaryTree type="DecisionTree" boostWeight="1.0000000000000000e+00" itree="737">
      <Node pos="s" depth="0" NCoef="0" IVar="5" Cut="2.2799581289291382e-02" cType="1" res="-1.5005941968411207e-03" rms="2.4377132952213287e-01" purity="4.9714574217796326e-01" nType="0">
        <Node pos="l" depth="1" NCoef="0" IVar="40" Cut="1.1229130029678345e+00" cType="1" res="-4.0383260697126389e-02" rms="1.0834938287734985e-01" purity="3.2871481776237488e-01" nType="0">
          <Node pos="l" depth="2" NCoef="0" IVar="-1" Cut="0.0000000000000000e+00" cType="1" res="-5.3136614151299000e-03" rms="2.1276524662971497e-01" purity="4.0097227692604065e-01" nType="-99"/>
          <Node pos="r" depth="2" NCoef="0" IVar="-1" Cut="0.0000000000000000e+00" cType="1" res="-7.9774975776672363e-02" rms="-nan" purity="4.7302190214395523e-02" nType="-99"/>
        </Node>
        <Node pos="r" depth="1" NCoef="0" IVar="21" Cut="3.2546320557594299e-01" cType="1" res="5.2234306931495667e-03" rms="2.5954574346542358e-01" purity="5.2627271413803101e-01" nType="0">
          <Node pos="l" depth="2" NCoef="0" IVar="-1" Cut="0.0000000000000000e+00" cType="1" res="3.3659746986813843e-04" rms="2.5330868363380432e-01" purity="5.3091508150100708e-01" nType="-99"/>
          <Node pos="r" depth="2" NCoef="0" IVar="-1" Cut="0.0000000000000000e+00" cType="1" res="2.3741407319903374e-02" rms="3.3322471380233765e-01" purity="4.5667526125907898e-01" nType="-99"/>
        </Node>
      </Node>
    </BinaryTree>
    <BinaryTree type="DecisionTree" boostWeight="1.0000000000000000e+00" itree="738">
      <Node pos="s" depth="0" NCoef="0" IVar="15" Cut="-1.4151866436004639e+00" cType="1" res="5.5572926066815853e-04" rms="2.4300238490104675e-01" purity="5.0137835741043091e-01" nType="0">
        <Node pos="l" depth="1" NCoef="0" IVar="39" Cut="-1.8686822652816772e+00" cType="1" res="-4.2454149574041367e-02" rms="-nan" purity="7.9549744725227356e-02" nType="-99"/>
        <Node pos="r" depth="1" NCoef="0" IVar="22" Cut="1.2345679104328156e-02" cType="1" res="7.3224334046244621e-03" rms="2.6216480135917664e-01" purity="5.5451554059982300e-01" nType="0">
          <Node pos="l" depth="2" NCoef="0" IVar="-1" Cut="0.0000000000000000e+00" cType="1" res="3.2080609351396561e-02" rms="3.5247772932052612e-01" purity="3.7425139546394348e-01" nType="-99"/>
          <Node pos="r" depth="2" NCoef="0" IVar="-1" Cut="0.0000000000000000e+00" cType="1" res="1.3221215922385454e-03" rms="2.5814369320869446e-01" purity="5.6020200252532959e-01" nType="-99"/>
        </Node>
      </Node>
    </BinaryTree>
    <BinaryTree type="DecisionTree" boostWeight="1.0000000000000000e+00" itree="739">
      <Node pos="s" depth="0" NCoef="0" IVar="41" Cut="-2.9825615882873535e-01" cType="1" res="7.7991012949496508e-04" rms="2.4048902094364166e-01" purity="5.0408166646957397e-01" nType="0">
        <Node pos="l" depth="1" NCoef="0" IVar="20" Cut="-1.8761375546455383e-01" cType="1" res="4.5346017926931381e-02" rms="2.7702948451042175e-01" purity="6.1486285924911499e-01" nType="0">
          <Node pos="l" depth="2" NCoef="0" IVar="-1" Cut="0.0000000000000000e+00" cType="1" res="-1.1991323903203011e-02" rms="1.6675332188606262e-01" purity="5.8059233427047729e-01" nType="-99"/>
          <Node pos="r" depth="2" NCoef="0" IVar="-1" Cut="0.0000000000000000e+00" cType="1" res="2.2505193948745728e-02" rms="3.0043414235115051e-01" purity="6.2634891271591187e-01" nType="-99"/>
        </Node>
        <Node pos="r" depth="1" NCoef="0" IVar="31" Cut="2.8373494148254395e+00" cType="1" res="-5.1573012024164200e-03" rms="2.3455454409122467e-01" purity="4.8932313919067383e-01" nType="0">
          <Node pos="l" depth="2" NCoef="0" IVar="-1" Cut="0.0000000000000000e+00" cType="1" res="-1.1297953315079212e-02" rms="2.0260865986347198e-01" purity="2.9623106122016907e-01" nType="-99"/>
          <Node pos="r" depth="2" NCoef="0" IVar="-1" Cut="0.0000000000000000e+00" cType="1" res="2.1793225314468145e-03" rms="2.4644504487514496e-01" purity="5.7441711425781250e-01" nType="-99"/>
        </Node>
      </Node>
    </BinaryTree>
    <BinaryTree type="DecisionTree" boostWeight="1.0000000000000000e+00" itree="740">
      <Node pos="s" depth="0" NCoef="0" IVar="59" Cut="-1.3769574165344238e+00" cType="1" res="3.0006049200892448e-03" rms="2.3725025355815887e-01" purity="4.9526575207710266e-01" nType="0">
        <Node pos="l" depth="1" NCoef="0" IVar="37" Cut="-3.0117619037628174e-01" cType="1" res="-1.9229158759117126e-02" rms="-nan" purity="2.5443699955940247e-01" nType="-99"/>
        <Node pos="r" depth="1" NCoef="0" IVar="64" Cut="1.2345679104328156e-02" cType="1" res="9.7917634993791580e-03" rms="2.5454246997833252e-01" purity="5.3202331066131592e-01" nType="0">
          <Node pos="l" depth="2" NCoef="0" IVar="-1" Cut="0.0000000000000000e+00" cType="1" res="3.1416501849889755e-02" rms="3.1616231799125671e-01" purity="4.0237987041473389e-01" nType="-99"/>
          <Node pos="r" depth="2" NCoef="0" IVar="-1" Cut="0.0000000000000000e+00" cType="1" res="2.1340644452720881e-03" rms="2.5139033794403076e-01" purity="5.3666687011718750e-01" nType="-99"/>
        </Node>
      </Node>
    </BinaryTree>
    <BinaryTree type="DecisionTree" boostWeight="1.0000000000000000e+00" itree="741">
      <Node pos="s" depth="0" NCoef="0" IVar="39" Cut="-1.0517605543136597e+00" cType="1" res="9.7181118326261640e-04" rms="2.3809158802032471e-01" purity="4.9904304742813110e-01" nType="0">
        <Node pos="l" depth="1" NCoef="0" IVar="0" Cut="1.0640475749969482e+00" cType="1" res="-6.9441888481378555e-03" rms="2.2628365457057953e-01" purity="5.3968012332916260e-01" nType="0">
          <Node pos="l" depth="2" NCoef="0" IVar="-1" Cut="0.0000000000000000e+00" cType="1" res="1.2226897524669766e-03" rms="2.4650479853153229e-01" purity="5.8757072687149048e-01" nType="-99"/>
          <Node pos="r" depth="2" NCoef="0" IVar="-1" Cut="0.0000000000000000e+00" cType="1" res="-1.8362630158662796e-02" rms="1.0327676683664322e-01" purity="3.4798115491867065e-01" nType="-99"/>
        </Node>
        <Node pos="r" depth="1" NCoef="0" IVar="56" Cut="2.0821709930896759e-01" cType="1" res="4.0901210159063339e-02" rms="2.8711622953414917e-01" purity="2.9406401515007019e-01" nType="0">
          <Node pos="l" depth="2" NCoef="0" IVar="-1" Cut="0.0000000000000000e+00" cType="1" res="-3.2020171056501567e-04" rms="2.3600743710994720e-01" purity="2.5250932574272156e-01" nType="-99"/>
          <Node pos="r" depth="2" NCoef="0" IVar="-1" Cut="0.0000000000000000e+00" cType="1" res="4.6478599309921265e-02" rms="3.6504194140434265e-01" purity="3.9590772986412048e-01" nType="-99"/>
        </Node>
      </Node>
    </BinaryTree>
    <BinaryTree type="DecisionTree" boostWeight="1.0000000000000000e+00" itree="742">
      <Node pos="s" depth="0" NCoef="0" IVar="80" Cut="1.3191748857498169e+00" cType="1" res="1.8659044289961457e-03" rms="2.4204206466674805e-01" purity="4.9672111868858337e-01" nType="0">
        <Node pos="l" depth="1" NCoef="0" IVar="2" Cut="2.1913752555847168e+00" cType="1" res="-4.6711070463061333e-03" rms="2.3496870696544647e-01" purity="5.4237455129623413e-01" nType="0">
          <Node pos="l" depth="2" NCoef="0" IVar="-1" Cut="0.0000000000000000e+00" cType="1" res="-1.1046544648706913e-02" rms="1.7548941075801849e-01" purity="2.8154215216636658e-01" nType="-99"/>
          <Node pos="r" depth="2" NCoef="0" IVar="-1" Cut="0.0000000000000000e+00" cType="1" res="2.3621842265129089e-03" rms="2.5755104422569275e-01" purity="6.6600084304809570e-01" nType="-99"/>
        </Node>
        <Node pos="r" depth="1" NCoef="0" IVar="16" Cut="-6.1429190635681152e-01" cType="1" res="4.4848334044218063e-02" rms="2.8043034672737122e-01" purity="1.9653901457786560e-01" nType="0">
          <Node pos="l" depth="2" NCoef="0" IVar="-1" Cut="0.0000000000000000e+00" cType="1" res="-2.4919398128986359e-02" rms="1.3306340575218201e-01" purity="8.2952320575714111e-02" nType="-99"/>
          <Node pos="r" depth="2" NCoef="0" IVar="-1" Cut="0.0000000000000000e+00" cType="1" res="4.4017087668180466e-02" rms="3.3139231801033020e-01" purity="2.6924097537994385e-01" nType="-99"/>
        </Node>
      </Node>
    </BinaryTree>
    <BinaryTree type="DecisionTree" boostWeight="1.0000000000000000e+00" itree="743">
      <Node pos="s" depth="0" NCoef="0" IVar="17" Cut="-1.2990446090698242e+00" cType="1" res="2.4807578884065151e-03" rms="2.4604204297065735e-01" purity="4.9854287505149841e-01" nType="0">
        <Node pos="l" depth="1" NCoef="0" IVar="67" Cut="9.7686916589736938e-01" cType="1" res="5.0173819065093994e-02" rms="2.2275857627391815e-01" purity="6.5306112170219421e-02" nType="0">
          <Node pos="l" depth="2" NCoef="0" IVar="-1" Cut="0.0000000000000000e+00" cType="1" res="-3.9207950234413147e-02" rms="-nan" purity="-4.4882553629577160e-03" nType="-99"/>
          <Node pos="r" depth="2" NCoef="0" IVar="-1" Cut="0.0000000000000000e+00" cType="1" res="2.6380532979965210e-01" rms="3.2711908221244812e-01" purity="1.3313405215740204e-01" nType="-99"/>
        </Node>
        <Node pos="r" depth="1" NCoef="0" IVar="60" Cut="-8.3369636535644531e-01" cType="1" res="-4.3909647502005100e-03" rms="2.4846415221691132e-01" purity="5.6096464395523071e-01" nType="0">
          <Node pos="l" depth="2" NCoef="0" IVar="-1" Cut="0.0000000000000000e+00" cType="1" res="6.6699471790343523e-04" rms="2.5622668862342834e-01" purity="5.9747534990310669e-01" nType="-99"/>
          <Node pos="r" depth="2" NCoef="0" IVar="-1" Cut="0.0000000000000000e+00" cType="1" res="-2.2069338709115982e-02" rms="1.3452650606632233e-01" purity="1.9765867292881012e-01" nType="-99"/>
        </Node>
      </Node>
    </BinaryTree>
    <BinaryTree type="DecisionTree" boostWeight="1.0000000000000000e+00" itree="744">
      <Node pos="s" depth="0" NCoef="0" IVar="8" Cut="-9.6956565976142883e-02" cType="1" res="6.6359108313918114e-03" rms="2.4476715922355652e-01" purity="5.0918203592300415e-01" nType="0">
        <Node pos="l" depth="1" NCoef="0" IVar="4" Cut="3.2658154964447021e+00" cType="1" res="9.8843518644571304e-03" rms="2.5036764144897461e-01" purity="5.1786994934082031e-01" nType="0">
          <Node pos="l" depth="2" NCoef="0" IVar="-1" Cut="0.0000000000000000e+00" cType="1" res="3.8199551403522491e-02" rms="3.5872298479080200e-01" purity="2.6710909605026245e-01" nType="-99"/>
          <Node pos="r" depth="2" NCoef="0" IVar="-1" Cut="0.0000000000000000e+00" cType="1" res="1.8161339685320854e-03" rms="2.4240075051784515e-01" purity="5.3118896484375000e-01" nType="-99"/>
        </Node>
        <Node pos="r" depth="1" NCoef="0" IVar="-1" Cut="0.0000000000000000e+00" cType="1" res="-4.7773759812116623e-02" rms="-nan" purity="1.2278413772583008e-01" nType="-99"/>
      </Node>
    </BinaryTree>
    <BinaryTree type="DecisionTree" boostWeight="1.0000000000000000e+00" itree="745">
      <Node pos="s" depth="0" NCoef="0" IVar="14" Cut="-1.0674484968185425e+00" cType="1" res="-7.7567915432155132e-03" rms="2.3584422469139099e-01" purity="4.9339681863784790e-01" nType="0">
        <Node pos="l" depth="1" NCoef="0" IVar="15" Cut="9.4234734773635864e-01" cType="1" res="1.9128516316413879e-02" rms="2.6290908455848694e-01" purity="4.3731462955474854e-01" nType="0">
          <Node pos="l" depth="2" NCoef="0" IVar="-1" Cut="0.0000000000000000e+00" cType="1" res="3.6410208791494370e-02" rms="2.7547022700309753e-01" purity="2.1404893696308136e-01" nType="-99"/>
          <Node pos="r" depth="2" NCoef="0" IVar="-1" Cut="0.0000000000000000e+00" cType="1" res="-1.7616257537156343e-03" rms="2.5158986449241638e-01" purity="5.7268089056015015e-01" nType="-99"/>
        </Node>
        <Node pos="r" depth="1" NCoef="0" IVar="42" Cut="-2.7683347463607788e-01" cType="1" res="-2.5033347308635712e-02" rms="2.1490754187107086e-01" purity="5.2943539619445801e-01" nType="0">
          <Node pos="l" depth="2" NCoef="0" IVar="-1" Cut="0.0000000000000000e+00" cType="1" res="-2.6054186746478081e-02" rms="6.8094909191131592e-02" purity="5.1509881019592285e-01" nType="-99"/>
          <Node pos="r" depth="2" NCoef="0" IVar="-1" Cut="0.0000000000000000e+00" cType="1" res="-5.2009164355695248e-03" rms="2.3189331591129303e-01" purity="5.3226512670516968e-01" nType="-99"/>
        </Node>
      </Node>
    </BinaryTree>
    <BinaryTree type="DecisionTree" boostWeight="1.0000000000000000e+00" itree="746">
      <Node pos="s" depth="0" NCoef="0" IVar="77" Cut="2.4592815339565277e-01" cType="1" res="2.6953243650496006e-03" rms="2.4204842746257782e-01" purity="4.9897244572639465e-01" nType="0">
        <Node pos="l" depth="1" NCoef="0" IVar="6" Cut="2.8191881179809570e+00" cType="1" res="-4.5056575909256935e-03" rms="2.3551805317401886e-01" purity="5.3286123275756836e-01" nType="0">
          <Node pos="l" depth="2" NCoef="0" IVar="-1" Cut="0.0000000000000000e+00" cType="1" res="-5.5821398273110390e-03" rms="2.1189430356025696e-01" purity="4.8185908794403076e-01" nType="-99"/>
          <Node pos="r" depth="2" NCoef="0" IVar="-1" Cut="0.0000000000000000e+00" cType="1" res="1.4678990468382835e-02" rms="3.0687397718429565e-01" purity="7.3308849334716797e-01" nType="-99"/>
        </Node>
        <Node pos="r" depth="1" NCoef="0" IVar="21" Cut="-1.2290581315755844e-01" cType="1" res="4.9966040998697281e-02" rms="2.7655944228172302e-01" purity="2.7650970220565796e-01" nType="0">
          <Node pos="l" depth="2" NCoef="0" IVar="-1" Cut="0.0000000000000000e+00" cType="1" res="4.4338803738355637e-02" rms="3.2882472872734070e-01" purity="3.5324451327323914e-01" nType="-99"/>
          <Node pos="r" depth="2" NCoef="0" IVar="-1" Cut="0.0000000000000000e+00" cType="1" res="6.5210778266191483e-03" rms="2.3491372168064117e-01" purity="2.3381370306015015e-01" nType="-99"/>
        </Node>
      </Node>
    </BinaryTree>
    <BinaryTree type="DecisionTree" boostWeight="1.0000000000000000e+00" itree="747">
      <Node pos="s" depth="0" NCoef="0" IVar="58" Cut="1.3990317583084106e+00" cType="1" res="3.4028196241706610e-03" rms="2.4025626480579376e-01" purity="5.0256973505020142e-01" nType="0">
        <Node pos="l" depth="1" NCoef="0" IVar="61" Cut="6.8002027273178101e-01" cType="1" res="5.9710475616157055e-03" rms="2.4506421387195587e-01" purity="5.0924813747406006e-01" nType="0">
          <Node pos="l" depth="2" NCoef="0" IVar="-1" Cut="0.0000000000000000e+00" cType="1" res="-4.1840304620563984e-03" rms="2.1629706025123596e-01" purity="5.7678049802780151e-01" nType="-99"/>
          <Node pos="r" depth="2" NCoef="0" IVar="-1" Cut="0.0000000000000000e+00" cType="1" res="6.8402714096009731e-03" rms="2.6418000459671021e-01" purity="4.5737802982330322e-01" nType="-99"/>
        </Node>
        <Node pos="r" depth="1" NCoef="0" IVar="-1" Cut="0.0000000000000000e+00" cType="1" res="-3.9899010211229324e-02" rms="-nan" purity="2.6386696100234985e-01" nType="-99"/>
      </Node>
    </BinaryTree>
    <BinaryTree type="DecisionTree" boostWeight="1.0000000000000000e+00" itree="748">
      <Node pos="s" depth="0" NCoef="0" IVar="25" Cut="1.0570120811462402e+00" cType="1" res="6.5475539304316044e-03" rms="2.5298908352851868e-01" purity="5.0243908166885376e-01" nType="0">
        <Node pos="l" depth="1" NCoef="0" IVar="38" Cut="-9.1444975137710571e-01" cType="1" res="-2.7489578351378441e-03" rms="2.4083621799945831e-01" purity="5.2739900350570679e-01" nType="0">
          <Node pos="l" depth="2" NCoef="0" IVar="-1" Cut="0.0000000000000000e+00" cType="1" res="-2.0068604499101639e-02" rms="9.5866009593009949e-02" purity="2.4079906940460205e-01" nType="-99"/>
          <Node pos="r" depth="2" NCoef="0" IVar="-1" Cut="0.0000000000000000e+00" cType="1" res="2.8535558376461267e-03" rms="2.6447102427482605e-01" purity="6.0138082504272461e-01" nType="-99"/>
        </Node>
        <Node pos="r" depth="1" NCoef="0" IVar="62" Cut="2.0330215990543365e-01" cType="1" res="4.7886129468679428e-02" rms="2.9765164852142334e-01" purity="3.9145043492317200e-01" nType="0">
          <Node pos="l" depth="2" NCoef="0" IVar="-1" Cut="0.0000000000000000e+00" cType="1" res="9.2863282188773155e-03" rms="2.7218550443649292e-01" purity="3.9249536395072937e-01" nType="-99"/>
          <Node pos="r" depth="2" NCoef="0" IVar="-1" Cut="0.0000000000000000e+00" cType="1" res="6.1673749238252640e-02" rms="3.7403959035873413e-01" purity="3.8680401444435120e-01" nType="-99"/>
        </Node>
      </Node>
    </BinaryTree>
    <BinaryTree type="DecisionTree" boostWeight="1.0000000000000000e+00" itree="749">
      <Node pos="s" depth="0" NCoef="0" IVar="52" Cut="2.4967701435089111e+00" cType="1" res="5.5582318454980850e-03" rms="2.4638240039348602e-01" purity="5.0644338130950928e-01" nType="0">
        <Node pos="l" depth="1" NCoef="0" IVar="14" Cut="-1.0676438808441162e+00" cType="1" res="6.7168839275836945e-02" rms="3.1626236438751221e-01" purity="2.3695413768291473e-01" nType="0">
          <Node pos="l" depth="2" NCoef="0" IVar="-1" Cut="0.0000000000000000e+00" cType="1" res="5.8665059506893158e-02" rms="3.7893453240394592e-01" purity="2.9121437668800354e-01" nType="-99"/>
          <Node pos="r" depth="2" NCoef="0" IVar="-1" Cut="0.0000000000000000e+00" cType="1" res="-1.7472106963396072e-02" rms="7.8613243997097015e-02" purity="1.4761899411678314e-01" nType="-99"/>
        </Node>
        <Node pos="r" depth="1" NCoef="0" IVar="19" Cut="5.6992109864950180e-02" cType="1" res="8.2236721937078983e-05" rms="2.3841631412506104e-01" purity="5.3039574623107910e-01" nType="0">
          <Node pos="l" depth="2" NCoef="0" IVar="-1" Cut="0.0000000000000000e+00" cType="1" res="2.4058368057012558e-02" rms="3.2247367501258850e-01" purity="6.6003233194351196e-01" nType="-99"/>
          <Node pos="r" depth="2" NCoef="0" IVar="-1" Cut="0.0000000000000000e+00" cType="1" res="-1.3893618015572429e-03" rms="2.3201327025890350e-01" purity="5.2299690246582031e-01" nType="-99"/>
        </Node>
      </Node>
    </BinaryTree>
    <BinaryTree type="DecisionTree" boostWeight="1.0000000000000000e+00" itree="750">
      <Node pos="s" depth="0" NCoef="0" IVar="60" Cut="-8.5684174299240112e-01" cType="1" res="-1.9533555023372173e-03" rms="2.3320524394512177e-01" purity="5.0702136754989624e-01" nType="0">
        <Node pos="l" depth="1" NCoef="0" IVar="41" Cut="3.4698322415351868e-01" cType="1" res="4.5104441232979298e-03" rms="2.4488101899623871e-01" purity="5.4259228706359863e-01" nType="0">
          <Node pos="l" depth="2" NCoef="0" IVar="-1" Cut="0.0000000000000000e+00" cType="1" res="1.5461997827515006e-04" rms="2.3967283964157104e-01" purity="5.4455536603927612e-01" nType="-99"/>
          <Node pos="r" depth="2" NCoef="0" IVar="-1" Cut="0.0000000000000000e+00" cType="1" res="2.7661886066198349e-02" rms="3.3015537261962891e-01" purity="4.9732741713523865e-01" nType="-99"/>
        </Node>
        <Node pos="r" depth="1" NCoef="0" IVar="5" Cut="3.2118061184883118e-01" cType="1" res="-5.8266516774892807e-02" rms="4.7100279480218887e-02" purity="1.9712442159652710e-01" nType="0">
          <Node pos="l" depth="2" NCoef="0" IVar="-1" Cut="0.0000000000000000e+00" cType="1" res="-5.9296353720128536e-03" rms="1.6303226351737976e-01" purity="2.5955927371978760e-01" nType="-99"/>
          <Node pos="r" depth="2" NCoef="0" IVar="-1" Cut="0.0000000000000000e+00" cType="1" res="-5.7542007416486740e-02" rms="-nan" purity="5.3179278969764709e-02" nType="-99"/>
        </Node>
      </Node>
    </BinaryTree>
    <BinaryTree type="DecisionTree" boostWeight="1.0000000000000000e+00" itree="751">
      <Node pos="s" depth="0" NCoef="0" IVar="82" Cut="5.3347742557525635e-01" cType="1" res="2.7248475234955549e-03" rms="2.3578688502311707e-01" purity="5.0350362062454224e-01" nType="0">
        <Node pos="l" depth="1" NCoef="0" IVar="34" Cut="-4.9070918560028076e-01" cType="1" res="2.9643118381500244e-02" rms="2.6965546607971191e-01" purity="5.9864360094070435e-01" nType="0">
          <Node pos="l" depth="2" NCoef="0" IVar="-1" Cut="0.0000000000000000e+00" cType="1" res="3.7451002746820450e-02" rms="3.4094813466072083e-01" purity="3.6404749751091003e-01" nType="-99"/>
          <Node pos="r" depth="2" NCoef="0" IVar="-1" Cut="0.0000000000000000e+00" cType="1" res="3.1057430896908045e-03" rms="2.4404054880142212e-01" purity="6.5936076641082764e-01" nType="-99"/>
        </Node>
        <Node pos="r" depth="1" NCoef="0" IVar="6" Cut="2.4248907566070557e+00" cType="1" res="-8.1179477274417877e-03" rms="2.1975116431713104e-01" purity="4.6518084406852722e-01" nType="0">
          <Node pos="l" depth="2" NCoef="0" IVar="-1" Cut="0.0000000000000000e+00" cType="1" res="-8.6705246940255165e-03" rms="1.8409553170204163e-01" purity="3.6477288603782654e-01" nType="-99"/>
          <Node pos="r" depth="2" NCoef="0" IVar="-1" Cut="0.0000000000000000e+00" cType="1" res="6.1809560284018517e-03" rms="2.6413306593894958e-01" purity="6.2248408794403076e-01" nType="-99"/>
        </Node>
      </Node>
    </BinaryTree>
    <BinaryTree type="DecisionTree" boostWeight="1.0000000000000000e+00" itree="752">
      <Node pos="s" depth="0" NCoef="0" IVar="41" Cut="2.0124182105064392e-01" cType="1" res="-6.2677538953721523e-03" rms="2.2936719655990601e-01" purity="4.9490675330162048e-01" nType="0">
        <Node pos="l" depth="1" NCoef="0" IVar="0" Cut="1.0636548995971680e+00" cType="1" res="6.7903962917625904e-04" rms="2.3958268761634827e-01" purity="5.1955717802047729e-01" nType="0">
          <Node pos="l" depth="2" NCoef="0" IVar="-1" Cut="0.0000000000000000e+00" cType="1" res="3.4570703282952309e-03" rms="2.5714063644409180e-01" purity="5.6490492820739746e-01" nType="-99"/>
          <Node pos="r" depth="2" NCoef="0" IVar="-1" Cut="0.0000000000000000e+00" cType="1" res="-1.4157528989017010e-02" rms="1.4668045938014984e-01" purity="3.4270539879798889e-01" nType="-99"/>
        </Node>
        <Node pos="r" depth="1" NCoef="0" IVar="17" Cut="1.5222673416137695e+00" cType="1" res="-4.9760442227125168e-02" rms="1.4290808141231537e-01" purity="3.4057486057281494e-01" nType="0">
          <Node pos="l" depth="2" NCoef="0" IVar="-1" Cut="0.0000000000000000e+00" cType="1" res="-4.3944578617811203e-02" rms="-nan" purity="9.7627788782119751e-02" nType="-99"/>
          <Node pos="r" depth="2" NCoef="0" IVar="-1" Cut="0.0000000000000000e+00" cType="1" res="4.6122702769935131e-03" rms="3.1458827853202820e-01" purity="7.4292361736297607e-01" nType="-99"/>
        </Node>
      </Node>
    </BinaryTree>
    <BinaryTree type="DecisionTree" boostWeight="1.0000000000000000e+00" itree="753">
      <Node pos="s" depth="0" NCoef="0" IVar="1" Cut="4.0408039093017578e+00" cType="1" res="3.6970446817576885e-03" rms="2.3984424769878387e-01" purity="5.0008243322372437e-01" nType="0">
        <Node pos="l" depth="1" NCoef="0" IVar="70" Cut="-4.9914953112602234e-01" cType="1" res="2.1915194520261139e-04" rms="2.3460797965526581e-01" purity="4.9222832918167114e-01" nType="0">
          <Node pos="l" depth="2" NCoef="0" IVar="-1" Cut="0.0000000000000000e+00" cType="1" res="1.2308619916439056e-03" rms="2.3983730375766754e-01" purity="4.9742612242698669e-01" nType="-99"/>
          <Node pos="r" depth="2" NCoef="0" IVar="-1" Cut="0.0000000000000000e+00" cType="1" res="-3.0471118167042732e-02" rms="-nan" purity="3.6775484681129456e-01" nType="-99"/>
        </Node>
        <Node pos="r" depth="1" NCoef="0" IVar="-1" Cut="0.0000000000000000e+00" cType="1" res="2.8877308592200279e-02" rms="3.2989966869354248e-01" purity="6.8420064449310303e-01" nType="-99"/>
      </Node>
    </BinaryTree>
    <BinaryTree type="DecisionTree" boostWeight="1.0000000000000000e+00" itree="754">
      <Node pos="s" depth="0" NCoef="0" IVar="39" Cut="-1.3308303356170654e+00" cType="1" res="-1.8368122400715947e-03" rms="2.3112869262695312e-01" purity="4.9647104740142822e-01" nType="0">
        <Node pos="l" depth="1" NCoef="0" IVar="56" Cut="-1.4925198554992676e+00" cType="1" res="7.6756752096116543e-03" rms="2.4905829131603241e-01" purity="5.6533688306808472e-01" nType="0">
          <Node pos="l" depth="2" NCoef="0" IVar="-1" Cut="0.0000000000000000e+00" cType="1" res="2.0211886614561081e-02" rms="3.0667352676391602e-01" purity="3.7364721298217773e-01" nType="-99"/>
          <Node pos="r" depth="2" NCoef="0" IVar="-1" Cut="0.0000000000000000e+00" cType="1" res="1.9621044339146465e-04" rms="2.3951575160026550e-01" purity="5.9066802263259888e-01" nType="-99"/>
        </Node>
        <Node pos="r" depth="1" NCoef="0" IVar="77" Cut="1.0581479072570801e+00" cType="1" res="-3.4135259687900543e-02" rms="1.5112042427062988e-01" purity="2.6264575123786926e-01" nType="0">
          <Node pos="l" depth="2" NCoef="0" IVar="-1" Cut="0.0000000000000000e+00" cType="1" res="-7.7861556783318520e-03" rms="1.9787180423736572e-01" purity="2.9968386888504028e-01" nType="-99"/>
          <Node pos="r" depth="2" NCoef="0" IVar="-1" Cut="0.0000000000000000e+00" cType="1" res="-1.5537695586681366e-01" rms="-nan" purity="-7.9354137182235718e-02" nType="-99"/>
        </Node>
      </Node>
    </BinaryTree>
    <BinaryTree type="DecisionTree" boostWeight="1.0000000000000000e+00" itree="755">
      <Node pos="s" depth="0" NCoef="0" IVar="8" Cut="-1.3573919236660004e-01" cType="1" res="-5.5396622046828270e-03" rms="2.2893849015235901e-01" purity="4.8770439624786377e-01" nType="0">
        <Node pos="l" depth="1" NCoef="0" IVar="67" Cut="1.3323044776916504e+00" cType="1" res="-2.3573925718665123e-03" rms="2.3613001406192780e-01" purity="4.9559223651885986e-01" nType="0">
          <Node pos="l" depth="2" NCoef="0" IVar="-1" Cut="0.0000000000000000e+00" cType="1" res="-1.8961807945743203e-03" rms="2.3315986990928650e-01" purity="5.0795084238052368e-01" nType="-99"/>
          <Node pos="r" depth="2" NCoef="0" IVar="-1" Cut="0.0000000000000000e+00" cType="1" res="3.1337711960077286e-02" rms="2.8221949934959412e-01" purity="2.4121071398258209e-01" nType="-99"/>
        </Node>
        <Node pos="r" depth="1" NCoef="0" IVar="-1" Cut="0.0000000000000000e+00" cType="1" res="-3.9740301668643951e-02" rms="-nan" purity="1.9910930097103119e-01" nType="-99"/>
      </Node>
    </BinaryTree>
    <BinaryTree type="DecisionTree" boostWeight="1.0000000000000000e+00" itree="756">
      <Node pos="s" depth="0" NCoef="0" IVar="31" Cut="2.3636257648468018e+00" cType="1" res="1.3909662375226617e-03" rms="2.4194903671741486e-01" purity="5.0320208072662354e-01" nType="0">
        <Node pos="l" depth="1" NCoef="0" IVar="61" Cut="8.3940905332565308e-01" cType="1" res="7.9423695802688599e-02" rms="3.3592337369918823e-01" purity="2.2875910997390747e-01" nType="0">
          <Node pos="l" depth="2" NCoef="0" IVar="-1" Cut="0.0000000000000000e+00" cType="1" res="-6.6977492533624172e-03" rms="2.0661060512065887e-01" purity="1.5202239155769348e-01" nType="-99"/>
          <Node pos="r" depth="2" NCoef="0" IVar="-1" Cut="0.0000000000000000e+00" cType="1" res="6.5086707472801208e-02" rms="4.0283188223838806e-01" purity="3.0245497822761536e-01" nType="-99"/>
        </Node>
        <Node pos="r" depth="1" NCoef="0" IVar="62" Cut="3.7735524773597717e-01" cType="1" res="-2.0980676636099815e-03" rms="2.3627692461013794e-01" purity="5.1547306776046753e-01" nType="0">
          <Node pos="l" depth="2" NCoef="0" IVar="-1" Cut="0.0000000000000000e+00" cType="1" res="8.4178405813872814e-05" rms="2.3806722462177277e-01" purity="5.2055436372756958e-01" nType="-99"/>
          <Node pos="r" depth="2" NCoef="0" IVar="-1" Cut="0.0000000000000000e+00" cType="1" res="-3.5910349339246750e-02" rms="8.9512035250663757e-02" purity="2.9355645179748535e-01" nType="-99"/>
        </Node>
      </Node>
    </BinaryTree>
    <BinaryTree type="DecisionTree" boostWeight="1.0000000000000000e+00" itree="757">
      <Node pos="s" depth="0" NCoef="0" IVar="78" Cut="-5.4041175171732903e-03" cType="1" res="4.7370851971209049e-03" rms="2.5254449248313904e-01" purity="4.9800649285316467e-01" nType="0">
        <Node pos="l" depth="1" NCoef="0" IVar="52" Cut="2.4317109584808350e+00" cType="1" res="-5.9023075737059116e-03" rms="2.4323609471321106e-01" purity="5.6983768939971924e-01" nType="0">
          <Node pos="l" depth="2" NCoef="0" IVar="-1" Cut="0.0000000000000000e+00" cType="1" res="2.8604138642549515e-02" rms="3.4634196758270264e-01" purity="2.9984426498413086e-01" nType="-99"/>
          <Node pos="r" depth="2" NCoef="0" IVar="-1" Cut="0.0000000000000000e+00" cType="1" res="-3.6193232517689466e-03" rms="2.3542997241020203e-01" purity="5.8426767587661743e-01" nType="-99"/>
        </Node>
        <Node pos="r" depth="1" NCoef="0" IVar="2" Cut="2.4199938774108887e+00" cType="1" res="3.3629875630140305e-02" rms="2.7416962385177612e-01" purity="3.0293864011764526e-01" nType="0">
          <Node pos="l" depth="2" NCoef="0" IVar="-1" Cut="0.0000000000000000e+00" cType="1" res="-1.6965161776170135e-03" rms="2.0412841439247131e-01" purity="1.5271186828613281e-01" nType="-99"/>
          <Node pos="r" depth="2" NCoef="0" IVar="-1" Cut="0.0000000000000000e+00" cType="1" res="2.3425595834851265e-02" rms="3.3303508162498474e-01" purity="4.7908949851989746e-01" nType="-99"/>
        </Node>
      </Node>
    </BinaryTree>
    <BinaryTree type="DecisionTree" boostWeight="1.0000000000000000e+00" itree="758">
      <Node pos="s" depth="0" NCoef="0" IVar="15" Cut="9.2083327472209930e-02" cType="1" res="4.2424170533195138e-04" rms="2.3538421094417572e-01" purity="4.9530354142189026e-01" nType="0">
        <Node pos="l" depth="1" NCoef="0" IVar="48" Cut="1.0161669254302979e+00" cType="1" res="2.9921675100922585e-02" rms="2.2971004247665405e-01" purity="2.5956743955612183e-01" nType="0">
          <Node pos="l" depth="2" NCoef="0" IVar="-1" Cut="0.0000000000000000e+00" cType="1" res="8.0941110849380493e-02" rms="3.2871401309967041e-01" purity="1.8115994334220886e-01" nType="-99"/>
          <Node pos="r" depth="2" NCoef="0" IVar="-1" Cut="0.0000000000000000e+00" cType="1" res="6.6510443575680256e-03" rms="2.0112302899360657e-01" purity="2.7460473775863647e-01" nType="-99"/>
        </Node>
        <Node pos="r" depth="1" NCoef="0" IVar="40" Cut="1.5387754440307617e+00" cType="1" res="-1.1031995527446270e-02" rms="2.3656183481216431e-01" purity="5.8685886859893799e-01" nType="0">
          <Node pos="l" depth="2" NCoef="0" IVar="-1" Cut="0.0000000000000000e+00" cType="1" res="-4.7486149705946445e-03" rms="2.2902598977088928e-01" purity="5.9590172767639160e-01" nType="-99"/>
          <Node pos="r" depth="2" NCoef="0" IVar="-1" Cut="0.0000000000000000e+00" cType="1" res="3.6075327545404434e-02" rms="3.6014330387115479e-01" purity="3.5845544934272766e-01" nType="-99"/>
        </Node>
      </Node>
    </BinaryTree>
    <BinaryTree type="DecisionTree" boostWeight="1.0000000000000000e+00" itree="759">
      <Node pos="s" depth="0" NCoef="0" IVar="17" Cut="-1.4537599086761475e+00" cType="1" res="1.1394834145903587e-03" rms="2.3948876559734344e-01" purity="5.0367897748947144e-01" nType="0">
        <Node pos="l" depth="1" NCoef="0" IVar="-1" Cut="0.0000000000000000e+00" cType="1" res="1.1302285641431808e-01" rms="3.2582017779350281e-01" purity="1.3990896940231323e-01" nType="-99"/>
        <Node pos="r" depth="1" NCoef="0" IVar="48" Cut="8.3665752410888672e-01" cType="1" res="-2.0833583548665047e-03" rms="2.3566164076328278e-01" purity="5.1456993818283081e-01" nType="0">
          <Node pos="l" depth="2" NCoef="0" IVar="-1" Cut="0.0000000000000000e+00" cType="1" res="2.8196357190608978e-02" rms="3.1366035342216492e-01" purity="2.5294160842895508e-01" nType="-99"/>
          <Node pos="r" depth="2" NCoef="0" IVar="-1" Cut="0.0000000000000000e+00" cType="1" res="-2.3455508053302765e-03" rms="2.2829224169254303e-01" purity="5.3333598375320435e-01" nType="-99"/>
        </Node>
      </Node>
    </BinaryTree>
    <BinaryTree type="DecisionTree" boostWeight="1.0000000000000000e+00" itree="760">
      <Node pos="s" depth="0" NCoef="0" IVar="27" Cut="3.2936606407165527e+00" cType="1" res="6.2087373808026314e-03" rms="2.5150102376937866e-01" purity="5.0276970863342285e-01" nType="0">
        <Node pos="l" depth="1" NCoef="0" IVar="35" Cut="8.2692772150039673e-01" cType="1" res="2.9966891743242741e-03" rms="2.4710634350776672e-01" purity="4.9101889133453369e-01" nType="0">
          <Node pos="l" depth="2" NCoef="0" IVar="-1" Cut="0.0000000000000000e+00" cType="1" res="-2.0025756675750017e-03" rms="2.2825548052787781e-01" purity="4.8514121770858765e-01" nType="-99"/>
          <Node pos="r" depth="2" NCoef="0" IVar="-1" Cut="0.0000000000000000e+00" cType="1" res="1.2850033119320869e-02" rms="3.0880886316299438e-01" purity="5.1452010869979858e-01" nType="-99"/>
        </Node>
        <Node pos="r" depth="1" NCoef="0" IVar="-1" Cut="0.0000000000000000e+00" cType="1" res="2.5620374828577042e-02" rms="3.2830944657325745e-01" purity="7.7187788486480713e-01" nType="-99"/>
      </Node>
    </BinaryTree>
    <BinaryTree type="DecisionTree" boostWeight="1.0000000000000000e+00" itree="761">
      <Node pos="s" depth="0" NCoef="0" IVar="3" Cut="4.3826947212219238e+00" cType="1" res="7.5065135024487972e-04" rms="2.3983693122863770e-01" purity="5.0249469280242920e-01" nType="0">
        <Node pos="l" depth="1" NCoef="0" IVar="16" Cut="-1.3385003805160522e+00" cType="1" res="-6.5587602555751801e-02" rms="1.2295708805322647e-01" purity="2.1867214143276215e-01" nType="0">
          <Node pos="l" depth="2" NCoef="0" IVar="-1" Cut="0.0000000000000000e+00" cType="1" res="1.7450502142310143e-02" rms="2.8437119722366333e-01" purity="2.7030944824218750e-01" nType="-99"/>
          <Node pos="r" depth="2" NCoef="0" IVar="-1" Cut="0.0000000000000000e+00" cType="1" res="-3.7894871085882187e-02" rms="-nan" purity="1.8750870227813721e-01" nType="-99"/>
        </Node>
        <Node pos="r" depth="1" NCoef="0" IVar="61" Cut="1.5379884243011475e+00" cType="1" res="5.1659862510859966e-03" rms="2.4501353502273560e-01" purity="5.2138537168502808e-01" nType="0">
          <Node pos="l" depth="2" NCoef="0" IVar="-1" Cut="0.0000000000000000e+00" cType="1" res="5.0229649059474468e-04" rms="2.3946115374565125e-01" purity="5.2984088659286499e-01" nType="-99"/>
          <Node pos="r" depth="2" NCoef="0" IVar="-1" Cut="0.0000000000000000e+00" cType="1" res="2.5021528825163841e-02" rms="3.3372464776039124e-01" purity="3.3855673670768738e-01" nType="-99"/>
        </Node>
      </Node>
    </BinaryTree>
    <BinaryTree type="DecisionTree" boostWeight="1.0000000000000000e+00" itree="762">
      <Node pos="s" depth="0" NCoef="0" IVar="77" Cut="-3.7176293134689331e-01" cType="1" res="-7.0525147020816803e-04" rms="2.3852120339870453e-01" purity="4.9169531464576721e-01" nType="0">
        <Node pos="l" depth="1" NCoef="0" IVar="60" Cut="-8.8815444707870483e-01" cType="1" res="-9.0334331616759300e-03" rms="2.2964061796665192e-01" purity="5.2811449766159058e-01" nType="0">
          <Node pos="l" depth="2" NCoef="0" IVar="-1" Cut="0.0000000000000000e+00" cType="1" res="-8.3346769679337740e-04" rms="2.4320237338542938e-01" purity="5.6409054994583130e-01" nType="-99"/>
          <Node pos="r" depth="2" NCoef="0" IVar="-1" Cut="0.0000000000000000e+00" cType="1" res="-2.2008243948221207e-02" rms="-nan" purity="2.1578714251518250e-01" nType="-99"/>
        </Node>
        <Node pos="r" depth="1" NCoef="0" IVar="16" Cut="4.7331795096397400e-01" cType="1" res="4.3476354330778122e-02" rms="2.7681851387023926e-01" purity="2.9848894476890564e-01" nType="0">
          <Node pos="l" depth="2" NCoef="0" IVar="-1" Cut="0.0000000000000000e+00" cType="1" res="2.6764465495944023e-02" rms="2.9793152213096619e-01" purity="3.2841950654983521e-01" nType="-99"/>
          <Node pos="r" depth="2" NCoef="0" IVar="-1" Cut="0.0000000000000000e+00" cType="1" res="-4.0786121040582657e-02" rms="-nan" purity="1.0034117847681046e-01" nType="-99"/>
        </Node>
      </Node>
    </BinaryTree>
    <BinaryTree type="DecisionTree" boostWeight="1.0000000000000000e+00" itree="763">
      <Node pos="s" depth="0" NCoef="0" IVar="56" Cut="1.4438022375106812e+00" cType="1" res="-7.4028894305229187e-03" rms="2.2708626091480255e-01" purity="4.8983326554298401e-01" nType="0">
        <Node pos="l" depth="1" NCoef="0" IVar="73" Cut="3.2688882350921631e+00" cType="1" res="-1.1936599388718605e-02" rms="2.1767018735408783e-01" purity="4.9491852521896362e-01" nType="0">
          <Node pos="l" depth="2" NCoef="0" IVar="-1" Cut="0.0000000000000000e+00" cType="1" res="-5.7870550081133842e-03" rms="2.1170443296432495e-01" purity="4.8715206980705261e-01" nType="-99"/>
          <Node pos="r" depth="2" NCoef="0" IVar="-1" Cut="0.0000000000000000e+00" cType="1" res="1.7998114228248596e-02" rms="2.7791982889175415e-01" purity="5.9877091646194458e-01" nType="-99"/>
        </Node>
        <Node pos="r" depth="1" NCoef="0" IVar="17" Cut="1.4014159440994263e+00" cType="1" res="8.1882670521736145e-02" rms="3.5449397563934326e-01" purity="3.8968598842620850e-01" nType="0">
          <Node pos="l" depth="2" NCoef="0" IVar="-1" Cut="0.0000000000000000e+00" cType="1" res="1.5068152546882629e-01" rms="4.0089842677116394e-01" purity="2.4128164350986481e-01" nType="-99"/>
          <Node pos="r" depth="2" NCoef="0" IVar="-1" Cut="0.0000000000000000e+00" cType="1" res="-7.1608566213399172e-04" rms="2.8728291392326355e-01" purity="5.0187146663665771e-01" nType="-99"/>
        </Node>
      </Node>
    </BinaryTree>
    <BinaryTree type="DecisionTree" boostWeight="1.0000000000000000e+00" itree="764">
      <Node pos="s" depth="0" NCoef="0" IVar="52" Cut="2.3277742862701416e+00" cType="1" res="-6.9518195232376456e-04" rms="2.4385739862918854e-01" purity="4.9922394752502441e-01" nType="0">
        <Node pos="l" depth="1" NCoef="0" IVar="-1" Cut="0.0000000000000000e+00" cType="1" res="-5.3173627704381943e-02" rms="-nan" purity="1.3057468459010124e-02" nType="-99"/>
        <Node pos="r" depth="1" NCoef="0" IVar="37" Cut="1.0906234979629517e+00" cType="1" res="2.6935047935694456e-03" rms="2.4973230063915253e-01" purity="5.1098346710205078e-01" nType="0">
          <Node pos="l" depth="2" NCoef="0" IVar="-1" Cut="0.0000000000000000e+00" cType="1" res="2.7694683521986008e-03" rms="2.5366759300231934e-01" purity="5.2148973941802979e-01" nType="-99"/>
          <Node pos="r" depth="2" NCoef="0" IVar="-1" Cut="0.0000000000000000e+00" cType="1" res="-1.5709308907389641e-02" rms="2.0824402570724487e-01" purity="4.2275118827819824e-01" nType="-99"/>
        </Node>
      </Node>
    </BinaryTree>
    <BinaryTree type="DecisionTree" boostWeight="1.0000000000000000e+00" itree="765">
      <Node pos="s" depth="0" NCoef="0" IVar="56" Cut="1.4450960159301758e+00" cType="1" res="1.0919556953012943e-02" rms="2.5054067373275757e-01" purity="5.0945317745208740e-01" nType="0">
        <Node pos="l" depth="1" NCoef="0" IVar="77" Cut="1.2882440090179443e+00" cType="1" res="6.5542636439204216e-03" rms="2.4271054565906525e-01" purity="5.1469480991363525e-01" nType="0">
          <Node pos="l" depth="2" NCoef="0" IVar="-1" Cut="0.0000000000000000e+00" cType="1" res="6.2560581136494875e-04" rms="2.3890452086925507e-01" purity="5.3602689504623413e-01" nType="-99"/>
          <Node pos="r" depth="2" NCoef="0" IVar="-1" Cut="0.0000000000000000e+00" cType="1" res="4.2212847620248795e-02" rms="2.8342500329017639e-01" purity="2.0994353294372559e-01" nType="-99"/>
        </Node>
        <Node pos="r" depth="1" NCoef="0" IVar="78" Cut="-8.1862121820449829e-02" cType="1" res="9.8305508494377136e-02" rms="3.6341187357902527e-01" purity="4.0452423691749573e-01" nType="0">
          <Node pos="l" depth="2" NCoef="0" IVar="-1" Cut="0.0000000000000000e+00" cType="1" res="4.8640412278473377e-03" rms="2.7569371461868286e-01" purity="4.2063909769058228e-01" nType="-99"/>
          <Node pos="r" depth="2" NCoef="0" IVar="-1" Cut="0.0000000000000000e+00" cType="1" res="8.2815684378147125e-02" rms="4.3335103988647461e-01" purity="3.8205292820930481e-01" nType="-99"/>
        </Node>
      </Node>
    </BinaryTree>
    <BinaryTree type="DecisionTree" boostWeight="1.0000000000000000e+00" itree="766">
      <Node pos="s" depth="0" NCoef="0" IVar="61" Cut="1.0797421932220459e+00" cType="1" res="-2.3487471044063568e-03" rms="2.2683523595333099e-01" purity="5.0271916389465332e-01" nType="0">
        <Node pos="l" depth="1" NCoef="0" IVar="20" Cut="1.8970401585102081e-01" cType="1" res="7.1236910298466682e-03" rms="2.4416911602020264e-01" purity="5.4955261945724487e-01" nType="0">
          <Node pos="l" depth="2" NCoef="0" IVar="-1" Cut="0.0000000000000000e+00" cType="1" res="5.0901276990771294e-03" rms="2.5386062264442444e-01" purity="5.7068049907684326e-01" nType="-99"/>
          <Node pos="r" depth="2" NCoef="0" IVar="-1" Cut="0.0000000000000000e+00" cType="1" res="-1.7228869721293449e-02" rms="1.4196160435676575e-01" purity="3.9399477839469910e-01" nType="-99"/>
        </Node>
        <Node pos="r" depth="1" NCoef="0" IVar="48" Cut="1.0707352161407471e+00" cType="1" res="-4.6153549104928970e-02" rms="1.0660619288682938e-01" purity="2.8614014387130737e-01" nType="0">
          <Node pos="l" depth="2" NCoef="0" IVar="-1" Cut="0.0000000000000000e+00" cType="1" res="-8.9596346020698547e-02" rms="-nan" purity="-4.1781842708587646e-02" nType="-99"/>
          <Node pos="r" depth="2" NCoef="0" IVar="-1" Cut="0.0000000000000000e+00" cType="1" res="-7.2683584876358509e-03" rms="1.7819546163082123e-01" purity="3.5585352778434753e-01" nType="-99"/>
        </Node>
      </Node>
    </BinaryTree>
    <BinaryTree type="DecisionTree" boostWeight="1.0000000000000000e+00" itree="767">
      <Node pos="s" depth="0" NCoef="0" IVar="36" Cut="8.2696396112442017e-01" cType="1" res="2.5733006186783314e-03" rms="2.3904474079608917e-01" purity="5.0073987245559692e-01" nType="0">
        <Node pos="l" depth="1" NCoef="0" IVar="52" Cut="3.0216617584228516e+00" cType="1" res="-2.7261812239885330e-02" rms="1.2538266181945801e-01" purity="7.5393125414848328e-02" nType="0">
          <Node pos="l" depth="2" NCoef="0" IVar="-1" Cut="0.0000000000000000e+00" cType="1" res="6.0747498646378517e-03" rms="2.2250190377235413e-01" purity="1.1937090754508972e-01" nType="-99"/>
          <Node pos="r" depth="2" NCoef="0" IVar="-1" Cut="0.0000000000000000e+00" cType="1" res="-4.7366570681333542e-02" rms="-nan" purity="3.7354051601141691e-03" nType="-99"/>
        </Node>
        <Node pos="r" depth="1" NCoef="0" IVar="55" Cut="-1.4927092790603638e+00" cType="1" res="1.1949341744184494e-02" rms="2.6418170332908630e-01" purity="6.3441014289855957e-01" nType="0">
          <Node pos="l" depth="2" NCoef="0" IVar="-1" Cut="0.0000000000000000e+00" cType="1" res="3.5164382308721542e-02" rms="3.3956167101860046e-01" purity="6.2680578231811523e-01" nType="-99"/>
          <Node pos="r" depth="2" NCoef="0" IVar="-1" Cut="0.0000000000000000e+00" cType="1" res="2.2685835137963295e-03" rms="2.5941094756126404e-01" purity="6.3472968339920044e-01" nType="-99"/>
        </Node>
      </Node>
    </BinaryTree>
    <BinaryTree type="DecisionTree" boostWeight="1.0000000000000000e+00" itree="768">
      <Node pos="s" depth="0" NCoef="0" IVar="88" Cut="7.9529058933258057e-01" cType="1" res="3.5704635083675385e-03" rms="2.4341431260108948e-01" purity="5.0408071279525757e-01" nType="0">
        <Node pos="l" depth="1" NCoef="0" IVar="-1" Cut="0.0000000000000000e+00" cType="1" res="-3.4911848604679108e-02" rms="-nan" purity="4.1554468870162964e-01" nType="-99"/>
        <Node pos="r" depth="1" NCoef="0" IVar="42" Cut="-3.2889902591705322e-01" cType="1" res="6.0629430226981640e-03" rms="2.4585373699665070e-01" purity="5.0605833530426025e-01" nType="0">
          <Node pos="l" depth="2" NCoef="0" IVar="-1" Cut="0.0000000000000000e+00" cType="1" res="-1.3070365414023399e-02" rms="1.6534931957721710e-01" purity="4.7841137647628784e-01" nType="-99"/>
          <Node pos="r" depth="2" NCoef="0" IVar="-1" Cut="0.0000000000000000e+00" cType="1" res="4.2788251303136349e-03" rms="2.5444719195365906e-01" purity="5.0990664958953857e-01" nType="-99"/>
        </Node>
      </Node>
    </BinaryTree>
    <BinaryTree type="DecisionTree" boostWeight="1.0000000000000000e+00" itree="769">
      <Node pos="s" depth="0" NCoef="0" IVar="42" Cut="-6.0056495666503906e-01" cType="1" res="6.7678006598725915e-04" rms="2.3539905250072479e-01" purity="5.0376480817794800e-01" nType="0">
        <Node pos="l" depth="1" NCoef="0" IVar="-1" Cut="0.0000000000000000e+00" cType="1" res="2.7643008157610893e-02" rms="3.6205196380615234e-01" purity="5.2771317958831787e-01" nType="-99"/>
        <Node pos="r" depth="1" NCoef="0" IVar="4" Cut="3.2713780403137207e+00" cType="1" res="-2.5750561617314816e-03" rms="2.2881591320037842e-01" purity="5.0289285182952881e-01" nType="0">
          <Node pos="l" depth="2" NCoef="0" IVar="-1" Cut="0.0000000000000000e+00" cType="1" res="2.3978430777788162e-02" rms="3.3018326759338379e-01" purity="2.4447850883007050e-01" nType="-99"/>
          <Node pos="r" depth="2" NCoef="0" IVar="-1" Cut="0.0000000000000000e+00" cType="1" res="-2.2912977728992701e-03" rms="2.2094409167766571e-01" purity="5.1764672994613647e-01" nType="-99"/>
        </Node>
      </Node>
    </BinaryTree>
    <BinaryTree type="DecisionTree" boostWeight="1.0000000000000000e+00" itree="770">
      <Node pos="s" depth="0" NCoef="0" IVar="5" Cut="4.4291272759437561e-01" cType="1" res="1.5345150604844093e-03" rms="2.3324576020240784e-01" purity="5.0670105218887329e-01" nType="0">
        <Node pos="l" depth="1" NCoef="0" IVar="14" Cut="1.2920961380004883e+00" cType="1" res="7.8557832166552544e-03" rms="2.4357497692108154e-01" purity="5.3662478923797607e-01" nType="0">
          <Node pos="l" depth="2" NCoef="0" IVar="-1" Cut="0.0000000000000000e+00" cType="1" res="9.0987503062933683e-04" rms="2.3744256794452667e-01" purity="5.3726392984390259e-01" nType="-99"/>
          <Node pos="r" depth="2" NCoef="0" IVar="-1" Cut="0.0000000000000000e+00" cType="1" res="2.5197036564350128e-02" rms="3.1567767262458801e-01" purity="5.2623373270034790e-01" nType="-99"/>
        </Node>
        <Node pos="r" depth="1" NCoef="0" IVar="0" Cut="7.2855323553085327e-01" cType="1" res="-5.6712441146373749e-02" rms="7.2525031864643097e-02" purity="2.3096993565559387e-01" nType="0">
          <Node pos="l" depth="2" NCoef="0" IVar="-1" Cut="0.0000000000000000e+00" cType="1" res="5.9901690110564232e-03" rms="2.6714676618576050e-01" purity="3.5051584243774414e-01" nType="-99"/>
          <Node pos="r" depth="2" NCoef="0" IVar="-1" Cut="0.0000000000000000e+00" cType="1" res="-4.8386786133050919e-02" rms="-nan" purity="1.3219709694385529e-01" nType="-99"/>
        </Node>
      </Node>
    </BinaryTree>
    <BinaryTree type="DecisionTree" boostWeight="1.0000000000000000e+00" itree="771">
      <Node pos="s" depth="0" NCoef="0" IVar="79" Cut="1.3965162038803101e+00" cType="1" res="7.6181202894076705e-04" rms="2.3748627305030823e-01" purity="4.9520394206047058e-01" nType="0">
        <Node pos="l" depth="1" NCoef="0" IVar="62" Cut="1.8357031047344208e-01" cType="1" res="3.4816735424101353e-03" rms="2.4400714039802551e-01" purity="5.0671565532684326e-01" nType="0">
          <Node pos="l" depth="2" NCoef="0" IVar="-1" Cut="0.0000000000000000e+00" cType="1" res="-1.3496520696207881e-03" rms="2.2992099821567535e-01" purity="5.2494698762893677e-01" nType="-99"/>
          <Node pos="r" depth="2" NCoef="0" IVar="-1" Cut="0.0000000000000000e+00" cType="1" res="1.3369707390666008e-02" rms="2.9990398883819580e-01" purity="4.1952368617057800e-01" nType="-99"/>
        </Node>
        <Node pos="r" depth="1" NCoef="0" IVar="-1" Cut="0.0000000000000000e+00" cType="1" res="-5.6447234004735947e-02" rms="-nan" purity="7.0607416331768036e-02" nType="-99"/>
      </Node>
    </BinaryTree>
    <BinaryTree type="DecisionTree" boostWeight="1.0000000000000000e+00" itree="772">
      <Node pos="s" depth="0" NCoef="0" IVar="14" Cut="1.4039052724838257e+00" cType="1" res="-5.4939840920269489e-03" rms="2.3087698221206665e-01" purity="4.9593946337699890e-01" nType="0">
        <Node pos="l" depth="1" NCoef="0" IVar="82" Cut="1.6004812717437744e+00" cType="1" res="-2.8864524792879820e-03" rms="2.3522789776325226e-01" purity="5.0326538085937500e-01" nType="0">
          <Node pos="l" depth="2" NCoef="0" IVar="-1" Cut="0.0000000000000000e+00" cType="1" res="1.6321049770340323e-04" rms="2.4234306812286377e-01" purity="5.1624995470046997e-01" nType="-99"/>
          <Node pos="r" depth="2" NCoef="0" IVar="-1" Cut="0.0000000000000000e+00" cType="1" res="-4.5014381408691406e-02" rms="-nan" purity="1.0155370831489563e-01" nType="-99"/>
        </Node>
        <Node pos="r" depth="1" NCoef="0" IVar="-1" Cut="0.0000000000000000e+00" cType="1" res="-4.1539561003446579e-02" rms="-nan" purity="1.7083764076232910e-01" nType="-99"/>
      </Node>
    </BinaryTree>
    <BinaryTree type="DecisionTree" boostWeight="1.0000000000000000e+00" itree="773">
      <Node pos="s" depth="0" NCoef="0" IVar="58" Cut="-5.2877867221832275e-01" cType="1" res="-1.2471734080463648e-03" rms="2.2968772053718567e-01" purity="4.9859642982482910e-01" nType="0">
        <Node pos="l" depth="1" NCoef="0" IVar="55" Cut="-1.2227463722229004e+00" cType="1" res="-1.6685467213392258e-02" rms="2.1408993005752563e-01" purity="4.9148932099342346e-01" nType="0">
          <Node pos="l" depth="2" NCoef="0" IVar="-1" Cut="0.0000000000000000e+00" cType="1" res="-3.3316139131784439e-02" rms="-nan" purity="2.0605246722698212e-01" nType="-99"/>
          <Node pos="r" depth="2" NCoef="0" IVar="-1" Cut="0.0000000000000000e+00" cType="1" res="-1.9407068612053990e-03" rms="2.4687112867832184e-01" purity="5.4327070713043213e-01" nType="-99"/>
        </Node>
        <Node pos="r" depth="1" NCoef="0" IVar="77" Cut="-1.1833339929580688e+00" cType="1" res="1.5663048252463341e-02" rms="2.4452269077301025e-01" purity="5.0638115406036377e-01" nType="0">
          <Node pos="l" depth="2" NCoef="0" IVar="-1" Cut="0.0000000000000000e+00" cType="1" res="-5.2513479022309184e-04" rms="2.2329534590244293e-01" purity="5.6618583202362061e-01" nType="-99"/>
          <Node pos="r" depth="2" NCoef="0" IVar="-1" Cut="0.0000000000000000e+00" cType="1" res="2.3245688527822495e-02" rms="2.8879094123840332e-01" purity="3.4644696116447449e-01" nType="-99"/>
        </Node>
      </Node>
    </BinaryTree>
    <BinaryTree type="DecisionTree" boostWeight="1.0000000000000000e+00" itree="774">
      <Node pos="s" depth="0" NCoef="0" IVar="18" Cut="-5.4480493068695068e-01" cType="1" res="8.1869941204786301e-03" rms="2.5314605236053467e-01" purity="5.0843518972396851e-01" nType="0">
        <Node pos="l" depth="1" NCoef="0" IVar="27" Cut="7.4634134769439697e-01" cType="1" res="5.0212317146360874e-03" rms="2.4751462042331696e-01" purity="5.1271432638168335e-01" nType="0">
          <Node pos="l" depth="2" NCoef="0" IVar="-1" Cut="0.0000000000000000e+00" cType="1" res="4.0207520127296448e-02" rms="3.7003415822982788e-01" purity="2.5759696960449219e-01" nType="-99"/>
          <Node pos="r" depth="2" NCoef="0" IVar="-1" Cut="0.0000000000000000e+00" cType="1" res="3.3157368307001889e-04" rms="2.3967209458351135e-01" purity="5.2432924509048462e-01" nType="-99"/>
        </Node>
        <Node pos="r" depth="1" NCoef="0" IVar="-1" Cut="0.0000000000000000e+00" cType="1" res="4.1202321648597717e-02" rms="3.8674110174179077e-01" purity="3.5981240868568420e-01" nType="-99"/>
      </Node>
    </BinaryTree>
    <BinaryTree type="DecisionTree" boostWeight="1.0000000000000000e+00" itree="775">
      <Node pos="s" depth="0" NCoef="0" IVar="14" Cut="1.2920961380004883e+00" cType="1" res="-1.8123439513146877e-03" rms="2.3909540474414825e-01" purity="4.9307182431221008e-01" nType="0">
        <Node pos="l" depth="1" NCoef="0" IVar="58" Cut="7.0137900114059448e-01" cType="1" res="-6.2900218181312084e-03" rms="2.3297861218452454e-01" purity="4.9490398168563843e-01" nType="0">
          <Node pos="l" depth="2" NCoef="0" IVar="-1" Cut="0.0000000000000000e+00" cType="1" res="-4.8063616268336773e-03" rms="2.1594022214412689e-01" purity="4.9225723743438721e-01" nType="-99"/>
          <Node pos="r" depth="2" NCoef="0" IVar="-1" Cut="0.0000000000000000e+00" cType="1" res="7.9557318240404129e-03" rms="2.9055419564247131e-01" purity="5.0572025775909424e-01" nType="-99"/>
        </Node>
        <Node pos="r" depth="1" NCoef="0" IVar="39" Cut="-1.6606371402740479e+00" cType="1" res="6.7754030227661133e-02" rms="3.1125205755233765e-01" purity="4.6460622549057007e-01" nType="0">
          <Node pos="l" depth="2" NCoef="0" IVar="-1" Cut="0.0000000000000000e+00" cType="1" res="2.5151243899017572e-03" rms="2.5976642966270447e-01" purity="4.8948475718498230e-01" nType="-99"/>
          <Node pos="r" depth="2" NCoef="0" IVar="-1" Cut="0.0000000000000000e+00" cType="1" res="4.1661191731691360e-02" rms="3.5443687438964844e-01" purity="4.3103176355361938e-01" nType="-99"/>
        </Node>
      </Node>
    </BinaryTree>
    <BinaryTree type="DecisionTree" boostWeight="1.0000000000000000e+00" itree="776">
      <Node pos="s" depth="0" NCoef="0" IVar="52" Cut="2.3733410835266113e+00" cType="1" res="-5.2778325043618679e-03" rms="2.3012232780456543e-01" purity="5.0690245628356934e-01" nType="0">
        <Node pos="l" depth="1" NCoef="0" IVar="-1" Cut="0.0000000000000000e+00" cType="1" res="-4.6202100813388824e-02" rms="-nan" purity="4.4368658214807510e-02" nType="-99"/>
        <Node pos="r" depth="1" NCoef="0" IVar="48" Cut="8.0306762456893921e-01" cType="1" res="-1.5559596940875053e-03" rms="2.3724943399429321e-01" purity="5.2335470914840698e-01" nType="0">
          <Node pos="l" depth="2" NCoef="0" IVar="-1" Cut="0.0000000000000000e+00" cType="1" res="3.2291665673255920e-02" rms="3.2391771674156189e-01" purity="2.8372064232826233e-01" nType="-99"/>
          <Node pos="r" depth="2" NCoef="0" IVar="-1" Cut="0.0000000000000000e+00" cType="1" res="-1.8292473396286368e-03" rms="2.3142531514167786e-01" purity="5.3528708219528198e-01" nType="-99"/>
        </Node>
      </Node>
    </BinaryTree>
    <BinaryTree type="DecisionTree" boostWeight="1.0000000000000000e+00" itree="777">
      <Node pos="s" depth="0" NCoef="0" IVar="1" Cut="3.1754927635192871e+00" cType="1" res="2.0994541700929403e-03" rms="2.3333904147148132e-01" purity="5.0396752357482910e-01" nType="0">
        <Node pos="l" depth="1" NCoef="0" IVar="3" Cut="5.4084596633911133e+00" cType="1" res="1.4330021105706692e-02" rms="2.4751216173171997e-01" purity="4.6242570877075195e-01" nType="0">
          <Node pos="l" depth="2" NCoef="0" IVar="-1" Cut="0.0000000000000000e+00" cType="1" res="2.8799516148865223e-03" rms="2.4184389412403107e-01" purity="4.7021853923797607e-01" nType="-99"/>
          <Node pos="r" depth="2" NCoef="0" IVar="-1" Cut="0.0000000000000000e+00" cType="1" res="4.0902189910411835e-02" rms="3.1663084030151367e-01" purity="3.1634908914566040e-01" nType="-99"/>
        </Node>
        <Node pos="r" depth="1" NCoef="0" IVar="2" Cut="2.7857186794281006e+00" cType="1" res="-2.8437452390789986e-02" rms="1.9006636738777161e-01" purity="6.0768789052963257e-01" nType="0">
          <Node pos="l" depth="2" NCoef="0" IVar="-1" Cut="0.0000000000000000e+00" cType="1" res="-5.6920342147350311e-02" rms="-nan" purity="1.4351005852222443e-01" nType="-99"/>
          <Node pos="r" depth="2" NCoef="0" IVar="-1" Cut="0.0000000000000000e+00" cType="1" res="-1.9862826447933912e-03" rms="2.3783390223979950e-01" purity="7.0804423093795776e-01" nType="-99"/>
        </Node>
      </Node>
    </BinaryTree>
    <BinaryTree type="DecisionTree" boostWeight="1.0000000000000000e+00" itree="778">
      <Node pos="s" depth="0" NCoef="0" IVar="55" Cut="3.9735478162765503e-01" cType="1" res="-3.7877371069043875e-03" rms="2.3035573959350586e-01" purity="4.9639070034027100e-01" nType="0">
        <Node pos="l" depth="1" NCoef="0" IVar="83" Cut="6.8512596189975739e-02" cType="1" res="-3.6889448761940002e-02" rms="2.1119315177202225e-02" purity="2.1436071395874023e-01" nType="0">
          <Node pos="l" depth="2" NCoef="0" IVar="-1" Cut="0.0000000000000000e+00" cType="1" res="-3.3286508172750473e-02" rms="-nan" purity="2.0648021996021271e-01" nType="-99"/>
          <Node pos="r" depth="2" NCoef="0" IVar="-1" Cut="0.0000000000000000e+00" cType="1" res="1.0501883924007416e-02" rms="2.2854013741016388e-01" purity="2.2590352594852448e-01" nType="-99"/>
        </Node>
        <Node pos="r" depth="1" NCoef="0" IVar="17" Cut="5.1885986328125000e-01" cType="1" res="5.9222998097538948e-03" rms="2.6092705130577087e-01" purity="5.7912123203277588e-01" nType="0">
          <Node pos="l" depth="2" NCoef="0" IVar="-1" Cut="0.0000000000000000e+00" cType="1" res="5.0222348421812057e-02" rms="2.4160885810852051e-01" purity="8.5457183420658112e-02" nType="-99"/>
          <Node pos="r" depth="2" NCoef="0" IVar="-1" Cut="0.0000000000000000e+00" cType="1" res="-8.3134847227483988e-04" rms="2.6364886760711670e-01" purity="6.7574828863143921e-01" nType="-99"/>
        </Node>
      </Node>
    </BinaryTree>
    <BinaryTree type="DecisionTree" boostWeight="1.0000000000000000e+00" itree="779">
      <Node pos="s" depth="0" NCoef="0" IVar="60" Cut="-7.2478020191192627e-01" cType="1" res="4.7362335026264191e-03" rms="2.4889245629310608e-01" purity="4.9398034811019897e-01" nType="0">
        <Node pos="l" depth="1" NCoef="0" IVar="2" Cut="2.8474063873291016e+00" cType="1" res="-4.6627447591163218e-04" rms="2.3822835087776184e-01" purity="5.1721149682998657e-01" nType="0">
          <Node pos="l" depth="2" NCoef="0" IVar="-1" Cut="0.0000000000000000e+00" cType="1" res="-4.4657792896032333e-03" rms="2.2100064158439636e-01" purity="4.2081943154335022e-01" nType="-99"/>
          <Node pos="r" depth="2" NCoef="0" IVar="-1" Cut="0.0000000000000000e+00" cType="1" res="1.0313534177839756e-02" rms="2.7415123581886292e-01" purity="7.5820338726043701e-01" nType="-99"/>
        </Node>
        <Node pos="r" depth="1" NCoef="0" IVar="81" Cut="-1.5807756185531616e+00" cType="1" res="6.1153449118137360e-02" rms="3.3882695436477661e-01" purity="2.4205599725246429e-01" nType="0">
          <Node pos="l" depth="2" NCoef="0" IVar="-1" Cut="0.0000000000000000e+00" cType="1" res="-7.1478444151580334e-03" rms="2.7584168314933777e-01" purity="1.9516012072563171e-01" nType="-99"/>
          <Node pos="r" depth="2" NCoef="0" IVar="-1" Cut="0.0000000000000000e+00" cType="1" res="5.5160276591777802e-02" rms="3.7458133697509766e-01" purity="2.8882181644439697e-01" nType="-99"/>
        </Node>
      </Node>
    </BinaryTree>
    <BinaryTree type="DecisionTree" boostWeight="1.0000000000000000e+00" itree="780">
      <Node pos="s" depth="0" NCoef="0" IVar="52" Cut="2.4036049842834473e+00" cType="1" res="1.6485364176332951e-03" rms="2.3978260159492493e-01" purity="4.9602362513542175e-01" nType="0">
        <Node pos="l" depth="1" NCoef="0" IVar="16" Cut="-9.9409359693527222e-01" cType="1" res="7.8122042119503021e-02" rms="3.1075733900070190e-01" purity="2.5058895349502563e-01" nType="0">
          <Node pos="l" depth="2" NCoef="0" IVar="-1" Cut="0.0000000000000000e+00" cType="1" res="5.9594444930553436e-02" rms="4.0302604436874390e-01" purity="3.9278170466423035e-01" nType="-99"/>
          <Node pos="r" depth="2" NCoef="0" IVar="-1" Cut="0.0000000000000000e+00" cType="1" res="-4.1483677923679352e-03" rms="1.6541215777397156e-01" purity="1.4047399163246155e-01" nType="-99"/>
        </Node>
        <Node pos="r" depth="1" NCoef="0" IVar="52" Cut="2.9076819419860840e+00" cType="1" res="-2.5008129887282848e-03" rms="2.3460827767848969e-01" purity="5.0934058427810669e-01" nType="0">
          <Node pos="l" depth="2" NCoef="0" IVar="-1" Cut="0.0000000000000000e+00" cType="1" res="-1.0637646540999413e-02" rms="1.8262559175491333e-01" purity="3.5932487249374390e-01" nType="-99"/>
          <Node pos="r" depth="2" NCoef="0" IVar="-1" Cut="0.0000000000000000e+00" cType="1" res="3.9717326872050762e-03" rms="2.5548198819160461e-01" purity="5.8433175086975098e-01" nType="-99"/>
        </Node>
      </Node>
    </BinaryTree>
    <BinaryTree type="DecisionTree" boostWeight="1.0000000000000000e+00" itree="781">
      <Node pos="s" depth="0" NCoef="0" IVar="62" Cut="4.0177601575851440e-01" cType="1" res="-6.8328143097460270e-03" rms="2.2030866146087646e-01" purity="4.9486434459686279e-01" nType="0">
        <Node pos="l" depth="1" NCoef="0" IVar="81" Cut="-1.1763598918914795e+00" cType="1" res="-9.5593445003032684e-03" rms="2.1371777355670929e-01" purity="4.9673610925674438e-01" nType="0">
          <Node pos="l" depth="2" NCoef="0" IVar="-1" Cut="0.0000000000000000e+00" cType="1" res="-1.4425942208617926e-04" rms="2.3539523780345917e-01" purity="5.5810481309890747e-01" nType="-99"/>
          <Node pos="r" depth="2" NCoef="0" IVar="-1" Cut="0.0000000000000000e+00" cType="1" res="-1.8932452425360680e-02" rms="5.9721015393733978e-02" purity="2.4249461293220520e-01" nType="-99"/>
        </Node>
        <Node pos="r" depth="1" NCoef="0" IVar="-1" Cut="0.0000000000000000e+00" cType="1" res="3.7528168410062790e-02" rms="4.0566661953926086e-01" purity="4.0831780433654785e-01" nType="-99"/>
      </Node>
    </BinaryTree>
    <BinaryTree type="DecisionTree" boostWeight="1.0000000000000000e+00" itree="782">
      <Node pos="s" depth="0" NCoef="0" IVar="25" Cut="8.5564339160919189e-01" cType="1" res="2.2655173670500517e-03" rms="2.4110822379589081e-01" purity="5.0165790319442749e-01" nType="0">
        <Node pos="l" depth="1" NCoef="0" IVar="39" Cut="-1.3488554954528809e+00" cType="1" res="-4.7457940876483917e-02" rms="1.5445306897163391e-01" purity="5.4700803756713867e-01" nType="0">
          <Node pos="l" depth="2" NCoef="0" IVar="-1" Cut="0.0000000000000000e+00" cType="1" res="-5.4029994644224644e-03" rms="2.1898853778839111e-01" purity="6.2940418720245361e-01" nType="-99"/>
          <Node pos="r" depth="2" NCoef="0" IVar="-1" Cut="0.0000000000000000e+00" cType="1" res="-6.3355885446071625e-02" rms="-nan" purity="1.8211670219898224e-01" nType="-99"/>
        </Node>
        <Node pos="r" depth="1" NCoef="0" IVar="20" Cut="3.3083605766296387e-01" cType="1" res="8.6784856393933296e-03" rms="2.4938729405403137e-01" purity="4.9580898880958557e-01" nType="0">
          <Node pos="l" depth="2" NCoef="0" IVar="-1" Cut="0.0000000000000000e+00" cType="1" res="1.8872097134590149e-03" rms="2.4385669827461243e-01" purity="5.0078409910202026e-01" nType="-99"/>
          <Node pos="r" depth="2" NCoef="0" IVar="-1" Cut="0.0000000000000000e+00" cType="1" res="3.3492688089609146e-02" rms="3.6126378178596497e-01" purity="3.5623854398727417e-01" nType="-99"/>
        </Node>
      </Node>
    </BinaryTree>
    <BinaryTree type="DecisionTree" boostWeight="1.0000000000000000e+00" itree="783">
      <Node pos="s" depth="0" NCoef="0" IVar="52" Cut="2.4972805976867676e+00" cType="1" res="8.1251179799437523e-03" rms="2.4579958617687225e-01" purity="5.0156337022781372e-01" nType="0">
        <Node pos="l" depth="1" NCoef="0" IVar="73" Cut="2.5838918685913086e+00" cType="1" res="7.6927646994590759e-02" rms="3.0811464786529541e-01" purity="2.4805362522602081e-01" nType="0">
          <Node pos="l" depth="2" NCoef="0" IVar="-1" Cut="0.0000000000000000e+00" cType="1" res="-6.2632083427160978e-04" rms="1.6422712802886963e-01" purity="1.3296712934970856e-01" nType="-99"/>
          <Node pos="r" depth="2" NCoef="0" IVar="-1" Cut="0.0000000000000000e+00" cType="1" res="4.9145873636007309e-02" rms="3.8379639387130737e-01" purity="3.5548564791679382e-01" nType="-99"/>
        </Node>
        <Node pos="r" depth="1" NCoef="0" IVar="17" Cut="-1.3765507936477661e+00" cType="1" res="1.9975267350673676e-03" rms="2.3850403726100922e-01" purity="5.2414113283157349e-01" nType="0">
          <Node pos="l" depth="2" NCoef="0" IVar="-1" Cut="0.0000000000000000e+00" cType="1" res="-9.7113348543643951e-02" rms="-nan" purity="-3.6102849990129471e-02" nType="-99"/>
          <Node pos="r" depth="2" NCoef="0" IVar="-1" Cut="0.0000000000000000e+00" cType="1" res="2.1742668468505144e-03" rms="2.5633570551872253e-01" purity="5.7375985383987427e-01" nType="-99"/>
        </Node>
      </Node>
    </BinaryTree>
    <BinaryTree type="DecisionTree" boostWeight="1.0000000000000000e+00" itree="784">
      <Node pos="s" depth="0" NCoef="0" IVar="27" Cut="2.2469267845153809e+00" cType="1" res="1.0984812397509813e-03" rms="2.3896077275276184e-01" purity="5.0550574064254761e-01" nType="0">
        <Node pos="l" depth="1" NCoef="0" IVar="2" Cut="2.6967365741729736e+00" cType="1" res="1.5517750754952431e-02" rms="2.5833082199096680e-01" purity="4.2649093270301819e-01" nType="0">
          <Node pos="l" depth="2" NCoef="0" IVar="-1" Cut="0.0000000000000000e+00" cType="1" res="2.1947000641375780e-03" rms="2.4530074000358582e-01" purity="3.8422462344169617e-01" nType="-99"/>
          <Node pos="r" depth="2" NCoef="0" IVar="-1" Cut="0.0000000000000000e+00" cType="1" res="1.7732804641127586e-02" rms="3.1312036514282227e-01" purity="6.4601701498031616e-01" nType="-99"/>
        </Node>
        <Node pos="r" depth="1" NCoef="0" IVar="13" Cut="-1.2225720882415771e+00" cType="1" res="-2.4752646684646606e-02" rms="1.9695630669593811e-01" purity="6.4716494083404541e-01" nType="0">
          <Node pos="l" depth="2" NCoef="0" IVar="-1" Cut="0.0000000000000000e+00" cType="1" res="-9.2514857649803162e-02" rms="-nan" purity="1.0397627949714661e-01" nType="-99"/>
          <Node pos="r" depth="2" NCoef="0" IVar="-1" Cut="0.0000000000000000e+00" cType="1" res="-3.8520745001733303e-03" rms="2.3381397128105164e-01" purity="6.9971990585327148e-01" nType="-99"/>
        </Node>
      </Node>
    </BinaryTree>
    <BinaryTree type="DecisionTree" boostWeight="1.0000000000000000e+00" itree="785">
      <Node pos="s" depth="0" NCoef="0" IVar="5" Cut="-1.8826657533645630e-01" cType="1" res="-3.0557431746274233e-03" rms="2.3196962475776672e-01" purity="4.9649196863174438e-01" nType="0">
        <Node pos="l" depth="1" NCoef="0" IVar="-1" Cut="0.0000000000000000e+00" cType="1" res="9.3089915812015533e-02" rms="3.4119057655334473e-01" purity="2.6332563161849976e-01" nType="-99"/>
        <Node pos="r" depth="1" NCoef="0" IVar="27" Cut="1.0420196056365967e+00" cType="1" res="-7.9473573714494705e-03" rms="2.2583290934562683e-01" purity="5.0415509939193726e-01" nType="0">
          <Node pos="l" depth="2" NCoef="0" IVar="-1" Cut="0.0000000000000000e+00" cType="1" res="-2.5292383506894112e-02" rms="-nan" purity="1.6747947037220001e-01" nType="-99"/>
          <Node pos="r" depth="2" NCoef="0" IVar="-1" Cut="0.0000000000000000e+00" cType="1" res="-5.0315906992182136e-04" rms="2.3853635787963867e-01" purity="5.4444456100463867e-01" nType="-99"/>
        </Node>
      </Node>
    </BinaryTree>
    <BinaryTree type="DecisionTree" boostWeight="1.0000000000000000e+00" itree="786">
      <Node pos="s" depth="0" NCoef="0" IVar="17" Cut="9.8295092582702637e-01" cType="1" res="-4.2449603788554668e-03" rms="2.2751629352569580e-01" purity="4.9223494529724121e-01" nType="0">
        <Node pos="l" depth="1" NCoef="0" IVar="5" Cut="3.8763783872127533e-02" cType="1" res="-4.9134962260723114e-02" rms="-nan" purity="-1.2366533279418945e-02" nType="-99"/>
        <Node pos="r" depth="1" NCoef="0" IVar="3" Cut="5.3964867591857910e+00" cType="1" res="6.0580861754715443e-03" rms="2.7199724316596985e-01" purity="6.2692028284072876e-01" nType="0">
          <Node pos="l" depth="2" NCoef="0" IVar="-1" Cut="0.0000000000000000e+00" cType="1" res="8.2149205263704062e-04" rms="2.6972836256027222e-01" purity="6.2892323732376099e-01" nType="-99"/>
          <Node pos="r" depth="2" NCoef="0" IVar="-1" Cut="0.0000000000000000e+00" cType="1" res="2.1184181794524193e-02" rms="3.2154920697212219e-01" purity="5.5706995725631714e-01" nType="-99"/>
        </Node>
      </Node>
    </BinaryTree>
    <BinaryTree type="DecisionTree" boostWeight="1.0000000000000000e+00" itree="787">
      <Node pos="s" depth="0" NCoef="0" IVar="50" Cut="-1.9391313195228577e-02" cType="1" res="1.2768850661814213e-02" rms="2.5481444597244263e-01" purity="5.1458168029785156e-01" nType="0">
        <Node pos="l" depth="1" NCoef="0" IVar="36" Cut="-4.4904413819313049e-01" cType="1" res="1.5461644157767296e-02" rms="2.5953525304794312e-01" purity="5.1808530092239380e-01" nType="0">
          <Node pos="l" depth="2" NCoef="0" IVar="-1" Cut="0.0000000000000000e+00" cType="1" res="2.5811932981014252e-02" rms="2.6682379841804504e-01" purity="1.3212774693965912e-01" nType="-99"/>
          <Node pos="r" depth="2" NCoef="0" IVar="-1" Cut="0.0000000000000000e+00" cType="1" res="2.2515447344630957e-03" rms="2.5705420970916748e-01" purity="6.1108183860778809e-01" nType="-99"/>
        </Node>
        <Node pos="r" depth="1" NCoef="0" IVar="-1" Cut="0.0000000000000000e+00" cType="1" res="-2.8207043185830116e-02" rms="-nan" purity="3.8285040855407715e-01" nType="-99"/>
      </Node>
    </BinaryTree>
    <BinaryTree type="DecisionTree" boostWeight="1.0000000000000000e+00" itree="788">
      <Node pos="s" depth="0" NCoef="0" IVar="82" Cut="1.6761260032653809e+00" cType="1" res="5.0440966151654720e-03" rms="2.4371819198131561e-01" purity="5.0226181745529175e-01" nType="0">
        <Node pos="l" depth="1" NCoef="0" IVar="56" Cut="-1.4152201414108276e+00" cType="1" res="1.0178345255553722e-03" rms="2.3757475614547729e-01" purity="5.0688475370407104e-01" nType="0">
          <Node pos="l" depth="2" NCoef="0" IVar="-1" Cut="0.0000000000000000e+00" cType="1" res="9.0623889118432999e-03" rms="2.5955092906951904e-01" purity="4.0728560090065002e-01" nType="-99"/>
          <Node pos="r" depth="2" NCoef="0" IVar="-1" Cut="0.0000000000000000e+00" cType="1" res="-2.6509293820708990e-03" rms="2.2860674560070038e-01" purity="5.4240047931671143e-01" nType="-99"/>
        </Node>
        <Node pos="r" depth="1" NCoef="0" IVar="-1" Cut="0.0000000000000000e+00" cType="1" res="5.9460904449224472e-02" rms="3.7716802954673767e-01" purity="3.4098166227340698e-01" nType="-99"/>
      </Node>
    </BinaryTree>
    <BinaryTree type="DecisionTree" boostWeight="1.0000000000000000e+00" itree="789">
      <Node pos="s" depth="0" NCoef="0" IVar="67" Cut="1.0692074298858643e+00" cType="1" res="-3.4377807751297951e-03" rms="2.2231705486774445e-01" purity="4.9898964166641235e-01" nType="0">
        <Node pos="l" depth="1" NCoef="0" IVar="60" Cut="-1.5969769954681396e+00" cType="1" res="5.9314072132110596e-03" rms="2.4198071658611298e-01" purity="5.3596049547195435e-01" nType="0">
          <Node pos="l" depth="2" NCoef="0" IVar="-1" Cut="0.0000000000000000e+00" cType="1" res="-2.5655145291239023e-03" rms="2.2019377350807190e-01" purity="6.0048460960388184e-01" nType="-99"/>
          <Node pos="r" depth="2" NCoef="0" IVar="-1" Cut="0.0000000000000000e+00" cType="1" res="1.1579546146094799e-02" rms="2.8043869137763977e-01" purity="3.9941304922103882e-01" nType="-99"/>
        </Node>
        <Node pos="r" depth="1" NCoef="0" IVar="78" Cut="-3.8698774576187134e-01" cType="1" res="-2.2251272574067116e-02" rms="-nan" purity="2.8977242112159729e-01" nType="-99"/>
      </Node>
    </BinaryTree>
    <BinaryTree type="DecisionTree" boostWeight="1.0000000000000000e+00" itree="790">
      <Node pos="s" depth="0" NCoef="0" IVar="6" Cut="1.5294444561004639e+00" cType="1" res="-2.5589065626263618e-04" rms="2.3553904891014099e-01" purity="4.9479895830154419e-01" nType="0">
        <Node pos="l" depth="1" NCoef="0" IVar="46" Cut="1.0126463174819946e+00" cType="1" res="3.6115705966949463e-02" rms="2.7867767214775085e-01" purity="3.0768832564353943e-01" nType="0">
          <Node pos="l" depth="2" NCoef="0" IVar="-1" Cut="0.0000000000000000e+00" cType="1" res="2.6515457779169083e-02" rms="3.3209344744682312e-01" purity="3.7751993536949158e-01" nType="-99"/>
          <Node pos="r" depth="2" NCoef="0" IVar="-1" Cut="0.0000000000000000e+00" cType="1" res="-2.5858068838715553e-02" rms="-nan" purity="1.3497765362262726e-01" nType="-99"/>
        </Node>
        <Node pos="r" depth="1" NCoef="0" IVar="48" Cut="1.5738685131072998e+00" cType="1" res="-7.5622396543622017e-03" rms="2.2517429292201996e-01" purity="5.3238588571548462e-01" nType="0">
          <Node pos="l" depth="2" NCoef="0" IVar="-1" Cut="0.0000000000000000e+00" cType="1" res="-1.4730288647115231e-02" rms="1.5329021215438843e-01" purity="3.0742576718330383e-01" nType="-99"/>
          <Node pos="r" depth="2" NCoef="0" IVar="-1" Cut="0.0000000000000000e+00" cType="1" res="1.4799571363255382e-03" rms="2.4442678689956665e-01" purity="6.1169886589050293e-01" nType="-99"/>
        </Node>
      </Node>
    </BinaryTree>
    <BinaryTree type="DecisionTree" boostWeight="1.0000000000000000e+00" itree="791">
      <Node pos="s" depth="0" NCoef="0" IVar="37" Cut="-5.2876245975494385e-01" cType="1" res="6.4667593687772751e-03" rms="2.4327434599399567e-01" purity="5.0393974781036377e-01" nType="0">
        <Node pos="l" depth="1" NCoef="0" IVar="38" Cut="-1.4541432857513428e+00" cType="1" res="1.9357871264219284e-02" rms="2.5968089699745178e-01" purity="5.3094840049743652e-01" nType="0">
          <Node pos="l" depth="2" NCoef="0" IVar="-1" Cut="0.0000000000000000e+00" cType="1" res="4.0189485996961594e-02" rms="3.2767531275749207e-01" purity="4.7877269983291626e-01" nType="-99"/>
          <Node pos="r" depth="2" NCoef="0" IVar="-1" Cut="0.0000000000000000e+00" cType="1" res="4.0208450518548489e-03" rms="2.5148904323577881e-01" purity="5.3559845685958862e-01" nType="-99"/>
        </Node>
        <Node pos="r" depth="1" NCoef="0" IVar="61" Cut="1.5158876180648804e+00" cType="1" res="-9.6978973597288132e-03" rms="2.1992164850234985e-01" purity="4.7007256746292114e-01" nType="0">
          <Node pos="l" depth="2" NCoef="0" IVar="-1" Cut="0.0000000000000000e+00" cType="1" res="-5.5254185572266579e-03" rms="2.1066479384899139e-01" purity="4.7568362951278687e-01" nType="-99"/>
          <Node pos="r" depth="2" NCoef="0" IVar="-1" Cut="0.0000000000000000e+00" cType="1" res="2.3756634443998337e-02" rms="3.2329654693603516e-01" purity="3.7675118446350098e-01" nType="-99"/>
        </Node>
      </Node>
    </BinaryTree>
    <BinaryTree type="DecisionTree" boostWeight="1.0000000000000000e+00" itree="792">
      <Node pos="s" depth="0" NCoef="0" IVar="35" Cut="1.3681235313415527e+00" cType="1" res="1.9003057386726141e-03" rms="2.3703494668006897e-01" purity="5.0087356567382812e-01" nType="0">
        <Node pos="l" depth="1" NCoef="0" IVar="84" Cut="2.3348498344421387e-01" cType="1" res="6.8714618682861328e-03" rms="2.4321906268596649e-01" purity="5.1274591684341431e-01" nType="0">
          <Node pos="l" depth="2" NCoef="0" IVar="-1" Cut="0.0000000000000000e+00" cType="1" res="4.7194645740091801e-03" rms="2.5439283251762390e-01" purity="5.2698558568954468e-01" nType="-99"/>
          <Node pos="r" depth="2" NCoef="0" IVar="-1" Cut="0.0000000000000000e+00" cType="1" res="-1.8030786886811256e-02" rms="1.1431797593832016e-01" purity="4.0312203764915466e-01" nType="-99"/>
        </Node>
        <Node pos="r" depth="1" NCoef="0" IVar="83" Cut="-6.3823483884334564e-02" cType="1" res="-6.6637396812438965e-02" rms="1.0099807381629944e-01" purity="3.3718907833099365e-01" nType="0">
          <Node pos="l" depth="2" NCoef="0" IVar="-1" Cut="0.0000000000000000e+00" cType="1" res="-6.5726079046726227e-02" rms="-nan" purity="3.0692365765571594e-01" nType="-99"/>
          <Node pos="r" depth="2" NCoef="0" IVar="-1" Cut="0.0000000000000000e+00" cType="1" res="-3.9699538610875607e-03" rms="2.3023122549057007e-01" purity="3.5173565149307251e-01" nType="-99"/>
        </Node>
      </Node>
    </BinaryTree>
    <BinaryTree type="DecisionTree" boostWeight="1.0000000000000000e+00" itree="793">
      <Node pos="s" depth="0" NCoef="0" IVar="67" Cut="8.0408746004104614e-01" cType="1" res="4.6147005632519722e-03" rms="2.3837938904762268e-01" purity="5.0626844167709351e-01" nType="0">
        <Node pos="l" depth="1" NCoef="0" IVar="-1" Cut="0.0000000000000000e+00" cType="1" res="2.7067670598626137e-02" rms="3.3824944496154785e-01" purity="6.5011548995971680e-01" nType="-99"/>
        <Node pos="r" depth="1" NCoef="0" IVar="13" Cut="-1.4154441356658936e+00" cType="1" res="4.8724879161454737e-04" rms="2.3195862770080566e-01" purity="4.9969941377639771e-01" nType="0">
          <Node pos="l" depth="2" NCoef="0" IVar="-1" Cut="0.0000000000000000e+00" cType="1" res="3.0875481665134430e-02" rms="2.6763102412223816e-01" purity="2.3490811884403229e-01" nType="-99"/>
          <Node pos="r" depth="2" NCoef="0" IVar="-1" Cut="0.0000000000000000e+00" cType="1" res="-1.7845978727564216e-03" rms="2.2730666399002075e-01" purity="5.2617073059082031e-01" nType="-99"/>
        </Node>
      </Node>
    </BinaryTree>
    <BinaryTree type="DecisionTree" boostWeight="1.0000000000000000e+00" itree="794">
      <Node pos="s" depth="0" NCoef="0" IVar="79" Cut="1.3965162038803101e+00" cType="1" res="6.5001002512872219e-03" rms="2.4330745637416840e-01" purity="4.9919658899307251e-01" nType="0">
        <Node pos="l" depth="1" NCoef="0" IVar="56" Cut="1.4450960159301758e+00" cType="1" res="9.6006235107779503e-03" rms="2.4980965256690979e-01" purity="5.1018607616424561e-01" nType="0">
          <Node pos="l" depth="2" NCoef="0" IVar="-1" Cut="0.0000000000000000e+00" cType="1" res="1.9338118145242333e-03" rms="2.4353526532649994e-01" purity="5.1472371816635132e-01" nType="-99"/>
          <Node pos="r" depth="2" NCoef="0" IVar="-1" Cut="0.0000000000000000e+00" cType="1" res="3.0260693281888962e-02" rms="3.4816145896911621e-01" purity="4.1389861702919006e-01" nType="-99"/>
        </Node>
        <Node pos="r" depth="1" NCoef="0" IVar="-1" Cut="0.0000000000000000e+00" cType="1" res="-6.4032100141048431e-02" rms="-nan" purity="8.6902827024459839e-02" nType="-99"/>
      </Node>
    </BinaryTree>
    <BinaryTree type="DecisionTree" boostWeight="1.0000000000000000e+00" itree="795">
      <Node pos="s" depth="0" NCoef="0" IVar="69" Cut="1.4428632259368896e+00" cType="1" res="3.7391630467027426e-03" rms="2.3790925741195679e-01" purity="5.0989061594009399e-01" nType="0">
        <Node pos="l" depth="1" NCoef="0" IVar="62" Cut="2.9363161325454712e-01" cType="1" res="2.8547547757625580e-02" rms="2.7306628227233887e-01" purity="3.4192594885826111e-01" nType="0">
          <Node pos="l" depth="2" NCoef="0" IVar="-1" Cut="0.0000000000000000e+00" cType="1" res="6.8571744486689568e-03" rms="2.5491213798522949e-01" purity="3.4157463908195496e-01" nType="-99"/>
          <Node pos="r" depth="2" NCoef="0" IVar="-1" Cut="0.0000000000000000e+00" cType="1" res="5.4462991654872894e-02" rms="4.2606726288795471e-01" purity="3.4641960263252258e-01" nType="-99"/>
        </Node>
        <Node pos="r" depth="1" NCoef="0" IVar="57" Cut="-4.4899329543113708e-01" cType="1" res="-9.5156412571668625e-03" rms="2.1563430130481720e-01" purity="5.9963202476501465e-01" nType="0">
          <Node pos="l" depth="2" NCoef="0" IVar="-1" Cut="0.0000000000000000e+00" cType="1" res="-4.6808101236820221e-02" rms="-nan" purity="-2.1203353535383940e-03" nType="-99"/>
          <Node pos="r" depth="2" NCoef="0" IVar="-1" Cut="0.0000000000000000e+00" cType="1" res="9.3020335771143436e-04" rms="2.5305703282356262e-01" purity="6.9400769472122192e-01" nType="-99"/>
        </Node>
      </Node>
    </BinaryTree>
    <BinaryTree type="DecisionTree" boostWeight="1.0000000000000000e+00" itree="796">
      <Node pos="s" depth="0" NCoef="0" IVar="79" Cut="-1.0260091722011566e-01" cType="1" res="2.7505771722644567e-03" rms="2.4491207301616669e-01" purity="5.0212734937667847e-01" nType="0">
        <Node pos="l" depth="1" NCoef="0" IVar="77" Cut="-1.4540113210678101e+00" cType="1" res="1.3660960830748081e-02" rms="2.6200750470161438e-01" purity="5.4473298788070679e-01" nType="0">
          <Node pos="l" depth="2" NCoef="0" IVar="-1" Cut="0.0000000000000000e+00" cType="1" res="-7.5497734360396862e-04" rms="2.4268081784248352e-01" purity="5.8905440568923950e-01" nType="-99"/>
          <Node pos="r" depth="2" NCoef="0" IVar="-1" Cut="0.0000000000000000e+00" cType="1" res="2.1092416718602180e-02" rms="3.0269625782966614e-01" purity="4.2939734458923340e-01" nType="-99"/>
        </Node>
        <Node pos="r" depth="1" NCoef="0" IVar="4" Cut="3.3684973716735840e+00" cType="1" res="-3.3007174730300903e-02" rms="1.7294847965240479e-01" purity="3.6249148845672607e-01" nType="0">
          <Node pos="l" depth="2" NCoef="0" IVar="-1" Cut="0.0000000000000000e+00" cType="1" res="2.1139731630682945e-02" rms="2.9386502504348755e-01" purity="1.8511465191841125e-01" nType="-99"/>
          <Node pos="r" depth="2" NCoef="0" IVar="-1" Cut="0.0000000000000000e+00" cType="1" res="-1.9081354141235352e-02" rms="1.2828515470027924e-01" purity="3.9959132671356201e-01" nType="-99"/>
        </Node>
      </Node>
    </BinaryTree>
    <BinaryTree type="DecisionTree" boostWeight="1.0000000000000000e+00" itree="797">
      <Node pos="s" depth="0" NCoef="0" IVar="77" Cut="2.0793066918849945e-01" cType="1" res="6.9520631805062294e-03" rms="2.4936817586421967e-01" purity="5.0063759088516235e-01" nType="0">
        <Node pos="l" depth="1" NCoef="0" IVar="19" Cut="7.7351218461990356e-01" cType="1" res="-2.7508722268976271e-05" rms="2.4321237206459045e-01" purity="5.3110009431838989e-01" nType="0">
          <Node pos="l" depth="2" NCoef="0" IVar="-1" Cut="0.0000000000000000e+00" cType="1" res="4.8222122713923454e-03" rms="2.6392260193824768e-01" purity="5.7996922731399536e-01" nType="-99"/>
          <Node pos="r" depth="2" NCoef="0" IVar="-1" Cut="0.0000000000000000e+00" cType="1" res="-6.7602018825709820e-03" rms="2.0630273222923279e-01" purity="4.5748531818389893e-01" nType="-99"/>
        </Node>
        <Node pos="r" depth="1" NCoef="0" IVar="5" Cut="3.4794622659683228e-01" cType="1" res="5.0535667687654495e-02" rms="2.8091880679130554e-01" purity="3.1041592359542847e-01" nType="0">
          <Node pos="l" depth="2" NCoef="0" IVar="-1" Cut="0.0000000000000000e+00" cType="1" res="6.6347634419798851e-03" rms="2.3235949873924255e-01" purity="3.1196624040603638e-01" nType="-99"/>
          <Node pos="r" depth="2" NCoef="0" IVar="-1" Cut="0.0000000000000000e+00" cType="1" res="6.2394477427005768e-02" rms="3.4993115067481995e-01" purity="3.0729162693023682e-01" nType="-99"/>
        </Node>
      </Node>
    </BinaryTree>
    <BinaryTree type="DecisionTree" boostWeight="1.0000000000000000e+00" itree="798">
      <Node pos="s" depth="0" NCoef="0" IVar="60" Cut="-1.5469666719436646e+00" cType="1" res="-6.0477051883935928e-03" rms="2.3022674024105072e-01" purity="4.9559426307678223e-01" nType="0">
        <Node pos="l" depth="1" NCoef="0" IVar="17" Cut="1.4858303070068359e+00" cType="1" res="-1.7131987959146500e-02" rms="2.1274621784687042e-01" purity="5.6742185354232788e-01" nType="0">
          <Node pos="l" depth="2" NCoef="0" IVar="-1" Cut="0.0000000000000000e+00" cType="1" res="-2.1479129791259766e-02" rms="-nan" purity="1.0339117795228958e-01" nType="-99"/>
          <Node pos="r" depth="2" NCoef="0" IVar="-1" Cut="0.0000000000000000e+00" cType="1" res="-3.6930563510395586e-04" rms="2.6841604709625244e-01" purity="7.8838855028152466e-01" nType="-99"/>
        </Node>
        <Node pos="r" depth="1" NCoef="0" IVar="82" Cut="1.5334233045578003e+00" cType="1" res="1.7499955371022224e-02" rms="2.6199060678482056e-01" purity="3.4300237894058228e-01" nType="0">
          <Node pos="l" depth="2" NCoef="0" IVar="-1" Cut="0.0000000000000000e+00" cType="1" res="2.6083728298544884e-03" rms="2.4870270490646362e-01" purity="3.4947121143341064e-01" nType="-99"/>
          <Node pos="r" depth="2" NCoef="0" IVar="-1" Cut="0.0000000000000000e+00" cType="1" res="8.8322728872299194e-02" rms="3.7391099333763123e-01" purity="2.5484907627105713e-01" nType="-99"/>
        </Node>
      </Node>
    </BinaryTree>
    <BinaryTree type="DecisionTree" boostWeight="1.0000000000000000e+00" itree="799">
      <Node pos="s" depth="0" NCoef="0" IVar="48" Cut="7.5283986330032349e-01" cType="1" res="4.3085389188490808e-04" rms="2.3558850586414337e-01" purity="5.0233513116836548e-01" nType="0">
        <Node pos="l" depth="1" NCoef="0" IVar="-1" Cut="0.0000000000000000e+00" cType="1" res="-4.3706521391868591e-02" rms="-nan" purity="8.8256321847438812e-02" nType="-99"/>
        <Node pos="r" depth="1" NCoef="0" IVar="78" Cut="-1.1500858068466187e+00" cType="1" res="3.6083145532757044e-03" rms="2.4033057689666748e-01" purity="5.1830005645751953e-01" nType="0">
          <Node pos="l" depth="2" NCoef="0" IVar="-1" Cut="0.0000000000000000e+00" cType="1" res="4.6698539517819881e-03" rms="2.6021248102188110e-01" purity="6.2173146009445190e-01" nType="-99"/>
          <Node pos="r" depth="2" NCoef="0" IVar="-1" Cut="0.0000000000000000e+00" cType="1" res="-7.6488372869789600e-03" rms="1.8728981912136078e-01" purity="2.9107549786567688e-01" nType="-99"/>
        </Node>
      </Node>
    </BinaryTree>
    <BinaryTree type="DecisionTree" boostWeight="1.0000000000000000e+00" itree="800">
      <Node pos="s" depth="0" NCoef="0" IVar="52" Cut="3.4616458415985107e+00" cType="1" res="-4.7676567919552326e-03" rms="2.3468334972858429e-01" purity="4.9372416734695435e-01" nType="0">
        <Node pos="l" depth="1" NCoef="0" IVar="54" Cut="1.2345679104328156e-02" cType="1" res="-1.0373969562351704e-02" rms="2.3045866191387177e-01" purity="4.8717552423477173e-01" nType="0">
          <Node pos="l" depth="2" NCoef="0" IVar="-1" Cut="0.0000000000000000e+00" cType="1" res="5.2833341760560870e-04" rms="2.4636322259902954e-01" purity="4.9465960264205933e-01" nType="-99"/>
          <Node pos="r" depth="2" NCoef="0" IVar="-1" Cut="0.0000000000000000e+00" cType="1" res="-1.2917710468173027e-02" rms="1.9374889135360718e-01" purity="4.7261613607406616e-01" nType="-99"/>
        </Node>
        <Node pos="r" depth="1" NCoef="0" IVar="34" Cut="-3.3793666958808899e-01" cType="1" res="5.6414857506752014e-02" rms="2.6913771033287048e-01" purity="5.6519061326980591e-01" nType="0">
          <Node pos="l" depth="2" NCoef="0" IVar="-1" Cut="0.0000000000000000e+00" cType="1" res="5.5854067206382751e-02" rms="3.5117778182029724e-01" purity="4.5747464895248413e-01" nType="-99"/>
          <Node pos="r" depth="2" NCoef="0" IVar="-1" Cut="0.0000000000000000e+00" cType="1" res="5.9231230989098549e-04" rms="1.9021208584308624e-01" purity="6.2394547462463379e-01" nType="-99"/>
        </Node>
      </Node>
    </BinaryTree>
    <BinaryTree type="DecisionTree" boostWeight="1.0000000000000000e+00" itree="801">
      <Node pos="s" depth="0" NCoef="0" IVar="84" Cut="-3.7155470252037048e-01" cType="1" res="-3.1263241544365883e-03" rms="2.2989220917224884e-01" purity="4.9862241744995117e-01" nType="0">
        <Node pos="l" depth="1" NCoef="0" IVar="36" Cut="1.3282512426376343e+00" cType="1" res="-6.2288563698530197e-02" rms="3.3969972282648087e-02" purity="4.5228177309036255e-01" nType="0">
          <Node pos="l" depth="2" NCoef="0" IVar="-1" Cut="0.0000000000000000e+00" cType="1" res="-6.8734206259250641e-02" rms="-nan" purity="-3.8949223235249519e-03" nType="-99"/>
          <Node pos="r" depth="2" NCoef="0" IVar="-1" Cut="0.0000000000000000e+00" cType="1" res="-6.6975881345570087e-03" rms="2.1639713644981384e-01" purity="6.5326440334320068e-01" nType="-99"/>
        </Node>
        <Node pos="r" depth="1" NCoef="0" IVar="4" Cut="4.1663560867309570e+00" cType="1" res="3.7044738419353962e-03" rms="2.4159564077854156e-01" purity="5.0397282838821411e-01" nType="0">
          <Node pos="l" depth="2" NCoef="0" IVar="-1" Cut="0.0000000000000000e+00" cType="1" res="6.8164605181664228e-05" rms="2.3746734857559204e-01" purity="5.0177359580993652e-01" nType="-99"/>
          <Node pos="r" depth="2" NCoef="0" IVar="-1" Cut="0.0000000000000000e+00" cType="1" res="4.0664929896593094e-02" rms="3.3274725079536438e-01" purity="5.7820540666580200e-01" nType="-99"/>
        </Node>
      </Node>
    </BinaryTree>
    <BinaryTree type="DecisionTree" boostWeight="1.0000000000000000e+00" itree="802">
      <Node pos="s" depth="0" NCoef="0" IVar="77" Cut="1.4446103572845459e+00" cType="1" res="3.7311036139726639e-03" rms="2.4719789624214172e-01" purity="4.9786034226417542e-01" nType="0">
        <Node pos="l" depth="1" NCoef="0" IVar="3" Cut="5.4296712875366211e+00" cType="1" res="-1.3018671779718716e-05" rms="2.4391414225101471e-01" purity="5.1264649629592896e-01" nType="0">
          <Node pos="l" depth="2" NCoef="0" IVar="-1" Cut="0.0000000000000000e+00" cType="1" res="1.0781981982290745e-03" rms="2.5242504477500916e-01" purity="5.2492243051528931e-01" nType="-99"/>
          <Node pos="r" depth="2" NCoef="0" IVar="-1" Cut="0.0000000000000000e+00" cType="1" res="-3.0565312132239342e-02" rms="-nan" purity="1.1889895051717758e-01" nType="-99"/>
        </Node>
        <Node pos="r" depth="1" NCoef="0" IVar="-1" Cut="0.0000000000000000e+00" cType="1" res="9.8728932440280914e-02" rms="3.0271914601325989e-01" purity="1.3916848599910736e-01" nType="-99"/>
      </Node>
    </BinaryTree>
    <BinaryTree type="DecisionTree" boostWeight="1.0000000000000000e+00" itree="803">
      <Node pos="s" depth="0" NCoef="0" IVar="39" Cut="-5.6139779090881348e-01" cType="1" res="5.3051505237817764e-03" rms="2.4487315118312836e-01" purity="5.0456315279006958e-01" nType="0">
        <Node pos="l" depth="1" NCoef="0" IVar="19" Cut="1.3125581741333008e+00" cType="1" res="1.9731719512492418e-03" rms="2.3928117752075195e-01" purity="5.1475006341934204e-01" nType="0">
          <Node pos="l" depth="2" NCoef="0" IVar="-1" Cut="0.0000000000000000e+00" cType="1" res="-9.2705292627215385e-04" rms="2.3064053058624268e-01" purity="5.2345335483551025e-01" nType="-99"/>
          <Node pos="r" depth="2" NCoef="0" IVar="-1" Cut="0.0000000000000000e+00" cType="1" res="2.4398429319262505e-02" rms="3.3176323771476746e-01" purity="3.9147320389747620e-01" nType="-99"/>
        </Node>
        <Node pos="r" depth="1" NCoef="0" IVar="79" Cut="-9.5859938859939575e-01" cType="1" res="8.2868821918964386e-02" rms="3.4163185954093933e-01" purity="2.6742652058601379e-01" nType="0">
          <Node pos="l" depth="2" NCoef="0" IVar="-1" Cut="0.0000000000000000e+00" cType="1" res="-1.3687937753275037e-03" rms="2.4184860289096832e-01" purity="2.1660140156745911e-01" nType="-99"/>
          <Node pos="r" depth="2" NCoef="0" IVar="-1" Cut="0.0000000000000000e+00" cType="1" res="7.3942802846431732e-02" rms="4.0194302797317505e-01" purity="3.2051962614059448e-01" nType="-99"/>
        </Node>
      </Node>
    </BinaryTree>
    <BinaryTree type="DecisionTree" boostWeight="1.0000000000000000e+00" itree="804">
      <Node pos="s" depth="0" NCoef="0" IVar="88" Cut="1.1993341445922852e+00" cType="1" res="5.5529973469674587e-03" rms="2.4273748695850372e-01" purity="5.0447714328765869e-01" nType="0">
        <Node pos="l" depth="1" NCoef="0" IVar="60" Cut="-9.4751209020614624e-01" cType="1" res="7.1357161505147815e-04" rms="2.3672752082347870e-01" purity="5.2299523353576660e-01" nType="0">
          <Node pos="l" depth="2" NCoef="0" IVar="-1" Cut="0.0000000000000000e+00" cType="1" res="2.9284465126693249e-03" rms="2.4941638112068176e-01" purity="5.6690645217895508e-01" nType="-99"/>
          <Node pos="r" depth="2" NCoef="0" IVar="-1" Cut="0.0000000000000000e+00" cType="1" res="-2.1882491186261177e-02" rms="7.6998516917228699e-02" purity="1.9640976190567017e-01" nType="-99"/>
        </Node>
        <Node pos="r" depth="1" NCoef="0" IVar="34" Cut="-9.9153566360473633e-01" cType="1" res="6.7586295306682587e-02" rms="3.0283665657043457e-01" purity="2.6710644364356995e-01" nType="0">
          <Node pos="l" depth="2" NCoef="0" IVar="-1" Cut="0.0000000000000000e+00" cType="1" res="1.4556749165058136e-01" rms="4.1843080520629883e-01" purity="3.0146211385726929e-01" nType="-99"/>
          <Node pos="r" depth="2" NCoef="0" IVar="-1" Cut="0.0000000000000000e+00" cType="1" res="3.4174579195678234e-03" rms="2.1698069572448730e-01" purity="2.5402429699897766e-01" nType="-99"/>
        </Node>
      </Node>
    </BinaryTree>
    <BinaryTree type="DecisionTree" boostWeight="1.0000000000000000e+00" itree="805">
      <Node pos="s" depth="0" NCoef="0" IVar="3" Cut="5.4618353843688965e+00" cType="1" res="-7.4291962664574385e-04" rms="2.4004100263118744e-01" purity="4.9605157971382141e-01" nType="0">
        <Node pos="l" depth="1" NCoef="0" IVar="31" Cut="2.2946836948394775e+00" cType="1" res="2.0828985143452883e-03" rms="2.4804654717445374e-01" purity="5.0704073905944824e-01" nType="0">
          <Node pos="l" depth="2" NCoef="0" IVar="-1" Cut="0.0000000000000000e+00" cType="1" res="-4.4796045869588852e-02" rms="-nan" purity="5.5593397468328476e-02" nType="-99"/>
          <Node pos="r" depth="2" NCoef="0" IVar="-1" Cut="0.0000000000000000e+00" cType="1" res="1.6059499466791749e-03" rms="2.5142982602119446e-01" purity="5.1692909002304077e-01" nType="-99"/>
        </Node>
        <Node pos="r" depth="1" NCoef="0" IVar="-1" Cut="0.0000000000000000e+00" cType="1" res="-3.0903942883014679e-02" rms="-nan" purity="1.0319872200489044e-01" nType="-99"/>
      </Node>
    </BinaryTree>
    <BinaryTree type="DecisionTree" boostWeight="1.0000000000000000e+00" itree="806">
      <Node pos="s" depth="0" NCoef="0" IVar="10" Cut="3.7796692848205566e+00" cType="1" res="-5.9256483800709248e-03" rms="2.2298140823841095e-01" purity="4.9792489409446716e-01" nType="0">
        <Node pos="l" depth="1" NCoef="0" IVar="18" Cut="-1.7415317296981812e+00" cType="1" res="-3.5989636089652777e-03" rms="2.2807663679122925e-01" purity="5.0030374526977539e-01" nType="0">
          <Node pos="l" depth="2" NCoef="0" IVar="-1" Cut="0.0000000000000000e+00" cType="1" res="2.2650631144642830e-03" rms="2.5209292769432068e-01" purity="5.6421786546707153e-01" nType="-99"/>
          <Node pos="r" depth="2" NCoef="0" IVar="-1" Cut="0.0000000000000000e+00" cType="1" res="-8.2271732389926910e-03" rms="1.7070496082305908e-01" purity="3.7678775191307068e-01" nType="-99"/>
        </Node>
        <Node pos="r" depth="1" NCoef="0" IVar="-1" Cut="0.0000000000000000e+00" cType="1" res="-3.9473835378885269e-02" rms="-nan" purity="3.9058780670166016e-01" nType="-99"/>
      </Node>
    </BinaryTree>
    <BinaryTree type="DecisionTree" boostWeight="1.0000000000000000e+00" itree="807">
      <Node pos="s" depth="0" NCoef="0" IVar="55" Cut="-6.0576868057250977e-01" cType="1" res="-2.8632816392928362e-03" rms="2.3427093029022217e-01" purity="4.9976685643196106e-01" nType="0">
        <Node pos="l" depth="1" NCoef="0" IVar="39" Cut="-1.2450805902481079e+00" cType="1" res="-1.8779542297124863e-02" rms="-nan" purity="1.9974248111248016e-01" nType="-99"/>
        <Node pos="r" depth="1" NCoef="0" IVar="55" Cut="1.4736956357955933e+00" cType="1" res="6.3650729134678841e-03" rms="2.6207202672958374e-01" purity="5.7006669044494629e-01" nType="0">
          <Node pos="l" depth="2" NCoef="0" IVar="-1" Cut="0.0000000000000000e+00" cType="1" res="1.1122073978185654e-02" rms="2.8269380331039429e-01" purity="4.0735715627670288e-01" nType="-99"/>
          <Node pos="r" depth="2" NCoef="0" IVar="-1" Cut="0.0000000000000000e+00" cType="1" res="-3.7952361162751913e-03" rms="2.4712909758090973e-01" purity="6.6810876131057739e-01" nType="-99"/>
        </Node>
      </Node>
    </BinaryTree>
    <BinaryTree type="DecisionTree" boostWeight="1.0000000000000000e+00" itree="808">
      <Node pos="s" depth="0" NCoef="0" IVar="4" Cut="3.3555207252502441e+00" cType="1" res="-9.2301629483699799e-03" rms="2.2076925635337830e-01" purity="5.0091123580932617e-01" nType="0">
        <Node pos="l" depth="1" NCoef="0" IVar="88" Cut="8.6038285493850708e-01" cType="1" res="-4.9653828144073486e-02" rms="1.1407335102558136e-01" purity="1.6667000949382782e-01" nType="0">
          <Node pos="l" depth="2" NCoef="0" IVar="-1" Cut="0.0000000000000000e+00" cType="1" res="3.7565700709819794e-02" rms="3.9569288492202759e-01" purity="3.2728585600852966e-01" nType="-99"/>
          <Node pos="r" depth="2" NCoef="0" IVar="-1" Cut="0.0000000000000000e+00" cType="1" res="-3.1380727887153625e-02" rms="-nan" purity="1.2986312806606293e-01" nType="-99"/>
        </Node>
        <Node pos="r" depth="1" NCoef="0" IVar="40" Cut="1.4742578268051147e+00" cType="1" res="-3.2089834567159414e-03" rms="2.3190712928771973e-01" purity="5.5069702863693237e-01" nType="0">
          <Node pos="l" depth="2" NCoef="0" IVar="-1" Cut="0.0000000000000000e+00" cType="1" res="-2.8467210941016674e-03" rms="2.2416612505912781e-01" purity="5.6278043985366821e-01" nType="-99"/>
          <Node pos="r" depth="2" NCoef="0" IVar="-1" Cut="0.0000000000000000e+00" cType="1" res="2.9810195788741112e-02" rms="3.2575064897537231e-01" purity="3.4569272398948669e-01" nType="-99"/>
        </Node>
      </Node>
    </BinaryTree>
    <BinaryTree type="DecisionTree" boostWeight="1.0000000000000000e+00" itree="809">
      <Node pos="s" depth="0" NCoef="0" IVar="4" Cut="3.4936139583587646e+00" cType="1" res="4.7051324509084225e-03" rms="2.4010007083415985e-01" purity="4.9210810661315918e-01" nType="0">
        <Node pos="l" depth="1" NCoef="0" IVar="34" Cut="1.0893867015838623e+00" cType="1" res="3.0757742002606392e-02" rms="2.8451824188232422e-01" purity="2.9537519812583923e-01" nType="0">
          <Node pos="l" depth="2" NCoef="0" IVar="-1" Cut="0.0000000000000000e+00" cType="1" res="2.8891721740365028e-02" rms="3.1601095199584961e-01" purity="2.0002576708793640e-01" nType="-99"/>
          <Node pos="r" depth="2" NCoef="0" IVar="-1" Cut="0.0000000000000000e+00" cType="1" res="-1.6231086920015514e-04" rms="2.5488042831420898e-01" purity="3.6419758200645447e-01" nType="-99"/>
        </Node>
        <Node pos="r" depth="1" NCoef="0" IVar="13" Cut="-1.4540549516677856e+00" cType="1" res="-6.1300140805542469e-03" rms="2.1807554364204407e-01" purity="5.7392829656600952e-01" nType="0">
          <Node pos="l" depth="2" NCoef="0" IVar="-1" Cut="0.0000000000000000e+00" cType="1" res="-4.0553897619247437e-02" rms="-nan" purity="1.4322894811630249e-01" nType="-99"/>
          <Node pos="r" depth="2" NCoef="0" IVar="-1" Cut="0.0000000000000000e+00" cType="1" res="-2.4446757743135095e-04" rms="2.3401337862014771e-01" purity="5.9775727987289429e-01" nType="-99"/>
        </Node>
      </Node>
    </BinaryTree>
    <BinaryTree type="DecisionTree" boostWeight="1.0000000000000000e+00" itree="810">
      <Node pos="s" depth="0" NCoef="0" IVar="18" Cut="-5.8344244956970215e-01" cType="1" res="6.7749060690402985e-03" rms="2.4475340545177460e-01" purity="4.9910134077072144e-01" nType="0">
        <Node pos="l" depth="1" NCoef="0" IVar="82" Cut="1.5907248258590698e+00" cType="1" res="9.4954110682010651e-03" rms="2.4760325253009796e-01" purity="5.0796324014663696e-01" nType="0">
          <Node pos="l" depth="2" NCoef="0" IVar="-1" Cut="0.0000000000000000e+00" cType="1" res="4.3007670901715755e-03" rms="2.5508263707160950e-01" purity="5.1939660310745239e-01" nType="-99"/>
          <Node pos="r" depth="2" NCoef="0" IVar="-1" Cut="0.0000000000000000e+00" cType="1" res="-3.2731167972087860e-02" rms="-nan" purity="1.9701176881790161e-01" nType="-99"/>
        </Node>
        <Node pos="r" depth="1" NCoef="0" IVar="-1" Cut="0.0000000000000000e+00" cType="1" res="-3.2889507710933685e-02" rms="-nan" purity="1.6803163290023804e-01" nType="-99"/>
      </Node>
    </BinaryTree>
    <BinaryTree type="DecisionTree" boostWeight="1.0000000000000000e+00" itree="811">
      <Node pos="s" depth="0" NCoef="0" IVar="59" Cut="-1.4541461467742920e+00" cType="1" res="9.8094125860370696e-05" rms="2.3478963971138000e-01" purity="5.0185340642929077e-01" nType="0">
        <Node pos="l" depth="1" NCoef="0" IVar="1" Cut="2.6977715492248535e+00" cType="1" res="-2.7277590706944466e-02" rms="-nan" purity="3.3705323934555054e-01" nType="-99"/>
        <Node pos="r" depth="1" NCoef="0" IVar="0" Cut="1.4162441492080688e+00" cType="1" res="5.9072654694318771e-03" rms="2.4883876740932465e-01" purity="5.1539772748947144e-01" nType="0">
          <Node pos="l" depth="2" NCoef="0" IVar="-1" Cut="0.0000000000000000e+00" cType="1" res="3.0390294268727303e-03" rms="2.5364276766777039e-01" purity="5.2614736557006836e-01" nType="-99"/>
          <Node pos="r" depth="2" NCoef="0" IVar="-1" Cut="0.0000000000000000e+00" cType="1" res="-2.8467988595366478e-02" rms="-nan" purity="2.4877943098545074e-01" nType="-99"/>
        </Node>
      </Node>
    </BinaryTree>
    <BinaryTree type="DecisionTree" boostWeight="1.0000000000000000e+00" itree="812">
      <Node pos="s" depth="0" NCoef="0" IVar="31" Cut="2.5199050903320312e+00" cType="1" res="6.0658506117761135e-03" rms="2.4581407010555267e-01" purity="5.0420731306076050e-01" nType="0">
        <Node pos="l" depth="1" NCoef="0" IVar="58" Cut="1.0064392089843750e+00" cType="1" res="6.3788741827011108e-02" rms="3.1782075762748718e-01" purity="2.3451448976993561e-01" nType="0">
          <Node pos="l" depth="2" NCoef="0" IVar="-1" Cut="0.0000000000000000e+00" cType="1" res="8.8026784360408783e-03" rms="2.6501503586769104e-01" purity="1.9160099327564240e-01" nType="-99"/>
          <Node pos="r" depth="2" NCoef="0" IVar="-1" Cut="0.0000000000000000e+00" cType="1" res="7.1377098560333252e-02" rms="4.2330682277679443e-01" purity="3.7544471025466919e-01" nType="-99"/>
        </Node>
        <Node pos="r" depth="1" NCoef="0" IVar="5" Cut="4.9776592850685120e-01" cType="1" res="2.3127012536861002e-04" rms="2.3654045164585114e-01" purity="5.3146767616271973e-01" nType="0">
          <Node pos="l" depth="2" NCoef="0" IVar="-1" Cut="0.0000000000000000e+00" cType="1" res="1.5279176877811551e-03" rms="2.4310706555843353e-01" purity="5.5227774381637573e-01" nType="-99"/>
          <Node pos="r" depth="2" NCoef="0" IVar="-1" Cut="0.0000000000000000e+00" cType="1" res="-2.9187995940446854e-02" rms="-nan" purity="1.3170054554939270e-01" nType="-99"/>
        </Node>
      </Node>
    </BinaryTree>
    <BinaryTree type="DecisionTree" boostWeight="1.0000000000000000e+00" itree="813">
      <Node pos="s" depth="0" NCoef="0" IVar="67" Cut="7.9629629850387573e-01" cType="1" res="2.0365293603390455e-03" rms="2.3378577828407288e-01" purity="5.0238704681396484e-01" nType="0">
        <Node pos="l" depth="1" NCoef="0" IVar="-1" Cut="0.0000000000000000e+00" cType="1" res="2.7477463707327843e-02" rms="3.6267697811126709e-01" purity="6.2217086553573608e-01" nType="-99"/>
        <Node pos="r" depth="1" NCoef="0" IVar="5" Cut="5.3458452224731445e-01" cType="1" res="-8.8838912779465318e-04" rms="2.2781765460968018e-01" purity="4.9852097034454346e-01" nType="0">
          <Node pos="l" depth="2" NCoef="0" IVar="-1" Cut="0.0000000000000000e+00" cType="1" res="6.0519343242049217e-04" rms="2.3342923820018768e-01" purity="5.0814342498779297e-01" nType="-99"/>
          <Node pos="r" depth="2" NCoef="0" IVar="-1" Cut="0.0000000000000000e+00" cType="1" res="-4.9848187714815140e-02" rms="-nan" purity="4.6580974012613297e-02" nType="-99"/>
        </Node>
      </Node>
    </BinaryTree>
    <BinaryTree type="DecisionTree" boostWeight="1.0000000000000000e+00" itree="814">
      <Node pos="s" depth="0" NCoef="0" IVar="58" Cut="-1.8177278339862823e-01" cType="1" res="3.7475954741239548e-03" rms="2.4043640494346619e-01" purity="5.0310868024826050e-01" nType="0">
        <Node pos="l" depth="1" NCoef="0" IVar="14" Cut="1.3670064210891724e+00" cType="1" res="1.7033543437719345e-02" rms="2.5797724723815918e-01" purity="5.2488762140274048e-01" nType="0">
          <Node pos="l" depth="2" NCoef="0" IVar="-1" Cut="0.0000000000000000e+00" cType="1" res="4.0424861945211887e-03" rms="2.4889546632766724e-01" purity="5.2771526575088501e-01" nType="-99"/>
          <Node pos="r" depth="2" NCoef="0" IVar="-1" Cut="0.0000000000000000e+00" cType="1" res="4.2802747339010239e-02" rms="4.0004736185073853e-01" purity="4.5820337533950806e-01" nType="-99"/>
        </Node>
        <Node pos="r" depth="1" NCoef="0" IVar="83" Cut="-2.3228786885738373e-01" cType="1" res="-2.0722687244415283e-02" rms="2.0194920897483826e-01" purity="4.6299570798873901e-01" nType="0">
          <Node pos="l" depth="2" NCoef="0" IVar="-1" Cut="0.0000000000000000e+00" cType="1" res="2.4124834686517715e-02" rms="3.4954527020454407e-01" purity="6.0421198606491089e-01" nType="-99"/>
          <Node pos="r" depth="2" NCoef="0" IVar="-1" Cut="0.0000000000000000e+00" cType="1" res="-1.3398983515799046e-02" rms="1.4709272980690002e-01" purity="4.3296781182289124e-01" nType="-99"/>
        </Node>
      </Node>
    </BinaryTree>
    <BinaryTree type="DecisionTree" boostWeight="1.0000000000000000e+00" itree="815">
      <Node pos="s" depth="0" NCoef="0" IVar="16" Cut="-1.2999510765075684e+00" cType="1" res="-1.0682883439585567e-03" rms="2.3382034897804260e-01" purity="5.0109148025512695e-01" nType="0">
        <Node pos="l" depth="1" NCoef="0" IVar="36" Cut="1.4053938388824463e+00" cType="1" res="5.1192760467529297e-02" rms="2.9522290825843811e-01" purity="3.5355249047279358e-01" nType="0">
          <Node pos="l" depth="2" NCoef="0" IVar="-1" Cut="0.0000000000000000e+00" cType="1" res="4.2675226926803589e-02" rms="3.3159139752388000e-01" purity="2.5926885008811951e-01" nType="-99"/>
          <Node pos="r" depth="2" NCoef="0" IVar="-1" Cut="0.0000000000000000e+00" cType="1" res="-5.1786135882139206e-03" rms="2.2606033086776733e-01" purity="4.6761679649353027e-01" nType="-99"/>
        </Node>
        <Node pos="r" depth="1" NCoef="0" IVar="58" Cut="-9.5444852113723755e-01" cType="1" res="-6.6917589865624905e-03" rms="2.2550162672996521e-01" purity="5.1696729660034180e-01" nType="0">
          <Node pos="l" depth="2" NCoef="0" IVar="-1" Cut="0.0000000000000000e+00" cType="1" res="5.7278075255453587e-03" rms="2.6043528318405151e-01" purity="5.2016699314117432e-01" nType="-99"/>
          <Node pos="r" depth="2" NCoef="0" IVar="-1" Cut="0.0000000000000000e+00" cType="1" res="-7.3465039022266865e-03" rms="1.9855113327503204e-01" purity="5.1492202281951904e-01" nType="-99"/>
        </Node>
      </Node>
    </BinaryTree>
    <BinaryTree type="DecisionTree" boostWeight="1.0000000000000000e+00" itree="816">
      <Node pos="s" depth="0" NCoef="0" IVar="19" Cut="1.3666402101516724e+00" cType="1" res="3.0909301713109016e-03" rms="2.4129343032836914e-01" purity="5.0317060947418213e-01" nType="0">
        <Node pos="l" depth="1" NCoef="0" IVar="48" Cut="8.9364993572235107e-01" cType="1" res="-1.3395444257184863e-03" rms="2.3282033205032349e-01" purity="5.1035273075103760e-01" nType="0">
          <Node pos="l" depth="2" NCoef="0" IVar="-1" Cut="0.0000000000000000e+00" cType="1" res="2.0350839942693710e-02" rms="3.1209367513656616e-01" purity="2.7036857604980469e-01" nType="-99"/>
          <Node pos="r" depth="2" NCoef="0" IVar="-1" Cut="0.0000000000000000e+00" cType="1" res="-2.0573060028254986e-03" rms="2.2359675168991089e-01" purity="5.3230589628219604e-01" nType="-99"/>
        </Node>
        <Node pos="r" depth="1" NCoef="0" IVar="88" Cut="9.1045045852661133e-01" cType="1" res="7.6140403747558594e-02" rms="3.4467127919197083e-01" purity="3.8475194573402405e-01" nType="0">
          <Node pos="l" depth="2" NCoef="0" IVar="-1" Cut="0.0000000000000000e+00" cType="1" res="6.8922899663448334e-02" rms="4.2767548561096191e-01" purity="5.2031975984573364e-01" nType="-99"/>
          <Node pos="r" depth="2" NCoef="0" IVar="-1" Cut="0.0000000000000000e+00" cType="1" res="4.5412494800984859e-03" rms="2.6957207918167114e-01" purity="3.1128659844398499e-01" nType="-99"/>
        </Node>
      </Node>
    </BinaryTree>
    <BinaryTree type="DecisionTree" boostWeight="1.0000000000000000e+00" itree="817">
      <Node pos="s" depth="0" NCoef="0" IVar="55" Cut="-1.4155099391937256e+00" cType="1" res="6.7129801027476788e-03" rms="2.4531494081020355e-01" purity="5.0290298461914062e-01" nType="0">
        <Node pos="l" depth="1" NCoef="0" IVar="52" Cut="3.0922429561614990e+00" cType="1" res="6.4882263541221619e-02" rms="2.7711963653564453e-01" purity="3.5536789894104004e-01" nType="0">
          <Node pos="l" depth="2" NCoef="0" IVar="-1" Cut="0.0000000000000000e+00" cType="1" res="5.6688375771045685e-02" rms="3.6264801025390625e-01" purity="3.1929659843444824e-01" nType="-99"/>
          <Node pos="r" depth="2" NCoef="0" IVar="-1" Cut="0.0000000000000000e+00" cType="1" res="-3.4468574449419975e-03" rms="8.9604564011096954e-02" purity="3.9367988705635071e-01" nType="-99"/>
        </Node>
        <Node pos="r" depth="1" NCoef="0" IVar="88" Cut="8.3707863092422485e-01" cType="1" res="-3.7582046934403479e-04" rms="2.4019144475460052e-01" purity="5.2088230848312378e-01" nType="0">
          <Node pos="l" depth="2" NCoef="0" IVar="-1" Cut="0.0000000000000000e+00" cType="1" res="-2.0339515060186386e-02" rms="1.9731481373310089e-01" purity="5.0491929054260254e-01" nType="-99"/>
          <Node pos="r" depth="2" NCoef="0" IVar="-1" Cut="0.0000000000000000e+00" cType="1" res="1.6165060224011540e-03" rms="2.4261692166328430e-01" purity="5.2217376232147217e-01" nType="-99"/>
        </Node>
      </Node>
    </BinaryTree>
    <BinaryTree type="DecisionTree" boostWeight="1.0000000000000000e+00" itree="818">
      <Node pos="s" depth="0" NCoef="0" IVar="3" Cut="5.5309634208679199e+00" cType="1" res="-2.4806454312056303e-03" rms="2.3557077348232269e-01" purity="5.0314205884933472e-01" nType="0">
        <Node pos="l" depth="1" NCoef="0" IVar="40" Cut="3.7521085143089294e-01" cType="1" res="-5.7205655612051487e-03" rms="2.3043952882289886e-01" purity="5.0745218992233276e-01" nType="0">
          <Node pos="l" depth="2" NCoef="0" IVar="-1" Cut="0.0000000000000000e+00" cType="1" res="8.9433668181300163e-03" rms="2.8915381431579590e-01" purity="6.1684811115264893e-01" nType="-99"/>
          <Node pos="r" depth="2" NCoef="0" IVar="-1" Cut="0.0000000000000000e+00" cType="1" res="-4.6783685684204102e-03" rms="2.1470825374126434e-01" purity="4.8345944285392761e-01" nType="-99"/>
        </Node>
        <Node pos="r" depth="1" NCoef="0" IVar="-1" Cut="0.0000000000000000e+00" cType="1" res="5.7757627218961716e-02" rms="3.8242918252944946e-01" purity="2.9414603114128113e-01" nType="-99"/>
      </Node>
    </BinaryTree>
    <BinaryTree type="DecisionTree" boostWeight="1.0000000000000000e+00" itree="819">
      <Node pos="s" depth="0" NCoef="0" IVar="4" Cut="3.2748885154724121e+00" cType="1" res="3.2190809724852443e-04" rms="2.2711613774299622e-01" purity="5.0273042917251587e-01" nType="0">
        <Node pos="l" depth="1" NCoef="0" IVar="10" Cut="2.8792164325714111e+00" cType="1" res="-3.0403440818190575e-02" rms="-nan" purity="1.2942999601364136e-01" nType="-99"/>
        <Node pos="r" depth="1" NCoef="0" IVar="82" Cut="1.4146378040313721e+00" cType="1" res="5.3283558227121830e-03" rms="2.3646058142185211e-01" purity="5.2287042140960693e-01" nType="0">
          <Node pos="l" depth="2" NCoef="0" IVar="-1" Cut="0.0000000000000000e+00" cType="1" res="3.4427465870976448e-03" rms="2.4611943960189819e-01" purity="5.4747086763381958e-01" nType="-99"/>
          <Node pos="r" depth="2" NCoef="0" IVar="-1" Cut="0.0000000000000000e+00" cType="1" res="-2.7302464470267296e-02" rms="-nan" purity="1.6443529725074768e-01" nType="-99"/>
        </Node>
      </Node>
    </BinaryTree>
    <BinaryTree type="DecisionTree" boostWeight="1.0000000000000000e+00" itree="820">
      <Node pos="s" depth="0" NCoef="0" IVar="14" Cut="-1.3377510309219360e+00" cType="1" res="-3.4749591723084450e-03" rms="2.3596258461475372e-01" purity="4.9298498034477234e-01" nType="0">
        <Node pos="l" depth="1" NCoef="0" IVar="39" Cut="-1.4560575485229492e+00" cType="1" res="-4.6798307448625565e-02" rms="1.0680316388607025e-01" purity="2.9332903027534485e-01" nType="0">
          <Node pos="l" depth="2" NCoef="0" IVar="-1" Cut="0.0000000000000000e+00" cType="1" res="-4.6461103484034538e-03" rms="2.0425528287887573e-01" purity="3.8208389282226562e-01" nType="-99"/>
          <Node pos="r" depth="2" NCoef="0" IVar="-1" Cut="0.0000000000000000e+00" cType="1" res="-5.8632515370845795e-02" rms="-nan" purity="5.7987984269857407e-02" nType="-99"/>
        </Node>
        <Node pos="r" depth="1" NCoef="0" IVar="84" Cut="2.3348498344421387e-01" cType="1" res="7.1567329578101635e-03" rms="2.5684443116188049e-01" purity="5.4198122024536133e-01" nType="0">
          <Node pos="l" depth="2" NCoef="0" IVar="-1" Cut="0.0000000000000000e+00" cType="1" res="5.2307029254734516e-03" rms="2.7236700057983398e-01" purity="5.5777698755264282e-01" nType="-99"/>
          <Node pos="r" depth="2" NCoef="0" IVar="-1" Cut="0.0000000000000000e+00" cType="1" res="-2.1594488993287086e-02" rms="-nan" purity="4.1446995735168457e-01" nType="-99"/>
        </Node>
      </Node>
    </BinaryTree>
    <BinaryTree type="DecisionTree" boostWeight="1.0000000000000000e+00" itree="821">
      <Node pos="s" depth="0" NCoef="0" IVar="31" Cut="2.5791132450103760e+00" cType="1" res="6.5850052051246166e-03" rms="2.4096317589282990e-01" purity="5.0837147235870361e-01" nType="0">
        <Node pos="l" depth="1" NCoef="0" IVar="14" Cut="-3.3372882008552551e-01" cType="1" res="-4.9448739737272263e-02" rms="1.3359148800373077e-01" purity="1.3667440414428711e-01" nType="0">
          <Node pos="l" depth="2" NCoef="0" IVar="-1" Cut="0.0000000000000000e+00" cType="1" res="-4.4806499034166336e-02" rms="-nan" purity="7.1953333914279938e-02" nType="-99"/>
          <Node pos="r" depth="2" NCoef="0" IVar="-1" Cut="0.0000000000000000e+00" cType="1" res="2.2803831845521927e-02" rms="3.1723713874816895e-01" purity="2.6074022054672241e-01" nType="-99"/>
        </Node>
        <Node pos="r" depth="1" NCoef="0" IVar="37" Cut="-1.4927642345428467e+00" cType="1" res="1.3364881277084351e-02" rms="2.5000688433647156e-01" purity="5.5334544181823730e-01" nType="0">
          <Node pos="l" depth="2" NCoef="0" IVar="-1" Cut="0.0000000000000000e+00" cType="1" res="4.5102816075086594e-02" rms="3.3490493893623352e-01" purity="3.8267251849174500e-01" nType="-99"/>
          <Node pos="r" depth="2" NCoef="0" IVar="-1" Cut="0.0000000000000000e+00" cType="1" res="3.5164435394108295e-03" rms="2.4688185751438141e-01" purity="5.5740457773208618e-01" nType="-99"/>
        </Node>
      </Node>
    </BinaryTree>
    <BinaryTree type="DecisionTree" boostWeight="1.0000000000000000e+00" itree="822">
      <Node pos="s" depth="0" NCoef="0" IVar="3" Cut="4.3809280395507812e+00" cType="1" res="9.2892866814509034e-04" rms="2.3651306331157684e-01" purity="5.0143486261367798e-01" nType="0">
        <Node pos="l" depth="1" NCoef="0" IVar="81" Cut="-2.0601091384887695e+00" cType="1" res="-3.2437968999147415e-02" rms="-nan" purity="1.7640440165996552e-01" nType="-99"/>
        <Node pos="r" depth="1" NCoef="0" IVar="3" Cut="4.4234328269958496e+00" cType="1" res="6.2760747969150543e-03" rms="2.4388344585895538e-01" purity="5.2156752347946167e-01" nType="0">
          <Node pos="l" depth="2" NCoef="0" IVar="-1" Cut="0.0000000000000000e+00" cType="1" res="2.8321510180830956e-02" rms="3.4097203612327576e-01" purity="4.2103913426399231e-01" nType="-99"/>
          <Node pos="r" depth="2" NCoef="0" IVar="-1" Cut="0.0000000000000000e+00" cType="1" res="1.0402853367850184e-03" rms="2.3886387050151825e-01" purity="5.2531504631042480e-01" nType="-99"/>
        </Node>
      </Node>
    </BinaryTree>
    <BinaryTree type="DecisionTree" boostWeight="1.0000000000000000e+00" itree="823">
      <Node pos="s" depth="0" NCoef="0" IVar="42" Cut="-6.6518098115921021e-01" cType="1" res="6.8585779517889023e-03" rms="2.4494484066963196e-01" purity="5.0374448299407959e-01" nType="0">
        <Node pos="l" depth="1" NCoef="0" IVar="-1" Cut="0.0000000000000000e+00" cType="1" res="3.1104657799005508e-02" rms="3.3408424258232117e-01" purity="5.2111524343490601e-01" nType="-99"/>
        <Node pos="r" depth="1" NCoef="0" IVar="48" Cut="1.1366897821426392e+00" cType="1" res="4.5857126824557781e-03" rms="2.4170252680778503e-01" purity="5.0328022241592407e-01" nType="0">
          <Node pos="l" depth="2" NCoef="0" IVar="-1" Cut="0.0000000000000000e+00" cType="1" res="-1.3069340959191322e-02" rms="1.7853413522243500e-01" purity="1.9261209666728973e-01" nType="-99"/>
          <Node pos="r" depth="2" NCoef="0" IVar="-1" Cut="0.0000000000000000e+00" cType="1" res="3.6073571536689997e-03" rms="2.4981181323528290e-01" purity="5.5302184820175171e-01" nType="-99"/>
        </Node>
      </Node>
    </BinaryTree>
    <BinaryTree type="DecisionTree" boostWeight="1.0000000000000000e+00" itree="824">
      <Node pos="s" depth="0" NCoef="0" IVar="3" Cut="4.3342528343200684e+00" cType="1" res="-2.3488830775022507e-03" rms="2.3460063338279724e-01" purity="5.0101703405380249e-01" nType="0">
        <Node pos="l" depth="1" NCoef="0" IVar="-1" Cut="0.0000000000000000e+00" cType="1" res="-3.8391146808862686e-02" rms="-nan" purity="1.5113551914691925e-01" nType="-99"/>
        <Node pos="r" depth="1" NCoef="0" IVar="7" Cut="-9.6340394020080566e-01" cType="1" res="1.7484416021034122e-03" rms="2.4216066300868988e-01" purity="5.1382118463516235e-01" nType="0">
          <Node pos="l" depth="2" NCoef="0" IVar="-1" Cut="0.0000000000000000e+00" cType="1" res="-3.5604528966359794e-04" rms="2.3911523818969727e-01" purity="5.1693779230117798e-01" nType="-99"/>
          <Node pos="r" depth="2" NCoef="0" IVar="-1" Cut="0.0000000000000000e+00" cType="1" res="3.0360786244273186e-02" rms="3.2356330752372742e-01" purity="3.8891154527664185e-01" nType="-99"/>
        </Node>
      </Node>
    </BinaryTree>
    <BinaryTree type="DecisionTree" boostWeight="1.0000000000000000e+00" itree="825">
      <Node pos="s" depth="0" NCoef="0" IVar="42" Cut="4.2685642838478088e-01" cType="1" res="4.6694470802322030e-04" rms="2.3734928667545319e-01" purity="5.0313967466354370e-01" nType="0">
        <Node pos="l" depth="1" NCoef="0" IVar="2" Cut="9.7275942564010620e-01" cType="1" res="2.7873485814779997e-03" rms="2.4033083021640778e-01" purity="5.0837445259094238e-01" nType="0">
          <Node pos="l" depth="2" NCoef="0" IVar="-1" Cut="0.0000000000000000e+00" cType="1" res="5.9498190879821777e-02" rms="3.4894704818725586e-01" purity="1.6466955840587616e-01" nType="-99"/>
          <Node pos="r" depth="2" NCoef="0" IVar="-1" Cut="0.0000000000000000e+00" cType="1" res="-2.3663074898649938e-05" rms="2.3535354435443878e-01" purity="5.1971584558486938e-01" nType="-99"/>
        </Node>
        <Node pos="r" depth="1" NCoef="0" IVar="-1" Cut="0.0000000000000000e+00" cType="1" res="-3.7083834409713745e-02" rms="-nan" purity="2.8161087632179260e-01" nType="-99"/>
      </Node>
    </BinaryTree>
    <BinaryTree type="DecisionTree" boostWeight="1.0000000000000000e+00" itree="826">
      <Node pos="s" depth="0" NCoef="0" IVar="7" Cut="-6.7545896768569946e-01" cType="1" res="6.1094681732356548e-03" rms="2.3967975378036499e-01" purity="5.0796645879745483e-01" nType="0">
        <Node pos="l" depth="1" NCoef="0" IVar="27" Cut="6.9226908683776855e-01" cType="1" res="3.9651319384574890e-03" rms="2.3707966506481171e-01" purity="5.0983828306198120e-01" nType="0">
          <Node pos="l" depth="2" NCoef="0" IVar="-1" Cut="0.0000000000000000e+00" cType="1" res="4.1428267955780029e-02" rms="3.8446068763732910e-01" purity="2.4524582922458649e-01" nType="-99"/>
          <Node pos="r" depth="2" NCoef="0" IVar="-1" Cut="0.0000000000000000e+00" cType="1" res="4.2930847848765552e-04" rms="2.3083096742630005e-01" purity="5.1753056049346924e-01" nType="-99"/>
        </Node>
        <Node pos="r" depth="1" NCoef="0" IVar="-1" Cut="0.0000000000000000e+00" cType="1" res="2.9618188738822937e-02" rms="3.2710602879524231e-01" purity="4.1606459021568298e-01" nType="-99"/>
      </Node>
    </BinaryTree>
    <BinaryTree type="DecisionTree" boostWeight="1.0000000000000000e+00" itree="827">
      <Node pos="s" depth="0" NCoef="0" IVar="3" Cut="4.2823452949523926e+00" cType="1" res="6.1703205574303865e-04" rms="2.3760043084621429e-01" purity="5.0359773635864258e-01" nType="0">
        <Node pos="l" depth="1" NCoef="0" IVar="-1" Cut="0.0000000000000000e+00" cType="1" res="3.3707302063703537e-02" rms="3.6743426322937012e-01" purity="3.7813454866409302e-01" nType="-99"/>
        <Node pos="r" depth="1" NCoef="0" IVar="37" Cut="-1.2222106456756592e+00" cType="1" res="-2.4068718776106834e-03" rms="2.3284763097763062e-01" purity="5.0652921199798584e-01" nType="0">
          <Node pos="l" depth="2" NCoef="0" IVar="-1" Cut="0.0000000000000000e+00" cType="1" res="-1.1566234752535820e-02" rms="1.8729119002819061e-01" purity="4.0776664018630981e-01" nType="-99"/>
          <Node pos="r" depth="2" NCoef="0" IVar="-1" Cut="0.0000000000000000e+00" cType="1" res="2.4070187937468290e-03" rms="2.4469415843486786e-01" purity="5.3755563497543335e-01" nType="-99"/>
        </Node>
      </Node>
    </BinaryTree>
    <BinaryTree type="DecisionTree" boostWeight="1.0000000000000000e+00" itree="828">
      <Node pos="s" depth="0" NCoef="0" IVar="82" Cut="1.5946253538131714e+00" cType="1" res="-1.9143875688314438e-03" rms="2.3250329494476318e-01" purity="4.9768751859664917e-01" nType="0">
        <Node pos="l" depth="1" NCoef="0" IVar="70" Cut="-3.5427606105804443e-01" cType="1" res="2.3451291490346193e-03" rms="2.4083587527275085e-01" purity="5.1193434000015259e-01" nType="0">
          <Node pos="l" depth="2" NCoef="0" IVar="-1" Cut="0.0000000000000000e+00" cType="1" res="1.8922711024060845e-03" rms="2.4494998157024384e-01" purity="5.1666039228439331e-01" nType="-99"/>
          <Node pos="r" depth="2" NCoef="0" IVar="-1" Cut="0.0000000000000000e+00" cType="1" res="-3.5295706242322922e-02" rms="-nan" purity="3.5349032282829285e-01" nType="-99"/>
        </Node>
        <Node pos="r" depth="1" NCoef="0" IVar="-1" Cut="0.0000000000000000e+00" cType="1" res="-7.4614979326725006e-02" rms="-nan" purity="2.1410504356026649e-02" nType="-99"/>
      </Node>
    </BinaryTree>
    <BinaryTree type="DecisionTree" boostWeight="1.0000000000000000e+00" itree="829">
      <Node pos="s" depth="0" NCoef="0" IVar="9" Cut="-6.9135802984237671e-01" cType="1" res="6.3940989784896374e-03" rms="2.4271787703037262e-01" purity="5.0879573822021484e-01" nType="0">
        <Node pos="l" depth="1" NCoef="0" IVar="13" Cut="1.0879619121551514e+00" cType="1" res="9.1613106429576874e-02" rms="3.4392702579498291e-01" purity="4.6822097897529602e-01" nType="0">
          <Node pos="l" depth="2" NCoef="0" IVar="-1" Cut="0.0000000000000000e+00" cType="1" res="7.6473720371723175e-02" rms="3.8671168684959412e-01" purity="3.7492954730987549e-01" nType="-99"/>
          <Node pos="r" depth="2" NCoef="0" IVar="-1" Cut="0.0000000000000000e+00" cType="1" res="6.4828651375137269e-05" rms="2.6860710978507996e-01" purity="5.5383032560348511e-01" nType="-99"/>
        </Node>
        <Node pos="r" depth="1" NCoef="0" IVar="35" Cut="1.4840940237045288e+00" cType="1" res="2.6078110095113516e-03" rms="2.3651000857353210e-01" purity="5.1059854030609131e-01" nType="0">
          <Node pos="l" depth="2" NCoef="0" IVar="-1" Cut="0.0000000000000000e+00" cType="1" res="-7.4956224125344306e-05" rms="2.2968940436840057e-01" purity="5.1763105392456055e-01" nType="-99"/>
          <Node pos="r" depth="2" NCoef="0" IVar="-1" Cut="0.0000000000000000e+00" cType="1" res="4.7319557517766953e-02" rms="4.0574887394905090e-01" purity="2.4425561726093292e-01" nType="-99"/>
        </Node>
      </Node>
    </BinaryTree>
    <BinaryTree type="DecisionTree" boostWeight="1.0000000000000000e+00" itree="830">
      <Node pos="s" depth="0" NCoef="0" IVar="57" Cut="-1.4151542186737061e+00" cType="1" res="3.6492529325187206e-03" rms="2.3975932598114014e-01" purity="5.0458222627639771e-01" nType="0">
        <Node pos="l" depth="1" NCoef="0" IVar="57" Cut="-1.4552710056304932e+00" cType="1" res="6.8568587303161621e-02" rms="2.8914847970008850e-01" purity="1.3668461143970490e-01" nType="0">
          <Node pos="l" depth="2" NCoef="0" IVar="-1" Cut="0.0000000000000000e+00" cType="1" res="-3.5960525274276733e-02" rms="-nan" purity="1.5503522008657455e-02" nType="-99"/>
          <Node pos="r" depth="2" NCoef="0" IVar="-1" Cut="0.0000000000000000e+00" cType="1" res="9.3185342848300934e-02" rms="3.5768222808837891e-01" purity="2.0198640227317810e-01" nType="-99"/>
        </Node>
        <Node pos="r" depth="1" NCoef="0" IVar="2" Cut="1.7601692676544189e+00" cType="1" res="-1.0195651557296515e-03" rms="2.3511910438537598e-01" purity="5.3104043006896973e-01" nType="0">
          <Node pos="l" depth="2" NCoef="0" IVar="-1" Cut="0.0000000000000000e+00" cType="1" res="-2.0036557689309120e-02" rms="1.4356066286563873e-01" purity="1.2022868543863297e-01" nType="-99"/>
          <Node pos="r" depth="2" NCoef="0" IVar="-1" Cut="0.0000000000000000e+00" cType="1" res="2.0462139509618282e-03" rms="2.4684676527976990e-01" purity="6.0249114036560059e-01" nType="-99"/>
        </Node>
      </Node>
    </BinaryTree>
    <BinaryTree type="DecisionTree" boostWeight="1.0000000000000000e+00" itree="831">
      <Node pos="s" depth="0" NCoef="0" IVar="3" Cut="5.4546833038330078e+00" cType="1" res="-5.8415164239704609e-03" rms="2.2745919227600098e-01" purity="4.9589988589286804e-01" nType="0">
        <Node pos="l" depth="1" NCoef="0" IVar="35" Cut="1.3272738456726074e+00" cType="1" res="-3.1381610315293074e-03" rms="2.3505531251430511e-01" purity="5.0733590126037598e-01" nType="0">
          <Node pos="l" depth="2" NCoef="0" IVar="-1" Cut="0.0000000000000000e+00" cType="1" res="7.0487218908965588e-04" rms="2.4050933122634888e-01" purity="5.2080476284027100e-01" nType="-99"/>
          <Node pos="r" depth="2" NCoef="0" IVar="-1" Cut="0.0000000000000000e+00" cType="1" res="-2.1270161494612694e-02" rms="1.5115444362163544e-01" purity="3.5765957832336426e-01" nType="-99"/>
        </Node>
        <Node pos="r" depth="1" NCoef="0" IVar="-1" Cut="0.0000000000000000e+00" cType="1" res="-3.8169935345649719e-02" rms="-nan" purity="8.5160329937934875e-02" nType="-99"/>
      </Node>
    </BinaryTree>
    <BinaryTree type="DecisionTree" boostWeight="1.0000000000000000e+00" itree="832">
      <Node pos="s" depth="0" NCoef="0" IVar="59" Cut="-9.9090093374252319e-01" cType="1" res="-6.1603626236319542e-03" rms="2.3033851385116577e-01" purity="4.9325713515281677e-01" nType="0">
        <Node pos="l" depth="1" NCoef="0" IVar="48" Cut="1.9080767631530762e+00" cType="1" res="3.0264889821410179e-02" rms="2.3324750363826752e-01" purity="2.9913389682769775e-01" nType="0">
          <Node pos="l" depth="2" NCoef="0" IVar="-1" Cut="0.0000000000000000e+00" cType="1" res="3.6578405648469925e-02" rms="2.9892271757125854e-01" purity="2.4459683895111084e-01" nType="-99"/>
          <Node pos="r" depth="2" NCoef="0" IVar="-1" Cut="0.0000000000000000e+00" cType="1" res="-1.2516479939222336e-02" rms="2.0724669098854065e-02" purity="3.7244480848312378e-01" nType="-99"/>
        </Node>
        <Node pos="r" depth="1" NCoef="0" IVar="36" Cut="1.4463582038879395e+00" cType="1" res="-1.6683055087924004e-02" rms="2.2841241955757141e-01" purity="5.4933637380599976e-01" nType="0">
          <Node pos="l" depth="2" NCoef="0" IVar="-1" Cut="0.0000000000000000e+00" cType="1" res="-1.6877112910151482e-02" rms="1.4871495962142944e-01" purity="1.5930539369583130e-01" nType="-99"/>
          <Node pos="r" depth="2" NCoef="0" IVar="-1" Cut="0.0000000000000000e+00" cType="1" res="7.4641000537667423e-05" rms="2.5915658473968506e-01" purity="7.5462514162063599e-01" nType="-99"/>
        </Node>
      </Node>
    </BinaryTree>
    <BinaryTree type="DecisionTree" boostWeight="1.0000000000000000e+00" itree="833">
      <Node pos="s" depth="0" NCoef="0" IVar="52" Cut="3.6049163341522217e+00" cType="1" res="1.2414867524057627e-03" rms="2.3217922449111938e-01" purity="4.9870860576629639e-01" nType="0">
        <Node pos="l" depth="1" NCoef="0" IVar="57" Cut="-3.3221137523651123e-01" cType="1" res="-1.2909765355288982e-03" rms="2.2961439192295074e-01" purity="4.9824815988540649e-01" nType="0">
          <Node pos="l" depth="2" NCoef="0" IVar="-1" Cut="0.0000000000000000e+00" cType="1" res="-2.6374349370598793e-02" rms="-nan" purity="1.9263900816440582e-02" nType="-99"/>
          <Node pos="r" depth="2" NCoef="0" IVar="-1" Cut="0.0000000000000000e+00" cType="1" res="2.0413897000253201e-03" rms="2.5841218233108521e-01" purity="6.0426765680313110e-01" nType="-99"/>
        </Node>
        <Node pos="r" depth="1" NCoef="0" IVar="-1" Cut="0.0000000000000000e+00" cType="1" res="2.7420213446021080e-02" rms="2.9663303494453430e-01" purity="5.1527804136276245e-01" nType="-99"/>
      </Node>
    </BinaryTree>
    <BinaryTree type="DecisionTree" boostWeight="1.0000000000000000e+00" itree="834">
      <Node pos="s" depth="0" NCoef="0" IVar="31" Cut="2.8104805946350098e+00" cType="1" res="-1.4550401829183102e-03" rms="2.2760479152202606e-01" purity="4.9677973985671997e-01" nType="0">
        <Node pos="l" depth="1" NCoef="0" IVar="61" Cut="8.0533838272094727e-01" cType="1" res="-2.8187973424792290e-02" rms="1.7349010705947876e-01" purity="2.8517547249794006e-01" nType="0">
          <Node pos="l" depth="2" NCoef="0" IVar="-1" Cut="0.0000000000000000e+00" cType="1" res="3.9675543084740639e-03" rms="2.6277789473533630e-01" purity="3.7431812286376953e-01" nType="-99"/>
          <Node pos="r" depth="2" NCoef="0" IVar="-1" Cut="0.0000000000000000e+00" cType="1" res="-3.0797630548477173e-02" rms="-nan" purity="1.7473097145557404e-01" nType="-99"/>
        </Node>
        <Node pos="r" depth="1" NCoef="0" IVar="31" Cut="2.9429850578308105e+00" cType="1" res="8.4428517147898674e-03" rms="2.4388052523136139e-01" purity="5.7512646913528442e-01" nType="0">
          <Node pos="l" depth="2" NCoef="0" IVar="-1" Cut="0.0000000000000000e+00" cType="1" res="1.9256806001067162e-02" rms="2.9449555277824402e-01" purity="5.5829882621765137e-01" nType="-99"/>
          <Node pos="r" depth="2" NCoef="0" IVar="-1" Cut="0.0000000000000000e+00" cType="1" res="-1.7441682284697890e-03" rms="2.2681793570518494e-01" purity="5.7954955101013184e-01" nType="-99"/>
        </Node>
      </Node>
    </BinaryTree>
    <BinaryTree type="DecisionTree" boostWeight="1.0000000000000000e+00" itree="835">
      <Node pos="s" depth="0" NCoef="0" IVar="19" Cut="8.5981756448745728e-01" cType="1" res="-9.0576993534341455e-04" rms="2.3172628879547119e-01" purity="4.9743872880935669e-01" nType="0">
        <Node pos="l" depth="1" NCoef="0" IVar="4" Cut="3.2533726692199707e+00" cType="1" res="1.1081065982580185e-02" rms="2.5084015727043152e-01" purity="5.4619741439819336e-01" nType="0">
          <Node pos="l" depth="2" NCoef="0" IVar="-1" Cut="0.0000000000000000e+00" cType="1" res="4.3813612312078476e-02" rms="4.0286701917648315e-01" purity="3.1558370590209961e-01" nType="-99"/>
          <Node pos="r" depth="2" NCoef="0" IVar="-1" Cut="0.0000000000000000e+00" cType="1" res="2.3725605569779873e-03" rms="2.4309273064136505e-01" purity="5.5385422706604004e-01" nType="-99"/>
        </Node>
        <Node pos="r" depth="1" NCoef="0" IVar="35" Cut="1.6799895465373993e-01" cType="1" res="-2.7836829423904419e-02" rms="1.7867816984653473e-01" purity="3.8789165019989014e-01" nType="0">
          <Node pos="l" depth="2" NCoef="0" IVar="-1" Cut="0.0000000000000000e+00" cType="1" res="-1.7401937395334244e-02" rms="1.2918803095817566e-01" purity="3.6543503403663635e-01" nType="-99"/>
          <Node pos="r" depth="2" NCoef="0" IVar="-1" Cut="0.0000000000000000e+00" cType="1" res="9.1180149465799332e-03" rms="2.6258817315101624e-01" purity="4.4835659861564636e-01" nType="-99"/>
        </Node>
      </Node>
    </BinaryTree>
    <BinaryTree type="DecisionTree" boostWeight="1.0000000000000000e+00" itree="836">
      <Node pos="s" depth="0" NCoef="0" IVar="19" Cut="1.5502609014511108e+00" cType="1" res="-5.9677101671695709e-03" rms="2.2932133078575134e-01" purity="4.9112877249717712e-01" nType="0">
        <Node pos="l" depth="1" NCoef="0" IVar="70" Cut="-2.2639216482639313e-01" cType="1" res="-3.3176483120769262e-03" rms="2.3229938745498657e-01" purity="4.9925711750984192e-01" nType="0">
          <Node pos="l" depth="2" NCoef="0" IVar="-1" Cut="0.0000000000000000e+00" cType="1" res="-2.2652514744549990e-03" rms="2.2821481525897980e-01" purity="4.9780529737472534e-01" nType="-99"/>
          <Node pos="r" depth="2" NCoef="0" IVar="-1" Cut="0.0000000000000000e+00" cType="1" res="3.3652432262897491e-02" rms="3.2409244775772095e-01" purity="5.4699158668518066e-01" nType="-99"/>
        </Node>
        <Node pos="r" depth="1" NCoef="0" IVar="-1" Cut="0.0000000000000000e+00" cType="1" res="-4.9273420125246048e-02" rms="-nan" purity="1.4535194635391235e-01" nType="-99"/>
      </Node>
    </BinaryTree>
    <BinaryTree type="DecisionTree" boostWeight="1.0000000000000000e+00" itree="837">
      <Node pos="s" depth="0" NCoef="0" IVar="10" Cut="2.7746419906616211e+00" cType="1" res="9.5584854716435075e-04" rms="2.3315417766571045e-01" purity="5.0389927625656128e-01" nType="0">
        <Node pos="l" depth="1" NCoef="0" IVar="0" Cut="7.0897805690765381e-01" cType="1" res="9.6036002039909363e-02" rms="3.2393118739128113e-01" purity="2.9188796877861023e-01" nType="0">
          <Node pos="l" depth="2" NCoef="0" IVar="-1" Cut="0.0000000000000000e+00" cType="1" res="4.7615487128496170e-02" rms="3.8515177369117737e-01" purity="4.3196877837181091e-01" nType="-99"/>
          <Node pos="r" depth="2" NCoef="0" IVar="-1" Cut="0.0000000000000000e+00" cType="1" res="4.4083804823458195e-03" rms="2.1869468688964844e-01" purity="1.5777675807476044e-01" nType="-99"/>
        </Node>
        <Node pos="r" depth="1" NCoef="0" IVar="34" Cut="-9.1431951522827148e-01" cType="1" res="-3.9977594278752804e-03" rms="2.2634190320968628e-01" purity="5.1494497060775757e-01" nType="0">
          <Node pos="l" depth="2" NCoef="0" IVar="-1" Cut="0.0000000000000000e+00" cType="1" res="-1.7887029796838760e-02" rms="2.8555566444993019e-02" purity="2.3472595214843750e-01" nType="-99"/>
          <Node pos="r" depth="2" NCoef="0" IVar="-1" Cut="0.0000000000000000e+00" cType="1" res="1.5993861015886068e-03" rms="2.4921900033950806e-01" purity="5.7776314020156860e-01" nType="-99"/>
        </Node>
      </Node>
    </BinaryTree>
    <BinaryTree type="DecisionTree" boostWeight="1.0000000000000000e+00" itree="838">
      <Node pos="s" depth="0" NCoef="0" IVar="83" Cut="9.8578169941902161e-02" cType="1" res="3.4060510806739330e-03" rms="2.4176758527755737e-01" purity="5.0247561931610107e-01" nType="0">
        <Node pos="l" depth="1" NCoef="0" IVar="22" Cut="1.2345679104328156e-02" cType="1" res="-9.0773152187466621e-03" rms="2.2744336724281311e-01" purity="5.3374534845352173e-01" nType="0">
          <Node pos="l" depth="2" NCoef="0" IVar="-1" Cut="0.0000000000000000e+00" cType="1" res="2.8529779985547066e-02" rms="3.2140374183654785e-01" purity="4.2051714658737183e-01" nType="-99"/>
          <Node pos="r" depth="2" NCoef="0" IVar="-1" Cut="0.0000000000000000e+00" cType="1" res="-4.5084529556334019e-03" rms="2.2266951203346252e-01" purity="5.3744143247604370e-01" nType="-99"/>
        </Node>
        <Node pos="r" depth="1" NCoef="0" IVar="10" Cut="2.8116326332092285e+00" cType="1" res="3.0306156724691391e-02" rms="2.6809558272361755e-01" purity="4.3509322404861450e-01" nType="0">
          <Node pos="l" depth="2" NCoef="0" IVar="-1" Cut="0.0000000000000000e+00" cType="1" res="6.2459278851747513e-02" rms="3.8136392831802368e-01" purity="3.2827943563461304e-01" nType="-99"/>
          <Node pos="r" depth="2" NCoef="0" IVar="-1" Cut="0.0000000000000000e+00" cType="1" res="6.8248170427978039e-03" rms="2.5321444869041443e-01" purity="4.4414678215980530e-01" nType="-99"/>
        </Node>
      </Node>
    </BinaryTree>
    <BinaryTree type="DecisionTree" boostWeight="1.0000000000000000e+00" itree="839">
      <Node pos="s" depth="0" NCoef="0" IVar="77" Cut="1.2503826618194580e+00" cType="1" res="3.1503469217568636e-03" rms="2.4366679787635803e-01" purity="4.9383413791656494e-01" nType="0">
        <Node pos="l" depth="1" NCoef="0" IVar="17" Cut="-1.7738874256610870e-01" cType="1" res="9.0534994378685951e-03" rms="2.5798976421356201e-01" purity="5.2186107635498047e-01" nType="0">
          <Node pos="l" depth="2" NCoef="0" IVar="-1" Cut="0.0000000000000000e+00" cType="1" res="6.4133219420909882e-02" rms="2.4270924925804138e-01" purity="8.6301811039447784e-02" nType="-99"/>
          <Node pos="r" depth="2" NCoef="0" IVar="-1" Cut="0.0000000000000000e+00" cType="1" res="-5.3222361020743847e-04" rms="2.6019483804702759e-01" purity="6.2263089418411255e-01" nType="-99"/>
        </Node>
        <Node pos="r" depth="1" NCoef="0" IVar="17" Cut="9.0412694215774536e-01" cType="1" res="-5.8597359806299210e-02" rms="-nan" purity="7.6861277222633362e-02" nType="-99"/>
      </Node>
    </BinaryTree>
    <BinaryTree type="DecisionTree" boostWeight="1.0000000000000000e+00" itree="840">
      <Node pos="s" depth="0" NCoef="0" IVar="79" Cut="1.4418152570724487e+00" cType="1" res="1.0340453125536442e-02" rms="2.5150832533836365e-01" purity="4.9980887770652771e-01" nType="0">
        <Node pos="l" depth="1" NCoef="0" IVar="56" Cut="-1.4151864051818848e+00" cType="1" res="7.0784720592200756e-03" rms="2.4674870073795319e-01" purity="5.0438261032104492e-01" nType="0">
          <Node pos="l" depth="2" NCoef="0" IVar="-1" Cut="0.0000000000000000e+00" cType="1" res="1.4388233423233032e-02" rms="2.8661346435546875e-01" purity="4.1913148760795593e-01" nType="-99"/>
          <Node pos="r" depth="2" NCoef="0" IVar="-1" Cut="0.0000000000000000e+00" cType="1" res="-1.9507589749991894e-03" rms="2.2896616160869598e-01" purity="5.3590881824493408e-01" nType="-99"/>
        </Node>
        <Node pos="r" depth="1" NCoef="0" IVar="-1" Cut="0.0000000000000000e+00" cType="1" res="9.1454453766345978e-02" rms="3.8144639134407043e-01" purity="3.0186435580253601e-01" nType="-99"/>
      </Node>
    </BinaryTree>
    <BinaryTree type="DecisionTree" boostWeight="1.0000000000000000e+00" itree="841">
      <Node pos="s" depth="0" NCoef="0" IVar="5" Cut="-1.7701508104801178e-01" cType="1" res="-5.3546368144452572e-04" rms="2.3641644418239594e-01" purity="4.9955216050148010e-01" nType="0">
        <Node pos="l" depth="1" NCoef="0" IVar="-1" Cut="0.0000000000000000e+00" cType="1" res="5.8571659028530121e-02" rms="2.9361534118652344e-01" purity="2.1525011956691742e-01" nType="-99"/>
        <Node pos="r" depth="1" NCoef="0" IVar="46" Cut="1.4274401664733887e+00" cType="1" res="-3.9603207260370255e-03" rms="2.3343877494335175e-01" purity="5.0938022136688232e-01" nType="0">
          <Node pos="l" depth="2" NCoef="0" IVar="-1" Cut="0.0000000000000000e+00" cType="1" res="-3.4977289033122361e-04" rms="2.4000310897827148e-01" purity="5.2209317684173584e-01" nType="-99"/>
          <Node pos="r" depth="2" NCoef="0" IVar="-1" Cut="0.0000000000000000e+00" cType="1" res="-4.7313980758190155e-02" rms="-nan" purity="4.3871030211448669e-02" nType="-99"/>
        </Node>
      </Node>
    </BinaryTree>
    <BinaryTree type="DecisionTree" boostWeight="1.0000000000000000e+00" itree="842">
      <Node pos="s" depth="0" NCoef="0" IVar="1" Cut="2.8296284675598145e+00" cType="1" res="-3.9841653779149055e-03" rms="2.3323176801204681e-01" purity="4.9592536687850952e-01" nType="0">
        <Node pos="l" depth="1" NCoef="0" IVar="72" Cut="1.1111111193895340e-01" cType="1" res="1.4790510758757591e-02" rms="2.5742009282112122e-01" purity="4.0494471788406372e-01" nType="0">
          <Node pos="l" depth="2" NCoef="0" IVar="-1" Cut="0.0000000000000000e+00" cType="1" res="7.0861359126865864e-03" rms="2.6444712281227112e-01" purity="4.1575178503990173e-01" nType="-99"/>
          <Node pos="r" depth="2" NCoef="0" IVar="-1" Cut="0.0000000000000000e+00" cType="1" res="-4.2251158505678177e-02" rms="-nan" purity="1.8007688224315643e-01" nType="-99"/>
        </Node>
        <Node pos="r" depth="1" NCoef="0" IVar="6" Cut="2.7679419517517090e+00" cType="1" res="-2.2815195843577385e-02" rms="2.0441436767578125e-01" purity="5.8717900514602661e-01" nType="0">
          <Node pos="l" depth="2" NCoef="0" IVar="-1" Cut="0.0000000000000000e+00" cType="1" res="-1.8044427037239075e-02" rms="1.4512416720390320e-01" purity="5.0935828685760498e-01" nType="-99"/>
          <Node pos="r" depth="2" NCoef="0" IVar="-1" Cut="0.0000000000000000e+00" cType="1" res="4.0177074261009693e-03" rms="2.5679302215576172e-01" purity="6.8562823534011841e-01" nType="-99"/>
        </Node>
      </Node>
    </BinaryTree>
    <BinaryTree type="DecisionTree" boostWeight="1.0000000000000000e+00" itree="843">
      <Node pos="s" depth="0" NCoef="0" IVar="4" Cut="3.2693259716033936e+00" cType="1" res="-1.2532669352367520e-03" rms="2.3153856396675110e-01" purity="5.0188785791397095e-01" nType="0">
        <Node pos="l" depth="1" NCoef="0" IVar="76" Cut="-1.4163885116577148e+00" cType="1" res="7.0126324892044067e-02" rms="3.3187779784202576e-01" purity="2.5049269199371338e-01" nType="0">
          <Node pos="l" depth="2" NCoef="0" IVar="-1" Cut="0.0000000000000000e+00" cType="1" res="4.9131333827972412e-02" rms="4.1589477658271790e-01" purity="3.9788219332695007e-01" nType="-99"/>
          <Node pos="r" depth="2" NCoef="0" IVar="-1" Cut="0.0000000000000000e+00" cType="1" res="2.5178240612149239e-03" rms="2.4798341095447540e-01" purity="1.6202487051486969e-01" nType="-99"/>
        </Node>
        <Node pos="r" depth="1" NCoef="0" IVar="57" Cut="1.4070640802383423e+00" cType="1" res="-5.2976440638303757e-03" rms="2.2383455932140350e-01" purity="5.1613193750381470e-01" nType="0">
          <Node pos="l" depth="2" NCoef="0" IVar="-1" Cut="0.0000000000000000e+00" cType="1" res="-1.6425294801592827e-02" rms="8.6826987564563751e-02" purity="1.1612348258495331e-01" nType="-99"/>
          <Node pos="r" depth="2" NCoef="0" IVar="-1" Cut="0.0000000000000000e+00" cType="1" res="2.7753266040235758e-03" rms="2.6430535316467285e-01" purity="7.0759248733520508e-01" nType="-99"/>
        </Node>
      </Node>
    </BinaryTree>
    <BinaryTree type="DecisionTree" boostWeight="1.0000000000000000e+00" itree="844">
      <Node pos="s" depth="0" NCoef="0" IVar="3" Cut="5.4112758636474609e+00" cType="1" res="-1.3899934710934758e-03" rms="2.3530830442905426e-01" purity="4.9551770091056824e-01" nType="0">
        <Node pos="l" depth="1" NCoef="0" IVar="67" Cut="9.4308036565780640e-01" cType="1" res="-5.0538619980216026e-03" rms="2.3374497890472412e-01" purity="5.0553292036056519e-01" nType="0">
          <Node pos="l" depth="2" NCoef="0" IVar="-1" Cut="0.0000000000000000e+00" cType="1" res="4.6549420803785324e-03" rms="2.6478621363639832e-01" purity="5.7667279243469238e-01" nType="-99"/>
          <Node pos="r" depth="2" NCoef="0" IVar="-1" Cut="0.0000000000000000e+00" cType="1" res="-8.5865296423435211e-03" rms="1.9901183247566223e-01" purity="4.3952593207359314e-01" nType="-99"/>
        </Node>
        <Node pos="r" depth="1" NCoef="0" IVar="17" Cut="7.3997718095779419e-01" cType="1" res="7.8736387193202972e-02" rms="2.5434744358062744e-01" purity="2.7649122476577759e-01" nType="0">
          <Node pos="l" depth="2" NCoef="0" IVar="-1" Cut="0.0000000000000000e+00" cType="1" res="-3.1641311943531036e-02" rms="-nan" purity="6.9462666288018227e-03" nType="-99"/>
          <Node pos="r" depth="2" NCoef="0" IVar="-1" Cut="0.0000000000000000e+00" cType="1" res="3.8161274045705795e-02" rms="3.7732839584350586e-01" purity="5.3728389739990234e-01" nType="-99"/>
        </Node>
      </Node>
    </BinaryTree>
    <BinaryTree type="DecisionTree" boostWeight="1.0000000000000000e+00" itree="845">
      <Node pos="s" depth="0" NCoef="0" IVar="3" Cut="4.2823452949523926e+00" cType="1" res="5.0542210228741169e-03" rms="2.4634951353073120e-01" purity="4.9876910448074341e-01" nType="0">
        <Node pos="l" depth="1" NCoef="0" IVar="-1" Cut="0.0000000000000000e+00" cType="1" res="4.0849540382623672e-02" rms="3.4917590022087097e-01" purity="4.0580925345420837e-01" nType="-99"/>
        <Node pos="r" depth="1" NCoef="0" IVar="82" Cut="1.2032938003540039e+00" cType="1" res="1.5919478610157967e-03" rms="2.4230439960956573e-01" purity="5.0098985433578491e-01" nType="0">
          <Node pos="l" depth="2" NCoef="0" IVar="-1" Cut="0.0000000000000000e+00" cType="1" res="-2.0214978139847517e-03" rms="2.3421522974967957e-01" purity="5.2802902460098267e-01" nType="-99"/>
          <Node pos="r" depth="2" NCoef="0" IVar="-1" Cut="0.0000000000000000e+00" cType="1" res="1.7039580270648003e-02" rms="2.8008192777633667e-01" purity="3.4801745414733887e-01" nType="-99"/>
        </Node>
      </Node>
    </BinaryTree>
    <BinaryTree type="DecisionTree" boostWeight="1.0000000000000000e+00" itree="846">
      <Node pos="s" depth="0" NCoef="0" IVar="77" Cut="-9.5167487859725952e-01" cType="1" res="-4.6871905215084553e-03" rms="2.2773668169975281e-01" purity="4.9020731449127197e-01" nType="0">
        <Node pos="l" depth="1" NCoef="0" IVar="78" Cut="1.4445098638534546e+00" cType="1" res="3.6455476656556129e-03" rms="2.4663728475570679e-01" purity="5.4521501064300537e-01" nType="0">
          <Node pos="l" depth="2" NCoef="0" IVar="-1" Cut="0.0000000000000000e+00" cType="1" res="6.7393164499662817e-05" rms="2.4108731746673584e-01" purity="5.5560708045959473e-01" nType="-99"/>
          <Node pos="r" depth="2" NCoef="0" IVar="-1" Cut="0.0000000000000000e+00" cType="1" res="3.3114295452833176e-02" rms="3.5182654857635498e-01" purity="2.7051439881324768e-01" nType="-99"/>
        </Node>
        <Node pos="r" depth="1" NCoef="0" IVar="77" Cut="-2.3809953033924103e-01" cType="1" res="-4.3490733951330185e-02" rms="9.1009147465229034e-02" purity="2.3404981195926666e-01" nType="0">
          <Node pos="l" depth="2" NCoef="0" IVar="-1" Cut="0.0000000000000000e+00" cType="1" res="-7.7558852732181549e-02" rms="-nan" purity="1.3080844283103943e-01" nType="-99"/>
          <Node pos="r" depth="2" NCoef="0" IVar="-1" Cut="0.0000000000000000e+00" cType="1" res="-6.4181489869952202e-03" rms="1.6662169992923737e-01" purity="2.5572621822357178e-01" nType="-99"/>
        </Node>
      </Node>
    </BinaryTree>
    <BinaryTree type="DecisionTree" boostWeight="1.0000000000000000e+00" itree="847">
      <Node pos="s" depth="0" NCoef="0" IVar="80" Cut="1.2482228279113770e+00" cType="1" res="4.1374564170837402e-03" rms="2.4046006798744202e-01" purity="4.9830526113510132e-01" nType="0">
        <Node pos="l" depth="1" NCoef="0" IVar="27" Cut="1.4197021722793579e+00" cType="1" res="-5.2071847021579742e-03" rms="2.3150531947612762e-01" purity="5.4700875282287598e-01" nType="0">
          <Node pos="l" depth="2" NCoef="0" IVar="-1" Cut="0.0000000000000000e+00" cType="1" res="8.7968986481428146e-03" rms="2.6177930831909180e-01" purity="3.7735879421234131e-01" nType="-99"/>
          <Node pos="r" depth="2" NCoef="0" IVar="-1" Cut="0.0000000000000000e+00" cType="1" res="-5.2387826144695282e-03" rms="2.1972624957561493e-01" purity="6.0243767499923706e-01" nType="-99"/>
        </Node>
        <Node pos="r" depth="1" NCoef="0" IVar="55" Cut="-1.4155213832855225e+00" cType="1" res="5.5863592773675919e-02" rms="2.7938586473464966e-01" purity="2.2871285676956177e-01" nType="0">
          <Node pos="l" depth="2" NCoef="0" IVar="-1" Cut="0.0000000000000000e+00" cType="1" res="1.1790337413549423e-01" rms="4.1232749819755554e-01" purity="3.6451449990272522e-01" nType="-99"/>
          <Node pos="r" depth="2" NCoef="0" IVar="-1" Cut="0.0000000000000000e+00" cType="1" res="1.2770648114383221e-02" rms="2.4075685441493988e-01" purity="2.0787748694419861e-01" nType="-99"/>
        </Node>
      </Node>
    </BinaryTree>
    <BinaryTree type="DecisionTree" boostWeight="1.0000000000000000e+00" itree="848">
      <Node pos="s" depth="0" NCoef="0" IVar="20" Cut="3.7676909565925598e-01" cType="1" res="8.8431658223271370e-03" rms="2.5088447332382202e-01" purity="5.0766235589981079e-01" nType="0">
        <Node pos="l" depth="1" NCoef="0" IVar="6" Cut="8.5353773832321167e-01" cType="1" res="6.4103766344487667e-03" rms="2.4744975566864014e-01" purity="5.0862169265747070e-01" nType="0">
          <Node pos="l" depth="2" NCoef="0" IVar="-1" Cut="0.0000000000000000e+00" cType="1" res="4.7527108341455460e-02" rms="3.8869199156761169e-01" purity="3.1641355156898499e-01" nType="-99"/>
          <Node pos="r" depth="2" NCoef="0" IVar="-1" Cut="0.0000000000000000e+00" cType="1" res="1.2661423534154892e-03" rms="2.4212373793125153e-01" purity="5.1354002952575684e-01" nType="-99"/>
        </Node>
        <Node pos="r" depth="1" NCoef="0" IVar="-1" Cut="0.0000000000000000e+00" cType="1" res="4.4043868780136108e-02" rms="3.5272166132926941e-01" purity="4.6715494990348816e-01" nType="-99"/>
      </Node>
    </BinaryTree>
    <BinaryTree type="DecisionTree" boostWeight="1.0000000000000000e+00" itree="849">
      <Node pos="s" depth="0" NCoef="0" IVar="61" Cut="9.3076264858245850e-01" cType="1" res="-4.4050505384802818e-03" rms="2.3047439754009247e-01" purity="4.9584108591079712e-01" nType="0">
        <Node pos="l" depth="1" NCoef="0" IVar="31" Cut="2.5776145458221436e+00" cType="1" res="8.9354375377297401e-03" rms="2.5529956817626953e-01" purity="5.5915892124176025e-01" nType="0">
          <Node pos="l" depth="2" NCoef="0" IVar="-1" Cut="0.0000000000000000e+00" cType="1" res="2.9556725174188614e-02" rms="3.3607351779937744e-01" purity="2.7718618512153625e-01" nType="-99"/>
          <Node pos="r" depth="2" NCoef="0" IVar="-1" Cut="0.0000000000000000e+00" cType="1" res="1.6679224791005254e-04" rms="2.4250335991382599e-01" purity="5.9281152486801147e-01" nType="-99"/>
        </Node>
        <Node pos="r" depth="1" NCoef="0" IVar="10" Cut="3.2134084701538086e+00" cType="1" res="-3.8168847560882568e-02" rms="1.4493626356124878e-01" purity="3.3558815717697144e-01" nType="0">
          <Node pos="l" depth="2" NCoef="0" IVar="-1" Cut="0.0000000000000000e+00" cType="1" res="-2.5550050660967827e-02" rms="-nan" purity="2.2065195441246033e-01" nType="-99"/>
          <Node pos="r" depth="2" NCoef="0" IVar="-1" Cut="0.0000000000000000e+00" cType="1" res="-2.7526761405169964e-03" rms="2.1423396468162537e-01" purity="4.3438538908958435e-01" nType="-99"/>
        </Node>
      </Node>
    </BinaryTree>
    <BinaryTree type="DecisionTree" boostWeight="1.0000000000000000e+00" itree="850">
      <Node pos="s" depth="0" NCoef="0" IVar="13" Cut="1.2074600458145142e+00" cType="1" res="-3.0735849868506193e-03" rms="2.2722069919109344e-01" purity="4.9669608473777771e-01" nType="0">
        <Node pos="l" depth="1" NCoef="0" IVar="38" Cut="6.6384917497634888e-01" cType="1" res="-1.8486684188246727e-02" rms="-nan" purity="1.5447025001049042e-01" nType="-99"/>
        <Node pos="r" depth="1" NCoef="0" IVar="73" Cut="2.6836812496185303e+00" cType="1" res="5.1503754220902920e-03" rms="2.5966256856918335e-01" purity="5.9707981348037720e-01" nType="0">
          <Node pos="l" depth="2" NCoef="0" IVar="-1" Cut="0.0000000000000000e+00" cType="1" res="-6.3253813423216343e-03" rms="2.2696188092231750e-01" purity="4.7369155287742615e-01" nType="-99"/>
          <Node pos="r" depth="2" NCoef="0" IVar="-1" Cut="0.0000000000000000e+00" cType="1" res="6.4919888973236084e-03" rms="2.7610757946968079e-01" purity="6.7046660184860229e-01" nType="-99"/>
        </Node>
      </Node>
    </BinaryTree>
    <BinaryTree type="DecisionTree" boostWeight="1.0000000000000000e+00" itree="851">
      <Node pos="s" depth="0" NCoef="0" IVar="4" Cut="3.3219401836395264e+00" cType="1" res="-7.3687790427356958e-04" rms="2.2836653888225555e-01" purity="5.0312668085098267e-01" nType="0">
        <Node pos="l" depth="1" NCoef="0" IVar="56" Cut="-6.4283066987991333e-01" cType="1" res="-2.3531582206487656e-02" rms="-nan" purity="1.4359082281589508e-01" nType="-99"/>
        <Node pos="r" depth="1" NCoef="0" IVar="64" Cut="1.2345679104328156e-02" cType="1" res="5.9967674314975739e-03" rms="2.4128487706184387e-01" purity="5.4026871919631958e-01" nType="0">
          <Node pos="l" depth="2" NCoef="0" IVar="-1" Cut="0.0000000000000000e+00" cType="1" res="-4.1829507797956467e-02" rms="-nan" purity="1.2034483999013901e-01" nType="-99"/>
          <Node pos="r" depth="2" NCoef="0" IVar="-1" Cut="0.0000000000000000e+00" cType="1" res="3.3859594259411097e-03" rms="2.4918182194232941e-01" purity="5.5107569694519043e-01" nType="-99"/>
        </Node>
      </Node>
    </BinaryTree>
    <BinaryTree type="DecisionTree" boostWeight="1.0000000000000000e+00" itree="852">
      <Node pos="s" depth="0" NCoef="0" IVar="69" Cut="1.0966808795928955e+00" cType="1" res="-6.5726181492209435e-03" rms="2.2469946742057800e-01" purity="4.9246665835380554e-01" nType="0">
        <Node pos="l" depth="1" NCoef="0" IVar="56" Cut="-1.1450165510177612e+00" cType="1" res="-4.6332061290740967e-02" rms="4.7461390495300293e-02" purity="2.2949683666229248e-01" nType="0">
          <Node pos="l" depth="2" NCoef="0" IVar="-1" Cut="0.0000000000000000e+00" cType="1" res="2.8897862648591399e-04" rms="2.0091703534126282e-01" purity="2.6500344276428223e-01" nType="-99"/>
          <Node pos="r" depth="2" NCoef="0" IVar="-1" Cut="0.0000000000000000e+00" cType="1" res="-4.3448742479085922e-02" rms="-nan" purity="1.9030833244323730e-01" nType="-99"/>
        </Node>
        <Node pos="r" depth="1" NCoef="0" IVar="78" Cut="-5.4095485247671604e-03" cType="1" res="2.9007042758166790e-03" rms="2.4802570044994354e-01" purity="5.5512344837188721e-01" nType="0">
          <Node pos="l" depth="2" NCoef="0" IVar="-1" Cut="0.0000000000000000e+00" cType="1" res="-2.8619901277124882e-03" rms="2.3554660379886627e-01" purity="6.1998397111892700e-01" nType="-99"/>
          <Node pos="r" depth="2" NCoef="0" IVar="-1" Cut="0.0000000000000000e+00" cType="1" res="1.4312634244561195e-02" rms="2.8102508187294006e-01" purity="3.4835600852966309e-01" nType="-99"/>
        </Node>
      </Node>
    </BinaryTree>
    <BinaryTree type="DecisionTree" boostWeight="1.0000000000000000e+00" itree="853">
      <Node pos="s" depth="0" NCoef="0" IVar="17" Cut="-1.3764064311981201e+00" cType="1" res="1.0868324898183346e-03" rms="2.2697375714778900e-01" purity="5.0429105758666992e-01" nType="0">
        <Node pos="l" depth="1" NCoef="0" IVar="80" Cut="8.1498718261718750e-01" cType="1" res="-1.4325577020645142e-01" rms="-nan" purity="-4.6204045414924622e-02" nType="-99"/>
        <Node pos="r" depth="1" NCoef="0" IVar="2" Cut="1.0340911149978638e+00" cType="1" res="6.6032470203936100e-03" rms="2.4697592854499817e-01" purity="5.5505466461181641e-01" nType="0">
          <Node pos="l" depth="2" NCoef="0" IVar="-1" Cut="0.0000000000000000e+00" cType="1" res="-6.0577988624572754e-02" rms="-nan" purity="-1.0933852754533291e-02" nType="-99"/>
          <Node pos="r" depth="2" NCoef="0" IVar="-1" Cut="0.0000000000000000e+00" cType="1" res="2.8852263931185007e-03" rms="2.5072836875915527e-01" purity="5.6984609365463257e-01" nType="-99"/>
        </Node>
      </Node>
    </BinaryTree>
    <BinaryTree type="DecisionTree" boostWeight="1.0000000000000000e+00" itree="854">
      <Node pos="s" depth="0" NCoef="0" IVar="3" Cut="5.5085291862487793e+00" cType="1" res="9.3466341495513916e-03" rms="2.5013774633407593e-01" purity="4.9732783436775208e-01" nType="0">
        <Node pos="l" depth="1" NCoef="0" IVar="19" Cut="6.2450629472732544e-01" cType="1" res="6.5106963738799095e-03" rms="2.4664181470870972e-01" purity="5.0318169593811035e-01" nType="0">
          <Node pos="l" depth="2" NCoef="0" IVar="-1" Cut="0.0000000000000000e+00" cType="1" res="-5.6009800173342228e-03" rms="2.2472694516181946e-01" purity="5.3182995319366455e-01" nType="-99"/>
          <Node pos="r" depth="2" NCoef="0" IVar="-1" Cut="0.0000000000000000e+00" cType="1" res="7.4623790569603443e-03" rms="2.5912839174270630e-01" purity="4.8413297533988953e-01" nType="-99"/>
        </Node>
        <Node pos="r" depth="1" NCoef="0" IVar="-1" Cut="0.0000000000000000e+00" cType="1" res="4.8907730728387833e-02" rms="3.4815523028373718e-01" purity="2.5020140409469604e-01" nType="-99"/>
      </Node>
    </BinaryTree>
    <BinaryTree type="DecisionTree" boostWeight="1.0000000000000000e+00" itree="855">
      <Node pos="s" depth="0" NCoef="0" IVar="1" Cut="2.1004199981689453e+00" cType="1" res="2.2545356769114733e-03" rms="2.3175911605358124e-01" purity="5.0727134943008423e-01" nType="0">
        <Node pos="l" depth="1" NCoef="0" IVar="27" Cut="1.3836535215377808e+00" cType="1" res="6.0822326689958572e-02" rms="3.1192740797996521e-01" purity="2.7045756578445435e-01" nType="0">
          <Node pos="l" depth="2" NCoef="0" IVar="-1" Cut="0.0000000000000000e+00" cType="1" res="7.6887514442205429e-03" rms="2.3695708811283112e-01" purity="2.1087826788425446e-01" nType="-99"/>
          <Node pos="r" depth="2" NCoef="0" IVar="-1" Cut="0.0000000000000000e+00" cType="1" res="4.5265238732099533e-02" rms="4.0424436330795288e-01" purity="3.7987139821052551e-01" nType="-99"/>
        </Node>
        <Node pos="r" depth="1" NCoef="0" IVar="17" Cut="-1.3377233743667603e+00" cType="1" res="-5.1274322904646397e-03" rms="2.1847598254680634e-01" purity="5.3711968660354614e-01" nType="0">
          <Node pos="l" depth="2" NCoef="0" IVar="-1" Cut="0.0000000000000000e+00" cType="1" res="-1.7945384979248047e-01" rms="-nan" purity="-5.7053543627262115e-02" nType="-99"/>
          <Node pos="r" depth="2" NCoef="0" IVar="-1" Cut="0.0000000000000000e+00" cType="1" res="4.8034018254838884e-04" rms="2.4346676468849182e-01" purity="5.9922796487808228e-01" nType="-99"/>
        </Node>
      </Node>
    </BinaryTree>
    <BinaryTree type="DecisionTree" boostWeight="1.0000000000000000e+00" itree="856">
      <Node pos="s" depth="0" NCoef="0" IVar="39" Cut="-4.9337735772132874e-01" cType="1" res="7.1798670105636120e-03" rms="2.4257764220237732e-01" purity="5.0717240571975708e-01" nType="0">
        <Node pos="l" depth="1" NCoef="0" IVar="8" Cut="-5.8173939585685730e-02" cType="1" res="9.6094794571399689e-03" rms="2.4604466557502747e-01" purity="5.1623016595840454e-01" nType="0">
          <Node pos="l" depth="2" NCoef="0" IVar="-1" Cut="0.0000000000000000e+00" cType="1" res="2.3332065902650356e-03" rms="2.4241045117378235e-01" purity="5.2059912681579590e-01" nType="-99"/>
          <Node pos="r" depth="2" NCoef="0" IVar="-1" Cut="0.0000000000000000e+00" cType="1" res="3.8930524140596390e-02" rms="3.3267962932586670e-01" purity="3.6686885356903076e-01" nType="-99"/>
        </Node>
        <Node pos="r" depth="1" NCoef="0" IVar="-1" Cut="0.0000000000000000e+00" cType="1" res="-4.5204780995845795e-02" rms="-nan" purity="8.6866825819015503e-02" nType="-99"/>
      </Node>
    </BinaryTree>
    <BinaryTree type="DecisionTree" boostWeight="1.0000000000000000e+00" itree="857">
      <Node pos="s" depth="0" NCoef="0" IVar="8" Cut="-9.6956565976142883e-02" cType="1" res="-2.4738400243222713e-03" rms="2.2861368954181671e-01" purity="4.9905481934547424e-01" nType="0">
        <Node pos="l" depth="1" NCoef="0" IVar="69" Cut="7.0097863674163818e-01" cType="1" res="6.2269525369629264e-04" rms="2.3499494791030884e-01" purity="5.0791877508163452e-01" nType="0">
          <Node pos="l" depth="2" NCoef="0" IVar="-1" Cut="0.0000000000000000e+00" cType="1" res="3.4197319298982620e-02" rms="3.5301616787910461e-01" purity="2.8005662560462952e-01" nType="-99"/>
          <Node pos="r" depth="2" NCoef="0" IVar="-1" Cut="0.0000000000000000e+00" cType="1" res="-1.2334641069173813e-03" rms="2.2701457142829895e-01" purity="5.1879894733428955e-01" nType="-99"/>
        </Node>
        <Node pos="r" depth="1" NCoef="0" IVar="-1" Cut="0.0000000000000000e+00" cType="1" res="-4.8139933496713638e-02" rms="-nan" purity="1.3322685658931732e-01" nType="-99"/>
      </Node>
    </BinaryTree>
    <BinaryTree type="DecisionTree" boostWeight="1.0000000000000000e+00" itree="858">
      <Node pos="s" depth="0" NCoef="0" IVar="49" Cut="-6.5106570720672607e-01" cType="1" res="3.0271154828369617e-03" rms="2.3208713531494141e-01" purity="5.0835597515106201e-01" nType="0">
        <Node pos="l" depth="1" NCoef="0" IVar="27" Cut="1.0919839143753052e+00" cType="1" res="6.7722704261541367e-03" rms="2.3828135430812836e-01" purity="5.1364278793334961e-01" nType="0">
          <Node pos="l" depth="2" NCoef="0" IVar="-1" Cut="0.0000000000000000e+00" cType="1" res="-1.7044559121131897e-02" rms="1.2124715000391006e-01" purity="2.0648445188999176e-01" nType="-99"/>
          <Node pos="r" depth="2" NCoef="0" IVar="-1" Cut="0.0000000000000000e+00" cType="1" res="4.5887096785008907e-03" rms="2.4998161196708679e-01" purity="5.5804806947708130e-01" nType="-99"/>
        </Node>
        <Node pos="r" depth="1" NCoef="0" IVar="-1" Cut="0.0000000000000000e+00" cType="1" res="-3.7550676614046097e-02" rms="-nan" purity="3.5935613512992859e-01" nType="-99"/>
      </Node>
    </BinaryTree>
    <BinaryTree type="DecisionTree" boostWeight="1.0000000000000000e+00" itree="859">
      <Node pos="s" depth="0" NCoef="0" IVar="39" Cut="-5.3607821464538574e-01" cType="1" res="-1.3061772333458066e-03" rms="2.2701813280582428e-01" purity="5.0198060274124146e-01" nType="0">
        <Node pos="l" depth="1" NCoef="0" IVar="3" Cut="5.4979457855224609e+00" cType="1" res="1.6657811356708407e-03" rms="2.3237983882427216e-01" purity="5.1515817642211914e-01" nType="0">
          <Node pos="l" depth="2" NCoef="0" IVar="-1" Cut="0.0000000000000000e+00" cType="1" res="1.3867384986951947e-03" rms="2.3788601160049438e-01" purity="5.2510219812393188e-01" nType="-99"/>
          <Node pos="r" depth="2" NCoef="0" IVar="-1" Cut="0.0000000000000000e+00" cType="1" res="-3.4879632294178009e-02" rms="-nan" purity="4.8147078603506088e-02" nType="-99"/>
        </Node>
        <Node pos="r" depth="1" NCoef="0" IVar="-1" Cut="0.0000000000000000e+00" cType="1" res="-5.2186410874128342e-02" rms="-nan" purity="5.6322980672121048e-02" nType="-99"/>
      </Node>
    </BinaryTree>
    <BinaryTree type="DecisionTree" boostWeight="1.0000000000000000e+00" itree="860">
      <Node pos="s" depth="0" NCoef="0" IVar="0" Cut="1.2139844894409180e+00" cType="1" res="-1.5105273341760039e-03" rms="2.3343707621097565e-01" purity="4.9636775255203247e-01" nType="0">
        <Node pos="l" depth="1" NCoef="0" IVar="13" Cut="-1.4155043363571167e+00" cType="1" res="5.3782653994858265e-03" rms="2.4698150157928467e-01" purity="5.2495706081390381e-01" nType="0">
          <Node pos="l" depth="2" NCoef="0" IVar="-1" Cut="0.0000000000000000e+00" cType="1" res="4.4437278062105179e-02" rms="2.8056845068931580e-01" purity="2.5425294041633606e-01" nType="-99"/>
          <Node pos="r" depth="2" NCoef="0" IVar="-1" Cut="0.0000000000000000e+00" cType="1" res="-3.8848887197673321e-04" rms="2.4258223176002502e-01" purity="5.5021035671234131e-01" nType="-99"/>
        </Node>
        <Node pos="r" depth="1" NCoef="0" IVar="27" Cut="2.1598434448242188e+00" cType="1" res="-2.3386478424072266e-02" rms="-nan" purity="2.5385475158691406e-01" nType="-99"/>
      </Node>
    </BinaryTree>
    <BinaryTree type="DecisionTree" boostWeight="1.0000000000000000e+00" itree="861">
      <Node pos="s" depth="0" NCoef="0" IVar="67" Cut="1.3303393125534058e+00" cType="1" res="-1.1271849507465959e-03" rms="2.3445528745651245e-01" purity="4.9819830060005188e-01" nType="0">
        <Node pos="l" depth="1" NCoef="0" IVar="77" Cut="7.1033173799514771e-01" cType="1" res="2.6007816195487976e-03" rms="2.4339979887008667e-01" purity="5.1388388872146606e-01" nType="0">
          <Node pos="l" depth="2" NCoef="0" IVar="-1" Cut="0.0000000000000000e+00" cType="1" res="-1.1481089750304818e-03" rms="2.3833206295967102e-01" purity="5.3935390710830688e-01" nType="-99"/>
          <Node pos="r" depth="2" NCoef="0" IVar="-1" Cut="0.0000000000000000e+00" cType="1" res="2.6331417262554169e-02" rms="2.7791070938110352e-01" purity="2.9501065611839294e-01" nType="-99"/>
        </Node>
        <Node pos="r" depth="1" NCoef="0" IVar="59" Cut="1.1619791984558105e+00" cType="1" res="-3.9191711694002151e-02" rms="-nan" purity="1.5636147558689117e-01" nType="-99"/>
      </Node>
    </BinaryTree>
    <BinaryTree type="DecisionTree" boostWeight="1.0000000000000000e+00" itree="862">
      <Node pos="s" depth="0" NCoef="0" IVar="70" Cut="-3.6277085542678833e-01" cType="1" res="-1.5340843237936497e-03" rms="2.3766651749610901e-01" purity="4.9529895186424255e-01" nType="0">
        <Node pos="l" depth="1" NCoef="0" IVar="10" Cut="2.9538397789001465e+00" cType="1" res="1.8135469872504473e-03" rms="2.4293953180313110e-01" purity="5.0013089179992676e-01" nType="0">
          <Node pos="l" depth="2" NCoef="0" IVar="-1" Cut="0.0000000000000000e+00" cType="1" res="1.4264292083680630e-02" rms="3.0450493097305298e-01" purity="3.2599106431007385e-01" nType="-99"/>
          <Node pos="r" depth="2" NCoef="0" IVar="-1" Cut="0.0000000000000000e+00" cType="1" res="-2.4285994004458189e-03" rms="2.2767348587512970e-01" purity="5.3492844104766846e-01" nType="-99"/>
        </Node>
        <Node pos="r" depth="1" NCoef="0" IVar="-1" Cut="0.0000000000000000e+00" cType="1" res="-3.7423968315124512e-02" rms="-nan" purity="3.3445802330970764e-01" nType="-99"/>
      </Node>
    </BinaryTree>
    <BinaryTree type="DecisionTree" boostWeight="1.0000000000000000e+00" itree="863">
      <Node pos="s" depth="0" NCoef="0" IVar="88" Cut="7.9501318931579590e-01" cType="1" res="-4.5637044240720570e-04" rms="2.3512709140777588e-01" purity="4.9503892660140991e-01" nType="0">
        <Node pos="l" depth="1" NCoef="0" IVar="-1" Cut="0.0000000000000000e+00" cType="1" res="-4.4115245342254639e-02" rms="-nan" purity="3.6132615804672241e-01" nType="-99"/>
        <Node pos="r" depth="1" NCoef="0" IVar="8" Cut="-5.2356547117233276e-01" cType="1" res="2.5246059522032738e-03" rms="2.3830646276473999e-01" purity="4.9797531962394714e-01" nType="0">
          <Node pos="l" depth="2" NCoef="0" IVar="-1" Cut="0.0000000000000000e+00" cType="1" res="2.1453921217471361e-03" rms="2.4655169248580933e-01" purity="5.1050072908401489e-01" nType="-99"/>
          <Node pos="r" depth="2" NCoef="0" IVar="-1" Cut="0.0000000000000000e+00" cType="1" res="-3.9488684386014938e-02" rms="-nan" purity="1.5520004928112030e-01" nType="-99"/>
        </Node>
      </Node>
    </BinaryTree>
    <BinaryTree type="DecisionTree" boostWeight="1.0000000000000000e+00" itree="864">
      <Node pos="s" depth="0" NCoef="0" IVar="77" Cut="-1.0673952102661133e+00" cType="1" res="4.9998029135167599e-03" rms="2.3653835058212280e-01" purity="5.0298678874969482e-01" nType="0">
        <Node pos="l" depth="1" NCoef="0" IVar="40" Cut="1.3541314601898193e+00" cType="1" res="1.3793617486953735e-02" rms="2.5596532225608826e-01" purity="5.5949062108993530e-01" nType="0">
          <Node pos="l" depth="2" NCoef="0" IVar="-1" Cut="0.0000000000000000e+00" cType="1" res="2.6988566387444735e-03" rms="2.4973982572555542e-01" purity="5.7660359144210815e-01" nType="-99"/>
          <Node pos="r" depth="2" NCoef="0" IVar="-1" Cut="0.0000000000000000e+00" cType="1" res="2.4112164974212646e-02" rms="3.1087788939476013e-01" purity="3.6538624763488770e-01" nType="-99"/>
        </Node>
        <Node pos="r" depth="1" NCoef="0" IVar="38" Cut="-1.4155315160751343e+00" cType="1" res="-3.1810618937015533e-02" rms="1.1925236880779266e-01" purity="2.6646530628204346e-01" nType="0">
          <Node pos="l" depth="2" NCoef="0" IVar="-1" Cut="0.0000000000000000e+00" cType="1" res="-5.1444470882415771e-02" rms="-nan" purity="1.7723862826824188e-01" nType="-99"/>
          <Node pos="r" depth="2" NCoef="0" IVar="-1" Cut="0.0000000000000000e+00" cType="1" res="-5.4384265094995499e-03" rms="1.7437668144702911e-01" purity="2.8829318284988403e-01" nType="-99"/>
        </Node>
      </Node>
    </BinaryTree>
    <BinaryTree type="DecisionTree" boostWeight="1.0000000000000000e+00" itree="865">
      <Node pos="s" depth="0" NCoef="0" IVar="52" Cut="2.3441362380981445e+00" cType="1" res="5.6954701431095600e-03" rms="2.4409005045890808e-01" purity="4.9760675430297852e-01" nType="0">
        <Node pos="l" depth="1" NCoef="0" IVar="-1" Cut="0.0000000000000000e+00" cType="1" res="-5.3880974650382996e-02" rms="-nan" purity="1.3359827920794487e-02" nType="-99"/>
        <Node pos="r" depth="1" NCoef="0" IVar="5" Cut="-3.8056608289480209e-02" cType="1" res="9.1019282117486000e-03" rms="2.5090670585632324e-01" purity="5.1065385341644287e-01" nType="0">
          <Node pos="l" depth="2" NCoef="0" IVar="-1" Cut="0.0000000000000000e+00" cType="1" res="3.1172752380371094e-02" rms="3.0894672870635986e-01" purity="3.5746216773986816e-01" nType="-99"/>
          <Node pos="r" depth="2" NCoef="0" IVar="-1" Cut="0.0000000000000000e+00" cType="1" res="6.6642480669543147e-04" rms="2.4271321296691895e-01" purity="5.2722781896591187e-01" nType="-99"/>
        </Node>
      </Node>
    </BinaryTree>
    <BinaryTree type="DecisionTree" boostWeight="1.0000000000000000e+00" itree="866">
      <Node pos="s" depth="0" NCoef="0" IVar="55" Cut="-8.7550771236419678e-01" cType="1" res="5.7536670938134193e-03" rms="2.4301965534687042e-01" purity="5.0434774160385132e-01" nType="0">
        <Node pos="l" depth="1" NCoef="0" IVar="17" Cut="-6.0356885194778442e-01" cType="1" res="4.3282933533191681e-02" rms="2.4357554316520691e-01" purity="2.8610143065452576e-01" nType="0">
          <Node pos="l" depth="2" NCoef="0" IVar="-1" Cut="0.0000000000000000e+00" cType="1" res="-1.4808849990367889e-01" rms="-nan" purity="-5.7368673384189606e-02" nType="-99"/>
          <Node pos="r" depth="2" NCoef="0" IVar="-1" Cut="0.0000000000000000e+00" cType="1" res="2.7770822867751122e-02" rms="3.2062879204750061e-01" purity="4.1963553428649902e-01" nType="-99"/>
        </Node>
        <Node pos="r" depth="1" NCoef="0" IVar="35" Cut="1.4435511827468872e+00" cType="1" res="-3.6279596388339996e-03" rms="2.4197278916835785e-01" purity="5.5890530347824097e-01" nType="0">
          <Node pos="l" depth="2" NCoef="0" IVar="-1" Cut="0.0000000000000000e+00" cType="1" res="1.2418651022017002e-04" rms="2.4662010371685028e-01" purity="5.6912255287170410e-01" nType="-99"/>
          <Node pos="r" depth="2" NCoef="0" IVar="-1" Cut="0.0000000000000000e+00" cType="1" res="-4.4527553021907806e-02" rms="-nan" purity="2.8883382678031921e-01" nType="-99"/>
        </Node>
      </Node>
    </BinaryTree>
    <BinaryTree type="DecisionTree" boostWeight="1.0000000000000000e+00" itree="867">
      <Node pos="s" depth="0" NCoef="0" IVar="70" Cut="-4.6018418669700623e-01" cType="1" res="1.9447904778644443e-03" rms="2.3505063354969025e-01" purity="5.0366163253784180e-01" nType="0">
        <Node pos="l" depth="1" NCoef="0" IVar="70" Cut="-9.5384407043457031e-01" cType="1" res="5.6781037710607052e-03" rms="2.4176658689975739e-01" purity="5.0785136222839355e-01" nType="0">
          <Node pos="l" depth="2" NCoef="0" IVar="-1" Cut="0.0000000000000000e+00" cType="1" res="7.2915520286187530e-04" rms="2.3612812161445618e-01" purity="5.0758820772171021e-01" nType="-99"/>
          <Node pos="r" depth="2" NCoef="0" IVar="-1" Cut="0.0000000000000000e+00" cType="1" res="4.7476068139076233e-02" rms="3.7016353011131287e-01" purity="5.1709944009780884e-01" nType="-99"/>
        </Node>
        <Node pos="r" depth="1" NCoef="0" IVar="-1" Cut="0.0000000000000000e+00" cType="1" res="-3.1229874119162560e-02" rms="-nan" purity="3.9854457974433899e-01" nType="-99"/>
      </Node>
    </BinaryTree>
    <BinaryTree type="DecisionTree" boostWeight="1.0000000000000000e+00" itree="868">
      <Node pos="s" depth="0" NCoef="0" IVar="2" Cut="2.3919501304626465e+00" cType="1" res="7.5223455205559731e-03" rms="2.4523065984249115e-01" purity="5.0856441259384155e-01" nType="0">
        <Node pos="l" depth="1" NCoef="0" IVar="1" Cut="2.6993761062622070e+00" cType="1" res="-9.1617191210389137e-03" rms="2.0647472143173218e-01" purity="3.2799509167671204e-01" nType="0">
          <Node pos="l" depth="2" NCoef="0" IVar="-1" Cut="0.0000000000000000e+00" cType="1" res="1.3921536738052964e-03" rms="2.3644755780696869e-01" purity="3.6274343729019165e-01" nType="-99"/>
          <Node pos="r" depth="2" NCoef="0" IVar="-1" Cut="0.0000000000000000e+00" cType="1" res="-2.6641709730029106e-02" rms="-nan" purity="2.0228016376495361e-01" nType="-99"/>
        </Node>
        <Node pos="r" depth="1" NCoef="0" IVar="13" Cut="-6.8280339241027832e-01" cType="1" res="2.1920528262853622e-02" rms="2.7349275350570679e-01" purity="6.6439396142959595e-01" nType="0">
          <Node pos="l" depth="2" NCoef="0" IVar="-1" Cut="0.0000000000000000e+00" cType="1" res="4.7577731311321259e-02" rms="3.0954572558403015e-01" purity="3.3845058083534241e-01" nType="-99"/>
          <Node pos="r" depth="2" NCoef="0" IVar="-1" Cut="0.0000000000000000e+00" cType="1" res="3.1280326656997204e-03" rms="2.6543834805488586e-01" purity="7.1587413549423218e-01" nType="-99"/>
        </Node>
      </Node>
    </BinaryTree>
    <BinaryTree type="DecisionTree" boostWeight="1.0000000000000000e+00" itree="869">
      <Node pos="s" depth="0" NCoef="0" IVar="6" Cut="2.7696599960327148e+00" cType="1" res="4.4048202107660472e-04" rms="2.3953881859779358e-01" purity="4.9804255366325378e-01" nType="0">
        <Node pos="l" depth="1" NCoef="0" IVar="16" Cut="-1.4156177043914795e+00" cType="1" res="-9.9499812349677086e-03" rms="2.2310361266136169e-01" purity="4.3923765420913696e-01" nType="0">
          <Node pos="l" depth="2" NCoef="0" IVar="-1" Cut="0.0000000000000000e+00" cType="1" res="-7.3649108409881592e-02" rms="-nan" purity="4.1983529925346375e-02" nType="-99"/>
          <Node pos="r" depth="2" NCoef="0" IVar="-1" Cut="0.0000000000000000e+00" cType="1" res="-2.1177423186600208e-03" rms="2.3287686705589294e-01" purity="4.5130753517150879e-01" nType="-99"/>
        </Node>
        <Node pos="r" depth="1" NCoef="0" IVar="57" Cut="-1.2604000568389893e+00" cType="1" res="3.6463472992181778e-02" rms="2.8647533059120178e-01" purity="7.0191502571105957e-01" nType="0">
          <Node pos="l" depth="2" NCoef="0" IVar="-1" Cut="0.0000000000000000e+00" cType="1" res="7.5179047882556915e-02" rms="4.1052711009979248e-01" purity="2.8425565361976624e-01" nType="-99"/>
          <Node pos="r" depth="2" NCoef="0" IVar="-1" Cut="0.0000000000000000e+00" cType="1" res="7.5459387153387070e-03" rms="2.6546922326087952e-01" purity="7.4599403142929077e-01" nType="-99"/>
        </Node>
      </Node>
    </BinaryTree>
    <BinaryTree type="DecisionTree" boostWeight="1.0000000000000000e+00" itree="870">
      <Node pos="s" depth="0" NCoef="0" IVar="28" Cut="-1.1582424640655518e+00" cType="1" res="8.5036857053637505e-03" rms="2.4711638689041138e-01" purity="5.0525808334350586e-01" nType="0">
        <Node pos="l" depth="1" NCoef="0" IVar="2" Cut="1.1059648990631104e+00" cType="1" res="1.2460689991712570e-02" rms="2.5343456864356995e-01" purity="5.1317292451858521e-01" nType="0">
          <Node pos="l" depth="2" NCoef="0" IVar="-1" Cut="0.0000000000000000e+00" cType="1" res="6.3363522291183472e-02" rms="3.3916637301445007e-01" purity="1.6330920159816742e-01" nType="-99"/>
          <Node pos="r" depth="2" NCoef="0" IVar="-1" Cut="0.0000000000000000e+00" cType="1" res="3.0716510955244303e-03" rms="2.4812482297420502e-01" purity="5.2956771850585938e-01" nType="-99"/>
        </Node>
        <Node pos="r" depth="1" NCoef="0" IVar="0" Cut="6.4184105396270752e-01" cType="1" res="-2.3000346496701241e-02" rms="-nan" purity="3.6346811056137085e-01" nType="-99"/>
      </Node>
    </BinaryTree>
    <BinaryTree type="DecisionTree" boostWeight="1.0000000000000000e+00" itree="871">
      <Node pos="s" depth="0" NCoef="0" IVar="17" Cut="-1.2990504503250122e+00" cType="1" res="1.6846276121214032e-03" rms="2.3913952708244324e-01" purity="5.0319522619247437e-01" nType="0">
        <Node pos="l" depth="1" NCoef="0" IVar="3" Cut="5.2067255973815918e+00" cType="1" res="4.6258442103862762e-02" rms="2.1260702610015869e-01" purity="6.0414489358663559e-02" nType="0">
          <Node pos="l" depth="2" NCoef="0" IVar="-1" Cut="0.0000000000000000e+00" cType="1" res="1.7149491608142853e-01" rms="2.7059009671211243e-01" purity="9.1485798358917236e-02" nType="-99"/>
          <Node pos="r" depth="2" NCoef="0" IVar="-1" Cut="0.0000000000000000e+00" cType="1" res="-2.0733034610748291e-01" rms="-nan" purity="-8.5967086255550385e-02" nType="-99"/>
        </Node>
        <Node pos="r" depth="1" NCoef="0" IVar="17" Cut="1.4217813014984131e+00" cType="1" res="-4.3125431984663010e-03" rms="2.4186168611049652e-01" purity="5.6276899576187134e-01" nType="0">
          <Node pos="l" depth="2" NCoef="0" IVar="-1" Cut="0.0000000000000000e+00" cType="1" res="-2.4000270292162895e-02" rms="-nan" purity="5.9150006622076035e-02" nType="-99"/>
          <Node pos="r" depth="2" NCoef="0" IVar="-1" Cut="0.0000000000000000e+00" cType="1" res="2.1831614430993795e-03" rms="2.7915129065513611e-01" purity="6.9650816917419434e-01" nType="-99"/>
        </Node>
      </Node>
    </BinaryTree>
    <BinaryTree type="DecisionTree" boostWeight="1.0000000000000000e+00" itree="872">
      <Node pos="s" depth="0" NCoef="0" IVar="7" Cut="-9.4792252779006958e-01" cType="1" res="-5.9615778736770153e-03" rms="2.3465269804000854e-01" purity="4.8906284570693970e-01" nType="0">
        <Node pos="l" depth="1" NCoef="0" IVar="3" Cut="5.5367126464843750e+00" cType="1" res="-9.7421277314424515e-03" rms="2.2893640398979187e-01" purity="4.9108263850212097e-01" nType="0">
          <Node pos="l" depth="2" NCoef="0" IVar="-1" Cut="0.0000000000000000e+00" cType="1" res="-4.5618130825459957e-03" rms="2.2436432540416718e-01" purity="4.9594184756278992e-01" nType="-99"/>
          <Node pos="r" depth="2" NCoef="0" IVar="-1" Cut="0.0000000000000000e+00" cType="1" res="5.0215899944305420e-02" rms="3.5782968997955322e-01" purity="2.6452216506004333e-01" nType="-99"/>
        </Node>
        <Node pos="r" depth="1" NCoef="0" IVar="-1" Cut="0.0000000000000000e+00" cType="1" res="3.9699994027614594e-02" rms="3.6202296614646912e-01" purity="4.1680803894996643e-01" nType="-99"/>
      </Node>
    </BinaryTree>
    <BinaryTree type="DecisionTree" boostWeight="1.0000000000000000e+00" itree="873">
      <Node pos="s" depth="0" NCoef="0" IVar="39" Cut="-1.0651309490203857e+00" cType="1" res="4.2848852463066578e-03" rms="2.5094446539878845e-01" purity="5.0128465890884399e-01" nType="0">
        <Node pos="l" depth="1" NCoef="0" IVar="18" Cut="-7.8628605604171753e-01" cType="1" res="-4.8049050383269787e-03" rms="2.3965379595756531e-01" purity="5.4209601879119873e-01" nType="0">
          <Node pos="l" depth="2" NCoef="0" IVar="-1" Cut="0.0000000000000000e+00" cType="1" res="-3.4882782492786646e-03" rms="2.2855891287326813e-01" purity="5.5549675226211548e-01" nType="-99"/>
          <Node pos="r" depth="2" NCoef="0" IVar="-1" Cut="0.0000000000000000e+00" cType="1" res="2.6491140946745872e-02" rms="3.6293727159500122e-01" purity="3.3240306377410889e-01" nType="-99"/>
        </Node>
        <Node pos="r" depth="1" NCoef="0" IVar="88" Cut="1.1623318195343018e+00" cType="1" res="4.7833587974309921e-02" rms="2.9532805085182190e-01" purity="3.0575919151306152e-01" nType="0">
          <Node pos="l" depth="2" NCoef="0" IVar="-1" Cut="0.0000000000000000e+00" cType="1" res="1.0603570379316807e-02" rms="2.7568379044532776e-01" purity="3.0803313851356506e-01" nType="-99"/>
          <Node pos="r" depth="2" NCoef="0" IVar="-1" Cut="0.0000000000000000e+00" cType="1" res="9.3886993825435638e-02" rms="3.8756737112998962e-01" purity="2.8947970271110535e-01" nType="-99"/>
        </Node>
      </Node>
    </BinaryTree>
    <BinaryTree type="DecisionTree" boostWeight="1.0000000000000000e+00" itree="874">
      <Node pos="s" depth="0" NCoef="0" IVar="2" Cut="2.3405199050903320e+00" cType="1" res="6.6670710220932961e-03" rms="2.4721860885620117e-01" purity="4.9828279018402100e-01" nType="0">
        <Node pos="l" depth="1" NCoef="0" IVar="18" Cut="-5.9368503093719482e-01" cType="1" res="-1.5852214768528938e-02" rms="2.0496621727943420e-01" purity="2.9341810941696167e-01" nType="0">
          <Node pos="l" depth="2" NCoef="0" IVar="-1" Cut="0.0000000000000000e+00" cType="1" res="-8.4145208820700645e-03" rms="1.8600755929946899e-01" purity="2.9694712162017822e-01" nType="-99"/>
          <Node pos="r" depth="2" NCoef="0" IVar="-1" Cut="0.0000000000000000e+00" cType="1" res="4.9766596406698227e-02" rms="4.0718993544578552e-01" purity="2.2686082124710083e-01" nType="-99"/>
        </Node>
        <Node pos="r" depth="1" NCoef="0" IVar="16" Cut="1.2057551145553589e+00" cType="1" res="2.3214669898152351e-02" rms="2.7296510338783264e-01" purity="6.4882123470306396e-01" nType="0">
          <Node pos="l" depth="2" NCoef="0" IVar="-1" Cut="0.0000000000000000e+00" cType="1" res="5.5788056924939156e-03" rms="2.6403123140335083e-01" purity="6.5633732080459595e-01" nType="-99"/>
          <Node pos="r" depth="2" NCoef="0" IVar="-1" Cut="0.0000000000000000e+00" cType="1" res="4.2614411562681198e-02" rms="3.8725012540817261e-01" purity="5.0361233949661255e-01" nType="-99"/>
        </Node>
      </Node>
    </BinaryTree>
    <BinaryTree type="DecisionTree" boostWeight="1.0000000000000000e+00" itree="875">
      <Node pos="s" depth="0" NCoef="0" IVar="39" Cut="-1.9295388460159302e+00" cType="1" res="5.7278545573353767e-03" rms="2.4768155813217163e-01" purity="5.0153517723083496e-01" nType="0">
        <Node pos="l" depth="1" NCoef="0" IVar="39" Cut="-2.3520491123199463e+00" cType="1" res="-1.1141687631607056e-02" rms="2.3050931096076965e-01" purity="6.0184860229492188e-01" nType="0">
          <Node pos="l" depth="2" NCoef="0" IVar="-1" Cut="0.0000000000000000e+00" cType="1" res="3.1688830349594355e-03" rms="2.5724214315414429e-01" purity="6.5422695875167847e-01" nType="-99"/>
          <Node pos="r" depth="2" NCoef="0" IVar="-1" Cut="0.0000000000000000e+00" cType="1" res="-1.4682228676974773e-02" rms="1.7993608117103577e-01" purity="5.2459645271301270e-01" nType="-99"/>
        </Node>
        <Node pos="r" depth="1" NCoef="0" IVar="20" Cut="1.0647473484277725e-01" cType="1" res="2.3973833769559860e-02" rms="2.6379358768463135e-01" purity="3.9303690195083618e-01" nType="0">
          <Node pos="l" depth="2" NCoef="0" IVar="-1" Cut="0.0000000000000000e+00" cType="1" res="1.4558635652065277e-02" rms="2.8775230050086975e-01" purity="4.2324605584144592e-01" nType="-99"/>
          <Node pos="r" depth="2" NCoef="0" IVar="-1" Cut="0.0000000000000000e+00" cType="1" res="-9.4576943665742874e-03" rms="1.7032146453857422e-01" purity="3.0775725841522217e-01" nType="-99"/>
        </Node>
      </Node>
    </BinaryTree>
    <BinaryTree type="DecisionTree" boostWeight="1.0000000000000000e+00" itree="876">
      <Node pos="s" depth="0" NCoef="0" IVar="55" Cut="-1.4926717281341553e+00" cType="1" res="1.1445197742432356e-03" rms="2.3699763417243958e-01" purity="5.0496613979339600e-01" nType="0">
        <Node pos="l" depth="1" NCoef="0" IVar="62" Cut="-2.4023259058594704e-02" cType="1" res="8.5754312574863434e-02" rms="3.1385070085525513e-01" purity="4.5454680919647217e-01" nType="0">
          <Node pos="l" depth="2" NCoef="0" IVar="-1" Cut="0.0000000000000000e+00" cType="1" res="-4.7517064958810806e-03" rms="1.5323519706726074e-01" purity="3.9515534043312073e-01" nType="-99"/>
          <Node pos="r" depth="2" NCoef="0" IVar="-1" Cut="0.0000000000000000e+00" cType="1" res="5.6344725191593170e-02" rms="3.8540801405906677e-01" purity="5.0601118803024292e-01" nType="-99"/>
        </Node>
        <Node pos="r" depth="1" NCoef="0" IVar="88" Cut="1.1836940050125122e+00" cType="1" res="-2.8140847571194172e-03" rms="2.3202712833881378e-01" purity="5.0732511281967163e-01" nType="0">
          <Node pos="l" depth="2" NCoef="0" IVar="-1" Cut="0.0000000000000000e+00" cType="1" res="1.2004560558125377e-03" rms="2.4509528279304504e-01" purity="5.3236371278762817e-01" nType="-99"/>
          <Node pos="r" depth="2" NCoef="0" IVar="-1" Cut="0.0000000000000000e+00" cType="1" res="-4.6025320887565613e-02" rms="-nan" purity="1.6707594692707062e-01" nType="-99"/>
        </Node>
      </Node>
    </BinaryTree>
    <BinaryTree type="DecisionTree" boostWeight="1.0000000000000000e+00" itree="877">
      <Node pos="s" depth="0" NCoef="0" IVar="3" Cut="5.4614505767822266e+00" cType="1" res="-1.2675637844949961e-03" rms="2.3676773905754089e-01" purity="4.9713000655174255e-01" nType="0">
        <Node pos="l" depth="1" NCoef="0" IVar="34" Cut="-1.4541239738464355e+00" cType="1" res="1.4132775831967592e-03" rms="2.4349673092365265e-01" purity="5.0903034210205078e-01" nType="0">
          <Node pos="l" depth="2" NCoef="0" IVar="-1" Cut="0.0000000000000000e+00" cType="1" res="2.8818549588322639e-02" rms="3.0302053689956665e-01" purity="3.6853969097137451e-01" nType="-99"/>
          <Node pos="r" depth="2" NCoef="0" IVar="-1" Cut="0.0000000000000000e+00" cType="1" res="-1.2531292159110308e-03" rms="2.3791642487049103e-01" purity="5.1897352933883667e-01" nType="-99"/>
        </Node>
        <Node pos="r" depth="1" NCoef="0" IVar="-1" Cut="0.0000000000000000e+00" cType="1" res="-3.9049919694662094e-02" rms="-nan" purity="5.5242467671632767e-02" nType="-99"/>
      </Node>
    </BinaryTree>
    <BinaryTree type="DecisionTree" boostWeight="1.0000000000000000e+00" itree="878">
      <Node pos="s" depth="0" NCoef="0" IVar="77" Cut="4.0116184949874878e-01" cType="1" res="-3.0097304843366146e-03" rms="2.3045270144939423e-01" purity="5.0693678855895996e-01" nType="0">
        <Node pos="l" depth="1" NCoef="0" IVar="78" Cut="3.2746225595474243e-02" cType="1" res="-9.6348859369754791e-03" rms="2.2389084100723267e-01" purity="5.3562486171722412e-01" nType="0">
          <Node pos="l" depth="2" NCoef="0" IVar="-1" Cut="0.0000000000000000e+00" cType="1" res="-6.2143552349880338e-04" rms="2.4077416956424713e-01" purity="5.9695428609848022e-01" nType="-99"/>
          <Node pos="r" depth="2" NCoef="0" IVar="-1" Cut="0.0000000000000000e+00" cType="1" res="-2.0215610042214394e-02" rms="6.5569929778575897e-02" purity="1.9459041953086853e-01" nType="-99"/>
        </Node>
        <Node pos="r" depth="1" NCoef="0" IVar="81" Cut="-7.6024675369262695e-01" cType="1" res="4.4799521565437317e-02" rms="2.6836591958999634e-01" purity="2.9991447925567627e-01" nType="0">
          <Node pos="l" depth="2" NCoef="0" IVar="-1" Cut="0.0000000000000000e+00" cType="1" res="6.2533752061426640e-03" rms="2.2204935550689697e-01" purity="3.0252683162689209e-01" nType="-99"/>
          <Node pos="r" depth="2" NCoef="0" IVar="-1" Cut="0.0000000000000000e+00" cType="1" res="8.5891202092170715e-02" rms="3.7758418917655945e-01" purity="2.8971987962722778e-01" nType="-99"/>
        </Node>
      </Node>
    </BinaryTree>
    <BinaryTree type="DecisionTree" boostWeight="1.0000000000000000e+00" itree="879">
      <Node pos="s" depth="0" NCoef="0" IVar="25" Cut="1.3123273849487305e+00" cType="1" res="-3.3188413362950087e-03" rms="2.2861720621585846e-01" purity="5.0156998634338379e-01" nType="0">
        <Node pos="l" depth="1" NCoef="0" IVar="27" Cut="7.9449206590652466e-01" cType="1" res="-7.8593827784061432e-03" rms="2.2277978062629700e-01" purity="5.0912940502166748e-01" nType="0">
          <Node pos="l" depth="2" NCoef="0" IVar="-1" Cut="0.0000000000000000e+00" cType="1" res="3.8524623960256577e-02" rms="3.4217661619186401e-01" purity="2.5299349427223206e-01" nType="-99"/>
          <Node pos="r" depth="2" NCoef="0" IVar="-1" Cut="0.0000000000000000e+00" cType="1" res="-4.6072741970419884e-03" rms="2.1204514801502228e-01" purity="5.2480983734130859e-01" nType="-99"/>
        </Node>
        <Node pos="r" depth="1" NCoef="0" IVar="38" Cut="1.2012603282928467e+00" cType="1" res="8.5900887846946716e-02" rms="3.0931717157363892e-01" purity="3.5303103923797607e-01" nType="0">
          <Node pos="l" depth="2" NCoef="0" IVar="-1" Cut="0.0000000000000000e+00" cType="1" res="8.4986172616481781e-02" rms="3.7443816661834717e-01" purity="3.0597859621047974e-01" nType="-99"/>
          <Node pos="r" depth="2" NCoef="0" IVar="-1" Cut="0.0000000000000000e+00" cType="1" res="-1.9209767924621701e-03" rms="1.8275900185108185e-01" purity="4.0137454867362976e-01" nType="-99"/>
        </Node>
      </Node>
    </BinaryTree>
    <BinaryTree type="DecisionTree" boostWeight="1.0000000000000000e+00" itree="880">
      <Node pos="s" depth="0" NCoef="0" IVar="58" Cut="1.3206231594085693e+00" cType="1" res="-1.0334382532164454e-03" rms="2.3502714931964874e-01" purity="4.9545070528984070e-01" nType="0">
        <Node pos="l" depth="1" NCoef="0" IVar="5" Cut="-9.2172376811504364e-02" cType="1" res="2.6058449875563383e-03" rms="2.3943673074245453e-01" purity="5.0575333833694458e-01" nType="0">
          <Node pos="l" depth="2" NCoef="0" IVar="-1" Cut="0.0000000000000000e+00" cType="1" res="-3.5879660397768021e-02" rms="-nan" purity="1.8653219938278198e-01" nType="-99"/>
          <Node pos="r" depth="2" NCoef="0" IVar="-1" Cut="0.0000000000000000e+00" cType="1" res="2.4587858933955431e-03" rms="2.5048467516899109e-01" purity="5.2638036012649536e-01" nType="-99"/>
        </Node>
        <Node pos="r" depth="1" NCoef="0" IVar="19" Cut="6.6293048858642578e-01" cType="1" res="-7.8191615641117096e-02" rms="6.8163037300109863e-02" purity="2.7701798081398010e-01" nType="0">
          <Node pos="l" depth="2" NCoef="0" IVar="-1" Cut="0.0000000000000000e+00" cType="1" res="1.4599969610571861e-02" rms="2.9850429296493530e-01" purity="4.0205654501914978e-01" nType="-99"/>
          <Node pos="r" depth="2" NCoef="0" IVar="-1" Cut="0.0000000000000000e+00" cType="1" res="-8.5029147565364838e-02" rms="-nan" purity="1.4364834129810333e-01" nType="-99"/>
        </Node>
      </Node>
    </BinaryTree>
    <BinaryTree type="DecisionTree" boostWeight="1.0000000000000000e+00" itree="881">
      <Node pos="s" depth="0" NCoef="0" IVar="15" Cut="-1.4538640975952148e+00" cType="1" res="7.7417627908289433e-03" rms="2.4767692387104034e-01" purity="5.0568765401840210e-01" nType="0">
        <Node pos="l" depth="1" NCoef="0" IVar="60" Cut="-1.1479810476303101e+00" cType="1" res="-4.7816820442676544e-02" rms="-nan" purity="4.0402550250291824e-02" nType="-99"/>
        <Node pos="r" depth="1" NCoef="0" IVar="31" Cut="2.3083982467651367e+00" cType="1" res="1.3396929949522018e-02" rms="2.6151084899902344e-01" purity="5.4630923271179199e-01" nType="0">
          <Node pos="l" depth="2" NCoef="0" IVar="-1" Cut="0.0000000000000000e+00" cType="1" res="4.8857897520065308e-02" rms="4.2150980234146118e-01" purity="3.2670956850051880e-01" nType="-99"/>
          <Node pos="r" depth="2" NCoef="0" IVar="-1" Cut="0.0000000000000000e+00" cType="1" res="3.0924482271075249e-03" rms="2.5446748733520508e-01" purity="5.5253177881240845e-01" nType="-99"/>
        </Node>
      </Node>
    </BinaryTree>
    <BinaryTree type="DecisionTree" boostWeight="1.0000000000000000e+00" itree="882">
      <Node pos="s" depth="0" NCoef="0" IVar="46" Cut="1.4316247701644897e+00" cType="1" res="-7.7900560572743416e-03" rms="2.2552952170372009e-01" purity="4.8667141795158386e-01" nType="0">
        <Node pos="l" depth="1" NCoef="0" IVar="3" Cut="5.4801101684570312e+00" cType="1" res="-4.3248953297734261e-03" rms="2.3269540071487427e-01" purity="5.0034898519515991e-01" nType="0">
          <Node pos="l" depth="2" NCoef="0" IVar="-1" Cut="0.0000000000000000e+00" cType="1" res="-4.6257546637207270e-04" rms="2.3964382708072662e-01" purity="5.1029330492019653e-01" nType="-99"/>
          <Node pos="r" depth="2" NCoef="0" IVar="-1" Cut="0.0000000000000000e+00" cType="1" res="-4.4895116239786148e-02" rms="-nan" purity="6.2979362905025482e-02" nType="-99"/>
        </Node>
        <Node pos="r" depth="1" NCoef="0" IVar="-1" Cut="0.0000000000000000e+00" cType="1" res="-6.2242086976766586e-02" rms="-nan" purity="1.7832016572356224e-02" nType="-99"/>
      </Node>
    </BinaryTree>
    <BinaryTree type="DecisionTree" boostWeight="1.0000000000000000e+00" itree="883">
      <Node pos="s" depth="0" NCoef="0" IVar="52" Cut="2.4014444351196289e+00" cType="1" res="1.9188098376616836e-03" rms="2.4027936160564423e-01" purity="4.9583286046981812e-01" nType="0">
        <Node pos="l" depth="1" NCoef="0" IVar="82" Cut="6.8789273500442505e-01" cType="1" res="1.1294854432344437e-01" rms="3.4049358963966370e-01" purity="2.7692663669586182e-01" nType="0">
          <Node pos="l" depth="2" NCoef="0" IVar="-1" Cut="0.0000000000000000e+00" cType="1" res="8.1510744988918304e-02" rms="4.3547081947326660e-01" purity="4.2248180508613586e-01" nType="-99"/>
          <Node pos="r" depth="2" NCoef="0" IVar="-1" Cut="0.0000000000000000e+00" cType="1" res="1.0409098118543625e-02" rms="2.1662367880344391e-01" purity="1.7969402670860291e-01" nType="-99"/>
        </Node>
        <Node pos="r" depth="1" NCoef="0" IVar="10" Cut="2.8047909736633301e+00" cType="1" res="-4.1230050846934319e-03" rms="2.3207698762416840e-01" purity="5.0774490833282471e-01" nType="0">
          <Node pos="l" depth="2" NCoef="0" IVar="-1" Cut="0.0000000000000000e+00" cType="1" res="2.5675756856799126e-02" rms="3.1387874484062195e-01" purity="2.6554596424102783e-01" nType="-99"/>
          <Node pos="r" depth="2" NCoef="0" IVar="-1" Cut="0.0000000000000000e+00" cType="1" res="-3.0629655811935663e-03" rms="2.2507776319980621e-01" purity="5.2300566434860229e-01" nType="-99"/>
        </Node>
      </Node>
    </BinaryTree>
    <BinaryTree type="DecisionTree" boostWeight="1.0000000000000000e+00" itree="884">
      <Node pos="s" depth="0" NCoef="0" IVar="57" Cut="-1.4537727832794189e+00" cType="1" res="4.5156078413128853e-03" rms="2.4191802740097046e-01" purity="5.0704461336135864e-01" nType="0">
        <Node pos="l" depth="1" NCoef="0" IVar="-1" Cut="0.0000000000000000e+00" cType="1" res="5.5875334888696671e-02" rms="3.3870482444763184e-01" purity="1.8228270113468170e-01" nType="-99"/>
        <Node pos="r" depth="1" NCoef="0" IVar="60" Cut="-2.5460669994354248e+00" cType="1" res="1.4595160027965903e-03" rms="2.3762035369873047e-01" purity="5.1716929674148560e-01" nType="0">
          <Node pos="l" depth="2" NCoef="0" IVar="-1" Cut="0.0000000000000000e+00" cType="1" res="2.0364431664347649e-02" rms="2.8700980544090271e-01" purity="7.1363186836242676e-01" nType="-99"/>
          <Node pos="r" depth="2" NCoef="0" IVar="-1" Cut="0.0000000000000000e+00" cType="1" res="-1.2802185956388712e-03" rms="2.3212814331054688e-01" purity="5.0009828805923462e-01" nType="-99"/>
        </Node>
      </Node>
    </BinaryTree>
    <BinaryTree type="DecisionTree" boostWeight="1.0000000000000000e+00" itree="885">
      <Node pos="s" depth="0" NCoef="0" IVar="50" Cut="-7.7565252780914307e-02" cType="1" res="1.6381758032366633e-03" rms="2.3360221087932587e-01" purity="5.0262033939361572e-01" nType="0">
        <Node pos="l" depth="1" NCoef="0" IVar="16" Cut="-1.3770496845245361e+00" cType="1" res="5.2414066158235073e-03" rms="2.3979674279689789e-01" purity="5.0712978839874268e-01" nType="0">
          <Node pos="l" depth="2" NCoef="0" IVar="-1" Cut="0.0000000000000000e+00" cType="1" res="2.7296017855405807e-02" rms="2.9567587375640869e-01" purity="2.7699550986289978e-01" nType="-99"/>
          <Node pos="r" depth="2" NCoef="0" IVar="-1" Cut="0.0000000000000000e+00" cType="1" res="5.1564531167969108e-04" rms="2.3569829761981964e-01" purity="5.2008610963821411e-01" nType="-99"/>
        </Node>
        <Node pos="r" depth="1" NCoef="0" IVar="82" Cut="7.4510532617568970e-01" cType="1" res="-2.9404513537883759e-02" rms="-nan" purity="3.9958095550537109e-01" nType="-99"/>
      </Node>
    </BinaryTree>
    <BinaryTree type="DecisionTree" boostWeight="1.0000000000000000e+00" itree="886">
      <Node pos="s" depth="0" NCoef="0" IVar="52" Cut="2.4937596321105957e+00" cType="1" res="-1.3671296183019876e-03" rms="2.3837693035602570e-01" purity="4.9581760168075562e-01" nType="0">
        <Node pos="l" depth="1" NCoef="0" IVar="48" Cut="1.3912255764007568e+00" cType="1" res="6.4900040626525879e-02" rms="3.1340369582176208e-01" purity="2.1367187798023224e-01" nType="0">
          <Node pos="l" depth="2" NCoef="0" IVar="-1" Cut="0.0000000000000000e+00" cType="1" res="5.1302734762430191e-02" rms="3.6011359095573425e-01" purity="2.0153805613517761e-01" nType="-99"/>
          <Node pos="r" depth="2" NCoef="0" IVar="-1" Cut="0.0000000000000000e+00" cType="1" res="-1.4222788624465466e-02" rms="2.1676503121852875e-02" purity="2.4468150734901428e-01" nType="-99"/>
        </Node>
        <Node pos="r" depth="1" NCoef="0" IVar="82" Cut="1.5483551025390625e+00" cType="1" res="-7.0194657891988754e-03" rms="2.2996941208839417e-01" purity="5.1988357305526733e-01" nType="0">
          <Node pos="l" depth="2" NCoef="0" IVar="-1" Cut="0.0000000000000000e+00" cType="1" res="-1.1180768487975001e-03" rms="2.3927004635334015e-01" purity="5.3482079505920410e-01" nType="-99"/>
          <Node pos="r" depth="2" NCoef="0" IVar="-1" Cut="0.0000000000000000e+00" cType="1" res="-4.4357839971780777e-02" rms="-nan" purity="1.2101815640926361e-01" nType="-99"/>
        </Node>
      </Node>
    </BinaryTree>
    <BinaryTree type="DecisionTree" boostWeight="1.0000000000000000e+00" itree="887">
      <Node pos="s" depth="0" NCoef="0" IVar="56" Cut="1.4837484359741211e+00" cType="1" res="1.2437845580279827e-03" rms="2.3558618128299713e-01" purity="4.9900504946708679e-01" nType="0">
        <Node pos="l" depth="1" NCoef="0" IVar="42" Cut="-5.4623174667358398e-01" cType="1" res="4.0084291249513626e-03" rms="2.3909629881381989e-01" purity="5.0699466466903687e-01" nType="0">
          <Node pos="l" depth="2" NCoef="0" IVar="-1" Cut="0.0000000000000000e+00" cType="1" res="-2.9900580644607544e-02" rms="1.2632930278778076e-01" purity="4.2718553543090820e-01" nType="-99"/>
          <Node pos="r" depth="2" NCoef="0" IVar="-1" Cut="0.0000000000000000e+00" cType="1" res="2.5323848240077496e-03" rms="2.4187694489955902e-01" purity="5.1012152433395386e-01" nType="-99"/>
        </Node>
        <Node pos="r" depth="1" NCoef="0" IVar="-1" Cut="0.0000000000000000e+00" cType="1" res="-3.9792936295270920e-02" rms="-nan" purity="1.9079227745532990e-01" nType="-99"/>
      </Node>
    </BinaryTree>
    <BinaryTree type="DecisionTree" boostWeight="1.0000000000000000e+00" itree="888">
      <Node pos="s" depth="0" NCoef="0" IVar="82" Cut="1.6761260032653809e+00" cType="1" res="3.5485615953803062e-03" rms="2.3664900660514832e-01" purity="5.0197196006774902e-01" nType="0">
        <Node pos="l" depth="1" NCoef="0" IVar="5" Cut="2.6743352413177490e-01" cType="1" res="6.0618703719228506e-04" rms="2.3277406394481659e-01" purity="5.0712418556213379e-01" nType="0">
          <Node pos="l" depth="2" NCoef="0" IVar="-1" Cut="0.0000000000000000e+00" cType="1" res="5.5664586834609509e-03" rms="2.4823410809040070e-01" purity="5.4715716838836670e-01" nType="-99"/>
          <Node pos="r" depth="2" NCoef="0" IVar="-1" Cut="0.0000000000000000e+00" cType="1" res="-7.0626866072416306e-03" rms="2.0685286819934845e-01" purity="4.4998797774314880e-01" nType="-99"/>
        </Node>
        <Node pos="r" depth="1" NCoef="0" IVar="-1" Cut="0.0000000000000000e+00" cType="1" res="4.4260181486606598e-02" rms="3.3312946557998657e-01" purity="3.1203135848045349e-01" nType="-99"/>
      </Node>
    </BinaryTree>
    <BinaryTree type="DecisionTree" boostWeight="1.0000000000000000e+00" itree="889">
      <Node pos="s" depth="0" NCoef="0" IVar="7" Cut="-9.3355333805084229e-01" cType="1" res="3.3276407048106194e-03" rms="2.4344640970230103e-01" purity="4.9740639328956604e-01" nType="0">
        <Node pos="l" depth="1" NCoef="0" IVar="14" Cut="1.2920961380004883e+00" cType="1" res="1.1614844697760418e-04" rms="2.3929326236248016e-01" purity="5.0016158819198608e-01" nType="0">
          <Node pos="l" depth="2" NCoef="0" IVar="-1" Cut="0.0000000000000000e+00" cType="1" res="1.4386868569999933e-03" rms="2.4430203437805176e-01" purity="5.0802731513977051e-01" nType="-99"/>
          <Node pos="r" depth="2" NCoef="0" IVar="-1" Cut="0.0000000000000000e+00" cType="1" res="-2.5291241705417633e-02" rms="4.4206701219081879e-02" purity="3.4250599145889282e-01" nType="-99"/>
        </Node>
        <Node pos="r" depth="1" NCoef="0" IVar="-1" Cut="0.0000000000000000e+00" cType="1" res="3.9302833378314972e-02" rms="3.4456142783164978e-01" purity="3.9596322178840637e-01" nType="-99"/>
      </Node>
    </BinaryTree>
    <BinaryTree type="DecisionTree" boostWeight="1.0000000000000000e+00" itree="890">
      <Node pos="s" depth="0" NCoef="0" IVar="3" Cut="4.3074326515197754e+00" cType="1" res="-4.4706906192004681e-03" rms="2.2485502064228058e-01" purity="5.0119227170944214e-01" nType="0">
        <Node pos="l" depth="1" NCoef="0" IVar="-1" Cut="0.0000000000000000e+00" cType="1" res="-3.5238813608884811e-02" rms="-nan" purity="1.2885224819183350e-01" nType="-99"/>
        <Node pos="r" depth="1" NCoef="0" IVar="25" Cut="1.3497248888015747e+00" cType="1" res="-1.5074473340064287e-03" rms="2.2976407408714294e-01" purity="5.1099324226379395e-01" nType="0">
          <Node pos="l" depth="2" NCoef="0" IVar="-1" Cut="0.0000000000000000e+00" cType="1" res="4.7620330587960780e-04" rms="2.3627325892448425e-01" purity="5.2256584167480469e-01" nType="-99"/>
          <Node pos="r" depth="2" NCoef="0" IVar="-1" Cut="0.0000000000000000e+00" cType="1" res="-4.2156595736742020e-02" rms="-nan" purity="1.4714981615543365e-01" nType="-99"/>
        </Node>
      </Node>
    </BinaryTree>
    <BinaryTree type="DecisionTree" boostWeight="1.0000000000000000e+00" itree="891">
      <Node pos="s" depth="0" NCoef="0" IVar="48" Cut="9.5375090837478638e-01" cType="1" res="2.3392254952341318e-03" rms="2.3556864261627197e-01" purity="4.9438992142677307e-01" nType="0">
        <Node pos="l" depth="1" NCoef="0" IVar="41" Cut="7.0791237056255341e-02" cType="1" res="-5.7128004729747772e-02" rms="8.5755087435245514e-02" purity="1.4896227419376373e-01" nType="0">
          <Node pos="l" depth="2" NCoef="0" IVar="-1" Cut="0.0000000000000000e+00" cType="1" res="-4.4109035283327103e-02" rms="-nan" purity="1.5361092984676361e-01" nType="-99"/>
          <Node pos="r" depth="2" NCoef="0" IVar="-1" Cut="0.0000000000000000e+00" cType="1" res="1.6884880140423775e-02" rms="2.6601210236549377e-01" purity="1.4127688109874725e-01" nType="-99"/>
        </Node>
        <Node pos="r" depth="1" NCoef="0" IVar="31" Cut="2.2919728755950928e+00" cType="1" res="8.0121476203203201e-03" rms="2.4436709284782410e-01" purity="5.2734231948852539e-01" nType="0">
          <Node pos="l" depth="2" NCoef="0" IVar="-1" Cut="0.0000000000000000e+00" cType="1" res="4.3756630271673203e-02" rms="3.8879710435867310e-01" purity="3.1066739559173584e-01" nType="-99"/>
          <Node pos="r" depth="2" NCoef="0" IVar="-1" Cut="0.0000000000000000e+00" cType="1" res="1.6097093466669321e-03" rms="2.3853737115859985e-01" purity="5.3300660848617554e-01" nType="-99"/>
        </Node>
      </Node>
    </BinaryTree>
    <BinaryTree type="DecisionTree" boostWeight="1.0000000000000000e+00" itree="892">
      <Node pos="s" depth="0" NCoef="0" IVar="0" Cut="1.4871611595153809e+00" cType="1" res="3.0562822939828038e-04" rms="2.3359075188636780e-01" purity="5.0520318746566772e-01" nType="0">
        <Node pos="l" depth="1" NCoef="0" IVar="46" Cut="1.0364359617233276e+00" cType="1" res="-3.1888214871287346e-03" rms="2.2853614389896393e-01" purity="5.0928431749343872e-01" nType="0">
          <Node pos="l" depth="2" NCoef="0" IVar="-1" Cut="0.0000000000000000e+00" cType="1" res="1.8292210297659039e-03" rms="2.4739214777946472e-01" purity="5.5553030967712402e-01" nType="-99"/>
          <Node pos="r" depth="2" NCoef="0" IVar="-1" Cut="0.0000000000000000e+00" cType="1" res="-1.4896546490490437e-02" rms="1.2139906734228134e-01" purity="3.2379695773124695e-01" nType="-99"/>
        </Node>
        <Node pos="r" depth="1" NCoef="0" IVar="-1" Cut="0.0000000000000000e+00" cType="1" res="3.8144692778587341e-02" rms="3.3544373512268066e-01" purity="3.8471654057502747e-01" nType="-99"/>
      </Node>
    </BinaryTree>
    <BinaryTree type="DecisionTree" boostWeight="1.0000000000000000e+00" itree="893">
      <Node pos="s" depth="0" NCoef="0" IVar="6" Cut="1.1550740003585815e+00" cType="1" res="-8.4982113912701607e-03" rms="2.1568615734577179e-01" purity="4.9378445744514465e-01" nType="0">
        <Node pos="l" depth="1" NCoef="0" IVar="35" Cut="-1.1461157798767090e+00" cType="1" res="-4.1819978505373001e-02" rms="-nan" purity="1.4278733730316162e-01" nType="-99"/>
        <Node pos="r" depth="1" NCoef="0" IVar="57" Cut="-1.3377491235733032e+00" cType="1" res="-3.6507691256701946e-03" rms="2.2422629594802856e-01" purity="5.1337051391601562e-01" nType="0">
          <Node pos="l" depth="2" NCoef="0" IVar="-1" Cut="0.0000000000000000e+00" cType="1" res="-3.9643540978431702e-02" rms="-nan" purity="1.8597089219838381e-03" nType="-99"/>
          <Node pos="r" depth="2" NCoef="0" IVar="-1" Cut="0.0000000000000000e+00" cType="1" res="6.6136877285316586e-04" rms="2.4124509096145630e-01" purity="5.6534278392791748e-01" nType="-99"/>
        </Node>
      </Node>
    </BinaryTree>
    <BinaryTree type="DecisionTree" boostWeight="1.0000000000000000e+00" itree="894">
      <Node pos="s" depth="0" NCoef="0" IVar="55" Cut="-1.4926588535308838e+00" cType="1" res="1.3153390958905220e-02" rms="2.6059859991073608e-01" purity="4.9884876608848572e-01" nType="0">
        <Node pos="l" depth="1" NCoef="0" IVar="62" Cut="-2.7906239032745361e-02" cType="1" res="1.0237698256969452e-01" rms="3.2956820726394653e-01" purity="4.6666935086250305e-01" nType="0">
          <Node pos="l" depth="2" NCoef="0" IVar="-1" Cut="0.0000000000000000e+00" cType="1" res="-8.7377056479454041e-03" rms="8.1469967961311340e-02" purity="4.1254007816314697e-01" nType="-99"/>
          <Node pos="r" depth="2" NCoef="0" IVar="-1" Cut="0.0000000000000000e+00" cType="1" res="8.3308815956115723e-02" rms="4.1654196381568909e-01" purity="5.1626032590866089e-01" nType="-99"/>
        </Node>
        <Node pos="r" depth="1" NCoef="0" IVar="40" Cut="3.3573206514120102e-02" cType="1" res="8.8669098913669586e-03" rms="2.5603771209716797e-01" purity="5.0039470195770264e-01" nType="0">
          <Node pos="l" depth="2" NCoef="0" IVar="-1" Cut="0.0000000000000000e+00" cType="1" res="-3.2875236123800278e-02" rms="-nan" purity="5.8789324760437012e-01" nType="-99"/>
          <Node pos="r" depth="2" NCoef="0" IVar="-1" Cut="0.0000000000000000e+00" cType="1" res="4.4517973437905312e-03" rms="2.6218232512474060e-01" purity="4.9714958667755127e-01" nType="-99"/>
        </Node>
      </Node>
    </BinaryTree>
    <BinaryTree type="DecisionTree" boostWeight="1.0000000000000000e+00" itree="895">
      <Node pos="s" depth="0" NCoef="0" IVar="31" Cut="2.5287342071533203e+00" cType="1" res="6.8027391098439693e-03" rms="2.4427323043346405e-01" purity="5.0037950277328491e-01" nType="0">
        <Node pos="l" depth="1" NCoef="0" IVar="58" Cut="-9.5457589626312256e-01" cType="1" res="-2.1775668486952782e-02" rms="-nan" purity="1.2958708405494690e-01" nType="-99"/>
        <Node pos="r" depth="1" NCoef="0" IVar="55" Cut="-1.4155099391937256e+00" cType="1" res="1.2496802955865860e-02" rms="2.5508132576942444e-01" purity="5.3576731681823730e-01" nType="0">
          <Node pos="l" depth="2" NCoef="0" IVar="-1" Cut="0.0000000000000000e+00" cType="1" res="2.6498619467020035e-02" rms="2.9589435458183289e-01" purity="3.5295772552490234e-01" nType="-99"/>
          <Node pos="r" depth="2" NCoef="0" IVar="-1" Cut="0.0000000000000000e+00" cType="1" res="2.0637582056224346e-03" rms="2.4890701472759247e-01" purity="5.5801188945770264e-01" nType="-99"/>
        </Node>
      </Node>
    </BinaryTree>
    <BinaryTree type="DecisionTree" boostWeight="1.0000000000000000e+00" itree="896">
      <Node pos="s" depth="0" NCoef="0" IVar="31" Cut="2.7047834396362305e+00" cType="1" res="-4.3853810057044029e-03" rms="2.3267652094364166e-01" purity="4.9171319603919983e-01" nType="0">
        <Node pos="l" depth="1" NCoef="0" IVar="21" Cut="-1.8120208755135536e-02" cType="1" res="-3.7492476403713226e-02" rms="1.5001156926155090e-01" purity="1.9894021749496460e-01" nType="0">
          <Node pos="l" depth="2" NCoef="0" IVar="-1" Cut="0.0000000000000000e+00" cType="1" res="5.1211882382631302e-03" rms="2.4690431356430054e-01" purity="2.5835707783699036e-01" nType="-99"/>
          <Node pos="r" depth="2" NCoef="0" IVar="-1" Cut="0.0000000000000000e+00" cType="1" res="-3.7350900471210480e-02" rms="-nan" purity="1.2902911007404327e-01" nType="-99"/>
        </Node>
        <Node pos="r" depth="1" NCoef="0" IVar="1" Cut="2.3039708137512207e+00" cType="1" res="2.7780069503933191e-03" rms="2.4636302888393402e-01" purity="5.5506050586700439e-01" nType="0">
          <Node pos="l" depth="2" NCoef="0" IVar="-1" Cut="0.0000000000000000e+00" cType="1" res="1.2518530711531639e-02" rms="2.9843246936798096e-01" purity="3.4214895963668823e-01" nType="-99"/>
          <Node pos="r" depth="2" NCoef="0" IVar="-1" Cut="0.0000000000000000e+00" cType="1" res="-1.7773050349205732e-03" rms="2.3293109238147736e-01" purity="6.0080987215042114e-01" nType="-99"/>
        </Node>
      </Node>
    </BinaryTree>
    <BinaryTree type="DecisionTree" boostWeight="1.0000000000000000e+00" itree="897">
      <Node pos="s" depth="0" NCoef="0" IVar="2" Cut="2.5128719806671143e+00" cType="1" res="2.7478237170726061e-03" rms="2.3612071573734283e-01" purity="5.0007891654968262e-01" nType="0">
        <Node pos="l" depth="1" NCoef="0" IVar="64" Cut="1.2345679104328156e-02" cType="1" res="-1.2937537394464016e-02" rms="2.0304626226425171e-01" purity="3.4900140762329102e-01" nType="0">
          <Node pos="l" depth="2" NCoef="0" IVar="-1" Cut="0.0000000000000000e+00" cType="1" res="-5.7370845228433609e-02" rms="-nan" purity="6.1316356062889099e-02" nType="-99"/>
          <Node pos="r" depth="2" NCoef="0" IVar="-1" Cut="0.0000000000000000e+00" cType="1" res="-2.6192923542112112e-03" rms="2.1937137842178345e-01" purity="3.6152905225753784e-01" nType="-99"/>
        </Node>
        <Node pos="r" depth="1" NCoef="0" IVar="60" Cut="-6.1299067735671997e-01" cType="1" res="2.1087456494569778e-02" rms="2.6853704452514648e-01" purity="6.7672163248062134e-01" nType="0">
          <Node pos="l" depth="2" NCoef="0" IVar="-1" Cut="0.0000000000000000e+00" cType="1" res="5.0887698307633400e-03" rms="2.5966477394104004e-01" purity="6.8756508827209473e-01" nType="-99"/>
          <Node pos="r" depth="2" NCoef="0" IVar="-1" Cut="0.0000000000000000e+00" cType="1" res="3.8616187870502472e-02" rms="3.9713650941848755e-01" purity="4.4267079234123230e-01" nType="-99"/>
        </Node>
      </Node>
    </BinaryTree>
    <BinaryTree type="DecisionTree" boostWeight="1.0000000000000000e+00" itree="898">
      <Node pos="s" depth="0" NCoef="0" IVar="9" Cut="-6.9135802984237671e-01" cType="1" res="-5.0266156904399395e-03" rms="2.2346605360507965e-01" purity="4.9456974864006042e-01" nType="0">
        <Node pos="l" depth="1" NCoef="0" IVar="-1" Cut="0.0000000000000000e+00" cType="1" res="-3.0096506699919701e-02" rms="-nan" purity="2.8558433055877686e-01" nType="-99"/>
        <Node pos="r" depth="1" NCoef="0" IVar="34" Cut="-1.4155935049057007e+00" cType="1" res="-1.9491731654852629e-03" rms="2.2881238162517548e-01" purity="5.0218093395233154e-01" nType="0">
          <Node pos="l" depth="2" NCoef="0" IVar="-1" Cut="0.0000000000000000e+00" cType="1" res="-2.3454798385500908e-02" rms="-nan" purity="2.2255675494670868e-01" nType="-99"/>
          <Node pos="r" depth="2" NCoef="0" IVar="-1" Cut="0.0000000000000000e+00" cType="1" res="1.1096302187070251e-03" rms="2.4175782501697540e-01" purity="5.3230410814285278e-01" nType="-99"/>
        </Node>
      </Node>
    </BinaryTree>
    <BinaryTree type="DecisionTree" boostWeight="1.0000000000000000e+00" itree="899">
      <Node pos="s" depth="0" NCoef="0" IVar="46" Cut="1.6286354064941406e+00" cType="1" res="-4.2033065110445023e-03" rms="2.2839000821113586e-01" purity="4.9555352330207825e-01" nType="0">
        <Node pos="l" depth="1" NCoef="0" IVar="55" Cut="-1.3769383430480957e+00" cType="1" res="-6.4684790559113026e-03" rms="2.2487173974514008e-01" purity="4.9999511241912842e-01" nType="0">
          <Node pos="l" depth="2" NCoef="0" IVar="-1" Cut="0.0000000000000000e+00" cType="1" res="-2.5393668562173843e-02" rms="-nan" purity="2.2148194909095764e-01" nType="-99"/>
          <Node pos="r" depth="2" NCoef="0" IVar="-1" Cut="0.0000000000000000e+00" cType="1" res="-2.5510087198199471e-06" rms="2.4160456657409668e-01" purity="5.3616273403167725e-01" nType="-99"/>
        </Node>
        <Node pos="r" depth="1" NCoef="0" IVar="-1" Cut="0.0000000000000000e+00" cType="1" res="4.8260245472192764e-02" rms="3.4111428260803223e-01" purity="2.8349101543426514e-01" nType="-99"/>
      </Node>
    </BinaryTree>
    <BinaryTree type="DecisionTree" boostWeight="1.0000000000000000e+00" itree="900">
      <Node pos="s" depth="0" NCoef="0" IVar="3" Cut="5.5309634208679199e+00" cType="1" res="4.9730543978512287e-03" rms="2.4050170183181763e-01" purity="5.0668370723724365e-01" nType="0">
        <Node pos="l" depth="1" NCoef="0" IVar="81" Cut="-4.9712052941322327e-01" cType="1" res="1.9939716439694166e-03" rms="2.3728540539741516e-01" purity="5.1130920648574829e-01" nType="0">
          <Node pos="l" depth="2" NCoef="0" IVar="-1" Cut="0.0000000000000000e+00" cType="1" res="-3.0731255537830293e-04" rms="2.3259153962135315e-01" purity="5.1666277647018433e-01" nType="-99"/>
          <Node pos="r" depth="2" NCoef="0" IVar="-1" Cut="0.0000000000000000e+00" cType="1" res="4.2655963450670242e-02" rms="3.5503950715065002e-01" purity="3.1379240751266479e-01" nType="-99"/>
        </Node>
        <Node pos="r" depth="1" NCoef="0" IVar="-1" Cut="0.0000000000000000e+00" cType="1" res="4.1729040443897247e-02" rms="3.2840600609779358e-01" purity="3.0336496233940125e-01" nType="-99"/>
      </Node>
    </BinaryTree>
    <BinaryTree type="DecisionTree" boostWeight="1.0000000000000000e+00" itree="901">
      <Node pos="s" depth="0" NCoef="0" IVar="69" Cut="1.0472429990768433e+00" cType="1" res="2.9699597507715225e-04" rms="2.3908104002475739e-01" purity="4.9812856316566467e-01" nType="0">
        <Node pos="l" depth="1" NCoef="0" IVar="37" Cut="-1.0305713415145874e+00" cType="1" res="3.9435368031263351e-02" rms="2.8270149230957031e-01" purity="2.9485952854156494e-01" nType="0">
          <Node pos="l" depth="2" NCoef="0" IVar="-1" Cut="0.0000000000000000e+00" cType="1" res="4.2890928685665131e-02" rms="3.6485958099365234e-01" purity="3.2517537474632263e-01" nType="-99"/>
          <Node pos="r" depth="2" NCoef="0" IVar="-1" Cut="0.0000000000000000e+00" cType="1" res="-1.4054643688723445e-03" rms="2.0542110502719879e-01" purity="2.7610921859741211e-01" nType="-99"/>
        </Node>
        <Node pos="r" depth="1" NCoef="0" IVar="77" Cut="1.3286715745925903e+00" cType="1" res="-8.5983974859118462e-03" rms="2.2706709802150726e-01" purity="5.4432773590087891e-01" nType="0">
          <Node pos="l" depth="2" NCoef="0" IVar="-1" Cut="0.0000000000000000e+00" cType="1" res="-1.3994834152981639e-03" rms="2.3846124112606049e-01" purity="5.6475651264190674e-01" nType="-99"/>
          <Node pos="r" depth="2" NCoef="0" IVar="-1" Cut="0.0000000000000000e+00" cType="1" res="-8.6144126951694489e-02" rms="-nan" purity="-4.5792527089361101e-05" nType="-99"/>
        </Node>
      </Node>
    </BinaryTree>
    <BinaryTree type="DecisionTree" boostWeight="1.0000000000000000e+00" itree="902">
      <Node pos="s" depth="0" NCoef="0" IVar="19" Cut="1.0856224298477173e+00" cType="1" res="-3.7915292195975780e-03" rms="2.2878457605838776e-01" purity="4.9552249908447266e-01" nType="0">
        <Node pos="l" depth="1" NCoef="0" IVar="41" Cut="2.2830170392990112e-01" cType="1" res="3.2559649553149939e-03" rms="2.4123094975948334e-01" purity="5.2539694309234619e-01" nType="0">
          <Node pos="l" depth="2" NCoef="0" IVar="-1" Cut="0.0000000000000000e+00" cType="1" res="-1.1404006509110332e-03" rms="2.3644877970218658e-01" purity="5.3367501497268677e-01" nType="-99"/>
          <Node pos="r" depth="2" NCoef="0" IVar="-1" Cut="0.0000000000000000e+00" cType="1" res="1.5932440757751465e-02" rms="2.6726558804512024e-01" purity="4.6901068091392517e-01" nType="-99"/>
        </Node>
        <Node pos="r" depth="1" NCoef="0" IVar="69" Cut="1.6046921014785767e+00" cType="1" res="-4.9580484628677368e-02" rms="1.0915371775627136e-01" purity="3.0142223834991455e-01" nType="0">
          <Node pos="l" depth="2" NCoef="0" IVar="-1" Cut="0.0000000000000000e+00" cType="1" res="-5.5882651358842850e-02" rms="-nan" purity="7.9723156988620758e-02" nType="-99"/>
          <Node pos="r" depth="2" NCoef="0" IVar="-1" Cut="0.0000000000000000e+00" cType="1" res="-1.7686288338154554e-03" rms="2.2317771613597870e-01" purity="4.5629048347473145e-01" nType="-99"/>
        </Node>
      </Node>
    </BinaryTree>
    <BinaryTree type="DecisionTree" boostWeight="1.0000000000000000e+00" itree="903">
      <Node pos="s" depth="0" NCoef="0" IVar="15" Cut="-1.4151866436004639e+00" cType="1" res="-3.4779431298375130e-03" rms="2.2358220815658569e-01" purity="4.9912083148956299e-01" nType="0">
        <Node pos="l" depth="1" NCoef="0" IVar="55" Cut="1.4739629030227661e+00" cType="1" res="-5.0084926187992096e-02" rms="-nan" purity="4.8869501799345016e-02" nType="-99"/>
        <Node pos="r" depth="1" NCoef="0" IVar="17" Cut="-1.3962043523788452e+00" cType="1" res="2.7381062973290682e-03" rms="2.4150379002094269e-01" purity="5.5280625820159912e-01" nType="0">
          <Node pos="l" depth="2" NCoef="0" IVar="-1" Cut="0.0000000000000000e+00" cType="1" res="-4.1921606659889221e-01" rms="-nan" purity="-8.4258832037448883e-02" nType="-99"/>
          <Node pos="r" depth="2" NCoef="0" IVar="-1" Cut="0.0000000000000000e+00" cType="1" res="1.7995719099417329e-03" rms="2.5063607096672058e-01" purity="5.7257527112960815e-01" nType="-99"/>
        </Node>
      </Node>
    </BinaryTree>
    <BinaryTree type="DecisionTree" boostWeight="1.0000000000000000e+00" itree="904">
      <Node pos="s" depth="0" NCoef="0" IVar="13" Cut="-1.4926353693008423e+00" cType="1" res="1.6785873100161552e-02" rms="2.6326450705528259e-01" purity="5.1102370023727417e-01" nType="0">
        <Node pos="l" depth="1" NCoef="0" IVar="-1" Cut="0.0000000000000000e+00" cType="1" res="4.7420255839824677e-02" rms="3.0823931097984314e-01" purity="3.7124520540237427e-01" nType="-99"/>
        <Node pos="r" depth="1" NCoef="0" IVar="5" Cut="-1.2072084099054337e-01" cType="1" res="1.3243502937257290e-02" rms="2.6091843843460083e-01" purity="5.1552319526672363e-01" nType="0">
          <Node pos="l" depth="2" NCoef="0" IVar="-1" Cut="0.0000000000000000e+00" cType="1" res="5.6983865797519684e-02" rms="3.0443879961967468e-01" purity="2.2081810235977173e-01" nType="-99"/>
          <Node pos="r" depth="2" NCoef="0" IVar="-1" Cut="0.0000000000000000e+00" cType="1" res="3.2010215800255537e-03" rms="2.5785586237907410e-01" purity="5.3054916858673096e-01" nType="-99"/>
        </Node>
      </Node>
    </BinaryTree>
    <BinaryTree type="DecisionTree" boostWeight="1.0000000000000000e+00" itree="905">
      <Node pos="s" depth="0" NCoef="0" IVar="84" Cut="-5.3994512557983398e-01" cType="1" res="-2.0619381684809923e-03" rms="2.3461379110813141e-01" purity="4.9848484992980957e-01" nType="0">
        <Node pos="l" depth="1" NCoef="0" IVar="62" Cut="1.5588381211273372e-04" cType="1" res="6.6190101206302643e-02" rms="2.8120338916778564e-01" purity="5.5209404230117798e-01" nType="0">
          <Node pos="l" depth="2" NCoef="0" IVar="-1" Cut="0.0000000000000000e+00" cType="1" res="4.6320658177137375e-02" rms="3.6771613359451294e-01" purity="6.3778930902481079e-01" nType="-99"/>
          <Node pos="r" depth="2" NCoef="0" IVar="-1" Cut="0.0000000000000000e+00" cType="1" res="-4.1761710308492184e-03" rms="7.3763124644756317e-02" purity="4.5804232358932495e-01" nType="-99"/>
        </Node>
        <Node pos="r" depth="1" NCoef="0" IVar="69" Cut="3.1586415767669678e+00" cType="1" res="-5.6094015017151833e-03" rms="2.3138681054115295e-01" purity="4.9569848179817200e-01" nType="0">
          <Node pos="l" depth="2" NCoef="0" IVar="-1" Cut="0.0000000000000000e+00" cType="1" res="-3.0885555315762758e-03" rms="2.2725377976894379e-01" purity="4.8499301075935364e-01" nType="-99"/>
          <Node pos="r" depth="2" NCoef="0" IVar="-1" Cut="0.0000000000000000e+00" cType="1" res="2.2115329280495644e-02" rms="3.0388608574867249e-01" purity="7.4515044689178467e-01" nType="-99"/>
        </Node>
      </Node>
    </BinaryTree>
    <BinaryTree type="DecisionTree" boostWeight="1.0000000000000000e+00" itree="906">
      <Node pos="s" depth="0" NCoef="0" IVar="56" Cut="1.4827566146850586e+00" cType="1" res="1.3630307512357831e-03" rms="2.3490396142005920e-01" purity="5.0463598966598511e-01" nType="0">
        <Node pos="l" depth="1" NCoef="0" IVar="35" Cut="1.4840940237045288e+00" cType="1" res="4.5031849294900894e-03" rms="2.4027378857135773e-01" purity="5.1400244235992432e-01" nType="0">
          <Node pos="l" depth="2" NCoef="0" IVar="-1" Cut="0.0000000000000000e+00" cType="1" res="5.9334730030968785e-04" rms="2.3378142714500427e-01" purity="5.1991122961044312e-01" nType="-99"/>
          <Node pos="r" depth="2" NCoef="0" IVar="-1" Cut="0.0000000000000000e+00" cType="1" res="5.0161514431238174e-02" rms="3.9865294098854065e-01" purity="2.9873430728912354e-01" nType="-99"/>
        </Node>
        <Node pos="r" depth="1" NCoef="0" IVar="-1" Cut="0.0000000000000000e+00" cType="1" res="-4.7887627035379410e-02" rms="-nan" purity="9.8255857825279236e-02" nType="-99"/>
      </Node>
    </BinaryTree>
    <BinaryTree type="DecisionTree" boostWeight="1.0000000000000000e+00" itree="907">
      <Node pos="s" depth="0" NCoef="0" IVar="57" Cut="-1.3764973878860474e+00" cType="1" res="1.7534157959744334e-03" rms="2.3414349555969238e-01" purity="5.0070506334304810e-01" nType="0">
        <Node pos="l" depth="1" NCoef="0" IVar="52" Cut="2.7261443138122559e+00" cType="1" res="-5.2666891366243362e-02" rms="-nan" purity="-1.8061362206935883e-02" nType="-99"/>
        <Node pos="r" depth="1" NCoef="0" IVar="14" Cut="1.3670064210891724e+00" cType="1" res="7.9170651733875275e-03" rms="2.5079715251922607e-01" purity="5.4667431116104126e-01" nType="0">
          <Node pos="l" depth="2" NCoef="0" IVar="-1" Cut="0.0000000000000000e+00" cType="1" res="3.8567564915865660e-03" rms="2.5609374046325684e-01" purity="5.5408018827438354e-01" nType="-99"/>
          <Node pos="r" depth="2" NCoef="0" IVar="-1" Cut="0.0000000000000000e+00" cType="1" res="-2.7069438248872757e-02" rms="-nan" purity="3.1204125285148621e-01" nType="-99"/>
        </Node>
      </Node>
    </BinaryTree>
    <BinaryTree type="DecisionTree" boostWeight="1.0000000000000000e+00" itree="908">
      <Node pos="s" depth="0" NCoef="0" IVar="5" Cut="3.8352838158607483e-01" cType="1" res="1.8215178279206157e-03" rms="2.3364529013633728e-01" purity="4.9754795432090759e-01" nType="0">
        <Node pos="l" depth="1" NCoef="0" IVar="25" Cut="1.3931225538253784e+00" cType="1" res="1.1015878058969975e-02" rms="2.4583639204502106e-01" purity="5.3770673274993896e-01" nType="0">
          <Node pos="l" depth="2" NCoef="0" IVar="-1" Cut="0.0000000000000000e+00" cType="1" res="2.7073565870523453e-03" rms="2.4058347940444946e-01" purity="5.4306530952453613e-01" nType="-99"/>
          <Node pos="r" depth="2" NCoef="0" IVar="-1" Cut="0.0000000000000000e+00" cType="1" res="5.9346910566091537e-02" rms="3.7514409422874451e-01" purity="3.3657532930374146e-01" nType="-99"/>
        </Node>
        <Node pos="r" depth="1" NCoef="0" IVar="55" Cut="-1.3384226560592651e+00" cType="1" res="-3.6867812275886536e-02" rms="1.6775093972682953e-01" purity="3.2856214046478271e-01" nType="0">
          <Node pos="l" depth="2" NCoef="0" IVar="-1" Cut="0.0000000000000000e+00" cType="1" res="-9.0106435120105743e-02" rms="-nan" purity="1.8329113721847534e-02" nType="-99"/>
          <Node pos="r" depth="2" NCoef="0" IVar="-1" Cut="0.0000000000000000e+00" cType="1" res="-4.7504743561148643e-03" rms="2.2522778809070587e-01" purity="3.8151788711547852e-01" nType="-99"/>
        </Node>
      </Node>
    </BinaryTree>
    <BinaryTree type="DecisionTree" boostWeight="1.0000000000000000e+00" itree="909">
      <Node pos="s" depth="0" NCoef="0" IVar="38" Cut="-1.4926400184631348e+00" cType="1" res="9.5566874369978905e-04" rms="2.3219412565231323e-01" purity="5.0177621841430664e-01" nType="0">
        <Node pos="l" depth="1" NCoef="0" IVar="-1" Cut="0.0000000000000000e+00" cType="1" res="-4.2869132012128830e-02" rms="-nan" purity="3.5653609037399292e-01" nType="-99"/>
        <Node pos="r" depth="1" NCoef="0" IVar="25" Cut="9.1307157278060913e-01" cType="1" res="5.0475252792239189e-03" rms="2.3980987071990967e-01" purity="5.0732058286666870e-01" nType="0">
          <Node pos="l" depth="2" NCoef="0" IVar="-1" Cut="0.0000000000000000e+00" cType="1" res="9.4182966277003288e-03" rms="2.6520022749900818e-01" purity="6.0227584838867188e-01" nType="-99"/>
          <Node pos="r" depth="2" NCoef="0" IVar="-1" Cut="0.0000000000000000e+00" cType="1" res="-2.9685460031032562e-03" rms="2.2374735772609711e-01" purity="4.5589491724967957e-01" nType="-99"/>
        </Node>
      </Node>
    </BinaryTree>
    <BinaryTree type="DecisionTree" boostWeight="1.0000000000000000e+00" itree="910">
      <Node pos="s" depth="0" NCoef="0" IVar="46" Cut="1.4987052679061890e+00" cType="1" res="9.9553901236504316e-04" rms="2.3083744943141937e-01" purity="5.0218224525451660e-01" nType="0">
        <Node pos="l" depth="1" NCoef="0" IVar="78" Cut="7.9585278034210205e-01" cType="1" res="3.8442297372967005e-03" rms="2.3673255741596222e-01" purity="5.1302486658096313e-01" nType="0">
          <Node pos="l" depth="2" NCoef="0" IVar="-1" Cut="0.0000000000000000e+00" cType="1" res="3.5185615997761488e-03" rms="2.5380989909172058e-01" purity="5.7536888122558594e-01" nType="-99"/>
          <Node pos="r" depth="2" NCoef="0" IVar="-1" Cut="0.0000000000000000e+00" cType="1" res="-1.4992170967161655e-02" rms="8.1804923713207245e-02" purity="1.5749722719192505e-01" nType="-99"/>
        </Node>
        <Node pos="r" depth="1" NCoef="0" IVar="-1" Cut="0.0000000000000000e+00" cType="1" res="-5.9163082391023636e-02" rms="-nan" purity="5.4732296615839005e-02" nType="-99"/>
      </Node>
    </BinaryTree>
    <BinaryTree type="DecisionTree" boostWeight="1.0000000000000000e+00" itree="911">
      <Node pos="s" depth="0" NCoef="0" IVar="17" Cut="1.0990421772003174e+00" cType="1" res="-4.0237694047391415e-03" rms="2.3562318086624146e-01" purity="4.9516329169273376e-01" nType="0">
        <Node pos="l" depth="1" NCoef="0" IVar="20" Cut="-6.8359769880771637e-02" cType="1" res="2.3162545636296272e-02" rms="1.7008616030216217e-01" purity="5.4385248571634293e-02" nType="0">
          <Node pos="l" depth="2" NCoef="0" IVar="-1" Cut="0.0000000000000000e+00" cType="1" res="-5.7855207473039627e-02" rms="-nan" purity="-1.5329071320593357e-02" nType="-99"/>
          <Node pos="r" depth="2" NCoef="0" IVar="-1" Cut="0.0000000000000000e+00" cType="1" res="6.4366616308689117e-02" rms="2.4740616977214813e-01" purity="9.4657644629478455e-02" nType="-99"/>
        </Node>
        <Node pos="r" depth="1" NCoef="0" IVar="17" Cut="1.5345673561096191e+00" cType="1" res="-1.2307642959058285e-02" rms="2.5164720416069031e-01" purity="6.2947171926498413e-01" nType="0">
          <Node pos="l" depth="2" NCoef="0" IVar="-1" Cut="0.0000000000000000e+00" cType="1" res="-7.5317737646400928e-03" rms="2.4115845561027527e-01" purity="4.8503395915031433e-01" nType="-99"/>
          <Node pos="r" depth="2" NCoef="0" IVar="-1" Cut="0.0000000000000000e+00" cType="1" res="3.7587997503578663e-03" rms="2.6547366380691528e-01" purity="8.5398483276367188e-01" nType="-99"/>
        </Node>
      </Node>
    </BinaryTree>
    <BinaryTree type="DecisionTree" boostWeight="1.0000000000000000e+00" itree="912">
      <Node pos="s" depth="0" NCoef="0" IVar="71" Cut="-3.1026101112365723e-01" cType="1" res="9.8613696172833443e-03" rms="2.4885694682598114e-01" purity="5.0067502260208130e-01" nType="0">
        <Node pos="l" depth="1" NCoef="0" IVar="43" Cut="1.2345679104328156e-02" cType="1" res="5.1408116705715656e-03" rms="2.4300885200500488e-01" purity="5.0313377380371094e-01" nType="0">
          <Node pos="l" depth="2" NCoef="0" IVar="-1" Cut="0.0000000000000000e+00" cType="1" res="2.3137472569942474e-02" rms="2.9837018251419067e-01" purity="3.7157827615737915e-01" nType="-99"/>
          <Node pos="r" depth="2" NCoef="0" IVar="-1" Cut="0.0000000000000000e+00" cType="1" res="7.0622866041958332e-04" rms="2.3972789943218231e-01" purity="5.0902760028839111e-01" nType="-99"/>
        </Node>
        <Node pos="r" depth="1" NCoef="0" IVar="6" Cut="2.2347810268402100e+00" cType="1" res="7.2237744927406311e-02" rms="3.0944076180458069e-01" purity="4.6818554401397705e-01" nType="0">
          <Node pos="l" depth="2" NCoef="0" IVar="-1" Cut="0.0000000000000000e+00" cType="1" res="-5.7508060708642006e-03" rms="1.5812431275844574e-01" purity="2.7022325992584229e-01" nType="-99"/>
          <Node pos="r" depth="2" NCoef="0" IVar="-1" Cut="0.0000000000000000e+00" cType="1" res="4.3776385486125946e-02" rms="3.7937730550765991e-01" purity="6.3790726661682129e-01" nType="-99"/>
        </Node>
      </Node>
    </BinaryTree>
    <BinaryTree type="DecisionTree" boostWeight="1.0000000000000000e+00" itree="913">
      <Node pos="s" depth="0" NCoef="0" IVar="15" Cut="2.4686789512634277e-01" cType="1" res="5.1292409189045429e-03" rms="2.5238281488418579e-01" purity="4.9391567707061768e-01" nType="0">
        <Node pos="l" depth="1" NCoef="0" IVar="52" Cut="2.8069229125976562e+00" cType="1" res="3.4962322562932968e-02" rms="2.4789950251579285e-01" purity="2.7327227592468262e-01" nType="0">
          <Node pos="l" depth="2" NCoef="0" IVar="-1" Cut="0.0000000000000000e+00" cType="1" res="-2.1650997921824455e-02" rms="4.8190318048000336e-02" purity="6.7509666085243225e-02" nType="-99"/>
          <Node pos="r" depth="2" NCoef="0" IVar="-1" Cut="0.0000000000000000e+00" cType="1" res="3.1801987439393997e-02" rms="2.9004815220832825e-01" purity="3.6132544279098511e-01" nType="-99"/>
        </Node>
        <Node pos="r" depth="1" NCoef="0" IVar="3" Cut="5.4197072982788086e+00" cType="1" res="-7.2592077776789665e-03" rms="2.5319045782089233e-01" purity="5.8553975820541382e-01" nType="0">
          <Node pos="l" depth="2" NCoef="0" IVar="-1" Cut="0.0000000000000000e+00" cType="1" res="-3.8419452030211687e-03" rms="2.4907863140106201e-01" purity="5.9309935569763184e-01" nType="-99"/>
          <Node pos="r" depth="2" NCoef="0" IVar="-1" Cut="0.0000000000000000e+00" cType="1" res="3.2248508185148239e-02" rms="3.1925997138023376e-01" purity="3.8583308458328247e-01" nType="-99"/>
        </Node>
      </Node>
    </BinaryTree>
    <BinaryTree type="DecisionTree" boostWeight="1.0000000000000000e+00" itree="914">
      <Node pos="s" depth="0" NCoef="0" IVar="73" Cut="2.3717899322509766e+00" cType="1" res="2.4507753551006317e-03" rms="2.3281103372573853e-01" purity="5.0270330905914307e-01" nType="0">
        <Node pos="l" depth="1" NCoef="0" IVar="35" Cut="-1.7954713106155396e-01" cType="1" res="4.5784559100866318e-02" rms="2.9208901524543762e-01" purity="3.5183432698249817e-01" nType="0">
          <Node pos="l" depth="2" NCoef="0" IVar="-1" Cut="0.0000000000000000e+00" cType="1" res="1.0292890947312117e-03" rms="2.2968764603137970e-01" purity="3.1055617332458496e-01" nType="-99"/>
          <Node pos="r" depth="2" NCoef="0" IVar="-1" Cut="0.0000000000000000e+00" cType="1" res="4.3896775692701340e-02" rms="3.7213349342346191e-01" purity="4.3291130661964417e-01" nType="-99"/>
        </Node>
        <Node pos="r" depth="1" NCoef="0" IVar="10" Cut="2.8709669113159180e+00" cType="1" res="-4.2676334269344807e-03" rms="2.2145129740238190e-01" purity="5.2609378099441528e-01" nType="0">
          <Node pos="l" depth="2" NCoef="0" IVar="-1" Cut="0.0000000000000000e+00" cType="1" res="-2.8370561078190804e-02" rms="-nan" purity="1.5501265227794647e-01" nType="-99"/>
          <Node pos="r" depth="2" NCoef="0" IVar="-1" Cut="0.0000000000000000e+00" cType="1" res="4.8117814003489912e-04" rms="2.3151066899299622e-01" purity="5.5483734607696533e-01" nType="-99"/>
        </Node>
      </Node>
    </BinaryTree>
    <BinaryTree type="DecisionTree" boostWeight="1.0000000000000000e+00" itree="915">
      <Node pos="s" depth="0" NCoef="0" IVar="46" Cut="1.5126636028289795e+00" cType="1" res="3.3688605763018131e-03" rms="2.3845152556896210e-01" purity="5.0347107648849487e-01" nType="0">
        <Node pos="l" depth="1" NCoef="0" IVar="1" Cut="2.7431099414825439e+00" cType="1" res="6.0621788725256920e-03" rms="2.4468328058719635e-01" purity="5.1299965381622314e-01" nType="0">
          <Node pos="l" depth="2" NCoef="0" IVar="-1" Cut="0.0000000000000000e+00" cType="1" res="8.6401924490928650e-03" rms="2.7297028899192810e-01" purity="4.1127967834472656e-01" nType="-99"/>
          <Node pos="r" depth="2" NCoef="0" IVar="-1" Cut="0.0000000000000000e+00" cType="1" res="-3.6359638907015324e-03" rms="2.1772556006908417e-01" purity="5.9549146890640259e-01" nType="-99"/>
        </Node>
        <Node pos="r" depth="1" NCoef="0" IVar="-1" Cut="0.0000000000000000e+00" cType="1" res="-6.5382085740566254e-02" rms="-nan" purity="6.3186138868331909e-02" nType="-99"/>
      </Node>
    </BinaryTree>
    <BinaryTree type="DecisionTree" boostWeight="1.0000000000000000e+00" itree="916">
      <Node pos="s" depth="0" NCoef="0" IVar="20" Cut="-1.0217714309692383e-01" cType="1" res="1.4396907063201070e-03" rms="2.3304069042205811e-01" purity="5.0362700223922729e-01" nType="0">
        <Node pos="l" depth="1" NCoef="0" IVar="17" Cut="-8.3538925647735596e-01" cType="1" res="-2.7150675654411316e-02" rms="1.7562685906887054e-01" purity="5.3707289695739746e-01" nType="0">
          <Node pos="l" depth="2" NCoef="0" IVar="-1" Cut="0.0000000000000000e+00" cType="1" res="-3.2488277554512024e-01" rms="-nan" purity="-1.4826977252960205e-01" nType="-99"/>
          <Node pos="r" depth="2" NCoef="0" IVar="-1" Cut="0.0000000000000000e+00" cType="1" res="-1.9101105863228440e-03" rms="2.4432256817817688e-01" purity="6.4271348714828491e-01" nType="-99"/>
        </Node>
        <Node pos="r" depth="1" NCoef="0" IVar="36" Cut="-1.2606712579727173e+00" cType="1" res="1.7047476023435593e-02" rms="2.5773420929908752e-01" purity="4.8536857962608337e-01" nType="0">
          <Node pos="l" depth="2" NCoef="0" IVar="-1" Cut="0.0000000000000000e+00" cType="1" res="4.4763702899217606e-02" rms="3.0360040068626404e-01" purity="1.6346009075641632e-01" nType="-99"/>
          <Node pos="r" depth="2" NCoef="0" IVar="-1" Cut="0.0000000000000000e+00" cType="1" res="1.9595718476921320e-03" rms="2.4715328216552734e-01" purity="5.4194277524948120e-01" nType="-99"/>
        </Node>
      </Node>
    </BinaryTree>
    <BinaryTree type="DecisionTree" boostWeight="1.0000000000000000e+00" itree="917">
      <Node pos="s" depth="0" NCoef="0" IVar="10" Cut="2.8942902088165283e+00" cType="1" res="-9.5343345310539007e-04" rms="2.3490633070468903e-01" purity="5.0634747743606567e-01" nType="0">
        <Node pos="l" depth="1" NCoef="0" IVar="38" Cut="7.0307379961013794e-01" cType="1" res="-1.9969852641224861e-02" rms="-nan" purity="1.9349132478237152e-01" nType="-99"/>
        <Node pos="r" depth="1" NCoef="0" IVar="17" Cut="-5.2622485160827637e-01" cType="1" res="5.2291937172412872e-03" rms="2.4696610867977142e-01" purity="5.4102391004562378e-01" nType="0">
          <Node pos="l" depth="2" NCoef="0" IVar="-1" Cut="0.0000000000000000e+00" cType="1" res="7.0940501987934113e-02" rms="2.1311718225479126e-01" purity="6.7915886640548706e-02" nType="-99"/>
          <Node pos="r" depth="2" NCoef="0" IVar="-1" Cut="0.0000000000000000e+00" cType="1" res="-8.5581082385033369e-04" rms="2.5229936838150024e-01" purity="6.3383239507675171e-01" nType="-99"/>
        </Node>
      </Node>
    </BinaryTree>
    <BinaryTree type="DecisionTree" boostWeight="1.0000000000000000e+00" itree="918">
      <Node pos="s" depth="0" NCoef="0" IVar="52" Cut="2.3154821395874023e+00" cType="1" res="-7.7977557666599751e-03" rms="2.2195331752300262e-01" purity="4.9174058437347412e-01" nType="0">
        <Node pos="l" depth="1" NCoef="0" IVar="-1" Cut="0.0000000000000000e+00" cType="1" res="-4.5349963009357452e-02" rms="-nan" purity="4.3661210685968399e-02" nType="-99"/>
        <Node pos="r" depth="1" NCoef="0" IVar="3" Cut="4.4820966720581055e+00" cType="1" res="-5.1779849454760551e-03" rms="2.2801375389099121e-01" purity="5.0209110975265503e-01" nType="0">
          <Node pos="l" depth="2" NCoef="0" IVar="-1" Cut="0.0000000000000000e+00" cType="1" res="1.2703904882073402e-02" rms="2.7308923006057739e-01" purity="3.8125273585319519e-01" nType="-99"/>
          <Node pos="r" depth="2" NCoef="0" IVar="-1" Cut="0.0000000000000000e+00" cType="1" res="-4.7395182773470879e-03" rms="2.1804742515087128e-01" purity="5.2355194091796875e-01" nType="-99"/>
        </Node>
      </Node>
    </BinaryTree>
    <BinaryTree type="DecisionTree" boostWeight="1.0000000000000000e+00" itree="919">
      <Node pos="s" depth="0" NCoef="0" IVar="4" Cut="3.3847975730895996e+00" cType="1" res="6.1016022227704525e-03" rms="2.3695328831672668e-01" purity="5.0581663846969604e-01" nType="0">
        <Node pos="l" depth="1" NCoef="0" IVar="42" Cut="2.4637478590011597e-01" cType="1" res="-3.1792685389518738e-02" rms="1.2494038045406342e-01" purity="1.9220165908336639e-01" nType="0">
          <Node pos="l" depth="2" NCoef="0" IVar="-1" Cut="0.0000000000000000e+00" cType="1" res="-2.1029463037848473e-02" rms="-nan" purity="1.8052700161933899e-01" nType="-99"/>
          <Node pos="r" depth="2" NCoef="0" IVar="-1" Cut="0.0000000000000000e+00" cType="1" res="4.8972502350807190e-02" rms="3.6444246768951416e-01" purity="2.7058368921279907e-01" nType="-99"/>
        </Node>
        <Node pos="r" depth="1" NCoef="0" IVar="10" Cut="3.2681286334991455e+00" cType="1" res="1.3071400113403797e-02" rms="2.5157502293586731e-01" purity="5.6349903345108032e-01" nType="0">
          <Node pos="l" depth="2" NCoef="0" IVar="-1" Cut="0.0000000000000000e+00" cType="1" res="1.1223668232560158e-02" rms="2.8423100709915161e-01" purity="5.3547447919845581e-01" nType="-99"/>
          <Node pos="r" depth="2" NCoef="0" IVar="-1" Cut="0.0000000000000000e+00" cType="1" res="-1.8938067369163036e-03" rms="2.2116555273532867e-01" purity="5.8535397052764893e-01" nType="-99"/>
        </Node>
      </Node>
    </BinaryTree>
    <BinaryTree type="DecisionTree" boostWeight="1.0000000000000000e+00" itree="920">
      <Node pos="s" depth="0" NCoef="0" IVar="88" Cut="1.5367943048477173e+00" cType="1" res="4.0253386832773685e-03" rms="2.5025445222854614e-01" purity="4.9636006355285645e-01" nType="0">
        <Node pos="l" depth="1" NCoef="0" IVar="31" Cut="3.6205213069915771e+00" cType="1" res="9.6563494298607111e-04" rms="2.4584461748600006e-01" purity="5.0297629833221436e-01" nType="0">
          <Node pos="l" depth="2" NCoef="0" IVar="-1" Cut="0.0000000000000000e+00" cType="1" res="-6.6280527971684933e-04" rms="2.4238039553165436e-01" purity="5.0105535984039307e-01" nType="-99"/>
          <Node pos="r" depth="2" NCoef="0" IVar="-1" Cut="0.0000000000000000e+00" cType="1" res="4.2743429541587830e-02" rms="3.3686727285385132e-01" purity="5.7794576883316040e-01" nType="-99"/>
        </Node>
        <Node pos="r" depth="1" NCoef="0" IVar="-1" Cut="0.0000000000000000e+00" cType="1" res="8.8505983352661133e-02" rms="3.6765903234481812e-01" purity="2.2989796102046967e-01" nType="-99"/>
      </Node>
    </BinaryTree>
    <BinaryTree type="DecisionTree" boostWeight="1.0000000000000000e+00" itree="921">
      <Node pos="s" depth="0" NCoef="0" IVar="5" Cut="3.0883727595210075e-02" cType="1" res="2.3375959135591984e-03" rms="2.3668068647384644e-01" purity="5.0119245052337646e-01" nType="0">
        <Node pos="l" depth="1" NCoef="0" IVar="40" Cut="7.2533613443374634e-01" cType="1" res="-4.3822836130857468e-02" rms="1.0349639505147934e-01" purity="3.1368872523307800e-01" nType="0">
          <Node pos="l" depth="2" NCoef="0" IVar="-1" Cut="0.0000000000000000e+00" cType="1" res="5.7358797639608383e-03" rms="2.4741519987583160e-01" purity="4.5244452357292175e-01" nType="-99"/>
          <Node pos="r" depth="2" NCoef="0" IVar="-1" Cut="0.0000000000000000e+00" cType="1" res="-5.1563240587711334e-02" rms="-nan" purity="1.8052108585834503e-01" nType="-99"/>
        </Node>
        <Node pos="r" depth="1" NCoef="0" IVar="10" Cut="2.7857058048248291e+00" cType="1" res="1.0459958575665951e-02" rms="2.5208908319473267e-01" purity="5.3418546915054321e-01" nType="0">
          <Node pos="l" depth="2" NCoef="0" IVar="-1" Cut="0.0000000000000000e+00" cType="1" res="3.4219544380903244e-02" rms="3.4612435102462769e-01" purity="2.7169725298881531e-01" nType="-99"/>
          <Node pos="r" depth="2" NCoef="0" IVar="-1" Cut="0.0000000000000000e+00" cType="1" res="1.7321418272331357e-03" rms="2.4390560388565063e-01" purity="5.5084341764450073e-01" nType="-99"/>
        </Node>
      </Node>
    </BinaryTree>
    <BinaryTree type="DecisionTree" boostWeight="1.0000000000000000e+00" itree="922">
      <Node pos="s" depth="0" NCoef="0" IVar="60" Cut="-7.2249388694763184e-01" cType="1" res="-1.7937315860763192e-03" rms="2.2542321681976318e-01" purity="5.1154232025146484e-01" nType="0">
        <Node pos="l" depth="1" NCoef="0" IVar="36" Cut="1.3207879662513733e-01" cType="1" res="-7.1011311374604702e-03" rms="2.1601869165897369e-01" purity="5.3355681896209717e-01" nType="0">
          <Node pos="l" depth="2" NCoef="0" IVar="-1" Cut="0.0000000000000000e+00" cType="1" res="-2.0817052572965622e-02" rms="-nan" purity="6.2377028167247772e-02" nType="-99"/>
          <Node pos="r" depth="2" NCoef="0" IVar="-1" Cut="0.0000000000000000e+00" cType="1" res="5.0512555753812194e-04" rms="2.4389360845088959e-01" purity="6.4808011054992676e-01" nType="-99"/>
        </Node>
        <Node pos="r" depth="1" NCoef="0" IVar="56" Cut="-1.0300060510635376e+00" cType="1" res="5.5002871900796890e-02" rms="3.0284604430198669e-01" purity="2.7595642209053040e-01" nType="0">
          <Node pos="l" depth="2" NCoef="0" IVar="-1" Cut="0.0000000000000000e+00" cType="1" res="3.7639282643795013e-02" rms="3.5053002834320068e-01" purity="3.6221653223037720e-01" nType="-99"/>
          <Node pos="r" depth="2" NCoef="0" IVar="-1" Cut="0.0000000000000000e+00" cType="1" res="-4.3914234265685081e-03" rms="2.2059310972690582e-01" purity="1.7896634340286255e-01" nType="-99"/>
        </Node>
      </Node>
    </BinaryTree>
    <BinaryTree type="DecisionTree" boostWeight="1.0000000000000000e+00" itree="923">
      <Node pos="s" depth="0" NCoef="0" IVar="36" Cut="8.2765978574752808e-01" cType="1" res="-3.0720848590135574e-03" rms="2.2322921454906464e-01" purity="5.0248247385025024e-01" nType="0">
        <Node pos="l" depth="1" NCoef="0" IVar="69" Cut="1.4395582675933838e+00" cType="1" res="-2.2093232721090317e-02" rms="-nan" purity="6.0180198401212692e-02" nType="-99"/>
        <Node pos="r" depth="1" NCoef="0" IVar="60" Cut="-5.8039528131484985e-01" cType="1" res="9.0822521597146988e-03" rms="2.5612175464630127e-01" purity="6.3557243347167969e-01" nType="0">
          <Node pos="l" depth="2" NCoef="0" IVar="-1" Cut="0.0000000000000000e+00" cType="1" res="4.1973567567765713e-03" rms="2.6105099916458130e-01" purity="6.5274059772491455e-01" nType="-99"/>
          <Node pos="r" depth="2" NCoef="0" IVar="-1" Cut="0.0000000000000000e+00" cType="1" res="-3.1147830188274384e-02" rms="-nan" purity="1.5848775207996368e-01" nType="-99"/>
        </Node>
      </Node>
    </BinaryTree>
    <BinaryTree type="DecisionTree" boostWeight="1.0000000000000000e+00" itree="924">
      <Node pos="s" depth="0" NCoef="0" IVar="82" Cut="1.6761053800582886e+00" cType="1" res="-4.6770088374614716e-03" rms="2.2763967514038086e-01" purity="4.8974201083183289e-01" nType="0">
        <Node pos="l" depth="1" NCoef="0" IVar="73" Cut="2.6577720642089844e+00" cType="1" res="-7.6382937841117382e-03" rms="2.2342920303344727e-01" purity="4.9387648701667786e-01" nType="0">
          <Node pos="l" depth="2" NCoef="0" IVar="-1" Cut="0.0000000000000000e+00" cType="1" res="-1.1200551874935627e-02" rms="1.5708298981189728e-01" purity="3.5060074925422668e-01" nType="-99"/>
          <Node pos="r" depth="2" NCoef="0" IVar="-1" Cut="0.0000000000000000e+00" cType="1" res="1.8525754567235708e-03" rms="2.5221782922744751e-01" purity="5.7420819997787476e-01" nType="-99"/>
        </Node>
        <Node pos="r" depth="1" NCoef="0" IVar="-1" Cut="0.0000000000000000e+00" cType="1" res="3.8324739784002304e-02" rms="3.2871940732002258e-01" purity="3.4238949418067932e-01" nType="-99"/>
      </Node>
    </BinaryTree>
    <BinaryTree type="DecisionTree" boostWeight="1.0000000000000000e+00" itree="925">
      <Node pos="s" depth="0" NCoef="0" IVar="30" Cut="-4.3209877610206604e-01" cType="1" res="-1.5186372911557555e-03" rms="2.3408521711826324e-01" purity="4.9648815393447876e-01" nType="0">
        <Node pos="l" depth="1" NCoef="0" IVar="17" Cut="-7.2076904773712158e-01" cType="1" res="5.7916004210710526e-02" rms="3.0366805195808411e-01" purity="4.4494441151618958e-01" nType="0">
          <Node pos="l" depth="2" NCoef="0" IVar="-1" Cut="0.0000000000000000e+00" cType="1" res="1.0814630985260010e-01" rms="3.3124035596847534e-01" purity="1.9140721857547760e-01" nType="-99"/>
          <Node pos="r" depth="2" NCoef="0" IVar="-1" Cut="0.0000000000000000e+00" cType="1" res="8.3876121789216995e-03" rms="2.8825801610946655e-01" purity="5.2996915578842163e-01" nType="-99"/>
        </Node>
        <Node pos="r" depth="1" NCoef="0" IVar="11" Cut="1.2345679104328156e-02" cType="1" res="-7.0906006731092930e-03" rms="2.2566728293895721e-01" purity="5.0132036209106445e-01" nType="0">
          <Node pos="l" depth="2" NCoef="0" IVar="-1" Cut="0.0000000000000000e+00" cType="1" res="1.5907205641269684e-02" rms="2.9833489656448364e-01" purity="3.5146421194076538e-01" nType="-99"/>
          <Node pos="r" depth="2" NCoef="0" IVar="-1" Cut="0.0000000000000000e+00" cType="1" res="-4.4751502573490143e-03" rms="2.1779091656208038e-01" purity="5.1373916864395142e-01" nType="-99"/>
        </Node>
      </Node>
    </BinaryTree>
    <BinaryTree type="DecisionTree" boostWeight="1.0000000000000000e+00" itree="926">
      <Node pos="s" depth="0" NCoef="0" IVar="31" Cut="2.5495290756225586e+00" cType="1" res="2.2370466031134129e-03" rms="2.3833727836608887e-01" purity="5.0540727376937866e-01" nType="0">
        <Node pos="l" depth="1" NCoef="0" IVar="6" Cut="2.4121129512786865e+00" cType="1" res="6.1648529022932053e-02" rms="3.0828574299812317e-01" purity="2.4316087365150452e-01" nType="0">
          <Node pos="l" depth="2" NCoef="0" IVar="-1" Cut="0.0000000000000000e+00" cType="1" res="3.6068542394787073e-03" rms="2.0795652270317078e-01" purity="1.5985710918903351e-01" nType="-99"/>
          <Node pos="r" depth="2" NCoef="0" IVar="-1" Cut="0.0000000000000000e+00" cType="1" res="4.8798061907291412e-02" rms="3.9953464269638062e-01" purity="3.6365666985511780e-01" nType="-99"/>
        </Node>
        <Node pos="r" depth="1" NCoef="0" IVar="52" Cut="2.3574845790863037e+00" cType="1" res="-5.0483737140893936e-03" rms="2.2722250223159790e-01" purity="5.3756558895111084e-01" nType="0">
          <Node pos="l" depth="2" NCoef="0" IVar="-1" Cut="0.0000000000000000e+00" cType="1" res="-4.7103628516197205e-02" rms="-nan" purity="2.8611226007342339e-02" nType="-99"/>
          <Node pos="r" depth="2" NCoef="0" IVar="-1" Cut="0.0000000000000000e+00" cType="1" res="-7.2058441583067179e-04" rms="2.3293730616569519e-01" purity="5.5002582073211670e-01" nType="-99"/>
        </Node>
      </Node>
    </BinaryTree>
    <BinaryTree type="DecisionTree" boostWeight="1.0000000000000000e+00" itree="927">
      <Node pos="s" depth="0" NCoef="0" IVar="34" Cut="-1.2228881120681763e+00" cType="1" res="-5.0925039686262608e-03" rms="2.3344756662845612e-01" purity="4.8485988378524780e-01" nType="0">
        <Node pos="l" depth="1" NCoef="0" IVar="1" Cut="2.8537051677703857e+00" cType="1" res="4.4747482985258102e-02" rms="2.6796340942382812e-01" purity="3.0382731556892395e-01" nType="0">
          <Node pos="l" depth="2" NCoef="0" IVar="-1" Cut="0.0000000000000000e+00" cType="1" res="3.9255261421203613e-02" rms="3.2048699259757996e-01" purity="2.6935607194900513e-01" nType="-99"/>
          <Node pos="r" depth="2" NCoef="0" IVar="-1" Cut="0.0000000000000000e+00" cType="1" res="-4.8338584601879120e-03" rms="1.4694398641586304e-01" purity="3.5341477394104004e-01" nType="-99"/>
        </Node>
        <Node pos="r" depth="1" NCoef="0" IVar="34" Cut="-9.1452473402023315e-01" cType="1" res="-1.5944015234708786e-02" rms="2.2376561164855957e-01" purity="5.2427554130554199e-01" nType="0">
          <Node pos="l" depth="2" NCoef="0" IVar="-1" Cut="0.0000000000000000e+00" cType="1" res="-8.2329891622066498e-02" rms="-nan" purity="9.4909124076366425e-02" nType="-99"/>
          <Node pos="r" depth="2" NCoef="0" IVar="-1" Cut="0.0000000000000000e+00" cType="1" res="-3.8665949832648039e-03" rms="2.3305568099021912e-01" purity="5.3843307495117188e-01" nType="-99"/>
        </Node>
      </Node>
    </BinaryTree>
    <BinaryTree type="DecisionTree" boostWeight="1.0000000000000000e+00" itree="928">
      <Node pos="s" depth="0" NCoef="0" IVar="19" Cut="1.4976050853729248e+00" cType="1" res="-3.7321117706596851e-03" rms="2.2490143775939941e-01" purity="4.9274194240570068e-01" nType="0">
        <Node pos="l" depth="1" NCoef="0" IVar="73" Cut="2.2574465274810791e+00" cType="1" res="-6.7203962244093418e-03" rms="2.1856944262981415e-01" purity="4.9705249071121216e-01" nType="0">
          <Node pos="l" depth="2" NCoef="0" IVar="-1" Cut="0.0000000000000000e+00" cType="1" res="-2.9560865834355354e-02" rms="-nan" purity="1.7698848247528076e-01" nType="-99"/>
          <Node pos="r" depth="2" NCoef="0" IVar="-1" Cut="0.0000000000000000e+00" cType="1" res="-6.9655955303460360e-04" rms="2.2576768696308136e-01" purity="5.1683199405670166e-01" nType="-99"/>
        </Node>
        <Node pos="r" depth="1" NCoef="0" IVar="-1" Cut="0.0000000000000000e+00" cType="1" res="2.4364864453673363e-02" rms="3.4009835124015808e-01" purity="3.8371434807777405e-01" nType="-99"/>
      </Node>
    </BinaryTree>
    <BinaryTree type="DecisionTree" boostWeight="1.0000000000000000e+00" itree="929">
      <Node pos="s" depth="0" NCoef="0" IVar="82" Cut="1.0783178806304932e+00" cType="1" res="1.1352978181093931e-03" rms="2.3366463184356689e-01" purity="5.0207841396331787e-01" nType="0">
        <Node pos="l" depth="1" NCoef="0" IVar="4" Cut="3.4951155185699463e+00" cType="1" res="1.1787584982812405e-02" rms="2.5459182262420654e-01" purity="5.5112355947494507e-01" nType="0">
          <Node pos="l" depth="2" NCoef="0" IVar="-1" Cut="0.0000000000000000e+00" cType="1" res="1.3359902426600456e-02" rms="2.9601183533668518e-01" purity="3.4432706236839294e-01" nType="-99"/>
          <Node pos="r" depth="2" NCoef="0" IVar="-1" Cut="0.0000000000000000e+00" cType="1" res="2.3572175996378064e-04" rms="2.3561315238475800e-01" purity="6.3145601749420166e-01" nType="-99"/>
        </Node>
        <Node pos="r" depth="1" NCoef="0" IVar="25" Cut="1.1491712331771851e+00" cType="1" res="-4.2153306305408478e-02" rms="1.0363897681236267e-01" purity="3.0276957154273987e-01" nType="0">
          <Node pos="l" depth="2" NCoef="0" IVar="-1" Cut="0.0000000000000000e+00" cType="1" res="-2.5527028366923332e-02" rms="-nan" purity="3.0102431774139404e-01" nType="-99"/>
          <Node pos="r" depth="2" NCoef="0" IVar="-1" Cut="0.0000000000000000e+00" cType="1" res="5.2568633109331131e-02" rms="3.2533088326454163e-01" purity="3.1538847088813782e-01" nType="-99"/>
        </Node>
      </Node>
    </BinaryTree>
    <BinaryTree type="DecisionTree" boostWeight="1.0000000000000000e+00" itree="930">
      <Node pos="s" depth="0" NCoef="0" IVar="50" Cut="-3.8782626390457153e-02" cType="1" res="1.1097487295046449e-03" rms="2.3339428007602692e-01" purity="5.0144314765930176e-01" nType="0">
        <Node pos="l" depth="1" NCoef="0" IVar="74" Cut="1.2345679104328156e-02" cType="1" res="4.0129334665834904e-03" rms="2.4010606110095978e-01" purity="5.0618916749954224e-01" nType="0">
          <Node pos="l" depth="2" NCoef="0" IVar="-1" Cut="0.0000000000000000e+00" cType="1" res="6.0007916763424873e-03" rms="2.6184374094009399e-01" purity="5.2246892452239990e-01" nType="-99"/>
          <Node pos="r" depth="2" NCoef="0" IVar="-1" Cut="0.0000000000000000e+00" cType="1" res="-7.1611967869102955e-03" rms="1.9982944428920746e-01" purity="4.8089742660522461e-01" nType="-99"/>
        </Node>
        <Node pos="r" depth="1" NCoef="0" IVar="-1" Cut="0.0000000000000000e+00" cType="1" res="-2.8357021510601044e-02" rms="-nan" purity="3.5879430174827576e-01" nType="-99"/>
      </Node>
    </BinaryTree>
    <BinaryTree type="DecisionTree" boostWeight="1.0000000000000000e+00" itree="931">
      <Node pos="s" depth="0" NCoef="0" IVar="0" Cut="1.2756230831146240e+00" cType="1" res="-6.4374115318059921e-03" rms="2.3081590235233307e-01" purity="4.8794856667518616e-01" nType="0">
        <Node pos="l" depth="1" NCoef="0" IVar="1" Cut="3.2523291110992432e+00" cType="1" res="-1.1780269443988800e-02" rms="2.2289063036441803e-01" purity="5.0447720289230347e-01" nType="0">
          <Node pos="l" depth="2" NCoef="0" IVar="-1" Cut="0.0000000000000000e+00" cType="1" res="-2.9960653046146035e-04" rms="2.3851086199283600e-01" purity="4.5743623375892639e-01" nType="-99"/>
          <Node pos="r" depth="2" NCoef="0" IVar="-1" Cut="0.0000000000000000e+00" cType="1" res="-1.6211804002523422e-02" rms="1.6541586816310883e-01" purity="6.4131993055343628e-01" nType="-99"/>
        </Node>
        <Node pos="r" depth="1" NCoef="0" IVar="3" Cut="4.5929665565490723e+00" cType="1" res="4.7065775841474533e-02" rms="2.9348802566528320e-01" purity="3.2243177294731140e-01" nType="0">
          <Node pos="l" depth="2" NCoef="0" IVar="-1" Cut="0.0000000000000000e+00" cType="1" res="7.6288074254989624e-02" rms="3.9607164263725281e-01" purity="3.3648547530174255e-01" nType="-99"/>
          <Node pos="r" depth="2" NCoef="0" IVar="-1" Cut="0.0000000000000000e+00" cType="1" res="-9.4291055575013161e-03" rms="1.8373432755470276e-01" purity="3.1482350826263428e-01" nType="-99"/>
        </Node>
      </Node>
    </BinaryTree>
    <BinaryTree type="DecisionTree" boostWeight="1.0000000000000000e+00" itree="932">
      <Node pos="s" depth="0" NCoef="0" IVar="85" Cut="1.2345679104328156e-02" cType="1" res="6.9140819832682610e-03" rms="2.4298107624053955e-01" purity="4.9696367979049683e-01" nType="0">
        <Node pos="l" depth="1" NCoef="0" IVar="-1" Cut="0.0000000000000000e+00" cType="1" res="3.3385436981916428e-02" rms="3.3575046062469482e-01" purity="4.3230232596397400e-01" nType="-99"/>
        <Node pos="r" depth="1" NCoef="0" IVar="5" Cut="5.0816142559051514e-01" cType="1" res="3.3980468288064003e-03" rms="2.3834331333637238e-01" purity="4.9920836091041565e-01" nType="0">
          <Node pos="l" depth="2" NCoef="0" IVar="-1" Cut="0.0000000000000000e+00" cType="1" res="2.2807747591286898e-03" rms="2.4330227077007294e-01" purity="5.1405149698257446e-01" nType="-99"/>
          <Node pos="r" depth="2" NCoef="0" IVar="-1" Cut="0.0000000000000000e+00" cType="1" res="-3.2132934778928757e-02" rms="-nan" purity="1.1128645390272141e-01" nType="-99"/>
        </Node>
      </Node>
    </BinaryTree>
    <BinaryTree type="DecisionTree" boostWeight="1.0000000000000000e+00" itree="933">
      <Node pos="s" depth="0" NCoef="0" IVar="59" Cut="-1.2998218536376953e+00" cType="1" res="-3.0284291133284569e-03" rms="2.2938023507595062e-01" purity="4.9275130033493042e-01" nType="0">
        <Node pos="l" depth="1" NCoef="0" IVar="35" Cut="-6.4388072490692139e-01" cType="1" res="3.8140792399644852e-02" rms="2.5768381357192993e-01" purity="2.9651176929473877e-01" nType="0">
          <Node pos="l" depth="2" NCoef="0" IVar="-1" Cut="0.0000000000000000e+00" cType="1" res="-7.5945742428302765e-03" rms="1.5837563574314117e-01" purity="2.6927042007446289e-01" nType="-99"/>
          <Node pos="r" depth="2" NCoef="0" IVar="-1" Cut="0.0000000000000000e+00" cType="1" res="4.4018950313329697e-02" rms="3.3001330494880676e-01" purity="3.2980647683143616e-01" nType="-99"/>
        </Node>
        <Node pos="r" depth="1" NCoef="0" IVar="82" Cut="1.6833292245864868e+00" cType="1" res="-1.1858182027935982e-02" rms="2.2184936702251434e-01" purity="5.3483974933624268e-01" nType="0">
          <Node pos="l" depth="2" NCoef="0" IVar="-1" Cut="0.0000000000000000e+00" cType="1" res="-5.1667555235326290e-03" rms="2.1745140850543976e-01" purity="5.3905928134918213e-01" nType="-99"/>
          <Node pos="r" depth="2" NCoef="0" IVar="-1" Cut="0.0000000000000000e+00" cType="1" res="3.7826284766197205e-02" rms="3.2301157712936401e-01" purity="3.7832382321357727e-01" nType="-99"/>
        </Node>
      </Node>
    </BinaryTree>
    <BinaryTree type="DecisionTree" boostWeight="1.0000000000000000e+00" itree="934">
      <Node pos="s" depth="0" NCoef="0" IVar="78" Cut="1.0629613399505615e+00" cType="1" res="1.9755524117499590e-03" rms="2.3621056973934174e-01" purity="4.9931922554969788e-01" nType="0">
        <Node pos="l" depth="1" NCoef="0" IVar="13" Cut="-1.1839916706085205e+00" cType="1" res="-6.0631241649389267e-03" rms="2.3004069924354553e-01" purity="5.4475802183151245e-01" nType="0">
          <Node pos="l" depth="2" NCoef="0" IVar="-1" Cut="0.0000000000000000e+00" cType="1" res="-3.4273326396942139e-02" rms="-nan" purity="1.4092892408370972e-01" nType="-99"/>
          <Node pos="r" depth="2" NCoef="0" IVar="-1" Cut="0.0000000000000000e+00" cType="1" res="5.7080917758867145e-04" rms="2.5834697484970093e-01" purity="6.0256463289260864e-01" nType="-99"/>
        </Node>
        <Node pos="r" depth="1" NCoef="0" IVar="40" Cut="1.1314090490341187e+00" cType="1" res="4.8308514058589935e-02" rms="2.6430457830429077e-01" purity="2.3742112517356873e-01" nType="0">
          <Node pos="l" depth="2" NCoef="0" IVar="-1" Cut="0.0000000000000000e+00" cType="1" res="4.8014796338975430e-03" rms="2.0406281948089600e-01" purity="2.2912873327732086e-01" nType="-99"/>
          <Node pos="r" depth="2" NCoef="0" IVar="-1" Cut="0.0000000000000000e+00" cType="1" res="8.2488551735877991e-02" rms="3.7177255749702454e-01" purity="2.6227021217346191e-01" nType="-99"/>
        </Node>
      </Node>
    </BinaryTree>
    <BinaryTree type="DecisionTree" boostWeight="1.0000000000000000e+00" itree="935">
      <Node pos="s" depth="0" NCoef="0" IVar="2" Cut="1.1186814308166504e+00" cType="1" res="9.5950262621045113e-03" rms="2.4652102589607239e-01" purity="5.0725609064102173e-01" nType="0">
        <Node pos="l" depth="1" NCoef="0" IVar="37" Cut="-7.9415626823902130e-02" cType="1" res="8.5677653551101685e-02" rms="3.3820074796676636e-01" purity="1.6218170523643494e-01" nType="0">
          <Node pos="l" depth="2" NCoef="0" IVar="-1" Cut="0.0000000000000000e+00" cType="1" res="-1.6407270450145006e-03" rms="2.3202084004878998e-01" purity="8.9190289378166199e-02" nType="-99"/>
          <Node pos="r" depth="2" NCoef="0" IVar="-1" Cut="0.0000000000000000e+00" cType="1" res="1.3092929124832153e-01" rms="4.0283212065696716e-01" purity="2.4121053516864777e-01" nType="-99"/>
        </Node>
        <Node pos="r" depth="1" NCoef="0" IVar="40" Cut="1.5778802633285522e+00" cType="1" res="6.0443603433668613e-03" rms="2.4080719053745270e-01" purity="5.2336019277572632e-01" nType="0">
          <Node pos="l" depth="2" NCoef="0" IVar="-1" Cut="0.0000000000000000e+00" cType="1" res="3.1522442586719990e-03" rms="2.4754148721694946e-01" purity="5.3352808952331543e-01" nType="-99"/>
          <Node pos="r" depth="2" NCoef="0" IVar="-1" Cut="0.0000000000000000e+00" cType="1" res="-3.5047441720962524e-02" rms="-nan" purity="2.1076405048370361e-01" nType="-99"/>
        </Node>
      </Node>
    </BinaryTree>
    <BinaryTree type="DecisionTree" boostWeight="1.0000000000000000e+00" itree="936">
      <Node pos="s" depth="0" NCoef="0" IVar="72" Cut="1.1111111193895340e-01" cType="1" res="5.1265978254377842e-03" rms="2.3637953400611877e-01" purity="5.0166350603103638e-01" nType="0">
        <Node pos="l" depth="1" NCoef="0" IVar="0" Cut="7.1266019344329834e-01" cType="1" res="7.0429814513772726e-04" rms="2.2873213887214661e-01" purity="5.0578737258911133e-01" nType="0">
          <Node pos="l" depth="2" NCoef="0" IVar="-1" Cut="0.0000000000000000e+00" cType="1" res="6.8249348551034927e-03" rms="2.5847876071929932e-01" purity="5.9796327352523804e-01" nType="-99"/>
          <Node pos="r" depth="2" NCoef="0" IVar="-1" Cut="0.0000000000000000e+00" cType="1" res="-5.0220009870827198e-03" rms="2.0178353786468506e-01" purity="4.3521541357040405e-01" nType="-99"/>
        </Node>
        <Node pos="r" depth="1" NCoef="0" IVar="17" Cut="1.4019732475280762e+00" cType="1" res="8.0843232572078705e-02" rms="3.3272656798362732e-01" purity="4.3105742335319519e-01" nType="0">
          <Node pos="l" depth="2" NCoef="0" IVar="-1" Cut="0.0000000000000000e+00" cType="1" res="1.2383340299129486e-01" rms="3.7618371844291687e-01" purity="2.3563936352729797e-01" nType="-99"/>
          <Node pos="r" depth="2" NCoef="0" IVar="-1" Cut="0.0000000000000000e+00" cType="1" res="2.4053759407252073e-03" rms="2.7659037709236145e-01" purity="5.6905204057693481e-01" nType="-99"/>
        </Node>
      </Node>
    </BinaryTree>
    <BinaryTree type="DecisionTree" boostWeight="1.0000000000000000e+00" itree="937">
      <Node pos="s" depth="0" NCoef="0" IVar="38" Cut="1.3235661983489990e+00" cType="1" res="-5.6965756230056286e-03" rms="2.1807278692722321e-01" purity="5.0445598363876343e-01" nType="0">
        <Node pos="l" depth="1" NCoef="0" IVar="3" Cut="4.4328694343566895e+00" cType="1" res="-3.1118171289563179e-02" rms="1.3353459537029266e-01" purity="2.6048693060874939e-01" nType="0">
          <Node pos="l" depth="2" NCoef="0" IVar="-1" Cut="0.0000000000000000e+00" cType="1" res="1.4460400678217411e-02" rms="2.7086097002029419e-01" purity="1.9915482401847839e-01" nType="-99"/>
          <Node pos="r" depth="2" NCoef="0" IVar="-1" Cut="0.0000000000000000e+00" cType="1" res="-1.8858563154935837e-02" rms="8.0915339291095734e-02" purity="2.7167835831642151e-01" nType="-99"/>
        </Node>
        <Node pos="r" depth="1" NCoef="0" IVar="78" Cut="1.1392730474472046e+00" cType="1" res="8.6909122765064240e-03" rms="2.5259768962860107e-01" purity="6.4253163337707520e-01" nType="0">
          <Node pos="l" depth="2" NCoef="0" IVar="-1" Cut="0.0000000000000000e+00" cType="1" res="5.9325359761714935e-03" rms="2.6543048024177551e-01" purity="6.9703453779220581e-01" nType="-99"/>
          <Node pos="r" depth="2" NCoef="0" IVar="-1" Cut="0.0000000000000000e+00" cType="1" res="-3.5932578146457672e-02" rms="-nan" purity="1.1696802079677582e-01" nType="-99"/>
        </Node>
      </Node>
    </BinaryTree>
    <BinaryTree type="DecisionTree" boostWeight="1.0000000000000000e+00" itree="938">
      <Node pos="s" depth="0" NCoef="0" IVar="36" Cut="9.3399822711944580e-02" cType="1" res="3.6275952588766813e-03" rms="2.3675720393657684e-01" purity="4.9777168035507202e-01" nType="0">
        <Node pos="l" depth="1" NCoef="0" IVar="67" Cut="8.7442779541015625e-01" cType="1" res="3.3125668764114380e-02" rms="2.3892274498939514e-01" purity="1.3612264394760132e-01" nType="0">
          <Node pos="l" depth="2" NCoef="0" IVar="-1" Cut="0.0000000000000000e+00" cType="1" res="-2.4580860510468483e-02" rms="-nan" purity="8.0987669527530670e-02" nType="-99"/>
          <Node pos="r" depth="2" NCoef="0" IVar="-1" Cut="0.0000000000000000e+00" cType="1" res="2.4982020258903503e-02" rms="2.6348367333412170e-01" purity="1.4634430408477783e-01" nType="-99"/>
        </Node>
        <Node pos="r" depth="1" NCoef="0" IVar="13" Cut="-1.4540321826934814e+00" cType="1" res="-5.2867452614009380e-03" rms="2.3537258803844452e-01" purity="6.0706228017807007e-01" nType="0">
          <Node pos="l" depth="2" NCoef="0" IVar="-1" Cut="0.0000000000000000e+00" cType="1" res="-3.4259848296642303e-02" rms="-nan" purity="2.7829971909523010e-01" nType="-99"/>
          <Node pos="r" depth="2" NCoef="0" IVar="-1" Cut="0.0000000000000000e+00" cType="1" res="-5.0604995340108871e-04" rms="2.4475768208503723e-01" purity="6.2172287702560425e-01" nType="-99"/>
        </Node>
      </Node>
    </BinaryTree>
    <BinaryTree type="DecisionTree" boostWeight="1.0000000000000000e+00" itree="939">
      <Node pos="s" depth="0" NCoef="0" IVar="40" Cut="9.5885193347930908e-01" cType="1" res="-3.8939847145229578e-03" rms="2.3261052370071411e-01" purity="4.9779284000396729e-01" nType="0">
        <Node pos="l" depth="1" NCoef="0" IVar="27" Cut="1.1919126510620117e+00" cType="1" res="6.5189818851649761e-03" rms="2.5565510988235474e-01" purity="5.5680996179580688e-01" nType="0">
          <Node pos="l" depth="2" NCoef="0" IVar="-1" Cut="0.0000000000000000e+00" cType="1" res="2.1679138764739037e-02" rms="3.0782502889633179e-01" purity="3.5950496792793274e-01" nType="-99"/>
          <Node pos="r" depth="2" NCoef="0" IVar="-1" Cut="0.0000000000000000e+00" cType="1" res="-1.0750734945759177e-03" rms="2.4390581250190735e-01" purity="5.9210401773452759e-01" nType="-99"/>
        </Node>
        <Node pos="r" depth="1" NCoef="0" IVar="36" Cut="1.3671239614486694e+00" cType="1" res="-3.3550955355167389e-02" rms="1.4447510242462158e-01" purity="3.2970735430717468e-01" nType="0">
          <Node pos="l" depth="2" NCoef="0" IVar="-1" Cut="0.0000000000000000e+00" cType="1" res="-5.4735604673624039e-02" rms="-nan" purity="8.7114730849862099e-03" nType="-99"/>
          <Node pos="r" depth="2" NCoef="0" IVar="-1" Cut="0.0000000000000000e+00" cType="1" res="2.5321638677269220e-03" rms="2.6555255055427551e-01" purity="5.4016429185867310e-01" nType="-99"/>
        </Node>
      </Node>
    </BinaryTree>
    <BinaryTree type="DecisionTree" boostWeight="1.0000000000000000e+00" itree="940">
      <Node pos="s" depth="0" NCoef="0" IVar="5" Cut="5.1056879758834839e-01" cType="1" res="6.9121662527322769e-03" rms="2.4720129370689392e-01" purity="5.0406634807586670e-01" nType="0">
        <Node pos="l" depth="1" NCoef="0" IVar="3" Cut="5.5055365562438965e+00" cType="1" res="1.0445925407111645e-02" rms="2.5304591655731201e-01" purity="5.1842021942138672e-01" nType="0">
          <Node pos="l" depth="2" NCoef="0" IVar="-1" Cut="0.0000000000000000e+00" cType="1" res="2.7924338355660439e-03" rms="2.4957597255706787e-01" purity="5.2421039342880249e-01" nType="-99"/>
          <Node pos="r" depth="2" NCoef="0" IVar="-1" Cut="0.0000000000000000e+00" cType="1" res="5.1612690091133118e-02" rms="3.6223712563514709e-01" purity="2.4656902253627777e-01" nType="-99"/>
        </Node>
        <Node pos="r" depth="1" NCoef="0" IVar="-1" Cut="0.0000000000000000e+00" cType="1" res="-3.6157969385385513e-02" rms="-nan" purity="9.3805685639381409e-02" nType="-99"/>
      </Node>
    </BinaryTree>
    <BinaryTree type="DecisionTree" boostWeight="1.0000000000000000e+00" itree="941">
      <Node pos="s" depth="0" NCoef="0" IVar="64" Cut="1.2345679104328156e-02" cType="1" res="8.5377995856106281e-04" rms="2.3359438776969910e-01" purity="5.0196951627731323e-01" nType="0">
        <Node pos="l" depth="1" NCoef="0" IVar="-1" Cut="0.0000000000000000e+00" cType="1" res="-3.4394036978483200e-02" rms="-nan" purity="1.3198874890804291e-01" nType="-99"/>
        <Node pos="r" depth="1" NCoef="0" IVar="69" Cut="8.9882630109786987e-01" cType="1" res="4.1729388758540154e-03" rms="2.4164313077926636e-01" purity="5.1348328590393066e-01" nType="0">
          <Node pos="l" depth="2" NCoef="0" IVar="-1" Cut="0.0000000000000000e+00" cType="1" res="2.6140170171856880e-02" rms="3.2002824544906616e-01" purity="3.0023974180221558e-01" nType="-99"/>
          <Node pos="r" depth="2" NCoef="0" IVar="-1" Cut="0.0000000000000000e+00" cType="1" res="-1.3890714617446065e-03" rms="2.2688896954059601e-01" purity="5.4438710212707520e-01" nType="-99"/>
        </Node>
      </Node>
    </BinaryTree>
    <BinaryTree type="DecisionTree" boostWeight="1.0000000000000000e+00" itree="942">
      <Node pos="s" depth="0" NCoef="0" IVar="22" Cut="1.2345679104328156e-02" cType="1" res="1.0864332318305969e-02" rms="2.4597471952438354e-01" purity="5.0831466913223267e-01" nType="0">
        <Node pos="l" depth="1" NCoef="0" IVar="-1" Cut="0.0000000000000000e+00" cType="1" res="2.8523840010166168e-02" rms="3.1218948960304260e-01" purity="4.0700823068618774e-01" nType="-99"/>
        <Node pos="r" depth="1" NCoef="0" IVar="10" Cut="3.0536973476409912e+00" cType="1" res="7.4289590120315552e-03" rms="2.4262788891792297e-01" purity="5.1183336973190308e-01" nType="0">
          <Node pos="l" depth="2" NCoef="0" IVar="-1" Cut="0.0000000000000000e+00" cType="1" res="-9.1150216758251190e-03" rms="1.7251774668693542e-01" purity="2.9521006345748901e-01" nType="-99"/>
          <Node pos="r" depth="2" NCoef="0" IVar="-1" Cut="0.0000000000000000e+00" cType="1" res="6.4052566885948181e-03" rms="2.5925713777542114e-01" purity="5.7750546932220459e-01" nType="-99"/>
        </Node>
      </Node>
    </BinaryTree>
    <BinaryTree type="DecisionTree" boostWeight="1.0000000000000000e+00" itree="943">
      <Node pos="s" depth="0" NCoef="0" IVar="11" Cut="1.2345679104328156e-02" cType="1" res="-4.0018195286393166e-03" rms="2.2548432648181915e-01" purity="4.9636057019233704e-01" nType="0">
        <Node pos="l" depth="1" NCoef="0" IVar="46" Cut="9.8483669757843018e-01" cType="1" res="-6.2267374247312546e-02" rms="1.1426762491464615e-01" purity="2.4413749575614929e-01" nType="0">
          <Node pos="l" depth="2" NCoef="0" IVar="-1" Cut="0.0000000000000000e+00" cType="1" res="3.3711650758050382e-04" rms="2.7629953622817993e-01" purity="3.3496722579002380e-01" nType="-99"/>
          <Node pos="r" depth="2" NCoef="0" IVar="-1" Cut="0.0000000000000000e+00" cType="1" res="-6.9953128695487976e-02" rms="-nan" purity="5.8907721191644669e-02" nType="-99"/>
        </Node>
        <Node pos="r" depth="1" NCoef="0" IVar="82" Cut="1.1596776247024536e+00" cType="1" res="8.1780814798548818e-04" rms="2.3165650665760040e-01" purity="5.1722401380538940e-01" nType="0">
          <Node pos="l" depth="2" NCoef="0" IVar="-1" Cut="0.0000000000000000e+00" cType="1" res="-2.7967425994575024e-03" rms="2.2391548752784729e-01" purity="5.4434680938720703e-01" nType="-99"/>
          <Node pos="r" depth="2" NCoef="0" IVar="-1" Cut="0.0000000000000000e+00" cType="1" res="1.5328460372984409e-02" rms="2.6133701205253601e-01" purity="3.8946598768234253e-01" nType="-99"/>
        </Node>
      </Node>
    </BinaryTree>
    <BinaryTree type="DecisionTree" boostWeight="1.0000000000000000e+00" itree="944">
      <Node pos="s" depth="0" NCoef="0" IVar="77" Cut="1.2099553346633911e+00" cType="1" res="9.8593276925384998e-04" rms="2.3201286792755127e-01" purity="4.9091941118240356e-01" nType="0">
        <Node pos="l" depth="1" NCoef="0" IVar="61" Cut="1.6839541196823120e+00" cType="1" res="5.8496678248047829e-03" rms="2.4441827833652496e-01" purity="5.1829051971435547e-01" nType="0">
          <Node pos="l" depth="2" NCoef="0" IVar="-1" Cut="0.0000000000000000e+00" cType="1" res="1.0932267177850008e-03" rms="2.4134685099124908e-01" purity="5.1989614963531494e-01" nType="-99"/>
          <Node pos="r" depth="2" NCoef="0" IVar="-1" Cut="0.0000000000000000e+00" cType="1" res="2.8891215100884438e-02" rms="3.2689914107322693e-01" purity="4.5561516284942627e-01" nType="-99"/>
        </Node>
        <Node pos="r" depth="1" NCoef="0" IVar="63" Cut="3.7243660539388657e-02" cType="1" res="-3.9059158414602280e-02" rms="-nan" purity="1.1469441652297974e-01" nType="-99"/>
      </Node>
    </BinaryTree>
    <BinaryTree type="DecisionTree" boostWeight="1.0000000000000000e+00" itree="945">
      <Node pos="s" depth="0" NCoef="0" IVar="10" Cut="3.6018660068511963e+00" cType="1" res="1.9635574426501989e-03" rms="2.4074698984622955e-01" purity="5.0107288360595703e-01" nType="0">
        <Node pos="l" depth="1" NCoef="0" IVar="3" Cut="5.2999420166015625e+00" cType="1" res="7.0391367189586163e-03" rms="2.5176632404327393e-01" purity="4.9774530529975891e-01" nType="0">
          <Node pos="l" depth="2" NCoef="0" IVar="-1" Cut="0.0000000000000000e+00" cType="1" res="8.4721425082534552e-04" rms="2.4661287665367126e-01" purity="5.0210195779800415e-01" nType="-99"/>
          <Node pos="r" depth="2" NCoef="0" IVar="-1" Cut="0.0000000000000000e+00" cType="1" res="3.6186799407005310e-02" rms="3.2992568612098694e-01" purity="4.0302628278732300e-01" nType="-99"/>
        </Node>
        <Node pos="r" depth="1" NCoef="0" IVar="17" Cut="7.4950677156448364e-01" cType="1" res="-4.9450200051069260e-02" rms="8.9200055226683617e-03" purity="5.3477984666824341e-01" nType="0">
          <Node pos="l" depth="2" NCoef="0" IVar="-1" Cut="0.0000000000000000e+00" cType="1" res="-2.6689919829368591e-01" rms="-nan" purity="-1.8157291412353516e-01" nType="-99"/>
          <Node pos="r" depth="2" NCoef="0" IVar="-1" Cut="0.0000000000000000e+00" cType="1" res="-5.6124827824532986e-04" rms="2.4589318037033081e-01" purity="7.4864149093627930e-01" nType="-99"/>
        </Node>
      </Node>
    </BinaryTree>
    <BinaryTree type="DecisionTree" boostWeight="1.0000000000000000e+00" itree="946">
      <Node pos="s" depth="0" NCoef="0" IVar="0" Cut="1.4872422218322754e+00" cType="1" res="-3.4040962345898151e-03" rms="2.2564209997653961e-01" purity="4.9782019853591919e-01" nType="0">
        <Node pos="l" depth="1" NCoef="0" IVar="5" Cut="-1.1951818317174911e-01" cType="1" res="-4.2835102067328990e-04" rms="2.3149617016315460e-01" purity="5.0500744581222534e-01" nType="0">
          <Node pos="l" depth="2" NCoef="0" IVar="-1" Cut="0.0000000000000000e+00" cType="1" res="-3.9326101541519165e-02" rms="-nan" purity="1.1828915774822235e-01" nType="-99"/>
          <Node pos="r" depth="2" NCoef="0" IVar="-1" Cut="0.0000000000000000e+00" cType="1" res="1.0807700455188751e-03" rms="2.4093835055828094e-01" purity="5.2399909496307373e-01" nType="-99"/>
        </Node>
        <Node pos="r" depth="1" NCoef="0" IVar="-1" Cut="0.0000000000000000e+00" cType="1" res="-4.9457371234893799e-02" rms="-nan" purity="1.9730788469314575e-01" nType="-99"/>
      </Node>
    </BinaryTree>
    <BinaryTree type="DecisionTree" boostWeight="1.0000000000000000e+00" itree="947">
      <Node pos="s" depth="0" NCoef="0" IVar="76" Cut="1.4688794612884521e+00" cType="1" res="2.0973382052034140e-03" rms="2.3991319537162781e-01" purity="4.9617093801498413e-01" nType="0">
        <Node pos="l" depth="1" NCoef="0" IVar="81" Cut="-2.5432918071746826e+00" cType="1" res="6.2062619253993034e-03" rms="2.4732524156570435e-01" purity="5.2267509698867798e-01" nType="0">
          <Node pos="l" depth="2" NCoef="0" IVar="-1" Cut="0.0000000000000000e+00" cType="1" res="-2.3658806458115578e-02" rms="1.2878203392028809e-01" purity="5.9982252120971680e-01" nType="-99"/>
          <Node pos="r" depth="2" NCoef="0" IVar="-1" Cut="0.0000000000000000e+00" cType="1" res="3.7152536679059267e-03" rms="2.5226745009422302e-01" purity="5.1781886816024780e-01" nType="-99"/>
        </Node>
        <Node pos="r" depth="1" NCoef="0" IVar="1" Cut="2.5074689388275146e+00" cType="1" res="-3.7422757595777512e-02" rms="-nan" purity="3.8827218115329742e-02" nType="-99"/>
      </Node>
    </BinaryTree>
    <BinaryTree type="DecisionTree" boostWeight="1.0000000000000000e+00" itree="948">
      <Node pos="s" depth="0" NCoef="0" IVar="35" Cut="1.4454371929168701e+00" cType="1" res="-8.2017686218023300e-03" rms="2.2042234241962433e-01" purity="4.8743417859077454e-01" nType="0">
        <Node pos="l" depth="1" NCoef="0" IVar="40" Cut="1.2282043695449829e+00" cType="1" res="-4.9697523936629295e-03" rms="2.2517903149127960e-01" purity="4.9766317009925842e-01" nType="0">
          <Node pos="l" depth="2" NCoef="0" IVar="-1" Cut="0.0000000000000000e+00" cType="1" res="2.0356081950012594e-04" rms="2.4049028754234314e-01" purity="5.2864062786102295e-01" nType="-99"/>
          <Node pos="r" depth="2" NCoef="0" IVar="-1" Cut="0.0000000000000000e+00" cType="1" res="-2.1580658853054047e-02" rms="-nan" purity="2.3708634078502655e-01" nType="-99"/>
        </Node>
        <Node pos="r" depth="1" NCoef="0" IVar="-1" Cut="0.0000000000000000e+00" cType="1" res="-3.6447763442993164e-02" rms="-nan" purity="2.3725757002830505e-01" nType="-99"/>
      </Node>
    </BinaryTree>
    <BinaryTree type="DecisionTree" boostWeight="1.0000000000000000e+00" itree="949">
      <Node pos="s" depth="0" NCoef="0" IVar="10" Cut="2.7639617919921875e+00" cType="1" res="1.1999086476862431e-02" rms="2.4587662518024445e-01" purity="5.0321191549301147e-01" nType="0">
        <Node pos="l" depth="1" NCoef="0" IVar="27" Cut="2.2471690177917480e+00" cType="1" res="8.6915671825408936e-02" rms="2.9862046241760254e-01" purity="2.9867744445800781e-01" nType="0">
          <Node pos="l" depth="2" NCoef="0" IVar="-1" Cut="0.0000000000000000e+00" cType="1" res="2.0942669361829758e-03" rms="1.5994706749916077e-01" purity="1.7432039976119995e-01" nType="-99"/>
          <Node pos="r" depth="2" NCoef="0" IVar="-1" Cut="0.0000000000000000e+00" cType="1" res="5.7707246392965317e-02" rms="3.9162939786911011e-01" purity="4.6478974819183350e-01" nType="-99"/>
        </Node>
        <Node pos="r" depth="1" NCoef="0" IVar="1" Cut="1.7812513113021851e+00" cType="1" res="8.2669230177998543e-03" rms="2.4234496057033539e-01" purity="5.1340138912200928e-01" nType="0">
          <Node pos="l" depth="2" NCoef="0" IVar="-1" Cut="0.0000000000000000e+00" cType="1" res="-6.5200984477996826e-02" rms="-nan" purity="3.8836959749460220e-02" nType="-99"/>
          <Node pos="r" depth="2" NCoef="0" IVar="-1" Cut="0.0000000000000000e+00" cType="1" res="3.9664162322878838e-03" rms="2.4757502973079681e-01" purity="5.2502149343490601e-01" nType="-99"/>
        </Node>
      </Node>
    </BinaryTree>
    <BinaryTree type="DecisionTree" boostWeight="1.0000000000000000e+00" itree="950">
      <Node pos="s" depth="0" NCoef="0" IVar="41" Cut="-4.4393455982208252e-01" cType="1" res="4.3765823356807232e-03" rms="2.3813799023628235e-01" purity="5.0312602519989014e-01" nType="0">
        <Node pos="l" depth="1" NCoef="0" IVar="-1" Cut="0.0000000000000000e+00" cType="1" res="3.7127491086721420e-02" rms="3.8456803560256958e-01" purity="6.0161733627319336e-01" nType="-99"/>
        <Node pos="r" depth="1" NCoef="0" IVar="56" Cut="1.4057955741882324e+00" cType="1" res="9.6371222753077745e-04" rms="2.3079591989517212e-01" purity="4.9979132413864136e-01" nType="0">
          <Node pos="l" depth="2" NCoef="0" IVar="-1" Cut="0.0000000000000000e+00" cType="1" res="-1.2267926940694451e-03" rms="2.2464890778064728e-01" purity="5.0500935316085815e-01" nType="-99"/>
          <Node pos="r" depth="2" NCoef="0" IVar="-1" Cut="0.0000000000000000e+00" cType="1" res="2.2754313424229622e-02" rms="2.9617479443550110e-01" purity="4.2827019095420837e-01" nType="-99"/>
        </Node>
      </Node>
    </BinaryTree>
    <BinaryTree type="DecisionTree" boostWeight="1.0000000000000000e+00" itree="951">
      <Node pos="s" depth="0" NCoef="0" IVar="82" Cut="1.5973033905029297e+00" cType="1" res="6.4568412490189075e-03" rms="2.4006167054176331e-01" purity="4.9986219406127930e-01" nType="0">
        <Node pos="l" depth="1" NCoef="0" IVar="4" Cut="4.1546006202697754e+00" cType="1" res="9.2971539124846458e-03" rms="2.4691540002822876e-01" purity="5.1143938302993774e-01" nType="0">
          <Node pos="l" depth="2" NCoef="0" IVar="-1" Cut="0.0000000000000000e+00" cType="1" res="2.2921434137970209e-03" rms="2.4445973336696625e-01" purity="5.1041489839553833e-01" nType="-99"/>
          <Node pos="r" depth="2" NCoef="0" IVar="-1" Cut="0.0000000000000000e+00" cType="1" res="3.6533616483211517e-02" rms="3.0171364545822144e-01" purity="5.4499769210815430e-01" nType="-99"/>
        </Node>
        <Node pos="r" depth="1" NCoef="0" IVar="-1" Cut="0.0000000000000000e+00" cType="1" res="-3.5997021943330765e-02" rms="-nan" purity="1.4374259114265442e-01" nType="-99"/>
      </Node>
    </BinaryTree>
    <BinaryTree type="DecisionTree" boostWeight="1.0000000000000000e+00" itree="952">
      <Node pos="s" depth="0" NCoef="0" IVar="51" Cut="1.2962962388992310e+00" cType="1" res="6.0339323244988918e-03" rms="2.3600152134895325e-01" purity="5.0379872322082520e-01" nType="0">
        <Node pos="l" depth="1" NCoef="0" IVar="3" Cut="5.4832229614257812e+00" cType="1" res="3.1725701410323381e-03" rms="2.3206274211406708e-01" purity="5.0674337148666382e-01" nType="0">
          <Node pos="l" depth="2" NCoef="0" IVar="-1" Cut="0.0000000000000000e+00" cType="1" res="2.0300662145018578e-03" rms="2.3845262825489044e-01" purity="5.1682305335998535e-01" nType="-99"/>
          <Node pos="r" depth="2" NCoef="0" IVar="-1" Cut="0.0000000000000000e+00" cType="1" res="-3.8003645837306976e-02" rms="-nan" purity="5.6455127894878387e-02" nType="-99"/>
        </Node>
        <Node pos="r" depth="1" NCoef="0" IVar="-1" Cut="0.0000000000000000e+00" cType="1" res="4.9318712204694748e-02" rms="3.4240028262138367e-01" purity="3.8293510675430298e-01" nType="-99"/>
      </Node>
    </BinaryTree>
    <BinaryTree type="DecisionTree" boostWeight="1.0000000000000000e+00" itree="953">
      <Node pos="s" depth="0" NCoef="0" IVar="72" Cut="2.3580245971679688e+00" cType="1" res="5.8366637676954269e-04" rms="2.3380915820598602e-01" purity="5.0220173597335815e-01" nType="0">
        <Node pos="l" depth="1" NCoef="0" IVar="17" Cut="-1.1832457780838013e+00" cType="1" res="-2.0589558407664299e-03" rms="2.2905349731445312e-01" purity="5.0460505485534668e-01" nType="0">
          <Node pos="l" depth="2" NCoef="0" IVar="-1" Cut="0.0000000000000000e+00" cType="1" res="-1.1790546029806137e-01" rms="-nan" purity="-3.8600150495767593e-02" nType="-99"/>
          <Node pos="r" depth="2" NCoef="0" IVar="-1" Cut="0.0000000000000000e+00" cType="1" res="1.7991339555010200e-03" rms="2.5968232750892639e-01" purity="5.8564305305480957e-01" nType="-99"/>
        </Node>
        <Node pos="r" depth="1" NCoef="0" IVar="-1" Cut="0.0000000000000000e+00" cType="1" res="5.1342371851205826e-02" rms="3.7214052677154541e-01" purity="3.9524430036544800e-01" nType="-99"/>
      </Node>
    </BinaryTree>
    <BinaryTree type="DecisionTree" boostWeight="1.0000000000000000e+00" itree="954">
      <Node pos="s" depth="0" NCoef="0" IVar="13" Cut="8.6077314615249634e-01" cType="1" res="7.9949973151087761e-03" rms="2.4441014230251312e-01" purity="5.0815403461456299e-01" nType="0">
        <Node pos="l" depth="1" NCoef="0" IVar="76" Cut="-9.5491188764572144e-01" cType="1" res="4.1476074606180191e-02" rms="2.3072957992553711e-01" purity="2.2667808830738068e-01" nType="0">
          <Node pos="l" depth="2" NCoef="0" IVar="-1" Cut="0.0000000000000000e+00" cType="1" res="-1.4705175999552011e-03" rms="1.3068391382694244e-01" purity="2.5702273845672607e-01" nType="-99"/>
          <Node pos="r" depth="2" NCoef="0" IVar="-1" Cut="0.0000000000000000e+00" cType="1" res="8.0967426300048828e-02" rms="3.1178957223892212e-01" purity="1.8423973023891449e-01" nType="-99"/>
        </Node>
        <Node pos="r" depth="1" NCoef="0" IVar="61" Cut="1.2983227968215942e+00" cType="1" res="-1.1582324514165521e-03" rms="2.4723091721534729e-01" purity="5.8510541915893555e-01" nType="0">
          <Node pos="l" depth="2" NCoef="0" IVar="-1" Cut="0.0000000000000000e+00" cType="1" res="-2.4317570496350527e-03" rms="2.3810523748397827e-01" purity="6.0523486137390137e-01" nType="-99"/>
          <Node pos="r" depth="2" NCoef="0" IVar="-1" Cut="0.0000000000000000e+00" cType="1" res="1.7717398703098297e-02" rms="3.1341049075126648e-01" purity="3.9946824312210083e-01" nType="-99"/>
        </Node>
      </Node>
    </BinaryTree>
    <BinaryTree type="DecisionTree" boostWeight="1.0000000000000000e+00" itree="955">
      <Node pos="s" depth="0" NCoef="0" IVar="13" Cut="-1.4154441356658936e+00" cType="1" res="-2.1195760928094387e-03" rms="2.3083283007144928e-01" purity="4.9929308891296387e-01" nType="0">
        <Node pos="l" depth="1" NCoef="0" IVar="10" Cut="3.2260386943817139e+00" cType="1" res="5.6795313954353333e-02" rms="2.6521506905555725e-01" purity="2.2529424726963043e-01" nType="0">
          <Node pos="l" depth="2" NCoef="0" IVar="-1" Cut="0.0000000000000000e+00" cType="1" res="1.1983209103345871e-01" rms="3.5024827718734741e-01" purity="2.0007197558879852e-01" nType="-99"/>
          <Node pos="r" depth="2" NCoef="0" IVar="-1" Cut="0.0000000000000000e+00" cType="1" res="-6.5172775648534298e-03" rms="1.0927543044090271e-01" purity="2.4832551181316376e-01" nType="-99"/>
        </Node>
        <Node pos="r" depth="1" NCoef="0" IVar="13" Cut="-1.2319999933242798e+00" cType="1" res="-7.6608238741755486e-03" rms="2.2654467821121216e-01" purity="5.2506411075592041e-01" nType="0">
          <Node pos="l" depth="2" NCoef="0" IVar="-1" Cut="0.0000000000000000e+00" cType="1" res="-7.9208478331565857e-02" rms="-nan" purity="4.2688254266977310e-02" nType="-99"/>
          <Node pos="r" depth="2" NCoef="0" IVar="-1" Cut="0.0000000000000000e+00" cType="1" res="-9.8886236082762480e-04" rms="2.4080948531627655e-01" purity="5.5068182945251465e-01" nType="-99"/>
        </Node>
      </Node>
    </BinaryTree>
    <BinaryTree type="DecisionTree" boostWeight="1.0000000000000000e+00" itree="956">
      <Node pos="s" depth="0" NCoef="0" IVar="30" Cut="-5.6790125370025635e-01" cType="1" res="7.4968058615922928e-03" rms="2.4607355892658234e-01" purity="4.9878209829330444e-01" nType="0">
        <Node pos="l" depth="1" NCoef="0" IVar="81" Cut="-2.3227100372314453e+00" cType="1" res="7.0416584610939026e-02" rms="3.1380423903465271e-01" purity="4.5900645852088928e-01" nType="0">
          <Node pos="l" depth="2" NCoef="0" IVar="-1" Cut="0.0000000000000000e+00" cType="1" res="4.7578848898410797e-02" rms="3.9105927944183350e-01" purity="6.4163756370544434e-01" nType="-99"/>
          <Node pos="r" depth="2" NCoef="0" IVar="-1" Cut="0.0000000000000000e+00" cType="1" res="6.6156475804746151e-03" rms="2.4892824888229370e-01" purity="3.6045524477958679e-01" nType="-99"/>
        </Node>
        <Node pos="r" depth="1" NCoef="0" IVar="8" Cut="-3.8782626390457153e-02" cType="1" res="1.6022865893319249e-03" rms="2.3789498209953308e-01" purity="5.0250840187072754e-01" nType="0">
          <Node pos="l" depth="2" NCoef="0" IVar="-1" Cut="0.0000000000000000e+00" cType="1" res="-2.5937770260497928e-04" rms="2.3513452708721161e-01" purity="5.0450176000595093e-01" nType="-99"/>
          <Node pos="r" depth="2" NCoef="0" IVar="-1" Cut="0.0000000000000000e+00" cType="1" res="3.1771358102560043e-02" rms="3.1872230768203735e-01" purity="4.1895037889480591e-01" nType="-99"/>
        </Node>
      </Node>
    </BinaryTree>
    <BinaryTree type="DecisionTree" boostWeight="1.0000000000000000e+00" itree="957">
      <Node pos="s" depth="0" NCoef="0" IVar="4" Cut="3.2748885154724121e+00" cType="1" res="3.1018408481031656e-03" rms="2.4144545197486877e-01" purity="4.9567395448684692e-01" nType="0">
        <Node pos="l" depth="1" NCoef="0" IVar="17" Cut="-1.8222159147262573e-01" cType="1" res="7.7275969088077545e-02" rms="3.2512044906616211e-01" purity="2.6103743910789490e-01" nType="0">
          <Node pos="l" depth="2" NCoef="0" IVar="-1" Cut="0.0000000000000000e+00" cType="1" res="2.2642517089843750e-01" rms="4.1171076893806458e-01" purity="2.3735943436622620e-01" nType="-99"/>
          <Node pos="r" depth="2" NCoef="0" IVar="-1" Cut="0.0000000000000000e+00" cType="1" res="1.4787798863835633e-04" rms="2.2734470665454865e-01" purity="2.7526992559432983e-01" nType="-99"/>
        </Node>
        <Node pos="r" depth="1" NCoef="0" IVar="40" Cut="1.5712568759918213e+00" cType="1" res="-1.8500562291592360e-03" rms="2.3396398127079010e-01" purity="5.1133835315704346e-01" nType="0">
          <Node pos="l" depth="2" NCoef="0" IVar="-1" Cut="0.0000000000000000e+00" cType="1" res="7.6463486766442657e-04" rms="2.4170637130737305e-01" purity="5.2329474687576294e-01" nType="-99"/>
          <Node pos="r" depth="2" NCoef="0" IVar="-1" Cut="0.0000000000000000e+00" cType="1" res="-4.7075059264898300e-02" rms="-nan" purity="1.4475326240062714e-01" nType="-99"/>
        </Node>
      </Node>
    </BinaryTree>
    <BinaryTree type="DecisionTree" boostWeight="1.0000000000000000e+00" itree="958">
      <Node pos="s" depth="0" NCoef="0" IVar="0" Cut="9.9331206083297729e-01" cType="1" res="5.9997905045747757e-03" rms="2.4521493911743164e-01" purity="4.9817934632301331e-01" nType="0">
        <Node pos="l" depth="1" NCoef="0" IVar="27" Cut="1.3497799634933472e+00" cType="1" res="-5.4044397547841072e-03" rms="2.2908292710781097e-01" purity="5.4432553052902222e-01" nType="0">
          <Node pos="l" depth="2" NCoef="0" IVar="-1" Cut="0.0000000000000000e+00" cType="1" res="9.0491380542516708e-03" rms="2.3891964554786682e-01" purity="3.8473138213157654e-01" nType="-99"/>
          <Node pos="r" depth="2" NCoef="0" IVar="-1" Cut="0.0000000000000000e+00" cType="1" res="-4.9672327004373074e-03" rms="2.2543470561504364e-01" purity="5.8927571773529053e-01" nType="-99"/>
        </Node>
        <Node pos="r" depth="1" NCoef="0" IVar="14" Cut="9.0126729011535645e-01" cType="1" res="3.3337831497192383e-02" rms="2.7823191881179810e-01" purity="3.8755851984024048e-01" nType="0">
          <Node pos="l" depth="2" NCoef="0" IVar="-1" Cut="0.0000000000000000e+00" cType="1" res="1.7255259677767754e-02" rms="2.9283317923545837e-01" purity="4.0399581193923950e-01" nType="-99"/>
          <Node pos="r" depth="2" NCoef="0" IVar="-1" Cut="0.0000000000000000e+00" cType="1" res="-2.7799693867564201e-02" rms="-nan" purity="2.5672721862792969e-01" nType="-99"/>
        </Node>
      </Node>
    </BinaryTree>
    <BinaryTree type="DecisionTree" boostWeight="1.0000000000000000e+00" itree="959">
      <Node pos="s" depth="0" NCoef="0" IVar="31" Cut="2.5580756664276123e+00" cType="1" res="4.6943132765591145e-03" rms="2.4414682388305664e-01" purity="5.0444751977920532e-01" nType="0">
        <Node pos="l" depth="1" NCoef="0" IVar="79" Cut="-9.1571724414825439e-01" cType="1" res="5.3289696574211121e-02" rms="2.9002389311790466e-01" purity="2.6054143905639648e-01" nType="0">
          <Node pos="l" depth="2" NCoef="0" IVar="-1" Cut="0.0000000000000000e+00" cType="1" res="1.5819182153791189e-03" rms="2.1355386078357697e-01" purity="2.5263872742652893e-01" nType="-99"/>
          <Node pos="r" depth="2" NCoef="0" IVar="-1" Cut="0.0000000000000000e+00" cType="1" res="6.8252652883529663e-02" rms="3.7688377499580383e-01" purity="2.7490693330764771e-01" nType="-99"/>
        </Node>
        <Node pos="r" depth="1" NCoef="0" IVar="8" Cut="-5.8173939585685730e-02" cType="1" res="-1.6099163331091404e-03" rms="2.3681725561618805e-01" purity="5.3608918190002441e-01" nType="0">
          <Node pos="l" depth="2" NCoef="0" IVar="-1" Cut="0.0000000000000000e+00" cType="1" res="-1.4583910815417767e-03" rms="2.3449419438838959e-01" purity="5.3871798515319824e-01" nType="-99"/>
          <Node pos="r" depth="2" NCoef="0" IVar="-1" Cut="0.0000000000000000e+00" cType="1" res="2.6804784312844276e-02" rms="2.9965668916702271e-01" purity="4.2953562736511230e-01" nType="-99"/>
        </Node>
      </Node>
    </BinaryTree>
    <BinaryTree type="DecisionTree" boostWeight="1.0000000000000000e+00" itree="960">
      <Node pos="s" depth="0" NCoef="0" IVar="79" Cut="-2.5704252719879150e-01" cType="1" res="-6.0126031748950481e-03" rms="2.2921897470951080e-01" purity="4.9582961201667786e-01" nType="0">
        <Node pos="l" depth="1" NCoef="0" IVar="55" Cut="-1.1069830656051636e+00" cType="1" res="-1.7508134245872498e-02" rms="2.1707056462764740e-01" purity="5.2422523498535156e-01" nType="0">
          <Node pos="l" depth="2" NCoef="0" IVar="-1" Cut="0.0000000000000000e+00" cType="1" res="-3.8984365761280060e-02" rms="-nan" purity="1.7744405567646027e-01" nType="-99"/>
          <Node pos="r" depth="2" NCoef="0" IVar="-1" Cut="0.0000000000000000e+00" cType="1" res="-2.5283102877438068e-03" rms="2.4861595034599304e-01" purity="5.8157336711883545e-01" nType="-99"/>
        </Node>
        <Node pos="r" depth="1" NCoef="0" IVar="58" Cut="-6.8657261133193970e-01" cType="1" res="2.4192500859498978e-02" rms="2.5598356127738953e-01" purity="4.2121854424476624e-01" nType="0">
          <Node pos="l" depth="2" NCoef="0" IVar="-1" Cut="0.0000000000000000e+00" cType="1" res="-7.7937818132340908e-03" rms="1.8599361181259155e-01" purity="3.9211699366569519e-01" nType="-99"/>
          <Node pos="r" depth="2" NCoef="0" IVar="-1" Cut="0.0000000000000000e+00" cType="1" res="2.0833833143115044e-02" rms="2.9069441556930542e-01" purity="4.4125100970268250e-01" nType="-99"/>
        </Node>
      </Node>
    </BinaryTree>
    <BinaryTree type="DecisionTree" boostWeight="1.0000000000000000e+00" itree="961">
      <Node pos="s" depth="0" NCoef="0" IVar="13" Cut="-1.1068307161331177e+00" cType="1" res="5.7741957716643810e-03" rms="2.4152496457099915e-01" purity="5.0675129890441895e-01" nType="0">
        <Node pos="l" depth="1" NCoef="0" IVar="35" Cut="-4.1131579875946045e-01" cType="1" res="4.8770084977149963e-02" rms="2.3403406143188477e-01" purity="2.1829611063003540e-01" nType="0">
          <Node pos="l" depth="2" NCoef="0" IVar="-1" Cut="0.0000000000000000e+00" cType="1" res="4.8014275729656219e-02" rms="2.7932938933372498e-01" purity="2.6200714707374573e-01" nType="-99"/>
          <Node pos="r" depth="2" NCoef="0" IVar="-1" Cut="0.0000000000000000e+00" cType="1" res="-1.0645618662238121e-02" rms="2.3396963253617287e-02" purity="1.2879040837287903e-01" nType="-99"/>
        </Node>
        <Node pos="r" depth="1" NCoef="0" IVar="76" Cut="-1.4928226470947266e+00" cType="1" res="-2.1527374628931284e-03" rms="2.4204838275909424e-01" purity="5.5993229150772095e-01" nType="0">
          <Node pos="l" depth="2" NCoef="0" IVar="-1" Cut="0.0000000000000000e+00" cType="1" res="5.9858635067939758e-03" rms="2.8034245967864990e-01" purity="7.5980174541473389e-01" nType="-99"/>
          <Node pos="r" depth="2" NCoef="0" IVar="-1" Cut="0.0000000000000000e+00" cType="1" res="-5.7920613326132298e-03" rms="2.0672625303268433e-01" purity="4.0707501769065857e-01" nType="-99"/>
        </Node>
      </Node>
    </BinaryTree>
    <BinaryTree type="DecisionTree" boostWeight="1.0000000000000000e+00" itree="962">
      <Node pos="s" depth="0" NCoef="0" IVar="34" Cut="3.1918859481811523e-01" cType="1" res="-1.0188248706981540e-03" rms="2.4015983939170837e-01" purity="4.9989211559295654e-01" nType="0">
        <Node pos="l" depth="1" NCoef="0" IVar="38" Cut="1.9286984205245972e-01" cType="1" res="3.1170303001999855e-02" rms="2.4865791201591492e-01" purity="2.9601714015007019e-01" nType="0">
          <Node pos="l" depth="2" NCoef="0" IVar="-1" Cut="0.0000000000000000e+00" cType="1" res="6.0204169712960720e-03" rms="2.2935675084590912e-01" purity="2.7332535386085510e-01" nType="-99"/>
          <Node pos="r" depth="2" NCoef="0" IVar="-1" Cut="0.0000000000000000e+00" cType="1" res="5.8863677084445953e-02" rms="3.6446252465248108e-01" purity="5.3611677885055542e-01" nType="-99"/>
        </Node>
        <Node pos="r" depth="1" NCoef="0" IVar="41" Cut="5.8164805173873901e-02" cType="1" res="-1.2107823975384235e-02" rms="2.3614783585071564e-01" purity="5.7012605667114258e-01" nType="0">
          <Node pos="l" depth="2" NCoef="0" IVar="-1" Cut="0.0000000000000000e+00" cType="1" res="1.4157813275232911e-03" rms="2.5817945599555969e-01" purity="6.2768185138702393e-01" nType="-99"/>
          <Node pos="r" depth="2" NCoef="0" IVar="-1" Cut="0.0000000000000000e+00" cType="1" res="-1.6429627314209938e-02" rms="1.8291389942169189e-01" purity="4.6000027656555176e-01" nType="-99"/>
        </Node>
      </Node>
    </BinaryTree>
    <BinaryTree type="DecisionTree" boostWeight="1.0000000000000000e+00" itree="963">
      <Node pos="s" depth="0" NCoef="0" IVar="82" Cut="1.7078132629394531e+00" cType="1" res="7.2826608084142208e-04" rms="2.3180949687957764e-01" purity="4.9941143393516541e-01" nType="0">
        <Node pos="l" depth="1" NCoef="0" IVar="52" Cut="2.3601346015930176e+00" cType="1" res="-1.8599884351715446e-03" rms="2.2787944972515106e-01" purity="5.0348329544067383e-01" nType="0">
          <Node pos="l" depth="2" NCoef="0" IVar="-1" Cut="0.0000000000000000e+00" cType="1" res="3.5671353340148926e-02" rms="3.1048005819320679e-01" purity="2.3241721093654633e-01" nType="-99"/>
          <Node pos="r" depth="2" NCoef="0" IVar="-1" Cut="0.0000000000000000e+00" cType="1" res="-1.9648091401904821e-03" rms="2.2319389879703522e-01" purity="5.1417195796966553e-01" nType="-99"/>
        </Node>
        <Node pos="r" depth="1" NCoef="0" IVar="-1" Cut="0.0000000000000000e+00" cType="1" res="4.6529609709978104e-02" rms="3.4738445281982422e-01" purity="3.1784000992774963e-01" nType="-99"/>
      </Node>
    </BinaryTree>
    <BinaryTree type="DecisionTree" boostWeight="1.0000000000000000e+00" itree="964">
      <Node pos="s" depth="0" NCoef="0" IVar="25" Cut="1.3045531511306763e+00" cType="1" res="-1.7021895619109273e-03" rms="2.3042178153991699e-01" purity="4.9074178934097290e-01" nType="0">
        <Node pos="l" depth="1" NCoef="0" IVar="52" Cut="2.8969714641571045e+00" cType="1" res="-6.9712051190435886e-03" rms="2.2375506162643433e-01" purity="4.9742406606674194e-01" nType="0">
          <Node pos="l" depth="2" NCoef="0" IVar="-1" Cut="0.0000000000000000e+00" cType="1" res="-1.0592723265290260e-02" rms="1.6815130412578583e-01" purity="3.2886314392089844e-01" nType="-99"/>
          <Node pos="r" depth="2" NCoef="0" IVar="-1" Cut="0.0000000000000000e+00" cType="1" res="2.2556895855814219e-03" rms="2.4821132421493530e-01" purity="5.9059351682662964e-01" nType="-99"/>
        </Node>
        <Node pos="r" depth="1" NCoef="0" IVar="55" Cut="1.4002161026000977e+00" cType="1" res="1.0052117705345154e-01" rms="3.1756761670112610e-01" purity="3.6110070347785950e-01" nType="0">
          <Node pos="l" depth="2" NCoef="0" IVar="-1" Cut="0.0000000000000000e+00" cType="1" res="1.2393339537084103e-02" rms="1.7285266518592834e-01" purity="1.8742468953132629e-01" nType="-99"/>
          <Node pos="r" depth="2" NCoef="0" IVar="-1" Cut="0.0000000000000000e+00" cType="1" res="5.8788798749446869e-02" rms="3.9136993885040283e-01" purity="5.1383757591247559e-01" nType="-99"/>
        </Node>
      </Node>
    </BinaryTree>
    <BinaryTree type="DecisionTree" boostWeight="1.0000000000000000e+00" itree="965">
      <Node pos="s" depth="0" NCoef="0" IVar="39" Cut="-8.7461429834365845e-01" cType="1" res="4.8920153640210629e-03" rms="2.4763350188732147e-01" purity="5.0614392757415771e-01" nType="0">
        <Node pos="l" depth="1" NCoef="0" IVar="38" Cut="-1.4155923128128052e+00" cType="1" res="-1.5570442192256451e-03" rms="2.4102555215358734e-01" purity="5.3737920522689819e-01" nType="0">
          <Node pos="l" depth="2" NCoef="0" IVar="-1" Cut="0.0000000000000000e+00" cType="1" res="-2.1773209795355797e-02" rms="7.8554719686508179e-02" purity="2.9843905568122864e-01" nType="-99"/>
          <Node pos="r" depth="2" NCoef="0" IVar="-1" Cut="0.0000000000000000e+00" cType="1" res="1.5930772060528398e-03" rms="2.5420415401458740e-01" purity="5.6891095638275146e-01" nType="-99"/>
        </Node>
        <Node pos="r" depth="1" NCoef="0" IVar="2" Cut="2.3117976188659668e+00" cType="1" res="5.2059199661016464e-02" rms="2.8707131743431091e-01" purity="2.7769511938095093e-01" nType="0">
          <Node pos="l" depth="2" NCoef="0" IVar="-1" Cut="0.0000000000000000e+00" cType="1" res="-1.2946580536663532e-02" rms="1.2425348907709122e-01" purity="8.5871353745460510e-02" nType="-99"/>
          <Node pos="r" depth="2" NCoef="0" IVar="-1" Cut="0.0000000000000000e+00" cType="1" res="3.7771705538034439e-02" rms="3.6960256099700928e-01" purity="4.6280169486999512e-01" nType="-99"/>
        </Node>
      </Node>
    </BinaryTree>
    <BinaryTree type="DecisionTree" boostWeight="1.0000000000000000e+00" itree="966">
      <Node pos="s" depth="0" NCoef="0" IVar="4" Cut="4.1542510986328125e+00" cType="1" res="-7.6553318649530411e-03" rms="2.1742260456085205e-01" purity="4.9877637624740601e-01" nType="0">
        <Node pos="l" depth="1" NCoef="0" IVar="17" Cut="1.2905260324478149e+00" cType="1" res="-1.0717629455029964e-02" rms="2.1264149248600006e-01" purity="4.9789839982986450e-01" nType="0">
          <Node pos="l" depth="2" NCoef="0" IVar="-1" Cut="0.0000000000000000e+00" cType="1" res="-4.2824376374483109e-02" rms="-nan" purity="-3.4403083845973015e-03" nType="-99"/>
          <Node pos="r" depth="2" NCoef="0" IVar="-1" Cut="0.0000000000000000e+00" cType="1" res="-1.7911542090587318e-04" rms="2.6415988802909851e-01" purity="6.5340554714202881e-01" nType="-99"/>
        </Node>
        <Node pos="r" depth="1" NCoef="0" IVar="-1" Cut="0.0000000000000000e+00" cType="1" res="3.9087243378162384e-02" rms="3.2481107115745544e-01" purity="5.2830338478088379e-01" nType="-99"/>
      </Node>
    </BinaryTree>
    <BinaryTree type="DecisionTree" boostWeight="1.0000000000000000e+00" itree="967">
      <Node pos="s" depth="0" NCoef="0" IVar="5" Cut="-2.0192202925682068e-01" cType="1" res="1.4099628606345505e-04" rms="2.4177137017250061e-01" purity="4.8582363128662109e-01" nType="0">
        <Node pos="l" depth="1" NCoef="0" IVar="-1" Cut="0.0000000000000000e+00" cType="1" res="-1.2174696475267410e-01" rms="-nan" purity="-3.1545411795377731e-02" nType="-99"/>
        <Node pos="r" depth="1" NCoef="0" IVar="19" Cut="1.1483654975891113e+00" cType="1" res="2.7601118199527264e-03" rms="2.4832765758037567e-01" purity="4.9695011973381042e-01" nType="0">
          <Node pos="l" depth="2" NCoef="0" IVar="-1" Cut="0.0000000000000000e+00" cType="1" res="-1.5477568376809359e-03" rms="2.3746113479137421e-01" purity="5.1229304075241089e-01" nType="-99"/>
          <Node pos="r" depth="2" NCoef="0" IVar="-1" Cut="0.0000000000000000e+00" cType="1" res="2.0161263644695282e-02" rms="3.1143718957901001e-01" purity="3.8575005531311035e-01" nType="-99"/>
        </Node>
      </Node>
    </BinaryTree>
    <BinaryTree type="DecisionTree" boostWeight="1.0000000000000000e+00" itree="968">
      <Node pos="s" depth="0" NCoef="0" IVar="46" Cut="1.3879641294479370e+00" cType="1" res="-3.0553720425814390e-03" rms="2.2391228377819061e-01" purity="5.0733816623687744e-01" nType="0">
        <Node pos="l" depth="1" NCoef="0" IVar="77" Cut="-3.7250912189483643e-01" cType="1" res="7.4452336411923170e-04" rms="2.3246267437934875e-01" purity="5.2162730693817139e-01" nType="0">
          <Node pos="l" depth="2" NCoef="0" IVar="-1" Cut="0.0000000000000000e+00" cType="1" res="-2.1335291676223278e-03" rms="2.2785487771034241e-01" purity="5.5521291494369507e-01" nType="-99"/>
          <Node pos="r" depth="2" NCoef="0" IVar="-1" Cut="0.0000000000000000e+00" cType="1" res="1.6334364190697670e-02" rms="2.5351187586784363e-01" purity="3.3236473798751831e-01" nType="-99"/>
        </Node>
        <Node pos="r" depth="1" NCoef="0" IVar="-1" Cut="0.0000000000000000e+00" cType="1" res="-7.1771018207073212e-02" rms="-nan" purity="4.1668906807899475e-02" nType="-99"/>
      </Node>
    </BinaryTree>
    <BinaryTree type="DecisionTree" boostWeight="1.0000000000000000e+00" itree="969">
      <Node pos="s" depth="0" NCoef="0" IVar="19" Cut="5.5824822187423706e-01" cType="1" res="-4.7091278247535229e-03" rms="2.2604799270629883e-01" purity="4.9939340353012085e-01" nType="0">
        <Node pos="l" depth="1" NCoef="0" IVar="58" Cut="-1.2237348556518555e+00" cType="1" res="-2.9268404468894005e-02" rms="1.9458435475826263e-01" purity="5.3392791748046875e-01" nType="0">
          <Node pos="l" depth="2" NCoef="0" IVar="-1" Cut="0.0000000000000000e+00" cType="1" res="-3.5491768270730972e-02" rms="-nan" purity="3.6797034740447998e-01" nType="-99"/>
          <Node pos="r" depth="2" NCoef="0" IVar="-1" Cut="0.0000000000000000e+00" cType="1" res="-3.8834521546959877e-03" rms="2.1878662705421448e-01" purity="5.7860386371612549e-01" nType="-99"/>
        </Node>
        <Node pos="r" depth="1" NCoef="0" IVar="48" Cut="7.9649710655212402e-01" cType="1" res="7.6444367878139019e-03" rms="2.3937174677848816e-01" purity="4.8202222585678101e-01" nType="0">
          <Node pos="l" depth="2" NCoef="0" IVar="-1" Cut="0.0000000000000000e+00" cType="1" res="-4.3609119951725006e-02" rms="-nan" purity="1.0642603784799576e-01" nType="-99"/>
          <Node pos="r" depth="2" NCoef="0" IVar="-1" Cut="0.0000000000000000e+00" cType="1" res="4.5845350250601768e-03" rms="2.5079056620597839e-01" purity="5.0212609767913818e-01" nType="-99"/>
        </Node>
      </Node>
    </BinaryTree>
    <BinaryTree type="DecisionTree" boostWeight="1.0000000000000000e+00" itree="970">
      <Node pos="s" depth="0" NCoef="0" IVar="52" Cut="3.1188228130340576e+00" cType="1" res="6.0432183090597391e-04" rms="2.3399865627288818e-01" purity="5.0059270858764648e-01" nType="0">
        <Node pos="l" depth="1" NCoef="0" IVar="36" Cut="1.2924481630325317e+00" cType="1" res="1.3639491051435471e-02" rms="2.5487694144248962e-01" purity="4.6230471134185791e-01" nType="0">
          <Node pos="l" depth="2" NCoef="0" IVar="-1" Cut="0.0000000000000000e+00" cType="1" res="2.1481519564986229e-02" rms="2.6660773158073425e-01" purity="1.9000169634819031e-01" nType="-99"/>
          <Node pos="r" depth="2" NCoef="0" IVar="-1" Cut="0.0000000000000000e+00" cType="1" res="-1.9641330000013113e-03" rms="2.4623857438564301e-01" purity="6.0492974519729614e-01" nType="-99"/>
        </Node>
        <Node pos="r" depth="1" NCoef="0" IVar="17" Cut="-1.3765573501586914e+00" cType="1" res="-2.1949358284473419e-02" rms="1.9050613045692444e-01" purity="5.6683927774429321e-01" nType="0">
          <Node pos="l" depth="2" NCoef="0" IVar="-1" Cut="0.0000000000000000e+00" cType="1" res="-9.9121499061584473e-01" rms="-nan" purity="-1.2973290681838989e-01" nType="-99"/>
          <Node pos="r" depth="2" NCoef="0" IVar="-1" Cut="0.0000000000000000e+00" cType="1" res="-4.7812964767217636e-03" rms="2.2277104854583740e-01" purity="6.2012261152267456e-01" nType="-99"/>
        </Node>
      </Node>
    </BinaryTree>
    <BinaryTree type="DecisionTree" boostWeight="1.0000000000000000e+00" itree="971">
      <Node pos="s" depth="0" NCoef="0" IVar="61" Cut="1.5826717615127563e+00" cType="1" res="7.1850256063044071e-04" rms="2.3969915509223938e-01" purity="4.9687260389328003e-01" nType="0">
        <Node pos="l" depth="1" NCoef="0" IVar="81" Cut="-1.7072358131408691e+00" cType="1" res="3.7372789811342955e-03" rms="2.4526713788509369e-01" purity="5.0743520259857178e-01" nType="0">
          <Node pos="l" depth="2" NCoef="0" IVar="-1" Cut="0.0000000000000000e+00" cType="1" res="5.8081038296222687e-03" rms="2.7372050285339355e-01" purity="5.9802168607711792e-01" nType="-99"/>
          <Node pos="r" depth="2" NCoef="0" IVar="-1" Cut="0.0000000000000000e+00" cType="1" res="-6.4918277785181999e-03" rms="1.9052658975124359e-01" purity="3.6540225148200989e-01" nType="-99"/>
        </Node>
        <Node pos="r" depth="1" NCoef="0" IVar="-1" Cut="0.0000000000000000e+00" cType="1" res="-3.1114436686038971e-02" rms="-nan" purity="1.7475555837154388e-01" nType="-99"/>
      </Node>
    </BinaryTree>
    <BinaryTree type="DecisionTree" boostWeight="1.0000000000000000e+00" itree="972">
      <Node pos="s" depth="0" NCoef="0" IVar="50" Cut="-3.1026101112365723e-01" cType="1" res="-3.2080737873911858e-03" rms="2.2744448482990265e-01" purity="4.9677941203117371e-01" nType="0">
        <Node pos="l" depth="1" NCoef="0" IVar="20" Cut="-2.3575952649116516e-01" cType="1" res="-7.5991866178810596e-03" rms="2.2248360514640808e-01" purity="4.9938157200813293e-01" nType="0">
          <Node pos="l" depth="2" NCoef="0" IVar="-1" Cut="0.0000000000000000e+00" cType="1" res="1.0030250065028667e-02" rms="2.6087412238121033e-01" purity="5.8281350135803223e-01" nType="-99"/>
          <Node pos="r" depth="2" NCoef="0" IVar="-1" Cut="0.0000000000000000e+00" cType="1" res="-5.6667923927307129e-03" rms="2.1187967061996460e-01" purity="4.8028048872947693e-01" nType="-99"/>
        </Node>
        <Node pos="r" depth="1" NCoef="0" IVar="67" Cut="9.2051601409912109e-01" cType="1" res="5.6485816836357117e-02" rms="2.7972927689552307e-01" purity="4.6140530705451965e-01" nType="0">
          <Node pos="l" depth="2" NCoef="0" IVar="-1" Cut="0.0000000000000000e+00" cType="1" res="4.3789803981781006e-02" rms="3.7289392948150635e-01" purity="5.8906894922256470e-01" nType="-99"/>
          <Node pos="r" depth="2" NCoef="0" IVar="-1" Cut="0.0000000000000000e+00" cType="1" res="-4.7627557069063187e-03" rms="1.5953314304351807e-01" purity="3.7630122900009155e-01" nType="-99"/>
        </Node>
      </Node>
    </BinaryTree>
    <BinaryTree type="DecisionTree" boostWeight="1.0000000000000000e+00" itree="973">
      <Node pos="s" depth="0" NCoef="0" IVar="31" Cut="2.7815976142883301e+00" cType="1" res="6.5452873241156340e-04" rms="2.3528023064136505e-01" purity="4.9907150864601135e-01" nType="0">
        <Node pos="l" depth="1" NCoef="0" IVar="48" Cut="8.0306762456893921e-01" cType="1" res="-3.1166462227702141e-02" rms="1.7074310779571533e-01" purity="2.7629539370536804e-01" nType="0">
          <Node pos="l" depth="2" NCoef="0" IVar="-1" Cut="0.0000000000000000e+00" cType="1" res="8.2829684019088745e-02" rms="3.6285480856895447e-01" purity="2.1152625977993011e-01" nType="-99"/>
          <Node pos="r" depth="2" NCoef="0" IVar="-1" Cut="0.0000000000000000e+00" cType="1" res="-1.6467422246932983e-02" rms="1.2750689685344696e-01" purity="2.8266033530235291e-01" nType="-99"/>
        </Node>
        <Node pos="r" depth="1" NCoef="0" IVar="48" Cut="7.4801468849182129e-01" cType="1" res="1.0720910504460335e-02" rms="2.5144478678703308e-01" purity="5.6954538822174072e-01" nType="0">
          <Node pos="l" depth="2" NCoef="0" IVar="-1" Cut="0.0000000000000000e+00" cType="1" res="-5.4859526455402374e-02" rms="-nan" purity="1.4166343212127686e-01" nType="-99"/>
          <Node pos="r" depth="2" NCoef="0" IVar="-1" Cut="0.0000000000000000e+00" cType="1" res="5.2821910940110683e-03" rms="2.5785171985626221e-01" purity="5.8355122804641724e-01" nType="-99"/>
        </Node>
      </Node>
    </BinaryTree>
    <BinaryTree type="DecisionTree" boostWeight="1.0000000000000000e+00" itree="974">
      <Node pos="s" depth="0" NCoef="0" IVar="31" Cut="2.4344277381896973e+00" cType="1" res="3.1771878711879253e-03" rms="2.3795369267463684e-01" purity="5.0430619716644287e-01" nType="0">
        <Node pos="l" depth="1" NCoef="0" IVar="34" Cut="7.7501565217971802e-02" cType="1" res="-3.4986671060323715e-02" rms="-nan" purity="8.5669353604316711e-02" nType="-99"/>
        <Node pos="r" depth="1" NCoef="0" IVar="16" Cut="1.2828538417816162e+00" cType="1" res="7.7574620954692364e-03" rms="2.4410471320152283e-01" purity="5.2679193019866943e-01" nType="0">
          <Node pos="l" depth="2" NCoef="0" IVar="-1" Cut="0.0000000000000000e+00" cType="1" res="3.6480496637523174e-03" rms="2.4900043010711670e-01" purity="5.3547018766403198e-01" nType="-99"/>
          <Node pos="r" depth="2" NCoef="0" IVar="-1" Cut="0.0000000000000000e+00" cType="1" res="-3.8751825690269470e-02" rms="-nan" purity="1.5490841865539551e-01" nType="-99"/>
        </Node>
      </Node>
    </BinaryTree>
    <BinaryTree type="DecisionTree" boostWeight="1.0000000000000000e+00" itree="975">
      <Node pos="s" depth="0" NCoef="0" IVar="20" Cut="2.3177881538867950e-01" cType="1" res="1.7846535192802548e-03" rms="2.4146552383899689e-01" purity="4.9118056893348694e-01" nType="0">
        <Node pos="l" depth="1" NCoef="0" IVar="15" Cut="2.0821547508239746e-01" cType="1" res="-4.0694191120564938e-03" rms="2.3522143065929413e-01" purity="4.9927452206611633e-01" nType="0">
          <Node pos="l" depth="2" NCoef="0" IVar="-1" Cut="0.0000000000000000e+00" cType="1" res="1.1746441945433617e-02" rms="2.2114941477775574e-01" purity="2.6541948318481445e-01" nType="-99"/>
          <Node pos="r" depth="2" NCoef="0" IVar="-1" Cut="0.0000000000000000e+00" cType="1" res="-4.2842058464884758e-03" rms="2.3983231186866760e-01" purity="5.9058827161788940e-01" nType="-99"/>
        </Node>
        <Node pos="r" depth="1" NCoef="0" IVar="10" Cut="3.0835773944854736e+00" cType="1" res="5.1831912249326706e-02" rms="2.8452450037002563e-01" purity="4.2198428511619568e-01" nType="0">
          <Node pos="l" depth="2" NCoef="0" IVar="-1" Cut="0.0000000000000000e+00" cType="1" res="5.4075121879577637e-02" rms="3.8922512531280518e-01" purity="3.8254034519195557e-01" nType="-99"/>
          <Node pos="r" depth="2" NCoef="0" IVar="-1" Cut="0.0000000000000000e+00" cType="1" res="-4.1839201003313065e-03" rms="1.5458890795707703e-01" purity="4.4819837808609009e-01" nType="-99"/>
        </Node>
      </Node>
    </BinaryTree>
    <BinaryTree type="DecisionTree" boostWeight="1.0000000000000000e+00" itree="976">
      <Node pos="s" depth="0" NCoef="0" IVar="52" Cut="2.6884469985961914e+00" cType="1" res="1.0889529949054122e-03" rms="2.4252636730670929e-01" purity="4.9500486254692078e-01" nType="0">
        <Node pos="l" depth="1" NCoef="0" IVar="0" Cut="9.1817122697830200e-01" cType="1" res="-4.7870405018329620e-02" rms="6.7520499229431152e-02" purity="1.8686260282993317e-01" nType="0">
          <Node pos="l" depth="2" NCoef="0" IVar="-1" Cut="0.0000000000000000e+00" cType="1" res="-3.6218105815351009e-03" rms="1.9028973579406738e-01" purity="2.8757244348526001e-01" nType="-99"/>
          <Node pos="r" depth="2" NCoef="0" IVar="-1" Cut="0.0000000000000000e+00" cType="1" res="-4.7759775072336197e-02" rms="-nan" purity="3.6915022879838943e-02" nType="-99"/>
        </Node>
        <Node pos="r" depth="1" NCoef="0" IVar="34" Cut="-1.2228399515151978e+00" cType="1" res="1.0469635948538780e-02" rms="2.6204591989517212e-01" purity="5.5404531955718994e-01" nType="0">
          <Node pos="l" depth="2" NCoef="0" IVar="-1" Cut="0.0000000000000000e+00" cType="1" res="2.1248161792755127e-02" rms="2.9340919852256775e-01" purity="3.5540881752967834e-01" nType="-99"/>
          <Node pos="r" depth="2" NCoef="0" IVar="-1" Cut="0.0000000000000000e+00" cType="1" res="3.0463177245110273e-04" rms="2.5396183133125305e-01" purity="5.9549623727798462e-01" nType="-99"/>
        </Node>
      </Node>
    </BinaryTree>
    <BinaryTree type="DecisionTree" boostWeight="1.0000000000000000e+00" itree="977">
      <Node pos="s" depth="0" NCoef="0" IVar="8" Cut="-4.0721756219863892e-01" cType="1" res="7.5842970982193947e-03" rms="2.4181026220321655e-01" purity="5.0884389877319336e-01" nType="0">
        <Node pos="l" depth="1" NCoef="0" IVar="63" Cut="-3.5828533768653870e-01" cType="1" res="1.1584673076868057e-02" rms="2.4969828128814697e-01" purity="5.2185142040252686e-01" nType="0">
          <Node pos="l" depth="2" NCoef="0" IVar="-1" Cut="0.0000000000000000e+00" cType="1" res="2.0187800750136375e-02" rms="2.9967597126960754e-01" purity="5.5957049131393433e-01" nType="-99"/>
          <Node pos="r" depth="2" NCoef="0" IVar="-1" Cut="0.0000000000000000e+00" cType="1" res="1.4397422783076763e-03" rms="2.4063976109027863e-01" purity="5.1637160778045654e-01" nType="-99"/>
        </Node>
        <Node pos="r" depth="1" NCoef="0" IVar="-1" Cut="0.0000000000000000e+00" cType="1" res="-5.0843041390180588e-02" rms="-nan" purity="1.3440471887588501e-01" nType="-99"/>
      </Node>
    </BinaryTree>
    <BinaryTree type="DecisionTree" boostWeight="1.0000000000000000e+00" itree="978">
      <Node pos="s" depth="0" NCoef="0" IVar="18" Cut="-1.1743949651718140e+00" cType="1" res="-1.3356247109186370e-05" rms="2.3834042251110077e-01" purity="4.9338188767433167e-01" nType="0">
        <Node pos="l" depth="1" NCoef="0" IVar="27" Cut="8.0144238471984863e-01" cType="1" res="6.4056166447699070e-03" rms="2.4720466136932373e-01" purity="5.3029674291610718e-01" nType="0">
          <Node pos="l" depth="2" NCoef="0" IVar="-1" Cut="0.0000000000000000e+00" cType="1" res="3.5324614495038986e-02" rms="3.5448589920997620e-01" purity="3.1740161776542664e-01" nType="-99"/>
          <Node pos="r" depth="2" NCoef="0" IVar="-1" Cut="0.0000000000000000e+00" cType="1" res="4.4720794539898634e-04" rms="2.3796980082988739e-01" purity="5.4361575841903687e-01" nType="-99"/>
        </Node>
        <Node pos="r" depth="1" NCoef="0" IVar="42" Cut="4.5176267623901367e-02" cType="1" res="-4.0712460875511169e-02" rms="1.6613052785396576e-01" purity="2.5932547450065613e-01" nType="0">
          <Node pos="l" depth="2" NCoef="0" IVar="-1" Cut="0.0000000000000000e+00" cType="1" res="-3.3023681491613388e-02" rms="-nan" purity="2.3581244051456451e-01" nType="-99"/>
          <Node pos="r" depth="2" NCoef="0" IVar="-1" Cut="0.0000000000000000e+00" cType="1" res="6.3314707949757576e-03" rms="2.6148712635040283e-01" purity="2.8712743520736694e-01" nType="-99"/>
        </Node>
      </Node>
    </BinaryTree>
    <BinaryTree type="DecisionTree" boostWeight="1.0000000000000000e+00" itree="979">
      <Node pos="s" depth="0" NCoef="0" IVar="79" Cut="1.3975553512573242e+00" cType="1" res="8.2416441291570663e-03" rms="2.4509221315383911e-01" purity="5.0940817594528198e-01" nType="0">
        <Node pos="l" depth="1" NCoef="0" IVar="31" Cut="2.4113681316375732e+00" cType="1" res="1.1212840676307678e-02" rms="2.5117731094360352e-01" purity="5.2005171775817871e-01" nType="0">
          <Node pos="l" depth="2" NCoef="0" IVar="-1" Cut="0.0000000000000000e+00" cType="1" res="2.9983121901750565e-02" rms="3.5021179914474487e-01" purity="2.4329744279384613e-01" nType="-99"/>
          <Node pos="r" depth="2" NCoef="0" IVar="-1" Cut="0.0000000000000000e+00" cType="1" res="2.5320346467196941e-03" rms="2.4359956383705139e-01" purity="5.3608083724975586e-01" nType="-99"/>
        </Node>
        <Node pos="r" depth="1" NCoef="0" IVar="-1" Cut="0.0000000000000000e+00" cType="1" res="-5.3714618086814880e-02" rms="-nan" purity="5.8080047369003296e-02" nType="-99"/>
      </Node>
    </BinaryTree>
    <BinaryTree type="DecisionTree" boostWeight="1.0000000000000000e+00" itree="980">
      <Node pos="s" depth="0" NCoef="0" IVar="77" Cut="-1.5311639308929443e+00" cType="1" res="3.4093975555151701e-03" rms="2.3068657517433167e-01" purity="5.0264865159988403e-01" nType="0">
        <Node pos="l" depth="1" NCoef="0" IVar="52" Cut="2.6088840961456299e+00" cType="1" res="3.2145999372005463e-02" rms="2.8110188245773315e-01" purity="7.1599459648132324e-01" nType="0">
          <Node pos="l" depth="2" NCoef="0" IVar="-1" Cut="0.0000000000000000e+00" cType="1" res="3.3011738210916519e-02" rms="3.7744954228401184e-01" purity="4.8557525873184204e-01" nType="-99"/>
          <Node pos="r" depth="2" NCoef="0" IVar="-1" Cut="0.0000000000000000e+00" cType="1" res="5.0133340992033482e-03" rms="2.6074653863906860e-01" purity="7.4900984764099121e-01" nType="-99"/>
        </Node>
        <Node pos="r" depth="1" NCoef="0" IVar="31" Cut="3.5850069522857666e+00" cType="1" res="-6.0576493851840496e-03" rms="2.1060475707054138e-01" purity="4.3236345052719116e-01" nType="0">
          <Node pos="l" depth="2" NCoef="0" IVar="-1" Cut="0.0000000000000000e+00" cType="1" res="-4.0273489430546761e-03" rms="2.0346142351627350e-01" purity="4.3035987019538879e-01" nType="-99"/>
          <Node pos="r" depth="2" NCoef="0" IVar="-1" Cut="0.0000000000000000e+00" cType="1" res="4.3853737413883209e-02" rms="3.2660669088363647e-01" purity="4.8398560285568237e-01" nType="-99"/>
        </Node>
      </Node>
    </BinaryTree>
    <BinaryTree type="DecisionTree" boostWeight="1.0000000000000000e+00" itree="981">
      <Node pos="s" depth="0" NCoef="0" IVar="0" Cut="1.0327920913696289e+00" cType="1" res="-1.7473995685577393e-03" rms="2.2925624251365662e-01" purity="5.0010871887207031e-01" nType="0">
        <Node pos="l" depth="1" NCoef="0" IVar="85" Cut="1.2345679104328156e-02" cType="1" res="7.5654443353414536e-03" rms="2.4724657833576202e-01" purity="5.5723750591278076e-01" nType="0">
          <Node pos="l" depth="2" NCoef="0" IVar="-1" Cut="0.0000000000000000e+00" cType="1" res="3.9180647581815720e-02" rms="3.7680348753929138e-01" purity="4.8174914717674255e-01" nType="-99"/>
          <Node pos="r" depth="2" NCoef="0" IVar="-1" Cut="0.0000000000000000e+00" cType="1" res="1.1980680283159018e-03" rms="2.4080982804298401e-01" purity="5.5967253446578979e-01" nType="-99"/>
        </Node>
        <Node pos="r" depth="1" NCoef="0" IVar="25" Cut="1.1427161693572998e+00" cType="1" res="-3.2860562205314636e-02" rms="1.5053592622280121e-01" purity="3.0924800038337708e-01" nType="0">
          <Node pos="l" depth="2" NCoef="0" IVar="-1" Cut="0.0000000000000000e+00" cType="1" res="-1.9528750330209732e-02" rms="1.1138611286878586e-01" purity="3.0822885036468506e-01" nType="-99"/>
          <Node pos="r" depth="2" NCoef="0" IVar="-1" Cut="0.0000000000000000e+00" cType="1" res="2.6969864964485168e-02" rms="2.7322876453399658e-01" purity="3.1565743684768677e-01" nType="-99"/>
        </Node>
      </Node>
    </BinaryTree>
    <BinaryTree type="DecisionTree" boostWeight="1.0000000000000000e+00" itree="982">
      <Node pos="s" depth="0" NCoef="0" IVar="34" Cut="-2.8071001172065735e-02" cType="1" res="-5.0550507148727775e-04" rms="2.3375509679317474e-01" purity="4.9591967463493347e-01" nType="0">
        <Node pos="l" depth="1" NCoef="0" IVar="36" Cut="1.2856992483139038e+00" cType="1" res="3.3473368734121323e-02" rms="2.5476148724555969e-01" purity="2.7214398980140686e-01" nType="0">
          <Node pos="l" depth="2" NCoef="0" IVar="-1" Cut="0.0000000000000000e+00" cType="1" res="5.6478404439985752e-04" rms="1.8871885538101196e-01" purity="1.1475190520286560e-01" nType="-99"/>
          <Node pos="r" depth="2" NCoef="0" IVar="-1" Cut="0.0000000000000000e+00" cType="1" res="3.7411127239465714e-02" rms="3.6641532182693481e-01" purity="7.0156359672546387e-01" nType="-99"/>
        </Node>
        <Node pos="r" depth="1" NCoef="0" IVar="36" Cut="8.8826799392700195e-01" cType="1" res="-1.0728309862315655e-02" rms="2.2605791687965393e-01" purity="5.6324434280395508e-01" nType="0">
          <Node pos="l" depth="2" NCoef="0" IVar="-1" Cut="0.0000000000000000e+00" cType="1" res="-5.0953410565853119e-02" rms="-nan" purity="3.9101713337004185e-03" nType="-99"/>
          <Node pos="r" depth="2" NCoef="0" IVar="-1" Cut="0.0000000000000000e+00" cType="1" res="-4.9260864034295082e-04" rms="2.4826084077358246e-01" purity="6.2911093235015869e-01" nType="-99"/>
        </Node>
      </Node>
    </BinaryTree>
    <BinaryTree type="DecisionTree" boostWeight="1.0000000000000000e+00" itree="983">
      <Node pos="s" depth="0" NCoef="0" IVar="57" Cut="-1.4538136720657349e+00" cType="1" res="3.0396450893022120e-04" rms="2.3054394125938416e-01" purity="5.0175333023071289e-01" nType="0">
        <Node pos="l" depth="1" NCoef="0" IVar="-1" Cut="0.0000000000000000e+00" cType="1" res="-7.1749918162822723e-02" rms="-nan" purity="-4.6087510883808136e-02" nType="-99"/>
        <Node pos="r" depth="1" NCoef="0" IVar="4" Cut="3.7697534561157227e+00" cType="1" res="3.1216584611684084e-03" rms="2.3643928766250610e-01" purity="5.1482242345809937e-01" nType="0">
          <Node pos="l" depth="2" NCoef="0" IVar="-1" Cut="0.0000000000000000e+00" cType="1" res="5.2575254812836647e-03" rms="2.5827720761299133e-01" purity="4.7574290633201599e-01" nType="-99"/>
          <Node pos="r" depth="2" NCoef="0" IVar="-1" Cut="0.0000000000000000e+00" cType="1" res="-7.9763550311326981e-03" rms="1.8559628725051880e-01" purity="5.8950257301330566e-01" nType="-99"/>
        </Node>
      </Node>
    </BinaryTree>
    <BinaryTree type="DecisionTree" boostWeight="1.0000000000000000e+00" itree="984">
      <Node pos="s" depth="0" NCoef="0" IVar="77" Cut="1.4821782112121582e+00" cType="1" res="2.4171740733436309e-05" rms="2.3105348646640778e-01" purity="4.9879238009452820e-01" nType="0">
        <Node pos="l" depth="1" NCoef="0" IVar="37" Cut="-1.4156125783920288e+00" cType="1" res="3.1277793459594250e-03" rms="2.3967091739177704e-01" purity="5.1275587081909180e-01" nType="0">
          <Node pos="l" depth="2" NCoef="0" IVar="-1" Cut="0.0000000000000000e+00" cType="1" res="-1.5355963259935379e-02" rms="1.3507625460624695e-01" purity="2.7033102512359619e-01" nType="-99"/>
          <Node pos="r" depth="2" NCoef="0" IVar="-1" Cut="0.0000000000000000e+00" cType="1" res="2.8046458028256893e-03" rms="2.4767448008060455e-01" purity="5.3851068019866943e-01" nType="-99"/>
        </Node>
        <Node pos="r" depth="1" NCoef="0" IVar="-1" Cut="0.0000000000000000e+00" cType="1" res="-2.1387790143489838e-01" rms="-nan" purity="-1.1394961923360825e-01" nType="-99"/>
      </Node>
    </BinaryTree>
    <BinaryTree type="DecisionTree" boostWeight="1.0000000000000000e+00" itree="985">
      <Node pos="s" depth="0" NCoef="0" IVar="52" Cut="2.6593310832977295e+00" cType="1" res="-1.3139447197318077e-02" rms="2.0781719684600830e-01" purity="4.8828232288360596e-01" nType="0">
        <Node pos="l" depth="1" NCoef="0" IVar="78" Cut="9.8639833927154541e-01" cType="1" res="-2.5280656293034554e-02" rms="-nan" purity="1.5922941267490387e-01" nType="-99"/>
        <Node pos="r" depth="1" NCoef="0" IVar="4" Cut="4.1354436874389648e+00" cType="1" res="-4.3538385070860386e-03" rms="2.2879765927791595e-01" purity="5.4363638162612915e-01" nType="0">
          <Node pos="l" depth="2" NCoef="0" IVar="-1" Cut="0.0000000000000000e+00" cType="1" res="-2.3976046941243112e-04" rms="2.3571248352527618e-01" purity="5.4910558462142944e-01" nType="-99"/>
          <Node pos="r" depth="2" NCoef="0" IVar="-1" Cut="0.0000000000000000e+00" cType="1" res="-5.0713613629341125e-02" rms="-nan" purity="3.7780702114105225e-01" nType="-99"/>
        </Node>
      </Node>
    </BinaryTree>
    <BinaryTree type="DecisionTree" boostWeight="1.0000000000000000e+00" itree="986">
      <Node pos="s" depth="0" NCoef="0" IVar="17" Cut="9.8300570249557495e-01" cType="1" res="-6.0621444135904312e-03" rms="2.1516275405883789e-01" purity="5.0405901670455933e-01" nType="0">
        <Node pos="l" depth="1" NCoef="0" IVar="79" Cut="-9.9194324016571045e-01" cType="1" res="-5.7831700891256332e-02" rms="-nan" purity="-1.7592273652553558e-02" nType="-99"/>
        <Node pos="r" depth="1" NCoef="0" IVar="2" Cut="1.6416522264480591e+00" cType="1" res="4.1915788315236568e-03" rms="2.5976184010505676e-01" purity="6.3751924037933350e-01" nType="0">
          <Node pos="l" depth="2" NCoef="0" IVar="-1" Cut="0.0000000000000000e+00" cType="1" res="-2.4253781884908676e-02" rms="1.3316006958484650e-01" purity="1.6845083236694336e-01" nType="-99"/>
          <Node pos="r" depth="2" NCoef="0" IVar="-1" Cut="0.0000000000000000e+00" cType="1" res="3.3060952555388212e-03" rms="2.6740086078643799e-01" purity="6.8076264858245850e-01" nType="-99"/>
        </Node>
      </Node>
    </BinaryTree>
    <BinaryTree type="DecisionTree" boostWeight="1.0000000000000000e+00" itree="987">
      <Node pos="s" depth="0" NCoef="0" IVar="48" Cut="2.8624057769775391e+00" cType="1" res="-2.5082267820835114e-03" rms="2.3161350190639496e-01" purity="4.9737676978111267e-01" nType="0">
        <Node pos="l" depth="1" NCoef="0" IVar="61" Cut="9.1452670097351074e-01" cType="1" res="-8.5964035242795944e-03" rms="2.2202856838703156e-01" purity="4.6439987421035767e-01" nType="0">
          <Node pos="l" depth="2" NCoef="0" IVar="-1" Cut="0.0000000000000000e+00" cType="1" res="9.2326896265149117e-04" rms="2.4795913696289062e-01" purity="5.2935874462127686e-01" nType="-99"/>
          <Node pos="r" depth="2" NCoef="0" IVar="-1" Cut="0.0000000000000000e+00" cType="1" res="-1.2943426147103310e-02" rms="1.4475740492343903e-01" purity="3.1823977828025818e-01" nType="-99"/>
        </Node>
        <Node pos="r" depth="1" NCoef="0" IVar="34" Cut="6.2567037343978882e-01" cType="1" res="4.0345944464206696e-02" rms="2.8662443161010742e-01" purity="7.2949844598770142e-01" nType="0">
          <Node pos="l" depth="2" NCoef="0" IVar="-1" Cut="0.0000000000000000e+00" cType="1" res="4.0360584855079651e-02" rms="3.8788619637489319e-01" purity="5.0584322214126587e-01" nType="-99"/>
          <Node pos="r" depth="2" NCoef="0" IVar="-1" Cut="0.0000000000000000e+00" cType="1" res="4.4432901777327061e-03" rms="2.4695791304111481e-01" purity="7.8449070453643799e-01" nType="-99"/>
        </Node>
      </Node>
    </BinaryTree>
    <BinaryTree type="DecisionTree" boostWeight="1.0000000000000000e+00" itree="988">
      <Node pos="s" depth="0" NCoef="0" IVar="52" Cut="2.4163718223571777e+00" cType="1" res="-3.0901530408300459e-04" rms="2.3268134891986847e-01" purity="5.0215381383895874e-01" nType="0">
        <Node pos="l" depth="1" NCoef="0" IVar="81" Cut="-1.7108559608459473e+00" cType="1" res="8.5739605128765106e-02" rms="3.1359252333641052e-01" purity="2.4352520704269409e-01" nType="0">
          <Node pos="l" depth="2" NCoef="0" IVar="-1" Cut="0.0000000000000000e+00" cType="1" res="5.1723349839448929e-02" rms="3.8393750786781311e-01" purity="3.7577265501022339e-01" nType="-99"/>
          <Node pos="r" depth="2" NCoef="0" IVar="-1" Cut="0.0000000000000000e+00" cType="1" res="-1.4906816184520721e-02" rms="9.7269847989082336e-02" purity="6.9675087928771973e-02" nType="-99"/>
        </Node>
        <Node pos="r" depth="1" NCoef="0" IVar="57" Cut="2.0923204720020294e-01" cType="1" res="-5.0740391016006470e-03" rms="2.2640733420848846e-01" purity="5.1647561788558960e-01" nType="0">
          <Node pos="l" depth="2" NCoef="0" IVar="-1" Cut="0.0000000000000000e+00" cType="1" res="-3.5851672291755676e-02" rms="-nan" purity="1.3668600469827652e-02" nType="-99"/>
          <Node pos="r" depth="2" NCoef="0" IVar="-1" Cut="0.0000000000000000e+00" cType="1" res="1.8000280251726508e-03" rms="2.6181420683860779e-01" purity="6.2869137525558472e-01" nType="-99"/>
        </Node>
      </Node>
    </BinaryTree>
    <BinaryTree type="DecisionTree" boostWeight="1.0000000000000000e+00" itree="989">
      <Node pos="s" depth="0" NCoef="0" IVar="52" Cut="2.3276493549346924e+00" cType="1" res="-8.8078530097845942e-05" rms="2.3111796379089355e-01" purity="4.9688059091567993e-01" nType="0">
        <Node pos="l" depth="1" NCoef="0" IVar="-1" Cut="0.0000000000000000e+00" cType="1" res="-5.9750873595476151e-02" rms="-nan" purity="-1.4817500486969948e-02" nType="-99"/>
        <Node pos="r" depth="1" NCoef="0" IVar="37" Cut="-2.1807418763637543e-01" cType="1" res="2.5281163398176432e-03" rms="2.3672881722450256e-01" purity="5.0826895236968994e-01" nType="0">
          <Node pos="l" depth="2" NCoef="0" IVar="-1" Cut="0.0000000000000000e+00" cType="1" res="-3.7572989240288734e-03" rms="2.2288067638874054e-01" purity="5.1184135675430298e-01" nType="-99"/>
          <Node pos="r" depth="2" NCoef="0" IVar="-1" Cut="0.0000000000000000e+00" cType="1" res="8.0901319161057472e-03" rms="2.5570929050445557e-01" purity="5.0266170501708984e-01" nType="-99"/>
        </Node>
      </Node>
    </BinaryTree>
    <BinaryTree type="DecisionTree" boostWeight="1.0000000000000000e+00" itree="990">
      <Node pos="s" depth="0" NCoef="0" IVar="3" Cut="4.3659858703613281e+00" cType="1" res="-3.2011123839765787e-03" rms="2.3238359391689301e-01" purity="4.9332481622695923e-01" nType="0">
        <Node pos="l" depth="1" NCoef="0" IVar="76" Cut="-3.1046715378761292e-01" cType="1" res="-2.3585392162203789e-02" rms="-nan" purity="1.9584390521049500e-01" nType="-99"/>
        <Node pos="r" depth="1" NCoef="0" IVar="10" Cut="2.7749812602996826e+00" cType="1" res="3.8492010207846761e-04" rms="2.4030579626560211e-01" purity="5.0905549526214600e-01" nType="0">
          <Node pos="l" depth="2" NCoef="0" IVar="-1" Cut="0.0000000000000000e+00" cType="1" res="3.7223514169454575e-02" rms="3.3755907416343689e-01" purity="2.5301703810691833e-01" nType="-99"/>
          <Node pos="r" depth="2" NCoef="0" IVar="-1" Cut="0.0000000000000000e+00" cType="1" res="-1.1483391281217337e-03" rms="2.3468217253684998e-01" purity="5.1985162496566772e-01" nType="-99"/>
        </Node>
      </Node>
    </BinaryTree>
    <BinaryTree type="DecisionTree" boostWeight="1.0000000000000000e+00" itree="991">
      <Node pos="s" depth="0" NCoef="0" IVar="7" Cut="-6.7835521697998047e-01" cType="1" res="1.9119764911010861e-03" rms="2.3269428312778473e-01" purity="5.0483727455139160e-01" nType="0">
        <Node pos="l" depth="1" NCoef="0" IVar="70" Cut="-9.6673357486724854e-01" cType="1" res="-7.2987121529877186e-04" rms="2.2833620011806488e-01" purity="5.0693857669830322e-01" nType="0">
          <Node pos="l" depth="2" NCoef="0" IVar="-1" Cut="0.0000000000000000e+00" cType="1" res="-1.9410973181948066e-03" rms="2.1968246996402740e-01" purity="5.0777554512023926e-01" nType="-99"/>
          <Node pos="r" depth="2" NCoef="0" IVar="-1" Cut="0.0000000000000000e+00" cType="1" res="2.1796276792883873e-02" rms="3.2256072759628296e-01" purity="4.9472087621688843e-01" nType="-99"/>
        </Node>
        <Node pos="r" depth="1" NCoef="0" IVar="-1" Cut="0.0000000000000000e+00" cType="1" res="4.7561924904584885e-02" rms="3.6814391613006592e-01" purity="4.0182113647460938e-01" nType="-99"/>
      </Node>
    </BinaryTree>
    <BinaryTree type="DecisionTree" boostWeight="1.0000000000000000e+00" itree="992">
      <Node pos="s" depth="0" NCoef="0" IVar="3" Cut="5.5063552856445312e+00" cType="1" res="7.4698422104120255e-03" rms="2.4202202260494232e-01" purity="4.9817705154418945e-01" nType="0">
        <Node pos="l" depth="1" NCoef="0" IVar="62" Cut="-8.5633374750614166e-02" cType="1" res="4.0102829225361347e-03" rms="2.3803189396858215e-01" purity="5.0328224897384644e-01" nType="0">
          <Node pos="l" depth="2" NCoef="0" IVar="-1" Cut="0.0000000000000000e+00" cType="1" res="1.0779928416013718e-02" rms="2.7333104610443115e-01" purity="5.7071781158447266e-01" nType="-99"/>
          <Node pos="r" depth="2" NCoef="0" IVar="-1" Cut="0.0000000000000000e+00" cType="1" res="-4.6898205764591694e-03" rms="2.1145862340927124e-01" purity="4.6134847402572632e-01" nType="-99"/>
        </Node>
        <Node pos="r" depth="1" NCoef="0" IVar="-1" Cut="0.0000000000000000e+00" cType="1" res="4.3323688209056854e-02" rms="3.3764326572418213e-01" purity="3.0222895741462708e-01" nType="-99"/>
      </Node>
    </BinaryTree>
    <BinaryTree type="DecisionTree" boostWeight="1.0000000000000000e+00" itree="993">
      <Node pos="s" depth="0" NCoef="0" IVar="77" Cut="-1.3379188776016235e+00" cType="1" res="2.6921341195702553e-03" rms="2.4092637002468109e-01" purity="4.9916532635688782e-01" nType="0">
        <Node pos="l" depth="1" NCoef="0" IVar="73" Cut="2.3204045295715332e+00" cType="1" res="-1.0209475643932819e-02" rms="2.3171927034854889e-01" purity="5.5356216430664062e-01" nType="0">
          <Node pos="l" depth="2" NCoef="0" IVar="-1" Cut="0.0000000000000000e+00" cType="1" res="-2.8510836884379387e-02" rms="1.2127064913511276e-01" purity="2.7582275867462158e-01" nType="-99"/>
          <Node pos="r" depth="2" NCoef="0" IVar="-1" Cut="0.0000000000000000e+00" cType="1" res="-1.5347023727372289e-03" rms="2.3736779391765594e-01" purity="5.7567489147186279e-01" nType="-99"/>
        </Node>
        <Node pos="r" depth="1" NCoef="0" IVar="36" Cut="-6.8114882707595825e-01" cType="1" res="3.5652160644531250e-02" rms="2.6009857654571533e-01" purity="3.6019665002822876e-01" nType="0">
          <Node pos="l" depth="2" NCoef="0" IVar="-1" Cut="0.0000000000000000e+00" cType="1" res="7.4854016304016113e-02" rms="3.2881218194961548e-01" purity="1.7196695506572723e-01" nType="-99"/>
          <Node pos="r" depth="2" NCoef="0" IVar="-1" Cut="0.0000000000000000e+00" cType="1" res="3.0943576712161303e-03" rms="2.2399792075157166e-01" purity="4.2875793576240540e-01" nType="-99"/>
        </Node>
      </Node>
    </BinaryTree>
    <BinaryTree type="DecisionTree" boostWeight="1.0000000000000000e+00" itree="994">
      <Node pos="s" depth="0" NCoef="0" IVar="3" Cut="5.5394659042358398e+00" cType="1" res="3.1171159353107214e-03" rms="2.3208941519260406e-01" purity="5.0052136182785034e-01" nType="0">
        <Node pos="l" depth="1" NCoef="0" IVar="19" Cut="8.4278100728988647e-01" cType="1" res="-6.4436014508828521e-04" rms="2.2648531198501587e-01" purity="5.0369614362716675e-01" nType="0">
          <Node pos="l" depth="2" NCoef="0" IVar="-1" Cut="0.0000000000000000e+00" cType="1" res="4.4769537635147572e-03" rms="2.4874912202358246e-01" purity="5.5547094345092773e-01" nType="-99"/>
          <Node pos="r" depth="2" NCoef="0" IVar="-1" Cut="0.0000000000000000e+00" cType="1" res="-1.0609817691147327e-02" rms="1.6636689007282257e-01" purity="3.9370551705360413e-01" nType="-99"/>
        </Node>
        <Node pos="r" depth="1" NCoef="0" IVar="-1" Cut="0.0000000000000000e+00" cType="1" res="6.0021400451660156e-02" rms="3.7869873642921448e-01" purity="3.4952953457832336e-01" nType="-99"/>
      </Node>
    </BinaryTree>
    <BinaryTree type="DecisionTree" boostWeight="1.0000000000000000e+00" itree="995">
      <Node pos="s" depth="0" NCoef="0" IVar="68" Cut="1.2345679104328156e-02" cType="1" res="3.7716357037425041e-03" rms="2.3453319072723389e-01" purity="5.1286059617996216e-01" nType="0">
        <Node pos="l" depth="1" NCoef="0" IVar="37" Cut="5.1571780443191528e-01" cType="1" res="7.4144016252830625e-04" rms="2.2759784758090973e-01" purity="5.1498591899871826e-01" nType="0">
          <Node pos="l" depth="2" NCoef="0" IVar="-1" Cut="0.0000000000000000e+00" cType="1" res="2.9592949431389570e-03" rms="2.3466435074806213e-01" purity="5.2257204055786133e-01" nType="-99"/>
          <Node pos="r" depth="2" NCoef="0" IVar="-1" Cut="0.0000000000000000e+00" cType="1" res="-1.0361158289015293e-02" rms="1.9621160626411438e-01" purity="4.8640057444572449e-01" nType="-99"/>
        </Node>
        <Node pos="r" depth="1" NCoef="0" IVar="36" Cut="1.4030922651290894e+00" cType="1" res="6.3190557062625885e-02" rms="3.3784982562065125e-01" purity="4.7118631005287170e-01" nType="0">
          <Node pos="l" depth="2" NCoef="0" IVar="-1" Cut="0.0000000000000000e+00" cType="1" res="1.0010797530412674e-01" rms="4.3098050355911255e-01" purity="3.3484008908271790e-01" nType="-99"/>
          <Node pos="r" depth="2" NCoef="0" IVar="-1" Cut="0.0000000000000000e+00" cType="1" res="-1.4164313673973083e-02" rms="1.6860932111740112e-01" purity="5.8434957265853882e-01" nType="-99"/>
        </Node>
      </Node>
    </BinaryTree>
    <BinaryTree type="DecisionTree" boostWeight="1.0000000000000000e+00" itree="996">
      <Node pos="s" depth="0" NCoef="0" IVar="77" Cut="1.4435455799102783e+00" cType="1" res="6.1542545445263386e-03" rms="2.4559278786182404e-01" purity="4.9704974889755249e-01" nType="0">
        <Node pos="l" depth="1" NCoef="0" IVar="31" Cut="3.5850291252136230e+00" cType="1" res="2.3295932915061712e-03" rms="2.4224950373172760e-01" purity="5.1312202215194702e-01" nType="0">
          <Node pos="l" depth="2" NCoef="0" IVar="-1" Cut="0.0000000000000000e+00" cType="1" res="1.7074794741347432e-03" rms="2.4632760882377625e-01" purity="5.1547157764434814e-01" nType="-99"/>
          <Node pos="r" depth="2" NCoef="0" IVar="-1" Cut="0.0000000000000000e+00" cType="1" res="-3.4662295132875443e-02" rms="-nan" purity="4.3048542737960815e-01" nType="-99"/>
        </Node>
        <Node pos="r" depth="1" NCoef="0" IVar="81" Cut="-1.3952755928039551e+00" cType="1" res="9.2291407287120819e-02" rms="2.9882997274398804e-01" purity="1.3507699966430664e-01" nType="0">
          <Node pos="l" depth="2" NCoef="0" IVar="-1" Cut="0.0000000000000000e+00" cType="1" res="2.1711358428001404e-01" rms="4.0848907828330994e-01" purity="2.6215940713882446e-01" nType="-99"/>
          <Node pos="r" depth="2" NCoef="0" IVar="-1" Cut="0.0000000000000000e+00" cType="1" res="-4.8840537667274475e-02" rms="-nan" purity="-6.8376590497791767e-03" nType="-99"/>
        </Node>
      </Node>
    </BinaryTree>
    <BinaryTree type="DecisionTree" boostWeight="1.0000000000000000e+00" itree="997">
      <Node pos="s" depth="0" NCoef="0" IVar="3" Cut="5.4367628097534180e+00" cType="1" res="-4.9247872084379196e-03" rms="2.2658990323543549e-01" purity="4.9067446589469910e-01" nType="0">
        <Node pos="l" depth="1" NCoef="0" IVar="6" Cut="1.1440833806991577e+00" cType="1" res="-8.7595973163843155e-03" rms="2.2287414968013763e-01" purity="4.9745160341262817e-01" nType="0">
          <Node pos="l" depth="2" NCoef="0" IVar="-1" Cut="0.0000000000000000e+00" cType="1" res="-4.1694000363349915e-02" rms="-nan" purity="1.2493868172168732e-01" nType="-99"/>
          <Node pos="r" depth="2" NCoef="0" IVar="-1" Cut="0.0000000000000000e+00" cType="1" res="-1.7038758378475904e-03" rms="2.2851613163948059e-01" purity="5.1686996221542358e-01" nType="-99"/>
        </Node>
        <Node pos="r" depth="1" NCoef="0" IVar="-1" Cut="0.0000000000000000e+00" cType="1" res="3.4356467425823212e-02" rms="2.9016885161399841e-01" purity="3.1631761789321899e-01" nType="-99"/>
      </Node>
    </BinaryTree>
    <BinaryTree type="DecisionTree" boostWeight="1.0000000000000000e+00" itree="998">
      <Node pos="s" depth="0" NCoef="0" IVar="79" Cut="1.4418152570724487e+00" cType="1" res="4.3124109506607056e-03" rms="2.3151020705699921e-01" purity="4.9780559539794922e-01" nType="0">
        <Node pos="l" depth="1" NCoef="0" IVar="31" Cut="2.7053337097167969e+00" cType="1" res="1.3966260012239218e-03" rms="2.2703951597213745e-01" purity="5.0246894359588623e-01" nType="0">
          <Node pos="l" depth="2" NCoef="0" IVar="-1" Cut="0.0000000000000000e+00" cType="1" res="-1.3122470118105412e-02" rms="1.4661443233489990e-01" purity="2.0717158913612366e-01" nType="-99"/>
          <Node pos="r" depth="2" NCoef="0" IVar="-1" Cut="0.0000000000000000e+00" cType="1" res="3.3982610329985619e-03" rms="2.4015396833419800e-01" purity="5.6634730100631714e-01" nType="-99"/>
        </Node>
        <Node pos="r" depth="1" NCoef="0" IVar="-1" Cut="0.0000000000000000e+00" cType="1" res="7.8451186418533325e-02" rms="3.5922548174858093e-01" purity="2.8504377603530884e-01" nType="-99"/>
      </Node>
    </BinaryTree>
    <BinaryTree type="DecisionTree" boostWeight="1.0000000000000000e+00" itree="999">
      <Node pos="s" depth="0" NCoef="0" IVar="88" Cut="1.4450685977935791e+00" cType="1" res="1.1248117079958320e-03" rms="2.3376002907752991e-01" purity="5.0039023160934448e-01" nType="0">
        <Node pos="l" depth="1" NCoef="0" IVar="82" Cut="1.8444304168224335e-01" cType="1" res="-2.7838980313390493e-03" rms="2.2798240184783936e-01" purity="5.0878417491912842e-01" nType="0">
          <Node pos="l" depth="2" NCoef="0" IVar="-1" Cut="0.0000000000000000e+00" cType="1" res="1.9663490355014801e-02" rms="3.0626755952835083e-01" purity="6.3370031118392944e-01" nType="-99"/>
          <Node pos="r" depth="2" NCoef="0" IVar="-1" Cut="0.0000000000000000e+00" cType="1" res="-2.6964191347360611e-03" rms="2.2004424035549164e-01" purity="4.9906668066978455e-01" nType="-99"/>
        </Node>
        <Node pos="r" depth="1" NCoef="0" IVar="-1" Cut="0.0000000000000000e+00" cType="1" res="7.1956403553485870e-02" rms="3.4492990374565125e-01" purity="2.5573307275772095e-01" nType="-99"/>
      </Node>
    </BinaryTree>
    <BinaryTree type="DecisionTree" boostWeight="1.0000000000000000e+00" itree="1000">
      <Node pos="s" depth="0" NCoef="0" IVar="69" Cut="8.3881372213363647e-01" cType="1" res="-4.8103081644512713e-04" rms="2.2636651992797852e-01" purity="5.0197559595108032e-01" nType="0">
        <Node pos="l" depth="1" NCoef="0" IVar="59" Cut="9.7390419244766235e-01" cType="1" res="-2.6494113728404045e-02" rms="-nan" purity="1.7949214577674866e-01" nType="-99"/>
        <Node pos="r" depth="1" NCoef="0" IVar="61" Cut="1.5981340408325195e+00" cType="1" res="5.6946473196148872e-03" rms="2.3852387070655823e-01" purity="5.3538113832473755e-01" nType="0">
          <Node pos="l" depth="2" NCoef="0" IVar="-1" Cut="0.0000000000000000e+00" cType="1" res="8.5926888277754188e-04" rms="2.3376642167568207e-01" purity="5.4050195217132568e-01" nType="-99"/>
          <Node pos="r" depth="2" NCoef="0" IVar="-1" Cut="0.0000000000000000e+00" cType="1" res="2.7705254033207893e-02" rms="3.3248391747474670e-01" purity="3.9402353763580322e-01" nType="-99"/>
        </Node>
      </Node>
    </BinaryTree>
    <BinaryTree type="DecisionTree" boostWeight="1.0000000000000000e+00" itree="1001">
      <Node pos="s" depth="0" NCoef="0" IVar="36" Cut="-1.3377224206924438e+00" cType="1" res="5.9294127859175205e-03" rms="2.3306083679199219e-01" purity="5.0795245170593262e-01" nType="0">
        <Node pos="l" depth="1" NCoef="0" IVar="80" Cut="6.5728747844696045e-01" cType="1" res="-3.1486835330724716e-02" rms="-nan" purity="1.2644402682781219e-02" nType="-99"/>
        <Node pos="r" depth="1" NCoef="0" IVar="59" Cut="-1.2996451854705811e+00" cType="1" res="1.1337792500853539e-02" rms="2.4898052215576172e-01" purity="5.6199330091476440e-01" nType="0">
          <Node pos="l" depth="2" NCoef="0" IVar="-1" Cut="0.0000000000000000e+00" cType="1" res="2.1497717127203941e-02" rms="2.6773941516876221e-01" purity="3.7453356385231018e-01" nType="-99"/>
          <Node pos="r" depth="2" NCoef="0" IVar="-1" Cut="0.0000000000000000e+00" cType="1" res="8.0066907685250044e-04" rms="2.4405521154403687e-01" purity="5.9984499216079712e-01" nType="-99"/>
        </Node>
      </Node>
    </BinaryTree>
    <BinaryTree type="DecisionTree" boostWeight="1.0000000000000000e+00" itree="1002">
      <Node pos="s" depth="0" NCoef="0" IVar="88" Cut="9.6369123458862305e-01" cType="1" res="2.9948335140943527e-03" rms="2.3318633437156677e-01" purity="4.9983191490173340e-01" nType="0">
        <Node pos="l" depth="1" NCoef="0" IVar="77" Cut="1.3248298168182373e+00" cType="1" res="1.9808733835816383e-02" rms="2.7141100168228149e-01" purity="5.4558026790618896e-01" nType="0">
          <Node pos="l" depth="2" NCoef="0" IVar="-1" Cut="0.0000000000000000e+00" cType="1" res="4.8563727177679539e-03" rms="2.6555648446083069e-01" purity="5.5695950984954834e-01" nType="-99"/>
          <Node pos="r" depth="2" NCoef="0" IVar="-1" Cut="0.0000000000000000e+00" cType="1" res="7.6279781758785248e-02" rms="3.5556307435035706e-01" purity="2.9628282785415649e-01" nType="-99"/>
        </Node>
        <Node pos="r" depth="1" NCoef="0" IVar="17" Cut="1.2899785041809082e+00" cType="1" res="-1.8040949478745461e-02" rms="1.7160557210445404e-01" purity="4.4259637594223022e-01" nType="0">
          <Node pos="l" depth="2" NCoef="0" IVar="-1" Cut="0.0000000000000000e+00" cType="1" res="-1.0701645910739899e-01" rms="-nan" purity="-5.5289678275585175e-02" nType="-99"/>
          <Node pos="r" depth="2" NCoef="0" IVar="-1" Cut="0.0000000000000000e+00" cType="1" res="1.9149659201502800e-03" rms="2.6220479607582092e-01" purity="6.2228655815124512e-01" nType="-99"/>
        </Node>
      </Node>
    </BinaryTree>
    <BinaryTree type="DecisionTree" boostWeight="1.0000000000000000e+00" itree="1003">
      <Node pos="s" depth="0" NCoef="0" IVar="35" Cut="1.4840940237045288e+00" cType="1" res="4.7287214547395706e-03" rms="2.4380299448966980e-01" purity="5.0210082530975342e-01" nType="0">
        <Node pos="l" depth="1" NCoef="0" IVar="40" Cut="1.4521964788436890e+00" cType="1" res="1.0933857411146164e-03" rms="2.3691274225711823e-01" purity="5.0780981779098511e-01" nType="0">
          <Node pos="l" depth="2" NCoef="0" IVar="-1" Cut="0.0000000000000000e+00" cType="1" res="1.9501679344102740e-03" rms="2.4826005101203918e-01" purity="5.2422702312469482e-01" nType="-99"/>
          <Node pos="r" depth="2" NCoef="0" IVar="-1" Cut="0.0000000000000000e+00" cType="1" res="-3.2055526971817017e-02" rms="-nan" purity="2.1433247625827789e-01" nType="-99"/>
        </Node>
        <Node pos="r" depth="1" NCoef="0" IVar="-1" Cut="0.0000000000000000e+00" cType="1" res="6.3206002116203308e-02" rms="3.9936590194702148e-01" purity="3.0041667819023132e-01" nType="-99"/>
      </Node>
    </BinaryTree>
    <BinaryTree type="DecisionTree" boostWeight="1.0000000000000000e+00" itree="1004">
      <Node pos="s" depth="0" NCoef="0" IVar="55" Cut="-1.4926588535308838e+00" cType="1" res="5.5079220328480005e-04" rms="2.3466615378856659e-01" purity="4.9707749485969543e-01" nType="0">
        <Node pos="l" depth="1" NCoef="0" IVar="88" Cut="9.6882367134094238e-01" cType="1" res="9.0939402580261230e-02" rms="3.4414097666740417e-01" purity="4.9174159765243530e-01" nType="0">
          <Node pos="l" depth="2" NCoef="0" IVar="-1" Cut="0.0000000000000000e+00" cType="1" res="-6.9511109031736851e-03" rms="1.6875915229320526e-01" purity="4.6119999885559082e-01" nType="-99"/>
          <Node pos="r" depth="2" NCoef="0" IVar="-1" Cut="0.0000000000000000e+00" cType="1" res="7.0781335234642029e-02" rms="4.2343947291374207e-01" purity="5.1959598064422607e-01" nType="-99"/>
        </Node>
        <Node pos="r" depth="1" NCoef="0" IVar="88" Cut="1.0141836404800415e+00" cType="1" res="-3.9301645010709763e-03" rms="2.2694014012813568e-01" purity="4.9734199047088623e-01" nType="0">
          <Node pos="l" depth="2" NCoef="0" IVar="-1" Cut="0.0000000000000000e+00" cType="1" res="2.6372587308287621e-03" rms="2.5022011995315552e-01" purity="5.4174524545669556e-01" nType="-99"/>
          <Node pos="r" depth="2" NCoef="0" IVar="-1" Cut="0.0000000000000000e+00" cType="1" res="-1.4861498959362507e-02" rms="1.4124451577663422e-01" purity="3.7658384442329407e-01" nType="-99"/>
        </Node>
      </Node>
    </BinaryTree>
    <BinaryTree type="DecisionTree" boostWeight="1.0000000000000000e+00" itree="1005">
      <Node pos="s" depth="0" NCoef="0" IVar="4" Cut="3.3341021537780762e+00" cType="1" res="3.9607812650501728e-03" rms="2.3843516409397125e-01" purity="5.0320881605148315e-01" nType="0">
        <Node pos="l" depth="1" NCoef="0" IVar="67" Cut="9.6172606945037842e-01" cType="1" res="4.8531893640756607e-02" rms="2.7168664336204529e-01" purity="2.3952330648899078e-01" nType="0">
          <Node pos="l" depth="2" NCoef="0" IVar="-1" Cut="0.0000000000000000e+00" cType="1" res="3.0950561165809631e-02" rms="3.3880892395973206e-01" purity="3.3615440130233765e-01" nType="-99"/>
          <Node pos="r" depth="2" NCoef="0" IVar="-1" Cut="0.0000000000000000e+00" cType="1" res="-1.6449512913823128e-02" rms="2.8098311275243759e-02" purity="9.4676844775676727e-02" nType="-99"/>
        </Node>
        <Node pos="r" depth="1" NCoef="0" IVar="62" Cut="2.8970995545387268e-01" cType="1" res="-1.8453657394275069e-03" rms="2.3312915861606598e-01" purity="5.3755825757980347e-01" nType="0">
          <Node pos="l" depth="2" NCoef="0" IVar="-1" Cut="0.0000000000000000e+00" cType="1" res="-2.8304806910455227e-03" rms="2.2142465412616730e-01" purity="5.4254198074340820e-01" nType="-99"/>
          <Node pos="r" depth="2" NCoef="0" IVar="-1" Cut="0.0000000000000000e+00" cType="1" res="2.6615981012582779e-02" rms="3.4589686989784241e-01" purity="4.7003567218780518e-01" nType="-99"/>
        </Node>
      </Node>
    </BinaryTree>
    <BinaryTree type="DecisionTree" boostWeight="1.0000000000000000e+00" itree="1006">
      <Node pos="s" depth="0" NCoef="0" IVar="3" Cut="5.5074362754821777e+00" cType="1" res="2.5870074750855565e-04" rms="2.3522099852561951e-01" purity="5.0270539522171021e-01" nType="0">
        <Node pos="l" depth="1" NCoef="0" IVar="38" Cut="1.2078317403793335e+00" cType="1" res="-3.2208617776632309e-03" rms="2.2971048951148987e-01" purity="5.0797951221466064e-01" nType="0">
          <Node pos="l" depth="2" NCoef="0" IVar="-1" Cut="0.0000000000000000e+00" cType="1" res="-1.2404347769916058e-02" rms="1.4073608815670013e-01" purity="2.5460287928581238e-01" nType="-99"/>
          <Node pos="r" depth="2" NCoef="0" IVar="-1" Cut="0.0000000000000000e+00" cType="1" res="3.1188370194286108e-03" rms="2.6023545861244202e-01" purity="6.2651157379150391e-01" nType="-99"/>
        </Node>
        <Node pos="r" depth="1" NCoef="0" IVar="-1" Cut="0.0000000000000000e+00" cType="1" res="4.9397077411413193e-02" rms="3.7162983417510986e-01" purity="2.9122218489646912e-01" nType="-99"/>
      </Node>
    </BinaryTree>
    <BinaryTree type="DecisionTree" boostWeight="1.0000000000000000e+00" itree="1007">
      <Node pos="s" depth="0" NCoef="0" IVar="60" Cut="-2.4461486339569092e+00" cType="1" res="-7.9561542952433228e-04" rms="2.3033693432807922e-01" purity="5.0130349397659302e-01" nType="0">
        <Node pos="l" depth="1" NCoef="0" IVar="39" Cut="-1.1783583164215088e+00" cType="1" res="3.0228259041905403e-02" rms="2.6095470786094666e-01" purity="6.8466049432754517e-01" nType="0">
          <Node pos="l" depth="2" NCoef="0" IVar="-1" Cut="0.0000000000000000e+00" cType="1" res="4.1214558295905590e-03" rms="2.3297843337059021e-01" purity="7.0597892999649048e-01" nType="-99"/>
          <Node pos="r" depth="2" NCoef="0" IVar="-1" Cut="0.0000000000000000e+00" cType="1" res="4.1153144091367722e-02" rms="3.7064197659492493e-01" purity="5.5436366796493530e-01" nType="-99"/>
        </Node>
        <Node pos="r" depth="1" NCoef="0" IVar="14" Cut="9.8270231485366821e-01" cType="1" res="-8.5604079067707062e-03" rms="2.2133477032184601e-01" purity="4.5541211962699890e-01" nType="0">
          <Node pos="l" depth="2" NCoef="0" IVar="-1" Cut="0.0000000000000000e+00" cType="1" res="-6.5881042974069715e-04" rms="2.3588101565837860e-01" purity="4.5823761820793152e-01" nType="-99"/>
          <Node pos="r" depth="2" NCoef="0" IVar="-1" Cut="0.0000000000000000e+00" cType="1" res="-2.1858116611838341e-02" rms="-nan" purity="4.3528556823730469e-01" nType="-99"/>
        </Node>
      </Node>
    </BinaryTree>
    <BinaryTree type="DecisionTree" boostWeight="1.0000000000000000e+00" itree="1008">
      <Node pos="s" depth="0" NCoef="0" IVar="48" Cut="1.5564821958541870e+00" cType="1" res="8.0488435924053192e-03" rms="2.4721519649028778e-01" purity="5.0161057710647583e-01" nType="0">
        <Node pos="l" depth="1" NCoef="0" IVar="0" Cut="4.2924290895462036e-01" cType="1" res="3.5700011998414993e-02" rms="2.8540644049644470e-01" purity="3.2767206430435181e-01" nType="0">
          <Node pos="l" depth="2" NCoef="0" IVar="-1" Cut="0.0000000000000000e+00" cType="1" res="-2.0159544423222542e-02" rms="1.7789818346500397e-01" purity="2.9835441708564758e-01" nType="-99"/>
          <Node pos="r" depth="2" NCoef="0" IVar="-1" Cut="0.0000000000000000e+00" cType="1" res="1.8208015710115433e-02" rms="2.9596525430679321e-01" purity="3.3213847875595093e-01" nType="-99"/>
        </Node>
        <Node pos="r" depth="1" NCoef="0" IVar="77" Cut="1.2487491369247437e+00" cType="1" res="-4.3762326240539551e-03" rms="2.2688530385494232e-01" purity="5.7976996898651123e-01" nType="0">
          <Node pos="l" depth="2" NCoef="0" IVar="-1" Cut="0.0000000000000000e+00" cType="1" res="1.8674910825211555e-04" rms="2.3943869769573212e-01" purity="6.0619378089904785e-01" nType="-99"/>
          <Node pos="r" depth="2" NCoef="0" IVar="-1" Cut="0.0000000000000000e+00" cType="1" res="-5.2104152739048004e-02" rms="-nan" purity="9.0653806924819946e-02" nType="-99"/>
        </Node>
      </Node>
    </BinaryTree>
    <BinaryTree type="DecisionTree" boostWeight="1.0000000000000000e+00" itree="1009">
      <Node pos="s" depth="0" NCoef="0" IVar="14" Cut="1.4039052724838257e+00" cType="1" res="3.2219376880675554e-03" rms="2.3326645791530609e-01" purity="5.0825458765029907e-01" nType="0">
        <Node pos="l" depth="1" NCoef="0" IVar="52" Cut="2.2761111259460449e+00" cType="1" res="3.3743961830623448e-04" rms="2.2908562421798706e-01" purity="5.1197582483291626e-01" nType="0">
          <Node pos="l" depth="2" NCoef="0" IVar="-1" Cut="0.0000000000000000e+00" cType="1" res="4.1909873485565186e-02" rms="3.2153797149658203e-01" purity="2.3017337918281555e-01" nType="-99"/>
          <Node pos="r" depth="2" NCoef="0" IVar="-1" Cut="0.0000000000000000e+00" cType="1" res="-6.4734346233308315e-04" rms="2.2625020146369934e-01" purity="5.1790702342987061e-01" nType="-99"/>
        </Node>
        <Node pos="r" depth="1" NCoef="0" IVar="-1" Cut="0.0000000000000000e+00" cType="1" res="3.0616972595453262e-02" rms="3.3086746931076050e-01" purity="3.8380905985832214e-01" nType="-99"/>
      </Node>
    </BinaryTree>
    <BinaryTree type="DecisionTree" boostWeight="1.0000000000000000e+00" itree="1010">
      <Node pos="s" depth="0" NCoef="0" IVar="37" Cut="8.6330354213714600e-01" cType="1" res="-2.8476181905716658e-03" rms="2.2727210819721222e-01" purity="5.0598514080047607e-01" nType="0">
        <Node pos="l" depth="1" NCoef="0" IVar="79" Cut="-2.5380108505487442e-02" cType="1" res="-1.1452952399849892e-02" rms="2.1104510128498077e-01" purity="5.0461637973785400e-01" nType="0">
          <Node pos="l" depth="2" NCoef="0" IVar="-1" Cut="0.0000000000000000e+00" cType="1" res="7.8474689507856965e-04" rms="2.3254612088203430e-01" purity="5.4536956548690796e-01" nType="-99"/>
          <Node pos="r" depth="2" NCoef="0" IVar="-1" Cut="0.0000000000000000e+00" cType="1" res="-2.4530015885829926e-02" rms="7.7464886009693146e-02" purity="3.5377690196037292e-01" nType="-99"/>
        </Node>
        <Node pos="r" depth="1" NCoef="0" IVar="62" Cut="-1.4300698041915894e-01" cType="1" res="3.8856644183397293e-02" rms="2.8986954689025879e-01" purity="5.1261872053146362e-01" nType="0">
          <Node pos="l" depth="2" NCoef="0" IVar="-1" Cut="0.0000000000000000e+00" cType="1" res="3.3071987330913544e-02" rms="3.4024065732955933e-01" purity="6.2502765655517578e-01" nType="-99"/>
          <Node pos="r" depth="2" NCoef="0" IVar="-1" Cut="0.0000000000000000e+00" cType="1" res="3.1398951541632414e-03" rms="2.5741514563560486e-01" purity="4.6008172631263733e-01" nType="-99"/>
        </Node>
      </Node>
    </BinaryTree>
    <BinaryTree type="DecisionTree" boostWeight="1.0000000000000000e+00" itree="1011">
      <Node pos="s" depth="0" NCoef="0" IVar="46" Cut="1.5811254978179932e+00" cType="1" res="3.8370373658835888e-03" rms="2.3816755414009094e-01" purity="5.0151401758193970e-01" nType="0">
        <Node pos="l" depth="1" NCoef="0" IVar="58" Cut="1.2448070049285889e+00" cType="1" res="9.8525010980665684e-04" rms="2.3371988534927368e-01" purity="5.0716334581375122e-01" nType="0">
          <Node pos="l" depth="2" NCoef="0" IVar="-1" Cut="0.0000000000000000e+00" cType="1" res="-1.6147998394444585e-03" rms="2.2475716471672058e-01" purity="5.1106989383697510e-01" nType="-99"/>
          <Node pos="r" depth="2" NCoef="0" IVar="-1" Cut="0.0000000000000000e+00" cType="1" res="2.2404611110687256e-02" rms="3.1354916095733643e-01" purity="4.6154439449310303e-01" nType="-99"/>
        </Node>
        <Node pos="r" depth="1" NCoef="0" IVar="-1" Cut="0.0000000000000000e+00" cType="1" res="8.8952824473381042e-02" rms="3.6761429905891418e-01" purity="2.4393281340599060e-01" nType="-99"/>
      </Node>
    </BinaryTree>
    <BinaryTree type="DecisionTree" boostWeight="1.0000000000000000e+00" itree="1012">
      <Node pos="s" depth="0" NCoef="0" IVar="3" Cut="4.2850594520568848e+00" cType="1" res="-7.3566311039030552e-03" rms="2.1232168376445770e-01" purity="4.9645820260047913e-01" nType="0">
        <Node pos="l" depth="1" NCoef="0" IVar="-1" Cut="0.0000000000000000e+00" cType="1" res="2.8356151655316353e-02" rms="3.4310585260391235e-01" purity="3.7289616465568542e-01" nType="-99"/>
        <Node pos="r" depth="1" NCoef="0" IVar="35" Cut="-1.7954713106155396e-01" cType="1" res="-1.0379080660641193e-02" rms="2.0702792704105377e-01" purity="4.9960947036743164e-01" nType="0">
          <Node pos="l" depth="2" NCoef="0" IVar="-1" Cut="0.0000000000000000e+00" cType="1" res="-8.5062514990568161e-03" rms="1.7850427329540253e-01" purity="4.9654287099838257e-01" nType="-99"/>
          <Node pos="r" depth="2" NCoef="0" IVar="-1" Cut="0.0000000000000000e+00" cType="1" res="7.2219646535813808e-03" rms="2.5773236155509949e-01" purity="5.0655573606491089e-01" nType="-99"/>
        </Node>
      </Node>
    </BinaryTree>
    <BinaryTree type="DecisionTree" boostWeight="1.0000000000000000e+00" itree="1013">
      <Node pos="s" depth="0" NCoef="0" IVar="5" Cut="-8.0596096813678741e-02" cType="1" res="-1.5033547242637724e-04" rms="2.3485478758811951e-01" purity="4.9381101131439209e-01" nType="0">
        <Node pos="l" depth="1" NCoef="0" IVar="88" Cut="1.0138542652130127e+00" cType="1" res="-3.6105390638113022e-02" rms="-nan" purity="1.7625819146633148e-01" nType="-99"/>
        <Node pos="r" depth="1" NCoef="0" IVar="20" Cut="1.6220927238464355e-01" cType="1" res="4.7311540693044662e-03" rms="2.4699844419956207e-01" purity="5.1610642671585083e-01" nType="0">
          <Node pos="l" depth="2" NCoef="0" IVar="-1" Cut="0.0000000000000000e+00" cType="1" res="-1.2670389842242002e-03" rms="2.3504625260829926e-01" purity="5.3404569625854492e-01" nType="-99"/>
          <Node pos="r" depth="2" NCoef="0" IVar="-1" Cut="0.0000000000000000e+00" cType="1" res="1.4423084445297718e-02" rms="2.9347512125968933e-01" purity="4.3221488595008850e-01" nType="-99"/>
        </Node>
      </Node>
    </BinaryTree>
    <BinaryTree type="DecisionTree" boostWeight="1.0000000000000000e+00" itree="1014">
      <Node pos="s" depth="0" NCoef="0" IVar="16" Cut="9.7445917129516602e-01" cType="1" res="1.2374590151011944e-03" rms="2.3914168775081635e-01" purity="4.9371504783630371e-01" nType="0">
        <Node pos="l" depth="1" NCoef="0" IVar="34" Cut="-1.4155664443969727e+00" cType="1" res="-5.2971327677369118e-03" rms="2.3179708421230316e-01" purity="4.9884825944900513e-01" nType="0">
          <Node pos="l" depth="2" NCoef="0" IVar="-1" Cut="0.0000000000000000e+00" cType="1" res="-3.4665919840335846e-02" rms="-nan" purity="1.9976247847080231e-01" nType="-99"/>
          <Node pos="r" depth="2" NCoef="0" IVar="-1" Cut="0.0000000000000000e+00" cType="1" res="7.7986007090657949e-04" rms="2.4731329083442688e-01" purity="5.3228479623794556e-01" nType="-99"/>
        </Node>
        <Node pos="r" depth="1" NCoef="0" IVar="40" Cut="9.7747051715850830e-01" cType="1" res="6.3685953617095947e-02" rms="2.9314813017845154e-01" purity="4.4465926289558411e-01" nType="0">
          <Node pos="l" depth="2" NCoef="0" IVar="-1" Cut="0.0000000000000000e+00" cType="1" res="3.3807117491960526e-02" rms="3.3323195576667786e-01" purity="5.2530020475387573e-01" nType="-99"/>
          <Node pos="r" depth="2" NCoef="0" IVar="-1" Cut="0.0000000000000000e+00" cType="1" res="-3.1149245798587799e-02" rms="-nan" purity="1.8682946264743805e-01" nType="-99"/>
        </Node>
      </Node>
    </BinaryTree>
    <BinaryTree type="DecisionTree" boostWeight="1.0000000000000000e+00" itree="1015">
      <Node pos="s" depth="0" NCoef="0" IVar="56" Cut="1.3280733823776245e+00" cType="1" res="9.6457889303565025e-03" rms="2.4751794338226318e-01" purity="5.0326502323150635e-01" nType="0">
        <Node pos="l" depth="1" NCoef="0" IVar="84" Cut="-2.1359138190746307e-02" cType="1" res="1.7414457397535443e-03" rms="2.3412159085273743e-01" purity="5.0541371107101440e-01" nType="0">
          <Node pos="l" depth="2" NCoef="0" IVar="-1" Cut="0.0000000000000000e+00" cType="1" res="7.4649718590080738e-03" rms="2.6497218012809753e-01" purity="5.3938919305801392e-01" nType="-99"/>
          <Node pos="r" depth="2" NCoef="0" IVar="-1" Cut="0.0000000000000000e+00" cType="1" res="-7.4784560129046440e-03" rms="1.8954026699066162e-01" purity="4.6585339307785034e-01" nType="-99"/>
        </Node>
        <Node pos="r" depth="1" NCoef="0" IVar="34" Cut="1.2422090768814087e+00" cType="1" res="8.0703280866146088e-02" rms="3.3713150024414062e-01" purity="4.8394897580146790e-01" nType="0">
          <Node pos="l" depth="2" NCoef="0" IVar="-1" Cut="0.0000000000000000e+00" cType="1" res="8.7641075253486633e-02" rms="4.2759937047958374e-01" purity="3.4461417794227600e-01" nType="-99"/>
          <Node pos="r" depth="2" NCoef="0" IVar="-1" Cut="0.0000000000000000e+00" cType="1" res="3.7059707101434469e-03" rms="2.5207430124282837e-01" purity="5.5681669712066650e-01" nType="-99"/>
        </Node>
      </Node>
    </BinaryTree>
    <BinaryTree type="DecisionTree" boostWeight="1.0000000000000000e+00" itree="1016">
      <Node pos="s" depth="0" NCoef="0" IVar="17" Cut="-1.4537624120712280e+00" cType="1" res="2.9395983438007534e-04" rms="2.3682810366153717e-01" purity="4.9464738368988037e-01" nType="0">
        <Node pos="l" depth="1" NCoef="0" IVar="-1" Cut="0.0000000000000000e+00" cType="1" res="1.4753231406211853e-01" rms="2.8920528292655945e-01" purity="1.1111694574356079e-01" nType="-99"/>
        <Node pos="r" depth="1" NCoef="0" IVar="58" Cut="-1.4541276693344116e+00" cType="1" res="-2.7097554411739111e-03" rms="2.3428927361965179e-01" purity="5.0739198923110962e-01" nType="0">
          <Node pos="l" depth="2" NCoef="0" IVar="-1" Cut="0.0000000000000000e+00" cType="1" res="2.2796887904405594e-02" rms="2.9676625132560730e-01" purity="3.0618268251419067e-01" nType="-99"/>
          <Node pos="r" depth="2" NCoef="0" IVar="-1" Cut="0.0000000000000000e+00" cType="1" res="-2.3435608018189669e-03" rms="2.2878824174404144e-01" purity="5.2139860391616821e-01" nType="-99"/>
        </Node>
      </Node>
    </BinaryTree>
    <BinaryTree type="DecisionTree" boostWeight="1.0000000000000000e+00" itree="1017">
      <Node pos="s" depth="0" NCoef="0" IVar="55" Cut="-1.1841734647750854e+00" cType="1" res="2.5443416088819504e-03" rms="2.3098540306091309e-01" purity="5.0417840480804443e-01" nType="0">
        <Node pos="l" depth="1" NCoef="0" IVar="12" Cut="1.2345679104328156e-02" cType="1" res="4.0396191179752350e-02" rms="2.3828250169754028e-01" purity="3.0675056576728821e-01" nType="0">
          <Node pos="l" depth="2" NCoef="0" IVar="-1" Cut="0.0000000000000000e+00" cType="1" res="6.3986994326114655e-02" rms="3.4152418375015259e-01" purity="2.0474669337272644e-01" nType="-99"/>
          <Node pos="r" depth="2" NCoef="0" IVar="-1" Cut="0.0000000000000000e+00" cType="1" res="9.8911731038242579e-04" rms="1.6038796305656433e-01" purity="3.5167118906974792e-01" nType="-99"/>
        </Node>
        <Node pos="r" depth="1" NCoef="0" IVar="30" Cut="4.4444444775581360e-01" cType="1" res="-5.4648136720061302e-03" rms="2.2860969603061676e-01" purity="5.4595255851745605e-01" nType="0">
          <Node pos="l" depth="2" NCoef="0" IVar="-1" Cut="0.0000000000000000e+00" cType="1" res="-6.5529037965461612e-04" rms="2.3460839688777924e-01" purity="5.5516600608825684e-01" nType="-99"/>
          <Node pos="r" depth="2" NCoef="0" IVar="-1" Cut="0.0000000000000000e+00" cType="1" res="-3.2992642372846603e-02" rms="-nan" purity="3.1169274449348450e-01" nType="-99"/>
        </Node>
      </Node>
    </BinaryTree>
    <BinaryTree type="DecisionTree" boostWeight="1.0000000000000000e+00" itree="1018">
      <Node pos="s" depth="0" NCoef="0" IVar="60" Cut="-5.8224296569824219e-01" cType="1" res="1.7236936837434769e-02" rms="2.5809240341186523e-01" purity="5.0693744421005249e-01" nType="0">
        <Node pos="l" depth="1" NCoef="0" IVar="59" Cut="-1.4926531314849854e+00" cType="1" res="1.2314268387854099e-02" rms="2.4913266301155090e-01" purity="5.1849997043609619e-01" nType="0">
          <Node pos="l" depth="2" NCoef="0" IVar="-1" Cut="0.0000000000000000e+00" cType="1" res="-3.8782998919487000e-02" rms="-nan" purity="3.5409036278724670e-01" nType="-99"/>
          <Node pos="r" depth="2" NCoef="0" IVar="-1" Cut="0.0000000000000000e+00" cType="1" res="5.7312990538775921e-03" rms="2.5555646419525146e-01" purity="5.2437430620193481e-01" nType="-99"/>
        </Node>
        <Node pos="r" depth="1" NCoef="0" IVar="6" Cut="2.3695678710937500e+00" cType="1" res="1.0955251008272171e-01" rms="3.7796947360038757e-01" purity="2.9010313749313354e-01" nType="0">
          <Node pos="l" depth="2" NCoef="0" IVar="-1" Cut="0.0000000000000000e+00" cType="1" res="1.0825913399457932e-02" rms="2.8169393539428711e-01" purity="1.6115732491016388e-01" nType="-99"/>
          <Node pos="r" depth="2" NCoef="0" IVar="-1" Cut="0.0000000000000000e+00" cType="1" res="7.3125004768371582e-02" rms="4.6218615770339966e-01" purity="4.8822113871574402e-01" nType="-99"/>
        </Node>
      </Node>
    </BinaryTree>
    <BinaryTree type="DecisionTree" boostWeight="1.0000000000000000e+00" itree="1019">
      <Node pos="s" depth="0" NCoef="0" IVar="8" Cut="-5.6234806776046753e-01" cType="1" res="-1.6710886266082525e-03" rms="2.1974308788776398e-01" purity="5.0361233949661255e-01" nType="0">
        <Node pos="l" depth="1" NCoef="0" IVar="56" Cut="-5.6483221054077148e-01" cType="1" res="1.9499543122947216e-03" rms="2.2693546116352081e-01" purity="5.1731663942337036e-01" nType="0">
          <Node pos="l" depth="2" NCoef="0" IVar="-1" Cut="0.0000000000000000e+00" cType="1" res="5.0361235626041889e-03" rms="2.4780553579330444e-01" purity="5.3667277097702026e-01" nType="-99"/>
          <Node pos="r" depth="2" NCoef="0" IVar="-1" Cut="0.0000000000000000e+00" cType="1" res="-8.1711867824196815e-03" rms="1.7643627524375916e-01" purity="4.7916209697723389e-01" nType="-99"/>
        </Node>
        <Node pos="r" depth="1" NCoef="0" IVar="-1" Cut="0.0000000000000000e+00" cType="1" res="-4.2271807789802551e-02" rms="-nan" purity="1.3140901923179626e-01" nType="-99"/>
      </Node>
    </BinaryTree>
    <BinaryTree type="DecisionTree" boostWeight="1.0000000000000000e+00" itree="1020">
      <Node pos="s" depth="0" NCoef="0" IVar="61" Cut="9.7185570001602173e-01" cType="1" res="-4.8054624348878860e-03" rms="2.2543442249298096e-01" purity="4.9974733591079712e-01" nType="0">
        <Node pos="l" depth="1" NCoef="0" IVar="51" Cut="-7.5308644771575928e-01" cType="1" res="5.6310240179300308e-03" rms="2.4319295585155487e-01" purity="5.6162524223327637e-01" nType="0">
          <Node pos="l" depth="2" NCoef="0" IVar="-1" Cut="0.0000000000000000e+00" cType="1" res="2.2201737388968468e-02" rms="3.1376832723617554e-01" purity="5.2664953470230103e-01" nType="-99"/>
          <Node pos="r" depth="2" NCoef="0" IVar="-1" Cut="0.0000000000000000e+00" cType="1" res="-8.3621394878719002e-05" rms="2.3492370545864105e-01" purity="5.6477290391921997e-01" nType="-99"/>
        </Node>
        <Node pos="r" depth="1" NCoef="0" IVar="69" Cut="2.8398189544677734e+00" cType="1" res="-3.6192364990711212e-02" rms="1.5646028518676758e-01" purity="3.1365442276000977e-01" nType="0">
          <Node pos="l" depth="2" NCoef="0" IVar="-1" Cut="0.0000000000000000e+00" cType="1" res="-1.9016083329916000e-02" rms="1.1983102560043335e-01" purity="2.8796204924583435e-01" nType="-99"/>
          <Node pos="r" depth="2" NCoef="0" IVar="-1" Cut="0.0000000000000000e+00" cType="1" res="3.0366925522685051e-02" rms="3.3020555973052979e-01" purity="5.7808190584182739e-01" nType="-99"/>
        </Node>
      </Node>
    </BinaryTree>
    <BinaryTree type="DecisionTree" boostWeight="1.0000000000000000e+00" itree="1021">
      <Node pos="s" depth="0" NCoef="0" IVar="62" Cut="-4.2656764388084412e-01" cType="1" res="5.6885316735133529e-04" rms="2.3187269270420074e-01" purity="4.9768206477165222e-01" nType="0">
        <Node pos="l" depth="1" NCoef="0" IVar="-1" Cut="0.0000000000000000e+00" cType="1" res="-4.0552683174610138e-02" rms="1.6667723655700684e-01" purity="4.9009203910827637e-01" nType="-99"/>
        <Node pos="r" depth="1" NCoef="0" IVar="60" Cut="-5.6138694286346436e-01" cType="1" res="4.0833298116922379e-03" rms="2.3306299746036530e-01" purity="4.9794965982437134e-01" nType="0">
          <Node pos="l" depth="2" NCoef="0" IVar="-1" Cut="0.0000000000000000e+00" cType="1" res="2.6736163999885321e-03" rms="2.3777121305465698e-01" purity="5.1476860046386719e-01" nType="-99"/>
          <Node pos="r" depth="2" NCoef="0" IVar="-1" Cut="0.0000000000000000e+00" cType="1" res="-3.4203816205263138e-02" rms="-nan" purity="7.0811554789543152e-02" nType="-99"/>
        </Node>
      </Node>
    </BinaryTree>
    <BinaryTree type="DecisionTree" boostWeight="1.0000000000000000e+00" itree="1022">
      <Node pos="s" depth="0" NCoef="0" IVar="46" Cut="1.6573034524917603e+00" cType="1" res="4.5960424467921257e-03" rms="2.4054615199565887e-01" purity="4.9541491270065308e-01" nType="0">
        <Node pos="l" depth="1" NCoef="0" IVar="35" Cut="1.4428870677947998e+00" cType="1" res="1.8235306488350034e-03" rms="2.3514965176582336e-01" purity="4.9985325336456299e-01" nType="0">
          <Node pos="l" depth="2" NCoef="0" IVar="-1" Cut="0.0000000000000000e+00" cType="1" res="1.8954273546114564e-03" rms="2.3922489583492279e-01" purity="5.0905102491378784e-01" nType="-99"/>
          <Node pos="r" depth="2" NCoef="0" IVar="-1" Cut="0.0000000000000000e+00" cType="1" res="-4.0096741169691086e-02" rms="-nan" purity="2.3482939600944519e-01" nType="-99"/>
        </Node>
        <Node pos="r" depth="1" NCoef="0" IVar="-1" Cut="0.0000000000000000e+00" cType="1" res="7.4364200234413147e-02" rms="3.9987158775329590e-01" purity="2.8988870978355408e-01" nType="-99"/>
      </Node>
    </BinaryTree>
    <BinaryTree type="DecisionTree" boostWeight="1.0000000000000000e+00" itree="1023">
      <Node pos="s" depth="0" NCoef="0" IVar="68" Cut="1.2345679104328156e-02" cType="1" res="5.1612993702292442e-03" rms="2.3839411139488220e-01" purity="5.0533533096313477e-01" nType="0">
        <Node pos="l" depth="1" NCoef="0" IVar="25" Cut="7.9090952873229980e-01" cType="1" res="3.1171619775705040e-04" rms="2.3008206486701965e-01" purity="5.0583899021148682e-01" nType="0">
          <Node pos="l" depth="2" NCoef="0" IVar="-1" Cut="0.0000000000000000e+00" cType="1" res="3.8434587419033051e-02" rms="3.3534431457519531e-01" purity="6.9100487232208252e-01" nType="-99"/>
          <Node pos="r" depth="2" NCoef="0" IVar="-1" Cut="0.0000000000000000e+00" cType="1" res="-1.2929020449519157e-03" rms="2.2482754290103912e-01" purity="5.0002300739288330e-01" nType="-99"/>
        </Node>
        <Node pos="r" depth="1" NCoef="0" IVar="34" Cut="1.4339604377746582e+00" cType="1" res="8.9841462671756744e-02" rms="3.4241005778312683e-01" purity="4.9654102325439453e-01" nType="0">
          <Node pos="l" depth="2" NCoef="0" IVar="-1" Cut="0.0000000000000000e+00" cType="1" res="7.3762528598308563e-02" rms="4.2202258110046387e-01" purity="4.1018885374069214e-01" nType="-99"/>
          <Node pos="r" depth="2" NCoef="0" IVar="-1" Cut="0.0000000000000000e+00" cType="1" res="-4.3480815365910530e-03" rms="1.9468894600868225e-01" purity="5.7720780372619629e-01" nType="-99"/>
        </Node>
      </Node>
    </BinaryTree>
    <BinaryTree type="DecisionTree" boostWeight="1.0000000000000000e+00" itree="1024">
      <Node pos="s" depth="0" NCoef="0" IVar="83" Cut="3.8576695322990417e-01" cType="1" res="-7.4449903331696987e-04" rms="2.2773666679859161e-01" purity="5.0453734397888184e-01" nType="0">
        <Node pos="l" depth="1" NCoef="0" IVar="5" Cut="5.2310818433761597e-01" cType="1" res="1.9200172973796725e-03" rms="2.3338134586811066e-01" purity="5.1027482748031616e-01" nType="0">
          <Node pos="l" depth="2" NCoef="0" IVar="-1" Cut="0.0000000000000000e+00" cType="1" res="1.6558626666665077e-03" rms="2.3986576497554779e-01" purity="5.2153378725051880e-01" nType="-99"/>
          <Node pos="r" depth="2" NCoef="0" IVar="-1" Cut="0.0000000000000000e+00" cType="1" res="-3.5816520452499390e-02" rms="-nan" purity="1.1712295562028885e-01" nType="-99"/>
        </Node>
        <Node pos="r" depth="1" NCoef="0" IVar="-1" Cut="0.0000000000000000e+00" cType="1" res="-4.6008490025997162e-02" rms="-nan" purity="2.5800228118896484e-01" nType="-99"/>
      </Node>
    </BinaryTree>
    <BinaryTree type="DecisionTree" boostWeight="1.0000000000000000e+00" itree="1025">
      <Node pos="s" depth="0" NCoef="0" IVar="41" Cut="-1.5204095840454102e-01" cType="1" res="-4.3590781278908253e-03" rms="2.2086390852928162e-01" purity="4.9835127592086792e-01" nType="0">
        <Node pos="l" depth="1" NCoef="0" IVar="36" Cut="9.4433736801147461e-01" cType="1" res="-3.7548772990703583e-02" rms="1.5601328015327454e-01" purity="5.4798972606658936e-01" nType="0">
          <Node pos="l" depth="2" NCoef="0" IVar="-1" Cut="0.0000000000000000e+00" cType="1" res="-6.5791815519332886e-02" rms="-nan" purity="-1.7075855284929276e-02" nType="-99"/>
          <Node pos="r" depth="2" NCoef="0" IVar="-1" Cut="0.0000000000000000e+00" cType="1" res="-5.0920494832098484e-03" rms="2.2972308099269867e-01" purity="6.8382525444030762e-01" nType="-99"/>
        </Node>
        <Node pos="r" depth="1" NCoef="0" IVar="48" Cut="1.1225430965423584e+00" cType="1" res="6.7462795414030552e-03" rms="2.3762762546539307e-01" purity="4.8174217343330383e-01" nType="0">
          <Node pos="l" depth="2" NCoef="0" IVar="-1" Cut="0.0000000000000000e+00" cType="1" res="-2.2112075239419937e-02" rms="5.3097795695066452e-02" purity="1.5355128049850464e-01" nType="-99"/>
          <Node pos="r" depth="2" NCoef="0" IVar="-1" Cut="0.0000000000000000e+00" cType="1" res="5.0976332277059555e-03" rms="2.5314697623252869e-01" purity="5.3136813640594482e-01" nType="-99"/>
        </Node>
      </Node>
    </BinaryTree>
    <BinaryTree type="DecisionTree" boostWeight="1.0000000000000000e+00" itree="1026">
      <Node pos="s" depth="0" NCoef="0" IVar="5" Cut="-1.2410237640142441e-01" cType="1" res="3.4173713065683842e-03" rms="2.3271679878234863e-01" purity="5.0630134344100952e-01" nType="0">
        <Node pos="l" depth="1" NCoef="0" IVar="34" Cut="1.2804630994796753e+00" cType="1" res="-6.4744278788566589e-02" rms="-nan" purity="3.9503693580627441e-02" nType="-99"/>
        <Node pos="r" depth="1" NCoef="0" IVar="46" Cut="1.1178157329559326e+00" cType="1" res="7.3498333804309368e-03" rms="2.4289542436599731e-01" purity="5.2568477392196655e-01" nType="0">
          <Node pos="l" depth="2" NCoef="0" IVar="-1" Cut="0.0000000000000000e+00" cType="1" res="1.2992387928534299e-04" rms="2.3586960136890411e-01" purity="5.4590451717376709e-01" nType="-99"/>
          <Node pos="r" depth="2" NCoef="0" IVar="-1" Cut="0.0000000000000000e+00" cType="1" res="2.2090744227170944e-02" rms="2.8469350934028625e-01" purity="3.7456932663917542e-01" nType="-99"/>
        </Node>
      </Node>
    </BinaryTree>
    <BinaryTree type="DecisionTree" boostWeight="1.0000000000000000e+00" itree="1027">
      <Node pos="s" depth="0" NCoef="0" IVar="52" Cut="2.5177588462829590e+00" cType="1" res="2.9993029311299324e-03" rms="2.3632776737213135e-01" purity="5.0178354978561401e-01" nType="0">
        <Node pos="l" depth="1" NCoef="0" IVar="27" Cut="2.1310858726501465e+00" cType="1" res="6.8712309002876282e-02" rms="2.9564771056175232e-01" purity="2.3906797170639038e-01" nType="0">
          <Node pos="l" depth="2" NCoef="0" IVar="-1" Cut="0.0000000000000000e+00" cType="1" res="5.1848851144313812e-02" rms="3.3733493089675903e-01" purity="2.3684914410114288e-01" nType="-99"/>
          <Node pos="r" depth="2" NCoef="0" IVar="-1" Cut="0.0000000000000000e+00" cType="1" res="-1.4435051009058952e-02" rms="1.0544514656066895e-01" purity="2.4384312331676483e-01" nType="-99"/>
        </Node>
        <Node pos="r" depth="1" NCoef="0" IVar="55" Cut="-1.0418405383825302e-01" cType="1" res="-3.3692279830574989e-03" rms="2.2876507043838501e-01" purity="5.2724450826644897e-01" nType="0">
          <Node pos="l" depth="2" NCoef="0" IVar="-1" Cut="0.0000000000000000e+00" cType="1" res="1.2689825147390366e-02" rms="2.2154764831066132e-01" purity="3.1394246220588684e-01" nType="-99"/>
          <Node pos="r" depth="2" NCoef="0" IVar="-1" Cut="0.0000000000000000e+00" cType="1" res="-4.4719926081597805e-03" rms="2.2978688776493073e-01" purity="5.8411800861358643e-01" nType="-99"/>
        </Node>
      </Node>
    </BinaryTree>
    <BinaryTree type="DecisionTree" boostWeight="1.0000000000000000e+00" itree="1028">
      <Node pos="s" depth="0" NCoef="0" IVar="17" Cut="-1.3764022588729858e+00" cType="1" res="-7.5400824425742030e-04" rms="2.2971279919147491e-01" purity="5.0497162342071533e-01" nType="0">
        <Node pos="l" depth="1" NCoef="0" IVar="42" Cut="1.3444267213344574e-01" cType="1" res="-2.4102613329887390e-01" rms="-nan" purity="-6.0586109757423401e-02" nType="-99"/>
        <Node pos="r" depth="1" NCoef="0" IVar="7" Cut="-7.5330567359924316e-01" cType="1" res="5.2732438780367374e-03" rms="2.5116357207298279e-01" purity="5.5388015508651733e-01" nType="0">
          <Node pos="l" depth="2" NCoef="0" IVar="-1" Cut="0.0000000000000000e+00" cType="1" res="6.8160792579874396e-04" rms="2.4613024294376373e-01" purity="5.5544704198837280e-01" nType="-99"/>
          <Node pos="r" depth="2" NCoef="0" IVar="-1" Cut="0.0000000000000000e+00" cType="1" res="3.8825377821922302e-02" rms="3.8665372133255005e-01" purity="4.8817479610443115e-01" nType="-99"/>
        </Node>
      </Node>
    </BinaryTree>
    <BinaryTree type="DecisionTree" boostWeight="1.0000000000000000e+00" itree="1029">
      <Node pos="s" depth="0" NCoef="0" IVar="20" Cut="2.9857000708580017e-01" cType="1" res="-2.0213185052853078e-04" rms="2.3989011347293854e-01" purity="5.0125598907470703e-01" nType="0">
        <Node pos="l" depth="1" NCoef="0" IVar="67" Cut="1.1829733848571777e+00" cType="1" res="3.6404335405677557e-03" rms="2.4724112451076508e-01" purity="5.1099669933319092e-01" nType="0">
          <Node pos="l" depth="2" NCoef="0" IVar="-1" Cut="0.0000000000000000e+00" cType="1" res="-5.4170831572264433e-04" rms="2.4359661340713501e-01" purity="5.2828133106231689e-01" nType="-99"/>
          <Node pos="r" depth="2" NCoef="0" IVar="-1" Cut="0.0000000000000000e+00" cType="1" res="2.4448769167065620e-02" rms="2.7630370855331421e-01" purity="3.3389902114868164e-01" nType="-99"/>
        </Node>
        <Node pos="r" depth="1" NCoef="0" IVar="78" Cut="-1.3027528524398804e+00" cType="1" res="-3.2738093286752701e-02" rms="-nan" purity="2.8786081075668335e-01" nType="-99"/>
      </Node>
    </BinaryTree>
    <BinaryTree type="DecisionTree" boostWeight="1.0000000000000000e+00" itree="1030">
      <Node pos="s" depth="0" NCoef="0" IVar="82" Cut="1.6312659978866577e+00" cType="1" res="3.3874514047056437e-03" rms="2.4286136031150818e-01" purity="5.0298696756362915e-01" nType="0">
        <Node pos="l" depth="1" NCoef="0" IVar="4" Cut="3.3692297935485840e+00" cType="1" res="6.5398649312555790e-03" rms="2.4860496819019318e-01" purity="5.1380032300949097e-01" nType="0">
          <Node pos="l" depth="2" NCoef="0" IVar="-1" Cut="0.0000000000000000e+00" cType="1" res="1.7846286296844482e-02" rms="2.9084059596061707e-01" purity="2.6612314581871033e-01" nType="-99"/>
          <Node pos="r" depth="2" NCoef="0" IVar="-1" Cut="0.0000000000000000e+00" cType="1" res="-2.2918441391084343e-04" rms="2.3970060050487518e-01" purity="5.5732625722885132e-01" nType="-99"/>
        </Node>
        <Node pos="r" depth="1" NCoef="0" IVar="-1" Cut="0.0000000000000000e+00" cType="1" res="-5.2985336631536484e-02" rms="-nan" purity="1.0262954980134964e-01" nType="-99"/>
      </Node>
    </BinaryTree>
    <BinaryTree type="DecisionTree" boostWeight="1.0000000000000000e+00" itree="1031">
      <Node pos="s" depth="0" NCoef="0" IVar="14" Cut="9.0792968869209290e-02" cType="1" res="5.0095613114535809e-03" rms="2.3058775067329407e-01" purity="5.0445622205734253e-01" nType="0">
        <Node pos="l" depth="1" NCoef="0" IVar="38" Cut="-9.1442900896072388e-01" cType="1" res="-5.8567770756781101e-03" rms="2.0720940828323364e-01" purity="4.8621451854705811e-01" nType="0">
          <Node pos="l" depth="2" NCoef="0" IVar="-1" Cut="0.0000000000000000e+00" cType="1" res="-2.0113684237003326e-02" rms="-nan" purity="2.4826277792453766e-01" nType="-99"/>
          <Node pos="r" depth="2" NCoef="0" IVar="-1" Cut="0.0000000000000000e+00" cType="1" res="2.1190880797803402e-03" rms="2.4190227687358856e-01" purity="5.5719423294067383e-01" nType="-99"/>
        </Node>
        <Node pos="r" depth="1" NCoef="0" IVar="62" Cut="-1.6100886464118958e-01" cType="1" res="3.3842645585536957e-02" rms="2.8139623999595642e-01" purity="5.5285936594009399e-01" nType="0">
          <Node pos="l" depth="2" NCoef="0" IVar="-1" Cut="0.0000000000000000e+00" cType="1" res="3.3510375767946243e-02" rms="3.3468067646026611e-01" purity="6.5381795167922974e-01" nType="-99"/>
          <Node pos="r" depth="2" NCoef="0" IVar="-1" Cut="0.0000000000000000e+00" cType="1" res="3.6308725830167532e-03" rms="2.5484496355056763e-01" purity="5.1561307907104492e-01" nType="-99"/>
        </Node>
      </Node>
    </BinaryTree>
    <BinaryTree type="DecisionTree" boostWeight="1.0000000000000000e+00" itree="1032">
      <Node pos="s" depth="0" NCoef="0" IVar="67" Cut="1.2024899721145630e+00" cType="1" res="3.1081431079655886e-03" rms="2.4231052398681641e-01" purity="4.8992887139320374e-01" nType="0">
        <Node pos="l" depth="1" NCoef="0" IVar="19" Cut="1.3753075599670410e+00" cType="1" res="-2.0395624451339245e-03" rms="2.3548264801502228e-01" purity="5.0636994838714600e-01" nType="0">
          <Node pos="l" depth="2" NCoef="0" IVar="-1" Cut="0.0000000000000000e+00" cType="1" res="7.4157235212624073e-04" rms="2.4240203201770782e-01" purity="5.1610714197158813e-01" nType="-99"/>
          <Node pos="r" depth="2" NCoef="0" IVar="-1" Cut="0.0000000000000000e+00" cType="1" res="-2.8841357678174973e-02" rms="-nan" purity="3.1773346662521362e-01" nType="-99"/>
        </Node>
        <Node pos="r" depth="1" NCoef="0" IVar="39" Cut="-2.1269154548645020e+00" cType="1" res="6.1991497874259949e-02" rms="3.0374464392662048e-01" purity="3.0186378955841064e-01" nType="0">
          <Node pos="l" depth="2" NCoef="0" IVar="-1" Cut="0.0000000000000000e+00" cType="1" res="-1.9425917416810989e-02" rms="1.0174159705638885e-01" purity="3.0935889482498169e-01" nType="-99"/>
          <Node pos="r" depth="2" NCoef="0" IVar="-1" Cut="0.0000000000000000e+00" cType="1" res="6.2558092176914215e-02" rms="3.5058242082595825e-01" purity="2.9820957779884338e-01" nType="-99"/>
        </Node>
      </Node>
    </BinaryTree>
    <BinaryTree type="DecisionTree" boostWeight="1.0000000000000000e+00" itree="1033">
      <Node pos="s" depth="0" NCoef="0" IVar="1" Cut="2.8406403064727783e+00" cType="1" res="1.4732488198205829e-03" rms="2.3977747559547424e-01" purity="4.9910661578178406e-01" nType="0">
        <Node pos="l" depth="1" NCoef="0" IVar="4" Cut="3.9413652420043945e+00" cType="1" res="1.8021419644355774e-02" rms="2.6090872287750244e-01" purity="4.1083738207817078e-01" nType="0">
          <Node pos="l" depth="2" NCoef="0" IVar="-1" Cut="0.0000000000000000e+00" cType="1" res="2.4606310762465000e-03" rms="2.4687121808528900e-01" purity="3.9706072211265564e-01" nType="-99"/>
          <Node pos="r" depth="2" NCoef="0" IVar="-1" Cut="0.0000000000000000e+00" cType="1" res="3.0185684561729431e-02" rms="3.2232105731964111e-01" purity="4.8944315314292908e-01" nType="-99"/>
        </Node>
        <Node pos="r" depth="1" NCoef="0" IVar="3" Cut="4.3468580245971680e+00" cType="1" res="-1.5629747882485390e-02" rms="2.1443612873554230e-01" purity="5.9033530950546265e-01" nType="0">
          <Node pos="l" depth="2" NCoef="0" IVar="-1" Cut="0.0000000000000000e+00" cType="1" res="2.2798201069235802e-02" rms="3.2366660237312317e-01" purity="4.4611221551895142e-01" nType="-99"/>
          <Node pos="r" depth="2" NCoef="0" IVar="-1" Cut="0.0000000000000000e+00" cType="1" res="-8.4481379017233849e-03" rms="2.0381510257720947e-01" purity="5.9948074817657471e-01" nType="-99"/>
        </Node>
      </Node>
    </BinaryTree>
    <BinaryTree type="DecisionTree" boostWeight="1.0000000000000000e+00" itree="1034">
      <Node pos="s" depth="0" NCoef="0" IVar="5" Cut="4.1609638929367065e-01" cType="1" res="-6.8932822905480862e-03" rms="2.2121614217758179e-01" purity="4.9314212799072266e-01" nType="0">
        <Node pos="l" depth="1" NCoef="0" IVar="63" Cut="-2.3792430758476257e-01" cType="1" res="-3.3271251595579088e-04" rms="2.3473066091537476e-01" purity="5.2771425247192383e-01" nType="0">
          <Node pos="l" depth="2" NCoef="0" IVar="-1" Cut="0.0000000000000000e+00" cType="1" res="1.1327118612825871e-02" rms="2.7008649706840515e-01" purity="5.6622475385665894e-01" nType="-99"/>
          <Node pos="r" depth="2" NCoef="0" IVar="-1" Cut="0.0000000000000000e+00" cType="1" res="-3.2314010895788670e-03" rms="2.2283709049224854e-01" purity="5.1673495769500732e-01" nType="-99"/>
        </Node>
        <Node pos="r" depth="1" NCoef="0" IVar="55" Cut="1.3609372377395630e+00" cType="1" res="-4.7740329056978226e-02" rms="9.2926159501075745e-02" purity="2.7789109945297241e-01" nType="0">
          <Node pos="l" depth="2" NCoef="0" IVar="-1" Cut="0.0000000000000000e+00" cType="1" res="-6.5661050379276276e-02" rms="-nan" purity="1.2964816763997078e-02" nType="-99"/>
          <Node pos="r" depth="2" NCoef="0" IVar="-1" Cut="0.0000000000000000e+00" cType="1" res="-1.0240389965474606e-03" rms="2.4268865585327148e-01" purity="4.1615372896194458e-01" nType="-99"/>
        </Node>
      </Node>
    </BinaryTree>
    <BinaryTree type="DecisionTree" boostWeight="1.0000000000000000e+00" itree="1035">
      <Node pos="s" depth="0" NCoef="0" IVar="79" Cut="1.0943216085433960e+00" cType="1" res="1.1712441919371486e-03" rms="2.3259279131889343e-01" purity="5.0789266824722290e-01" nType="0">
        <Node pos="l" depth="1" NCoef="0" IVar="77" Cut="8.6173832416534424e-01" cType="1" res="7.4617783538997173e-03" rms="2.4536457657814026e-01" purity="5.3041547536849976e-01" nType="0">
          <Node pos="l" depth="2" NCoef="0" IVar="-1" Cut="0.0000000000000000e+00" cType="1" res="4.0744277648627758e-03" rms="2.5375688076019287e-01" purity="5.5008178949356079e-01" nType="-99"/>
          <Node pos="r" depth="2" NCoef="0" IVar="-1" Cut="0.0000000000000000e+00" cType="1" res="-3.4391317516565323e-02" rms="-nan" purity="1.9699166715145111e-01" nType="-99"/>
        </Node>
        <Node pos="r" depth="1" NCoef="0" IVar="46" Cut="1.0166544914245605e+00" cType="1" res="-2.8406251221895218e-02" rms="-nan" purity="2.6556354761123657e-01" nType="-99"/>
      </Node>
    </BinaryTree>
    <BinaryTree type="DecisionTree" boostWeight="1.0000000000000000e+00" itree="1036">
      <Node pos="s" depth="0" NCoef="0" IVar="52" Cut="2.3458218574523926e+00" cType="1" res="-1.8658516928553581e-03" rms="2.3674389719963074e-01" purity="4.9529048800468445e-01" nType="0">
        <Node pos="l" depth="1" NCoef="0" IVar="-1" Cut="0.0000000000000000e+00" cType="1" res="-4.4587805867195129e-02" rms="-nan" purity="7.2608321905136108e-02" nType="-99"/>
        <Node pos="r" depth="1" NCoef="0" IVar="17" Cut="1.2150785923004150e+00" cType="1" res="1.1970344930887222e-03" rms="2.4449928104877472e-01" purity="5.0703024864196777e-01" nType="0">
          <Node pos="l" depth="2" NCoef="0" IVar="-1" Cut="0.0000000000000000e+00" cType="1" res="4.5553665608167648e-02" rms="2.0211848616600037e-01" purity="7.1230418980121613e-02" nType="-99"/>
          <Node pos="r" depth="2" NCoef="0" IVar="-1" Cut="0.0000000000000000e+00" cType="1" res="-3.4457740839570761e-03" rms="2.5567415356636047e-01" purity="6.5045028924942017e-01" nType="-99"/>
        </Node>
      </Node>
    </BinaryTree>
    <BinaryTree type="DecisionTree" boostWeight="1.0000000000000000e+00" itree="1037">
      <Node pos="s" depth="0" NCoef="0" IVar="19" Cut="1.5718957185745239e+00" cType="1" res="1.4676208375021815e-03" rms="2.4078319966793060e-01" purity="4.9589377641677856e-01" nType="0">
        <Node pos="l" depth="1" NCoef="0" IVar="84" Cut="-2.5340187549591064e-01" cType="1" res="-1.6162558458745480e-03" rms="2.3573338985443115e-01" purity="4.9818089604377747e-01" nType="0">
          <Node pos="l" depth="2" NCoef="0" IVar="-1" Cut="0.0000000000000000e+00" cType="1" res="-1.4576193876564503e-02" rms="1.7632111907005310e-01" purity="4.8384073376655579e-01" nType="-99"/>
          <Node pos="r" depth="2" NCoef="0" IVar="-1" Cut="0.0000000000000000e+00" cType="1" res="2.5971794966608286e-03" rms="2.4710832536220551e-01" purity="5.0163543224334717e-01" nType="-99"/>
        </Node>
        <Node pos="r" depth="1" NCoef="0" IVar="-1" Cut="0.0000000000000000e+00" cType="1" res="3.2388109713792801e-02" rms="3.5399559140205383e-01" purity="4.2222434282302856e-01" nType="-99"/>
      </Node>
    </BinaryTree>
    <BinaryTree type="DecisionTree" boostWeight="1.0000000000000000e+00" itree="1038">
      <Node pos="s" depth="0" NCoef="0" IVar="27" Cut="1.2918413877487183e+00" cType="1" res="4.2445934377610683e-03" rms="2.3626723885536194e-01" purity="4.9594455957412720e-01" nType="0">
        <Node pos="l" depth="1" NCoef="0" IVar="46" Cut="9.9596858024597168e-01" cType="1" res="-3.4505415707826614e-02" rms="1.4124396443367004e-01" purity="2.3990881443023682e-01" nType="0">
          <Node pos="l" depth="2" NCoef="0" IVar="-1" Cut="0.0000000000000000e+00" cType="1" res="-1.8732591997832060e-03" rms="2.1721737086772919e-01" purity="3.1815731525421143e-01" nType="-99"/>
          <Node pos="r" depth="2" NCoef="0" IVar="-1" Cut="0.0000000000000000e+00" cType="1" res="-5.4654248058795929e-02" rms="-nan" purity="8.9634038507938385e-02" nType="-99"/>
        </Node>
        <Node pos="r" depth="1" NCoef="0" IVar="36" Cut="-6.4180916547775269e-01" cType="1" res="1.3736565597355366e-02" rms="2.5328123569488525e-01" purity="5.5866158008575439e-01" nType="0">
          <Node pos="l" depth="2" NCoef="0" IVar="-1" Cut="0.0000000000000000e+00" cType="1" res="3.5505943000316620e-02" rms="2.9064857959747314e-01" purity="1.6185480356216431e-01" nType="-99"/>
          <Node pos="r" depth="2" NCoef="0" IVar="-1" Cut="0.0000000000000000e+00" cType="1" res="9.3045789981260896e-04" rms="2.4362364411354065e-01" purity="6.3857805728912354e-01" nType="-99"/>
        </Node>
      </Node>
    </BinaryTree>
    <BinaryTree type="DecisionTree" boostWeight="1.0000000000000000e+00" itree="1039">
      <Node pos="s" depth="0" NCoef="0" IVar="19" Cut="1.5502609014511108e+00" cType="1" res="-1.1199431028217077e-03" rms="2.3463632166385651e-01" purity="5.0240796804428101e-01" nType="0">
        <Node pos="l" depth="1" NCoef="0" IVar="52" Cut="2.6031832695007324e+00" cType="1" res="2.0519518293440342e-03" rms="2.3805299401283264e-01" purity="5.0983107089996338e-01" nType="0">
          <Node pos="l" depth="2" NCoef="0" IVar="-1" Cut="0.0000000000000000e+00" cType="1" res="1.8309587612748146e-02" rms="2.8550919890403748e-01" purity="2.4981336295604706e-01" nType="-99"/>
          <Node pos="r" depth="2" NCoef="0" IVar="-1" Cut="0.0000000000000000e+00" cType="1" res="-1.6614911146461964e-03" rms="2.2955003380775452e-01" purity="5.4776334762573242e-01" nType="-99"/>
        </Node>
        <Node pos="r" depth="1" NCoef="0" IVar="-1" Cut="0.0000000000000000e+00" cType="1" res="-5.4421391338109970e-02" rms="-nan" purity="1.6500210762023926e-01" nType="-99"/>
      </Node>
    </BinaryTree>
    <BinaryTree type="DecisionTree" boostWeight="1.0000000000000000e+00" itree="1040">
      <Node pos="s" depth="0" NCoef="0" IVar="85" Cut="1.2345679104328156e-02" cType="1" res="1.1267242953181267e-02" rms="2.4954493343830109e-01" purity="5.0873655080795288e-01" nType="0">
        <Node pos="l" depth="1" NCoef="0" IVar="-1" Cut="0.0000000000000000e+00" cType="1" res="-4.5527327805757523e-02" rms="-nan" purity="1.7665418982505798e-01" nType="-99"/>
        <Node pos="r" depth="1" NCoef="0" IVar="7" Cut="-1.1036159992218018e+00" cType="1" res="1.4800871722400188e-02" rms="2.5542175769805908e-01" purity="5.1707583665847778e-01" nType="0">
          <Node pos="l" depth="2" NCoef="0" IVar="-1" Cut="0.0000000000000000e+00" cType="1" res="4.0715606883168221e-03" rms="2.5059655308723450e-01" purity="5.1970213651657104e-01" nType="-99"/>
          <Node pos="r" depth="2" NCoef="0" IVar="-1" Cut="0.0000000000000000e+00" cType="1" res="3.7827406078577042e-02" rms="3.5808181762695312e-01" purity="4.3575924634933472e-01" nType="-99"/>
        </Node>
      </Node>
    </BinaryTree>
    <BinaryTree type="DecisionTree" boostWeight="1.0000000000000000e+00" itree="1041">
      <Node pos="s" depth="0" NCoef="0" IVar="6" Cut="8.9896219968795776e-01" cType="1" res="-2.7540805749595165e-03" rms="2.2406746447086334e-01" purity="4.9917197227478027e-01" nType="0">
        <Node pos="l" depth="1" NCoef="0" IVar="-1" Cut="0.0000000000000000e+00" cType="1" res="5.3117692470550537e-02" rms="3.9330556988716125e-01" purity="2.6439195871353149e-01" nType="-99"/>
        <Node pos="r" depth="1" NCoef="0" IVar="27" Cut="1.1005080938339233e+00" cType="1" res="-6.0553387738764286e-03" rms="2.1626833081245422e-01" purity="5.0602543354034424e-01" nType="0">
          <Node pos="l" depth="2" NCoef="0" IVar="-1" Cut="0.0000000000000000e+00" cType="1" res="-2.1848702803254128e-02" rms="4.6703804284334183e-02" purity="1.9498874247074127e-01" nType="-99"/>
          <Node pos="r" depth="2" NCoef="0" IVar="-1" Cut="0.0000000000000000e+00" cType="1" res="5.2883380703860894e-05" rms="2.3041161894798279e-01" purity="5.5217456817626953e-01" nType="-99"/>
        </Node>
      </Node>
    </BinaryTree>
    <BinaryTree type="DecisionTree" boostWeight="1.0000000000000000e+00" itree="1042">
      <Node pos="s" depth="0" NCoef="0" IVar="37" Cut="1.3653717041015625e+00" cType="1" res="1.7220117151737213e-03" rms="2.3907798528671265e-01" purity="4.9294969439506531e-01" nType="0">
        <Node pos="l" depth="1" NCoef="0" IVar="46" Cut="8.8928186893463135e-01" cType="1" res="5.0909374840557575e-03" rms="2.4304828047752380e-01" purity="5.0244635343551636e-01" nType="0">
          <Node pos="l" depth="2" NCoef="0" IVar="-1" Cut="0.0000000000000000e+00" cType="1" res="-8.7934490293264389e-03" rms="2.3626308143138885e-01" purity="5.4058551788330078e-01" nType="-99"/>
          <Node pos="r" depth="2" NCoef="0" IVar="-1" Cut="0.0000000000000000e+00" cType="1" res="5.1942779682576656e-03" rms="2.4424059689044952e-01" purity="4.9126967787742615e-01" nType="-99"/>
        </Node>
        <Node pos="r" depth="1" NCoef="0" IVar="-1" Cut="0.0000000000000000e+00" cType="1" res="-3.8599412888288498e-02" rms="-nan" purity="2.2008207440376282e-01" nType="-99"/>
      </Node>
    </BinaryTree>
    <BinaryTree type="DecisionTree" boostWeight="1.0000000000000000e+00" itree="1043">
      <Node pos="s" depth="0" NCoef="0" IVar="16" Cut="-1.3770496845245361e+00" cType="1" res="5.6097474880516529e-03" rms="2.4967464804649353e-01" purity="5.0058746337890625e-01" nType="0">
        <Node pos="l" depth="1" NCoef="0" IVar="76" Cut="-2.6713338494300842e-01" cType="1" res="-3.3644489943981171e-02" rms="-nan" purity="1.5570631623268127e-01" nType="-99"/>
        <Node pos="r" depth="1" NCoef="0" IVar="36" Cut="-1.2990434169769287e+00" cType="1" res="9.6607329323887825e-03" rms="2.5825634598731995e-01" purity="5.1756024360656738e-01" nType="0">
          <Node pos="l" depth="2" NCoef="0" IVar="-1" Cut="0.0000000000000000e+00" cType="1" res="3.6284055560827255e-02" rms="2.7184382081031799e-01" purity="1.3809520006179810e-01" nType="-99"/>
          <Node pos="r" depth="2" NCoef="0" IVar="-1" Cut="0.0000000000000000e+00" cType="1" res="8.4747909568250179e-04" rms="2.5551724433898926e-01" purity="5.6913596391677856e-01" nType="-99"/>
        </Node>
      </Node>
    </BinaryTree>
    <BinaryTree type="DecisionTree" boostWeight="1.0000000000000000e+00" itree="1044">
      <Node pos="s" depth="0" NCoef="0" IVar="77" Cut="1.4832565784454346e+00" cType="1" res="-9.6062378725036979e-04" rms="2.3358604311943054e-01" purity="4.9183514714241028e-01" nType="0">
        <Node pos="l" depth="1" NCoef="0" IVar="52" Cut="2.3312759399414062e+00" cType="1" res="-3.5827448591589928e-03" rms="2.3151648044586182e-01" purity="5.0236523151397705e-01" nType="0">
          <Node pos="l" depth="2" NCoef="0" IVar="-1" Cut="0.0000000000000000e+00" cType="1" res="-5.7079840451478958e-02" rms="-nan" purity="-9.6288537606596947e-03" nType="-99"/>
          <Node pos="r" depth="2" NCoef="0" IVar="-1" Cut="0.0000000000000000e+00" cType="1" res="-2.9579640249721706e-04" rms="2.3692065477371216e-01" purity="5.1428884267807007e-01" nType="-99"/>
        </Node>
        <Node pos="r" depth="1" NCoef="0" IVar="-1" Cut="0.0000000000000000e+00" cType="1" res="8.3017803728580475e-02" rms="2.8138047456741333e-01" purity="1.3235560059547424e-01" nType="-99"/>
      </Node>
    </BinaryTree>
    <BinaryTree type="DecisionTree" boostWeight="1.0000000000000000e+00" itree="1045">
      <Node pos="s" depth="0" NCoef="0" IVar="48" Cut="7.0280653238296509e-01" cType="1" res="1.2587308883666992e-03" rms="2.3023873567581177e-01" purity="5.0115674734115601e-01" nType="0">
        <Node pos="l" depth="1" NCoef="0" IVar="-1" Cut="0.0000000000000000e+00" cType="1" res="-7.1958154439926147e-02" rms="-nan" purity="2.0267659798264503e-02" nType="-99"/>
        <Node pos="r" depth="1" NCoef="0" IVar="55" Cut="-1.4540901184082031e+00" cType="1" res="4.4800932519137859e-03" rms="2.3674222826957703e-01" purity="5.1268237829208374e-01" nType="0">
          <Node pos="l" depth="2" NCoef="0" IVar="-1" Cut="0.0000000000000000e+00" cType="1" res="2.9299447312951088e-02" rms="2.9716226458549500e-01" purity="4.2285811901092529e-01" nType="-99"/>
          <Node pos="r" depth="2" NCoef="0" IVar="-1" Cut="0.0000000000000000e+00" cType="1" res="-4.4235153472982347e-04" rms="2.3013372719287872e-01" purity="5.2006858587265015e-01" nType="-99"/>
        </Node>
      </Node>
    </BinaryTree>
    <BinaryTree type="DecisionTree" boostWeight="1.0000000000000000e+00" itree="1046">
      <Node pos="s" depth="0" NCoef="0" IVar="37" Cut="-5.2703922986984253e-01" cType="1" res="-4.5322868973016739e-03" rms="2.2353830933570862e-01" purity="4.8541378974914551e-01" nType="0">
        <Node pos="l" depth="1" NCoef="0" IVar="40" Cut="1.3032972812652588e+00" cType="1" res="1.3782577589154243e-02" rms="2.5583344697952271e-01" purity="5.1223379373550415e-01" nType="0">
          <Node pos="l" depth="2" NCoef="0" IVar="-1" Cut="0.0000000000000000e+00" cType="1" res="2.0146025344729424e-03" rms="2.4604016542434692e-01" purity="5.2854794263839722e-01" nType="-99"/>
          <Node pos="r" depth="2" NCoef="0" IVar="-1" Cut="0.0000000000000000e+00" cType="1" res="3.4298505634069443e-02" rms="3.2506352663040161e-01" purity="3.5569626092910767e-01" nType="-99"/>
        </Node>
        <Node pos="r" depth="1" NCoef="0" IVar="57" Cut="-9.8989951610565186e-01" cType="1" res="-2.7007302269339561e-02" rms="1.7336292564868927e-01" purity="4.5250162482261658e-01" nType="0">
          <Node pos="l" depth="2" NCoef="0" IVar="-1" Cut="0.0000000000000000e+00" cType="1" res="-1.0054500401020050e-01" rms="-nan" purity="-6.8546257913112640e-02" nType="-99"/>
          <Node pos="r" depth="2" NCoef="0" IVar="-1" Cut="0.0000000000000000e+00" cType="1" res="-3.3785002306103706e-03" rms="2.3104791343212128e-01" purity="5.4883116483688354e-01" nType="-99"/>
        </Node>
      </Node>
    </BinaryTree>
    <BinaryTree type="DecisionTree" boostWeight="1.0000000000000000e+00" itree="1047">
      <Node pos="s" depth="0" NCoef="0" IVar="83" Cut="4.9734592437744141e-02" cType="1" res="1.1230459436774254e-02" rms="2.4608495831489563e-01" purity="5.0982379913330078e-01" nType="0">
        <Node pos="l" depth="1" NCoef="0" IVar="35" Cut="1.4454371929168701e+00" cType="1" res="-4.6773552894592285e-03" rms="2.1928614377975464e-01" purity="5.4694509506225586e-01" nType="0">
          <Node pos="l" depth="2" NCoef="0" IVar="-1" Cut="0.0000000000000000e+00" cType="1" res="1.0927987023023888e-04" rms="2.2896346449851990e-01" purity="5.5795437097549438e-01" nType="-99"/>
          <Node pos="r" depth="2" NCoef="0" IVar="-1" Cut="0.0000000000000000e+00" cType="1" res="-6.4782373607158661e-02" rms="-nan" purity="2.4920162558555603e-01" nType="-99"/>
        </Node>
        <Node pos="r" depth="1" NCoef="0" IVar="55" Cut="-1.4155099391937256e+00" cType="1" res="3.3809594810009003e-02" rms="2.7819126844406128e-01" purity="4.5713484287261963e-01" nType="0">
          <Node pos="l" depth="2" NCoef="0" IVar="-1" Cut="0.0000000000000000e+00" cType="1" res="5.1286112517118454e-02" rms="3.4343758225440979e-01" purity="3.6018517613410950e-01" nType="-99"/>
          <Node pos="r" depth="2" NCoef="0" IVar="-1" Cut="0.0000000000000000e+00" cType="1" res="8.1995222717523575e-03" rms="2.6740711927413940e-01" purity="4.6869137883186340e-01" nType="-99"/>
        </Node>
      </Node>
    </BinaryTree>
    <BinaryTree type="DecisionTree" boostWeight="1.0000000000000000e+00" itree="1048">
      <Node pos="s" depth="0" NCoef="0" IVar="42" Cut="5.8389663696289062e-02" cType="1" res="-1.3722017174586654e-03" rms="2.3562084138393402e-01" purity="4.9366080760955811e-01" nType="0">
        <Node pos="l" depth="1" NCoef="0" IVar="81" Cut="-9.0084683895111084e-01" cType="1" res="-1.3677826151251793e-02" rms="2.1153067052364349e-01" purity="5.0407105684280396e-01" nType="0">
          <Node pos="l" depth="2" NCoef="0" IVar="-1" Cut="0.0000000000000000e+00" cType="1" res="-7.5335563160479069e-03" rms="2.0555806159973145e-01" purity="5.3526675701141357e-01" nType="-99"/>
          <Node pos="r" depth="2" NCoef="0" IVar="-1" Cut="0.0000000000000000e+00" cType="1" res="1.5621434897184372e-02" rms="2.4483647942543030e-01" purity="2.7550983428955078e-01" nType="-99"/>
        </Node>
        <Node pos="r" depth="1" NCoef="0" IVar="55" Cut="1.0397974401712418e-02" cType="1" res="1.9502894952893257e-02" rms="2.7036628127098083e-01" purity="4.7600096464157104e-01" nType="0">
          <Node pos="l" depth="2" NCoef="0" IVar="-1" Cut="0.0000000000000000e+00" cType="1" res="3.3930484205484390e-02" rms="3.0650418996810913e-01" purity="3.0775937438011169e-01" nType="-99"/>
          <Node pos="r" depth="2" NCoef="0" IVar="-1" Cut="0.0000000000000000e+00" cType="1" res="-1.6730579955037683e-04" rms="2.5344115495681763e-01" purity="5.3516668081283569e-01" nType="-99"/>
        </Node>
      </Node>
    </BinaryTree>
    <BinaryTree type="DecisionTree" boostWeight="1.0000000000000000e+00" itree="1049">
      <Node pos="s" depth="0" NCoef="0" IVar="44" Cut="1.2345679104328156e-02" cType="1" res="5.4523176513612270e-03" rms="2.4373620748519897e-01" purity="5.0053322315216064e-01" nType="0">
        <Node pos="l" depth="1" NCoef="0" IVar="52" Cut="2.6025817394256592e+00" cType="1" res="3.3660419285297394e-02" rms="2.7310857176780701e-01" purity="4.4251695275306702e-01" nType="0">
          <Node pos="l" depth="2" NCoef="0" IVar="-1" Cut="0.0000000000000000e+00" cType="1" res="4.5531943440437317e-02" rms="3.5201224684715271e-01" purity="3.0402943491935730e-01" nType="-99"/>
          <Node pos="r" depth="2" NCoef="0" IVar="-1" Cut="0.0000000000000000e+00" cType="1" res="3.3136554993689060e-03" rms="2.4279324710369110e-01" purity="4.7873830795288086e-01" nType="-99"/>
        </Node>
        <Node pos="r" depth="1" NCoef="0" IVar="71" Cut="-3.8782626390457153e-02" cType="1" res="-8.7430914863944054e-03" rms="2.2619847953319550e-01" purity="5.2972924709320068e-01" nType="0">
          <Node pos="l" depth="2" NCoef="0" IVar="-1" Cut="0.0000000000000000e+00" cType="1" res="-4.8676412552595139e-03" rms="2.1915486454963684e-01" purity="5.3302234411239624e-01" nType="-99"/>
          <Node pos="r" depth="2" NCoef="0" IVar="-1" Cut="0.0000000000000000e+00" cType="1" res="3.9404671639204025e-02" rms="3.4955784678459167e-01" purity="4.4102162122726440e-01" nType="-99"/>
        </Node>
      </Node>
    </BinaryTree>
    <BinaryTree type="DecisionTree" boostWeight="1.0000000000000000e+00" itree="1050">
      <Node pos="s" depth="0" NCoef="0" IVar="19" Cut="1.3125581741333008e+00" cType="1" res="-2.9281133320182562e-03" rms="2.2512485086917877e-01" purity="5.0012725591659546e-01" nType="0">
        <Node pos="l" depth="1" NCoef="0" IVar="85" Cut="1.2345679104328156e-02" cType="1" res="-8.1858634948730469e-03" rms="2.1561835706233978e-01" purity="5.1009249687194824e-01" nType="0">
          <Node pos="l" depth="2" NCoef="0" IVar="-1" Cut="0.0000000000000000e+00" cType="1" res="2.9469016939401627e-02" rms="3.3510825037956238e-01" purity="3.7268316745758057e-01" nType="-99"/>
          <Node pos="r" depth="2" NCoef="0" IVar="-1" Cut="0.0000000000000000e+00" cType="1" res="-4.3050353415310383e-03" rms="2.0923084020614624e-01" purity="5.1492887735366821e-01" nType="-99"/>
        </Node>
        <Node pos="r" depth="1" NCoef="0" IVar="14" Cut="-1.1847769021987915e+00" cType="1" res="6.8929582834243774e-02" rms="3.2000550627708435e-01" purity="3.6393201351165771e-01" nType="0">
          <Node pos="l" depth="2" NCoef="0" IVar="-1" Cut="0.0000000000000000e+00" cType="1" res="6.8374700844287872e-02" rms="3.9278829097747803e-01" purity="3.6516296863555908e-01" nType="-99"/>
          <Node pos="r" depth="2" NCoef="0" IVar="-1" Cut="0.0000000000000000e+00" cType="1" res="7.7509731054306030e-03" rms="2.6497057080268860e-01" purity="3.6333969235420227e-01" nType="-99"/>
        </Node>
      </Node>
    </BinaryTree>
    <BinaryTree type="DecisionTree" boostWeight="1.0000000000000000e+00" itree="1051">
      <Node pos="s" depth="0" NCoef="0" IVar="5" Cut="5.3344035148620605e-01" cType="1" res="-7.0155155844986439e-04" rms="2.3581476509571075e-01" purity="4.9486228823661804e-01" nType="0">
        <Node pos="l" depth="1" NCoef="0" IVar="4" Cut="3.7560298442840576e+00" cType="1" res="-3.4794770181179047e-03" rms="2.3216091096401215e-01" purity="5.0141209363937378e-01" nType="0">
          <Node pos="l" depth="2" NCoef="0" IVar="-1" Cut="0.0000000000000000e+00" cType="1" res="2.6945278514176607e-03" rms="2.5366115570068359e-01" purity="4.5538321137428284e-01" nType="-99"/>
          <Node pos="r" depth="2" NCoef="0" IVar="-1" Cut="0.0000000000000000e+00" cType="1" res="-9.4808209687471390e-03" rms="1.8537458777427673e-01" purity="5.8465915918350220e-01" nType="-99"/>
        </Node>
        <Node pos="r" depth="1" NCoef="0" IVar="-1" Cut="0.0000000000000000e+00" cType="1" res="4.4473320245742798e-02" rms="3.2737377285957336e-01" purity="2.5743010640144348e-01" nType="-99"/>
      </Node>
    </BinaryTree>
    <BinaryTree type="DecisionTree" boostWeight="1.0000000000000000e+00" itree="1052">
      <Node pos="s" depth="0" NCoef="0" IVar="1" Cut="2.0936901569366455e+00" cType="1" res="5.0915461033582687e-03" rms="2.3298358917236328e-01" purity="5.0128155946731567e-01" nType="0">
        <Node pos="l" depth="1" NCoef="0" IVar="18" Cut="-1.1416558027267456e+00" cType="1" res="5.0853244960308075e-02" rms="2.9454359412193298e-01" purity="2.5239875912666321e-01" nType="0">
          <Node pos="l" depth="2" NCoef="0" IVar="-1" Cut="0.0000000000000000e+00" cType="1" res="7.2661056183278561e-03" rms="2.3902665078639984e-01" purity="2.5326180458068848e-01" nType="-99"/>
          <Node pos="r" depth="2" NCoef="0" IVar="-1" Cut="0.0000000000000000e+00" cType="1" res="7.3820203542709351e-02" rms="4.1096520423889160e-01" purity="2.4958279728889465e-01" nType="-99"/>
        </Node>
        <Node pos="r" depth="1" NCoef="0" IVar="69" Cut="7.8611886501312256e-01" cType="1" res="-4.2660138569772243e-04" rms="2.2379110753536224e-01" purity="5.3129291534423828e-01" nType="0">
          <Node pos="l" depth="2" NCoef="0" IVar="-1" Cut="0.0000000000000000e+00" cType="1" res="-3.4335207194089890e-02" rms="-nan" purity="1.7088674008846283e-01" nType="-99"/>
          <Node pos="r" depth="2" NCoef="0" IVar="-1" Cut="0.0000000000000000e+00" cType="1" res="1.4894352061673999e-03" rms="2.3076519370079041e-01" purity="5.5250531435012817e-01" nType="-99"/>
        </Node>
      </Node>
    </BinaryTree>
    <BinaryTree type="DecisionTree" boostWeight="1.0000000000000000e+00" itree="1053">
      <Node pos="s" depth="0" NCoef="0" IVar="10" Cut="3.6930198669433594e+00" cType="1" res="2.5084586814045906e-03" rms="2.3733195662498474e-01" purity="4.9803721904754639e-01" nType="0">
        <Node pos="l" depth="1" NCoef="0" IVar="3" Cut="5.3267598152160645e+00" cType="1" res="-1.9979702774435282e-03" rms="2.3319886624813080e-01" purity="4.9233743548393250e-01" nType="0">
          <Node pos="l" depth="2" NCoef="0" IVar="-1" Cut="0.0000000000000000e+00" cType="1" res="6.3232099637389183e-04" rms="2.4181753396987915e-01" purity="5.0361448526382446e-01" nType="-99"/>
          <Node pos="r" depth="2" NCoef="0" IVar="-1" Cut="0.0000000000000000e+00" cType="1" res="-3.5793017596006393e-02" rms="-nan" purity="2.1552671492099762e-01" nType="-99"/>
        </Node>
        <Node pos="r" depth="1" NCoef="0" IVar="81" Cut="-1.6079925298690796e+00" cType="1" res="8.1024065613746643e-02" rms="2.8929430246353149e-01" purity="5.9734493494033813e-01" nType="0">
          <Node pos="l" depth="2" NCoef="0" IVar="-1" Cut="0.0000000000000000e+00" cType="1" res="4.0017794817686081e-03" rms="1.7208604514598846e-01" purity="6.5252840518951416e-01" nType="-99"/>
          <Node pos="r" depth="2" NCoef="0" IVar="-1" Cut="0.0000000000000000e+00" cType="1" res="6.9522507488727570e-02" rms="3.8922771811485291e-01" purity="5.0710791349411011e-01" nType="-99"/>
        </Node>
      </Node>
    </BinaryTree>
    <BinaryTree type="DecisionTree" boostWeight="1.0000000000000000e+00" itree="1054">
      <Node pos="s" depth="0" NCoef="0" IVar="82" Cut="1.6817219257354736e+00" cType="1" res="-5.8406647294759750e-03" rms="2.2552600502967834e-01" purity="4.8970678448677063e-01" nType="0">
        <Node pos="l" depth="1" NCoef="0" IVar="9" Cut="1.1111111193895340e-01" cType="1" res="-8.5934018716216087e-03" rms="2.2136327624320984e-01" purity="4.9435031414031982e-01" nType="0">
          <Node pos="l" depth="2" NCoef="0" IVar="-1" Cut="0.0000000000000000e+00" cType="1" res="-4.1212998330593109e-03" rms="2.1646575629711151e-01" purity="4.9808236956596375e-01" nType="-99"/>
          <Node pos="r" depth="2" NCoef="0" IVar="-1" Cut="0.0000000000000000e+00" cType="1" res="3.9757486432790756e-02" rms="3.6128982901573181e-01" purity="3.2797077298164368e-01" nType="-99"/>
        </Node>
        <Node pos="r" depth="1" NCoef="0" IVar="-1" Cut="0.0000000000000000e+00" cType="1" res="3.6154735833406448e-02" rms="3.3270084857940674e-01" purity="3.1191486120223999e-01" nType="-99"/>
      </Node>
    </BinaryTree>
    <BinaryTree type="DecisionTree" boostWeight="1.0000000000000000e+00" itree="1055">
      <Node pos="s" depth="0" NCoef="0" IVar="31" Cut="2.4763317108154297e+00" cType="1" res="1.6681647393852472e-03" rms="2.2970549762248993e-01" purity="5.0088101625442505e-01" nType="0">
        <Node pos="l" depth="1" NCoef="0" IVar="0" Cut="1.0820583105087280e+00" cType="1" res="-5.6950338184833527e-02" rms="7.8310705721378326e-02" purity="1.0546454042196274e-01" nType="0">
          <Node pos="l" depth="2" NCoef="0" IVar="-1" Cut="0.0000000000000000e+00" cType="1" res="-4.2259477078914642e-02" rms="-nan" purity="8.8271908462047577e-02" nType="-99"/>
          <Node pos="r" depth="2" NCoef="0" IVar="-1" Cut="0.0000000000000000e+00" cType="1" res="4.0181457996368408e-02" rms="3.0482611060142517e-01" purity="1.4304019510746002e-01" nType="-99"/>
        </Node>
        <Node pos="r" depth="1" NCoef="0" IVar="0" Cut="7.1119570732116699e-01" cType="1" res="6.1400113627314568e-03" rms="2.3672750592231750e-01" purity="5.3104627132415771e-01" nType="0">
          <Node pos="l" depth="2" NCoef="0" IVar="-1" Cut="0.0000000000000000e+00" cType="1" res="7.9003041610121727e-03" rms="2.6302984356880188e-01" purity="6.2396818399429321e-01" nType="-99"/>
          <Node pos="r" depth="2" NCoef="0" IVar="-1" Cut="0.0000000000000000e+00" cType="1" res="-2.4053745437413454e-03" rms="2.1404846012592316e-01" purity="4.6150463819503784e-01" nType="-99"/>
        </Node>
      </Node>
    </BinaryTree>
    <BinaryTree type="DecisionTree" boostWeight="1.0000000000000000e+00" itree="1056">
      <Node pos="s" depth="0" NCoef="0" IVar="61" Cut="1.2981595993041992e+00" cType="1" res="4.6701980754733086e-03" rms="2.4064986407756805e-01" purity="4.9691459536552429e-01" nType="0">
        <Node pos="l" depth="1" NCoef="0" IVar="84" Cut="3.7127459049224854e-01" cType="1" res="-1.1470923200249672e-03" rms="2.3042827844619751e-01" purity="5.1619309186935425e-01" nType="0">
          <Node pos="l" depth="2" NCoef="0" IVar="-1" Cut="0.0000000000000000e+00" cType="1" res="8.6903816554695368e-04" rms="2.3789234459400177e-01" purity="5.2322739362716675e-01" nType="-99"/>
          <Node pos="r" depth="2" NCoef="0" IVar="-1" Cut="0.0000000000000000e+00" cType="1" res="-3.7332415580749512e-02" rms="-nan" purity="3.1551399827003479e-01" nType="-99"/>
        </Node>
        <Node pos="r" depth="1" NCoef="0" IVar="57" Cut="-1.0314115881919861e-01" cType="1" res="5.4382104426622391e-02" rms="3.1032252311706543e-01" purity="3.3216899633407593e-01" nType="0">
          <Node pos="l" depth="2" NCoef="0" IVar="-1" Cut="0.0000000000000000e+00" cType="1" res="9.0956613421440125e-02" rms="3.6066403985023499e-01" purity="2.2658012807369232e-01" nType="-99"/>
          <Node pos="r" depth="2" NCoef="0" IVar="-1" Cut="0.0000000000000000e+00" cType="1" res="4.2487392202019691e-03" rms="2.7887067198753357e-01" purity="3.7095648050308228e-01" nType="-99"/>
        </Node>
      </Node>
    </BinaryTree>
    <BinaryTree type="DecisionTree" boostWeight="1.0000000000000000e+00" itree="1057">
      <Node pos="s" depth="0" NCoef="0" IVar="40" Cut="1.5564057826995850e+00" cType="1" res="4.6648364514112473e-03" rms="2.4265408515930176e-01" purity="5.0151979923248291e-01" nType="0">
        <Node pos="l" depth="1" NCoef="0" IVar="71" Cut="-1.7452181875705719e-01" cType="1" res="1.5208310214802623e-03" rms="2.3943512141704559e-01" purity="5.0833350419998169e-01" nType="0">
          <Node pos="l" depth="2" NCoef="0" IVar="-1" Cut="0.0000000000000000e+00" cType="1" res="1.8525825580582023e-03" rms="2.4594186246395111e-01" purity="5.1545184850692749e-01" nType="-99"/>
          <Node pos="r" depth="2" NCoef="0" IVar="-1" Cut="0.0000000000000000e+00" cType="1" res="-2.5034695863723755e-02" rms="-nan" purity="3.7915000319480896e-01" nType="-99"/>
        </Node>
        <Node pos="r" depth="1" NCoef="0" IVar="16" Cut="-4.9402004480361938e-01" cType="1" res="7.3916517198085785e-02" rms="2.9673036932945251e-01" purity="3.5143706202507019e-01" nType="0">
          <Node pos="l" depth="2" NCoef="0" IVar="-1" Cut="0.0000000000000000e+00" cType="1" res="5.8868184685707092e-02" rms="3.8392609357833862e-01" purity="3.8237309455871582e-01" nType="-99"/>
          <Node pos="r" depth="2" NCoef="0" IVar="-1" Cut="0.0000000000000000e+00" cType="1" res="3.9698902401141822e-04" rms="1.3300922513008118e-01" purity="3.2027503848075867e-01" nType="-99"/>
        </Node>
      </Node>
    </BinaryTree>
    <BinaryTree type="DecisionTree" boostWeight="1.0000000000000000e+00" itree="1058">
      <Node pos="s" depth="0" NCoef="0" IVar="81" Cut="-6.2695252895355225e-01" cType="1" res="-2.0217881537973881e-03" rms="2.3762826621532440e-01" purity="4.9644312262535095e-01" nType="0">
        <Node pos="l" depth="1" NCoef="0" IVar="34" Cut="-2.7497971430420876e-02" cType="1" res="2.4723845999687910e-03" rms="2.4712568521499634e-01" purity="5.1718968152999878e-01" nType="0">
          <Node pos="l" depth="2" NCoef="0" IVar="-1" Cut="0.0000000000000000e+00" cType="1" res="1.4899026602506638e-02" rms="2.7524349093437195e-01" purity="3.0160024762153625e-01" nType="-99"/>
          <Node pos="r" depth="2" NCoef="0" IVar="-1" Cut="0.0000000000000000e+00" cType="1" res="-2.7509429492056370e-03" rms="2.3734742403030396e-01" purity="5.7975566387176514e-01" nType="-99"/>
        </Node>
        <Node pos="r" depth="1" NCoef="0" IVar="35" Cut="-1.1843472719192505e+00" cType="1" res="-3.8914535194635391e-02" rms="-nan" purity="1.1868336796760559e-01" nType="-99"/>
      </Node>
    </BinaryTree>
    <BinaryTree type="DecisionTree" boostWeight="1.0000000000000000e+00" itree="1059">
      <Node pos="s" depth="0" NCoef="0" IVar="73" Cut="3.0578498840332031e+00" cType="1" res="-3.3251296263188124e-03" rms="2.3137177526950836e-01" purity="4.9248790740966797e-01" nType="0">
        <Node pos="l" depth="1" NCoef="0" IVar="50" Cut="-3.2965230941772461e-01" cType="1" res="-1.1553687974810600e-02" rms="2.1980012953281403e-01" purity="4.6396538615226746e-01" nType="0">
          <Node pos="l" depth="2" NCoef="0" IVar="-1" Cut="0.0000000000000000e+00" cType="1" res="-5.9976256452500820e-03" rms="2.1494746208190918e-01" purity="4.6139344573020935e-01" nType="-99"/>
          <Node pos="r" depth="2" NCoef="0" IVar="-1" Cut="0.0000000000000000e+00" cType="1" res="1.6190981492400169e-02" rms="2.6285508275032043e-01" purity="4.9469542503356934e-01" nType="-99"/>
        </Node>
        <Node pos="r" depth="1" NCoef="0" IVar="59" Cut="-1.3383667469024658e+00" cType="1" res="3.2394301146268845e-02" rms="2.7317786216735840e-01" purity="6.1630159616470337e-01" nType="0">
          <Node pos="l" depth="2" NCoef="0" IVar="-1" Cut="0.0000000000000000e+00" cType="1" res="3.9578776806592941e-02" rms="3.4079387784004211e-01" purity="4.7803935408592224e-01" nType="-99"/>
          <Node pos="r" depth="2" NCoef="0" IVar="-1" Cut="0.0000000000000000e+00" cType="1" res="4.1658631525933743e-03" rms="2.4638786911964417e-01" purity="6.5551453828811646e-01" nType="-99"/>
        </Node>
      </Node>
    </BinaryTree>
    <BinaryTree type="DecisionTree" boostWeight="1.0000000000000000e+00" itree="1060">
      <Node pos="s" depth="0" NCoef="0" IVar="60" Cut="-6.9773930311203003e-01" cType="1" res="1.6725115710869431e-03" rms="2.3392395675182343e-01" purity="4.9703842401504517e-01" nType="0">
        <Node pos="l" depth="1" NCoef="0" IVar="57" Cut="1.2137882709503174e+00" cType="1" res="-3.6712782457470894e-03" rms="2.2612659633159637e-01" purity="5.1670986413955688e-01" nType="0">
          <Node pos="l" depth="2" NCoef="0" IVar="-1" Cut="0.0000000000000000e+00" cType="1" res="-1.7927138134837151e-02" rms="-nan" purity="7.9820670187473297e-02" nType="-99"/>
          <Node pos="r" depth="2" NCoef="0" IVar="-1" Cut="0.0000000000000000e+00" cType="1" res="2.6044116821140051e-03" rms="2.6408240199089050e-01" purity="6.7255026102066040e-01" nType="-99"/>
        </Node>
        <Node pos="r" depth="1" NCoef="0" IVar="16" Cut="2.7394972275942564e-03" cType="1" res="6.4586639404296875e-02" rms="3.0439943075180054e-01" purity="2.6544085144996643e-01" nType="0">
          <Node pos="l" depth="2" NCoef="0" IVar="-1" Cut="0.0000000000000000e+00" cType="1" res="1.0021969210356474e-03" rms="1.9423887133598328e-01" purity="2.1797078847885132e-01" nType="-99"/>
          <Node pos="r" depth="2" NCoef="0" IVar="-1" Cut="0.0000000000000000e+00" cType="1" res="8.0166079103946686e-02" rms="4.1494721174240112e-01" purity="3.5078436136245728e-01" nType="-99"/>
        </Node>
      </Node>
    </BinaryTree>
    <BinaryTree type="DecisionTree" boostWeight="1.0000000000000000e+00" itree="1061">
      <Node pos="s" depth="0" NCoef="0" IVar="39" Cut="-6.7034894227981567e-01" cType="1" res="-6.7028575576841831e-03" rms="2.2016872465610504e-01" purity="5.0467783212661743e-01" nType="0">
        <Node pos="l" depth="1" NCoef="0" IVar="88" Cut="7.9501318931579590e-01" cType="1" res="-2.0259814336895943e-03" rms="2.3006950318813324e-01" purity="5.2855414152145386e-01" nType="0">
          <Node pos="l" depth="2" NCoef="0" IVar="-1" Cut="0.0000000000000000e+00" cType="1" res="-3.3989097923040390e-02" rms="-nan" purity="4.3895182013511658e-01" nType="-99"/>
          <Node pos="r" depth="2" NCoef="0" IVar="-1" Cut="0.0000000000000000e+00" cType="1" res="1.3600356760434806e-04" rms="2.3306098580360413e-01" purity="5.3049862384796143e-01" nType="-99"/>
        </Node>
        <Node pos="r" depth="1" NCoef="0" IVar="10" Cut="3.2796969413757324e+00" cType="1" res="-4.3917335569858551e-02" rms="-nan" purity="1.1280566453933716e-01" nType="-99"/>
      </Node>
    </BinaryTree>
    <BinaryTree type="DecisionTree" boostWeight="1.0000000000000000e+00" itree="1062">
      <Node pos="s" depth="0" NCoef="0" IVar="17" Cut="-1.4537599086761475e+00" cType="1" res="-2.7976264245808125e-03" rms="2.3539544641971588e-01" purity="4.8888522386550903e-01" nType="0">
        <Node pos="l" depth="1" NCoef="0" IVar="-1" Cut="0.0000000000000000e+00" cType="1" res="2.0276406407356262e-01" rms="3.1731954216957092e-01" purity="1.2260041385889053e-01" nType="-99"/>
        <Node pos="r" depth="1" NCoef="0" IVar="11" Cut="1.2345679104328156e-02" cType="1" res="-6.2696635723114014e-03" rms="2.3149007558822632e-01" purity="5.0044822692871094e-01" nType="0">
          <Node pos="l" depth="2" NCoef="0" IVar="-1" Cut="0.0000000000000000e+00" cType="1" res="-2.3197850212454796e-02" rms="-nan" purity="2.6804858446121216e-01" nType="-99"/>
          <Node pos="r" depth="2" NCoef="0" IVar="-1" Cut="0.0000000000000000e+00" cType="1" res="-1.5980462194420397e-04" rms="2.3970232903957367e-01" purity="5.1861649751663208e-01" nType="-99"/>
        </Node>
      </Node>
    </BinaryTree>
    <BinaryTree type="DecisionTree" boostWeight="1.0000000000000000e+00" itree="1063">
      <Node pos="s" depth="0" NCoef="0" IVar="10" Cut="2.8192429542541504e+00" cType="1" res="-2.7837133966386318e-03" rms="2.2201238572597504e-01" purity="4.9127417802810669e-01" nType="0">
        <Node pos="l" depth="1" NCoef="0" IVar="88" Cut="9.4284147024154663e-01" cType="1" res="-2.9524488374590874e-02" rms="-nan" purity="1.2205761671066284e-01" nType="-99"/>
        <Node pos="r" depth="1" NCoef="0" IVar="1" Cut="2.3931534290313721e+00" cType="1" res="1.3618995435535908e-03" rms="2.3025760054588318e-01" purity="5.1343590021133423e-01" nType="0">
          <Node pos="l" depth="2" NCoef="0" IVar="-1" Cut="0.0000000000000000e+00" cType="1" res="-1.3236046768724918e-02" rms="1.7395971715450287e-01" purity="2.5728362798690796e-01" nType="-99"/>
          <Node pos="r" depth="2" NCoef="0" IVar="-1" Cut="0.0000000000000000e+00" cType="1" res="3.6511986982077360e-03" rms="2.4188841879367828e-01" purity="5.7979989051818848e-01" nType="-99"/>
        </Node>
      </Node>
    </BinaryTree>
    <BinaryTree type="DecisionTree" boostWeight="1.0000000000000000e+00" itree="1064">
      <Node pos="s" depth="0" NCoef="0" IVar="0" Cut="2.8767967224121094e-01" cType="1" res="4.7291172668337822e-03" rms="2.3570080101490021e-01" purity="5.0578689575195312e-01" nType="0">
        <Node pos="l" depth="1" NCoef="0" IVar="40" Cut="6.4412391185760498e-01" cType="1" res="-4.7062594443559647e-02" rms="1.1887499690055847e-01" purity="5.0599843263626099e-01" nType="0">
          <Node pos="l" depth="2" NCoef="0" IVar="-1" Cut="0.0000000000000000e+00" cType="1" res="4.5560286380350590e-03" rms="2.1826431155204773e-01" purity="6.5149146318435669e-01" nType="-99"/>
          <Node pos="r" depth="2" NCoef="0" IVar="-1" Cut="0.0000000000000000e+00" cType="1" res="-4.0636401623487473e-02" rms="-nan" purity="3.7880346179008484e-01" nType="-99"/>
        </Node>
        <Node pos="r" depth="1" NCoef="0" IVar="52" Cut="2.4140229225158691e+00" cType="1" res="1.0653980076313019e-02" rms="2.4485030770301819e-01" purity="5.0576263666152954e-01" nType="0">
          <Node pos="l" depth="2" NCoef="0" IVar="-1" Cut="0.0000000000000000e+00" cType="1" res="3.4825541079044342e-02" rms="3.3780273795127869e-01" purity="2.3298905789852142e-01" nType="-99"/>
          <Node pos="r" depth="2" NCoef="0" IVar="-1" Cut="0.0000000000000000e+00" cType="1" res="2.1419536788016558e-03" rms="2.3763665556907654e-01" purity="5.2133768796920776e-01" nType="-99"/>
        </Node>
      </Node>
    </BinaryTree>
    <BinaryTree type="DecisionTree" boostWeight="1.0000000000000000e+00" itree="1065">
      <Node pos="s" depth="0" NCoef="0" IVar="63" Cut="-5.6043392419815063e-01" cType="1" res="4.1109444573521614e-03" rms="2.3668764531612396e-01" purity="5.0991410017013550e-01" nType="0">
        <Node pos="l" depth="1" NCoef="0" IVar="80" Cut="-1.4170354604721069e+00" cType="1" res="8.8523633778095245e-02" rms="3.4001186490058899e-01" purity="5.2913504838943481e-01" nType="0">
          <Node pos="l" depth="2" NCoef="0" IVar="-1" Cut="0.0000000000000000e+00" cType="1" res="5.2765384316444397e-04" rms="2.2550244629383087e-01" purity="6.2547731399536133e-01" nType="-99"/>
          <Node pos="r" depth="2" NCoef="0" IVar="-1" Cut="0.0000000000000000e+00" cType="1" res="6.5691240131855011e-02" rms="4.0250584483146667e-01" purity="4.4016763567924500e-01" nType="-99"/>
        </Node>
        <Node pos="r" depth="1" NCoef="0" IVar="19" Cut="2.1130684018135071e-01" cType="1" res="3.0244127265177667e-04" rms="2.3020994663238525e-01" purity="5.0904685258865356e-01" nType="0">
          <Node pos="l" depth="2" NCoef="0" IVar="-1" Cut="0.0000000000000000e+00" cType="1" res="-2.0732030272483826e-02" rms="1.1436821520328522e-01" purity="5.5173945426940918e-01" nType="-99"/>
          <Node pos="r" depth="2" NCoef="0" IVar="-1" Cut="0.0000000000000000e+00" cType="1" res="2.0393489394336939e-03" rms="2.3787778615951538e-01" purity="5.0485098361968994e-01" nType="-99"/>
        </Node>
      </Node>
    </BinaryTree>
    <BinaryTree type="DecisionTree" boostWeight="1.0000000000000000e+00" itree="1066">
      <Node pos="s" depth="0" NCoef="0" IVar="81" Cut="-6.2690997123718262e-01" cType="1" res="-1.9821092428173870e-04" rms="2.3663103580474854e-01" purity="4.9783328175544739e-01" nType="0">
        <Node pos="l" depth="1" NCoef="0" IVar="27" Cut="1.9413778781890869e+00" cType="1" res="3.7647983990609646e-03" rms="2.4544200301170349e-01" purity="5.1732897758483887e-01" nType="0">
          <Node pos="l" depth="2" NCoef="0" IVar="-1" Cut="0.0000000000000000e+00" cType="1" res="7.5084348209202290e-03" rms="2.7094033360481262e-01" purity="3.9991849660873413e-01" nType="-99"/>
          <Node pos="r" depth="2" NCoef="0" IVar="-1" Cut="0.0000000000000000e+00" cType="1" res="-4.4963429681956768e-03" rms="2.1776258945465088e-01" purity="6.2679570913314819e-01" nType="-99"/>
        </Node>
        <Node pos="r" depth="1" NCoef="0" IVar="5" Cut="2.2719365358352661e-01" cType="1" res="-3.2304670661687851e-02" rms="-nan" purity="1.4120654761791229e-01" nType="-99"/>
      </Node>
    </BinaryTree>
    <BinaryTree type="DecisionTree" boostWeight="1.0000000000000000e+00" itree="1067">
      <Node pos="s" depth="0" NCoef="0" IVar="77" Cut="1.4821660518646240e+00" cType="1" res="-2.4621582124382257e-03" rms="2.2666594386100769e-01" purity="4.8784798383712769e-01" nType="0">
        <Node pos="l" depth="1" NCoef="0" IVar="5" Cut="5.3389519453048706e-01" cType="1" res="8.8909186888486147e-04" rms="2.3606422543525696e-01" purity="5.0233048200607300e-01" nType="0">
          <Node pos="l" depth="2" NCoef="0" IVar="-1" Cut="0.0000000000000000e+00" cType="1" res="-6.4672552980482578e-04" rms="2.3214085400104523e-01" purity="5.0775468349456787e-01" nType="-99"/>
          <Node pos="r" depth="2" NCoef="0" IVar="-1" Cut="0.0000000000000000e+00" cType="1" res="5.2592236548662186e-02" rms="3.4715116024017334e-01" purity="2.6947459578514099e-01" nType="-99"/>
        </Node>
        <Node pos="r" depth="1" NCoef="0" IVar="-1" Cut="0.0000000000000000e+00" cType="1" res="-2.6286512613296509e-01" rms="-nan" purity="-1.0827139019966125e-01" nType="-99"/>
      </Node>
    </BinaryTree>
    <BinaryTree type="DecisionTree" boostWeight="1.0000000000000000e+00" itree="1068">
      <Node pos="s" depth="0" NCoef="0" IVar="40" Cut="1.5270667076110840e+00" cType="1" res="1.9163846736773849e-03" rms="2.2318454086780548e-01" purity="5.0727576017379761e-01" nType="0">
        <Node pos="l" depth="1" NCoef="0" IVar="8" Cut="-1.3573919236660004e-01" cType="1" res="6.0111279599368572e-03" rms="2.3194541037082672e-01" purity="5.2181363105773926e-01" nType="0">
          <Node pos="l" depth="2" NCoef="0" IVar="-1" Cut="0.0000000000000000e+00" cType="1" res="3.2775748986750841e-03" rms="2.3889295756816864e-01" purity="5.2912014722824097e-01" nType="-99"/>
          <Node pos="r" depth="2" NCoef="0" IVar="-1" Cut="0.0000000000000000e+00" cType="1" res="-4.1947707533836365e-02" rms="-nan" purity="2.5041180849075317e-01" nType="-99"/>
        </Node>
        <Node pos="r" depth="1" NCoef="0" IVar="52" Cut="2.9631538391113281e+00" cType="1" res="-4.5480255037546158e-02" rms="-nan" purity="1.5411715209484100e-01" nType="-99"/>
      </Node>
    </BinaryTree>
    <BinaryTree type="DecisionTree" boostWeight="1.0000000000000000e+00" itree="1069">
      <Node pos="s" depth="0" NCoef="0" IVar="48" Cut="1.2147678136825562e+00" cType="1" res="-8.0487690865993500e-03" rms="2.1554648876190186e-01" purity="4.9042040109634399e-01" nType="0">
        <Node pos="l" depth="1" NCoef="0" IVar="62" Cut="1.4210326969623566e-01" cType="1" res="2.5548998266458511e-02" rms="2.6831945776939392e-01" purity="2.8439208865165710e-01" nType="0">
          <Node pos="l" depth="2" NCoef="0" IVar="-1" Cut="0.0000000000000000e+00" cType="1" res="-5.1830345764756203e-03" rms="2.0756594836711884e-01" purity="2.7467915415763855e-01" nType="-99"/>
          <Node pos="r" depth="2" NCoef="0" IVar="-1" Cut="0.0000000000000000e+00" cType="1" res="4.2711731046438217e-02" rms="3.5442981123924255e-01" purity="3.0601826310157776e-01" nType="-99"/>
        </Node>
        <Node pos="r" depth="1" NCoef="0" IVar="17" Cut="1.4858303070068359e+00" cType="1" res="-1.5182007104158401e-02" rms="2.0186215639114380e-01" purity="5.3416287899017334e-01" nType="0">
          <Node pos="l" depth="2" NCoef="0" IVar="-1" Cut="0.0000000000000000e+00" cType="1" res="-2.2244201973080635e-02" rms="-nan" purity="9.7870938479900360e-02" nType="-99"/>
          <Node pos="r" depth="2" NCoef="0" IVar="-1" Cut="0.0000000000000000e+00" cType="1" res="6.7509926157072186e-04" rms="2.6890906691551208e-01" purity="7.7504473924636841e-01" nType="-99"/>
        </Node>
      </Node>
    </BinaryTree>
    <BinaryTree type="DecisionTree" boostWeight="1.0000000000000000e+00" itree="1070">
      <Node pos="s" depth="0" NCoef="0" IVar="17" Cut="-1.3765423297882080e+00" cType="1" res="1.7591335563338362e-05" rms="2.2653923928737640e-01" purity="4.9791362881660461e-01" nType="0">
        <Node pos="l" depth="1" NCoef="0" IVar="38" Cut="7.7848535776138306e-01" cType="1" res="-3.3253392577171326e-01" rms="-nan" purity="-8.0344296991825104e-02" nType="-99"/>
        <Node pos="r" depth="1" NCoef="0" IVar="22" Cut="1.2345679104328156e-02" cType="1" res="7.9639367759227753e-03" rms="2.5167983770370483e-01" purity="5.4946547746658325e-01" nType="0">
          <Node pos="l" depth="2" NCoef="0" IVar="-1" Cut="0.0000000000000000e+00" cType="1" res="2.7078486979007721e-02" rms="3.4087875485420227e-01" purity="4.6176141500473022e-01" nType="-99"/>
          <Node pos="r" depth="2" NCoef="0" IVar="-1" Cut="0.0000000000000000e+00" cType="1" res="1.4845426194369793e-03" rms="2.4746663868427277e-01" purity="5.5227124691009521e-01" nType="-99"/>
        </Node>
      </Node>
    </BinaryTree>
    <BinaryTree type="DecisionTree" boostWeight="1.0000000000000000e+00" itree="1071">
      <Node pos="s" depth="0" NCoef="0" IVar="34" Cut="-1.4927055835723877e+00" cType="1" res="-1.3558452483266592e-03" rms="2.1449832618236542e-01" purity="5.0696545839309692e-01" nType="0">
        <Node pos="l" depth="1" NCoef="0" IVar="-1" Cut="0.0000000000000000e+00" cType="1" res="-3.3122889697551727e-02" rms="-nan" purity="3.3302155137062073e-01" nType="-99"/>
        <Node pos="r" depth="1" NCoef="0" IVar="27" Cut="1.0420196056365967e+00" cType="1" res="2.1460193675011396e-03" rms="2.2282947599887848e-01" purity="5.1327902078628540e-01" nType="0">
          <Node pos="l" depth="2" NCoef="0" IVar="-1" Cut="0.0000000000000000e+00" cType="1" res="-1.9550126045942307e-02" rms="-nan" purity="1.9282433390617371e-01" nType="-99"/>
          <Node pos="r" depth="2" NCoef="0" IVar="-1" Cut="0.0000000000000000e+00" cType="1" res="2.8705415315926075e-03" rms="2.3599676787853241e-01" purity="5.5299735069274902e-01" nType="-99"/>
        </Node>
      </Node>
    </BinaryTree>
    <BinaryTree type="DecisionTree" boostWeight="1.0000000000000000e+00" itree="1072">
      <Node pos="s" depth="0" NCoef="0" IVar="46" Cut="9.4879090785980225e-01" cType="1" res="-3.5584761644713581e-04" rms="2.2816543281078339e-01" purity="4.9982917308807373e-01" nType="0">
        <Node pos="l" depth="1" NCoef="0" IVar="34" Cut="1.1282229423522949e+00" cType="1" res="1.7952267080545425e-02" rms="2.6417165994644165e-01" purity="5.7739984989166260e-01" nType="0">
          <Node pos="l" depth="2" NCoef="0" IVar="-1" Cut="0.0000000000000000e+00" cType="1" res="1.6998512670397758e-02" rms="2.7126917243003845e-01" purity="3.7993207573890686e-01" nType="-99"/>
          <Node pos="r" depth="2" NCoef="0" IVar="-1" Cut="0.0000000000000000e+00" cType="1" res="1.3960761716589332e-03" rms="2.6003360748291016e-01" purity="6.5441441535949707e-01" nType="-99"/>
        </Node>
        <Node pos="r" depth="1" NCoef="0" IVar="31" Cut="2.7823798656463623e+00" cType="1" res="-1.8871935084462166e-02" rms="1.8289080262184143e-01" purity="4.2137739062309265e-01" nType="0">
          <Node pos="l" depth="2" NCoef="0" IVar="-1" Cut="0.0000000000000000e+00" cType="1" res="-3.0603883787989616e-02" rms="-nan" purity="1.3469868898391724e-01" nType="-99"/>
          <Node pos="r" depth="2" NCoef="0" IVar="-1" Cut="0.0000000000000000e+00" cType="1" res="-1.6230578767135739e-03" rms="2.1807336807250977e-01" purity="5.0598400831222534e-01" nType="-99"/>
        </Node>
      </Node>
    </BinaryTree>
    <BinaryTree type="DecisionTree" boostWeight="1.0000000000000000e+00" itree="1073">
      <Node pos="s" depth="0" NCoef="0" IVar="27" Cut="2.2469267845153809e+00" cType="1" res="9.9329287186264992e-03" rms="2.4161805212497711e-01" purity="5.0561147928237915e-01" nType="0">
        <Node pos="l" depth="1" NCoef="0" IVar="18" Cut="-8.0608612298965454e-01" cType="1" res="2.2080685943365097e-02" rms="2.5497204065322876e-01" purity="4.2440912127494812e-01" nType="0">
          <Node pos="l" depth="2" NCoef="0" IVar="-1" Cut="0.0000000000000000e+00" cType="1" res="4.7824410721659660e-03" rms="2.4428306519985199e-01" purity="4.3468326330184937e-01" nType="-99"/>
          <Node pos="r" depth="2" NCoef="0" IVar="-1" Cut="0.0000000000000000e+00" cType="1" res="3.8459789007902145e-02" rms="3.3288899064064026e-01" purity="3.2023072242736816e-01" nType="-99"/>
        </Node>
        <Node pos="r" depth="1" NCoef="0" IVar="17" Cut="-9.5141077041625977e-01" cType="1" res="-1.1801734566688538e-02" rms="2.1395769715309143e-01" purity="6.5089797973632812e-01" nType="0">
          <Node pos="l" depth="2" NCoef="0" IVar="-1" Cut="0.0000000000000000e+00" cType="1" res="-2.7795812487602234e-01" rms="-nan" purity="-1.0985646396875381e-01" nType="-99"/>
          <Node pos="r" depth="2" NCoef="0" IVar="-1" Cut="0.0000000000000000e+00" cType="1" res="1.7619901336729527e-04" rms="2.4970370531082153e-01" purity="7.3260623216629028e-01" nType="-99"/>
        </Node>
      </Node>
    </BinaryTree>
    <BinaryTree type="DecisionTree" boostWeight="1.0000000000000000e+00" itree="1074">
      <Node pos="s" depth="0" NCoef="0" IVar="72" Cut="1.2222222089767456e+00" cType="1" res="4.4332086108624935e-03" rms="2.4297402799129486e-01" purity="4.9779602885246277e-01" nType="0">
        <Node pos="l" depth="1" NCoef="0" IVar="17" Cut="1.7071314156055450e-01" cType="1" res="7.1569290012121201e-03" rms="2.4846504628658295e-01" purity="5.0508135557174683e-01" nType="0">
          <Node pos="l" depth="2" NCoef="0" IVar="-1" Cut="0.0000000000000000e+00" cType="1" res="5.2296012639999390e-02" rms="1.9559910893440247e-01" purity="6.5858609974384308e-02" nType="-99"/>
          <Node pos="r" depth="2" NCoef="0" IVar="-1" Cut="0.0000000000000000e+00" cType="1" res="-1.4229559747036546e-04" rms="2.5943300127983093e-01" purity="6.1474668979644775e-01" nType="-99"/>
        </Node>
        <Node pos="r" depth="1" NCoef="0" IVar="-1" Cut="0.0000000000000000e+00" cType="1" res="-3.3476214855909348e-02" rms="-nan" purity="2.2597928345203400e-01" nType="-99"/>
      </Node>
    </BinaryTree>
    <BinaryTree type="DecisionTree" boostWeight="1.0000000000000000e+00" itree="1075">
      <Node pos="s" depth="0" NCoef="0" IVar="57" Cut="-1.4150981903076172e+00" cType="1" res="1.5591280534863472e-03" rms="2.3684616386890411e-01" purity="4.9702650308609009e-01" nType="0">
        <Node pos="l" depth="1" NCoef="0" IVar="56" Cut="-1.1847193241119385e+00" cType="1" res="5.9060800820589066e-02" rms="2.6731747388839722e-01" purity="1.1784072220325470e-01" nType="0">
          <Node pos="l" depth="2" NCoef="0" IVar="-1" Cut="0.0000000000000000e+00" cType="1" res="-6.0490258038043976e-03" rms="9.4866469502449036e-02" purity="5.4569937288761139e-02" nType="-99"/>
          <Node pos="r" depth="2" NCoef="0" IVar="-1" Cut="0.0000000000000000e+00" cType="1" res="1.4960196614265442e-01" rms="4.0163609385490417e-01" purity="2.3401068150997162e-01" nType="-99"/>
        </Node>
        <Node pos="r" depth="1" NCoef="0" IVar="57" Cut="-1.3782882690429688e+00" cType="1" res="-2.6178478728979826e-03" rms="2.3392847180366516e-01" purity="5.2457094192504883e-01" nType="0">
          <Node pos="l" depth="2" NCoef="0" IVar="-1" Cut="0.0000000000000000e+00" cType="1" res="-1.2456420809030533e-01" rms="-nan" purity="-9.8006166517734528e-02" nType="-99"/>
          <Node pos="r" depth="2" NCoef="0" IVar="-1" Cut="0.0000000000000000e+00" cType="1" res="6.7197659518569708e-05" rms="2.4186496436595917e-01" purity="5.3833478689193726e-01" nType="-99"/>
        </Node>
      </Node>
    </BinaryTree>
    <BinaryTree type="DecisionTree" boostWeight="1.0000000000000000e+00" itree="1076">
      <Node pos="s" depth="0" NCoef="0" IVar="49" Cut="-5.2063214778900146e-01" cType="1" res="8.4119528764858842e-05" rms="2.2855995595455170e-01" purity="5.0231885910034180e-01" nType="0">
        <Node pos="l" depth="1" NCoef="0" IVar="40" Cut="1.3078095912933350e+00" cType="1" res="3.1597786583006382e-03" rms="2.3507145047187805e-01" purity="5.0727456808090210e-01" nType="0">
          <Node pos="l" depth="2" NCoef="0" IVar="-1" Cut="0.0000000000000000e+00" cType="1" res="-7.8444927930831909e-04" rms="2.2903195023536682e-01" purity="5.3102171421051025e-01" nType="-99"/>
          <Node pos="r" depth="2" NCoef="0" IVar="-1" Cut="0.0000000000000000e+00" cType="1" res="2.3679677397012711e-02" rms="2.8262051939964294e-01" purity="2.7291315793991089e-01" nType="-99"/>
        </Node>
        <Node pos="r" depth="1" NCoef="0" IVar="-1" Cut="0.0000000000000000e+00" cType="1" res="-4.4703029096126556e-02" rms="-nan" purity="3.1763568520545959e-01" nType="-99"/>
      </Node>
    </BinaryTree>
    <BinaryTree type="DecisionTree" boostWeight="1.0000000000000000e+00" itree="1077">
      <Node pos="s" depth="0" NCoef="0" IVar="37" Cut="1.2495098114013672e+00" cType="1" res="-3.0179331079125404e-03" rms="2.2132872045040131e-01" purity="4.9459567666053772e-01" nType="0">
        <Node pos="l" depth="1" NCoef="0" IVar="55" Cut="-1.4156081676483154e+00" cType="1" res="-8.3464123308658600e-03" rms="2.1026994287967682e-01" purity="4.9864858388900757e-01" nType="0">
          <Node pos="l" depth="2" NCoef="0" IVar="-1" Cut="0.0000000000000000e+00" cType="1" res="-2.3190772160887718e-02" rms="-nan" purity="2.7398490905761719e-01" nType="-99"/>
          <Node pos="r" depth="2" NCoef="0" IVar="-1" Cut="0.0000000000000000e+00" cType="1" res="-1.1773568112403154e-03" rms="2.2447849810123444e-01" purity="5.2478605508804321e-01" nType="-99"/>
        </Node>
        <Node pos="r" depth="1" NCoef="0" IVar="61" Cut="8.9846193790435791e-01" cType="1" res="6.1469960957765579e-02" rms="3.1976348161697388e-01" purity="4.4554534554481506e-01" nType="0">
          <Node pos="l" depth="2" NCoef="0" IVar="-1" Cut="0.0000000000000000e+00" cType="1" res="-2.3093253839761019e-03" rms="2.2430342435836792e-01" purity="4.3800780177116394e-01" nType="-99"/>
          <Node pos="r" depth="2" NCoef="0" IVar="-1" Cut="0.0000000000000000e+00" cType="1" res="6.6284887492656708e-02" rms="4.1143968701362610e-01" purity="4.5813849568367004e-01" nType="-99"/>
        </Node>
      </Node>
    </BinaryTree>
    <BinaryTree type="DecisionTree" boostWeight="1.0000000000000000e+00" itree="1078">
      <Node pos="s" depth="0" NCoef="0" IVar="3" Cut="5.4865379333496094e+00" cType="1" res="-5.4727108217775822e-03" rms="2.3223917186260223e-01" purity="4.8919311165809631e-01" nType="0">
        <Node pos="l" depth="1" NCoef="0" IVar="73" Cut="2.3174185752868652e+00" cType="1" res="-2.2520676720887423e-03" rms="2.3892141878604889e-01" purity="4.9916100502014160e-01" nType="0">
          <Node pos="l" depth="2" NCoef="0" IVar="-1" Cut="0.0000000000000000e+00" cType="1" res="2.2330440580844879e-02" rms="3.2055500149726868e-01" purity="3.2398295402526855e-01" nType="-99"/>
          <Node pos="r" depth="2" NCoef="0" IVar="-1" Cut="0.0000000000000000e+00" cType="1" res="-3.2194613013416529e-03" rms="2.2731374204158783e-01" purity="5.1817876100540161e-01" nType="-99"/>
        </Node>
        <Node pos="r" depth="1" NCoef="0" IVar="-1" Cut="0.0000000000000000e+00" cType="1" res="-5.3115516901016235e-02" rms="-nan" purity="1.5424537472426891e-02" nType="-99"/>
      </Node>
    </BinaryTree>
    <BinaryTree type="DecisionTree" boostWeight="1.0000000000000000e+00" itree="1079">
      <Node pos="s" depth="0" NCoef="0" IVar="48" Cut="1.1205164194107056e+00" cType="1" res="4.5241508632898331e-03" rms="2.2653093934059143e-01" purity="5.0582724809646606e-01" nType="0">
        <Node pos="l" depth="1" NCoef="0" IVar="60" Cut="-1.1059867143630981e+00" cType="1" res="-3.6291953176259995e-02" rms="1.0950951278209686e-01" purity="2.2411110997200012e-01" nType="0">
          <Node pos="l" depth="2" NCoef="0" IVar="-1" Cut="0.0000000000000000e+00" cType="1" res="-3.2330749090760946e-03" rms="2.0392015576362610e-01" purity="3.0939784646034241e-01" nType="-99"/>
          <Node pos="r" depth="2" NCoef="0" IVar="-1" Cut="0.0000000000000000e+00" cType="1" res="-8.2721374928951263e-02" rms="-nan" purity="-3.8391031324863434e-02" nType="-99"/>
        </Node>
        <Node pos="r" depth="1" NCoef="0" IVar="14" Cut="-1.4152878522872925e+00" cType="1" res="1.0965690016746521e-02" rms="2.3920263350009918e-01" purity="5.5028724670410156e-01" nType="0">
          <Node pos="l" depth="2" NCoef="0" IVar="-1" Cut="0.0000000000000000e+00" cType="1" res="-1.7489559948444366e-02" rms="-nan" purity="2.8342849016189575e-01" nType="-99"/>
          <Node pos="r" depth="2" NCoef="0" IVar="-1" Cut="0.0000000000000000e+00" cType="1" res="6.1308653093874454e-03" rms="2.5445702672004700e-01" purity="5.8687919378280640e-01" nType="-99"/>
        </Node>
      </Node>
    </BinaryTree>
    <BinaryTree type="DecisionTree" boostWeight="1.0000000000000000e+00" itree="1080">
      <Node pos="s" depth="0" NCoef="0" IVar="2" Cut="9.5168566703796387e-01" cType="1" res="2.0751792471855879e-03" rms="2.3851966857910156e-01" purity="4.9510365724563599e-01" nType="0">
        <Node pos="l" depth="1" NCoef="0" IVar="-1" Cut="0.0000000000000000e+00" cType="1" res="6.7384086549282074e-02" rms="3.4927317500114441e-01" purity="1.7683812975883484e-01" nType="-99"/>
        <Node pos="r" depth="1" NCoef="0" IVar="28" Cut="-6.6722589731216431e-01" cType="1" res="-1.0294410167261958e-03" rms="2.3344574868679047e-01" purity="5.0529205799102783e-01" nType="0">
          <Node pos="l" depth="2" NCoef="0" IVar="-1" Cut="0.0000000000000000e+00" cType="1" res="-1.6603911062702537e-03" rms="2.2936454415321350e-01" purity="5.0647675991058350e-01" nType="-99"/>
          <Node pos="r" depth="2" NCoef="0" IVar="-1" Cut="0.0000000000000000e+00" cType="1" res="2.5443622842431068e-02" rms="2.9863944649696350e-01" purity="4.7931113839149475e-01" nType="-99"/>
        </Node>
      </Node>
    </BinaryTree>
    <BinaryTree type="DecisionTree" boostWeight="1.0000000000000000e+00" itree="1081">
      <Node pos="s" depth="0" NCoef="0" IVar="77" Cut="1.3673177957534790e+00" cType="1" res="5.1487726159393787e-03" rms="2.3778223991394043e-01" purity="4.9400633573532104e-01" nType="0">
        <Node pos="l" depth="1" NCoef="0" IVar="3" Cut="4.4159212112426758e+00" cType="1" res="9.4022359699010849e-03" rms="2.5059342384338379e-01" purity="5.1709598302841187e-01" nType="0">
          <Node pos="l" depth="2" NCoef="0" IVar="-1" Cut="0.0000000000000000e+00" cType="1" res="2.2411357611417770e-02" rms="3.3202061057090759e-01" purity="3.6077991127967834e-01" nType="-99"/>
          <Node pos="r" depth="2" NCoef="0" IVar="-1" Cut="0.0000000000000000e+00" cType="1" res="1.0180615354329348e-03" rms="2.3939497768878937e-01" purity="5.3372490406036377e-01" nType="-99"/>
        </Node>
        <Node pos="r" depth="1" NCoef="0" IVar="39" Cut="-1.6662589311599731e+00" cType="1" res="-6.7731723189353943e-02" rms="-nan" purity="1.1574885807931423e-02" nType="-99"/>
      </Node>
    </BinaryTree>
    <BinaryTree type="DecisionTree" boostWeight="1.0000000000000000e+00" itree="1082">
      <Node pos="s" depth="0" NCoef="0" IVar="4" Cut="3.2662165164947510e+00" cType="1" res="-7.7668664744123816e-04" rms="2.3402823507785797e-01" purity="4.9717479944229126e-01" nType="0">
        <Node pos="l" depth="1" NCoef="0" IVar="19" Cut="7.4000662565231323e-01" cType="1" res="-2.9333228245377541e-02" rms="-nan" purity="1.1522394418716431e-01" nType="-99"/>
        <Node pos="r" depth="1" NCoef="0" IVar="82" Cut="2.2448624670505524e-01" cType="1" res="2.5972495786845684e-03" rms="2.3979231715202332e-01" purity="5.1401716470718384e-01" nType="0">
          <Node pos="l" depth="2" NCoef="0" IVar="-1" Cut="0.0000000000000000e+00" cType="1" res="1.7484351992607117e-02" rms="3.2052645087242126e-01" purity="6.3521510362625122e-01" nType="-99"/>
          <Node pos="r" depth="2" NCoef="0" IVar="-1" Cut="0.0000000000000000e+00" cType="1" res="-8.7499059736728668e-04" rms="2.3003992438316345e-01" purity="5.0250130891799927e-01" nType="-99"/>
        </Node>
      </Node>
    </BinaryTree>
    <BinaryTree type="DecisionTree" boostWeight="1.0000000000000000e+00" itree="1083">
      <Node pos="s" depth="0" NCoef="0" IVar="38" Cut="-1.3769654035568237e+00" cType="1" res="-6.2227330636233091e-04" rms="2.2711122035980225e-01" purity="4.9914771318435669e-01" nType="0">
        <Node pos="l" depth="1" NCoef="0" IVar="13" Cut="9.7486132383346558e-01" cType="1" res="-2.2625656798481941e-02" rms="-nan" purity="2.3799601197242737e-01" nType="-99"/>
        <Node pos="r" depth="1" NCoef="0" IVar="34" Cut="-1.3230996131896973e+00" cType="1" res="6.3383621163666248e-03" rms="2.4472510814666748e-01" purity="5.3839200735092163e-01" nType="0">
          <Node pos="l" depth="2" NCoef="0" IVar="-1" Cut="0.0000000000000000e+00" cType="1" res="3.1838048249483109e-02" rms="3.2336574792861938e-01" purity="4.1050449013710022e-01" nType="-99"/>
          <Node pos="r" depth="2" NCoef="0" IVar="-1" Cut="0.0000000000000000e+00" cType="1" res="6.9410429568961263e-04" rms="2.3974528908729553e-01" purity="5.4401803016662598e-01" nType="-99"/>
        </Node>
      </Node>
    </BinaryTree>
    <BinaryTree type="DecisionTree" boostWeight="1.0000000000000000e+00" itree="1084">
      <Node pos="s" depth="0" NCoef="0" IVar="82" Cut="5.2667820453643799e-01" cType="1" res="5.8493125252425671e-03" rms="2.4392168223857880e-01" purity="5.0100749731063843e-01" nType="0">
        <Node pos="l" depth="1" NCoef="0" IVar="52" Cut="2.5221691131591797e+00" cType="1" res="3.3272206783294678e-02" rms="2.9504132270812988e-01" purity="5.9505236148834229e-01" nType="0">
          <Node pos="l" depth="2" NCoef="0" IVar="-1" Cut="0.0000000000000000e+00" cType="1" res="5.3729455918073654e-02" rms="4.3396988511085510e-01" purity="3.7420341372489929e-01" nType="-99"/>
          <Node pos="r" depth="2" NCoef="0" IVar="-1" Cut="0.0000000000000000e+00" cType="1" res="6.7755691707134247e-03" rms="2.7429458498954773e-01" purity="6.1543852090835571e-01" nType="-99"/>
        </Node>
        <Node pos="r" depth="1" NCoef="0" IVar="63" Cut="-5.2410447597503662e-01" cType="1" res="-4.3065939098596573e-03" rms="2.2116185724735260e-01" purity="4.6617856621742249e-01" nType="0">
          <Node pos="l" depth="2" NCoef="0" IVar="-1" Cut="0.0000000000000000e+00" cType="1" res="-3.8778331130743027e-02" rms="-nan" purity="3.5491535067558289e-01" nType="-99"/>
          <Node pos="r" depth="2" NCoef="0" IVar="-1" Cut="0.0000000000000000e+00" cType="1" res="9.2952395789325237e-06" rms="2.2628539800643921e-01" purity="4.7102737426757812e-01" nType="-99"/>
        </Node>
      </Node>
    </BinaryTree>
    <BinaryTree type="DecisionTree" boostWeight="1.0000000000000000e+00" itree="1085">
      <Node pos="s" depth="0" NCoef="0" IVar="17" Cut="-1.4537599086761475e+00" cType="1" res="8.0080702900886536e-03" rms="2.4678531289100647e-01" purity="5.0800353288650513e-01" nType="0">
        <Node pos="l" depth="1" NCoef="0" IVar="-1" Cut="0.0000000000000000e+00" cType="1" res="2.4764467775821686e-01" rms="3.1658884882926941e-01" purity="1.2949039041996002e-01" nType="-99"/>
        <Node pos="r" depth="1" NCoef="0" IVar="3" Cut="5.4555673599243164e+00" cType="1" res="4.5970436185598373e-03" rms="2.4346858263015747e-01" purity="5.2001267671585083e-01" nType="0">
          <Node pos="l" depth="2" NCoef="0" IVar="-1" Cut="0.0000000000000000e+00" cType="1" res="2.5675822980701923e-03" rms="2.5015401840209961e-01" purity="5.3143703937530518e-01" nType="-99"/>
          <Node pos="r" depth="2" NCoef="0" IVar="-1" Cut="0.0000000000000000e+00" cType="1" res="-2.8418632224202156e-02" rms="-nan" purity="1.0792755335569382e-01" nType="-99"/>
        </Node>
      </Node>
    </BinaryTree>
    <BinaryTree type="DecisionTree" boostWeight="1.0000000000000000e+00" itree="1086">
      <Node pos="s" depth="0" NCoef="0" IVar="67" Cut="1.4251283407211304e+00" cType="1" res="-4.6290317550301552e-03" rms="2.2246554493904114e-01" purity="4.9589902162551880e-01" nType="0">
        <Node pos="l" depth="1" NCoef="0" IVar="0" Cut="1.4871611595153809e+00" cType="1" res="-7.6011540368199348e-03" rms="2.1739128232002258e-01" purity="5.0563472509384155e-01" nType="0">
          <Node pos="l" depth="2" NCoef="0" IVar="-1" Cut="0.0000000000000000e+00" cType="1" res="-1.8605458317324519e-03" rms="2.2178301215171814e-01" purity="5.1339644193649292e-01" nType="-99"/>
          <Node pos="r" depth="2" NCoef="0" IVar="-1" Cut="0.0000000000000000e+00" cType="1" res="-5.2095580846071243e-02" rms="-nan" purity="1.7829650640487671e-01" nType="-99"/>
        </Node>
        <Node pos="r" depth="1" NCoef="0" IVar="-1" Cut="0.0000000000000000e+00" cType="1" res="4.3174847960472107e-02" rms="3.2108443975448608e-01" purity="2.3292392492294312e-01" nType="-99"/>
      </Node>
    </BinaryTree>
    <BinaryTree type="DecisionTree" boostWeight="1.0000000000000000e+00" itree="1087">
      <Node pos="s" depth="0" NCoef="0" IVar="83" Cut="2.4714541435241699e-01" cType="1" res="6.1942487955093384e-03" rms="2.3815523087978363e-01" purity="5.0787866115570068e-01" nType="0">
        <Node pos="l" depth="1" NCoef="0" IVar="57" Cut="1.5300459228456020e-02" cType="1" res="2.1892673976253718e-04" rms="2.3303163051605225e-01" purity="5.1837569475173950e-01" nType="0">
          <Node pos="l" depth="2" NCoef="0" IVar="-1" Cut="0.0000000000000000e+00" cType="1" res="-3.2911922782659531e-02" rms="-nan" purity="2.5103528052568436e-02" nType="-99"/>
          <Node pos="r" depth="2" NCoef="0" IVar="-1" Cut="0.0000000000000000e+00" cType="1" res="4.3306462466716766e-03" rms="2.7257576584815979e-01" purity="6.3350564241409302e-01" nType="-99"/>
        </Node>
        <Node pos="r" depth="1" NCoef="0" IVar="57" Cut="-1.3980625569820404e-01" cType="1" res="5.2427910268306732e-02" rms="2.7015480399131775e-01" purity="4.2665842175483704e-01" nType="0">
          <Node pos="l" depth="2" NCoef="0" IVar="-1" Cut="0.0000000000000000e+00" cType="1" res="8.5539773106575012e-02" rms="3.3973926305770874e-01" purity="2.1196170151233673e-01" nType="-99"/>
          <Node pos="r" depth="2" NCoef="0" IVar="-1" Cut="0.0000000000000000e+00" cType="1" res="5.4710539989173412e-03" rms="2.2978502511978149e-01" purity="5.0542306900024414e-01" nType="-99"/>
        </Node>
      </Node>
    </BinaryTree>
    <BinaryTree type="DecisionTree" boostWeight="1.0000000000000000e+00" itree="1088">
      <Node pos="s" depth="0" NCoef="0" IVar="46" Cut="8.3263975381851196e-01" cType="1" res="2.9569314210675657e-04" rms="2.4254882335662842e-01" purity="4.9532246589660645e-01" nType="0">
        <Node pos="l" depth="1" NCoef="0" IVar="57" Cut="1.1353976726531982e+00" cType="1" res="6.0299806296825409e-02" rms="3.4611004590988159e-01" purity="6.1909121274948120e-01" nType="0">
          <Node pos="l" depth="2" NCoef="0" IVar="-1" Cut="0.0000000000000000e+00" cType="1" res="7.5705930590629578e-02" rms="4.5078897476196289e-01" purity="3.7328848242759705e-01" nType="-99"/>
          <Node pos="r" depth="2" NCoef="0" IVar="-1" Cut="0.0000000000000000e+00" cType="1" res="4.0568198892287910e-04" rms="2.7448147535324097e-01" purity="7.1295505762100220e-01" nType="-99"/>
        </Node>
        <Node pos="r" depth="1" NCoef="0" IVar="0" Cut="1.3285615444183350e+00" cType="1" res="-5.2303383126854897e-03" rms="2.2989897429943085e-01" purity="4.8392406105995178e-01" nType="0">
          <Node pos="l" depth="2" NCoef="0" IVar="-1" Cut="0.0000000000000000e+00" cType="1" res="-4.2760833166539669e-03" rms="2.2032581269741058e-01" purity="4.9642267823219299e-01" nType="-99"/>
          <Node pos="r" depth="2" NCoef="0" IVar="-1" Cut="0.0000000000000000e+00" cType="1" res="3.5991068929433823e-02" rms="3.1714239716529846e-01" purity="3.2467156648635864e-01" nType="-99"/>
        </Node>
      </Node>
    </BinaryTree>
    <BinaryTree type="DecisionTree" boostWeight="1.0000000000000000e+00" itree="1089">
      <Node pos="s" depth="0" NCoef="0" IVar="58" Cut="1.4375879764556885e+00" cType="1" res="-4.0283496491611004e-03" rms="2.2447475790977478e-01" purity="4.9719825387001038e-01" nType="0">
        <Node pos="l" depth="1" NCoef="0" IVar="5" Cut="-1.8819834291934967e-01" cType="1" res="-6.9201830774545670e-03" rms="2.1772722899913788e-01" purity="5.0060230493545532e-01" nType="0">
          <Node pos="l" depth="2" NCoef="0" IVar="-1" Cut="0.0000000000000000e+00" cType="1" res="5.8184176683425903e-02" rms="2.7360463142395020e-01" purity="1.8819697201251984e-01" nType="-99"/>
          <Node pos="r" depth="2" NCoef="0" IVar="-1" Cut="0.0000000000000000e+00" cType="1" res="-3.4566936083137989e-03" rms="2.1521911025047302e-01" purity="5.1025813817977905e-01" nType="-99"/>
        </Node>
        <Node pos="r" depth="1" NCoef="0" IVar="-1" Cut="0.0000000000000000e+00" cType="1" res="5.7103425264358521e-02" rms="4.1202417016029358e-01" purity="3.4030014276504517e-01" nType="-99"/>
      </Node>
    </BinaryTree>
    <BinaryTree type="DecisionTree" boostWeight="1.0000000000000000e+00" itree="1090">
      <Node pos="s" depth="0" NCoef="0" IVar="84" Cut="-5.8674752712249756e-01" cType="1" res="7.3967613279819489e-03" rms="2.4396991729736328e-01" purity="4.9859377741813660e-01" nType="0">
        <Node pos="l" depth="1" NCoef="0" IVar="-1" Cut="0.0000000000000000e+00" cType="1" res="-3.7512760609388351e-02" rms="-nan" purity="3.7181586027145386e-01" nType="-99"/>
        <Node pos="r" depth="1" NCoef="0" IVar="5" Cut="2.4965013563632965e-01" cType="1" res="1.0339356027543545e-02" rms="2.4803858995437622e-01" purity="5.0257402658462524e-01" nType="0">
          <Node pos="l" depth="2" NCoef="0" IVar="-1" Cut="0.0000000000000000e+00" cType="1" res="9.3628866598010063e-03" rms="2.6481926441192627e-01" purity="5.3999626636505127e-01" nType="-99"/>
          <Node pos="r" depth="2" NCoef="0" IVar="-1" Cut="0.0000000000000000e+00" cType="1" res="-2.8306702151894569e-03" rms="2.2567537426948547e-01" purity="4.5921841263771057e-01" nType="-99"/>
        </Node>
      </Node>
    </BinaryTree>
    <BinaryTree type="DecisionTree" boostWeight="1.0000000000000000e+00" itree="1091">
      <Node pos="s" depth="0" NCoef="0" IVar="88" Cut="8.7165349721908569e-01" cType="1" res="6.0313991270959377e-03" rms="2.4030363559722900e-01" purity="5.0648242235183716e-01" nType="0">
        <Node pos="l" depth="1" NCoef="0" IVar="38" Cut="-2.9821431636810303e-01" cType="1" res="4.4436376541852951e-02" rms="3.0987957119941711e-01" purity="5.7346022129058838e-01" nType="0">
          <Node pos="l" depth="2" NCoef="0" IVar="-1" Cut="0.0000000000000000e+00" cType="1" res="4.4699832797050476e-02" rms="3.5684880614280701e-01" purity="4.0292951464653015e-01" nType="-99"/>
          <Node pos="r" depth="2" NCoef="0" IVar="-1" Cut="0.0000000000000000e+00" cType="1" res="5.0344136543571949e-03" rms="2.8657621145248413e-01" purity="6.3124048709869385e-01" nType="-99"/>
        </Node>
        <Node pos="r" depth="1" NCoef="0" IVar="46" Cut="1.0652886629104614e+00" cType="1" res="-2.4671335704624653e-03" rms="2.2108019888401031e-01" purity="4.9166107177734375e-01" nType="0">
          <Node pos="l" depth="2" NCoef="0" IVar="-1" Cut="0.0000000000000000e+00" cType="1" res="1.8231163267046213e-03" rms="2.4108920991420746e-01" purity="5.2961754798889160e-01" nType="-99"/>
          <Node pos="r" depth="2" NCoef="0" IVar="-1" Cut="0.0000000000000000e+00" cType="1" res="-1.6664246097207069e-02" rms="4.4440306723117828e-02" purity="3.0600383877754211e-01" nType="-99"/>
        </Node>
      </Node>
    </BinaryTree>
    <BinaryTree type="DecisionTree" boostWeight="1.0000000000000000e+00" itree="1092">
      <Node pos="s" depth="0" NCoef="0" IVar="82" Cut="1.6817219257354736e+00" cType="1" res="1.4899696223437786e-02" rms="2.5384378433227539e-01" purity="5.0539195537567139e-01" nType="0">
        <Node pos="l" depth="1" NCoef="0" IVar="57" Cut="-1.4151852130889893e+00" cType="1" res="1.1603847146034241e-02" rms="2.5010493397712708e-01" purity="5.0923901796340942e-01" nType="0">
          <Node pos="l" depth="2" NCoef="0" IVar="-1" Cut="0.0000000000000000e+00" cType="1" res="4.5001402497291565e-02" rms="2.9936790466308594e-01" purity="1.4689061045646667e-01" nType="-99"/>
          <Node pos="r" depth="2" NCoef="0" IVar="-1" Cut="0.0000000000000000e+00" cType="1" res="2.4346329737454653e-03" rms="2.4558331072330475e-01" purity="5.3507930040359497e-01" nType="-99"/>
        </Node>
        <Node pos="r" depth="1" NCoef="0" IVar="-1" Cut="0.0000000000000000e+00" cType="1" res="5.6759364902973175e-02" rms="3.4433743357658386e-01" purity="3.6416172981262207e-01" nType="-99"/>
      </Node>
    </BinaryTree>
    <BinaryTree type="DecisionTree" boostWeight="1.0000000000000000e+00" itree="1093">
      <Node pos="s" depth="0" NCoef="0" IVar="5" Cut="-6.4826577901840210e-02" cType="1" res="-8.7540866807103157e-03" rms="2.2814060747623444e-01" purity="4.8751845955848694e-01" nType="0">
        <Node pos="l" depth="1" NCoef="0" IVar="3" Cut="4.6682090759277344e+00" cType="1" res="5.2922841161489487e-02" rms="2.6179271936416626e-01" purity="3.1664657592773438e-01" nType="0">
          <Node pos="l" depth="2" NCoef="0" IVar="-1" Cut="0.0000000000000000e+00" cType="1" res="8.0831125378608704e-02" rms="3.7359157204627991e-01" purity="2.9100552201271057e-01" nType="-99"/>
          <Node pos="r" depth="2" NCoef="0" IVar="-1" Cut="0.0000000000000000e+00" cType="1" res="-9.8780337721109390e-03" rms="-nan" purity="3.3794429898262024e-01" nType="-99"/>
        </Node>
        <Node pos="r" depth="1" NCoef="0" IVar="52" Cut="2.4930570125579834e+00" cType="1" res="-1.4665444381535053e-02" rms="2.2375966608524323e-01" purity="5.0389552116394043e-01" nType="0">
          <Node pos="l" depth="2" NCoef="0" IVar="-1" Cut="0.0000000000000000e+00" cType="1" res="-3.3949468284845352e-02" rms="-nan" purity="1.2199113517999649e-01" nType="-99"/>
          <Node pos="r" depth="2" NCoef="0" IVar="-1" Cut="0.0000000000000000e+00" cType="1" res="-3.3430303446948528e-03" rms="2.3340763151645660e-01" purity="5.2860856056213379e-01" nType="-99"/>
        </Node>
      </Node>
    </BinaryTree>
    <BinaryTree type="DecisionTree" boostWeight="1.0000000000000000e+00" itree="1094">
      <Node pos="s" depth="0" NCoef="0" IVar="60" Cut="-1.5032989978790283e+00" cType="1" res="-1.8908514175564051e-03" rms="2.2528176009654999e-01" purity="4.9604150652885437e-01" nType="0">
        <Node pos="l" depth="1" NCoef="0" IVar="55" Cut="5.9021270275115967e-01" cType="1" res="-1.3666955754160881e-02" rms="2.1159365773200989e-01" purity="5.6005740165710449e-01" nType="0">
          <Node pos="l" depth="2" NCoef="0" IVar="-1" Cut="0.0000000000000000e+00" cType="1" res="-2.4288050830364227e-02" rms="-nan" purity="2.3802991211414337e-01" nType="-99"/>
          <Node pos="r" depth="2" NCoef="0" IVar="-1" Cut="0.0000000000000000e+00" cType="1" res="-1.4431656745728105e-04" rms="2.5017192959785461e-01" purity="6.5168523788452148e-01" nType="-99"/>
        </Node>
        <Node pos="r" depth="1" NCoef="0" IVar="5" Cut="4.9578121304512024e-01" cType="1" res="2.4711335077881813e-02" rms="2.5147509574890137e-01" purity="3.5142970085144043e-01" nType="0">
          <Node pos="l" depth="2" NCoef="0" IVar="-1" Cut="0.0000000000000000e+00" cType="1" res="4.0464568883180618e-03" rms="2.3122400045394897e-01" purity="3.5652294754981995e-01" nType="-99"/>
          <Node pos="r" depth="2" NCoef="0" IVar="-1" Cut="0.0000000000000000e+00" cType="1" res="7.9676456749439240e-02" rms="3.8986200094223022e-01" purity="2.9037636518478394e-01" nType="-99"/>
        </Node>
      </Node>
    </BinaryTree>
    <BinaryTree type="DecisionTree" boostWeight="1.0000000000000000e+00" itree="1095">
      <Node pos="s" depth="0" NCoef="0" IVar="3" Cut="4.3069000244140625e+00" cType="1" res="1.9182530231773853e-03" rms="2.3753294348716736e-01" purity="4.9581792950630188e-01" nType="0">
        <Node pos="l" depth="1" NCoef="0" IVar="-1" Cut="0.0000000000000000e+00" cType="1" res="-3.1333535909652710e-02" rms="-nan" purity="1.6444082558155060e-01" nType="-99"/>
        <Node pos="r" depth="1" NCoef="0" IVar="48" Cut="7.8958880901336670e-01" cType="1" res="4.5422874391078949e-03" rms="2.4347969889640808e-01" purity="5.0464910268783569e-01" nType="0">
          <Node pos="l" depth="2" NCoef="0" IVar="-1" Cut="0.0000000000000000e+00" cType="1" res="-3.2114166766405106e-02" rms="-nan" purity="9.6886567771434784e-02" nType="-99"/>
          <Node pos="r" depth="2" NCoef="0" IVar="-1" Cut="0.0000000000000000e+00" cType="1" res="2.8056493028998375e-03" rms="2.5002929568290710e-01" purity="5.2387362718582153e-01" nType="-99"/>
        </Node>
      </Node>
    </BinaryTree>
    <BinaryTree type="DecisionTree" boostWeight="1.0000000000000000e+00" itree="1096">
      <Node pos="s" depth="0" NCoef="0" IVar="55" Cut="-1.4155099391937256e+00" cType="1" res="3.3863484859466553e-03" rms="2.3613558709621429e-01" purity="5.0960844755172729e-01" nType="0">
        <Node pos="l" depth="1" NCoef="0" IVar="58" Cut="-3.3488869667053223e-02" cType="1" res="4.6379905194044113e-02" rms="2.7024364471435547e-01" purity="3.3320778608322144e-01" nType="0">
          <Node pos="l" depth="2" NCoef="0" IVar="-1" Cut="0.0000000000000000e+00" cType="1" res="-3.8783156778663397e-03" rms="1.8739300966262817e-01" purity="3.1453865766525269e-01" nType="-99"/>
          <Node pos="r" depth="2" NCoef="0" IVar="-1" Cut="0.0000000000000000e+00" cType="1" res="8.5760161280632019e-02" rms="3.7269088625907898e-01" purity="3.7824848294258118e-01" nType="-99"/>
        </Node>
        <Node pos="r" depth="1" NCoef="0" IVar="59" Cut="-1.3867255449295044e+00" cType="1" res="-1.7349667614325881e-03" rms="2.3120605945587158e-01" purity="5.3062093257904053e-01" nType="0">
          <Node pos="l" depth="2" NCoef="0" IVar="-1" Cut="0.0000000000000000e+00" cType="1" res="-3.9981056004762650e-02" rms="-nan" purity="2.6434636116027832e-01" nType="-99"/>
          <Node pos="r" depth="2" NCoef="0" IVar="-1" Cut="0.0000000000000000e+00" cType="1" res="6.0369516722857952e-04" rms="2.3959906399250031e-01" purity="5.4313075542449951e-01" nType="-99"/>
        </Node>
      </Node>
    </BinaryTree>
    <BinaryTree type="DecisionTree" boostWeight="1.0000000000000000e+00" itree="1097">
      <Node pos="s" depth="0" NCoef="0" IVar="73" Cut="2.1716890335083008e+00" cType="1" res="-2.9704915359616280e-03" rms="2.2376994788646698e-01" purity="4.9334561824798584e-01" nType="0">
        <Node pos="l" depth="1" NCoef="0" IVar="-1" Cut="0.0000000000000000e+00" cType="1" res="-4.1287582367658615e-02" rms="-nan" purity="1.7443570494651794e-01" nType="-99"/>
        <Node pos="r" depth="1" NCoef="0" IVar="63" Cut="-3.4338814020156860e-01" cType="1" res="2.6240860461257398e-04" rms="2.2872813045978546e-01" purity="5.0334233045578003e-01" nType="0">
          <Node pos="l" depth="2" NCoef="0" IVar="-1" Cut="0.0000000000000000e+00" cType="1" res="1.7245506867766380e-02" rms="3.0032286047935486e-01" purity="5.2644944190979004e-01" nType="-99"/>
          <Node pos="r" depth="2" NCoef="0" IVar="-1" Cut="0.0000000000000000e+00" cType="1" res="-2.4798361118882895e-03" rms="2.1555610001087189e-01" purity="5.0001865625381470e-01" nType="-99"/>
        </Node>
      </Node>
    </BinaryTree>
    <BinaryTree type="DecisionTree" boostWeight="1.0000000000000000e+00" itree="1098">
      <Node pos="s" depth="0" NCoef="0" IVar="22" Cut="1.2345679104328156e-02" cType="1" res="1.1164665920659900e-03" rms="2.3409214615821838e-01" purity="4.9796402454376221e-01" nType="0">
        <Node pos="l" depth="1" NCoef="0" IVar="-1" Cut="0.0000000000000000e+00" cType="1" res="2.9219416901469231e-02" rms="3.4483286738395691e-01" purity="3.8764488697052002e-01" nType="-99"/>
        <Node pos="r" depth="1" NCoef="0" IVar="40" Cut="9.4946104288101196e-01" cType="1" res="-2.4423946160823107e-03" rms="2.2848959267139435e-01" purity="5.0177007913589478e-01" nType="0">
          <Node pos="l" depth="2" NCoef="0" IVar="-1" Cut="0.0000000000000000e+00" cType="1" res="2.6814241427928209e-03" rms="2.5083768367767334e-01" purity="5.6276524066925049e-01" nType="-99"/>
          <Node pos="r" depth="2" NCoef="0" IVar="-1" Cut="0.0000000000000000e+00" cType="1" res="-1.1814757250249386e-02" rms="1.4739970862865448e-01" purity="3.3401656150817871e-01" nType="-99"/>
        </Node>
      </Node>
    </BinaryTree>
    <BinaryTree type="DecisionTree" boostWeight="1.0000000000000000e+00" itree="1099">
      <Node pos="s" depth="0" NCoef="0" IVar="0" Cut="1.4872181415557861e+00" cType="1" res="-5.3704190067946911e-03" rms="2.2889636456966400e-01" purity="4.9724426865577698e-01" nType="0">
        <Node pos="l" depth="1" NCoef="0" IVar="71" Cut="-9.6956565976142883e-02" cType="1" res="-2.6387891266494989e-03" rms="2.3360322415828705e-01" purity="5.0581765174865723e-01" nType="0">
          <Node pos="l" depth="2" NCoef="0" IVar="-1" Cut="0.0000000000000000e+00" cType="1" res="4.2374481563456357e-04" rms="2.4124765396118164e-01" purity="5.1153492927551270e-01" nType="-99"/>
          <Node pos="r" depth="2" NCoef="0" IVar="-1" Cut="0.0000000000000000e+00" cType="1" res="-2.9798010364174843e-02" rms="-nan" purity="3.9064800739288330e-01" nType="-99"/>
        </Node>
        <Node pos="r" depth="1" NCoef="0" IVar="-1" Cut="0.0000000000000000e+00" cType="1" res="-4.8778258264064789e-02" rms="-nan" purity="1.5074877440929413e-01" nType="-99"/>
      </Node>
    </BinaryTree>
    <BinaryTree type="DecisionTree" boostWeight="1.0000000000000000e+00" itree="1100">
      <Node pos="s" depth="0" NCoef="0" IVar="3" Cut="5.4550828933715820e+00" cType="1" res="-1.1900550685822964e-02" rms="2.0209631323814392e-01" purity="4.9145779013633728e-01" nType="0">
        <Node pos="l" depth="1" NCoef="0" IVar="77" Cut="1.4435336589813232e+00" cType="1" res="-8.4092197939753532e-03" rms="2.1109266579151154e-01" purity="5.0384086370468140e-01" nType="0">
          <Node pos="l" depth="2" NCoef="0" IVar="-1" Cut="0.0000000000000000e+00" cType="1" res="-4.3030539527535439e-03" rms="2.0666171610355377e-01" purity="5.1921004056930542e-01" nType="-99"/>
          <Node pos="r" depth="2" NCoef="0" IVar="-1" Cut="0.0000000000000000e+00" cType="1" res="1.1004396528005600e-01" rms="2.8448545932769775e-01" purity="1.3258633017539978e-01" nType="-99"/>
        </Node>
        <Node pos="r" depth="1" NCoef="0" IVar="-1" Cut="0.0000000000000000e+00" cType="1" res="-4.6873036772012711e-02" rms="-nan" purity="5.8219157159328461e-02" nType="-99"/>
      </Node>
    </BinaryTree>
    <BinaryTree type="DecisionTree" boostWeight="1.0000000000000000e+00" itree="1101">
      <Node pos="s" depth="0" NCoef="0" IVar="61" Cut="1.6425497531890869e+00" cType="1" res="9.9933087767567486e-05" rms="2.3296876251697540e-01" purity="4.9925538897514343e-01" nType="0">
        <Node pos="l" depth="1" NCoef="0" IVar="3" Cut="5.4865379333496094e+00" cType="1" res="3.2507907599210739e-03" rms="2.3833832144737244e-01" purity="5.0770562887191772e-01" nType="0">
          <Node pos="l" depth="2" NCoef="0" IVar="-1" Cut="0.0000000000000000e+00" cType="1" res="2.2130368743091822e-03" rms="2.4480804800987244e-01" purity="5.1780998706817627e-01" nType="-99"/>
          <Node pos="r" depth="2" NCoef="0" IVar="-1" Cut="0.0000000000000000e+00" cType="1" res="-3.9120387285947800e-02" rms="-nan" purity="6.9097645580768585e-02" nType="-99"/>
        </Node>
        <Node pos="r" depth="1" NCoef="0" IVar="-1" Cut="0.0000000000000000e+00" cType="1" res="-4.0990553796291351e-02" rms="-nan" purity="1.4217622578144073e-01" nType="-99"/>
      </Node>
    </BinaryTree>
    <BinaryTree type="DecisionTree" boostWeight="1.0000000000000000e+00" itree="1102">
      <Node pos="s" depth="0" NCoef="0" IVar="60" Cut="-6.1586409807205200e-01" cType="1" res="9.0071428567171097e-03" rms="2.4465404450893402e-01" purity="4.9966222047805786e-01" nType="0">
        <Node pos="l" depth="1" NCoef="0" IVar="52" Cut="3.5866711139678955e+00" cType="1" res="2.7127848006784916e-03" rms="2.3555174469947815e-01" purity="5.1181811094284058e-01" nType="0">
          <Node pos="l" depth="2" NCoef="0" IVar="-1" Cut="0.0000000000000000e+00" cType="1" res="-1.9395556591916829e-04" rms="2.3138496279716492e-01" purity="5.1248377561569214e-01" nType="-99"/>
          <Node pos="r" depth="2" NCoef="0" IVar="-1" Cut="0.0000000000000000e+00" cType="1" res="3.8546100258827209e-02" rms="3.2780465483665466e-01" purity="4.9006569385528564e-01" nType="-99"/>
        </Node>
        <Node pos="r" depth="1" NCoef="0" IVar="78" Cut="-1.1501055955886841e+00" cType="1" res="1.0661267489194870e-01" rms="3.4277451038360596e-01" purity="3.1116297841072083e-01" nType="0">
          <Node pos="l" depth="2" NCoef="0" IVar="-1" Cut="0.0000000000000000e+00" cType="1" res="6.4586326479911804e-02" rms="4.2198246717453003e-01" purity="4.5239385962486267e-01" nType="-99"/>
          <Node pos="r" depth="2" NCoef="0" IVar="-1" Cut="0.0000000000000000e+00" cType="1" res="-1.3239217922091484e-02" rms="-nan" purity="1.0713220387697220e-01" nType="-99"/>
        </Node>
      </Node>
    </BinaryTree>
    <BinaryTree type="DecisionTree" boostWeight="1.0000000000000000e+00" itree="1103">
      <Node pos="s" depth="0" NCoef="0" IVar="0" Cut="1.2051475048065186e+00" cType="1" res="1.2378937099128962e-03" rms="2.2829276323318481e-01" purity="5.0778394937515259e-01" nType="0">
        <Node pos="l" depth="1" NCoef="0" IVar="58" Cut="1.1664674282073975e+00" cType="1" res="-6.0565872117877007e-03" rms="2.1852102875709534e-01" purity="5.2752518653869629e-01" nType="0">
          <Node pos="l" depth="2" NCoef="0" IVar="-1" Cut="0.0000000000000000e+00" cType="1" res="-4.4048726558685303e-03" rms="2.0560279488563538e-01" purity="5.3094077110290527e-01" nType="-99"/>
          <Node pos="r" depth="2" NCoef="0" IVar="-1" Cut="0.0000000000000000e+00" cType="1" res="1.7411658540368080e-02" rms="3.0469700694084167e-01" purity="4.9725458025932312e-01" nType="-99"/>
        </Node>
        <Node pos="r" depth="1" NCoef="0" IVar="3" Cut="4.6125278472900391e+00" cType="1" res="5.0130896270275116e-02" rms="2.8042033314704895e-01" purity="3.7546381354331970e-01" nType="0">
          <Node pos="l" depth="2" NCoef="0" IVar="-1" Cut="0.0000000000000000e+00" cType="1" res="6.3173666596412659e-02" rms="3.7679418921470642e-01" purity="3.2887399196624756e-01" nType="-99"/>
          <Node pos="r" depth="2" NCoef="0" IVar="-1" Cut="0.0000000000000000e+00" cType="1" res="1.0019150067819282e-04" rms="1.8851321935653687e-01" purity="4.0214231610298157e-01" nType="-99"/>
        </Node>
      </Node>
    </BinaryTree>
    <BinaryTree type="DecisionTree" boostWeight="1.0000000000000000e+00" itree="1104">
      <Node pos="s" depth="0" NCoef="0" IVar="77" Cut="-1.5311501026153564e+00" cType="1" res="-5.3802728652954102e-03" rms="2.1856355667114258e-01" purity="4.9708494544029236e-01" nType="0">
        <Node pos="l" depth="1" NCoef="0" IVar="17" Cut="1.3287768363952637e+00" cType="1" res="2.8711378574371338e-02" rms="2.8483787178993225e-01" purity="7.2254657745361328e-01" nType="0">
          <Node pos="l" depth="2" NCoef="0" IVar="-1" Cut="0.0000000000000000e+00" cType="1" res="7.6276324689388275e-02" rms="3.3865228295326233e-01" purity="2.2938582301139832e-01" nType="-99"/>
          <Node pos="r" depth="2" NCoef="0" IVar="-1" Cut="0.0000000000000000e+00" cType="1" res="2.9780075419694185e-03" rms="2.7075669169425964e-01" purity="7.9983103275299072e-01" nType="-99"/>
        </Node>
        <Node pos="r" depth="1" NCoef="0" IVar="52" Cut="2.7663097381591797e+00" cType="1" res="-1.7747221514582634e-02" rms="1.8733124434947968e-01" purity="4.1529741883277893e-01" nType="0">
          <Node pos="l" depth="2" NCoef="0" IVar="-1" Cut="0.0000000000000000e+00" cType="1" res="-2.8536332771182060e-02" rms="-nan" purity="1.4075475931167603e-01" nType="-99"/>
          <Node pos="r" depth="2" NCoef="0" IVar="-1" Cut="0.0000000000000000e+00" cType="1" res="-1.3370289234444499e-03" rms="2.2019153833389282e-01" purity="4.9226263165473938e-01" nType="-99"/>
        </Node>
      </Node>
    </BinaryTree>
    <BinaryTree type="DecisionTree" boostWeight="1.0000000000000000e+00" itree="1105">
      <Node pos="s" depth="0" NCoef="0" IVar="39" Cut="-6.7034894227981567e-01" cType="1" res="-1.5734336921013892e-04" rms="2.3354257643222809e-01" purity="4.9701741337776184e-01" nType="0">
        <Node pos="l" depth="1" NCoef="0" IVar="52" Cut="2.7371332645416260e+00" cType="1" res="3.9720707572996616e-03" rms="2.4299460649490356e-01" purity="5.2002143859863281e-01" nType="0">
          <Node pos="l" depth="2" NCoef="0" IVar="-1" Cut="0.0000000000000000e+00" cType="1" res="1.3662175275385380e-02" rms="2.8153738379478455e-01" purity="3.0755144357681274e-01" nType="-99"/>
          <Node pos="r" depth="2" NCoef="0" IVar="-1" Cut="0.0000000000000000e+00" cType="1" res="-1.9020185573026538e-03" rms="2.3114958405494690e-01" purity="5.7466167211532593e-01" nType="-99"/>
        </Node>
        <Node pos="r" depth="1" NCoef="0" IVar="61" Cut="7.0114612579345703e-01" cType="1" res="-3.1155103817582130e-02" rms="-nan" purity="1.2605108320713043e-01" nType="-99"/>
      </Node>
    </BinaryTree>
    <BinaryTree type="DecisionTree" boostWeight="1.0000000000000000e+00" itree="1106">
      <Node pos="s" depth="0" NCoef="0" IVar="17" Cut="-1.2603657245635986e+00" cType="1" res="3.3112491946667433e-03" rms="2.3197458684444427e-01" purity="4.9846464395523071e-01" nType="0">
        <Node pos="l" depth="1" NCoef="0" IVar="35" Cut="-2.5155641138553619e-02" cType="1" res="-1.2949058413505554e-01" rms="-nan" purity="-3.7097696214914322e-02" nType="-99"/>
        <Node pos="r" depth="1" NCoef="0" IVar="79" Cut="-9.1503310203552246e-01" cType="1" res="1.1016098782420158e-02" rms="2.6146057248115540e-01" purity="5.7410836219787598e-01" nType="0">
          <Node pos="l" depth="2" NCoef="0" IVar="-1" Cut="0.0000000000000000e+00" cType="1" res="-1.5178280882537365e-03" rms="2.4001300334930420e-01" purity="6.1000740528106689e-01" nType="-99"/>
          <Node pos="r" depth="2" NCoef="0" IVar="-1" Cut="0.0000000000000000e+00" cType="1" res="1.2930735014379025e-02" rms="2.9563859105110168e-01" purity="5.0605905055999756e-01" nType="-99"/>
        </Node>
      </Node>
    </BinaryTree>
    <BinaryTree type="DecisionTree" boostWeight="1.0000000000000000e+00" itree="1107">
      <Node pos="s" depth="0" NCoef="0" IVar="64" Cut="1.2345679104328156e-02" cType="1" res="-4.9361675046384335e-03" rms="2.1781459450721741e-01" purity="5.0100225210189819e-01" nType="0">
        <Node pos="l" depth="1" NCoef="0" IVar="-1" Cut="0.0000000000000000e+00" cType="1" res="-4.1678827255964279e-02" rms="-nan" purity="1.3599166274070740e-01" nType="-99"/>
        <Node pos="r" depth="1" NCoef="0" IVar="43" Cut="1.2345679104328156e-02" cType="1" res="-1.4761224156245589e-03" rms="2.2580410540103912e-01" purity="5.1218336820602417e-01" nType="0">
          <Node pos="l" depth="2" NCoef="0" IVar="-1" Cut="0.0000000000000000e+00" cType="1" res="2.9927205294370651e-02" rms="3.3234751224517822e-01" purity="4.1662046313285828e-01" nType="-99"/>
          <Node pos="r" depth="2" NCoef="0" IVar="-1" Cut="0.0000000000000000e+00" cType="1" res="-1.5741646056994796e-03" rms="2.2132241725921631e-01" purity="5.1493853330612183e-01" nType="-99"/>
        </Node>
      </Node>
    </BinaryTree>
    <BinaryTree type="DecisionTree" boostWeight="1.0000000000000000e+00" itree="1108">
      <Node pos="s" depth="0" NCoef="0" IVar="55" Cut="-1.1841185092926025e+00" cType="1" res="9.5134489238262177e-03" rms="2.4073913693428040e-01" purity="5.0638806819915771e-01" nType="0">
        <Node pos="l" depth="1" NCoef="0" IVar="42" Cut="1.4676547050476074e-01" cType="1" res="4.5667201280593872e-02" rms="2.5717589259147644e-01" purity="2.9104855656623840e-01" nType="0">
          <Node pos="l" depth="2" NCoef="0" IVar="-1" Cut="0.0000000000000000e+00" cType="1" res="8.4820920601487160e-03" rms="2.0064897835254669e-01" purity="2.8332811594009399e-01" nType="-99"/>
          <Node pos="r" depth="2" NCoef="0" IVar="-1" Cut="0.0000000000000000e+00" cType="1" res="6.3448697328567505e-02" rms="3.6051696538925171e-01" purity="3.1240528821945190e-01" nType="-99"/>
        </Node>
        <Node pos="r" depth="1" NCoef="0" IVar="82" Cut="1.4896080493927002e+00" cType="1" res="1.8215882591903210e-03" rms="2.3638290166854858e-01" purity="5.5220240354537964e-01" nType="0">
          <Node pos="l" depth="2" NCoef="0" IVar="-1" Cut="0.0000000000000000e+00" cType="1" res="2.0559930708259344e-03" rms="2.4657383561134338e-01" purity="5.7042002677917480e-01" nType="-99"/>
          <Node pos="r" depth="2" NCoef="0" IVar="-1" Cut="0.0000000000000000e+00" cType="1" res="-3.4605011343955994e-02" rms="-nan" purity="1.9113951921463013e-01" nType="-99"/>
        </Node>
      </Node>
    </BinaryTree>
    <BinaryTree type="DecisionTree" boostWeight="1.0000000000000000e+00" itree="1109">
      <Node pos="s" depth="0" NCoef="0" IVar="10" Cut="2.9030199050903320e+00" cType="1" res="6.4951023086905479e-03" rms="2.3988395929336548e-01" purity="5.0161361694335938e-01" nType="0">
        <Node pos="l" depth="1" NCoef="0" IVar="37" Cut="-1.1063487529754639e+00" cType="1" res="-3.6149408668279648e-02" rms="1.3802123069763184e-01" purity="2.1882903575897217e-01" nType="0">
          <Node pos="l" depth="2" NCoef="0" IVar="-1" Cut="0.0000000000000000e+00" cType="1" res="1.2204512953758240e-02" rms="2.7324223518371582e-01" purity="2.8374478220939636e-01" nType="-99"/>
          <Node pos="r" depth="2" NCoef="0" IVar="-1" Cut="0.0000000000000000e+00" cType="1" res="-4.2786322534084320e-02" rms="-nan" purity="1.5585002303123474e-01" nType="-99"/>
        </Node>
        <Node pos="r" depth="1" NCoef="0" IVar="37" Cut="1.2052342891693115e+00" cType="1" res="1.1611834168434143e-02" rms="2.4883471429347992e-01" purity="5.3554373979568481e-01" nType="0">
          <Node pos="l" depth="2" NCoef="0" IVar="-1" Cut="0.0000000000000000e+00" cType="1" res="2.3564631119370461e-03" rms="2.4120561778545380e-01" purity="5.3827244043350220e-01" nType="-99"/>
          <Node pos="r" depth="2" NCoef="0" IVar="-1" Cut="0.0000000000000000e+00" cType="1" res="2.4251580238342285e-02" rms="3.1553041934967041e-01" purity="5.0556719303131104e-01" nType="-99"/>
        </Node>
      </Node>
    </BinaryTree>
    <BinaryTree type="DecisionTree" boostWeight="1.0000000000000000e+00" itree="1110">
      <Node pos="s" depth="0" NCoef="0" IVar="58" Cut="1.2448070049285889e+00" cType="1" res="-1.7877533100545406e-03" rms="2.2734716534614563e-01" purity="4.9568015336990356e-01" nType="0">
        <Node pos="l" depth="1" NCoef="0" IVar="31" Cut="2.3467769622802734e+00" cType="1" res="-6.7219748161733150e-03" rms="2.1796248853206635e-01" purity="5.0116205215454102e-01" nType="0">
          <Node pos="l" depth="2" NCoef="0" IVar="-1" Cut="0.0000000000000000e+00" cType="1" res="-5.3026977926492691e-02" rms="-nan" purity="1.6452608630061150e-02" nType="-99"/>
          <Node pos="r" depth="2" NCoef="0" IVar="-1" Cut="0.0000000000000000e+00" cType="1" res="-1.2425729073584080e-03" rms="2.2308976948261261e-01" purity="5.1516759395599365e-01" nType="-99"/>
        </Node>
        <Node pos="r" depth="1" NCoef="0" IVar="27" Cut="1.2830678224563599e+00" cType="1" res="5.6799527257680893e-02" rms="3.1238809227943420e-01" purity="4.3059045076370239e-01" nType="0">
          <Node pos="l" depth="2" NCoef="0" IVar="-1" Cut="0.0000000000000000e+00" cType="1" res="8.4227249026298523e-02" rms="4.1570577025413513e-01" purity="3.8834118843078613e-01" nType="-99"/>
          <Node pos="r" depth="2" NCoef="0" IVar="-1" Cut="0.0000000000000000e+00" cType="1" res="8.7931368034332991e-04" rms="2.4176341295242310e-01" purity="4.4660204648971558e-01" nType="-99"/>
        </Node>
      </Node>
    </BinaryTree>
    <BinaryTree type="DecisionTree" boostWeight="1.0000000000000000e+00" itree="1111">
      <Node pos="s" depth="0" NCoef="0" IVar="19" Cut="1.6285698413848877e+00" cType="1" res="4.0013524703681469e-03" rms="2.3752282559871674e-01" purity="5.0385624170303345e-01" nType="0">
        <Node pos="l" depth="1" NCoef="0" IVar="39" Cut="-5.3595972061157227e-01" cType="1" res="1.7611330840736628e-03" rms="2.3385198414325714e-01" purity="5.0541424751281738e-01" nType="0">
          <Node pos="l" depth="2" NCoef="0" IVar="-1" Cut="0.0000000000000000e+00" cType="1" res="1.7293996643275023e-03" rms="2.3996660113334656e-01" purity="5.1745980978012085e-01" nType="-99"/>
          <Node pos="r" depth="2" NCoef="0" IVar="-1" Cut="0.0000000000000000e+00" cType="1" res="-4.7755111008882523e-02" rms="-nan" purity="9.0536303818225861e-02" nType="-99"/>
        </Node>
        <Node pos="r" depth="1" NCoef="0" IVar="-1" Cut="0.0000000000000000e+00" cType="1" res="3.2970272004604340e-02" rms="3.5635486245155334e-01" purity="4.2992344498634338e-01" nType="-99"/>
      </Node>
    </BinaryTree>
    <BinaryTree type="DecisionTree" boostWeight="1.0000000000000000e+00" itree="1112">
      <Node pos="s" depth="0" NCoef="0" IVar="67" Cut="1.3729366064071655e+00" cType="1" res="-2.0308599341660738e-03" rms="2.2893631458282471e-01" purity="4.9768540263175964e-01" nType="0">
        <Node pos="l" depth="1" NCoef="0" IVar="3" Cut="4.2850594520568848e+00" cType="1" res="1.8235989846289158e-03" rms="2.3672519624233246e-01" purity="5.1265060901641846e-01" nType="0">
          <Node pos="l" depth="2" NCoef="0" IVar="-1" Cut="0.0000000000000000e+00" cType="1" res="3.1071092933416367e-02" rms="3.3036893606185913e-01" purity="3.4130114316940308e-01" nType="-99"/>
          <Node pos="r" depth="2" NCoef="0" IVar="-1" Cut="0.0000000000000000e+00" cType="1" res="-2.3283454356715083e-04" rms="2.3347795009613037e-01" purity="5.1673549413681030e-01" nType="-99"/>
        </Node>
        <Node pos="r" depth="1" NCoef="0" IVar="-1" Cut="0.0000000000000000e+00" cType="1" res="-5.7589940726757050e-02" rms="-nan" purity="6.3513301312923431e-02" nType="-99"/>
      </Node>
    </BinaryTree>
    <BinaryTree type="DecisionTree" boostWeight="1.0000000000000000e+00" itree="1113">
      <Node pos="s" depth="0" NCoef="0" IVar="61" Cut="1.4294711351394653e+00" cType="1" res="-7.3536704294383526e-03" rms="2.1879327297210693e-01" purity="4.9395880103111267e-01" nType="0">
        <Node pos="l" depth="1" NCoef="0" IVar="52" Cut="2.3021938800811768e+00" cType="1" res="-2.0903879776597023e-03" rms="2.2944201529026031e-01" purity="5.1021772623062134e-01" nType="0">
          <Node pos="l" depth="2" NCoef="0" IVar="-1" Cut="0.0000000000000000e+00" cType="1" res="4.7411490231752396e-02" rms="3.4491324424743652e-01" purity="2.7904230356216431e-01" nType="-99"/>
          <Node pos="r" depth="2" NCoef="0" IVar="-1" Cut="0.0000000000000000e+00" cType="1" res="-1.9474911969155073e-03" rms="2.2491067647933960e-01" purity="5.1584547758102417e-01" nType="-99"/>
        </Node>
        <Node pos="r" depth="1" NCoef="0" IVar="1" Cut="2.6424012184143066e+00" cType="1" res="-3.3490020781755447e-02" rms="-nan" purity="2.1661183238029480e-01" nType="-99"/>
      </Node>
    </BinaryTree>
    <BinaryTree type="DecisionTree" boostWeight="1.0000000000000000e+00" itree="1114">
      <Node pos="s" depth="0" NCoef="0" IVar="74" Cut="1.2345679104328156e-02" cType="1" res="-1.9505152013152838e-03" rms="2.3518326878547668e-01" purity="4.9139562249183655e-01" nType="0">
        <Node pos="l" depth="1" NCoef="0" IVar="17" Cut="-6.8073016405105591e-01" cType="1" res="1.3528287410736084e-02" rms="2.5977486371994019e-01" purity="5.0537163019180298e-01" nType="0">
          <Node pos="l" depth="2" NCoef="0" IVar="-1" Cut="0.0000000000000000e+00" cType="1" res="1.1713686585426331e-01" rms="2.6067361235618591e-01" purity="8.6912907660007477e-02" nType="-99"/>
          <Node pos="r" depth="2" NCoef="0" IVar="-1" Cut="0.0000000000000000e+00" cType="1" res="6.9811736466363072e-04" rms="2.5816449522972107e-01" purity="5.9006333351135254e-01" nType="-99"/>
        </Node>
        <Node pos="r" depth="1" NCoef="0" IVar="20" Cut="2.6183831691741943e-01" cType="1" res="-2.6392750442028046e-02" rms="1.8739043176174164e-01" purity="4.6932649612426758e-01" nType="0">
          <Node pos="l" depth="2" NCoef="0" IVar="-1" Cut="0.0000000000000000e+00" cType="1" res="-7.6784412376582623e-03" rms="2.0795115828514099e-01" purity="4.8686984181404114e-01" nType="-99"/>
          <Node pos="r" depth="2" NCoef="0" IVar="-1" Cut="0.0000000000000000e+00" cType="1" res="-5.7835109531879425e-02" rms="-nan" purity="2.1498277783393860e-01" nType="-99"/>
        </Node>
      </Node>
    </BinaryTree>
    <BinaryTree type="DecisionTree" boostWeight="1.0000000000000000e+00" itree="1115">
      <Node pos="s" depth="0" NCoef="0" IVar="39" Cut="-5.0692224502563477e-01" cType="1" res="1.5790852485224605e-03" rms="2.3079472780227661e-01" purity="5.0291448831558228e-01" nType="0">
        <Node pos="l" depth="1" NCoef="0" IVar="5" Cut="-1.2494949996471405e-01" cType="1" res="-1.4385813847184181e-03" rms="2.2646799683570862e-01" purity="5.0911515951156616e-01" nType="0">
          <Node pos="l" depth="2" NCoef="0" IVar="-1" Cut="0.0000000000000000e+00" cType="1" res="-5.0373643636703491e-02" rms="-nan" purity="9.6735753118991852e-02" nType="-99"/>
          <Node pos="r" depth="2" NCoef="0" IVar="-1" Cut="0.0000000000000000e+00" cType="1" res="9.4572507077828050e-04" rms="2.3877680301666260e-01" purity="5.2683794498443604e-01" nType="-99"/>
        </Node>
        <Node pos="r" depth="1" NCoef="0" IVar="-1" Cut="0.0000000000000000e+00" cType="1" res="5.5036287754774094e-02" rms="3.3237299323081970e-01" purity="2.8851997852325439e-01" nType="-99"/>
      </Node>
    </BinaryTree>
    <BinaryTree type="DecisionTree" boostWeight="1.0000000000000000e+00" itree="1116">
      <Node pos="s" depth="0" NCoef="0" IVar="64" Cut="1.2345679104328156e-02" cType="1" res="-2.9553503263741732e-03" rms="2.2026643157005310e-01" purity="5.0345283746719360e-01" nType="0">
        <Node pos="l" depth="1" NCoef="0" IVar="-1" Cut="0.0000000000000000e+00" cType="1" res="-3.7920143455266953e-02" rms="-nan" purity="1.4748433232307434e-01" nType="-99"/>
        <Node pos="r" depth="1" NCoef="0" IVar="52" Cut="2.4030811786651611e+00" cType="1" res="4.8092275392264128e-04" rms="2.2779096662998199e-01" purity="5.1519286632537842e-01" nType="0">
          <Node pos="l" depth="2" NCoef="0" IVar="-1" Cut="0.0000000000000000e+00" cType="1" res="2.9213251546025276e-02" rms="3.2253375649452209e-01" purity="2.6318100094795227e-01" nType="-99"/>
          <Node pos="r" depth="2" NCoef="0" IVar="-1" Cut="0.0000000000000000e+00" cType="1" res="-1.1098522227257490e-03" rms="2.2212834656238556e-01" purity="5.2600002288818359e-01" nType="-99"/>
        </Node>
      </Node>
    </BinaryTree>
    <BinaryTree type="DecisionTree" boostWeight="1.0000000000000000e+00" itree="1117">
      <Node pos="s" depth="0" NCoef="0" IVar="52" Cut="2.4355695247650146e+00" cType="1" res="-2.6113761123269796e-04" rms="2.2880136966705322e-01" purity="4.9996411800384521e-01" nType="0">
        <Node pos="l" depth="1" NCoef="0" IVar="57" Cut="4.2319148778915405e-02" cType="1" res="-2.8315320611000061e-02" rms="-nan" purity="9.1633960604667664e-02" nType="-99"/>
        <Node pos="r" depth="1" NCoef="0" IVar="5" Cut="-1.1325017362833023e-01" cType="1" res="3.2816464081406593e-03" rms="2.3604440689086914e-01" purity="5.2083873748779297e-01" nType="0">
          <Node pos="l" depth="2" NCoef="0" IVar="-1" Cut="0.0000000000000000e+00" cType="1" res="3.3839158713817596e-02" rms="2.7130007743835449e-01" purity="2.9247412085533142e-01" nType="-99"/>
          <Node pos="r" depth="2" NCoef="0" IVar="-1" Cut="0.0000000000000000e+00" cType="1" res="-2.0641139417421073e-04" rms="2.3341597616672516e-01" purity="5.3275877237319946e-01" nType="-99"/>
        </Node>
      </Node>
    </BinaryTree>
    <BinaryTree type="DecisionTree" boostWeight="1.0000000000000000e+00" itree="1118">
      <Node pos="s" depth="0" NCoef="0" IVar="37" Cut="1.2823184728622437e+00" cType="1" res="-1.4960126718506217e-03" rms="2.2642062604427338e-01" purity="4.9961054325103760e-01" nType="0">
        <Node pos="l" depth="1" NCoef="0" IVar="11" Cut="1.2345679104328156e-02" cType="1" res="-5.7986672036349773e-03" rms="2.1788218617439270e-01" purity="5.0464504957199097e-01" nType="0">
          <Node pos="l" depth="2" NCoef="0" IVar="-1" Cut="0.0000000000000000e+00" cType="1" res="-1.8577575683593750e-02" rms="7.6572217047214508e-02" purity="2.5779777765274048e-01" nType="-99"/>
          <Node pos="r" depth="2" NCoef="0" IVar="-1" Cut="0.0000000000000000e+00" cType="1" res="-5.8966415235772729e-04" rms="2.2473402321338654e-01" purity="5.2406209707260132e-01" nType="-99"/>
        </Node>
        <Node pos="r" depth="1" NCoef="0" IVar="62" Cut="2.7147414162755013e-02" cType="1" res="5.8313187211751938e-02" rms="3.1648954749107361e-01" purity="4.2962872982025146e-01" nType="0">
          <Node pos="l" depth="2" NCoef="0" IVar="-1" Cut="0.0000000000000000e+00" cType="1" res="4.2139675468206406e-02" rms="3.6637964844703674e-01" purity="4.8327526450157166e-01" nType="-99"/>
          <Node pos="r" depth="2" NCoef="0" IVar="-1" Cut="0.0000000000000000e+00" cType="1" res="-1.3322856277227402e-02" rms="1.9387020170688629e-01" purity="3.5664990544319153e-01" nType="-99"/>
        </Node>
      </Node>
    </BinaryTree>
    <BinaryTree type="DecisionTree" boostWeight="1.0000000000000000e+00" itree="1119">
      <Node pos="s" depth="0" NCoef="0" IVar="39" Cut="-8.7461429834365845e-01" cType="1" res="3.9175776764750481e-03" rms="2.3257291316986084e-01" purity="5.0469809770584106e-01" nType="0">
        <Node pos="l" depth="1" NCoef="0" IVar="31" Cut="2.4128296375274658e+00" cType="1" res="-3.3125579357147217e-03" rms="2.2268481552600861e-01" purity="5.3628933429718018e-01" nType="0">
          <Node pos="l" depth="2" NCoef="0" IVar="-1" Cut="0.0000000000000000e+00" cType="1" res="-3.9601095020771027e-02" rms="-nan" purity="1.1097312718629837e-01" nType="-99"/>
          <Node pos="r" depth="2" NCoef="0" IVar="-1" Cut="0.0000000000000000e+00" cType="1" res="3.8517737993970513e-04" rms="2.3115102946758270e-01" purity="5.5401474237442017e-01" nType="-99"/>
        </Node>
        <Node pos="r" depth="1" NCoef="0" IVar="46" Cut="1.1196074485778809e+00" cType="1" res="5.4643258452415466e-02" rms="2.8763371706008911e-01" purity="2.8305819630622864e-01" nType="0">
          <Node pos="l" depth="2" NCoef="0" IVar="-1" Cut="0.0000000000000000e+00" cType="1" res="6.0259723104536533e-03" rms="2.4160817265510559e-01" purity="2.6948750019073486e-01" nType="-99"/>
          <Node pos="r" depth="2" NCoef="0" IVar="-1" Cut="0.0000000000000000e+00" cType="1" res="9.0296998620033264e-02" rms="3.7980225682258606e-01" purity="3.3174589276313782e-01" nType="-99"/>
        </Node>
      </Node>
    </BinaryTree>
    <BinaryTree type="DecisionTree" boostWeight="1.0000000000000000e+00" itree="1120">
      <Node pos="s" depth="0" NCoef="0" IVar="18" Cut="-2.5941169261932373e+00" cType="1" res="1.0661653243005276e-02" rms="2.3860429227352142e-01" purity="5.0263071060180664e-01" nType="0">
        <Node pos="l" depth="1" NCoef="0" IVar="-1" Cut="0.0000000000000000e+00" cType="1" res="-3.3551279455423355e-02" rms="-nan" purity="5.4535144567489624e-01" nType="-99"/>
        <Node pos="r" depth="1" NCoef="0" IVar="1" Cut="3.1950900554656982e+00" cType="1" res="1.3999615795910358e-02" rms="2.4269308149814606e-01" purity="5.0122481584548950e-01" nType="0">
          <Node pos="l" depth="2" NCoef="0" IVar="-1" Cut="0.0000000000000000e+00" cType="1" res="8.6738085374236107e-03" rms="2.5648519396781921e-01" purity="4.5991536974906921e-01" nType="-99"/>
          <Node pos="r" depth="2" NCoef="0" IVar="-1" Cut="0.0000000000000000e+00" cType="1" res="-5.3862347267568111e-03" rms="1.9899742305278778e-01" purity="6.1036628484725952e-01" nType="-99"/>
        </Node>
      </Node>
    </BinaryTree>
    <BinaryTree type="DecisionTree" boostWeight="1.0000000000000000e+00" itree="1121">
      <Node pos="s" depth="0" NCoef="0" IVar="39" Cut="-5.4091346263885498e-01" cType="1" res="2.5199523661285639e-03" rms="2.3868168890476227e-01" purity="4.9589109420776367e-01" nType="0">
        <Node pos="l" depth="1" NCoef="0" IVar="17" Cut="-1.3377233743667603e+00" cType="1" res="5.2661341615021229e-03" rms="2.4380801618099213e-01" purity="5.0924652814865112e-01" nType="0">
          <Node pos="l" depth="2" NCoef="0" IVar="-1" Cut="0.0000000000000000e+00" cType="1" res="-2.1609874069690704e-01" rms="-nan" purity="-3.7583731114864349e-02" nType="-99"/>
          <Node pos="r" depth="2" NCoef="0" IVar="-1" Cut="0.0000000000000000e+00" cType="1" res="3.4637413918972015e-03" rms="2.6559615135192871e-01" purity="5.6939917802810669e-01" nType="-99"/>
        </Node>
        <Node pos="r" depth="1" NCoef="0" IVar="-1" Cut="0.0000000000000000e+00" cType="1" res="-4.8720587044954300e-02" rms="-nan" purity="6.2948629260063171e-02" nType="-99"/>
      </Node>
    </BinaryTree>
    <BinaryTree type="DecisionTree" boostWeight="1.0000000000000000e+00" itree="1122">
      <Node pos="s" depth="0" NCoef="0" IVar="36" Cut="5.1831060647964478e-01" cType="1" res="-4.3819667189382017e-04" rms="2.2735637426376343e-01" purity="4.9900338053703308e-01" nType="0">
        <Node pos="l" depth="1" NCoef="0" IVar="35" Cut="1.2471765279769897e+00" cType="1" res="-3.1151559203863144e-02" rms="4.1320953518152237e-02" purity="7.5580507516860962e-02" nType="0">
          <Node pos="l" depth="2" NCoef="0" IVar="-1" Cut="0.0000000000000000e+00" cType="1" res="-2.5158487260341644e-02" rms="-nan" purity="5.8576986193656921e-02" nType="-99"/>
          <Node pos="r" depth="2" NCoef="0" IVar="-1" Cut="0.0000000000000000e+00" cType="1" res="5.3410582244396210e-02" rms="3.6031410098075867e-01" purity="2.2490447759628296e-01" nType="-99"/>
        </Node>
        <Node pos="r" depth="1" NCoef="0" IVar="88" Cut="1.1614944934844971e+00" cType="1" res="8.5230832919478416e-03" rms="2.5674721598625183e-01" purity="6.2254607677459717e-01" nType="0">
          <Node pos="l" depth="2" NCoef="0" IVar="-1" Cut="0.0000000000000000e+00" cType="1" res="1.1115281376987696e-03" rms="2.5133746862411499e-01" purity="6.3924276828765869e-01" nType="-99"/>
          <Node pos="r" depth="2" NCoef="0" IVar="-1" Cut="0.0000000000000000e+00" cType="1" res="2.4184979498386383e-02" rms="3.0573630332946777e-01" purity="4.3269580602645874e-01" nType="-99"/>
        </Node>
      </Node>
    </BinaryTree>
    <BinaryTree type="DecisionTree" boostWeight="1.0000000000000000e+00" itree="1123">
      <Node pos="s" depth="0" NCoef="0" IVar="56" Cut="1.4837484359741211e+00" cType="1" res="-1.3669172767549753e-03" rms="2.3090724647045135e-01" purity="4.9629974365234375e-01" nType="0">
        <Node pos="l" depth="1" NCoef="0" IVar="16" Cut="-1.4541482925415039e+00" cType="1" res="1.6653632046654820e-03" rms="2.3680606484413147e-01" purity="5.0543099641799927e-01" nType="0">
          <Node pos="l" depth="2" NCoef="0" IVar="-1" Cut="0.0000000000000000e+00" cType="1" res="6.6346190869808197e-02" rms="3.3685994148254395e-01" purity="2.4836106598377228e-01" nType="-99"/>
          <Node pos="r" depth="2" NCoef="0" IVar="-1" Cut="0.0000000000000000e+00" cType="1" res="-3.7087083910591900e-04" rms="2.3348368704319000e-01" purity="5.1088756322860718e-01" nType="-99"/>
        </Node>
        <Node pos="r" depth="1" NCoef="0" IVar="-1" Cut="0.0000000000000000e+00" cType="1" res="-5.1986116915941238e-02" rms="-nan" purity="1.0906039923429489e-01" nType="-99"/>
      </Node>
    </BinaryTree>
    <BinaryTree type="DecisionTree" boostWeight="1.0000000000000000e+00" itree="1124">
      <Node pos="s" depth="0" NCoef="0" IVar="36" Cut="1.3681678771972656e+00" cType="1" res="3.6936134565621614e-03" rms="2.2919781506061554e-01" purity="4.9768963456153870e-01" nType="0">
        <Node pos="l" depth="1" NCoef="0" IVar="60" Cut="-1.5475000143051147e+00" cType="1" res="-1.9211711362004280e-02" rms="1.3010455667972565e-01" purity="1.2852783501148224e-01" nType="0">
          <Node pos="l" depth="2" NCoef="0" IVar="-1" Cut="0.0000000000000000e+00" cType="1" res="-1.9716948270797729e-02" rms="-nan" purity="1.3480292260646820e-01" nType="-99"/>
          <Node pos="r" depth="2" NCoef="0" IVar="-1" Cut="0.0000000000000000e+00" cType="1" res="1.1995574459433556e-02" rms="2.1549901366233826e-01" purity="1.1974541097879410e-01" nType="-99"/>
        </Node>
        <Node pos="r" depth="1" NCoef="0" IVar="13" Cut="-7.5960648059844971e-01" cType="1" res="1.4846617355942726e-02" rms="2.6360619068145752e-01" purity="6.7744100093841553e-01" nType="0">
          <Node pos="l" depth="2" NCoef="0" IVar="-1" Cut="0.0000000000000000e+00" cType="1" res="4.3452259153127670e-02" rms="3.0728733539581299e-01" purity="3.6383759975433350e-01" nType="-99"/>
          <Node pos="r" depth="2" NCoef="0" IVar="-1" Cut="0.0000000000000000e+00" cType="1" res="2.2279287222772837e-03" rms="2.5650620460510254e-01" purity="7.1683955192565918e-01" nType="-99"/>
        </Node>
      </Node>
    </BinaryTree>
    <BinaryTree type="DecisionTree" boostWeight="1.0000000000000000e+00" itree="1125">
      <Node pos="s" depth="0" NCoef="0" IVar="15" Cut="1.4834244251251221e+00" cType="1" res="3.9080744609236717e-03" rms="2.2894476354122162e-01" purity="4.9809396266937256e-01" nType="0">
        <Node pos="l" depth="1" NCoef="0" IVar="5" Cut="4.2806994915008545e-01" cType="1" res="1.5567786060273647e-02" rms="2.2602833807468414e-01" purity="4.4895282387733459e-01" nType="0">
          <Node pos="l" depth="2" NCoef="0" IVar="-1" Cut="0.0000000000000000e+00" cType="1" res="2.5597247295081615e-03" rms="2.1492365002632141e-01" purity="4.7906437516212463e-01" nType="-99"/>
          <Node pos="r" depth="2" NCoef="0" IVar="-1" Cut="0.0000000000000000e+00" cType="1" res="3.1776566058397293e-02" rms="2.7865299582481384e-01" purity="2.6231446862220764e-01" nType="-99"/>
        </Node>
        <Node pos="r" depth="1" NCoef="0" IVar="13" Cut="1.5175945758819580e+00" cType="1" res="-1.8705796450376511e-02" rms="2.3283931612968445e-01" purity="5.9340250492095947e-01" nType="0">
          <Node pos="l" depth="2" NCoef="0" IVar="-1" Cut="0.0000000000000000e+00" cType="1" res="-2.8767175972461700e-02" rms="9.9408112466335297e-02" purity="2.6304379105567932e-01" nType="-99"/>
          <Node pos="r" depth="2" NCoef="0" IVar="-1" Cut="0.0000000000000000e+00" cType="1" res="5.0585885765030980e-04" rms="2.5848639011383057e-01" purity="7.0005398988723755e-01" nType="-99"/>
        </Node>
      </Node>
    </BinaryTree>
    <BinaryTree type="DecisionTree" boostWeight="1.0000000000000000e+00" itree="1126">
      <Node pos="s" depth="0" NCoef="0" IVar="38" Cut="1.4007226228713989e+00" cType="1" res="1.1251386022195220e-03" rms="2.3123389482498169e-01" purity="5.0548958778381348e-01" nType="0">
        <Node pos="l" depth="1" NCoef="0" IVar="0" Cut="1.3784402608871460e+00" cType="1" res="2.1539982408285141e-02" rms="2.3708947002887726e-01" purity="3.1797295808792114e-01" nType="0">
          <Node pos="l" depth="2" NCoef="0" IVar="-1" Cut="0.0000000000000000e+00" cType="1" res="4.9179475754499435e-03" rms="2.2185596823692322e-01" purity="3.2116350531578064e-01" nType="-99"/>
          <Node pos="r" depth="2" NCoef="0" IVar="-1" Cut="0.0000000000000000e+00" cType="1" res="7.3281683027744293e-02" rms="3.6516386270523071e-01" purity="2.7674919366836548e-01" nType="-99"/>
        </Node>
        <Node pos="r" depth="1" NCoef="0" IVar="57" Cut="1.3297430276870728e+00" cType="1" res="-1.4148820191621780e-02" rms="2.2554881870746613e-01" purity="6.4578557014465332e-01" nType="0">
          <Node pos="l" depth="2" NCoef="0" IVar="-1" Cut="0.0000000000000000e+00" cType="1" res="-2.0259775221347809e-02" rms="-nan" purity="1.2152986228466034e-01" nType="-99"/>
          <Node pos="r" depth="2" NCoef="0" IVar="-1" Cut="0.0000000000000000e+00" cType="1" res="-1.5014626551419497e-03" rms="2.5623106956481934e-01" purity="7.8033018112182617e-01" nType="-99"/>
        </Node>
      </Node>
    </BinaryTree>
    <BinaryTree type="DecisionTree" boostWeight="1.0000000000000000e+00" itree="1127">
      <Node pos="s" depth="0" NCoef="0" IVar="0" Cut="1.2050373554229736e+00" cType="1" res="6.0759834013879299e-04" rms="2.3050631582736969e-01" purity="4.9803638458251953e-01" nType="0">
        <Node pos="l" depth="1" NCoef="0" IVar="3" Cut="4.2690706253051758e+00" cType="1" res="-6.0458313673734665e-03" rms="2.2330485284328461e-01" purity="5.1790702342987061e-01" nType="0">
          <Node pos="l" depth="2" NCoef="0" IVar="-1" Cut="0.0000000000000000e+00" cType="1" res="3.4642603248357773e-02" rms="3.5799369215965271e-01" purity="4.4127818942070007e-01" nType="-99"/>
          <Node pos="r" depth="2" NCoef="0" IVar="-1" Cut="0.0000000000000000e+00" cType="1" res="-3.3338773064315319e-03" rms="2.1799299120903015e-01" purity="5.1973623037338257e-01" nType="-99"/>
        </Node>
        <Node pos="r" depth="1" NCoef="0" IVar="84" Cut="6.1128683388233185e-02" cType="1" res="4.4844456017017365e-02" rms="2.6946365833282471e-01" purity="3.6592176556587219e-01" nType="0">
          <Node pos="l" depth="2" NCoef="0" IVar="-1" Cut="0.0000000000000000e+00" cType="1" res="3.3333882689476013e-02" rms="3.2662400603294373e-01" purity="4.0720012784004211e-01" nType="-99"/>
          <Node pos="r" depth="2" NCoef="0" IVar="-1" Cut="0.0000000000000000e+00" cType="1" res="-1.3868740759789944e-02" rms="7.9932972788810730e-02" purity="2.9714837670326233e-01" nType="-99"/>
        </Node>
      </Node>
    </BinaryTree>
    <BinaryTree type="DecisionTree" boostWeight="1.0000000000000000e+00" itree="1128">
      <Node pos="s" depth="0" NCoef="0" IVar="10" Cut="3.2125604152679443e+00" cType="1" res="7.4442462064325809e-03" rms="2.3298119008541107e-01" purity="5.0877577066421509e-01" nType="0">
        <Node pos="l" depth="1" NCoef="0" IVar="5" Cut="-7.0380270481109619e-02" cType="1" res="2.6863832026720047e-02" rms="2.5513038039207458e-01" purity="4.2321637272834778e-01" nType="0">
          <Node pos="l" depth="2" NCoef="0" IVar="-1" Cut="0.0000000000000000e+00" cType="1" res="8.4603525698184967e-02" rms="3.7442743778228760e-01" purity="2.7082005143165588e-01" nType="-99"/>
          <Node pos="r" depth="2" NCoef="0" IVar="-1" Cut="0.0000000000000000e+00" cType="1" res="6.3970261253416538e-03" rms="2.4476829171180725e-01" purity="4.3189465999603271e-01" nType="-99"/>
        </Node>
        <Node pos="r" depth="1" NCoef="0" IVar="39" Cut="-7.6322019100189209e-01" cType="1" res="-8.5241189226508141e-03" rms="2.1171970665454865e-01" purity="5.7912969589233398e-01" nType="0">
          <Node pos="l" depth="2" NCoef="0" IVar="-1" Cut="0.0000000000000000e+00" cType="1" res="-1.0939061176031828e-03" rms="2.2744938731193542e-01" purity="6.0664796829223633e-01" nType="-99"/>
          <Node pos="r" depth="2" NCoef="0" IVar="-1" Cut="0.0000000000000000e+00" cType="1" res="-4.0101308375597000e-02" rms="-nan" purity="2.0366562902927399e-01" nType="-99"/>
        </Node>
      </Node>
    </BinaryTree>
    <BinaryTree type="DecisionTree" boostWeight="1.0000000000000000e+00" itree="1129">
      <Node pos="s" depth="0" NCoef="0" IVar="39" Cut="-5.4093855619430542e-01" cType="1" res="3.4844980109483004e-03" rms="2.3349277675151825e-01" purity="4.9754345417022705e-01" nType="0">
        <Node pos="l" depth="1" NCoef="0" IVar="60" Cut="-1.0005904436111450e+00" cType="1" res="-1.0148352012038231e-03" rms="2.2743874788284302e-01" purity="5.0629699230194092e-01" nType="0">
          <Node pos="l" depth="2" NCoef="0" IVar="-1" Cut="0.0000000000000000e+00" cType="1" res="2.2374351974576712e-03" rms="2.3956905305385590e-01" purity="5.5174225568771362e-01" nType="-99"/>
          <Node pos="r" depth="2" NCoef="0" IVar="-1" Cut="0.0000000000000000e+00" cType="1" res="-1.9683212041854858e-02" rms="1.1165926605463028e-01" purity="2.1265867352485657e-01" nType="-99"/>
        </Node>
        <Node pos="r" depth="1" NCoef="0" IVar="-1" Cut="0.0000000000000000e+00" cType="1" res="5.1452670246362686e-02" rms="3.3166778087615967e-01" purity="2.8423669934272766e-01" nType="-99"/>
      </Node>
    </BinaryTree>
    <BinaryTree type="DecisionTree" boostWeight="1.0000000000000000e+00" itree="1130">
      <Node pos="s" depth="0" NCoef="0" IVar="63" Cut="2.9724398255348206e-01" cType="1" res="3.6402514670044184e-03" rms="2.3472230136394501e-01" purity="4.9853241443634033e-01" nType="0">
        <Node pos="l" depth="1" NCoef="0" IVar="61" Cut="8.1283855438232422e-01" cType="1" res="8.6884181946516037e-03" rms="2.4377807974815369e-01" purity="5.1159888505935669e-01" nType="0">
          <Node pos="l" depth="2" NCoef="0" IVar="-1" Cut="0.0000000000000000e+00" cType="1" res="-2.5863684713840485e-03" rms="2.2314883768558502e-01" purity="5.7029581069946289e-01" nType="-99"/>
          <Node pos="r" depth="2" NCoef="0" IVar="-1" Cut="0.0000000000000000e+00" cType="1" res="1.1209076270461082e-02" rms="2.6782792806625366e-01" purity="4.3162858486175537e-01" nType="-99"/>
        </Node>
        <Node pos="r" depth="1" NCoef="0" IVar="41" Cut="-9.5150843262672424e-02" cType="1" res="-2.5305170565843582e-02" rms="-nan" purity="3.3735308051109314e-01" nType="-99"/>
      </Node>
    </BinaryTree>
    <BinaryTree type="DecisionTree" boostWeight="1.0000000000000000e+00" itree="1131">
      <Node pos="s" depth="0" NCoef="0" IVar="82" Cut="1.7039142847061157e+00" cType="1" res="3.8376185111701488e-03" rms="2.3985925316810608e-01" purity="5.0577336549758911e-01" nType="0">
        <Node pos="l" depth="1" NCoef="0" IVar="73" Cut="2.2207150459289551e+00" cType="1" res="6.7499512806534767e-04" rms="2.3593586683273315e-01" purity="5.0874704122543335e-01" nType="0">
          <Node pos="l" depth="2" NCoef="0" IVar="-1" Cut="0.0000000000000000e+00" cType="1" res="2.8576696291565895e-02" rms="3.1849476695060730e-01" purity="3.3085373044013977e-01" nType="-99"/>
          <Node pos="r" depth="2" NCoef="0" IVar="-1" Cut="0.0000000000000000e+00" cType="1" res="-1.1312157148495317e-03" rms="2.3048307001590729e-01" purity="5.1736354827880859e-01" nType="-99"/>
        </Node>
        <Node pos="r" depth="1" NCoef="0" IVar="-1" Cut="0.0000000000000000e+00" cType="1" res="5.6551005691289902e-02" rms="3.4589031338691711e-01" purity="3.7561413645744324e-01" nType="-99"/>
      </Node>
    </BinaryTree>
    <BinaryTree type="DecisionTree" boostWeight="1.0000000000000000e+00" itree="1132">
      <Node pos="s" depth="0" NCoef="0" IVar="58" Cut="1.3591620922088623e+00" cType="1" res="8.7160698603838682e-04" rms="2.2391818463802338e-01" purity="5.0191587209701538e-01" nType="0">
        <Node pos="l" depth="1" NCoef="0" IVar="64" Cut="1.2345679104328156e-02" cType="1" res="4.8045194707810879e-03" rms="2.2849249839782715e-01" purity="5.1198011636734009e-01" nType="0">
          <Node pos="l" depth="2" NCoef="0" IVar="-1" Cut="0.0000000000000000e+00" cType="1" res="3.4758593887090683e-02" rms="2.9377853870391846e-01" purity="3.1993249058723450e-01" nType="-99"/>
          <Node pos="r" depth="2" NCoef="0" IVar="-1" Cut="0.0000000000000000e+00" cType="1" res="3.4819709253497422e-04" rms="2.2463144361972809e-01" purity="5.1969057321548462e-01" nType="-99"/>
        </Node>
        <Node pos="r" depth="1" NCoef="0" IVar="-1" Cut="0.0000000000000000e+00" cType="1" res="-4.4279947876930237e-02" rms="-nan" purity="2.3983398079872131e-01" nType="-99"/>
      </Node>
    </BinaryTree>
    <BinaryTree type="DecisionTree" boostWeight="1.0000000000000000e+00" itree="1133">
      <Node pos="s" depth="0" NCoef="0" IVar="3" Cut="5.4292569160461426e+00" cType="1" res="8.4129739552736282e-03" rms="2.4194082617759705e-01" purity="5.0574839115142822e-01" nType="0">
        <Node pos="l" depth="1" NCoef="0" IVar="31" Cut="2.3098382949829102e+00" cType="1" res="4.3091326951980591e-03" rms="2.3807719349861145e-01" purity="5.1280486583709717e-01" nType="0">
          <Node pos="l" depth="2" NCoef="0" IVar="-1" Cut="0.0000000000000000e+00" cType="1" res="4.7923188656568527e-02" rms="3.6331290006637573e-01" purity="2.8296977281570435e-01" nType="-99"/>
          <Node pos="r" depth="2" NCoef="0" IVar="-1" Cut="0.0000000000000000e+00" cType="1" res="1.2313434854149818e-04" rms="2.3193092644214630e-01" purity="5.2004379034042358e-01" nType="-99"/>
        </Node>
        <Node pos="r" depth="1" NCoef="0" IVar="-1" Cut="0.0000000000000000e+00" cType="1" res="3.4218195825815201e-02" rms="3.0702140927314758e-01" purity="3.2713890075683594e-01" nType="-99"/>
      </Node>
    </BinaryTree>
    <BinaryTree type="DecisionTree" boostWeight="1.0000000000000000e+00" itree="1134">
      <Node pos="s" depth="0" NCoef="0" IVar="28" Cut="-8.6363250017166138e-01" cType="1" res="7.2210626676678658e-03" rms="2.3960137367248535e-01" purity="5.0420510768890381e-01" nType="0">
        <Node pos="l" depth="1" NCoef="0" IVar="0" Cut="1.1346237659454346e+00" cType="1" res="3.8513236213475466e-03" rms="2.3492652177810669e-01" purity="5.0654804706573486e-01" nType="0">
          <Node pos="l" depth="2" NCoef="0" IVar="-1" Cut="0.0000000000000000e+00" cType="1" res="4.3230112642049789e-03" rms="2.5083491206169128e-01" purity="5.4307180643081665e-01" nType="-99"/>
          <Node pos="r" depth="2" NCoef="0" IVar="-1" Cut="0.0000000000000000e+00" cType="1" res="-1.6580402851104736e-02" rms="1.0949908941984177e-01" purity="3.1264135241508484e-01" nType="-99"/>
        </Node>
        <Node pos="r" depth="1" NCoef="0" IVar="61" Cut="9.1614603996276855e-01" cType="1" res="7.5955167412757874e-02" rms="3.1257238984107971e-01" purity="4.5641559362411499e-01" nType="0">
          <Node pos="l" depth="2" NCoef="0" IVar="-1" Cut="0.0000000000000000e+00" cType="1" res="6.7621603375300765e-04" rms="2.4713805317878723e-01" purity="4.1640266776084900e-01" nType="-99"/>
          <Node pos="r" depth="2" NCoef="0" IVar="-1" Cut="0.0000000000000000e+00" cType="1" res="4.3611504137516022e-02" rms="3.5566195845603943e-01" purity="5.0284910202026367e-01" nType="-99"/>
        </Node>
      </Node>
    </BinaryTree>
    <BinaryTree type="DecisionTree" boostWeight="1.0000000000000000e+00" itree="1135">
      <Node pos="s" depth="0" NCoef="0" IVar="20" Cut="-4.5859506726264954e-01" cType="1" res="2.7356022037565708e-03" rms="2.3316846787929535e-01" purity="4.9717068672180176e-01" nType="0">
        <Node pos="l" depth="1" NCoef="0" IVar="-1" Cut="0.0000000000000000e+00" cType="1" res="3.4444618970155716e-02" rms="3.3226484060287476e-01" purity="6.4159345626831055e-01" nType="-99"/>
        <Node pos="r" depth="1" NCoef="0" IVar="21" Cut="4.0915276855230331e-02" cType="1" res="-1.2324986746534705e-03" rms="2.2705683112144470e-01" purity="4.9089550971984863e-01" nType="0">
          <Node pos="l" depth="2" NCoef="0" IVar="-1" Cut="0.0000000000000000e+00" cType="1" res="-6.1120823957026005e-03" rms="2.0063349604606628e-01" purity="4.9705269932746887e-01" nType="-99"/>
          <Node pos="r" depth="2" NCoef="0" IVar="-1" Cut="0.0000000000000000e+00" cType="1" res="8.0434205010533333e-03" rms="2.5870925188064575e-01" purity="4.8204091191291809e-01" nType="-99"/>
        </Node>
      </Node>
    </BinaryTree>
    <BinaryTree type="DecisionTree" boostWeight="1.0000000000000000e+00" itree="1136">
      <Node pos="s" depth="0" NCoef="0" IVar="67" Cut="1.3187681436538696e+00" cType="1" res="4.1274679824709892e-03" rms="2.4126543104648590e-01" purity="4.9601516127586365e-01" nType="0">
        <Node pos="l" depth="1" NCoef="0" IVar="39" Cut="-6.7177933454513550e-01" cType="1" res="7.8766401857137680e-03" rms="2.5011879205703735e-01" purity="5.1320338249206543e-01" nType="0">
          <Node pos="l" depth="2" NCoef="0" IVar="-1" Cut="0.0000000000000000e+00" cType="1" res="1.0933903977274895e-03" rms="2.4464517831802368e-01" purity="5.3001362085342407e-01" nType="-99"/>
          <Node pos="r" depth="2" NCoef="0" IVar="-1" Cut="0.0000000000000000e+00" cType="1" res="3.3375915139913559e-02" rms="3.0999413132667542e-01" purity="2.7550172805786133e-01" nType="-99"/>
        </Node>
        <Node pos="r" depth="1" NCoef="0" IVar="48" Cut="1.6460114717483521e+00" cType="1" res="-4.2394764721393585e-02" rms="-nan" purity="1.3071411848068237e-01" nType="-99"/>
      </Node>
    </BinaryTree>
    <BinaryTree type="DecisionTree" boostWeight="1.0000000000000000e+00" itree="1137">
      <Node pos="s" depth="0" NCoef="0" IVar="8" Cut="-9.1139173507690430e-01" cType="1" res="6.2814098782837391e-03" rms="2.4205881357192993e-01" purity="5.0026804208755493e-01" nType="0">
        <Node pos="l" depth="1" NCoef="0" IVar="77" Cut="-7.5898188352584839e-01" cType="1" res="9.6311327069997787e-03" rms="2.4938715994358063e-01" purity="5.1572918891906738e-01" nType="0">
          <Node pos="l" depth="2" NCoef="0" IVar="-1" Cut="0.0000000000000000e+00" cType="1" res="3.5262515302747488e-04" rms="2.4307028949260712e-01" purity="5.5534082651138306e-01" nType="-99"/>
          <Node pos="r" depth="2" NCoef="0" IVar="-1" Cut="0.0000000000000000e+00" cType="1" res="2.0541282370686531e-02" rms="2.7332758903503418e-01" purity="3.3140161633491516e-01" nType="-99"/>
        </Node>
        <Node pos="r" depth="1" NCoef="0" IVar="58" Cut="-8.3786916732788086e-01" cType="1" res="-2.9780594632029533e-02" rms="-nan" purity="1.3863278925418854e-01" nType="-99"/>
      </Node>
    </BinaryTree>
    <BinaryTree type="DecisionTree" boostWeight="1.0000000000000000e+00" itree="1138">
      <Node pos="s" depth="0" NCoef="0" IVar="5" Cut="-1.1186689138412476e-01" cType="1" res="8.6547294631600380e-04" rms="2.2414417564868927e-01" purity="5.0915253162384033e-01" nType="0">
        <Node pos="l" depth="1" NCoef="0" IVar="19" Cut="7.3422086238861084e-01" cType="1" res="-3.9740875363349915e-02" rms="-nan" purity="1.4529447257518768e-01" nType="-99"/>
        <Node pos="r" depth="1" NCoef="0" IVar="10" Cut="2.6982221603393555e+00" cType="1" res="4.9848989583551884e-03" rms="2.3634883761405945e-01" purity="5.2756720781326294e-01" nType="0">
          <Node pos="l" depth="2" NCoef="0" IVar="-1" Cut="0.0000000000000000e+00" cType="1" res="3.2641902565956116e-02" rms="2.7641609311103821e-01" purity="2.7723377943038940e-01" nType="-99"/>
          <Node pos="r" depth="2" NCoef="0" IVar="-1" Cut="0.0000000000000000e+00" cType="1" res="8.8856456568464637e-04" rms="2.3468239605426788e-01" purity="5.3426235914230347e-01" nType="-99"/>
        </Node>
      </Node>
    </BinaryTree>
    <BinaryTree type="DecisionTree" boostWeight="1.0000000000000000e+00" itree="1139">
      <Node pos="s" depth="0" NCoef="0" IVar="11" Cut="1.2345679104328156e-02" cType="1" res="2.1349838934838772e-03" rms="2.3350627720355988e-01" purity="5.0043863058090210e-01" nType="0">
        <Node pos="l" depth="1" NCoef="0" IVar="73" Cut="2.7834570407867432e+00" cType="1" res="-1.8971806392073631e-02" rms="-nan" purity="2.6126560568809509e-01" nType="-99"/>
        <Node pos="r" depth="1" NCoef="0" IVar="55" Cut="1.2066880464553833e+00" cType="1" res="7.5791385024785995e-03" rms="2.4482290446758270e-01" purity="5.2026075124740601e-01" nType="0">
          <Node pos="l" depth="2" NCoef="0" IVar="-1" Cut="0.0000000000000000e+00" cType="1" res="1.5775725245475769e-02" rms="2.4823459982872009e-01" purity="3.2476091384887695e-01" nType="-99"/>
          <Node pos="r" depth="2" NCoef="0" IVar="-1" Cut="0.0000000000000000e+00" cType="1" res="-2.2093963343650103e-03" rms="2.4204421043395996e-01" purity="6.0481077432632446e-01" nType="-99"/>
        </Node>
      </Node>
    </BinaryTree>
    <BinaryTree type="DecisionTree" boostWeight="1.0000000000000000e+00" itree="1140">
      <Node pos="s" depth="0" NCoef="0" IVar="88" Cut="1.6315369606018066e+00" cType="1" res="-1.2853095540776849e-03" rms="2.3236407339572906e-01" purity="5.0214457511901855e-01" nType="0">
        <Node pos="l" depth="1" NCoef="0" IVar="73" Cut="2.4006414413452148e+00" cType="1" res="-4.3093105778098106e-03" rms="2.2717989981174469e-01" purity="5.0757449865341187e-01" nType="0">
          <Node pos="l" depth="2" NCoef="0" IVar="-1" Cut="0.0000000000000000e+00" cType="1" res="1.4402372762560844e-02" rms="2.7520334720611572e-01" purity="4.0172979235649109e-01" nType="-99"/>
          <Node pos="r" depth="2" NCoef="0" IVar="-1" Cut="0.0000000000000000e+00" cType="1" res="-4.7921915538609028e-03" rms="2.1532599627971649e-01" purity="5.2850091457366943e-01" nType="-99"/>
        </Node>
        <Node pos="r" depth="1" NCoef="0" IVar="-1" Cut="0.0000000000000000e+00" cType="1" res="1.0819252580404282e-01" rms="3.8500741124153137e-01" purity="2.3641981184482574e-01" nType="-99"/>
      </Node>
    </BinaryTree>
    <BinaryTree type="DecisionTree" boostWeight="1.0000000000000000e+00" itree="1141">
      <Node pos="s" depth="0" NCoef="0" IVar="37" Cut="1.2826026678085327e+00" cType="1" res="-1.9424847560003400e-03" rms="2.2453325986862183e-01" purity="4.9911725521087646e-01" nType="0">
        <Node pos="l" depth="1" NCoef="0" IVar="37" Cut="1.4865809120237827e-02" cType="1" res="-6.5678386017680168e-03" rms="2.1292550861835480e-01" purity="5.0508999824523926e-01" nType="0">
          <Node pos="l" depth="2" NCoef="0" IVar="-1" Cut="0.0000000000000000e+00" cType="1" res="1.4624627074226737e-03" rms="2.2880779206752777e-01" purity="5.1305299997329712e-01" nType="-99"/>
          <Node pos="r" depth="2" NCoef="0" IVar="-1" Cut="0.0000000000000000e+00" cType="1" res="-1.3365878723561764e-02" rms="1.5322649478912354e-01" purity="4.8174861073493958e-01" nType="-99"/>
        </Node>
        <Node pos="r" depth="1" NCoef="0" IVar="0" Cut="9.7138589620590210e-01" cType="1" res="6.3376620411872864e-02" rms="3.4286537766456604e-01" purity="4.1477099061012268e-01" nType="0">
          <Node pos="l" depth="2" NCoef="0" IVar="-1" Cut="0.0000000000000000e+00" cType="1" res="-4.5612279791384935e-05" rms="2.8744935989379883e-01" purity="4.2920923233032227e-01" nType="-99"/>
          <Node pos="r" depth="2" NCoef="0" IVar="-1" Cut="0.0000000000000000e+00" cType="1" res="6.6299751400947571e-02" rms="4.0035951137542725e-01" purity="3.8862106204032898e-01" nType="-99"/>
        </Node>
      </Node>
    </BinaryTree>
    <BinaryTree type="DecisionTree" boostWeight="1.0000000000000000e+00" itree="1142">
      <Node pos="s" depth="0" NCoef="0" IVar="9" Cut="-7.7777779102325439e-01" cType="1" res="3.1522025819867849e-03" rms="2.3686327040195465e-01" purity="4.9734088778495789e-01" nType="0">
        <Node pos="l" depth="1" NCoef="0" IVar="15" Cut="9.3531590700149536e-01" cType="1" res="8.1819988787174225e-02" rms="2.8844970464706421e-01" purity="4.7806483507156372e-01" nType="0">
          <Node pos="l" depth="2" NCoef="0" IVar="-1" Cut="0.0000000000000000e+00" cType="1" res="6.4732991158962250e-02" rms="3.6232274770736694e-01" purity="3.4623426198959351e-01" nType="-99"/>
          <Node pos="r" depth="2" NCoef="0" IVar="-1" Cut="0.0000000000000000e+00" cType="1" res="8.6780422134324908e-04" rms="1.5408208966255188e-01" purity="6.0693460702896118e-01" nType="-99"/>
        </Node>
        <Node pos="r" depth="1" NCoef="0" IVar="60" Cut="-5.9783023595809937e-01" cType="1" res="-6.8736466346308589e-04" rms="2.3337692022323608e-01" purity="4.9828171730041504e-01" nType="0">
          <Node pos="l" depth="2" NCoef="0" IVar="-1" Cut="0.0000000000000000e+00" cType="1" res="-1.7223181203007698e-03" rms="2.2580167651176453e-01" purity="5.1186084747314453e-01" nType="-99"/>
          <Node pos="r" depth="2" NCoef="0" IVar="-1" Cut="0.0000000000000000e+00" cType="1" res="2.4181870743632317e-02" rms="3.3024728298187256e-01" purity="2.6602730154991150e-01" nType="-99"/>
        </Node>
      </Node>
    </BinaryTree>
    <BinaryTree type="DecisionTree" boostWeight="1.0000000000000000e+00" itree="1143">
      <Node pos="s" depth="0" NCoef="0" IVar="39" Cut="-7.2480040788650513e-01" cType="1" res="8.6005209013819695e-03" rms="2.4878992140293121e-01" purity="5.0571656227111816e-01" nType="0">
        <Node pos="l" depth="1" NCoef="0" IVar="79" Cut="1.2487633228302002e+00" cType="1" res="1.7097763484343886e-03" rms="2.3927398025989532e-01" purity="5.2521866559982300e-01" nType="0">
          <Node pos="l" depth="2" NCoef="0" IVar="-1" Cut="0.0000000000000000e+00" cType="1" res="-1.3413643464446068e-03" rms="2.3465305566787720e-01" purity="5.3579199314117432e-01" nType="-99"/>
          <Node pos="r" depth="2" NCoef="0" IVar="-1" Cut="0.0000000000000000e+00" cType="1" res="3.0008681118488312e-02" rms="2.8487095236778259e-01" purity="3.8076314330101013e-01" nType="-99"/>
        </Node>
        <Node pos="r" depth="1" NCoef="0" IVar="4" Cut="3.6887323856353760e+00" cType="1" res="8.4689289331436157e-02" rms="3.2690471410751343e-01" purity="2.9037120938301086e-01" nType="0">
          <Node pos="l" depth="2" NCoef="0" IVar="-1" Cut="0.0000000000000000e+00" cType="1" res="5.8778937906026840e-02" rms="3.6939167976379395e-01" purity="2.7977827191352844e-01" nType="-99"/>
          <Node pos="r" depth="2" NCoef="0" IVar="-1" Cut="0.0000000000000000e+00" cType="1" res="-1.5910074580460787e-03" rms="1.8938268721103668e-01" purity="3.1158345937728882e-01" nType="-99"/>
        </Node>
      </Node>
    </BinaryTree>
    <BinaryTree type="DecisionTree" boostWeight="1.0000000000000000e+00" itree="1144">
      <Node pos="s" depth="0" NCoef="0" IVar="1" Cut="3.1576271057128906e+00" cType="1" res="-4.6021314337849617e-03" rms="2.2814369201660156e-01" purity="4.8802655935287476e-01" nType="0">
        <Node pos="l" depth="1" NCoef="0" IVar="60" Cut="-6.1584526300430298e-01" cType="1" res="7.0963446050882339e-03" rms="2.3934718966484070e-01" purity="4.4222456216812134e-01" nType="0">
          <Node pos="l" depth="2" NCoef="0" IVar="-1" Cut="0.0000000000000000e+00" cType="1" res="5.0910317804664373e-04" rms="2.3111948370933533e-01" purity="4.5595309138298035e-01" nType="-99"/>
          <Node pos="r" depth="2" NCoef="0" IVar="-1" Cut="0.0000000000000000e+00" cType="1" res="3.3022183924913406e-02" rms="3.2596629858016968e-01" purity="2.4314722418785095e-01" nType="-99"/>
        </Node>
        <Node pos="r" depth="1" NCoef="0" IVar="57" Cut="5.3435642272233963e-02" cType="1" res="-3.2468378543853760e-02" rms="1.9614030420780182e-01" purity="5.9712874889373779e-01" nType="0">
          <Node pos="l" depth="2" NCoef="0" IVar="-1" Cut="0.0000000000000000e+00" cType="1" res="-5.9070441871881485e-02" rms="-nan" purity="-7.2118146345019341e-03" nType="-99"/>
          <Node pos="r" depth="2" NCoef="0" IVar="-1" Cut="0.0000000000000000e+00" cType="1" res="-4.2442907579243183e-03" rms="2.5594258308410645e-01" purity="7.1021968126296997e-01" nType="-99"/>
        </Node>
      </Node>
    </BinaryTree>
    <BinaryTree type="DecisionTree" boostWeight="1.0000000000000000e+00" itree="1145">
      <Node pos="s" depth="0" NCoef="0" IVar="34" Cut="-1.2998940944671631e+00" cType="1" res="6.0415030457079411e-03" rms="2.3842228949069977e-01" purity="4.9826145172119141e-01" nType="0">
        <Node pos="l" depth="1" NCoef="0" IVar="59" Cut="1.3587996959686279e+00" cType="1" res="4.5016761869192123e-02" rms="2.5979393720626831e-01" purity="2.8631621599197388e-01" nType="0">
          <Node pos="l" depth="2" NCoef="0" IVar="-1" Cut="0.0000000000000000e+00" cType="1" res="-1.1072140187025070e-03" rms="1.2255444377660751e-01" purity="2.0842416584491730e-01" nType="-99"/>
          <Node pos="r" depth="2" NCoef="0" IVar="-1" Cut="0.0000000000000000e+00" cType="1" res="3.7099961191415787e-02" rms="3.5875731706619263e-01" purity="3.8718459010124207e-01" nType="-99"/>
        </Node>
        <Node pos="r" depth="1" NCoef="0" IVar="10" Cut="2.7335197925567627e+00" cType="1" res="-1.1627498315647244e-03" rms="2.3354734480381012e-01" purity="5.3743779659271240e-01" nType="0">
          <Node pos="l" depth="2" NCoef="0" IVar="-1" Cut="0.0000000000000000e+00" cType="1" res="-3.9867803454399109e-02" rms="-nan" purity="8.8991172611713409e-02" nType="-99"/>
          <Node pos="r" depth="2" NCoef="0" IVar="-1" Cut="0.0000000000000000e+00" cType="1" res="5.7498284149914980e-04" rms="2.3917509615421295e-01" purity="5.4913550615310669e-01" nType="-99"/>
        </Node>
      </Node>
    </BinaryTree>
    <BinaryTree type="DecisionTree" boostWeight="1.0000000000000000e+00" itree="1146">
      <Node pos="s" depth="0" NCoef="0" IVar="3" Cut="5.4801101684570312e+00" cType="1" res="-1.3106641126796603e-03" rms="2.3253181576728821e-01" purity="4.9737858772277832e-01" nType="0">
        <Node pos="l" depth="1" NCoef="0" IVar="37" Cut="1.3979448080062866e+00" cType="1" res="1.3038723263889551e-03" rms="2.3923574388027191e-01" purity="5.0690066814422607e-01" nType="0">
          <Node pos="l" depth="2" NCoef="0" IVar="-1" Cut="0.0000000000000000e+00" cType="1" res="1.4687057118862867e-03" rms="2.4304254353046417e-01" purity="5.1484835147857666e-01" nType="-99"/>
          <Node pos="r" depth="2" NCoef="0" IVar="-1" Cut="0.0000000000000000e+00" cType="1" res="-4.2206022888422012e-02" rms="-nan" purity="2.2900323569774628e-01" nType="-99"/>
        </Node>
        <Node pos="r" depth="1" NCoef="0" IVar="-1" Cut="0.0000000000000000e+00" cType="1" res="-3.8206014782190323e-02" rms="-nan" purity="7.7463947236537933e-02" nType="-99"/>
      </Node>
    </BinaryTree>
    <BinaryTree type="DecisionTree" boostWeight="1.0000000000000000e+00" itree="1147">
      <Node pos="s" depth="0" NCoef="0" IVar="67" Cut="1.3820109367370605e+00" cType="1" res="4.7536664642393589e-03" rms="2.3486956954002380e-01" purity="5.0530421733856201e-01" nType="0">
        <Node pos="l" depth="1" NCoef="0" IVar="46" Cut="1.0263212919235229e+00" cType="1" res="8.0146184191107750e-03" rms="2.4252207577228546e-01" purity="5.1910704374313354e-01" nType="0">
          <Node pos="l" depth="2" NCoef="0" IVar="-1" Cut="0.0000000000000000e+00" cType="1" res="5.9044635854661465e-03" rms="2.6152268052101135e-01" purity="5.6019711494445801e-01" nType="-99"/>
          <Node pos="r" depth="2" NCoef="0" IVar="-1" Cut="0.0000000000000000e+00" cType="1" res="-8.1374552100896835e-03" rms="1.5639795362949371e-01" purity="3.7625294923782349e-01" nType="-99"/>
        </Node>
        <Node pos="r" depth="1" NCoef="0" IVar="-1" Cut="0.0000000000000000e+00" cType="1" res="-4.7551359981298447e-02" rms="-nan" purity="1.1419498175382614e-01" nType="-99"/>
      </Node>
    </BinaryTree>
    <BinaryTree type="DecisionTree" boostWeight="1.0000000000000000e+00" itree="1148">
      <Node pos="s" depth="0" NCoef="0" IVar="3" Cut="5.4555673599243164e+00" cType="1" res="-3.1169890426099300e-03" rms="2.2955213487148285e-01" purity="4.9374741315841675e-01" nType="0">
        <Node pos="l" depth="1" NCoef="0" IVar="13" Cut="-9.1417551040649414e-01" cType="1" res="1.4478470257017761e-04" rms="2.3877064883708954e-01" purity="5.0514066219329834e-01" nType="0">
          <Node pos="l" depth="2" NCoef="0" IVar="-1" Cut="0.0000000000000000e+00" cType="1" res="4.0544677525758743e-02" rms="2.4630069732666016e-01" purity="2.2859193384647369e-01" nType="-99"/>
          <Node pos="r" depth="2" NCoef="0" IVar="-1" Cut="0.0000000000000000e+00" cType="1" res="-3.2878804486244917e-03" rms="2.3596727848052979e-01" purity="5.5872225761413574e-01" nType="-99"/>
        </Node>
        <Node pos="r" depth="1" NCoef="0" IVar="-1" Cut="0.0000000000000000e+00" cType="1" res="-4.1454453021287918e-02" rms="-nan" purity="6.7398823797702789e-02" nType="-99"/>
      </Node>
    </BinaryTree>
    <BinaryTree type="DecisionTree" boostWeight="1.0000000000000000e+00" itree="1149">
      <Node pos="s" depth="0" NCoef="0" IVar="17" Cut="1.4084087610244751e+00" cType="1" res="-2.0578503608703613e-03" rms="2.2380937635898590e-01" purity="4.9875217676162720e-01" nType="0">
        <Node pos="l" depth="1" NCoef="0" IVar="57" Cut="-1.3379193544387817e+00" cType="1" res="-2.1994961425662041e-02" rms="-nan" purity="3.3478885889053345e-02" nType="-99"/>
        <Node pos="r" depth="1" NCoef="0" IVar="40" Cut="1.5297567844390869e+00" cType="1" res="8.9574474841356277e-03" rms="2.7463474869728088e-01" purity="6.9136506319046021e-01" nType="0">
          <Node pos="l" depth="2" NCoef="0" IVar="-1" Cut="0.0000000000000000e+00" cType="1" res="1.2817319948226213e-03" rms="2.6934778690338135e-01" purity="6.9914776086807251e-01" nType="-99"/>
          <Node pos="r" depth="2" NCoef="0" IVar="-1" Cut="0.0000000000000000e+00" cType="1" res="3.4504871815443039e-02" rms="3.6803323030471802e-01" purity="4.8810219764709473e-01" nType="-99"/>
        </Node>
      </Node>
    </BinaryTree>
    <BinaryTree type="DecisionTree" boostWeight="1.0000000000000000e+00" itree="1150">
      <Node pos="s" depth="0" NCoef="0" IVar="5" Cut="2.6975771412253380e-02" cType="1" res="-5.4080006666481495e-03" rms="2.1682423353195190e-01" purity="4.9300268292427063e-01" nType="0">
        <Node pos="l" depth="1" NCoef="0" IVar="16" Cut="-5.7549637556076050e-01" cType="1" res="-2.0562121644616127e-02" rms="-nan" purity="3.4257742762565613e-01" nType="-99"/>
        <Node pos="r" depth="1" NCoef="0" IVar="58" Cut="-1.4156405925750732e+00" cType="1" res="2.7363623958081007e-03" rms="2.3857468366622925e-01" purity="5.2014553546905518e-01" nType="0">
          <Node pos="l" depth="2" NCoef="0" IVar="-1" Cut="0.0000000000000000e+00" cType="1" res="-2.3641647771000862e-02" rms="-nan" purity="3.0931550264358521e-01" nType="-99"/>
          <Node pos="r" depth="2" NCoef="0" IVar="-1" Cut="0.0000000000000000e+00" cType="1" res="2.8261411935091019e-03" rms="2.4913549423217773e-01" purity="5.4033434391021729e-01" nType="-99"/>
        </Node>
      </Node>
    </BinaryTree>
    <BinaryTree type="DecisionTree" boostWeight="1.0000000000000000e+00" itree="1151">
      <Node pos="s" depth="0" NCoef="0" IVar="35" Cut="1.3662859201431274e+00" cType="1" res="1.9943532533943653e-03" rms="2.3600253462791443e-01" purity="5.0454169511795044e-01" nType="0">
        <Node pos="l" depth="1" NCoef="0" IVar="3" Cut="5.3312311172485352e+00" cType="1" res="7.4177477508783340e-03" rms="2.4295498430728912e-01" purity="5.1568078994750977e-01" nType="0">
          <Node pos="l" depth="2" NCoef="0" IVar="-1" Cut="0.0000000000000000e+00" cType="1" res="8.2483078585937619e-04" rms="2.3954966664314270e-01" purity="5.2868080139160156e-01" nType="-99"/>
          <Node pos="r" depth="2" NCoef="0" IVar="-1" Cut="0.0000000000000000e+00" cType="1" res="2.5515383109450340e-02" rms="2.7547839283943176e-01" purity="3.4289994835853577e-01" nType="-99"/>
        </Node>
        <Node pos="r" depth="1" NCoef="0" IVar="16" Cut="-5.2896451950073242e-01" cType="1" res="-6.8925976753234863e-02" rms="8.2087472081184387e-02" purity="3.5887816548347473e-01" nType="0">
          <Node pos="l" depth="2" NCoef="0" IVar="-1" Cut="0.0000000000000000e+00" cType="1" res="1.3370460364967585e-03" rms="2.2974942624568939e-01" purity="3.8260102272033691e-01" nType="-99"/>
          <Node pos="r" depth="2" NCoef="0" IVar="-1" Cut="0.0000000000000000e+00" cType="1" res="-5.6862305849790573e-02" rms="-nan" purity="3.3536452054977417e-01" nType="-99"/>
        </Node>
      </Node>
    </BinaryTree>
    <BinaryTree type="DecisionTree" boostWeight="1.0000000000000000e+00" itree="1152">
      <Node pos="s" depth="0" NCoef="0" IVar="78" Cut="1.3300526142120361e+00" cType="1" res="8.1026338739320636e-04" rms="2.2243553400039673e-01" purity="5.0220912694931030e-01" nType="0">
        <Node pos="l" depth="1" NCoef="0" IVar="17" Cut="9.8300570249557495e-01" cType="1" res="-5.7570980861783028e-03" rms="2.1311728656291962e-01" purity="5.3560066223144531e-01" nType="0">
          <Node pos="l" depth="2" NCoef="0" IVar="-1" Cut="0.0000000000000000e+00" cType="1" res="-6.2148038297891617e-02" rms="-nan" purity="-1.7762351781129837e-02" nType="-99"/>
          <Node pos="r" depth="2" NCoef="0" IVar="-1" Cut="0.0000000000000000e+00" cType="1" res="1.6540203941985965e-03" rms="2.5863280892372131e-01" purity="6.6610735654830933e-01" nType="-99"/>
        </Node>
        <Node pos="r" depth="1" NCoef="0" IVar="46" Cut="9.8279929161071777e-01" cType="1" res="5.6296464055776596e-02" rms="2.8341591358184814e-01" purity="2.2009079158306122e-01" nType="0">
          <Node pos="l" depth="2" NCoef="0" IVar="-1" Cut="0.0000000000000000e+00" cType="1" res="-3.4991247957805172e-05" rms="1.9680371880531311e-01" purity="2.0902021229267120e-01" nType="-99"/>
          <Node pos="r" depth="2" NCoef="0" IVar="-1" Cut="0.0000000000000000e+00" cType="1" res="6.0401510447263718e-02" rms="3.4282702207565308e-01" purity="2.3184578120708466e-01" nType="-99"/>
        </Node>
      </Node>
    </BinaryTree>
    <BinaryTree type="DecisionTree" boostWeight="1.0000000000000000e+00" itree="1153">
      <Node pos="s" depth="0" NCoef="0" IVar="60" Cut="-1.1059701442718506e+00" cType="1" res="1.6195767093449831e-03" rms="2.3347945511341095e-01" purity="5.0979465246200562e-01" nType="0">
        <Node pos="l" depth="1" NCoef="0" IVar="52" Cut="2.5002076625823975e+00" cType="1" res="1.0674864053726196e-02" rms="2.4942281842231750e-01" purity="5.6354796886444092e-01" nType="0">
          <Node pos="l" depth="2" NCoef="0" IVar="-1" Cut="0.0000000000000000e+00" cType="1" res="3.5993739962577820e-02" rms="3.4813460707664490e-01" purity="2.9842880368232727e-01" nType="-99"/>
          <Node pos="r" depth="2" NCoef="0" IVar="-1" Cut="0.0000000000000000e+00" cType="1" res="1.4877158682793379e-03" rms="2.3985850811004639e-01" purity="5.8151274919509888e-01" nType="-99"/>
        </Node>
        <Node pos="r" depth="1" NCoef="0" IVar="34" Cut="-1.3770899772644043e+00" cType="1" res="-4.3910712003707886e-02" rms="1.1539538949728012e-01" purity="2.3952126502990723e-01" nType="0">
          <Node pos="l" depth="2" NCoef="0" IVar="-1" Cut="0.0000000000000000e+00" cType="1" res="-1.0206934064626694e-01" rms="-nan" purity="-7.0981159806251526e-02" nType="-99"/>
          <Node pos="r" depth="2" NCoef="0" IVar="-1" Cut="0.0000000000000000e+00" cType="1" res="-9.3669323250651360e-03" rms="1.7177960276603699e-01" purity="2.8229659795761108e-01" nType="-99"/>
        </Node>
      </Node>
    </BinaryTree>
    <BinaryTree type="DecisionTree" boostWeight="1.0000000000000000e+00" itree="1154">
      <Node pos="s" depth="0" NCoef="0" IVar="84" Cut="-5.2842384576797485e-01" cType="1" res="-3.5467676352709532e-03" rms="2.2484113276004791e-01" purity="4.9625679850578308e-01" nType="0">
        <Node pos="l" depth="1" NCoef="0" IVar="36" Cut="1.4441325664520264e+00" cType="1" res="7.7237762510776520e-02" rms="3.1735879182815552e-01" purity="5.2917742729187012e-01" nType="0">
          <Node pos="l" depth="2" NCoef="0" IVar="-1" Cut="0.0000000000000000e+00" cType="1" res="6.5151333808898926e-02" rms="3.7611067295074463e-01" purity="3.5760983824729919e-01" nType="-99"/>
          <Node pos="r" depth="2" NCoef="0" IVar="-1" Cut="0.0000000000000000e+00" cType="1" res="2.4500227300450206e-04" rms="2.2929218411445618e-01" purity="6.7900204658508301e-01" nType="-99"/>
        </Node>
        <Node pos="r" depth="1" NCoef="0" IVar="5" Cut="-1.3319107890129089e-01" cType="1" res="-7.8665995970368385e-03" rms="2.1795298159122467e-01" purity="4.9449643492698669e-01" nType="0">
          <Node pos="l" depth="2" NCoef="0" IVar="-1" Cut="0.0000000000000000e+00" cType="1" res="-7.1779988706111908e-02" rms="-nan" purity="3.5758931189775467e-02" nType="-99"/>
          <Node pos="r" depth="2" NCoef="0" IVar="-1" Cut="0.0000000000000000e+00" cType="1" res="-1.4961424749344587e-03" rms="2.2862656414508820e-01" purity="5.1339560747146606e-01" nType="-99"/>
        </Node>
      </Node>
    </BinaryTree>
    <BinaryTree type="DecisionTree" boostWeight="1.0000000000000000e+00" itree="1155">
      <Node pos="s" depth="0" NCoef="0" IVar="57" Cut="-5.6425857543945312e-01" cType="1" res="5.8017391711473465e-03" rms="2.3747843503952026e-01" purity="5.0123816728591919e-01" nType="0">
        <Node pos="l" depth="1" NCoef="0" IVar="38" Cut="1.2053092718124390e+00" cType="1" res="-2.1664658561348915e-02" rms="-nan" purity="2.8991814702749252e-02" nType="-99"/>
        <Node pos="r" depth="1" NCoef="0" IVar="17" Cut="-1.2603657245635986e+00" cType="1" res="1.3202761299908161e-02" rms="2.6682305335998535e-01" purity="6.0192245244979858e-01" nType="0">
          <Node pos="l" depth="2" NCoef="0" IVar="-1" Cut="0.0000000000000000e+00" cType="1" res="2.0324152708053589e-01" rms="2.6875478029251099e-01" purity="8.8598616421222687e-02" nType="-99"/>
          <Node pos="r" depth="2" NCoef="0" IVar="-1" Cut="0.0000000000000000e+00" cType="1" res="1.7187283374369144e-03" rms="2.6561555266380310e-01" purity="6.6143089532852173e-01" nType="-99"/>
        </Node>
      </Node>
    </BinaryTree>
    <BinaryTree type="DecisionTree" boostWeight="1.0000000000000000e+00" itree="1156">
      <Node pos="s" depth="0" NCoef="0" IVar="31" Cut="2.4113132953643799e+00" cType="1" res="-2.8262599371373653e-03" rms="2.2709172964096069e-01" purity="4.9528869986534119e-01" nType="0">
        <Node pos="l" depth="1" NCoef="0" IVar="37" Cut="-6.0784727334976196e-01" cType="1" res="-3.5833038389682770e-02" rms="-nan" purity="6.5574519336223602e-02" nType="-99"/>
        <Node pos="r" depth="1" NCoef="0" IVar="11" Cut="1.2345679104328156e-02" cType="1" res="1.4867960708215833e-03" rms="2.3542112112045288e-01" purity="5.1732182502746582e-01" nType="0">
          <Node pos="l" depth="2" NCoef="0" IVar="-1" Cut="0.0000000000000000e+00" cType="1" res="2.1053643897175789e-02" rms="3.0376932024955750e-01" purity="3.7325626611709595e-01" nType="-99"/>
          <Node pos="r" depth="2" NCoef="0" IVar="-1" Cut="0.0000000000000000e+00" cType="1" res="-1.7917302902787924e-03" rms="2.2710400819778442e-01" purity="5.3050601482391357e-01" nType="-99"/>
        </Node>
      </Node>
    </BinaryTree>
    <BinaryTree type="DecisionTree" boostWeight="1.0000000000000000e+00" itree="1157">
      <Node pos="s" depth="0" NCoef="0" IVar="61" Cut="-5.6876938790082932e-02" cType="1" res="7.3183292988687754e-04" rms="2.3527207970619202e-01" purity="4.9632295966148376e-01" nType="0">
        <Node pos="l" depth="1" NCoef="0" IVar="-1" Cut="0.0000000000000000e+00" cType="1" res="4.5720916241407394e-02" rms="3.7367829680442810e-01" purity="6.7874050140380859e-01" nType="-99"/>
        <Node pos="r" depth="1" NCoef="0" IVar="14" Cut="-1.4537736177444458e+00" cType="1" res="-2.7091153897345066e-03" rms="2.2933527827262878e-01" purity="4.9131146073341370e-01" nType="0">
          <Node pos="l" depth="2" NCoef="0" IVar="-1" Cut="0.0000000000000000e+00" cType="1" res="-2.3243770003318787e-02" rms="-nan" purity="1.5610893070697784e-01" nType="-99"/>
          <Node pos="r" depth="2" NCoef="0" IVar="-1" Cut="0.0000000000000000e+00" cType="1" res="5.7246687356382608e-04" rms="2.4196510016918182e-01" purity="5.2274847030639648e-01" nType="-99"/>
        </Node>
      </Node>
    </BinaryTree>
    <BinaryTree type="DecisionTree" boostWeight="1.0000000000000000e+00" itree="1158">
      <Node pos="s" depth="0" NCoef="0" IVar="35" Cut="1.4821839332580566e+00" cType="1" res="-1.3186855940148234e-03" rms="2.3434370756149292e-01" purity="4.8824474215507507e-01" nType="0">
        <Node pos="l" depth="1" NCoef="0" IVar="46" Cut="1.3499330282211304e+00" cType="1" res="1.5175188891589642e-03" rms="2.3924925923347473e-01" purity="4.9727389216423035e-01" nType="0">
          <Node pos="l" depth="2" NCoef="0" IVar="-1" Cut="0.0000000000000000e+00" cType="1" res="-5.7936256052926183e-04" rms="2.3721493780612946e-01" purity="5.0618982315063477e-01" nType="-99"/>
          <Node pos="r" depth="2" NCoef="0" IVar="-1" Cut="0.0000000000000000e+00" cType="1" res="3.9868347346782684e-02" rms="2.7434495091438293e-01" purity="2.7092477679252625e-01" nType="-99"/>
        </Node>
        <Node pos="r" depth="1" NCoef="0" IVar="-1" Cut="0.0000000000000000e+00" cType="1" res="-5.2865795791149139e-02" rms="-nan" purity="1.1743260174989700e-01" nType="-99"/>
      </Node>
    </BinaryTree>
    <BinaryTree type="DecisionTree" boostWeight="1.0000000000000000e+00" itree="1159">
      <Node pos="s" depth="0" NCoef="0" IVar="40" Cut="1.4367910623550415e+00" cType="1" res="-2.9627813491970301e-03" rms="2.3356664180755615e-01" purity="4.9654445052146912e-01" nType="0">
        <Node pos="l" depth="1" NCoef="0" IVar="83" Cut="2.5992438197135925e-01" cType="1" res="1.1391643201932311e-03" rms="2.4335598945617676e-01" purity="5.1618796586990356e-01" nType="0">
          <Node pos="l" depth="2" NCoef="0" IVar="-1" Cut="0.0000000000000000e+00" cType="1" res="-1.7593315569683909e-03" rms="2.3684880137443542e-01" purity="5.2360719442367554e-01" nType="-99"/>
          <Node pos="r" depth="2" NCoef="0" IVar="-1" Cut="0.0000000000000000e+00" cType="1" res="1.8676277250051498e-02" rms="2.8997379541397095e-01" purity="4.4958022236824036e-01" nType="-99"/>
        </Node>
        <Node pos="r" depth="1" NCoef="0" IVar="40" Cut="1.5965939760208130e+00" cType="1" res="-3.1888674944639206e-02" rms="-nan" purity="1.7599520087242126e-01" nType="-99"/>
      </Node>
    </BinaryTree>
    <BinaryTree type="DecisionTree" boostWeight="1.0000000000000000e+00" itree="1160">
      <Node pos="s" depth="0" NCoef="0" IVar="27" Cut="8.4192156791687012e-01" cType="1" res="4.1484278626739979e-03" rms="2.3748034238815308e-01" purity="5.0419062376022339e-01" nType="0">
        <Node pos="l" depth="1" NCoef="0" IVar="76" Cut="-7.6382756233215332e-01" cType="1" res="-7.1466386318206787e-02" rms="2.0389227196574211e-02" purity="1.2339609861373901e-01" nType="0">
          <Node pos="l" depth="2" NCoef="0" IVar="-1" Cut="0.0000000000000000e+00" cType="1" res="-5.2247118204832077e-02" rms="-nan" purity="1.6669337451457977e-01" nType="-99"/>
          <Node pos="r" depth="2" NCoef="0" IVar="-1" Cut="0.0000000000000000e+00" cType="1" res="-4.2082695290446281e-03" rms="2.1549840271472931e-01" purity="7.7613279223442078e-02" nType="-99"/>
        </Node>
        <Node pos="r" depth="1" NCoef="0" IVar="5" Cut="-1.6314899921417236e-01" cType="1" res="9.1032711789011955e-03" rms="2.4426625669002533e-01" purity="5.2914309501647949e-01" nType="0">
          <Node pos="l" depth="2" NCoef="0" IVar="-1" Cut="0.0000000000000000e+00" cType="1" res="4.6114414930343628e-02" rms="2.8016716241836548e-01" purity="2.7224934101104736e-01" nType="-99"/>
          <Node pos="r" depth="2" NCoef="0" IVar="-1" Cut="0.0000000000000000e+00" cType="1" res="2.0099272951483727e-03" rms="2.4219293892383575e-01" purity="5.3843641281127930e-01" nType="-99"/>
        </Node>
      </Node>
    </BinaryTree>
    <BinaryTree type="DecisionTree" boostWeight="1.0000000000000000e+00" itree="1161">
      <Node pos="s" depth="0" NCoef="0" IVar="39" Cut="-8.3391493558883667e-01" cType="1" res="2.0506740838754922e-04" rms="2.2666949033737183e-01" purity="4.9499049782752991e-01" nType="0">
        <Node pos="l" depth="1" NCoef="0" IVar="3" Cut="5.5120820999145508e+00" cType="1" res="6.0197208076715469e-03" rms="2.3973099887371063e-01" purity="5.3030025959014893e-01" nType="0">
          <Node pos="l" depth="2" NCoef="0" IVar="-1" Cut="0.0000000000000000e+00" cType="1" res="1.2405803427100182e-03" rms="2.3620936274528503e-01" purity="5.3555893898010254e-01" nType="-99"/>
          <Node pos="r" depth="2" NCoef="0" IVar="-1" Cut="0.0000000000000000e+00" cType="1" res="3.5972256213426590e-02" rms="3.4376785159111023e-01" purity="3.0122050642967224e-01" nType="-99"/>
        </Node>
        <Node pos="r" depth="1" NCoef="0" IVar="55" Cut="3.9461261034011841e-01" cType="1" res="-2.2308032959699631e-02" rms="-nan" purity="1.8061332404613495e-01" nType="-99"/>
      </Node>
    </BinaryTree>
    <BinaryTree type="DecisionTree" boostWeight="1.0000000000000000e+00" itree="1162">
      <Node pos="s" depth="0" NCoef="0" IVar="49" Cut="-4.5539960265159607e-01" cType="1" res="-1.7757111927494407e-03" rms="2.2476442158222198e-01" purity="4.9633893370628357e-01" nType="0">
        <Node pos="l" depth="1" NCoef="0" IVar="52" Cut="2.3441362380981445e+00" cType="1" res="1.4589632628485560e-03" rms="2.3080654442310333e-01" purity="5.0278472900390625e-01" nType="0">
          <Node pos="l" depth="2" NCoef="0" IVar="-1" Cut="0.0000000000000000e+00" cType="1" res="-4.4013798236846924e-02" rms="-nan" purity="5.3822893649339676e-02" nType="-99"/>
          <Node pos="r" depth="2" NCoef="0" IVar="-1" Cut="0.0000000000000000e+00" cType="1" res="1.6320510767400265e-03" rms="2.3782488703727722e-01" purity="5.1472640037536621e-01" nType="-99"/>
        </Node>
        <Node pos="r" depth="1" NCoef="0" IVar="-1" Cut="0.0000000000000000e+00" cType="1" res="-5.5778637528419495e-02" rms="-nan" purity="2.1437279880046844e-01" nType="-99"/>
      </Node>
    </BinaryTree>
    <BinaryTree type="DecisionTree" boostWeight="1.0000000000000000e+00" itree="1163">
      <Node pos="s" depth="0" NCoef="0" IVar="39" Cut="-1.9371734857559204e+00" cType="1" res="7.5994676444679499e-04" rms="2.3372279107570648e-01" purity="4.9975743889808655e-01" nType="0">
        <Node pos="l" depth="1" NCoef="0" IVar="0" Cut="1.0636565685272217e+00" cType="1" res="-1.9322097301483154e-02" rms="2.0947840809822083e-01" purity="6.0599923133850098e-01" nType="0">
          <Node pos="l" depth="2" NCoef="0" IVar="-1" Cut="0.0000000000000000e+00" cType="1" res="-1.5816962113603950e-03" rms="2.3582750558853149e-01" purity="6.5385717153549194e-01" nType="-99"/>
          <Node pos="r" depth="2" NCoef="0" IVar="-1" Cut="0.0000000000000000e+00" cType="1" res="-3.3513057976961136e-02" rms="-nan" purity="3.7979280948638916e-01" nType="-99"/>
        </Node>
        <Node pos="r" depth="1" NCoef="0" IVar="31" Cut="2.6376497745513916e+00" cType="1" res="2.2316895425319672e-02" rms="2.5546631217002869e-01" purity="3.8571289181709290e-01" nType="0">
          <Node pos="l" depth="2" NCoef="0" IVar="-1" Cut="0.0000000000000000e+00" cType="1" res="2.9163481667637825e-02" rms="3.1207123398780823e-01" purity="2.2901524603366852e-01" nType="-99"/>
          <Node pos="r" depth="2" NCoef="0" IVar="-1" Cut="0.0000000000000000e+00" cType="1" res="3.2039091456681490e-03" rms="2.3619097471237183e-01" purity="4.2788586020469666e-01" nType="-99"/>
        </Node>
      </Node>
    </BinaryTree>
    <BinaryTree type="DecisionTree" boostWeight="1.0000000000000000e+00" itree="1164">
      <Node pos="s" depth="0" NCoef="0" IVar="4" Cut="3.2693259716033936e+00" cType="1" res="1.6316272376570851e-04" rms="2.3233284056186676e-01" purity="5.0457990169525146e-01" nType="0">
        <Node pos="l" depth="1" NCoef="0" IVar="2" Cut="2.3589043617248535e+00" cType="1" res="8.0740734934806824e-02" rms="3.3551621437072754e-01" purity="2.5221505761146545e-01" nType="0">
          <Node pos="l" depth="2" NCoef="0" IVar="-1" Cut="0.0000000000000000e+00" cType="1" res="-1.5940651297569275e-02" rms="1.2156222760677338e-01" purity="5.1189571619033813e-02" nType="-99"/>
          <Node pos="r" depth="2" NCoef="0" IVar="-1" Cut="0.0000000000000000e+00" cType="1" res="4.9679443240165710e-02" rms="4.3677252531051636e-01" purity="4.6709531545639038e-01" nType="-99"/>
        </Node>
        <Node pos="r" depth="1" NCoef="0" IVar="52" Cut="2.5243525505065918e+00" cType="1" res="-4.3035750277340412e-03" rms="2.2438952326774597e-01" purity="5.1856952905654907e-01" nType="0">
          <Node pos="l" depth="2" NCoef="0" IVar="-1" Cut="0.0000000000000000e+00" cType="1" res="-4.1167382150888443e-02" rms="-nan" purity="8.4013760089874268e-02" nType="-99"/>
          <Node pos="r" depth="2" NCoef="0" IVar="-1" Cut="0.0000000000000000e+00" cType="1" res="8.7320740567520261e-04" rms="2.3631060123443604e-01" purity="5.4759073257446289e-01" nType="-99"/>
        </Node>
      </Node>
    </BinaryTree>
    <BinaryTree type="DecisionTree" boostWeight="1.0000000000000000e+00" itree="1165">
      <Node pos="s" depth="0" NCoef="0" IVar="58" Cut="1.4375879764556885e+00" cType="1" res="-1.7356483731418848e-03" rms="2.1980883181095123e-01" purity="4.9765831232070923e-01" nType="0">
        <Node pos="l" depth="1" NCoef="0" IVar="0" Cut="1.4867359399795532e+00" cType="1" res="-4.2559732683002949e-03" rms="2.1398128569126129e-01" purity="5.0017684698104858e-01" nType="0">
          <Node pos="l" depth="2" NCoef="0" IVar="-1" Cut="0.0000000000000000e+00" cType="1" res="-5.1413319306448102e-04" rms="2.2115913033485413e-01" purity="5.0759124755859375e-01" nType="-99"/>
          <Node pos="r" depth="2" NCoef="0" IVar="-1" Cut="0.0000000000000000e+00" cType="1" res="-4.8677593469619751e-02" rms="-nan" purity="1.9275890290737152e-01" nType="-99"/>
        </Node>
        <Node pos="r" depth="1" NCoef="0" IVar="-1" Cut="0.0000000000000000e+00" cType="1" res="4.9183849245309830e-02" rms="3.9416077733039856e-01" purity="3.7591651082038879e-01" nType="-99"/>
      </Node>
    </BinaryTree>
    <BinaryTree type="DecisionTree" boostWeight="1.0000000000000000e+00" itree="1166">
      <Node pos="s" depth="0" NCoef="0" IVar="52" Cut="2.8342158794403076e+00" cType="1" res="-1.5382822602987289e-03" rms="2.2435425221920013e-01" purity="4.9874675273895264e-01" nType="0">
        <Node pos="l" depth="1" NCoef="0" IVar="84" Cut="-3.4760504961013794e-01" cType="1" res="-3.0225018039345741e-02" rms="1.5342184901237488e-01" purity="2.8573074936866760e-01" nType="0">
          <Node pos="l" depth="2" NCoef="0" IVar="-1" Cut="0.0000000000000000e+00" cType="1" res="-5.1004000008106232e-02" rms="-nan" purity="1.9729927182197571e-01" nType="-99"/>
          <Node pos="r" depth="2" NCoef="0" IVar="-1" Cut="0.0000000000000000e+00" cType="1" res="-6.0296282172203064e-03" rms="1.8610557913780212e-01" purity="2.9744672775268555e-01" nType="-99"/>
        </Node>
        <Node pos="r" depth="1" NCoef="0" IVar="14" Cut="-2.5649903342127800e-02" cType="1" res="9.5880292356014252e-03" rms="2.4553015828132629e-01" purity="5.8136618137359619e-01" nType="0">
          <Node pos="l" depth="2" NCoef="0" IVar="-1" Cut="0.0000000000000000e+00" cType="1" res="7.8541822731494904e-03" rms="2.6724484562873840e-01" purity="5.7853990793228149e-01" nType="-99"/>
          <Node pos="r" depth="2" NCoef="0" IVar="-1" Cut="0.0000000000000000e+00" cType="1" res="-7.5039896182715893e-03" rms="1.7897430062294006e-01" purity="5.8821403980255127e-01" nType="-99"/>
        </Node>
      </Node>
    </BinaryTree>
    <BinaryTree type="DecisionTree" boostWeight="1.0000000000000000e+00" itree="1167">
      <Node pos="s" depth="0" NCoef="0" IVar="39" Cut="-2.4680941104888916e+00" cType="1" res="4.1358955204486847e-03" rms="2.3764553666114807e-01" purity="4.9852037429809570e-01" nType="0">
        <Node pos="l" depth="1" NCoef="0" IVar="36" Cut="-4.8738846182823181e-01" cType="1" res="4.3303381651639938e-02" rms="2.9538285732269287e-01" purity="6.6469246149063110e-01" nType="0">
          <Node pos="l" depth="2" NCoef="0" IVar="-1" Cut="0.0000000000000000e+00" cType="1" res="7.0233657956123352e-02" rms="4.0230226516723633e-01" purity="3.1370854377746582e-01" nType="-99"/>
          <Node pos="r" depth="2" NCoef="0" IVar="-1" Cut="0.0000000000000000e+00" cType="1" res="5.8961790055036545e-03" rms="2.6166582107543945e-01" purity="7.3404741287231445e-01" nType="-99"/>
        </Node>
        <Node pos="r" depth="1" NCoef="0" IVar="27" Cut="1.5416630506515503e+00" cType="1" res="-3.8317476864904165e-03" rms="2.2324720025062561e-01" purity="4.6471685171127319e-01" nType="0">
          <Node pos="l" depth="2" NCoef="0" IVar="-1" Cut="0.0000000000000000e+00" cType="1" res="-1.4063617214560509e-02" rms="1.2139958888292313e-01" purity="2.5209671258926392e-01" nType="-99"/>
          <Node pos="r" depth="2" NCoef="0" IVar="-1" Cut="0.0000000000000000e+00" cType="1" res="3.4536975435912609e-03" rms="2.5328090786933899e-01" purity="5.5515956878662109e-01" nType="-99"/>
        </Node>
      </Node>
    </BinaryTree>
    <BinaryTree type="DecisionTree" boostWeight="1.0000000000000000e+00" itree="1168">
      <Node pos="s" depth="0" NCoef="0" IVar="71" Cut="-8.5321778059005737e-01" cType="1" res="-1.5203641960397363e-03" rms="2.2532515227794647e-01" purity="4.9996733665466309e-01" nType="0">
        <Node pos="l" depth="1" NCoef="0" IVar="56" Cut="-1.0674774646759033e+00" cType="1" res="4.6574240550398827e-03" rms="2.3668712377548218e-01" purity="5.0789827108383179e-01" nType="0">
          <Node pos="l" depth="2" NCoef="0" IVar="-1" Cut="0.0000000000000000e+00" cType="1" res="8.1230532377958298e-03" rms="2.6355391740798950e-01" purity="5.1111209392547607e-01" nType="-99"/>
          <Node pos="r" depth="2" NCoef="0" IVar="-1" Cut="0.0000000000000000e+00" cType="1" res="-5.8200536295771599e-03" rms="1.9968630373477936e-01" purity="5.0422948598861694e-01" nType="-99"/>
        </Node>
        <Node pos="r" depth="1" NCoef="0" IVar="15" Cut="-1.4154626429080963e-01" cType="1" res="-2.8221953660249710e-02" rms="-nan" purity="4.0526285767555237e-01" nType="-99"/>
      </Node>
    </BinaryTree>
    <BinaryTree type="DecisionTree" boostWeight="1.0000000000000000e+00" itree="1169">
      <Node pos="s" depth="0" NCoef="0" IVar="72" Cut="2.5925925374031067e-01" cType="1" res="8.2277413457632065e-03" rms="2.4135789275169373e-01" purity="5.0489568710327148e-01" nType="0">
        <Node pos="l" depth="1" NCoef="0" IVar="56" Cut="1.3285074234008789e+00" cType="1" res="3.7823983002454042e-03" rms="2.3585097491741180e-01" purity="5.0832569599151611e-01" nType="0">
          <Node pos="l" depth="2" NCoef="0" IVar="-1" Cut="0.0000000000000000e+00" cType="1" res="-8.0545293167233467e-04" rms="2.2430224716663361e-01" purity="5.1160871982574463e-01" nType="-99"/>
          <Node pos="r" depth="2" NCoef="0" IVar="-1" Cut="0.0000000000000000e+00" cType="1" res="2.0835302770137787e-02" rms="3.1986254453659058e-01" purity="4.7727859020233154e-01" nType="-99"/>
        </Node>
        <Node pos="r" depth="1" NCoef="0" IVar="0" Cut="8.7772130966186523e-01" cType="1" res="8.6421079933643341e-02" rms="3.1307715177536011e-01" purity="4.4456243515014648e-01" nType="0">
          <Node pos="l" depth="2" NCoef="0" IVar="-1" Cut="0.0000000000000000e+00" cType="1" res="2.8845602646470070e-03" rms="1.9638945162296295e-01" purity="4.5695576071739197e-01" nType="-99"/>
          <Node pos="r" depth="2" NCoef="0" IVar="-1" Cut="0.0000000000000000e+00" cType="1" res="6.5236024558544159e-02" rms="3.8929280638694763e-01" purity="4.3024012446403503e-01" nType="-99"/>
        </Node>
      </Node>
    </BinaryTree>
    <BinaryTree type="DecisionTree" boostWeight="1.0000000000000000e+00" itree="1170">
      <Node pos="s" depth="0" NCoef="0" IVar="13" Cut="-1.2612122297286987e+00" cType="1" res="2.8067959938198328e-03" rms="2.3422811925411224e-01" purity="4.9699261784553528e-01" nType="0">
        <Node pos="l" depth="1" NCoef="0" IVar="59" Cut="-5.6846839189529419e-01" cType="1" res="4.7196280211210251e-02" rms="2.1184970438480377e-01" purity="2.1470391750335693e-01" nType="0">
          <Node pos="l" depth="2" NCoef="0" IVar="-1" Cut="0.0000000000000000e+00" cType="1" res="-2.4759430438280106e-02" rms="-nan" purity="1.5463863313198090e-01" nType="-99"/>
          <Node pos="r" depth="2" NCoef="0" IVar="-1" Cut="0.0000000000000000e+00" cType="1" res="6.9996975362300873e-02" rms="3.1703317165374756e-01" purity="2.5882089138031006e-01" nType="-99"/>
        </Node>
        <Node pos="r" depth="1" NCoef="0" IVar="34" Cut="-1.4156148433685303e+00" cType="1" res="-4.1220663115382195e-03" rms="2.3678138852119446e-01" purity="5.4105567932128906e-01" nType="0">
          <Node pos="l" depth="2" NCoef="0" IVar="-1" Cut="0.0000000000000000e+00" cType="1" res="-3.2762270420789719e-02" rms="-nan" purity="2.6939082145690918e-01" nType="-99"/>
          <Node pos="r" depth="2" NCoef="0" IVar="-1" Cut="0.0000000000000000e+00" cType="1" res="6.0165335889905691e-04" rms="2.4897977709770203e-01" purity="5.6348657608032227e-01" nType="-99"/>
        </Node>
      </Node>
    </BinaryTree>
    <BinaryTree type="DecisionTree" boostWeight="1.0000000000000000e+00" itree="1171">
      <Node pos="s" depth="0" NCoef="0" IVar="83" Cut="-1.7690105736255646e-01" cType="1" res="-3.2565677538514137e-03" rms="2.2784660756587982e-01" purity="4.9593603610992432e-01" nType="0">
        <Node pos="l" depth="1" NCoef="0" IVar="82" Cut="6.7597901821136475e-01" cType="1" res="3.0489886179566383e-02" rms="2.9441720247268677e-01" purity="5.9261006116867065e-01" nType="0">
          <Node pos="l" depth="2" NCoef="0" IVar="-1" Cut="0.0000000000000000e+00" cType="1" res="-5.5051827803254128e-03" rms="2.3519983887672424e-01" purity="6.0998761653900146e-01" nType="-99"/>
          <Node pos="r" depth="2" NCoef="0" IVar="-1" Cut="0.0000000000000000e+00" cType="1" res="2.5261273607611656e-02" rms="3.3203652501106262e-01" purity="5.7768559455871582e-01" nType="-99"/>
        </Node>
        <Node pos="r" depth="1" NCoef="0" IVar="36" Cut="1.5221682786941528e+00" cType="1" res="-1.3280799612402916e-02" rms="2.0284922420978546e-01" purity="4.6721941232681274e-01" nType="0">
          <Node pos="l" depth="2" NCoef="0" IVar="-1" Cut="0.0000000000000000e+00" cType="1" res="-1.1198713444173336e-02" rms="1.6002084314823151e-01" purity="2.9487374424934387e-01" nType="-99"/>
          <Node pos="r" depth="2" NCoef="0" IVar="-1" Cut="0.0000000000000000e+00" cType="1" res="5.5103707127273083e-03" rms="2.6254707574844360e-01" purity="7.8994250297546387e-01" nType="-99"/>
        </Node>
      </Node>
    </BinaryTree>
    <BinaryTree type="DecisionTree" boostWeight="1.0000000000000000e+00" itree="1172">
      <Node pos="s" depth="0" NCoef="0" IVar="17" Cut="9.0399593114852905e-01" cType="1" res="-6.7544486373662949e-03" rms="2.1961951255798340e-01" purity="4.9739360809326172e-01" nType="0">
        <Node pos="l" depth="1" NCoef="0" IVar="31" Cut="2.9579076766967773e+00" cType="1" res="-5.4425735026597977e-02" rms="-nan" purity="-1.2362464331090450e-02" nType="-99"/>
        <Node pos="r" depth="1" NCoef="0" IVar="57" Cut="-2.2815136238932610e-02" cType="1" res="2.9336351435631514e-03" rms="2.6483395695686340e-01" purity="6.2847650051116943e-01" nType="0">
          <Node pos="l" depth="2" NCoef="0" IVar="-1" Cut="0.0000000000000000e+00" cType="1" res="1.8598705530166626e-02" rms="2.4505715072154999e-01" purity="1.5672448277473450e-01" nType="-99"/>
          <Node pos="r" depth="2" NCoef="0" IVar="-1" Cut="0.0000000000000000e+00" cType="1" res="-1.3157401699572802e-03" rms="2.6733902096748352e-01" purity="7.0824426412582397e-01" nType="-99"/>
        </Node>
      </Node>
    </BinaryTree>
    <BinaryTree type="DecisionTree" boostWeight="1.0000000000000000e+00" itree="1173">
      <Node pos="s" depth="0" NCoef="0" IVar="36" Cut="-1.3377224206924438e+00" cType="1" res="-3.3479756675660610e-03" rms="2.2674927115440369e-01" purity="4.9418470263481140e-01" nType="0">
        <Node pos="l" depth="1" NCoef="0" IVar="58" Cut="-1.2254115343093872e+00" cType="1" res="-4.2014744132757187e-02" rms="-nan" purity="6.4232680015265942e-03" nType="-99"/>
        <Node pos="r" depth="1" NCoef="0" IVar="77" Cut="1.4435455799102783e+00" cType="1" res="3.7250022869557142e-03" rms="2.4906592071056366e-01" purity="5.4888051748275757e-01" nType="0">
          <Node pos="l" depth="2" NCoef="0" IVar="-1" Cut="0.0000000000000000e+00" cType="1" res="5.2401872380869463e-05" rms="2.4629668891429901e-01" purity="5.6351363658905029e-01" nType="-99"/>
          <Node pos="r" depth="2" NCoef="0" IVar="-1" Cut="0.0000000000000000e+00" cType="1" res="5.9648223221302032e-02" rms="2.9692232608795166e-01" purity="1.8046724796295166e-01" nType="-99"/>
        </Node>
      </Node>
    </BinaryTree>
    <BinaryTree type="DecisionTree" boostWeight="1.0000000000000000e+00" itree="1174">
      <Node pos="s" depth="0" NCoef="0" IVar="3" Cut="5.4623022079467773e+00" cType="1" res="3.1423554755747318e-03" rms="2.3724734783172607e-01" purity="4.9988767504692078e-01" nType="0">
        <Node pos="l" depth="1" NCoef="0" IVar="40" Cut="1.5759385824203491e+00" cType="1" res="6.6487179137766361e-03" rms="2.4593269824981689e-01" purity="5.1227140426635742e-01" nType="0">
          <Node pos="l" depth="2" NCoef="0" IVar="-1" Cut="0.0000000000000000e+00" cType="1" res="1.0729421628639102e-03" rms="2.4103823304176331e-01" purity="5.1993632316589355e-01" nType="-99"/>
          <Node pos="r" depth="2" NCoef="0" IVar="-1" Cut="0.0000000000000000e+00" cType="1" res="4.1985429823398590e-02" rms="3.3018934726715088e-01" purity="3.2938820123672485e-01" nType="-99"/>
        </Node>
        <Node pos="r" depth="1" NCoef="0" IVar="-1" Cut="0.0000000000000000e+00" cType="1" res="-5.0018515437841415e-02" rms="-nan" purity="2.2889096289873123e-02" nType="-99"/>
      </Node>
    </BinaryTree>
    <BinaryTree type="DecisionTree" boostWeight="1.0000000000000000e+00" itree="1175">
      <Node pos="s" depth="0" NCoef="0" IVar="39" Cut="-5.0701689720153809e-01" cType="1" res="4.1104904375970364e-03" rms="2.3747259378433228e-01" purity="5.0047576427459717e-01" nType="0">
        <Node pos="l" depth="1" NCoef="0" IVar="54" Cut="1.2345679104328156e-02" cType="1" res="6.5604876726865768e-03" rms="2.4210810661315918e-01" purity="5.1075381040573120e-01" nType="0">
          <Node pos="l" depth="2" NCoef="0" IVar="-1" Cut="0.0000000000000000e+00" cType="1" res="6.7031839862465858e-03" rms="2.5552156567573547e-01" purity="5.2298998832702637e-01" nType="-99"/>
          <Node pos="r" depth="2" NCoef="0" IVar="-1" Cut="0.0000000000000000e+00" cType="1" res="-5.9046503156423569e-03" rms="2.1717159450054169e-01" purity="4.9104937911033630e-01" nType="-99"/>
        </Node>
        <Node pos="r" depth="1" NCoef="0" IVar="-1" Cut="0.0000000000000000e+00" cType="1" res="-5.6468296796083450e-02" rms="-nan" purity="3.0988141894340515e-02" nType="-99"/>
      </Node>
    </BinaryTree>
    <BinaryTree type="DecisionTree" boostWeight="1.0000000000000000e+00" itree="1176">
      <Node pos="s" depth="0" NCoef="0" IVar="4" Cut="3.3125102519989014e+00" cType="1" res="6.1077307909727097e-03" rms="2.2933638095855713e-01" purity="5.1210850477218628e-01" nType="0">
        <Node pos="l" depth="1" NCoef="0" IVar="2" Cut="2.5599579811096191e+00" cType="1" res="7.1943178772926331e-02" rms="2.8718972206115723e-01" purity="2.8822293877601624e-01" nType="0">
          <Node pos="l" depth="2" NCoef="0" IVar="-1" Cut="0.0000000000000000e+00" cType="1" res="7.5995246879756451e-03" rms="2.0816941559314728e-01" purity="1.6769294440746307e-01" nType="-99"/>
          <Node pos="r" depth="2" NCoef="0" IVar="-1" Cut="0.0000000000000000e+00" cType="1" res="4.0288876742124557e-02" rms="3.7474131584167480e-01" purity="5.1501291990280151e-01" nType="-99"/>
        </Node>
        <Node pos="r" depth="1" NCoef="0" IVar="52" Cut="2.9034359455108643e+00" cType="1" res="-9.0949842706322670e-04" rms="2.2113078832626343e-01" purity="5.3597182035446167e-01" nType="0">
          <Node pos="l" depth="2" NCoef="0" IVar="-1" Cut="0.0000000000000000e+00" cType="1" res="-1.0027454234659672e-02" rms="1.5936313569545746e-01" purity="3.8153606653213501e-01" nType="-99"/>
          <Node pos="r" depth="2" NCoef="0" IVar="-1" Cut="0.0000000000000000e+00" cType="1" res="3.8994783535599709e-03" rms="2.4152186512947083e-01" purity="6.0088014602661133e-01" nType="-99"/>
        </Node>
      </Node>
    </BinaryTree>
    <BinaryTree type="DecisionTree" boostWeight="1.0000000000000000e+00" itree="1177">
      <Node pos="s" depth="0" NCoef="0" IVar="39" Cut="-5.0692224502563477e-01" cType="1" res="4.6653230674564838e-03" rms="2.4427543580532074e-01" purity="4.9863985180854797e-01" nType="0">
        <Node pos="l" depth="1" NCoef="0" IVar="42" Cut="-2.7114072814583778e-02" cType="1" res="-1.6200283425860107e-04" rms="2.3702858388423920e-01" purity="5.0407367944717407e-01" nType="0">
          <Node pos="l" depth="2" NCoef="0" IVar="-1" Cut="0.0000000000000000e+00" cType="1" res="5.2230730652809143e-03" rms="2.5771820545196533e-01" purity="5.3513818979263306e-01" nType="-99"/>
          <Node pos="r" depth="2" NCoef="0" IVar="-1" Cut="0.0000000000000000e+00" cType="1" res="-5.5870814248919487e-03" rms="2.1245576441287994e-01" purity="4.7186806797981262e-01" nType="-99"/>
        </Node>
        <Node pos="r" depth="1" NCoef="0" IVar="-1" Cut="0.0000000000000000e+00" cType="1" res="5.9030715376138687e-02" rms="3.7994334101676941e-01" purity="3.3105924725532532e-01" nType="-99"/>
      </Node>
    </BinaryTree>
    <BinaryTree type="DecisionTree" boostWeight="1.0000000000000000e+00" itree="1178">
      <Node pos="s" depth="0" NCoef="0" IVar="62" Cut="1.5153530240058899e-01" cType="1" res="-7.2022844105958939e-03" rms="2.1389351785182953e-01" purity="4.9117368459701538e-01" nType="0">
        <Node pos="l" depth="1" NCoef="0" IVar="60" Cut="-5.8155012130737305e-01" cType="1" res="5.4132706281961873e-05" rms="2.2443547844886780e-01" purity="5.2624398469924927e-01" nType="0">
          <Node pos="l" depth="2" NCoef="0" IVar="-1" Cut="0.0000000000000000e+00" cType="1" res="-1.1862961109727621e-03" rms="2.1769592165946960e-01" purity="5.3380703926086426e-01" nType="-99"/>
          <Node pos="r" depth="2" NCoef="0" IVar="-1" Cut="0.0000000000000000e+00" cType="1" res="3.0364878475666046e-02" rms="3.4940993785858154e-01" purity="3.2251963019371033e-01" nType="-99"/>
        </Node>
        <Node pos="r" depth="1" NCoef="0" IVar="52" Cut="2.8374879360198975e+00" cType="1" res="-3.6056485027074814e-02" rms="1.6227847337722778e-01" purity="3.5172134637832642e-01" nType="0">
          <Node pos="l" depth="2" NCoef="0" IVar="-1" Cut="0.0000000000000000e+00" cType="1" res="-3.4042242914438248e-02" rms="-nan" purity="1.7151674628257751e-01" nType="-99"/>
          <Node pos="r" depth="2" NCoef="0" IVar="-1" Cut="0.0000000000000000e+00" cType="1" res="-2.8040825854986906e-03" rms="2.3206953704357147e-01" purity="4.4748091697692871e-01" nType="-99"/>
        </Node>
      </Node>
    </BinaryTree>
    <BinaryTree type="DecisionTree" boostWeight="1.0000000000000000e+00" itree="1179">
      <Node pos="s" depth="0" NCoef="0" IVar="3" Cut="5.4331665039062500e+00" cType="1" res="5.9142743702977896e-04" rms="2.2530119121074677e-01" purity="4.9986061453819275e-01" nType="0">
        <Node pos="l" depth="1" NCoef="0" IVar="18" Cut="-6.7538017034530640e-01" cType="1" res="-3.1027321238070726e-03" rms="2.2199332714080811e-01" purity="5.0809919834136963e-01" nType="0">
          <Node pos="l" depth="2" NCoef="0" IVar="-1" Cut="0.0000000000000000e+00" cType="1" res="1.7343442596029490e-04" rms="2.2812323272228241e-01" purity="5.2181375026702881e-01" nType="-99"/>
          <Node pos="r" depth="2" NCoef="0" IVar="-1" Cut="0.0000000000000000e+00" cType="1" res="-3.1654171645641327e-02" rms="-nan" purity="1.7631927132606506e-01" nType="-99"/>
        </Node>
        <Node pos="r" depth="1" NCoef="0" IVar="-1" Cut="0.0000000000000000e+00" cType="1" res="3.0127873644232750e-02" rms="2.8072419762611389e-01" purity="2.9467195272445679e-01" nType="-99"/>
      </Node>
    </BinaryTree>
    <BinaryTree type="DecisionTree" boostWeight="1.0000000000000000e+00" itree="1180">
      <Node pos="s" depth="0" NCoef="0" IVar="35" Cut="1.4037858247756958e+00" cType="1" res="-7.3601664043962955e-03" rms="2.1238659322261810e-01" purity="4.9039110541343689e-01" nType="0">
        <Node pos="l" depth="1" NCoef="0" IVar="82" Cut="1.3608976602554321e+00" cType="1" res="-1.2011997401714325e-02" rms="2.0381158590316772e-01" purity="4.9549880623817444e-01" nType="0">
          <Node pos="l" depth="2" NCoef="0" IVar="-1" Cut="0.0000000000000000e+00" cType="1" res="-6.5317288972437382e-03" rms="1.9961400330066681e-01" purity="5.1418888568878174e-01" nType="-99"/>
          <Node pos="r" depth="2" NCoef="0" IVar="-1" Cut="0.0000000000000000e+00" cType="1" res="1.7034986987709999e-02" rms="2.3217295110225677e-01" purity="3.2362228631973267e-01" nType="-99"/>
        </Node>
        <Node pos="r" depth="1" NCoef="0" IVar="10" Cut="2.9808771610260010e+00" cType="1" res="5.4209444671869278e-02" rms="2.9709807038307190e-01" purity="4.2278772592544556e-01" nType="0">
          <Node pos="l" depth="2" NCoef="0" IVar="-1" Cut="0.0000000000000000e+00" cType="1" res="6.4181983470916748e-02" rms="4.0191841125488281e-01" purity="3.9157295227050781e-01" nType="-99"/>
          <Node pos="r" depth="2" NCoef="0" IVar="-1" Cut="0.0000000000000000e+00" cType="1" res="-8.6686816066503525e-03" rms="1.8141852319240570e-01" purity="4.3925902247428894e-01" nType="-99"/>
        </Node>
      </Node>
    </BinaryTree>
    <BinaryTree type="DecisionTree" boostWeight="1.0000000000000000e+00" itree="1181">
      <Node pos="s" depth="0" NCoef="0" IVar="15" Cut="-2.1696126461029053e-01" cType="1" res="1.7370283603668213e-02" rms="2.5452870130538940e-01" purity="5.0946253538131714e-01" nType="0">
        <Node pos="l" depth="1" NCoef="0" IVar="35" Cut="5.5408459901809692e-01" cType="1" res="4.9574427306652069e-02" rms="2.6287391781806946e-01" purity="2.7534618973731995e-01" nType="0">
          <Node pos="l" depth="2" NCoef="0" IVar="-1" Cut="0.0000000000000000e+00" cType="1" res="4.0235251188278198e-02" rms="2.8302943706512451e-01" purity="2.9123327136039734e-01" nType="-99"/>
          <Node pos="r" depth="2" NCoef="0" IVar="-1" Cut="0.0000000000000000e+00" cType="1" res="-1.1014214716851711e-02" rms="1.3972920179367065e-01" purity="2.1215295791625977e-01" nType="-99"/>
        </Node>
        <Node pos="r" depth="1" NCoef="0" IVar="17" Cut="9.2483562231063843e-01" cType="1" res="5.4267691448330879e-03" rms="2.5031223893165588e-01" purity="5.9628903865814209e-01" nType="0">
          <Node pos="l" depth="2" NCoef="0" IVar="-1" Cut="0.0000000000000000e+00" cType="1" res="-6.9106116890907288e-02" rms="-nan" purity="-3.3490620553493500e-02" nType="-99"/>
          <Node pos="r" depth="2" NCoef="0" IVar="-1" Cut="0.0000000000000000e+00" cType="1" res="3.5034841857850552e-03" rms="2.7071410417556763e-01" purity="6.4787888526916504e-01" nType="-99"/>
        </Node>
      </Node>
    </BinaryTree>
    <BinaryTree type="DecisionTree" boostWeight="1.0000000000000000e+00" itree="1182">
      <Node pos="s" depth="0" NCoef="0" IVar="5" Cut="-1.2585178017616272e-01" cType="1" res="2.2845437342766672e-05" rms="2.2942532598972321e-01" purity="4.9471557140350342e-01" nType="0">
        <Node pos="l" depth="1" NCoef="0" IVar="18" Cut="-1.9133831262588501e+00" cType="1" res="-4.7174442559480667e-02" rms="-nan" purity="7.5149722397327423e-02" nType="-99"/>
        <Node pos="r" depth="1" NCoef="0" IVar="70" Cut="-2.1693828701972961e-01" cType="1" res="3.8459922652691603e-03" rms="2.4158008396625519e-01" purity="5.1350235939025879e-01" nType="0">
          <Node pos="l" depth="2" NCoef="0" IVar="-1" Cut="0.0000000000000000e+00" cType="1" res="2.9822080978192389e-04" rms="2.3829413950443268e-01" purity="5.1256799697875977e-01" nType="-99"/>
          <Node pos="r" depth="2" NCoef="0" IVar="-1" Cut="0.0000000000000000e+00" cType="1" res="3.4019332379102707e-02" rms="3.1958597898483276e-01" purity="5.4627323150634766e-01" nType="-99"/>
        </Node>
      </Node>
    </BinaryTree>
    <BinaryTree type="DecisionTree" boostWeight="1.0000000000000000e+00" itree="1183">
      <Node pos="s" depth="0" NCoef="0" IVar="88" Cut="1.1661118268966675e+00" cType="1" res="8.2666398957371712e-03" rms="2.3307982087135315e-01" purity="5.0911635160446167e-01" nType="0">
        <Node pos="l" depth="1" NCoef="0" IVar="4" Cut="3.6754665374755859e+00" cType="1" res="1.3529748655855656e-02" rms="2.4382220208644867e-01" purity="5.3429371118545532e-01" nType="0">
          <Node pos="l" depth="2" NCoef="0" IVar="-1" Cut="0.0000000000000000e+00" cType="1" res="9.9967382848262787e-03" rms="2.6635220646858215e-01" purity="4.4996589422225952e-01" nType="-99"/>
          <Node pos="r" depth="2" NCoef="0" IVar="-1" Cut="0.0000000000000000e+00" cType="1" res="-1.8277778290212154e-03" rms="2.1317613124847412e-01" purity="6.3252484798431396e-01" nType="-99"/>
        </Node>
        <Node pos="r" depth="1" NCoef="0" IVar="37" Cut="3.8201785087585449e-01" cType="1" res="-2.8842652216553688e-02" rms="-nan" purity="2.0056882500648499e-01" nType="-99"/>
      </Node>
    </BinaryTree>
    <BinaryTree type="DecisionTree" boostWeight="1.0000000000000000e+00" itree="1184">
      <Node pos="s" depth="0" NCoef="0" IVar="46" Cut="1.3469620943069458e+00" cType="1" res="3.6637200973927975e-03" rms="2.3005677759647369e-01" purity="5.0191104412078857e-01" nType="0">
        <Node pos="l" depth="1" NCoef="0" IVar="27" Cut="1.8980168104171753e+00" cType="1" res="7.1598044596612453e-03" rms="2.3716090619564056e-01" purity="5.1683431863784790e-01" nType="0">
          <Node pos="l" depth="2" NCoef="0" IVar="-1" Cut="0.0000000000000000e+00" cType="1" res="9.8329056054353714e-03" rms="2.6218432188034058e-01" purity="4.0996271371841431e-01" nType="-99"/>
          <Node pos="r" depth="2" NCoef="0" IVar="-1" Cut="0.0000000000000000e+00" cType="1" res="-4.2124046012759209e-03" rms="2.1028852462768555e-01" purity="6.1344903707504272e-01" nType="-99"/>
        </Node>
        <Node pos="r" depth="1" NCoef="0" IVar="-1" Cut="0.0000000000000000e+00" cType="1" res="-4.4348277151584625e-02" rms="-nan" purity="1.0387455672025681e-01" nType="-99"/>
      </Node>
    </BinaryTree>
    <BinaryTree type="DecisionTree" boostWeight="1.0000000000000000e+00" itree="1185">
      <Node pos="s" depth="0" NCoef="0" IVar="14" Cut="2.4526639282703400e-01" cType="1" res="1.2557271402329206e-03" rms="2.3550322651863098e-01" purity="5.0097501277923584e-01" nType="0">
        <Node pos="l" depth="1" NCoef="0" IVar="1" Cut="1.8220481872558594e+00" cType="1" res="-1.1752848513424397e-02" rms="2.0970140397548676e-01" purity="4.7763410210609436e-01" nType="0">
          <Node pos="l" depth="2" NCoef="0" IVar="-1" Cut="0.0000000000000000e+00" cType="1" res="-5.8446712791919708e-02" rms="-nan" purity="6.1446741223335266e-02" nType="-99"/>
          <Node pos="r" depth="2" NCoef="0" IVar="-1" Cut="0.0000000000000000e+00" cType="1" res="-3.0917359981685877e-03" rms="2.1765694022178650e-01" purity="4.9202501773834229e-01" nType="-99"/>
        </Node>
        <Node pos="r" depth="1" NCoef="0" IVar="52" Cut="2.4657907485961914e+00" cType="1" res="3.9703544229269028e-02" rms="2.9569301009178162e-01" purity="5.6996083259582520e-01" nType="0">
          <Node pos="l" depth="2" NCoef="0" IVar="-1" Cut="0.0000000000000000e+00" cType="1" res="7.6478950679302216e-02" rms="4.2037466168403625e-01" purity="3.6548438668251038e-01" nType="-99"/>
          <Node pos="r" depth="2" NCoef="0" IVar="-1" Cut="0.0000000000000000e+00" cType="1" res="8.9042773470282555e-03" rms="2.7803334593772888e-01" purity="5.8750200271606445e-01" nType="-99"/>
        </Node>
      </Node>
    </BinaryTree>
    <BinaryTree type="DecisionTree" boostWeight="1.0000000000000000e+00" itree="1186">
      <Node pos="s" depth="0" NCoef="0" IVar="8" Cut="-9.6956565976142883e-02" cType="1" res="-3.1755343079566956e-03" rms="2.3415400087833405e-01" purity="4.9487850069999695e-01" nType="0">
        <Node pos="l" depth="1" NCoef="0" IVar="20" Cut="8.0869503319263458e-02" cType="1" res="-1.2029428762616590e-04" rms="2.4099540710449219e-01" purity="5.0425326824188232e-01" nType="0">
          <Node pos="l" depth="2" NCoef="0" IVar="-1" Cut="0.0000000000000000e+00" cType="1" res="4.0974752046167850e-03" rms="2.5416159629821777e-01" purity="5.4153424501419067e-01" nType="-99"/>
          <Node pos="r" depth="2" NCoef="0" IVar="-1" Cut="0.0000000000000000e+00" cType="1" res="-1.0731232352554798e-02" rms="1.9876974821090698e-01" purity="4.0473985671997070e-01" nType="-99"/>
        </Node>
        <Node pos="r" depth="1" NCoef="0" IVar="-1" Cut="0.0000000000000000e+00" cType="1" res="-5.1800601184368134e-02" rms="-nan" purity="9.6948146820068359e-02" nType="-99"/>
      </Node>
    </BinaryTree>
    <BinaryTree type="DecisionTree" boostWeight="1.0000000000000000e+00" itree="1187">
      <Node pos="s" depth="0" NCoef="0" IVar="85" Cut="1.2345679104328156e-02" cType="1" res="1.1145207099616528e-02" rms="2.5247827172279358e-01" purity="5.0201165676116943e-01" nType="0">
        <Node pos="l" depth="1" NCoef="0" IVar="-1" Cut="0.0000000000000000e+00" cType="1" res="-4.2178083211183548e-02" rms="-nan" purity="2.4225081503391266e-01" nType="-99"/>
        <Node pos="r" depth="1" NCoef="0" IVar="36" Cut="-4.4810590147972107e-01" cType="1" res="1.4473480172455311e-02" rms="2.5805237889289856e-01" purity="5.0917303562164307e-01" nType="0">
          <Node pos="l" depth="2" NCoef="0" IVar="-1" Cut="0.0000000000000000e+00" cType="1" res="3.2998844981193542e-02" rms="2.7366581559181213e-01" purity="1.4652639627456665e-01" nType="-99"/>
          <Node pos="r" depth="2" NCoef="0" IVar="-1" Cut="0.0000000000000000e+00" cType="1" res="1.1785331880673766e-03" rms="2.5283446907997131e-01" purity="5.9899103641510010e-01" nType="-99"/>
        </Node>
      </Node>
    </BinaryTree>
    <BinaryTree type="DecisionTree" boostWeight="1.0000000000000000e+00" itree="1188">
      <Node pos="s" depth="0" NCoef="0" IVar="56" Cut="1.4827566146850586e+00" cType="1" res="-4.6156332246027887e-04" rms="2.3305623233318329e-01" purity="4.9812707304954529e-01" nType="0">
        <Node pos="l" depth="1" NCoef="0" IVar="3" Cut="5.4801101684570312e+00" cType="1" res="3.2968113664537668e-03" rms="2.3961146175861359e-01" purity="5.0840735435485840e-01" nType="0">
          <Node pos="l" depth="2" NCoef="0" IVar="-1" Cut="0.0000000000000000e+00" cType="1" res="1.0036222374765202e-04" rms="2.3711682856082916e-01" purity="5.1497036218643188e-01" nType="-99"/>
          <Node pos="r" depth="2" NCoef="0" IVar="-1" Cut="0.0000000000000000e+00" cType="1" res="3.2375186681747437e-02" rms="2.9268893599510193e-01" purity="3.0041292309761047e-01" nType="-99"/>
        </Node>
        <Node pos="r" depth="1" NCoef="0" IVar="-1" Cut="0.0000000000000000e+00" cType="1" res="-5.7396326214075089e-02" rms="-nan" purity="8.1026412546634674e-02" nType="-99"/>
      </Node>
    </BinaryTree>
    <BinaryTree type="DecisionTree" boostWeight="1.0000000000000000e+00" itree="1189">
      <Node pos="s" depth="0" NCoef="0" IVar="30" Cut="1.4074074029922485e+00" cType="1" res="5.6359604932367802e-03" rms="2.4103347957134247e-01" purity="4.9902847409248352e-01" nType="0">
        <Node pos="l" depth="1" NCoef="0" IVar="77" Cut="1.4446103572845459e+00" cType="1" res="8.3020683377981186e-03" rms="2.4565799534320831e-01" purity="5.0659132003784180e-01" nType="0">
          <Node pos="l" depth="2" NCoef="0" IVar="-1" Cut="0.0000000000000000e+00" cType="1" res="1.5746684512123466e-03" rms="2.4261625111103058e-01" purity="5.2209049463272095e-01" nType="-99"/>
          <Node pos="r" depth="2" NCoef="0" IVar="-1" Cut="0.0000000000000000e+00" cType="1" res="9.2024199664592743e-02" rms="2.9307797551155090e-01" purity="1.6120870411396027e-01" nType="-99"/>
        </Node>
        <Node pos="r" depth="1" NCoef="0" IVar="-1" Cut="0.0000000000000000e+00" cType="1" res="-5.0269402563571930e-02" rms="-nan" purity="1.3506691157817841e-01" nType="-99"/>
      </Node>
    </BinaryTree>
    <BinaryTree type="DecisionTree" boostWeight="1.0000000000000000e+00" itree="1190">
      <Node pos="s" depth="0" NCoef="0" IVar="70" Cut="-8.0552875995635986e-01" cType="1" res="-4.0108091197907925e-03" rms="2.1743492782115936e-01" purity="5.0343942642211914e-01" nType="0">
        <Node pos="l" depth="1" NCoef="0" IVar="34" Cut="1.4762428998947144e+00" cType="1" res="-1.0332563892006874e-02" rms="2.0689839124679565e-01" purity="5.0143712759017944e-01" nType="0">
          <Node pos="l" depth="2" NCoef="0" IVar="-1" Cut="0.0000000000000000e+00" cType="1" res="-1.1828739196062088e-02" rms="1.2629096210002899e-01" purity="3.0492845177650452e-01" nType="-99"/>
          <Node pos="r" depth="2" NCoef="0" IVar="-1" Cut="0.0000000000000000e+00" cType="1" res="3.4074669238179922e-03" rms="2.6065793633460999e-01" purity="6.9139802455902100e-01" nType="-99"/>
        </Node>
        <Node pos="r" depth="1" NCoef="0" IVar="17" Cut="1.3657964468002319e+00" cType="1" res="8.4807604551315308e-02" rms="3.1881615519523621e-01" purity="5.3157049417495728e-01" nType="0">
          <Node pos="l" depth="2" NCoef="0" IVar="-1" Cut="0.0000000000000000e+00" cType="1" res="1.0902079194784164e-01" rms="3.9296543598175049e-01" purity="2.9194530844688416e-01" nType="-99"/>
          <Node pos="r" depth="2" NCoef="0" IVar="-1" Cut="0.0000000000000000e+00" cType="1" res="6.5568489953875542e-03" rms="2.5215518474578857e-01" purity="6.5447801351547241e-01" nType="-99"/>
        </Node>
      </Node>
    </BinaryTree>
    <BinaryTree type="DecisionTree" boostWeight="1.0000000000000000e+00" itree="1191">
      <Node pos="s" depth="0" NCoef="0" IVar="14" Cut="1.3186945021152496e-01" cType="1" res="-3.1692676711827517e-03" rms="2.2511726617813110e-01" purity="4.8775377869606018e-01" nType="0">
        <Node pos="l" depth="1" NCoef="0" IVar="42" Cut="-5.3577673435211182e-01" cType="1" res="-1.4071194455027580e-02" rms="2.0132800936698914e-01" purity="4.6642735600471497e-01" nType="0">
          <Node pos="l" depth="2" NCoef="0" IVar="-1" Cut="0.0000000000000000e+00" cType="1" res="2.7917951345443726e-02" rms="3.3810943365097046e-01" purity="5.2096664905548096e-01" nType="-99"/>
          <Node pos="r" depth="2" NCoef="0" IVar="-1" Cut="0.0000000000000000e+00" cType="1" res="-7.3553812690079212e-03" rms="1.8990305066108704e-01" purity="4.6355473995208740e-01" nType="-99"/>
        </Node>
        <Node pos="r" depth="1" NCoef="0" IVar="36" Cut="1.4441325664520264e+00" cType="1" res="2.6142185553908348e-02" rms="2.7708286046981812e-01" purity="5.4509299993515015e-01" nType="0">
          <Node pos="l" depth="2" NCoef="0" IVar="-1" Cut="0.0000000000000000e+00" cType="1" res="3.0345777049660683e-02" rms="3.1835645437240601e-01" purity="2.4428941309452057e-01" nType="-99"/>
          <Node pos="r" depth="2" NCoef="0" IVar="-1" Cut="0.0000000000000000e+00" cType="1" res="-2.2771991789340973e-03" rms="2.4195080995559692e-01" purity="7.3437631130218506e-01" nType="-99"/>
        </Node>
      </Node>
    </BinaryTree>
    <BinaryTree type="DecisionTree" boostWeight="1.0000000000000000e+00" itree="1192">
      <Node pos="s" depth="0" NCoef="0" IVar="31" Cut="2.3526284694671631e+00" cType="1" res="-1.0419852333143353e-03" rms="2.2919796407222748e-01" purity="5.0582325458526611e-01" nType="0">
        <Node pos="l" depth="1" NCoef="0" IVar="35" Cut="-1.2610368728637695e+00" cType="1" res="9.2804171144962311e-02" rms="3.7771967053413391e-01" purity="2.5183725357055664e-01" nType="0">
          <Node pos="l" depth="2" NCoef="0" IVar="-1" Cut="0.0000000000000000e+00" cType="1" res="1.8841285258531570e-02" rms="3.1868791580200195e-01" purity="1.9480356574058533e-01" nType="-99"/>
          <Node pos="r" depth="2" NCoef="0" IVar="-1" Cut="0.0000000000000000e+00" cType="1" res="5.0150174647569656e-02" rms="4.2424026131629944e-01" purity="3.0879539251327515e-01" nType="-99"/>
        </Node>
        <Node pos="r" depth="1" NCoef="0" IVar="31" Cut="2.4526963233947754e+00" cType="1" res="-4.9456232227385044e-03" rms="2.2000144422054291e-01" purity="5.1638811826705933e-01" nType="0">
          <Node pos="l" depth="2" NCoef="0" IVar="-1" Cut="0.0000000000000000e+00" cType="1" res="-7.2534359991550446e-02" rms="-nan" purity="-1.4440961182117462e-02" nType="-99"/>
          <Node pos="r" depth="2" NCoef="0" IVar="-1" Cut="0.0000000000000000e+00" cType="1" res="-6.4606446539983153e-04" rms="2.2581483423709869e-01" purity="5.2897310256958008e-01" nType="-99"/>
        </Node>
      </Node>
    </BinaryTree>
    <BinaryTree type="DecisionTree" boostWeight="1.0000000000000000e+00" itree="1193">
      <Node pos="s" depth="0" NCoef="0" IVar="31" Cut="2.3195874691009521e+00" cType="1" res="8.3492174744606018e-03" rms="2.3467206954956055e-01" purity="4.9948590993881226e-01" nType="0">
        <Node pos="l" depth="1" NCoef="0" IVar="-1" Cut="0.0000000000000000e+00" cType="1" res="4.6401284635066986e-02" rms="3.7249827384948730e-01" purity="2.9612040519714355e-01" nType="-99"/>
        <Node pos="r" depth="1" NCoef="0" IVar="58" Cut="1.2833632230758667e+00" cType="1" res="4.2924722656607628e-03" rms="2.2734934091567993e-01" purity="5.0650984048843384e-01" nType="0">
          <Node pos="l" depth="2" NCoef="0" IVar="-1" Cut="0.0000000000000000e+00" cType="1" res="3.0268018599599600e-03" rms="2.3391754925251007e-01" purity="5.1620686054229736e-01" nType="-99"/>
          <Node pos="r" depth="2" NCoef="0" IVar="-1" Cut="0.0000000000000000e+00" cType="1" res="-2.4351939558982849e-02" rms="-nan" purity="3.4239771962165833e-01" nType="-99"/>
        </Node>
      </Node>
    </BinaryTree>
    <BinaryTree type="DecisionTree" boostWeight="1.0000000000000000e+00" itree="1194">
      <Node pos="s" depth="0" NCoef="0" IVar="61" Cut="1.0509039163589478e+00" cType="1" res="-1.7798827029764652e-03" rms="2.3088046908378601e-01" purity="4.9536293745040894e-01" nType="0">
        <Node pos="l" depth="1" NCoef="0" IVar="81" Cut="-5.2941918373107910e-01" cType="1" res="-1.1508969590067863e-02" rms="2.1867209672927856e-01" purity="5.3301793336868286e-01" nType="0">
          <Node pos="l" depth="2" NCoef="0" IVar="-1" Cut="0.0000000000000000e+00" cType="1" res="-6.0142488218843937e-03" rms="2.1141073107719421e-01" purity="5.3969877958297729e-01" nType="-99"/>
          <Node pos="r" depth="2" NCoef="0" IVar="-1" Cut="0.0000000000000000e+00" cType="1" res="4.7847170382738113e-02" rms="3.4461513161659241e-01" purity="3.3968281745910645e-01" nType="-99"/>
        </Node>
        <Node pos="r" depth="1" NCoef="0" IVar="83" Cut="1.3583903014659882e-01" cType="1" res="3.3260889351367950e-02" rms="2.6740232110023499e-01" purity="3.5974299907684326e-01" nType="0">
          <Node pos="l" depth="2" NCoef="0" IVar="-1" Cut="0.0000000000000000e+00" cType="1" res="-2.3102846462279558e-03" rms="2.2049973905086517e-01" purity="3.4933948516845703e-01" nType="-99"/>
          <Node pos="r" depth="2" NCoef="0" IVar="-1" Cut="0.0000000000000000e+00" cType="1" res="4.0317293256521225e-02" rms="3.3569434285163879e-01" purity="3.8388541340827942e-01" nType="-99"/>
        </Node>
      </Node>
    </BinaryTree>
    <BinaryTree type="DecisionTree" boostWeight="1.0000000000000000e+00" itree="1195">
      <Node pos="s" depth="0" NCoef="0" IVar="69" Cut="1.2534582614898682e+00" cType="1" res="3.3857231028378010e-03" rms="2.4181210994720459e-01" purity="4.9026808142662048e-01" nType="0">
        <Node pos="l" depth="1" NCoef="0" IVar="19" Cut="5.1948094367980957e-01" cType="1" res="3.2891351729631424e-02" rms="2.7376225590705872e-01" purity="3.0614084005355835e-01" nType="0">
          <Node pos="l" depth="2" NCoef="0" IVar="-1" Cut="0.0000000000000000e+00" cType="1" res="-9.3860011547803879e-03" rms="1.8176501989364624e-01" purity="3.1528452038764954e-01" nType="-99"/>
          <Node pos="r" depth="2" NCoef="0" IVar="-1" Cut="0.0000000000000000e+00" cType="1" res="2.1929414942860603e-02" rms="2.9895099997520447e-01" purity="3.0263710021972656e-01" nType="-99"/>
        </Node>
        <Node pos="r" depth="1" NCoef="0" IVar="10" Cut="2.7451715469360352e+00" cType="1" res="-7.5399503111839294e-03" rms="2.2788521647453308e-01" purity="5.5844879150390625e-01" nType="0">
          <Node pos="l" depth="2" NCoef="0" IVar="-1" Cut="0.0000000000000000e+00" cType="1" res="-4.6681027859449387e-02" rms="-nan" purity="9.0520650148391724e-02" nType="-99"/>
          <Node pos="r" depth="2" NCoef="0" IVar="-1" Cut="0.0000000000000000e+00" cType="1" res="-1.3379622250795364e-03" rms="2.3590816557407379e-01" purity="5.7225137948989868e-01" nType="-99"/>
        </Node>
      </Node>
    </BinaryTree>
    <BinaryTree type="DecisionTree" boostWeight="1.0000000000000000e+00" itree="1196">
      <Node pos="s" depth="0" NCoef="0" IVar="62" Cut="2.1736270189285278e-01" cType="1" res="7.6118009164929390e-03" rms="2.3592434823513031e-01" purity="5.0664919614791870e-01" nType="0">
        <Node pos="l" depth="1" NCoef="0" IVar="82" Cut="1.6076594591140747e+00" cType="1" res="1.4669346273876727e-04" rms="2.1886764466762543e-01" purity="5.1705515384674072e-01" nType="0">
          <Node pos="l" depth="2" NCoef="0" IVar="-1" Cut="0.0000000000000000e+00" cType="1" res="1.2037466512992978e-03" rms="2.2596366703510284e-01" purity="5.2851897478103638e-01" nType="-99"/>
          <Node pos="r" depth="2" NCoef="0" IVar="-1" Cut="0.0000000000000000e+00" cType="1" res="-4.2730420827865601e-02" rms="-nan" purity="1.4381898939609528e-01" nType="-99"/>
        </Node>
        <Node pos="r" depth="1" NCoef="0" IVar="38" Cut="1.3956474065780640e+00" cType="1" res="5.4413493722677231e-02" rms="3.1898877024650574e-01" purity="4.4141030311584473e-01" nType="0">
          <Node pos="l" depth="2" NCoef="0" IVar="-1" Cut="0.0000000000000000e+00" cType="1" res="4.5238580554723740e-02" rms="3.6883926391601562e-01" purity="3.4654170274734497e-01" nType="-99"/>
          <Node pos="r" depth="2" NCoef="0" IVar="-1" Cut="0.0000000000000000e+00" cType="1" res="-3.2522738911211491e-03" rms="2.4204762279987335e-01" purity="5.3848123550415039e-01" nType="-99"/>
        </Node>
      </Node>
    </BinaryTree>
    <BinaryTree type="DecisionTree" boostWeight="1.0000000000000000e+00" itree="1197">
      <Node pos="s" depth="0" NCoef="0" IVar="82" Cut="1.5910605192184448e+00" cType="1" res="-4.9666338600218296e-03" rms="2.2588972747325897e-01" purity="4.9374023079872131e-01" nType="0">
        <Node pos="l" depth="1" NCoef="0" IVar="60" Cut="-2.4129805564880371e+00" cType="1" res="-1.2738475343212485e-03" rms="2.3409913480281830e-01" purity="5.0637012720108032e-01" nType="0">
          <Node pos="l" depth="2" NCoef="0" IVar="-1" Cut="0.0000000000000000e+00" cType="1" res="9.7535634413361549e-03" rms="2.6527795195579529e-01" purity="6.8656867742538452e-01" nType="-99"/>
          <Node pos="r" depth="2" NCoef="0" IVar="-1" Cut="0.0000000000000000e+00" cType="1" res="-3.8615714292973280e-03" rms="2.2209675610065460e-01" purity="4.4709485769271851e-01" nType="-99"/>
        </Node>
        <Node pos="r" depth="1" NCoef="0" IVar="-1" Cut="0.0000000000000000e+00" cType="1" res="-5.7459183037281036e-02" rms="-nan" purity="1.0321707278490067e-01" nType="-99"/>
      </Node>
    </BinaryTree>
    <BinaryTree type="DecisionTree" boostWeight="1.0000000000000000e+00" itree="1198">
      <Node pos="s" depth="0" NCoef="0" IVar="8" Cut="-1.7452181875705719e-01" cType="1" res="-3.9306920953094959e-03" rms="2.2127662599086761e-01" purity="4.9597018957138062e-01" nType="0">
        <Node pos="l" depth="1" NCoef="0" IVar="17" Cut="-1.4537624120712280e+00" cType="1" res="-1.2259837239980698e-03" rms="2.2845759987831116e-01" purity="5.0572985410690308e-01" nType="0">
          <Node pos="l" depth="2" NCoef="0" IVar="-1" Cut="0.0000000000000000e+00" cType="1" res="1.2263035029172897e-01" rms="2.8357672691345215e-01" purity="1.0649862140417099e-01" nType="-99"/>
          <Node pos="r" depth="2" NCoef="0" IVar="-1" Cut="0.0000000000000000e+00" cType="1" res="-1.4663947513327003e-03" rms="2.2581526637077332e-01" purity="5.1917946338653564e-01" nType="-99"/>
        </Node>
        <Node pos="r" depth="1" NCoef="0" IVar="-1" Cut="0.0000000000000000e+00" cType="1" res="-4.1603498160839081e-02" rms="-nan" purity="1.4647573232650757e-01" nType="-99"/>
      </Node>
    </BinaryTree>
    <BinaryTree type="DecisionTree" boostWeight="1.0000000000000000e+00" itree="1199">
      <Node pos="s" depth="0" NCoef="0" IVar="48" Cut="1.2664490938186646e+00" cType="1" res="-1.1876034841407090e-04" rms="2.2817271947860718e-01" purity="5.0026834011077881e-01" nType="0">
        <Node pos="l" depth="1" NCoef="0" IVar="18" Cut="-1.3969883918762207e+00" cType="1" res="4.4343713670969009e-02" rms="2.7762001752853394e-01" purity="3.1502526998519897e-01" nType="0">
          <Node pos="l" depth="2" NCoef="0" IVar="-1" Cut="0.0000000000000000e+00" cType="1" res="5.7401685044169426e-03" rms="2.3066493868827820e-01" purity="3.2851713895797729e-01" nType="-99"/>
          <Node pos="r" depth="2" NCoef="0" IVar="-1" Cut="0.0000000000000000e+00" cType="1" res="5.6336760520935059e-02" rms="3.7120339274406433e-01" purity="2.7486741542816162e-01" nType="-99"/>
        </Node>
        <Node pos="r" depth="1" NCoef="0" IVar="61" Cut="1.4967557191848755e+00" cType="1" res="-1.0888214223086834e-02" rms="2.1309660375118256e-01" purity="5.4513686895370483e-01" nType="0">
          <Node pos="l" depth="2" NCoef="0" IVar="-1" Cut="0.0000000000000000e+00" cType="1" res="-2.2358093410730362e-03" rms="2.2144952416419983e-01" purity="5.5769133567810059e-01" nType="-99"/>
          <Node pos="r" depth="2" NCoef="0" IVar="-1" Cut="0.0000000000000000e+00" cType="1" res="-4.3779093772172928e-02" rms="-nan" purity="2.1129505336284637e-01" nType="-99"/>
        </Node>
      </Node>
    </BinaryTree>
    <BinaryTree type="DecisionTree" boostWeight="1.0000000000000000e+00" itree="1200">
      <Node pos="s" depth="0" NCoef="0" IVar="88" Cut="8.9950060844421387e-01" cType="1" res="1.5366335865110159e-03" rms="2.3566840589046478e-01" purity="4.9995404481887817e-01" nType="0">
        <Node pos="l" depth="1" NCoef="0" IVar="17" Cut="-1.3993857800960541e-01" cType="1" res="3.2078031450510025e-02" rms="2.9976016283035278e-01" purity="5.6283742189407349e-01" nType="0">
          <Node pos="l" depth="2" NCoef="0" IVar="-1" Cut="0.0000000000000000e+00" cType="1" res="1.6339708864688873e-01" rms="3.7882122397422791e-01" purity="2.1703152358531952e-01" nType="-99"/>
          <Node pos="r" depth="2" NCoef="0" IVar="-1" Cut="0.0000000000000000e+00" cType="1" res="-1.0511209256947041e-03" rms="2.6521900296211243e-01" purity="6.4705300331115723e-01" nType="-99"/>
        </Node>
        <Node pos="r" depth="1" NCoef="0" IVar="52" Cut="2.5534253120422363e+00" cType="1" res="-1.0424666106700897e-02" rms="2.0393967628479004e-01" purity="4.7532624006271362e-01" nType="0">
          <Node pos="l" depth="2" NCoef="0" IVar="-1" Cut="0.0000000000000000e+00" cType="1" res="-3.4241851419210434e-02" rms="-nan" purity="1.1754281818866730e-01" nType="-99"/>
          <Node pos="r" depth="2" NCoef="0" IVar="-1" Cut="0.0000000000000000e+00" cType="1" res="-9.3891448341310024e-04" rms="2.2653149068355560e-01" purity="5.1188021898269653e-01" nType="-99"/>
        </Node>
      </Node>
    </BinaryTree>
    <BinaryTree type="DecisionTree" boostWeight="1.0000000000000000e+00" itree="1201">
      <Node pos="s" depth="0" NCoef="0" IVar="52" Cut="2.4014444351196289e+00" cType="1" res="5.0828605890274048e-03" rms="2.3790884017944336e-01" purity="4.9863690137863159e-01" nType="0">
        <Node pos="l" depth="1" NCoef="0" IVar="4" Cut="3.3303127288818359e+00" cType="1" res="8.6232781410217285e-02" rms="3.1930157542228699e-01" purity="2.4104487895965576e-01" nType="0">
          <Node pos="l" depth="2" NCoef="0" IVar="-1" Cut="0.0000000000000000e+00" cType="1" res="6.0533937066793442e-02" rms="3.8074806332588196e-01" purity="2.9484736919403076e-01" nType="-99"/>
          <Node pos="r" depth="2" NCoef="0" IVar="-1" Cut="0.0000000000000000e+00" cType="1" res="2.2139484062790871e-03" rms="2.0531834661960602e-01" purity="1.8168020248413086e-01" nType="-99"/>
        </Node>
        <Node pos="r" depth="1" NCoef="0" IVar="36" Cut="5.4286859929561615e-02" cType="1" res="8.4500858793035150e-04" rms="2.3209978640079498e-01" purity="5.1208895444869995e-01" nType="0">
          <Node pos="l" depth="2" NCoef="0" IVar="-1" Cut="0.0000000000000000e+00" cType="1" res="-1.8623376265168190e-02" rms="4.8835840076208115e-02" purity="6.5964512526988983e-02" nType="-99"/>
          <Node pos="r" depth="2" NCoef="0" IVar="-1" Cut="0.0000000000000000e+00" cType="1" res="3.5504864063113928e-03" rms="2.5883772969245911e-01" purity="6.2961268424987793e-01" nType="-99"/>
        </Node>
      </Node>
    </BinaryTree>
    <BinaryTree type="DecisionTree" boostWeight="1.0000000000000000e+00" itree="1202">
      <Node pos="s" depth="0" NCoef="0" IVar="72" Cut="2.5925925374031067e-01" cType="1" res="3.2951673492789268e-03" rms="2.3828202486038208e-01" purity="4.9195513129234314e-01" nType="0">
        <Node pos="l" depth="1" NCoef="0" IVar="0" Cut="1.3459575176239014e+00" cType="1" res="-1.5581062762066722e-03" rms="2.3234219849109650e-01" purity="4.9386322498321533e-01" nType="0">
          <Node pos="l" depth="2" NCoef="0" IVar="-1" Cut="0.0000000000000000e+00" cType="1" res="7.4705842416733503e-04" rms="2.4018941819667816e-01" purity="5.0957322120666504e-01" nType="-99"/>
          <Node pos="r" depth="2" NCoef="0" IVar="-1" Cut="0.0000000000000000e+00" cType="1" res="-2.6447013020515442e-02" rms="-nan" purity="2.1608266234397888e-01" nType="-99"/>
        </Node>
        <Node pos="r" depth="1" NCoef="0" IVar="17" Cut="1.3637495040893555e+00" cType="1" res="8.1830993294715881e-02" rms="3.0897405743598938e-01" purity="4.6107843518257141e-01" nType="0">
          <Node pos="l" depth="2" NCoef="0" IVar="-1" Cut="0.0000000000000000e+00" cType="1" res="1.3455978035926819e-01" rms="3.8157951831817627e-01" purity="2.3059749603271484e-01" nType="-99"/>
          <Node pos="r" depth="2" NCoef="0" IVar="-1" Cut="0.0000000000000000e+00" cType="1" res="5.3358348086476326e-03" rms="2.3408463597297668e-01" purity="5.9929406642913818e-01" nType="-99"/>
        </Node>
      </Node>
    </BinaryTree>
    <BinaryTree type="DecisionTree" boostWeight="1.0000000000000000e+00" itree="1203">
      <Node pos="s" depth="0" NCoef="0" IVar="37" Cut="1.3605211973190308e+00" cType="1" res="-6.7405775189399719e-03" rms="2.2553153336048126e-01" purity="4.9294573068618774e-01" nType="0">
        <Node pos="l" depth="1" NCoef="0" IVar="21" Cut="4.0059372782707214e-01" cType="1" res="-1.1159684509038925e-02" rms="2.1758504211902618e-01" purity="4.9711221456527710e-01" nType="0">
          <Node pos="l" depth="2" NCoef="0" IVar="-1" Cut="0.0000000000000000e+00" cType="1" res="-2.8352469671517611e-03" rms="2.2328126430511475e-01" purity="5.0416874885559082e-01" nType="-99"/>
          <Node pos="r" depth="2" NCoef="0" IVar="-1" Cut="0.0000000000000000e+00" cType="1" res="-6.5119966864585876e-02" rms="-nan" purity="2.3351593315601349e-01" nType="-99"/>
        </Node>
        <Node pos="r" depth="1" NCoef="0" IVar="34" Cut="1.4351027011871338e+00" cType="1" res="8.8012412190437317e-02" rms="3.4200653433799744e-01" purity="4.0360847115516663e-01" nType="0">
          <Node pos="l" depth="2" NCoef="0" IVar="-1" Cut="0.0000000000000000e+00" cType="1" res="6.6421411931514740e-02" rms="3.9715337753295898e-01" purity="3.6238160729408264e-01" nType="-99"/>
          <Node pos="r" depth="2" NCoef="0" IVar="-1" Cut="0.0000000000000000e+00" cType="1" res="-1.1659545823931694e-02" rms="2.0596045255661011e-01" purity="4.5021143555641174e-01" nType="-99"/>
        </Node>
      </Node>
    </BinaryTree>
    <BinaryTree type="DecisionTree" boostWeight="1.0000000000000000e+00" itree="1204">
      <Node pos="s" depth="0" NCoef="0" IVar="48" Cut="9.0352314710617065e-01" cType="1" res="3.0103989411145449e-03" rms="2.3199900984764099e-01" purity="4.9709528684616089e-01" nType="0">
        <Node pos="l" depth="1" NCoef="0" IVar="36" Cut="9.0206187963485718e-01" cType="1" res="6.3185103237628937e-02" rms="3.1339257955551147e-01" purity="2.4671433866024017e-01" nType="0">
          <Node pos="l" depth="2" NCoef="0" IVar="-1" Cut="0.0000000000000000e+00" cType="1" res="1.2962093949317932e-01" rms="3.8014948368072510e-01" purity="2.2468329966068268e-01" nType="-99"/>
          <Node pos="r" depth="2" NCoef="0" IVar="-1" Cut="0.0000000000000000e+00" cType="1" res="-2.1419217810034752e-03" rms="2.3741570115089417e-01" purity="2.6073056459426880e-01" nType="-99"/>
        </Node>
        <Node pos="r" depth="1" NCoef="0" IVar="21" Cut="-5.4114725440740585e-02" cType="1" res="-2.5752263609319925e-03" rms="2.2211633622646332e-01" purity="5.2033656835556030e-01" nType="0">
          <Node pos="l" depth="2" NCoef="0" IVar="-1" Cut="0.0000000000000000e+00" cType="1" res="5.9306337498128414e-03" rms="2.5237843394279480e-01" purity="5.4610061645507812e-01" nType="-99"/>
          <Node pos="r" depth="2" NCoef="0" IVar="-1" Cut="0.0000000000000000e+00" cType="1" res="-6.9899959489703178e-03" rms="1.9173084199428558e-01" purity="4.9885416030883789e-01" nType="-99"/>
        </Node>
      </Node>
    </BinaryTree>
    <BinaryTree type="DecisionTree" boostWeight="1.0000000000000000e+00" itree="1205">
      <Node pos="s" depth="0" NCoef="0" IVar="10" Cut="2.7510969638824463e+00" cType="1" res="8.9692464098334312e-03" rms="2.3890742659568787e-01" purity="5.0656354427337646e-01" nType="0">
        <Node pos="l" depth="1" NCoef="0" IVar="-1" Cut="0.0000000000000000e+00" cType="1" res="-3.2699368894100189e-02" rms="-nan" purity="9.7436457872390747e-02" nType="-99"/>
        <Node pos="r" depth="1" NCoef="0" IVar="52" Cut="3.5767502784729004e+00" cType="1" res="1.2118093669414520e-02" rms="2.4520765244960785e-01" purity="5.2060306072235107e-01" nType="0">
          <Node pos="l" depth="2" NCoef="0" IVar="-1" Cut="0.0000000000000000e+00" cType="1" res="3.2186473254114389e-03" rms="2.4325712025165558e-01" purity="5.2104699611663818e-01" nType="-99"/>
          <Node pos="r" depth="2" NCoef="0" IVar="-1" Cut="0.0000000000000000e+00" cType="1" res="3.3657677471637726e-02" rms="2.8139337897300720e-01" purity="5.0826531648635864e-01" nType="-99"/>
        </Node>
      </Node>
    </BinaryTree>
    <BinaryTree type="DecisionTree" boostWeight="1.0000000000000000e+00" itree="1206">
      <Node pos="s" depth="0" NCoef="0" IVar="79" Cut="-1.4153547286987305e+00" cType="1" res="-3.0970854822953697e-06" rms="2.3433677852153778e-01" purity="4.9546426534652710e-01" nType="0">
        <Node pos="l" depth="1" NCoef="0" IVar="4" Cut="3.4329054355621338e+00" cType="1" res="-2.3746548220515251e-02" rms="2.1340578794479370e-01" purity="5.7332682609558105e-01" nType="0">
          <Node pos="l" depth="2" NCoef="0" IVar="-1" Cut="0.0000000000000000e+00" cType="1" res="-2.3828562349081039e-02" rms="-nan" purity="2.3888856172561646e-01" nType="-99"/>
          <Node pos="r" depth="2" NCoef="0" IVar="-1" Cut="0.0000000000000000e+00" cType="1" res="-3.1642527319490910e-03" rms="2.3989300429821014e-01" purity="6.6253757476806641e-01" nType="-99"/>
        </Node>
        <Node pos="r" depth="1" NCoef="0" IVar="17" Cut="-1.3377233743667603e+00" cType="1" res="1.4608878642320633e-02" rms="2.4519528448581696e-01" purity="4.4754680991172791e-01" nType="0">
          <Node pos="l" depth="2" NCoef="0" IVar="-1" Cut="0.0000000000000000e+00" cType="1" res="-1.9486615061759949e-01" rms="-nan" purity="-3.8600854575634003e-02" nType="-99"/>
          <Node pos="r" depth="2" NCoef="0" IVar="-1" Cut="0.0000000000000000e+00" cType="1" res="7.6465453021228313e-03" rms="2.7139484882354736e-01" purity="5.1110136508941650e-01" nType="-99"/>
        </Node>
      </Node>
    </BinaryTree>
    <BinaryTree type="DecisionTree" boostWeight="1.0000000000000000e+00" itree="1207">
      <Node pos="s" depth="0" NCoef="0" IVar="73" Cut="2.1643474102020264e+00" cType="1" res="3.2565317815169692e-04" rms="2.1810053288936615e-01" purity="5.0301617383956909e-01" nType="0">
        <Node pos="l" depth="1" NCoef="0" IVar="-1" Cut="0.0000000000000000e+00" cType="1" res="-5.0368357449769974e-02" rms="-nan" purity="1.4681349694728851e-01" nType="-99"/>
        <Node pos="r" depth="1" NCoef="0" IVar="39" Cut="-1.6508904695510864e+00" cType="1" res="3.8499452639371157e-03" rms="2.2453568875789642e-01" purity="5.1212501525878906e-01" nType="0">
          <Node pos="l" depth="2" NCoef="0" IVar="-1" Cut="0.0000000000000000e+00" cType="1" res="5.2912416867911816e-03" rms="2.4908334016799927e-01" purity="6.0057014226913452e-01" nType="-99"/>
          <Node pos="r" depth="2" NCoef="0" IVar="-1" Cut="0.0000000000000000e+00" cType="1" res="-6.8823564797639847e-03" rms="1.6425432264804840e-01" purity="3.3939933776855469e-01" nType="-99"/>
        </Node>
      </Node>
    </BinaryTree>
    <BinaryTree type="DecisionTree" boostWeight="1.0000000000000000e+00" itree="1208">
      <Node pos="s" depth="0" NCoef="0" IVar="10" Cut="2.7207121849060059e+00" cType="1" res="2.3903017863631248e-03" rms="2.3049318790435791e-01" purity="4.9936857819557190e-01" nType="0">
        <Node pos="l" depth="1" NCoef="0" IVar="-1" Cut="0.0000000000000000e+00" cType="1" res="3.0121795833110809e-02" rms="2.9457899928092957e-01" purity="2.5148051977157593e-01" nType="-99"/>
        <Node pos="r" depth="1" NCoef="0" IVar="17" Cut="-1.4537599086761475e+00" cType="1" res="-3.6979110973334173e-06" rms="2.2787305712699890e-01" purity="5.0675714015960693e-01" nType="0">
          <Node pos="l" depth="2" NCoef="0" IVar="-1" Cut="0.0000000000000000e+00" cType="1" res="1.0204090923070908e-01" rms="2.7683711051940918e-01" purity="1.1691646277904510e-01" nType="-99"/>
          <Node pos="r" depth="2" NCoef="0" IVar="-1" Cut="0.0000000000000000e+00" cType="1" res="-9.3060516519472003e-04" rms="2.2568118572235107e-01" purity="5.1875334978103638e-01" nType="-99"/>
        </Node>
      </Node>
    </BinaryTree>
    <BinaryTree type="DecisionTree" boostWeight="1.0000000000000000e+00" itree="1209">
      <Node pos="s" depth="0" NCoef="0" IVar="19" Cut="1.5412600040435791e+00" cType="1" res="-4.0090857073664665e-03" rms="2.2064787149429321e-01" purity="4.9188306927680969e-01" nType="0">
        <Node pos="l" depth="1" NCoef="0" IVar="78" Cut="1.2537310123443604e+00" cType="1" res="-1.1011105962097645e-03" rms="2.2519895434379578e-01" purity="4.9972641468048096e-01" nType="0">
          <Node pos="l" depth="2" NCoef="0" IVar="-1" Cut="0.0000000000000000e+00" cType="1" res="1.7303656786680222e-03" rms="2.3938401043415070e-01" purity="5.4566514492034912e-01" nType="-99"/>
          <Node pos="r" depth="2" NCoef="0" IVar="-1" Cut="0.0000000000000000e+00" cType="1" res="-2.4690959602594376e-02" rms="-nan" purity="1.2467878311872482e-01" nType="-99"/>
        </Node>
        <Node pos="r" depth="1" NCoef="0" IVar="-1" Cut="0.0000000000000000e+00" cType="1" res="-4.1859257966279984e-02" rms="-nan" purity="1.9106477499008179e-01" nType="-99"/>
      </Node>
    </BinaryTree>
    <BinaryTree type="DecisionTree" boostWeight="1.0000000000000000e+00" itree="1210">
      <Node pos="s" depth="0" NCoef="0" IVar="16" Cut="8.2026189565658569e-01" cType="1" res="8.0412775278091431e-03" rms="2.4476975202560425e-01" purity="4.9296993017196655e-01" nType="0">
        <Node pos="l" depth="1" NCoef="0" IVar="72" Cut="1.3333333730697632e+00" cType="1" res="1.4694493263959885e-02" rms="2.5364866852760315e-01" purity="5.0517237186431885e-01" nType="0">
          <Node pos="l" depth="2" NCoef="0" IVar="-1" Cut="0.0000000000000000e+00" cType="1" res="4.0236064232885838e-03" rms="2.4940587580204010e-01" purity="5.0870341062545776e-01" nType="-99"/>
          <Node pos="r" depth="2" NCoef="0" IVar="-1" Cut="0.0000000000000000e+00" cType="1" res="3.7422329187393188e-02" rms="3.3716362714767456e-01" purity="4.0861576795578003e-01" nType="-99"/>
        </Node>
        <Node pos="r" depth="1" NCoef="0" IVar="13" Cut="1.4393219947814941e+00" cType="1" res="-4.5917399227619171e-02" rms="1.4405155181884766e-01" purity="3.9400640130043030e-01" nType="0">
          <Node pos="l" depth="2" NCoef="0" IVar="-1" Cut="0.0000000000000000e+00" cType="1" res="-1.4309464395046234e-01" rms="-nan" purity="-7.8038379549980164e-02" nType="-99"/>
          <Node pos="r" depth="2" NCoef="0" IVar="-1" Cut="0.0000000000000000e+00" cType="1" res="-3.1238463707268238e-03" rms="2.5847023725509644e-01" purity="5.6432622671127319e-01" nType="-99"/>
        </Node>
      </Node>
    </BinaryTree>
    <BinaryTree type="DecisionTree" boostWeight="1.0000000000000000e+00" itree="1211">
      <Node pos="s" depth="0" NCoef="0" IVar="60" Cut="-4.9792110919952393e-01" cType="1" res="9.9385413341224194e-04" rms="2.2260794043540955e-01" purity="5.0238275527954102e-01" nType="0">
        <Node pos="l" depth="1" NCoef="0" IVar="36" Cut="-9.5093262195587158e-01" cType="1" res="3.4901180770248175e-03" rms="2.2659286856651306e-01" purity="5.1221179962158203e-01" nType="0">
          <Node pos="l" depth="2" NCoef="0" IVar="-1" Cut="0.0000000000000000e+00" cType="1" res="-2.1500578150153160e-02" rms="-nan" purity="4.0031846612691879e-02" nType="-99"/>
          <Node pos="r" depth="2" NCoef="0" IVar="-1" Cut="0.0000000000000000e+00" cType="1" res="3.5450391005724669e-03" rms="2.4707370996475220e-01" purity="6.0167753696441650e-01" nType="-99"/>
        </Node>
        <Node pos="r" depth="1" NCoef="0" IVar="-1" Cut="0.0000000000000000e+00" cType="1" res="-4.5907180756330490e-02" rms="-nan" purity="8.1036165356636047e-02" nType="-99"/>
      </Node>
    </BinaryTree>
    <BinaryTree type="DecisionTree" boostWeight="1.0000000000000000e+00" itree="1212">
      <Node pos="s" depth="0" NCoef="0" IVar="81" Cut="-5.3534650802612305e-01" cType="1" res="-4.2679659090936184e-03" rms="2.2397191822528839e-01" purity="4.9500370025634766e-01" nType="0">
        <Node pos="l" depth="1" NCoef="0" IVar="55" Cut="5.1306957006454468e-01" cType="1" res="-7.3956423439085484e-03" rms="2.1944193542003632e-01" purity="5.0465673208236694e-01" nType="0">
          <Node pos="l" depth="2" NCoef="0" IVar="-1" Cut="0.0000000000000000e+00" cType="1" res="-1.5631379559636116e-02" rms="-nan" purity="2.2666217386722565e-01" nType="-99"/>
          <Node pos="r" depth="2" NCoef="0" IVar="-1" Cut="0.0000000000000000e+00" cType="1" res="4.3356136302463710e-04" rms="2.4942217767238617e-01" purity="5.8767306804656982e-01" nType="-99"/>
        </Node>
        <Node pos="r" depth="1" NCoef="0" IVar="-1" Cut="0.0000000000000000e+00" cType="1" res="3.2757826149463654e-02" rms="3.0909770727157593e-01" purity="2.4389423429965973e-01" nType="-99"/>
      </Node>
    </BinaryTree>
    <BinaryTree type="DecisionTree" boostWeight="1.0000000000000000e+00" itree="1213">
      <Node pos="s" depth="0" NCoef="0" IVar="17" Cut="-1.4150810241699219e+00" cType="1" res="-7.1407672949135303e-03" rms="2.1517449617385864e-01" purity="4.9445369839668274e-01" nType="0">
        <Node pos="l" depth="1" NCoef="0" IVar="18" Cut="-1.8621329069137573e+00" cType="1" res="-1.4058738946914673e-01" rms="-nan" purity="-4.5109644532203674e-02" nType="-99"/>
        <Node pos="r" depth="1" NCoef="0" IVar="62" Cut="3.6457243561744690e-01" cType="1" res="-3.4478420857340097e-03" rms="2.3116303980350494e-01" purity="5.3119271993637085e-01" nType="0">
          <Node pos="l" depth="2" NCoef="0" IVar="-1" Cut="0.0000000000000000e+00" cType="1" res="-3.2244939939118922e-04" rms="2.3290747404098511e-01" purity="5.3844261169433594e-01" nType="-99"/>
          <Node pos="r" depth="2" NCoef="0" IVar="-1" Cut="0.0000000000000000e+00" cType="1" res="-3.8435876369476318e-02" rms="7.7060572803020477e-02" purity="2.1583257615566254e-01" nType="-99"/>
        </Node>
      </Node>
    </BinaryTree>
    <BinaryTree type="DecisionTree" boostWeight="1.0000000000000000e+00" itree="1214">
      <Node pos="s" depth="0" NCoef="0" IVar="51" Cut="1.3580246269702911e-01" cType="1" res="3.6459842231124640e-03" rms="2.3228111863136292e-01" purity="4.9950870871543884e-01" nType="0">
        <Node pos="l" depth="1" NCoef="0" IVar="17" Cut="-1.4537599086761475e+00" cType="1" res="-6.5737683326005936e-04" rms="2.2700966894626617e-01" purity="5.0186675786972046e-01" nType="0">
          <Node pos="l" depth="2" NCoef="0" IVar="-1" Cut="0.0000000000000000e+00" cType="1" res="1.2721440196037292e-01" rms="3.0286562442779541e-01" purity="1.4766114950180054e-01" nType="-99"/>
          <Node pos="r" depth="2" NCoef="0" IVar="-1" Cut="0.0000000000000000e+00" cType="1" res="-1.5840345295146108e-03" rms="2.2309815883636475e-01" purity="5.1373261213302612e-01" nType="-99"/>
        </Node>
        <Node pos="r" depth="1" NCoef="0" IVar="37" Cut="-4.9320259690284729e-01" cType="1" res="9.8251827061176300e-02" rms="3.1276774406433105e-01" purity="4.4766837358474731e-01" nType="0">
          <Node pos="l" depth="2" NCoef="0" IVar="-1" Cut="0.0000000000000000e+00" cType="1" res="2.2541978396475315e-03" rms="1.9344316422939301e-01" purity="3.7604039907455444e-01" nType="-99"/>
          <Node pos="r" depth="2" NCoef="0" IVar="-1" Cut="0.0000000000000000e+00" cType="1" res="6.9652743637561798e-02" rms="3.8153541088104248e-01" purity="5.2814859151840210e-01" nType="-99"/>
        </Node>
      </Node>
    </BinaryTree>
    <BinaryTree type="DecisionTree" boostWeight="1.0000000000000000e+00" itree="1215">
      <Node pos="s" depth="0" NCoef="0" IVar="59" Cut="1.3999223709106445e+00" cType="1" res="4.1138040833175182e-03" rms="2.2946193814277649e-01" purity="5.0268381834030151e-01" nType="0">
        <Node pos="l" depth="1" NCoef="0" IVar="35" Cut="9.7903746366500854e-01" cType="1" res="2.7857732027769089e-02" rms="2.2979319095611572e-01" purity="3.1649810075759888e-01" nType="0">
          <Node pos="l" depth="2" NCoef="0" IVar="-1" Cut="0.0000000000000000e+00" cType="1" res="1.6002532094717026e-02" rms="2.4438215792179108e-01" purity="3.4032931923866272e-01" nType="-99"/>
          <Node pos="r" depth="2" NCoef="0" IVar="-1" Cut="0.0000000000000000e+00" cType="1" res="-2.7310015633702278e-02" rms="3.1235938891768456e-02" purity="1.6543808579444885e-01" nType="-99"/>
        </Node>
        <Node pos="r" depth="1" NCoef="0" IVar="31" Cut="2.5320160388946533e+00" cType="1" res="-1.3984665274620056e-02" rms="2.2755119204521179e-01" purity="6.4460122585296631e-01" nType="0">
          <Node pos="l" depth="2" NCoef="0" IVar="-1" Cut="0.0000000000000000e+00" cType="1" res="-4.4951856136322021e-02" rms="-nan" purity="1.1220753192901611e-01" nType="-99"/>
          <Node pos="r" depth="2" NCoef="0" IVar="-1" Cut="0.0000000000000000e+00" cType="1" res="-2.0438262727111578e-03" rms="2.3942324519157410e-01" purity="6.8178719282150269e-01" nType="-99"/>
        </Node>
      </Node>
    </BinaryTree>
    <BinaryTree type="DecisionTree" boostWeight="1.0000000000000000e+00" itree="1216">
      <Node pos="s" depth="0" NCoef="0" IVar="13" Cut="1.2471303939819336e+00" cType="1" res="3.7583829835057259e-03" rms="2.3254121840000153e-01" purity="5.0566738843917847e-01" nType="0">
        <Node pos="l" depth="1" NCoef="0" IVar="13" Cut="-1.2568095922470093e+00" cType="1" res="-1.9242640584707260e-02" rms="-nan" purity="1.5911689400672913e-01" nType="-99"/>
        <Node pos="r" depth="1" NCoef="0" IVar="6" Cut="1.1451830863952637e+00" cType="1" res="1.3929886743426323e-02" rms="2.6770707964897156e-01" purity="6.0991078615188599e-01" nType="0">
          <Node pos="l" depth="2" NCoef="0" IVar="-1" Cut="0.0000000000000000e+00" cType="1" res="-2.8689876198768616e-02" rms="2.1447342634201050e-01" purity="1.8919450044631958e-01" nType="-99"/>
          <Node pos="r" depth="2" NCoef="0" IVar="-1" Cut="0.0000000000000000e+00" cType="1" res="5.5374377407133579e-03" rms="2.6896744966506958e-01" purity="6.2615597248077393e-01" nType="-99"/>
        </Node>
      </Node>
    </BinaryTree>
    <BinaryTree type="DecisionTree" boostWeight="1.0000000000000000e+00" itree="1217">
      <Node pos="s" depth="0" NCoef="0" IVar="73" Cut="2.1931314468383789e+00" cType="1" res="-2.9384763911366463e-03" rms="2.2522385418415070e-01" purity="4.9500468373298645e-01" nType="0">
        <Node pos="l" depth="1" NCoef="0" IVar="-1" Cut="0.0000000000000000e+00" cType="1" res="3.6448460072278976e-02" rms="3.4775900840759277e-01" purity="3.2434853911399841e-01" nType="-99"/>
        <Node pos="r" depth="1" NCoef="0" IVar="36" Cut="6.7358452081680298e-01" cType="1" res="-6.8013882264494896e-03" rms="2.1788145601749420e-01" purity="5.0199031829833984e-01" nType="0">
          <Node pos="l" depth="2" NCoef="0" IVar="-1" Cut="0.0000000000000000e+00" cType="1" res="-1.8336063250899315e-02" rms="2.8962763026356697e-02" purity="7.1161091327667236e-02" nType="-99"/>
          <Node pos="r" depth="2" NCoef="0" IVar="-1" Cut="0.0000000000000000e+00" cType="1" res="8.3605706458911300e-04" rms="2.4669826030731201e-01" purity="6.2910151481628418e-01" nType="-99"/>
        </Node>
      </Node>
    </BinaryTree>
    <BinaryTree type="DecisionTree" boostWeight="1.0000000000000000e+00" itree="1218">
      <Node pos="s" depth="0" NCoef="0" IVar="3" Cut="5.4546833038330078e+00" cType="1" res="2.9114009812474251e-03" rms="2.3194961249828339e-01" purity="5.0292003154754639e-01" nType="0">
        <Node pos="l" depth="1" NCoef="0" IVar="0" Cut="1.4166864156723022e+00" cType="1" res="6.5635871142148972e-03" rms="2.4137192964553833e-01" purity="5.1415199041366577e-01" nType="0">
          <Node pos="l" depth="2" NCoef="0" IVar="-1" Cut="0.0000000000000000e+00" cType="1" res="3.7074338179081678e-03" rms="2.4840287864208221e-01" purity="5.2436274290084839e-01" nType="-99"/>
          <Node pos="r" depth="2" NCoef="0" IVar="-1" Cut="0.0000000000000000e+00" cType="1" res="-3.0632369220256805e-02" rms="-nan" purity="2.5664699077606201e-01" nType="-99"/>
        </Node>
        <Node pos="r" depth="1" NCoef="0" IVar="-1" Cut="0.0000000000000000e+00" cType="1" res="-3.8946814835071564e-02" rms="-nan" purity="1.0969845205545425e-01" nType="-99"/>
      </Node>
    </BinaryTree>
    <BinaryTree type="DecisionTree" boostWeight="1.0000000000000000e+00" itree="1219">
      <Node pos="s" depth="0" NCoef="0" IVar="60" Cut="-2.4461684226989746e+00" cType="1" res="-1.9691686611622572e-03" rms="2.2532190382480621e-01" purity="4.9663642048835754e-01" nType="0">
        <Node pos="l" depth="1" NCoef="0" IVar="34" Cut="-1.2229232788085938e+00" cType="1" res="3.4329511225223541e-02" rms="2.7191600203514099e-01" purity="6.8863606452941895e-01" nType="0">
          <Node pos="l" depth="2" NCoef="0" IVar="-1" Cut="0.0000000000000000e+00" cType="1" res="3.7244696170091629e-02" rms="3.2627281546592712e-01" purity="5.1997965574264526e-01" nType="-99"/>
          <Node pos="r" depth="2" NCoef="0" IVar="-1" Cut="0.0000000000000000e+00" cType="1" res="5.4810517467558384e-03" rms="2.5461074709892273e-01" purity="7.2584182024002075e-01" nType="-99"/>
        </Node>
        <Node pos="r" depth="1" NCoef="0" IVar="34" Cut="-9.1452521085739136e-01" cType="1" res="-1.1394053697586060e-02" rms="2.1053123474121094e-01" purity="4.4678407907485962e-01" nType="0">
          <Node pos="l" depth="2" NCoef="0" IVar="-1" Cut="0.0000000000000000e+00" cType="1" res="-2.5133166462182999e-02" rms="-nan" purity="1.6447804868221283e-01" nType="-99"/>
          <Node pos="r" depth="2" NCoef="0" IVar="-1" Cut="0.0000000000000000e+00" cType="1" res="-6.7123561166226864e-04" rms="2.3339752852916718e-01" purity="5.1192325353622437e-01" nType="-99"/>
        </Node>
      </Node>
    </BinaryTree>
    <BinaryTree type="DecisionTree" boostWeight="1.0000000000000000e+00" itree="1220">
      <Node pos="s" depth="0" NCoef="0" IVar="2" Cut="2.8613328933715820e+00" cType="1" res="6.9546275772154331e-03" rms="2.3460535705089569e-01" purity="5.0592154264450073e-01" nType="0">
        <Node pos="l" depth="1" NCoef="0" IVar="46" Cut="8.4315901994705200e-01" cType="1" res="-2.8889372479170561e-03" rms="2.1702945232391357e-01" purity="4.2239770293235779e-01" nType="0">
          <Node pos="l" depth="2" NCoef="0" IVar="-1" Cut="0.0000000000000000e+00" cType="1" res="1.7114723101258278e-02" rms="2.9364007711410522e-01" purity="5.5108672380447388e-01" nType="-99"/>
          <Node pos="r" depth="2" NCoef="0" IVar="-1" Cut="0.0000000000000000e+00" cType="1" res="-3.4187934361398220e-03" rms="2.0523093640804291e-01" purity="4.0715894103050232e-01" nType="-99"/>
        </Node>
        <Node pos="r" depth="1" NCoef="0" IVar="59" Cut="-1.2996451854705811e+00" cType="1" res="3.4781862050294876e-02" rms="2.7646231651306152e-01" purity="7.4203890562057495e-01" nType="0">
          <Node pos="l" depth="2" NCoef="0" IVar="-1" Cut="0.0000000000000000e+00" cType="1" res="5.4411146789789200e-02" rms="3.9002907276153564e-01" purity="6.0532224178314209e-01" nType="-99"/>
          <Node pos="r" depth="2" NCoef="0" IVar="-1" Cut="0.0000000000000000e+00" cType="1" res="3.9731995202600956e-03" rms="2.4603365361690521e-01" purity="7.6369005441665649e-01" nType="-99"/>
        </Node>
      </Node>
    </BinaryTree>
    <BinaryTree type="DecisionTree" boostWeight="1.0000000000000000e+00" itree="1221">
      <Node pos="s" depth="0" NCoef="0" IVar="31" Cut="2.5000104904174805e+00" cType="1" res="4.1427924297749996e-03" rms="2.4160021543502808e-01" purity="4.9665319919586182e-01" nType="0">
        <Node pos="l" depth="1" NCoef="0" IVar="61" Cut="6.5305328369140625e-01" cType="1" res="-4.8612926155328751e-02" rms="5.6247673928737640e-02" purity="1.1322363466024399e-01" nType="0">
          <Node pos="l" depth="2" NCoef="0" IVar="-1" Cut="0.0000000000000000e+00" cType="1" res="-4.8279099166393280e-02" rms="-nan" purity="5.5511392652988434e-02" nType="-99"/>
          <Node pos="r" depth="2" NCoef="0" IVar="-1" Cut="0.0000000000000000e+00" cType="1" res="-1.4214093098416924e-03" rms="1.8644379079341888e-01" purity="1.3955661654472351e-01" nType="-99"/>
        </Node>
        <Node pos="r" depth="1" NCoef="0" IVar="62" Cut="2.1850664913654327e-01" cType="1" res="8.4817027673125267e-03" rms="2.5032666325569153e-01" purity="5.2818846702575684e-01" nType="0">
          <Node pos="l" depth="2" NCoef="0" IVar="-1" Cut="0.0000000000000000e+00" cType="1" res="4.3392431689426303e-04" rms="2.3720930516719818e-01" purity="5.3995394706726074e-01" nType="-99"/>
          <Node pos="r" depth="2" NCoef="0" IVar="-1" Cut="0.0000000000000000e+00" cType="1" res="2.0801676437258720e-02" rms="3.1989336013793945e-01" purity="4.5028817653656006e-01" nType="-99"/>
        </Node>
      </Node>
    </BinaryTree>
    <BinaryTree type="DecisionTree" boostWeight="1.0000000000000000e+00" itree="1222">
      <Node pos="s" depth="0" NCoef="0" IVar="27" Cut="1.4176256656646729e+00" cType="1" res="1.0572086088359356e-02" rms="2.4594548344612122e-01" purity="5.0956720113754272e-01" nType="0">
        <Node pos="l" depth="1" NCoef="0" IVar="14" Cut="9.0680763125419617e-02" cType="1" res="4.4400569051504135e-02" rms="2.7795261144638062e-01" purity="3.3625948429107666e-01" nType="0">
          <Node pos="l" depth="2" NCoef="0" IVar="-1" Cut="0.0000000000000000e+00" cType="1" res="7.3554739356040955e-03" rms="2.3436498641967773e-01" purity="3.0632725358009338e-01" nType="-99"/>
          <Node pos="r" depth="2" NCoef="0" IVar="-1" Cut="0.0000000000000000e+00" cType="1" res="3.9701443165540695e-02" rms="3.5452663898468018e-01" purity="4.0792119503021240e-01" nType="-99"/>
        </Node>
        <Node pos="r" depth="1" NCoef="0" IVar="52" Cut="2.9649209976196289e+00" cType="1" res="-1.0512571316212416e-03" rms="2.3280741274356842e-01" purity="5.6911510229110718e-01" nType="0">
          <Node pos="l" depth="2" NCoef="0" IVar="-1" Cut="0.0000000000000000e+00" cType="1" res="-8.6225382983684540e-03" rms="1.8431505560874939e-01" purity="4.4842025637626648e-01" nType="-99"/>
          <Node pos="r" depth="2" NCoef="0" IVar="-1" Cut="0.0000000000000000e+00" cType="1" res="5.9303273446857929e-03" rms="2.5934937596321106e-01" purity="6.5120989084243774e-01" nType="-99"/>
        </Node>
      </Node>
    </BinaryTree>
    <BinaryTree type="DecisionTree" boostWeight="1.0000000000000000e+00" itree="1223">
      <Node pos="s" depth="0" NCoef="0" IVar="70" Cut="-4.2049050331115723e-01" cType="1" res="3.1062955968081951e-03" rms="2.3736229538917542e-01" purity="5.0125026702880859e-01" nType="0">
        <Node pos="l" depth="1" NCoef="0" IVar="10" Cut="2.9486007690429688e+00" cType="1" res="6.2759728170931339e-03" rms="2.4359938502311707e-01" purity="5.0470376014709473e-01" nType="0">
          <Node pos="l" depth="2" NCoef="0" IVar="-1" Cut="0.0000000000000000e+00" cType="1" res="1.6967430710792542e-02" rms="2.8584122657775879e-01" purity="3.0281877517700195e-01" nType="-99"/>
          <Node pos="r" depth="2" NCoef="0" IVar="-1" Cut="0.0000000000000000e+00" cType="1" res="-5.6523695820942521e-04" rms="2.3427499830722809e-01" purity="5.4136681556701660e-01" nType="-99"/>
        </Node>
        <Node pos="r" depth="1" NCoef="0" IVar="-1" Cut="0.0000000000000000e+00" cType="1" res="-2.8396282345056534e-02" rms="-nan" purity="4.0268111228942871e-01" nType="-99"/>
      </Node>
    </BinaryTree>
    <BinaryTree type="DecisionTree" boostWeight="1.0000000000000000e+00" itree="1224">
      <Node pos="s" depth="0" NCoef="0" IVar="88" Cut="7.9501318931579590e-01" cType="1" res="-2.6759186293929815e-03" rms="2.3171572387218475e-01" purity="4.9868011474609375e-01" nType="0">
        <Node pos="l" depth="1" NCoef="0" IVar="-1" Cut="0.0000000000000000e+00" cType="1" res="-3.8350045680999756e-02" rms="-nan" purity="3.8437080383300781e-01" nType="-99"/>
        <Node pos="r" depth="1" NCoef="0" IVar="56" Cut="-1.4925165176391602e+00" cType="1" res="6.4722386014182121e-05" rms="2.3519709706306458e-01" purity="5.0122123956680298e-01" nType="0">
          <Node pos="l" depth="2" NCoef="0" IVar="-1" Cut="0.0000000000000000e+00" cType="1" res="1.8353372812271118e-02" rms="2.7822890877723694e-01" purity="3.1380259990692139e-01" nType="-99"/>
          <Node pos="r" depth="2" NCoef="0" IVar="-1" Cut="0.0000000000000000e+00" cType="1" res="-2.3530365433543921e-03" rms="2.2826141119003296e-01" purity="5.2569884061813354e-01" nType="-99"/>
        </Node>
      </Node>
    </BinaryTree>
    <BinaryTree type="DecisionTree" boostWeight="1.0000000000000000e+00" itree="1225">
      <Node pos="s" depth="0" NCoef="0" IVar="42" Cut="-6.8256586790084839e-01" cType="1" res="2.1031547803431749e-03" rms="2.3125259578227997e-01" purity="5.0225573778152466e-01" nType="0">
        <Node pos="l" depth="1" NCoef="0" IVar="-1" Cut="0.0000000000000000e+00" cType="1" res="3.8123693317174911e-02" rms="3.5071378946304321e-01" purity="4.9608290195465088e-01" nType="-99"/>
        <Node pos="r" depth="1" NCoef="0" IVar="60" Cut="-6.7330926656723022e-01" cType="1" res="-7.0186873199418187e-04" rms="2.2674399614334106e-01" purity="5.0241047143936157e-01" nType="0">
          <Node pos="l" depth="2" NCoef="0" IVar="-1" Cut="0.0000000000000000e+00" cType="1" res="1.4393036253750324e-03" rms="2.3426420986652374e-01" purity="5.2661275863647461e-01" nType="-99"/>
          <Node pos="r" depth="2" NCoef="0" IVar="-1" Cut="0.0000000000000000e+00" cType="1" res="-2.6841524988412857e-02" rms="-nan" purity="1.4043262600898743e-01" nType="-99"/>
        </Node>
      </Node>
    </BinaryTree>
    <BinaryTree type="DecisionTree" boostWeight="1.0000000000000000e+00" itree="1226">
      <Node pos="s" depth="0" NCoef="0" IVar="84" Cut="-1.2015789002180099e-01" cType="1" res="5.5741840042173862e-03" rms="2.4765069782733917e-01" purity="4.9424681067466736e-01" nType="0">
        <Node pos="l" depth="1" NCoef="0" IVar="21" Cut="-1.7569059133529663e-01" cType="1" res="-1.7688471823930740e-02" rms="2.0064859092235565e-01" purity="5.0212627649307251e-01" nType="0">
          <Node pos="l" depth="2" NCoef="0" IVar="-1" Cut="0.0000000000000000e+00" cType="1" res="-2.4419218301773071e-02" rms="3.1645629554986954e-02" purity="5.1067280769348145e-01" nType="-99"/>
          <Node pos="r" depth="2" NCoef="0" IVar="-1" Cut="0.0000000000000000e+00" cType="1" res="1.0040254564955831e-03" rms="2.3697043955326080e-01" purity="4.9837097525596619e-01" nType="-99"/>
        </Node>
        <Node pos="r" depth="1" NCoef="0" IVar="17" Cut="-1.2219192981719971e+00" cType="1" res="1.8763877451419830e-02" rms="2.6980942487716675e-01" purity="4.8977926373481750e-01" nType="0">
          <Node pos="l" depth="2" NCoef="0" IVar="-1" Cut="0.0000000000000000e+00" cType="1" res="1.9940593838691711e-01" rms="2.7690446376800537e-01" purity="1.0028839111328125e-01" nType="-99"/>
          <Node pos="r" depth="2" NCoef="0" IVar="-1" Cut="0.0000000000000000e+00" cType="1" res="2.3596296086907387e-03" rms="2.6688331365585327e-01" purity="5.5756771564483643e-01" nType="-99"/>
        </Node>
      </Node>
    </BinaryTree>
    <BinaryTree type="DecisionTree" boostWeight="1.0000000000000000e+00" itree="1227">
      <Node pos="s" depth="0" NCoef="0" IVar="3" Cut="4.4159212112426758e+00" cType="1" res="-1.0570607846602798e-03" rms="2.2359526157379150e-01" purity="5.0331443548202515e-01" nType="0">
        <Node pos="l" depth="1" NCoef="0" IVar="2" Cut="2.4007186889648438e+00" cType="1" res="6.2216766178607941e-02" rms="3.0021378397941589e-01" purity="3.5910329222679138e-01" nType="0">
          <Node pos="l" depth="2" NCoef="0" IVar="-1" Cut="0.0000000000000000e+00" cType="1" res="-3.2250218093395233e-02" rms="-nan" purity="4.1296262294054031e-02" nType="-99"/>
          <Node pos="r" depth="2" NCoef="0" IVar="-1" Cut="0.0000000000000000e+00" cType="1" res="3.1044997274875641e-02" rms="3.5196861624717712e-01" purity="5.1182532310485840e-01" nType="-99"/>
        </Node>
        <Node pos="r" depth="1" NCoef="0" IVar="36" Cut="1.3690208196640015e+00" cType="1" res="-7.8583238646388054e-03" rms="2.1261307597160339e-01" purity="5.1881563663482666e-01" nType="0">
          <Node pos="l" depth="2" NCoef="0" IVar="-1" Cut="0.0000000000000000e+00" cType="1" res="-1.6475813463330269e-02" rms="3.8041219115257263e-02" purity="1.0667450726032257e-01" nType="-99"/>
          <Node pos="r" depth="2" NCoef="0" IVar="-1" Cut="0.0000000000000000e+00" cType="1" res="1.4787676045671105e-03" rms="2.5136870145797729e-01" purity="6.9293606281280518e-01" nType="-99"/>
        </Node>
      </Node>
    </BinaryTree>
    <BinaryTree type="DecisionTree" boostWeight="1.0000000000000000e+00" itree="1228">
      <Node pos="s" depth="0" NCoef="0" IVar="57" Cut="3.2398071885108948e-01" cType="1" res="-6.4484926406294107e-04" rms="2.2951586544513702e-01" purity="5.0328898429870605e-01" nType="0">
        <Node pos="l" depth="1" NCoef="0" IVar="27" Cut="1.4655961990356445e+00" cType="1" res="-2.5524534285068512e-02" rms="-nan" purity="3.9771139621734619e-02" nType="-99"/>
        <Node pos="r" depth="1" NCoef="0" IVar="17" Cut="-1.2216944694519043e+00" cType="1" res="1.0236747562885284e-02" rms="2.6721185445785522e-01" purity="6.2514829635620117e-01" nType="0">
          <Node pos="l" depth="2" NCoef="0" IVar="-1" Cut="0.0000000000000000e+00" cType="1" res="6.7996852099895477e-02" rms="2.4825911223888397e-01" purity="1.0480023920536041e-01" nType="-99"/>
          <Node pos="r" depth="2" NCoef="0" IVar="-1" Cut="0.0000000000000000e+00" cType="1" res="1.2596831656992435e-03" rms="2.6849126815795898e-01" purity="6.8196535110473633e-01" nType="-99"/>
        </Node>
      </Node>
    </BinaryTree>
    <BinaryTree type="DecisionTree" boostWeight="1.0000000000000000e+00" itree="1229">
      <Node pos="s" depth="0" NCoef="0" IVar="17" Cut="7.8816181421279907e-01" cType="1" res="2.5490417610853910e-03" rms="2.2537747025489807e-01" purity="5.0651603937149048e-01" nType="0">
        <Node pos="l" depth="1" NCoef="0" IVar="21" Cut="2.1757347881793976e-01" cType="1" res="-4.3054457753896713e-02" rms="-nan" purity="-2.4603263009339571e-03" nType="-99"/>
        <Node pos="r" depth="1" NCoef="0" IVar="46" Cut="1.1018923521041870e+00" cType="1" res="1.1859051883220673e-02" rms="2.6574912667274475e-01" purity="6.3372862339019775e-01" nType="0">
          <Node pos="l" depth="2" NCoef="0" IVar="-1" Cut="0.0000000000000000e+00" cType="1" res="1.0729384375736117e-03" rms="2.5667455792427063e-01" purity="6.5274667739868164e-01" nType="-99"/>
          <Node pos="r" depth="2" NCoef="0" IVar="-1" Cut="0.0000000000000000e+00" cType="1" res="2.3768108338117599e-02" rms="3.1981733441352844e-01" purity="4.8775193095207214e-01" nType="-99"/>
        </Node>
      </Node>
    </BinaryTree>
    <BinaryTree type="DecisionTree" boostWeight="1.0000000000000000e+00" itree="1230">
      <Node pos="s" depth="0" NCoef="0" IVar="36" Cut="-1.2991157770156860e+00" cType="1" res="-6.7977663129568100e-03" rms="2.2309930622577667e-01" purity="4.9409884214401245e-01" nType="0">
        <Node pos="l" depth="1" NCoef="0" IVar="60" Cut="-1.0863003730773926e+00" cType="1" res="4.5240271836519241e-02" rms="2.4359022080898285e-01" purity="1.0758242011070251e-01" nType="0">
          <Node pos="l" depth="2" NCoef="0" IVar="-1" Cut="0.0000000000000000e+00" cType="1" res="-1.1508762836456299e-02" rms="5.6183487176895142e-02" purity="5.2723698318004608e-02" nType="-99"/>
          <Node pos="r" depth="2" NCoef="0" IVar="-1" Cut="0.0000000000000000e+00" cType="1" res="1.6531254351139069e-01" rms="4.0473112463951111e-01" purity="2.4414227902889252e-01" nType="-99"/>
        </Node>
        <Node pos="r" depth="1" NCoef="0" IVar="36" Cut="8.2051175832748413e-01" cType="1" res="-1.4226001687347889e-02" rms="2.1901257336139679e-01" purity="5.4927259683609009e-01" nType="0">
          <Node pos="l" depth="2" NCoef="0" IVar="-1" Cut="0.0000000000000000e+00" cType="1" res="-2.6603462174534798e-02" rms="-nan" purity="7.8766725957393646e-02" nType="-99"/>
          <Node pos="r" depth="2" NCoef="0" IVar="-1" Cut="0.0000000000000000e+00" cType="1" res="-2.0415191538631916e-03" rms="2.4256947636604309e-01" purity="6.2216258049011230e-01" nType="-99"/>
        </Node>
      </Node>
    </BinaryTree>
    <BinaryTree type="DecisionTree" boostWeight="1.0000000000000000e+00" itree="1231">
      <Node pos="s" depth="0" NCoef="0" IVar="50" Cut="-2.3269575834274292e-01" cType="1" res="-8.9789927005767822e-03" rms="2.1132983267307281e-01" purity="4.9769383668899536e-01" nType="0">
        <Node pos="l" depth="1" NCoef="0" IVar="19" Cut="9.5953756570816040e-01" cType="1" res="-1.4973665587604046e-02" rms="2.0238877832889557e-01" purity="4.9666973948478699e-01" nType="0">
          <Node pos="l" depth="2" NCoef="0" IVar="-1" Cut="0.0000000000000000e+00" cType="1" res="-1.6970526194199920e-03" rms="2.2273975610733032e-01" purity="5.3712499141693115e-01" nType="-99"/>
          <Node pos="r" depth="2" NCoef="0" IVar="-1" Cut="0.0000000000000000e+00" cType="1" res="-2.0143879577517509e-02" rms="8.5132934153079987e-02" purity="3.4756901860237122e-01" nType="-99"/>
        </Node>
        <Node pos="r" depth="1" NCoef="0" IVar="52" Cut="2.7020862102508545e+00" cType="1" res="7.1247823536396027e-02" rms="2.9537758231163025e-01" purity="5.1139914989471436e-01" nType="0">
          <Node pos="l" depth="2" NCoef="0" IVar="-1" Cut="0.0000000000000000e+00" cType="1" res="7.2255566716194153e-02" rms="3.7657344341278076e-01" purity="4.1022205352783203e-01" nType="-99"/>
          <Node pos="r" depth="2" NCoef="0" IVar="-1" Cut="0.0000000000000000e+00" cType="1" res="4.3276427313685417e-03" rms="2.3081173002719879e-01" purity="5.5346351861953735e-01" nType="-99"/>
        </Node>
      </Node>
    </BinaryTree>
    <BinaryTree type="DecisionTree" boostWeight="1.0000000000000000e+00" itree="1232">
      <Node pos="s" depth="0" NCoef="0" IVar="13" Cut="-1.2610920667648315e+00" cType="1" res="-8.4727631474379450e-05" rms="2.3051944375038147e-01" purity="5.0176674127578735e-01" nType="0">
        <Node pos="l" depth="1" NCoef="0" IVar="19" Cut="7.3874086141586304e-01" cType="1" res="-3.6640286445617676e-02" rms="-nan" purity="1.2320360541343689e-01" nType="-99"/>
        <Node pos="r" depth="1" NCoef="0" IVar="17" Cut="-1.6002935171127319e-01" cType="1" res="6.8744886666536331e-03" rms="2.5434890389442444e-01" purity="5.5387598276138306e-01" nType="0">
          <Node pos="l" depth="2" NCoef="0" IVar="-1" Cut="0.0000000000000000e+00" cType="1" res="7.7878125011920929e-02" rms="2.5103169679641724e-01" purity="9.8485395312309265e-02" nType="-99"/>
          <Node pos="r" depth="2" NCoef="0" IVar="-1" Cut="0.0000000000000000e+00" cType="1" res="-3.8452213630080223e-05" rms="2.5387090444564819e-01" purity="6.0967123508453369e-01" nType="-99"/>
        </Node>
      </Node>
    </BinaryTree>
    <BinaryTree type="DecisionTree" boostWeight="1.0000000000000000e+00" itree="1233">
      <Node pos="s" depth="0" NCoef="0" IVar="41" Cut="-4.4783416390419006e-01" cType="1" res="1.3425244251266122e-03" rms="2.3055401444435120e-01" purity="5.0042426586151123e-01" nType="0">
        <Node pos="l" depth="1" NCoef="0" IVar="-1" Cut="0.0000000000000000e+00" cType="1" res="3.8355048745870590e-02" rms="3.4446057677268982e-01" purity="6.2186384201049805e-01" nType="-99"/>
        <Node pos="r" depth="1" NCoef="0" IVar="58" Cut="-1.4926838874816895e+00" cType="1" res="-2.6085642166435719e-03" rms="2.2417873144149780e-01" purity="4.9584582448005676e-01" nType="0">
          <Node pos="l" depth="2" NCoef="0" IVar="-1" Cut="0.0000000000000000e+00" cType="1" res="5.4668240249156952e-02" rms="3.3421456813812256e-01" purity="3.0918031930923462e-01" nType="-99"/>
          <Node pos="r" depth="2" NCoef="0" IVar="-1" Cut="0.0000000000000000e+00" cType="1" res="-2.2437814623117447e-03" rms="2.1876099705696106e-01" purity="5.0190907716751099e-01" nType="-99"/>
        </Node>
      </Node>
    </BinaryTree>
    <BinaryTree type="DecisionTree" boostWeight="1.0000000000000000e+00" itree="1234">
      <Node pos="s" depth="0" NCoef="0" IVar="81" Cut="-6.3636696338653564e-01" cType="1" res="6.3624773174524307e-03" rms="2.4040368199348450e-01" purity="4.9969121813774109e-01" nType="0">
        <Node pos="l" depth="1" NCoef="0" IVar="81" Cut="-2.5598888397216797e+00" cType="1" res="1.1105715297162533e-02" rms="2.5059914588928223e-01" purity="5.2016985416412354e-01" nType="0">
          <Node pos="l" depth="2" NCoef="0" IVar="-1" Cut="0.0000000000000000e+00" cType="1" res="-2.4293364956974983e-02" rms="9.8704934120178223e-02" purity="5.7752883434295654e-01" nType="-99"/>
          <Node pos="r" depth="2" NCoef="0" IVar="-1" Cut="0.0000000000000000e+00" cType="1" res="5.3412644192576408e-03" rms="2.5566118955612183e-01" purity="5.1709645986557007e-01" nType="-99"/>
        </Node>
        <Node pos="r" depth="1" NCoef="0" IVar="55" Cut="1.3968845605850220e+00" cType="1" res="-3.9360664784908295e-02" rms="-nan" purity="1.1627391725778580e-01" nType="-99"/>
      </Node>
    </BinaryTree>
    <BinaryTree type="DecisionTree" boostWeight="1.0000000000000000e+00" itree="1235">
      <Node pos="s" depth="0" NCoef="0" IVar="40" Cut="9.8355650901794434e-01" cType="1" res="3.8314019329845905e-03" rms="2.3728133738040924e-01" purity="5.1047521829605103e-01" nType="0">
        <Node pos="l" depth="1" NCoef="0" IVar="61" Cut="1.2491137981414795e+00" cType="1" res="-5.4667033255100250e-03" rms="2.3434969782829285e-01" purity="5.5116033554077148e-01" nType="0">
          <Node pos="l" depth="2" NCoef="0" IVar="-1" Cut="0.0000000000000000e+00" cType="1" res="-5.0094779580831528e-03" rms="2.1917453408241272e-01" purity="5.7169860601425171e-01" nType="-99"/>
          <Node pos="r" depth="2" NCoef="0" IVar="-1" Cut="0.0000000000000000e+00" cType="1" res="2.1359641104936600e-02" rms="3.2498291134834290e-01" purity="3.8596355915069580e-01" nType="-99"/>
        </Node>
        <Node pos="r" depth="1" NCoef="0" IVar="10" Cut="3.5750036239624023e+00" cType="1" res="3.0150586739182472e-02" rms="2.4347227811813354e-01" purity="3.9531201124191284e-01" nType="0">
          <Node pos="l" depth="2" NCoef="0" IVar="-1" Cut="0.0000000000000000e+00" cType="1" res="1.5816006809473038e-02" rms="2.6395973563194275e-01" purity="3.9488938450813293e-01" nType="-99"/>
          <Node pos="r" depth="2" NCoef="0" IVar="-1" Cut="0.0000000000000000e+00" cType="1" res="-4.9898348748683929e-02" rms="-nan" purity="3.9975473284721375e-01" nType="-99"/>
        </Node>
      </Node>
    </BinaryTree>
    <BinaryTree type="DecisionTree" boostWeight="1.0000000000000000e+00" itree="1236">
      <Node pos="s" depth="0" NCoef="0" IVar="5" Cut="-1.3844685256481171e-01" cType="1" res="1.9579622894525528e-03" rms="2.3314085602760315e-01" purity="4.9695295095443726e-01" nType="0">
        <Node pos="l" depth="1" NCoef="0" IVar="-1" Cut="0.0000000000000000e+00" cType="1" res="-5.7464525103569031e-02" rms="-nan" purity="7.7522076666355133e-02" nType="-99"/>
        <Node pos="r" depth="1" NCoef="0" IVar="3" Cut="5.5124111175537109e+00" cType="1" res="5.4443455301225185e-03" rms="2.4387130141258240e-01" purity="5.1421421766281128e-01" nType="0">
          <Node pos="l" depth="2" NCoef="0" IVar="-1" Cut="0.0000000000000000e+00" cType="1" res="9.0825790539383888e-04" rms="2.4061362445354462e-01" purity="5.1994937658309937e-01" nType="-99"/>
          <Node pos="r" depth="2" NCoef="0" IVar="-1" Cut="0.0000000000000000e+00" cType="1" res="4.2483888566493988e-02" rms="3.3080679178237915e-01" purity="2.8141775727272034e-01" nType="-99"/>
        </Node>
      </Node>
    </BinaryTree>
    <BinaryTree type="DecisionTree" boostWeight="1.0000000000000000e+00" itree="1237">
      <Node pos="s" depth="0" NCoef="0" IVar="13" Cut="-1.4926502704620361e+00" cType="1" res="3.4829690121114254e-03" rms="2.3850999772548676e-01" purity="4.9618142843246460e-01" nType="0">
        <Node pos="l" depth="1" NCoef="0" IVar="-1" Cut="0.0000000000000000e+00" cType="1" res="4.1316904127597809e-02" rms="2.9233527183532715e-01" purity="3.8524800539016724e-01" nType="-99"/>
        <Node pos="r" depth="1" NCoef="0" IVar="67" Cut="9.8512274026870728e-01" cType="1" res="-7.0317692006938159e-05" rms="2.3565852642059326e-01" purity="4.9993184208869934e-01" nType="0">
          <Node pos="l" depth="2" NCoef="0" IVar="-1" Cut="0.0000000000000000e+00" cType="1" res="-4.7608180902898312e-03" rms="2.1590702235698700e-01" purity="5.4168862104415894e-01" nType="-99"/>
          <Node pos="r" depth="2" NCoef="0" IVar="-1" Cut="0.0000000000000000e+00" cType="1" res="8.8813174515962601e-03" rms="2.6387906074523926e-01" purity="4.3004378676414490e-01" nType="-99"/>
        </Node>
      </Node>
    </BinaryTree>
    <BinaryTree type="DecisionTree" boostWeight="1.0000000000000000e+00" itree="1238">
      <Node pos="s" depth="0" NCoef="0" IVar="6" Cut="2.0311491489410400e+00" cType="1" res="1.8731669988483191e-03" rms="2.3053091764450073e-01" purity="4.9543881416320801e-01" nType="0">
        <Node pos="l" depth="1" NCoef="0" IVar="4" Cut="3.2840464115142822e+00" cType="1" res="-1.8675385043025017e-02" rms="1.8768823146820068e-01" purity="3.1514155864715576e-01" nType="0">
          <Node pos="l" depth="2" NCoef="0" IVar="-1" Cut="0.0000000000000000e+00" cType="1" res="-5.8138541877269745e-02" rms="-nan" purity="3.1560167670249939e-02" nType="-99"/>
          <Node pos="r" depth="2" NCoef="0" IVar="-1" Cut="0.0000000000000000e+00" cType="1" res="-3.8011644501239061e-03" rms="2.0764942467212677e-01" purity="3.3948791027069092e-01" nType="-99"/>
        </Node>
        <Node pos="r" depth="1" NCoef="0" IVar="10" Cut="2.8188085556030273e+00" cType="1" res="1.4348885975778103e-02" rms="2.5221201777458191e-01" purity="6.0490339994430542e-01" nType="0">
          <Node pos="l" depth="2" NCoef="0" IVar="-1" Cut="0.0000000000000000e+00" cType="1" res="3.3521402627229691e-02" rms="3.3160760998725891e-01" purity="5.1079869270324707e-01" nType="-99"/>
          <Node pos="r" depth="2" NCoef="0" IVar="-1" Cut="0.0000000000000000e+00" cType="1" res="3.4877944272011518e-03" rms="2.4702784419059753e-01" purity="6.0883086919784546e-01" nType="-99"/>
        </Node>
      </Node>
    </BinaryTree>
    <BinaryTree type="DecisionTree" boostWeight="1.0000000000000000e+00" itree="1239">
      <Node pos="s" depth="0" NCoef="0" IVar="10" Cut="2.9298303127288818e+00" cType="1" res="-4.3305205181241035e-03" rms="2.2841642796993256e-01" purity="4.9529245495796204e-01" nType="0">
        <Node pos="l" depth="1" NCoef="0" IVar="82" Cut="6.4829951524734497e-01" cType="1" res="4.8124652355909348e-02" rms="2.8962218761444092e-01" purity="3.1363832950592041e-01" nType="0">
          <Node pos="l" depth="2" NCoef="0" IVar="-1" Cut="0.0000000000000000e+00" cType="1" res="3.7744030356407166e-02" rms="3.6823636293411255e-01" purity="4.3534225225448608e-01" nType="-99"/>
          <Node pos="r" depth="2" NCoef="0" IVar="-1" Cut="0.0000000000000000e+00" cType="1" res="-8.7895110482349992e-04" rms="2.1108767390251160e-01" purity="2.3657454550266266e-01" nType="-99"/>
        </Node>
        <Node pos="r" depth="1" NCoef="0" IVar="36" Cut="-1.4150804281234741e+00" cType="1" res="-1.3083488680422306e-02" rms="2.1528472006320953e-01" purity="5.2560424804687500e-01" nType="0">
          <Node pos="l" depth="2" NCoef="0" IVar="-1" Cut="0.0000000000000000e+00" cType="1" res="-1.1188607662916183e-01" rms="-nan" purity="-6.8877175450325012e-02" nType="-99"/>
          <Node pos="r" depth="2" NCoef="0" IVar="-1" Cut="0.0000000000000000e+00" cType="1" res="-2.8484805952757597e-03" rms="2.3305132985115051e-01" purity="5.5875623226165771e-01" nType="-99"/>
        </Node>
      </Node>
    </BinaryTree>
    <BinaryTree type="DecisionTree" boostWeight="1.0000000000000000e+00" itree="1240">
      <Node pos="s" depth="0" NCoef="0" IVar="40" Cut="1.6294336318969727e+00" cType="1" res="2.3961779661476612e-03" rms="2.3238912224769592e-01" purity="5.0054925680160522e-01" nType="0">
        <Node pos="l" depth="1" NCoef="0" IVar="77" Cut="1.4446103572845459e+00" cType="1" res="4.8198779113590717e-03" rms="2.3727785050868988e-01" purity="5.0843793153762817e-01" nType="0">
          <Node pos="l" depth="2" NCoef="0" IVar="-1" Cut="0.0000000000000000e+00" cType="1" res="6.9477554643526673e-04" rms="2.3455557227134705e-01" purity="5.2337145805358887e-01" nType="-99"/>
          <Node pos="r" depth="2" NCoef="0" IVar="-1" Cut="0.0000000000000000e+00" cType="1" res="7.0189595222473145e-02" rms="2.8814405202865601e-01" purity="1.3193617761135101e-01" nType="-99"/>
        </Node>
        <Node pos="r" depth="1" NCoef="0" IVar="-1" Cut="0.0000000000000000e+00" cType="1" res="-4.0489587932825089e-02" rms="-nan" purity="1.8122819066047668e-01" nType="-99"/>
      </Node>
    </BinaryTree>
    <BinaryTree type="DecisionTree" boostWeight="1.0000000000000000e+00" itree="1241">
      <Node pos="s" depth="0" NCoef="0" IVar="13" Cut="-1.2997852563858032e+00" cType="1" res="-1.1710827675415203e-04" rms="2.2412253916263580e-01" purity="4.9868169426918030e-01" nType="0">
        <Node pos="l" depth="1" NCoef="0" IVar="88" Cut="9.4603967666625977e-01" cType="1" res="5.1542770117521286e-02" rms="2.4060826003551483e-01" purity="2.2730848193168640e-01" nType="0">
          <Node pos="l" depth="2" NCoef="0" IVar="-1" Cut="0.0000000000000000e+00" cType="1" res="6.2374044209718704e-02" rms="3.3575353026390076e-01" purity="3.0348408222198486e-01" nType="-99"/>
          <Node pos="r" depth="2" NCoef="0" IVar="-1" Cut="0.0000000000000000e+00" cType="1" res="-3.8471820298582315e-03" rms="7.6927401125431061e-02" purity="1.6504462063312531e-01" nType="-99"/>
        </Node>
        <Node pos="r" depth="1" NCoef="0" IVar="36" Cut="-9.1225367784500122e-01" cType="1" res="-7.6939002610743046e-03" rms="2.2058652341365814e-01" purity="5.3848314285278320e-01" nType="0">
          <Node pos="l" depth="2" NCoef="0" IVar="-1" Cut="0.0000000000000000e+00" cType="1" res="-3.6270372569561005e-02" rms="-nan" purity="2.0414028316736221e-02" nType="-99"/>
          <Node pos="r" depth="2" NCoef="0" IVar="-1" Cut="0.0000000000000000e+00" cType="1" res="5.5537594016641378e-04" rms="2.4706290662288666e-01" purity="6.2464904785156250e-01" nType="-99"/>
        </Node>
      </Node>
    </BinaryTree>
    <BinaryTree type="DecisionTree" boostWeight="1.0000000000000000e+00" itree="1242">
      <Node pos="s" depth="0" NCoef="0" IVar="31" Cut="2.2646014690399170e+00" cType="1" res="-4.2456178925931454e-03" rms="2.2663161158561707e-01" purity="4.9689215421676636e-01" nType="0">
        <Node pos="l" depth="1" NCoef="0" IVar="-1" Cut="0.0000000000000000e+00" cType="1" res="4.0212690830230713e-02" rms="3.5860329866409302e-01" purity="3.1014639139175415e-01" nType="-99"/>
        <Node pos="r" depth="1" NCoef="0" IVar="42" Cut="-5.4623174667358398e-01" cType="1" res="-6.8862242624163628e-03" rms="2.2211800515651703e-01" purity="5.0100767612457275e-01" nType="0">
          <Node pos="l" depth="2" NCoef="0" IVar="-1" Cut="0.0000000000000000e+00" cType="1" res="-3.5362873226404190e-02" rms="-nan" purity="4.0185573697090149e-01" nType="-99"/>
          <Node pos="r" depth="2" NCoef="0" IVar="-1" Cut="0.0000000000000000e+00" cType="1" res="-1.4327579410746694e-03" rms="2.2667580842971802e-01" purity="5.0456464290618896e-01" nType="-99"/>
        </Node>
      </Node>
    </BinaryTree>
    <BinaryTree type="DecisionTree" boostWeight="1.0000000000000000e+00" itree="1243">
      <Node pos="s" depth="0" NCoef="0" IVar="57" Cut="-1.2604000568389893e+00" cType="1" res="4.9429242499172688e-03" rms="2.3107661306858063e-01" purity="5.0799971818923950e-01" nType="0">
        <Node pos="l" depth="1" NCoef="0" IVar="39" Cut="-1.4324245452880859e+00" cType="1" res="-3.9478652179241180e-02" rms="-nan" purity="3.3649880788289011e-04" nType="-99"/>
        <Node pos="r" depth="1" NCoef="0" IVar="9" Cut="-6.9135802984237671e-01" cType="1" res="1.2153657153248787e-02" rms="2.5378793478012085e-01" purity="5.7503342628479004e-01" nType="0">
          <Node pos="l" depth="2" NCoef="0" IVar="-1" Cut="0.0000000000000000e+00" cType="1" res="3.2425444573163986e-02" rms="3.5468035936355591e-01" purity="5.2624768018722534e-01" nType="-99"/>
          <Node pos="r" depth="2" NCoef="0" IVar="-1" Cut="0.0000000000000000e+00" cType="1" res="2.7295027393847704e-03" rms="2.4757261574268341e-01" purity="5.7718086242675781e-01" nType="-99"/>
        </Node>
      </Node>
    </BinaryTree>
    <BinaryTree type="DecisionTree" boostWeight="1.0000000000000000e+00" itree="1244">
      <Node pos="s" depth="0" NCoef="0" IVar="59" Cut="-1.4926607608795166e+00" cType="1" res="4.5266095548868179e-03" rms="2.3054452240467072e-01" purity="5.0121849775314331e-01" nType="0">
        <Node pos="l" depth="1" NCoef="0" IVar="-1" Cut="0.0000000000000000e+00" cType="1" res="-3.7438862025737762e-02" rms="-nan" purity="3.4702360630035400e-01" nType="-99"/>
        <Node pos="r" depth="1" NCoef="0" IVar="5" Cut="-8.1160724163055420e-02" cType="1" res="8.1433095037937164e-03" rms="2.3728801310062408e-01" purity="5.0699722766876221e-01" nType="0">
          <Node pos="l" depth="2" NCoef="0" IVar="-1" Cut="0.0000000000000000e+00" cType="1" res="3.3508144319057465e-02" rms="2.6075994968414307e-01" purity="2.8561472892761230e-01" nType="-99"/>
          <Node pos="r" depth="2" NCoef="0" IVar="-1" Cut="0.0000000000000000e+00" cType="1" res="1.1617426062002778e-03" rms="2.3452641069889069e-01" purity="5.2557170391082764e-01" nType="-99"/>
        </Node>
      </Node>
    </BinaryTree>
    <BinaryTree type="DecisionTree" boostWeight="1.0000000000000000e+00" itree="1245">
      <Node pos="s" depth="0" NCoef="0" IVar="5" Cut="-1.5287931263446808e-01" cType="1" res="5.7975142262876034e-03" rms="2.3323258757591248e-01" purity="5.0119030475616455e-01" nType="0">
        <Node pos="l" depth="1" NCoef="0" IVar="37" Cut="-1.1090495586395264e+00" cType="1" res="7.7509053051471710e-02" rms="2.4595865607261658e-01" purity="2.0604173839092255e-01" nType="0">
          <Node pos="l" depth="2" NCoef="0" IVar="-1" Cut="0.0000000000000000e+00" cType="1" res="1.1127433180809021e-01" rms="3.5746064782142639e-01" purity="2.5972741842269897e-01" nType="-99"/>
          <Node pos="r" depth="2" NCoef="0" IVar="-1" Cut="0.0000000000000000e+00" cType="1" res="-1.1771583929657936e-02" rms="-nan" purity="1.5089929103851318e-01" nType="-99"/>
        </Node>
        <Node pos="r" depth="1" NCoef="0" IVar="73" Cut="2.2002749443054199e+00" cType="1" res="2.6737628504633904e-03" rms="2.3215951025485992e-01" purity="5.1404702663421631e-01" nType="0">
          <Node pos="l" depth="2" NCoef="0" IVar="-1" Cut="0.0000000000000000e+00" cType="1" res="-2.6756959035992622e-02" rms="1.0410965979099274e-01" purity="2.1811476349830627e-01" nType="-99"/>
          <Node pos="r" depth="2" NCoef="0" IVar="-1" Cut="0.0000000000000000e+00" cType="1" res="1.9054097356274724e-03" rms="2.3485991358757019e-01" purity="5.2406966686248779e-01" nType="-99"/>
        </Node>
      </Node>
    </BinaryTree>
    <BinaryTree type="DecisionTree" boostWeight="1.0000000000000000e+00" itree="1246">
      <Node pos="s" depth="0" NCoef="0" IVar="2" Cut="1.0384877920150757e+00" cType="1" res="1.3729254715144634e-03" rms="2.3477551341056824e-01" purity="5.0069999694824219e-01" nType="0">
        <Node pos="l" depth="1" NCoef="0" IVar="-1" Cut="0.0000000000000000e+00" cType="1" res="8.3541631698608398e-02" rms="3.5373571515083313e-01" purity="1.7581711709499359e-01" nType="-99"/>
        <Node pos="r" depth="1" NCoef="0" IVar="82" Cut="1.5579024553298950e+00" cType="1" res="-2.9277186840772629e-03" rms="2.2775226831436157e-01" purity="5.1351243257522583e-01" nType="0">
          <Node pos="l" depth="2" NCoef="0" IVar="-1" Cut="0.0000000000000000e+00" cType="1" res="3.6436304071685299e-05" rms="2.3663780093193054e-01" purity="5.2663397789001465e-01" nType="-99"/>
          <Node pos="r" depth="2" NCoef="0" IVar="-1" Cut="0.0000000000000000e+00" cType="1" res="-3.3845733851194382e-02" rms="-nan" purity="1.8141214549541473e-01" nType="-99"/>
        </Node>
      </Node>
    </BinaryTree>
    <BinaryTree type="DecisionTree" boostWeight="1.0000000000000000e+00" itree="1247">
      <Node pos="s" depth="0" NCoef="0" IVar="63" Cut="-1.2759381532669067e-01" cType="1" res="-1.3558579375967383e-03" rms="2.1780498325824738e-01" purity="5.0408077239990234e-01" nType="0">
        <Node pos="l" depth="1" NCoef="0" IVar="17" Cut="1.3672273159027100e+00" cType="1" res="-3.4573536366224289e-02" rms="1.5204589068889618e-01" purity="4.9425059556961060e-01" nType="0">
          <Node pos="l" depth="2" NCoef="0" IVar="-1" Cut="0.0000000000000000e+00" cType="1" res="-9.3330070376396179e-02" rms="-nan" purity="-5.1990866661071777e-02" nType="-99"/>
          <Node pos="r" depth="2" NCoef="0" IVar="-1" Cut="0.0000000000000000e+00" cType="1" res="-3.2731960527598858e-03" rms="2.4451576173305511e-01" purity="6.7973577976226807e-01" nType="-99"/>
        </Node>
        <Node pos="r" depth="1" NCoef="0" IVar="37" Cut="-6.8152177333831787e-01" cType="1" res="1.3799462467432022e-02" rms="2.4042089283466339e-01" purity="5.0856578350067139e-01" nType="0">
          <Node pos="l" depth="2" NCoef="0" IVar="-1" Cut="0.0000000000000000e+00" cType="1" res="1.1174971237778664e-02" rms="2.6187422871589661e-01" purity="5.3104835748672485e-01" nType="-99"/>
          <Node pos="r" depth="2" NCoef="0" IVar="-1" Cut="0.0000000000000000e+00" cType="1" res="-1.5154847642406821e-03" rms="2.1467959880828857e-01" purity="4.8544222116470337e-01" nType="-99"/>
        </Node>
      </Node>
    </BinaryTree>
    <BinaryTree type="DecisionTree" boostWeight="1.0000000000000000e+00" itree="1248">
      <Node pos="s" depth="0" NCoef="0" IVar="46" Cut="1.2477689981460571e+00" cType="1" res="2.3112806957215071e-03" rms="2.3086883127689362e-01" purity="5.0207823514938354e-01" nType="0">
        <Node pos="l" depth="1" NCoef="0" IVar="59" Cut="1.4002161026000977e+00" cType="1" res="6.3866511918604374e-03" rms="2.3914328217506409e-01" purity="5.2107107639312744e-01" nType="0">
          <Node pos="l" depth="2" NCoef="0" IVar="-1" Cut="0.0000000000000000e+00" cType="1" res="1.1251952499151230e-02" rms="2.2752250730991364e-01" purity="3.3465161919593811e-01" nType="-99"/>
          <Node pos="r" depth="2" NCoef="0" IVar="-1" Cut="0.0000000000000000e+00" cType="1" res="-3.3604577183723450e-03" rms="2.4612772464752197e-01" purity="6.5812057256698608e-01" nType="-99"/>
        </Node>
        <Node pos="r" depth="1" NCoef="0" IVar="81" Cut="-1.4433456659317017e+00" cType="1" res="-3.0856220051646233e-02" rms="-nan" purity="1.7695237696170807e-01" nType="-99"/>
      </Node>
    </BinaryTree>
    <BinaryTree type="DecisionTree" boostWeight="1.0000000000000000e+00" itree="1249">
      <Node pos="s" depth="0" NCoef="0" IVar="52" Cut="2.3441362380981445e+00" cType="1" res="1.8030746141448617e-03" rms="2.3428297042846680e-01" purity="4.8784169554710388e-01" nType="0">
        <Node pos="l" depth="1" NCoef="0" IVar="-1" Cut="0.0000000000000000e+00" cType="1" res="-3.2329060137271881e-02" rms="-nan" purity="6.9252260029315948e-02" nType="-99"/>
        <Node pos="r" depth="1" NCoef="0" IVar="19" Cut="5.8085137605667114e-01" cType="1" res="4.5011681504547596e-03" rms="2.4094219505786896e-01" purity="5.0070768594741821e-01" nType="0">
          <Node pos="l" depth="2" NCoef="0" IVar="-1" Cut="0.0000000000000000e+00" cType="1" res="-5.8204159140586853e-03" rms="2.0389591157436371e-01" purity="5.4056370258331299e-01" nType="-99"/>
          <Node pos="r" depth="2" NCoef="0" IVar="-1" Cut="0.0000000000000000e+00" cType="1" res="5.8804843574762344e-03" rms="2.5835856795310974e-01" purity="4.7879010438919067e-01" nType="-99"/>
        </Node>
      </Node>
    </BinaryTree>
    <BinaryTree type="DecisionTree" boostWeight="1.0000000000000000e+00" itree="1250">
      <Node pos="s" depth="0" NCoef="0" IVar="22" Cut="1.2345679104328156e-02" cType="1" res="-2.6204375899396837e-04" rms="2.2995460033416748e-01" purity="4.9960312247276306e-01" nType="0">
        <Node pos="l" depth="1" NCoef="0" IVar="-1" Cut="0.0000000000000000e+00" cType="1" res="-3.4100472927093506e-02" rms="-nan" purity="2.3426397144794464e-01" nType="-99"/>
        <Node pos="r" depth="1" NCoef="0" IVar="13" Cut="-1.4741663932800293e+00" cType="1" res="2.7910873759537935e-03" rms="2.3598098754882812e-01" purity="5.0691330432891846e-01" nType="0">
          <Node pos="l" depth="2" NCoef="0" IVar="-1" Cut="0.0000000000000000e+00" cType="1" res="4.1249535977840424e-02" rms="2.7951669692993164e-01" purity="3.7661522626876831e-01" nType="-99"/>
          <Node pos="r" depth="2" NCoef="0" IVar="-1" Cut="0.0000000000000000e+00" cType="1" res="-2.9669876676052809e-04" rms="2.3331679403781891e-01" purity="5.1230096817016602e-01" nType="-99"/>
        </Node>
      </Node>
    </BinaryTree>
    <BinaryTree type="DecisionTree" boostWeight="1.0000000000000000e+00" itree="1251">
      <Node pos="s" depth="0" NCoef="0" IVar="57" Cut="-7.5792533159255981e-01" cType="1" res="4.1442695073783398e-03" rms="2.3841676115989685e-01" purity="5.0572615861892700e-01" nType="0">
        <Node pos="l" depth="1" NCoef="0" IVar="79" Cut="4.7152423858642578e-01" cType="1" res="-2.8313871473073959e-02" rms="-nan" purity="1.6632540151476860e-02" nType="-99"/>
        <Node pos="r" depth="1" NCoef="0" IVar="5" Cut="-1.4041122794151306e-01" cType="1" res="1.1954937130212784e-02" rms="2.6809200644493103e-01" purity="6.0024893283843994e-01" nType="0">
          <Node pos="l" depth="2" NCoef="0" IVar="-1" Cut="0.0000000000000000e+00" cType="1" res="5.6590523570775986e-02" rms="3.2808291912078857e-01" purity="3.3824935555458069e-01" nType="-99"/>
          <Node pos="r" depth="2" NCoef="0" IVar="-1" Cut="0.0000000000000000e+00" cType="1" res="2.2086133249104023e-03" rms="2.6383468508720398e-01" purity="6.1162972450256348e-01" nType="-99"/>
        </Node>
      </Node>
    </BinaryTree>
    <BinaryTree type="DecisionTree" boostWeight="1.0000000000000000e+00" itree="1252">
      <Node pos="s" depth="0" NCoef="0" IVar="41" Cut="2.6455280184745789e-01" cType="1" res="2.9587729368358850e-03" rms="2.3046821355819702e-01" purity="5.0219500064849854e-01" nType="0">
        <Node pos="l" depth="1" NCoef="0" IVar="41" Cut="1.8655121326446533e-01" cType="1" res="-1.5677439514547586e-03" rms="2.2171080112457275e-01" purity="5.1170998811721802e-01" nType="0">
          <Node pos="l" depth="2" NCoef="0" IVar="-1" Cut="0.0000000000000000e+00" cType="1" res="1.1567028705030680e-03" rms="2.3055812716484070e-01" purity="5.2745318412780762e-01" nType="-99"/>
          <Node pos="r" depth="2" NCoef="0" IVar="-1" Cut="0.0000000000000000e+00" cType="1" res="-2.4555452167987823e-02" rms="-nan" purity="3.1540897488594055e-01" nType="-99"/>
        </Node>
        <Node pos="r" depth="1" NCoef="0" IVar="36" Cut="1.0948032140731812e+00" cType="1" res="4.7587122768163681e-02" rms="2.9993987083435059e-01" purity="4.0838447213172913e-01" nType="0">
          <Node pos="l" depth="2" NCoef="0" IVar="-1" Cut="0.0000000000000000e+00" cType="1" res="6.4819552004337311e-02" rms="3.5294294357299805e-01" purity="2.6631009578704834e-01" nType="-99"/>
          <Node pos="r" depth="2" NCoef="0" IVar="-1" Cut="0.0000000000000000e+00" cType="1" res="-4.2642997577786446e-03" rms="2.4232691526412964e-01" purity="4.9842542409896851e-01" nType="-99"/>
        </Node>
      </Node>
    </BinaryTree>
    <BinaryTree type="DecisionTree" boostWeight="1.0000000000000000e+00" itree="1253">
      <Node pos="s" depth="0" NCoef="0" IVar="18" Cut="-7.1185827255249023e-01" cType="1" res="-6.3733727438375354e-04" rms="2.2862304747104645e-01" purity="5.0259417295455933e-01" nType="0">
        <Node pos="l" depth="1" NCoef="0" IVar="3" Cut="4.3576073646545410e+00" cType="1" res="-5.8462875895202160e-03" rms="2.1808998286724091e-01" purity="5.1262414455413818e-01" nType="0">
          <Node pos="l" depth="2" NCoef="0" IVar="-1" Cut="0.0000000000000000e+00" cType="1" res="1.7697263509035110e-02" rms="2.6992180943489075e-01" purity="3.4171986579895020e-01" nType="-99"/>
          <Node pos="r" depth="2" NCoef="0" IVar="-1" Cut="0.0000000000000000e+00" cType="1" res="-3.6843423731625080e-03" rms="2.1406564116477966e-01" purity="5.2263075113296509e-01" nType="-99"/>
        </Node>
        <Node pos="r" depth="1" NCoef="0" IVar="38" Cut="-4.5243909955024719e-01" cType="1" res="8.9761763811111450e-02" rms="3.5395395755767822e-01" purity="3.2852783799171448e-01" nType="0">
          <Node pos="l" depth="2" NCoef="0" IVar="-1" Cut="0.0000000000000000e+00" cType="1" res="1.0199892520904541e-01" rms="4.3109554052352905e-01" purity="3.2619982957839966e-01" nType="-99"/>
          <Node pos="r" depth="2" NCoef="0" IVar="-1" Cut="0.0000000000000000e+00" cType="1" res="-3.0039600096642971e-04" rms="2.5135800242424011e-01" purity="3.3014488220214844e-01" nType="-99"/>
        </Node>
      </Node>
    </BinaryTree>
    <BinaryTree type="DecisionTree" boostWeight="1.0000000000000000e+00" itree="1254">
      <Node pos="s" depth="0" NCoef="0" IVar="55" Cut="-9.1407930850982666e-01" cType="1" res="-3.4287071321159601e-03" rms="2.2223129868507385e-01" purity="4.9600929021835327e-01" nType="0">
        <Node pos="l" depth="1" NCoef="0" IVar="35" Cut="-1.2608467340469360e+00" cType="1" res="-2.1429957821965218e-02" rms="-nan" purity="2.0938293635845184e-01" nType="-99"/>
        <Node pos="r" depth="1" NCoef="0" IVar="17" Cut="-1.2216869592666626e+00" cType="1" res="5.6343958713114262e-03" rms="2.4929518997669220e-01" purity="5.6157368421554565e-01" nType="0">
          <Node pos="l" depth="2" NCoef="0" IVar="-1" Cut="0.0000000000000000e+00" cType="1" res="9.9697425961494446e-02" rms="2.5166222453117371e-01" purity="8.5338644683361053e-02" nType="-99"/>
          <Node pos="r" depth="2" NCoef="0" IVar="-1" Cut="0.0000000000000000e+00" cType="1" res="-5.8716756757348776e-04" rms="2.4803291261196136e-01" purity="6.2585890293121338e-01" nType="-99"/>
        </Node>
      </Node>
    </BinaryTree>
    <BinaryTree type="DecisionTree" boostWeight="1.0000000000000000e+00" itree="1255">
      <Node pos="s" depth="0" NCoef="0" IVar="81" Cut="-7.1223437786102295e-01" cType="1" res="2.5894050486385822e-04" rms="2.3268723487854004e-01" purity="4.9919763207435608e-01" nType="0">
        <Node pos="l" depth="1" NCoef="0" IVar="52" Cut="2.4091095924377441e+00" cType="1" res="4.5811887830495834e-03" rms="2.4382950365543365e-01" purity="5.2442467212677002e-01" nType="0">
          <Node pos="l" depth="2" NCoef="0" IVar="-1" Cut="0.0000000000000000e+00" cType="1" res="2.8774725273251534e-02" rms="3.1658756732940674e-01" purity="2.4669413268566132e-01" nType="-99"/>
          <Node pos="r" depth="2" NCoef="0" IVar="-1" Cut="0.0000000000000000e+00" cType="1" res="2.1477030531968921e-04" rms="2.3887540400028229e-01" purity="5.3844863176345825e-01" nType="-99"/>
        </Node>
        <Node pos="r" depth="1" NCoef="0" IVar="80" Cut="-1.1849869489669800e+00" cType="1" res="-2.4525742977857590e-02" rms="-nan" purity="1.6393142938613892e-01" nType="-99"/>
      </Node>
    </BinaryTree>
    <BinaryTree type="DecisionTree" boostWeight="1.0000000000000000e+00" itree="1256">
      <Node pos="s" depth="0" NCoef="0" IVar="27" Cut="7.4643057584762573e-01" cType="1" res="1.9248781027272344e-03" rms="2.3237563669681549e-01" purity="5.0082421302795410e-01" nType="0">
        <Node pos="l" depth="1" NCoef="0" IVar="58" Cut="-1.1145842820405960e-01" cType="1" res="8.9263655245304108e-02" rms="3.4918081760406494e-01" purity="2.7096194028854370e-01" nType="0">
          <Node pos="l" depth="2" NCoef="0" IVar="-1" Cut="0.0000000000000000e+00" cType="1" res="-3.4702536650002003e-03" rms="2.4247458577156067e-01" purity="1.5795984864234924e-01" nType="-99"/>
          <Node pos="r" depth="2" NCoef="0" IVar="-1" Cut="0.0000000000000000e+00" cType="1" res="6.7499548196792603e-02" rms="4.1472408175468445e-01" purity="4.0180596709251404e-01" nType="-99"/>
        </Node>
        <Node pos="r" depth="1" NCoef="0" IVar="7" Cut="-1.3371561765670776e+00" cType="1" res="-2.1963224280625582e-03" rms="2.2453550994396210e-01" purity="5.1167058944702148e-01" nType="0">
          <Node pos="l" depth="2" NCoef="0" IVar="-1" Cut="0.0000000000000000e+00" cType="1" res="5.3346832282841206e-04" rms="2.3378260433673859e-01" purity="5.2405327558517456e-01" nType="-99"/>
          <Node pos="r" depth="2" NCoef="0" IVar="-1" Cut="0.0000000000000000e+00" cType="1" res="-4.0215943008661270e-02" rms="-nan" purity="1.5107937157154083e-01" nType="-99"/>
        </Node>
      </Node>
    </BinaryTree>
    <BinaryTree type="DecisionTree" boostWeight="1.0000000000000000e+00" itree="1257">
      <Node pos="s" depth="0" NCoef="0" IVar="14" Cut="-1.2994860410690308e+00" cType="1" res="3.1277115922421217e-03" rms="2.3740668594837189e-01" purity="5.0257909297943115e-01" nType="0">
        <Node pos="l" depth="1" NCoef="0" IVar="61" Cut="1.0630846023559570e+00" cType="1" res="-3.3590454608201981e-02" rms="1.5170261263847351e-01" purity="3.2527926564216614e-01" nType="0">
          <Node pos="l" depth="2" NCoef="0" IVar="-1" Cut="0.0000000000000000e+00" cType="1" res="-5.0304271280765533e-03" rms="2.0912943780422211e-01" purity="3.7390884757041931e-01" nType="-99"/>
          <Node pos="r" depth="2" NCoef="0" IVar="-1" Cut="0.0000000000000000e+00" cType="1" res="-4.7519110143184662e-02" rms="-nan" purity="1.3849923014640808e-01" nType="-99"/>
        </Node>
        <Node pos="r" depth="1" NCoef="0" IVar="36" Cut="-1.2991991043090820e+00" cType="1" res="1.4113181270658970e-02" rms="2.5654458999633789e-01" purity="5.5562418699264526e-01" nType="0">
          <Node pos="l" depth="2" NCoef="0" IVar="-1" Cut="0.0000000000000000e+00" cType="1" res="4.4684689491987228e-02" rms="2.8431311249732971e-01" purity="1.5655206143856049e-01" nType="-99"/>
          <Node pos="r" depth="2" NCoef="0" IVar="-1" Cut="0.0000000000000000e+00" cType="1" res="2.0825816318392754e-03" rms="2.5160136818885803e-01" purity="6.0725420713424683e-01" nType="-99"/>
        </Node>
      </Node>
    </BinaryTree>
    <BinaryTree type="DecisionTree" boostWeight="1.0000000000000000e+00" itree="1258">
      <Node pos="s" depth="0" NCoef="0" IVar="82" Cut="1.6761053800582886e+00" cType="1" res="1.0289886267855763e-03" rms="2.3752894997596741e-01" purity="4.9903124570846558e-01" nType="0">
        <Node pos="l" depth="1" NCoef="0" IVar="48" Cut="7.0260983705520630e-01" cType="1" res="-1.4651749515905976e-03" rms="2.3536497354507446e-01" purity="5.0509089231491089e-01" nType="0">
          <Node pos="l" depth="2" NCoef="0" IVar="-1" Cut="0.0000000000000000e+00" cType="1" res="-5.5203083902597427e-02" rms="-nan" purity="5.2866518497467041e-02" nType="-99"/>
          <Node pos="r" depth="2" NCoef="0" IVar="-1" Cut="0.0000000000000000e+00" cType="1" res="3.3759576035663486e-04" rms="2.4037128686904907e-01" purity="5.1615947484970093e-01" nType="-99"/>
        </Node>
        <Node pos="r" depth="1" NCoef="0" IVar="-1" Cut="0.0000000000000000e+00" cType="1" res="4.0307067334651947e-02" rms="2.9241022467613220e-01" purity="2.7518281340599060e-01" nType="-99"/>
      </Node>
    </BinaryTree>
    <BinaryTree type="DecisionTree" boostWeight="1.0000000000000000e+00" itree="1259">
      <Node pos="s" depth="0" NCoef="0" IVar="78" Cut="-1.3027049303054810e+00" cType="1" res="5.0755334086716175e-03" rms="2.4087548255920410e-01" purity="5.0175499916076660e-01" nType="0">
        <Node pos="l" depth="1" NCoef="0" IVar="3" Cut="5.4375438690185547e+00" cType="1" res="1.8088869750499725e-02" rms="2.7021667361259460e-01" purity="6.2125027179718018e-01" nType="0">
          <Node pos="l" depth="2" NCoef="0" IVar="-1" Cut="0.0000000000000000e+00" cType="1" res="4.5580677688121796e-03" rms="2.6482266187667847e-01" purity="6.2882554531097412e-01" nType="-99"/>
          <Node pos="r" depth="2" NCoef="0" IVar="-1" Cut="0.0000000000000000e+00" cType="1" res="5.6843914091587067e-02" rms="3.5899284482002258e-01" purity="4.0654298663139343e-01" nType="-99"/>
        </Node>
        <Node pos="r" depth="1" NCoef="0" IVar="70" Cut="-1.2787711620330811e+00" cType="1" res="-1.8775178119540215e-02" rms="1.7221251130104065e-01" purity="2.8274533152580261e-01" nType="0">
          <Node pos="l" depth="2" NCoef="0" IVar="-1" Cut="0.0000000000000000e+00" cType="1" res="-4.6750530600547791e-03" rms="1.9178590178489685e-01" purity="2.9793334007263184e-01" nType="-99"/>
          <Node pos="r" depth="2" NCoef="0" IVar="-1" Cut="0.0000000000000000e+00" cType="1" res="-5.6685663759708405e-02" rms="-nan" purity="5.3705662488937378e-02" nType="-99"/>
        </Node>
      </Node>
    </BinaryTree>
    <BinaryTree type="DecisionTree" boostWeight="1.0000000000000000e+00" itree="1260">
      <Node pos="s" depth="0" NCoef="0" IVar="3" Cut="4.3348445892333984e+00" cType="1" res="-3.6568003706634045e-03" rms="2.2228552401065826e-01" purity="4.8807668685913086e-01" nType="0">
        <Node pos="l" depth="1" NCoef="0" IVar="-1" Cut="0.0000000000000000e+00" cType="1" res="-4.2459074407815933e-02" rms="-nan" purity="1.5190733969211578e-01" nType="-99"/>
        <Node pos="r" depth="1" NCoef="0" IVar="52" Cut="2.4381566047668457e+00" cType="1" res="5.7867990108206868e-04" rms="2.2945432364940643e-01" purity="5.0086587667465210e-01" nType="0">
          <Node pos="l" depth="2" NCoef="0" IVar="-1" Cut="0.0000000000000000e+00" cType="1" res="-3.5325326025485992e-02" rms="-nan" purity="6.3178628683090210e-02" nType="-99"/>
          <Node pos="r" depth="2" NCoef="0" IVar="-1" Cut="0.0000000000000000e+00" cType="1" res="1.6721130814403296e-03" rms="2.3814934492111206e-01" purity="5.2156180143356323e-01" nType="-99"/>
        </Node>
      </Node>
    </BinaryTree>
    <BinaryTree type="DecisionTree" boostWeight="1.0000000000000000e+00" itree="1261">
      <Node pos="s" depth="0" NCoef="0" IVar="14" Cut="1.4039052724838257e+00" cType="1" res="-5.8784673456102610e-04" rms="2.2754690051078796e-01" purity="4.9959847331047058e-01" nType="0">
        <Node pos="l" depth="1" NCoef="0" IVar="16" Cut="-1.4155989885330200e+00" cType="1" res="2.1578429732471704e-03" rms="2.3243136703968048e-01" purity="5.0580567121505737e-01" nType="0">
          <Node pos="l" depth="2" NCoef="0" IVar="-1" Cut="0.0000000000000000e+00" cType="1" res="-4.7864861786365509e-02" rms="-nan" purity="7.1089036762714386e-02" nType="-99"/>
          <Node pos="r" depth="2" NCoef="0" IVar="-1" Cut="0.0000000000000000e+00" cType="1" res="1.9439893076196313e-03" rms="2.3985686898231506e-01" purity="5.1857340335845947e-01" nType="-99"/>
        </Node>
        <Node pos="r" depth="1" NCoef="0" IVar="-1" Cut="0.0000000000000000e+00" cType="1" res="-4.0887109935283661e-02" rms="-nan" purity="2.1671935915946960e-01" nType="-99"/>
      </Node>
    </BinaryTree>
    <BinaryTree type="DecisionTree" boostWeight="1.0000000000000000e+00" itree="1262">
      <Node pos="s" depth="0" NCoef="0" IVar="6" Cut="2.8640229701995850e+00" cType="1" res="-4.7006602399051189e-03" rms="2.2303293645381927e-01" purity="4.9821254611015320e-01" nType="0">
        <Node pos="l" depth="1" NCoef="0" IVar="69" Cut="1.2861841917037964e+00" cType="1" res="-1.2648976407945156e-02" rms="2.0796175301074982e-01" purity="4.5364955067634583e-01" nType="0">
          <Node pos="l" depth="2" NCoef="0" IVar="-1" Cut="0.0000000000000000e+00" cType="1" res="5.7769222185015678e-03" rms="2.4343010783195496e-01" purity="2.9300910234451294e-01" nType="-99"/>
          <Node pos="r" depth="2" NCoef="0" IVar="-1" Cut="0.0000000000000000e+00" cType="1" res="-8.7267039343714714e-03" rms="1.8841157853603363e-01" purity="5.2678799629211426e-01" nType="-99"/>
        </Node>
        <Node pos="r" depth="1" NCoef="0" IVar="57" Cut="7.8831750154495239e-01" cType="1" res="3.0915781855583191e-02" rms="2.7802672982215881e-01" purity="6.9789952039718628e-01" nType="0">
          <Node pos="l" depth="2" NCoef="0" IVar="-1" Cut="0.0000000000000000e+00" cType="1" res="4.2008720338344574e-02" rms="3.6421251296997070e-01" purity="3.0818924307823181e-01" nType="-99"/>
          <Node pos="r" depth="2" NCoef="0" IVar="-1" Cut="0.0000000000000000e+00" cType="1" res="2.8981103096157312e-03" rms="2.4843303859233856e-01" purity="7.8732007741928101e-01" nType="-99"/>
        </Node>
      </Node>
    </BinaryTree>
    <BinaryTree type="DecisionTree" boostWeight="1.0000000000000000e+00" itree="1263">
      <Node pos="s" depth="0" NCoef="0" IVar="84" Cut="1.9985245168209076e-01" cType="1" res="-5.9872451238334179e-03" rms="2.2051270306110382e-01" purity="4.9656891822814941e-01" nType="0">
        <Node pos="l" depth="1" NCoef="0" IVar="59" Cut="-6.0497063398361206e-01" cType="1" res="-1.3623489066958427e-02" rms="2.1381844580173492e-01" purity="4.9911603331565857e-01" nType="0">
          <Node pos="l" depth="2" NCoef="0" IVar="-1" Cut="0.0000000000000000e+00" cType="1" res="-2.4248648434877396e-02" rms="-nan" purity="2.2355876863002777e-01" nType="-99"/>
          <Node pos="r" depth="2" NCoef="0" IVar="-1" Cut="0.0000000000000000e+00" cType="1" res="-1.3279243139550090e-03" rms="2.4748313426971436e-01" purity="5.7741928100585938e-01" nType="-99"/>
        </Node>
        <Node pos="r" depth="1" NCoef="0" IVar="61" Cut="1.3164122104644775e+00" cType="1" res="3.2046746462583542e-02" rms="2.4773052334785461e-01" purity="4.8388254642486572e-01" nType="0">
          <Node pos="l" depth="2" NCoef="0" IVar="-1" Cut="0.0000000000000000e+00" cType="1" res="3.4617627970874310e-03" rms="2.0674659311771393e-01" purity="4.9421179294586182e-01" nType="-99"/>
          <Node pos="r" depth="2" NCoef="0" IVar="-1" Cut="0.0000000000000000e+00" cType="1" res="8.1594310700893402e-02" rms="4.0032184123992920e-01" purity="4.1312822699546814e-01" nType="-99"/>
        </Node>
      </Node>
    </BinaryTree>
    <BinaryTree type="DecisionTree" boostWeight="1.0000000000000000e+00" itree="1264">
      <Node pos="s" depth="0" NCoef="0" IVar="9" Cut="-7.6543211936950684e-01" cType="1" res="-1.5763944247737527e-03" rms="2.3084482550621033e-01" purity="5.0060719251632690e-01" nType="0">
        <Node pos="l" depth="1" NCoef="0" IVar="-1" Cut="0.0000000000000000e+00" cType="1" res="-2.7323110029101372e-02" rms="-nan" purity="3.1399843096733093e-01" nType="-99"/>
        <Node pos="r" depth="1" NCoef="0" IVar="15" Cut="5.5608737468719482e-01" cType="1" res="1.4285208890214562e-03" rms="2.3658235371112823e-01" purity="5.0763636827468872e-01" nType="0">
          <Node pos="l" depth="2" NCoef="0" IVar="-1" Cut="0.0000000000000000e+00" cType="1" res="1.6731809824705124e-02" rms="2.3939263820648193e-01" purity="2.8004601597785950e-01" nType="-99"/>
          <Node pos="r" depth="2" NCoef="0" IVar="-1" Cut="0.0000000000000000e+00" cType="1" res="-3.0889248009771109e-03" rms="2.3456712067127228e-01" purity="6.0305809974670410e-01" nType="-99"/>
        </Node>
      </Node>
    </BinaryTree>
    <BinaryTree type="DecisionTree" boostWeight="1.0000000000000000e+00" itree="1265">
      <Node pos="s" depth="0" NCoef="0" IVar="77" Cut="1.4427326917648315e+00" cType="1" res="3.2875093165785074e-03" rms="2.3672553896903992e-01" purity="4.9798592925071716e-01" nType="0">
        <Node pos="l" depth="1" NCoef="0" IVar="13" Cut="-1.4154441356658936e+00" cType="1" res="7.5555415824055672e-03" rms="2.4756078422069550e-01" purity="5.1535081863403320e-01" nType="0">
          <Node pos="l" depth="2" NCoef="0" IVar="-1" Cut="0.0000000000000000e+00" cType="1" res="4.3695989996194839e-02" rms="2.9564511775970459e-01" purity="2.7450349926948547e-01" nType="-99"/>
          <Node pos="r" depth="2" NCoef="0" IVar="-1" Cut="0.0000000000000000e+00" cType="1" res="2.1790983737446368e-04" rms="2.4119745194911957e-01" purity="5.3908288478851318e-01" nType="-99"/>
        </Node>
        <Node pos="r" depth="1" NCoef="0" IVar="-1" Cut="0.0000000000000000e+00" cType="1" res="-1.3178075850009918e-01" rms="-nan" purity="-6.3311748206615448e-02" nType="-99"/>
      </Node>
    </BinaryTree>
    <BinaryTree type="DecisionTree" boostWeight="1.0000000000000000e+00" itree="1266">
      <Node pos="s" depth="0" NCoef="0" IVar="37" Cut="-1.1456713676452637e+00" cType="1" res="-7.2118495590984821e-03" rms="2.1721749007701874e-01" purity="4.8978742957115173e-01" nType="0">
        <Node pos="l" depth="1" NCoef="0" IVar="57" Cut="1.4081424474716187e+00" cType="1" res="2.0226189866662025e-02" rms="2.5830686092376709e-01" purity="4.5855647325515747e-01" nType="0">
          <Node pos="l" depth="2" NCoef="0" IVar="-1" Cut="0.0000000000000000e+00" cType="1" res="3.2214313745498657e-02" rms="2.7463790774345398e-01" purity="1.9783492386341095e-01" nType="-99"/>
          <Node pos="r" depth="2" NCoef="0" IVar="-1" Cut="0.0000000000000000e+00" cType="1" res="-2.8057906311005354e-03" rms="2.4298021197319031e-01" purity="6.2377357482910156e-01" nType="-99"/>
        </Node>
        <Node pos="r" depth="1" NCoef="0" IVar="13" Cut="1.3994575738906860e+00" cType="1" res="-1.9637681543827057e-02" rms="1.9452378153800964e-01" purity="5.0393092632293701e-01" nType="0">
          <Node pos="l" depth="2" NCoef="0" IVar="-1" Cut="0.0000000000000000e+00" cType="1" res="-3.2063011080026627e-02" rms="-nan" purity="1.8705222010612488e-01" nType="-99"/>
          <Node pos="r" depth="2" NCoef="0" IVar="-1" Cut="0.0000000000000000e+00" cType="1" res="-6.6409475402906537e-04" rms="2.6116800308227539e-01" purity="6.4350074529647827e-01" nType="-99"/>
        </Node>
      </Node>
    </BinaryTree>
    <BinaryTree type="DecisionTree" boostWeight="1.0000000000000000e+00" itree="1267">
      <Node pos="s" depth="0" NCoef="0" IVar="18" Cut="-9.2101049423217773e-01" cType="1" res="-2.8283467981964350e-03" rms="2.2272372245788574e-01" purity="4.9557065963745117e-01" nType="0">
        <Node pos="l" depth="1" NCoef="0" IVar="69" Cut="1.6375672817230225e+00" cType="1" res="2.9344912618398666e-03" rms="2.2762964665889740e-01" purity="5.2298939228057861e-01" nType="0">
          <Node pos="l" depth="2" NCoef="0" IVar="-1" Cut="0.0000000000000000e+00" cType="1" res="-8.8659822940826416e-03" rms="1.7734432220458984e-01" purity="3.4222531318664551e-01" nType="-99"/>
          <Node pos="r" depth="2" NCoef="0" IVar="-1" Cut="0.0000000000000000e+00" cType="1" res="7.1638827212154865e-03" rms="2.5481885671615601e-01" purity="6.4598500728607178e-01" nType="-99"/>
        </Node>
        <Node pos="r" depth="1" NCoef="0" IVar="1" Cut="2.6185374259948730e+00" cType="1" res="-7.0586524903774261e-02" rms="1.3655249774456024e-01" purity="1.7318727076053619e-01" nType="0">
          <Node pos="l" depth="2" NCoef="0" IVar="-1" Cut="0.0000000000000000e+00" cType="1" res="7.8600281849503517e-03" rms="3.1309568881988525e-01" purity="1.6604250669479370e-01" nType="-99"/>
          <Node pos="r" depth="2" NCoef="0" IVar="-1" Cut="0.0000000000000000e+00" cType="1" res="-5.3045470267534256e-02" rms="-nan" purity="1.8059538304805756e-01" nType="-99"/>
        </Node>
      </Node>
    </BinaryTree>
    <BinaryTree type="DecisionTree" boostWeight="1.0000000000000000e+00" itree="1268">
      <Node pos="s" depth="0" NCoef="0" IVar="36" Cut="-1.2992494106292725e+00" cType="1" res="5.3377640433609486e-03" rms="2.2957450151443481e-01" purity="5.0698786973953247e-01" nType="0">
        <Node pos="l" depth="1" NCoef="0" IVar="81" Cut="-2.4283261299133301e+00" cType="1" res="4.6999849379062653e-02" rms="2.4408818781375885e-01" purity="1.0954523086547852e-01" nType="0">
          <Node pos="l" depth="2" NCoef="0" IVar="-1" Cut="0.0000000000000000e+00" cType="1" res="8.6120501160621643e-02" rms="4.0428423881530762e-01" purity="2.9056081175804138e-01" nType="-99"/>
          <Node pos="r" depth="2" NCoef="0" IVar="-1" Cut="0.0000000000000000e+00" cType="1" res="1.3096586801111698e-02" rms="1.8386867642402649e-01" purity="7.4031427502632141e-02" nType="-99"/>
        </Node>
        <Node pos="r" depth="1" NCoef="0" IVar="80" Cut="1.4736450910568237e+00" cType="1" res="-6.0952414060011506e-04" rms="2.2680377960205078e-01" purity="5.6372308731079102e-01" nType="0">
          <Node pos="l" depth="2" NCoef="0" IVar="-1" Cut="0.0000000000000000e+00" cType="1" res="9.5917418366298079e-04" rms="2.3219853639602661e-01" purity="5.8299696445465088e-01" nType="-99"/>
          <Node pos="r" depth="2" NCoef="0" IVar="-1" Cut="0.0000000000000000e+00" cType="1" res="-4.3028898537158966e-02" rms="-nan" purity="3.3151768147945404e-02" nType="-99"/>
        </Node>
      </Node>
    </BinaryTree>
    <BinaryTree type="DecisionTree" boostWeight="1.0000000000000000e+00" itree="1269">
      <Node pos="s" depth="0" NCoef="0" IVar="70" Cut="-8.1087225675582886e-01" cType="1" res="-2.0460616797208786e-03" rms="2.2230497002601624e-01" purity="4.9400842189788818e-01" nType="0">
        <Node pos="l" depth="1" NCoef="0" IVar="73" Cut="2.1715714931488037e+00" cType="1" res="-7.3458794504404068e-03" rms="2.1615187823772430e-01" purity="4.9231743812561035e-01" nType="0">
          <Node pos="l" depth="2" NCoef="0" IVar="-1" Cut="0.0000000000000000e+00" cType="1" res="-4.1882589459419250e-02" rms="-nan" purity="1.7902727425098419e-01" nType="-99"/>
          <Node pos="r" depth="2" NCoef="0" IVar="-1" Cut="0.0000000000000000e+00" cType="1" res="-1.6059132758527994e-03" rms="2.2232554852962494e-01" purity="5.0163769721984863e-01" nType="-99"/>
        </Node>
        <Node pos="r" depth="1" NCoef="0" IVar="57" Cut="1.2135185003280640e+00" cType="1" res="7.2514384984970093e-02" rms="2.8534182906150818e-01" purity="5.1779830455780029e-01" nType="0">
          <Node pos="l" depth="2" NCoef="0" IVar="-1" Cut="0.0000000000000000e+00" cType="1" res="9.5900863409042358e-02" rms="3.6512881517410278e-01" purity="2.7586960792541504e-01" nType="-99"/>
          <Node pos="r" depth="2" NCoef="0" IVar="-1" Cut="0.0000000000000000e+00" cType="1" res="7.1063698269426823e-03" rms="2.2479952871799469e-01" purity="6.2818354368209839e-01" nType="-99"/>
        </Node>
      </Node>
    </BinaryTree>
    <BinaryTree type="DecisionTree" boostWeight="1.0000000000000000e+00" itree="1270">
      <Node pos="s" depth="0" NCoef="0" IVar="10" Cut="2.8589806556701660e+00" cType="1" res="-3.2281521707773209e-03" rms="2.2299750149250031e-01" purity="4.9586412310600281e-01" nType="0">
        <Node pos="l" depth="1" NCoef="0" IVar="59" Cut="1.2564960122108459e-01" cType="1" res="-2.7553904801607132e-02" rms="-nan" purity="1.4646372199058533e-01" nType="-99"/>
        <Node pos="r" depth="1" NCoef="0" IVar="85" Cut="1.2345679104328156e-02" cType="1" res="2.0146896131336689e-03" rms="2.3282705247402191e-01" purity="5.2414882183074951e-01" nType="0">
          <Node pos="l" depth="2" NCoef="0" IVar="-1" Cut="0.0000000000000000e+00" cType="1" res="2.9894540086388588e-02" rms="2.9833319783210754e-01" purity="3.9944592118263245e-01" nType="-99"/>
          <Node pos="r" depth="2" NCoef="0" IVar="-1" Cut="0.0000000000000000e+00" cType="1" res="-3.4562748624011874e-04" rms="2.2970408201217651e-01" purity="5.2837520837783813e-01" nType="-99"/>
        </Node>
      </Node>
    </BinaryTree>
    <BinaryTree type="DecisionTree" boostWeight="1.0000000000000000e+00" itree="1271">
      <Node pos="s" depth="0" NCoef="0" IVar="59" Cut="-9.9090093374252319e-01" cType="1" res="4.3300311081111431e-03" rms="2.3242394626140594e-01" purity="5.0657206773757935e-01" nType="0">
        <Node pos="l" depth="1" NCoef="0" IVar="58" Cut="-7.1896560490131378e-02" cType="1" res="3.6328278481960297e-02" rms="2.3645499348640442e-01" purity="3.0696189403533936e-01" nType="0">
          <Node pos="l" depth="2" NCoef="0" IVar="-1" Cut="0.0000000000000000e+00" cType="1" res="3.4047555527649820e-04" rms="1.6837851703166962e-01" purity="3.0952823162078857e-01" nType="-99"/>
          <Node pos="r" depth="2" NCoef="0" IVar="-1" Cut="0.0000000000000000e+00" cType="1" res="6.1024207621812820e-02" rms="3.3630889654159546e-01" purity="3.0062448978424072e-01" nType="-99"/>
        </Node>
        <Node pos="r" depth="1" NCoef="0" IVar="61" Cut="1.5809695720672607e+00" cType="1" res="-5.0595165230333805e-03" rms="2.3038588464260101e-01" purity="5.6514561176300049e-01" nType="0">
          <Node pos="l" depth="2" NCoef="0" IVar="-1" Cut="0.0000000000000000e+00" cType="1" res="-6.4298277720808983e-04" rms="2.3671640455722809e-01" purity="5.7541036605834961e-01" nType="-99"/>
          <Node pos="r" depth="2" NCoef="0" IVar="-1" Cut="0.0000000000000000e+00" cType="1" res="-3.0870543792843819e-02" rms="-nan" purity="2.2764258086681366e-01" nType="-99"/>
        </Node>
      </Node>
    </BinaryTree>
    <BinaryTree type="DecisionTree" boostWeight="1.0000000000000000e+00" itree="1272">
      <Node pos="s" depth="0" NCoef="0" IVar="43" Cut="1.2345679104328156e-02" cType="1" res="-1.3083557132631540e-03" rms="2.2375525534152985e-01" purity="5.0434744358062744e-01" nType="0">
        <Node pos="l" depth="1" NCoef="0" IVar="-1" Cut="0.0000000000000000e+00" cType="1" res="-4.0147066116333008e-02" rms="-nan" purity="1.4826932549476624e-01" nType="-99"/>
        <Node pos="r" depth="1" NCoef="0" IVar="84" Cut="2.8810805082321167e-01" cType="1" res="2.2720168344676495e-03" rms="2.3062488436698914e-01" purity="5.1681351661682129e-01" nType="0">
          <Node pos="l" depth="2" NCoef="0" IVar="-1" Cut="0.0000000000000000e+00" cType="1" res="2.6638435665518045e-03" rms="2.4161577224731445e-01" purity="5.2921384572982788e-01" nType="-99"/>
          <Node pos="r" depth="2" NCoef="0" IVar="-1" Cut="0.0000000000000000e+00" cType="1" res="-2.4554658681154251e-02" rms="-nan" purity="3.6192423105239868e-01" nType="-99"/>
        </Node>
      </Node>
    </BinaryTree>
    <BinaryTree type="DecisionTree" boostWeight="1.0000000000000000e+00" itree="1273">
      <Node pos="s" depth="0" NCoef="0" IVar="20" Cut="-9.3525350093841553e-03" cType="1" res="2.9574537184089422e-03" rms="2.3404838144779205e-01" purity="4.9156618118286133e-01" nType="0">
        <Node pos="l" depth="1" NCoef="0" IVar="61" Cut="9.9389195442199707e-01" cType="1" res="-1.4746673405170441e-02" rms="1.9493226706981659e-01" purity="5.2423894405364990e-01" nType="0">
          <Node pos="l" depth="2" NCoef="0" IVar="-1" Cut="0.0000000000000000e+00" cType="1" res="1.2674377067014575e-03" rms="2.3271995782852173e-01" purity="5.8828723430633545e-01" nType="-99"/>
          <Node pos="r" depth="2" NCoef="0" IVar="-1" Cut="0.0000000000000000e+00" cType="1" res="-3.3306058496236801e-02" rms="-nan" purity="2.8019431233406067e-01" nType="-99"/>
        </Node>
        <Node pos="r" depth="1" NCoef="0" IVar="21" Cut="-1.0789389163255692e-01" cType="1" res="2.2885106503963470e-02" rms="2.7003008127212524e-01" purity="4.5478996634483337e-01" nType="0">
          <Node pos="l" depth="2" NCoef="0" IVar="-1" Cut="0.0000000000000000e+00" cType="1" res="2.1712992340326309e-02" rms="3.1587266921997070e-01" purity="4.8462375998497009e-01" nType="-99"/>
          <Node pos="r" depth="2" NCoef="0" IVar="-1" Cut="0.0000000000000000e+00" cType="1" res="5.6921655777841806e-04" rms="2.3689548671245575e-01" purity="4.3752261996269226e-01" nType="-99"/>
        </Node>
      </Node>
    </BinaryTree>
    <BinaryTree type="DecisionTree" boostWeight="1.0000000000000000e+00" itree="1274">
      <Node pos="s" depth="0" NCoef="0" IVar="6" Cut="8.9734619855880737e-01" cType="1" res="4.9704890698194504e-03" rms="2.3545080423355103e-01" purity="4.9195197224617004e-01" nType="0">
        <Node pos="l" depth="1" NCoef="0" IVar="-1" Cut="0.0000000000000000e+00" cType="1" res="5.6539554148912430e-02" rms="3.9852413535118103e-01" purity="3.1802523136138916e-01" nType="-99"/>
        <Node pos="r" depth="1" NCoef="0" IVar="34" Cut="-1.3000074625015259e+00" cType="1" res="1.2758000520989299e-03" rms="2.2762279212474823e-01" purity="4.9727737903594971e-01" nType="0">
          <Node pos="l" depth="2" NCoef="0" IVar="-1" Cut="0.0000000000000000e+00" cType="1" res="1.5245873481035233e-02" rms="2.4845413863658905e-01" purity="3.1875774264335632e-01" nType="-99"/>
          <Node pos="r" depth="2" NCoef="0" IVar="-1" Cut="0.0000000000000000e+00" cType="1" res="-2.1267982665449381e-03" rms="2.2262896597385406e-01" purity="5.3210818767547607e-01" nType="-99"/>
        </Node>
      </Node>
    </BinaryTree>
    <BinaryTree type="DecisionTree" boostWeight="1.0000000000000000e+00" itree="1275">
      <Node pos="s" depth="0" NCoef="0" IVar="1" Cut="3.2313742637634277e+00" cType="1" res="5.4920096881687641e-03" rms="2.3312579095363617e-01" purity="5.0331485271453857e-01" nType="0">
        <Node pos="l" depth="1" NCoef="0" IVar="56" Cut="1.4438022375106812e+00" cType="1" res="1.6182824969291687e-02" rms="2.4601386487483978e-01" purity="4.6209430694580078e-01" nType="0">
          <Node pos="l" depth="2" NCoef="0" IVar="-1" Cut="0.0000000000000000e+00" cType="1" res="3.9231195114552975e-03" rms="2.3843425512313843e-01" purity="4.6587496995925903e-01" nType="-99"/>
          <Node pos="r" depth="2" NCoef="0" IVar="-1" Cut="0.0000000000000000e+00" cType="1" res="3.5984110087156296e-02" rms="3.4797233343124390e-01" purity="3.8870781660079956e-01" nType="-99"/>
        </Node>
        <Node pos="r" depth="1" NCoef="0" IVar="17" Cut="1.4827499389648438e+00" cType="1" res="-2.4469198659062386e-02" rms="1.8927121162414551e-01" purity="6.1883592605590820e-01" nType="0">
          <Node pos="l" depth="2" NCoef="0" IVar="-1" Cut="0.0000000000000000e+00" cType="1" res="-3.9190694689750671e-02" rms="-nan" purity="1.0090992599725723e-01" nType="-99"/>
          <Node pos="r" depth="2" NCoef="0" IVar="-1" Cut="0.0000000000000000e+00" cType="1" res="-3.4746807068586349e-04" rms="2.5585502386093140e-01" purity="8.3752679824829102e-01" nType="-99"/>
        </Node>
      </Node>
    </BinaryTree>
    <BinaryTree type="DecisionTree" boostWeight="1.0000000000000000e+00" itree="1276">
      <Node pos="s" depth="0" NCoef="0" IVar="31" Cut="2.5507855415344238e+00" cType="1" res="2.7155284769833088e-03" rms="2.3637327551841736e-01" purity="4.9839141964912415e-01" nType="0">
        <Node pos="l" depth="1" NCoef="0" IVar="57" Cut="1.4854915142059326e+00" cType="1" res="5.0377581268548965e-02" rms="2.8909796476364136e-01" purity="2.1836303174495697e-01" nType="0">
          <Node pos="l" depth="2" NCoef="0" IVar="-1" Cut="0.0000000000000000e+00" cType="1" res="5.1245074719190598e-02" rms="3.0909404158592224e-01" purity="2.0099797844886780e-01" nType="-99"/>
          <Node pos="r" depth="2" NCoef="0" IVar="-1" Cut="0.0000000000000000e+00" cType="1" res="-2.1710379049181938e-02" rms="1.7985503375530243e-01" purity="2.6065576076507568e-01" nType="-99"/>
        </Node>
        <Node pos="r" depth="1" NCoef="0" IVar="61" Cut="1.5060656070709229e+00" cType="1" res="-2.9328733216971159e-03" rms="2.2866541147232056e-01" purity="5.3157740831375122e-01" nType="0">
          <Node pos="l" depth="2" NCoef="0" IVar="-1" Cut="0.0000000000000000e+00" cType="1" res="2.1007747272960842e-04" rms="2.3555958271026611e-01" purity="5.4506146907806396e-01" nType="-99"/>
          <Node pos="r" depth="2" NCoef="0" IVar="-1" Cut="0.0000000000000000e+00" cType="1" res="-2.3507369682192802e-02" rms="-nan" purity="2.4201998114585876e-01" nType="-99"/>
        </Node>
      </Node>
    </BinaryTree>
    <BinaryTree type="DecisionTree" boostWeight="1.0000000000000000e+00" itree="1277">
      <Node pos="s" depth="0" NCoef="0" IVar="39" Cut="-5.0689685344696045e-01" cType="1" res="-5.9253694489598274e-03" rms="2.0847946405410767e-01" purity="4.9425941705703735e-01" nType="0">
        <Node pos="l" depth="1" NCoef="0" IVar="57" Cut="-1.1057019233703613e+00" cType="1" res="-2.9510722961276770e-03" rms="2.1590818464756012e-01" purity="5.0372564792633057e-01" nType="0">
          <Node pos="l" depth="2" NCoef="0" IVar="-1" Cut="0.0000000000000000e+00" cType="1" res="-4.0278583765029907e-02" rms="-nan" purity="5.6918403133749962e-03" nType="-99"/>
          <Node pos="r" depth="2" NCoef="0" IVar="-1" Cut="0.0000000000000000e+00" cType="1" res="1.3965704711154103e-03" rms="2.4354676902294159e-01" purity="5.8684760332107544e-01" nType="-99"/>
        </Node>
        <Node pos="r" depth="1" NCoef="0" IVar="-1" Cut="0.0000000000000000e+00" cType="1" res="-7.2793789207935333e-02" rms="-nan" purity="6.3204169273376465e-02" nType="-99"/>
      </Node>
    </BinaryTree>
    <BinaryTree type="DecisionTree" boostWeight="1.0000000000000000e+00" itree="1278">
      <Node pos="s" depth="0" NCoef="0" IVar="37" Cut="1.2834075689315796e+00" cType="1" res="-1.7193139065057039e-03" rms="2.3175525665283203e-01" purity="4.8933169245719910e-01" nType="0">
        <Node pos="l" depth="1" NCoef="0" IVar="40" Cut="-1.2957446742802858e-03" cType="1" res="-6.6968733444809914e-03" rms="2.2280944883823395e-01" purity="4.9392586946487427e-01" nType="0">
          <Node pos="l" depth="2" NCoef="0" IVar="-1" Cut="0.0000000000000000e+00" cType="1" res="-5.5522140115499496e-02" rms="-nan" purity="4.7449842095375061e-01" nType="-99"/>
          <Node pos="r" depth="2" NCoef="0" IVar="-1" Cut="0.0000000000000000e+00" cType="1" res="-1.4061514521017671e-03" rms="2.2532930970191956e-01" purity="4.9443575739860535e-01" nType="-99"/>
        </Node>
        <Node pos="r" depth="1" NCoef="0" IVar="15" Cut="1.4407185316085815e+00" cType="1" res="7.0011258125305176e-02" rms="3.2681626081466675e-01" purity="4.2312619090080261e-01" nType="0">
          <Node pos="l" depth="2" NCoef="0" IVar="-1" Cut="0.0000000000000000e+00" cType="1" res="6.1998330056667328e-02" rms="3.4899643063545227e-01" purity="3.7049388885498047e-01" nType="-99"/>
          <Node pos="r" depth="2" NCoef="0" IVar="-1" Cut="0.0000000000000000e+00" cType="1" res="-7.3409518226981163e-03" rms="2.6384830474853516e-01" purity="4.9985191226005554e-01" nType="-99"/>
        </Node>
      </Node>
    </BinaryTree>
    <BinaryTree type="DecisionTree" boostWeight="1.0000000000000000e+00" itree="1279">
      <Node pos="s" depth="0" NCoef="0" IVar="10" Cut="3.6436967849731445e+00" cType="1" res="5.9156934730708599e-03" rms="2.3721940815448761e-01" purity="5.0367772579193115e-01" nType="0">
        <Node pos="l" depth="1" NCoef="0" IVar="3" Cut="5.4359960556030273e+00" cType="1" res="1.0726248845458031e-02" rms="2.4805131554603577e-01" purity="5.0079429149627686e-01" nType="0">
          <Node pos="l" depth="2" NCoef="0" IVar="-1" Cut="0.0000000000000000e+00" cType="1" res="2.9881526716053486e-03" rms="2.4472935497760773e-01" purity="5.0421899557113647e-01" nType="-99"/>
          <Node pos="r" depth="2" NCoef="0" IVar="-1" Cut="0.0000000000000000e+00" cType="1" res="4.3045055121183395e-02" rms="3.4891980886459351e-01" purity="3.4401854872703552e-01" nType="-99"/>
        </Node>
        <Node pos="r" depth="1" NCoef="0" IVar="67" Cut="1.0277084112167358e+00" cType="1" res="-2.3188652470707893e-02" rms="-nan" purity="5.4287660121917725e-01" nType="-99"/>
      </Node>
    </BinaryTree>
    <BinaryTree type="DecisionTree" boostWeight="1.0000000000000000e+00" itree="1280">
      <Node pos="s" depth="0" NCoef="0" IVar="0" Cut="-3.6940075457096100e-02" cType="1" res="5.5823200382292271e-03" rms="2.3815280199050903e-01" purity="5.0187808275222778e-01" nType="0">
        <Node pos="l" depth="1" NCoef="0" IVar="-1" Cut="0.0000000000000000e+00" cType="1" res="-4.6696942299604416e-02" rms="-nan" purity="3.7376180291175842e-01" nType="-99"/>
        <Node pos="r" depth="1" NCoef="0" IVar="3" Cut="5.4395952224731445e+00" cType="1" res="8.5330605506896973e-03" rms="2.4350276589393616e-01" purity="5.0497597455978394e-01" nType="0">
          <Node pos="l" depth="2" NCoef="0" IVar="-1" Cut="0.0000000000000000e+00" cType="1" res="1.7148323822766542e-03" rms="2.3989905416965485e-01" purity="5.1303523778915405e-01" nType="-99"/>
          <Node pos="r" depth="2" NCoef="0" IVar="-1" Cut="0.0000000000000000e+00" cType="1" res="3.7296295166015625e-02" rms="3.0518567562103271e-01" purity="3.0015853047370911e-01" nType="-99"/>
        </Node>
      </Node>
    </BinaryTree>
    <BinaryTree type="DecisionTree" boostWeight="1.0000000000000000e+00" itree="1281">
      <Node pos="s" depth="0" NCoef="0" IVar="21" Cut="-3.0127540230751038e-01" cType="1" res="4.0117269381880760e-03" rms="2.2826287150382996e-01" purity="5.1004064083099365e-01" nType="0">
        <Node pos="l" depth="1" NCoef="0" IVar="27" Cut="1.5909923315048218e+00" cType="1" res="-4.2871683835983276e-02" rms="1.3943557441234589e-01" purity="4.8122695088386536e-01" nType="0">
          <Node pos="l" depth="2" NCoef="0" IVar="-1" Cut="0.0000000000000000e+00" cType="1" res="-5.1191691309213638e-02" rms="-nan" purity="2.0272125303745270e-01" nType="-99"/>
          <Node pos="r" depth="2" NCoef="0" IVar="-1" Cut="0.0000000000000000e+00" cType="1" res="-2.7539667207747698e-03" rms="2.2705575823783875e-01" purity="6.0022592544555664e-01" nType="-99"/>
        </Node>
        <Node pos="r" depth="1" NCoef="0" IVar="25" Cut="1.0173163414001465e+00" cType="1" res="1.1480226181447506e-02" rms="2.3853929340839386e-01" purity="5.1463061571121216e-01" nType="0">
          <Node pos="l" depth="2" NCoef="0" IVar="-1" Cut="0.0000000000000000e+00" cType="1" res="7.8558055683970451e-03" rms="2.5833418965339661e-01" purity="5.5783569812774658e-01" nType="-99"/>
          <Node pos="r" depth="2" NCoef="0" IVar="-1" Cut="0.0000000000000000e+00" cType="1" res="-7.3557705618441105e-03" rms="1.6779164969921112e-01" purity="3.9368161559104919e-01" nType="-99"/>
        </Node>
      </Node>
    </BinaryTree>
    <BinaryTree type="DecisionTree" boostWeight="1.0000000000000000e+00" itree="1282">
      <Node pos="s" depth="0" NCoef="0" IVar="31" Cut="2.4120149612426758e+00" cType="1" res="-2.1008416078984737e-03" rms="2.2118213772773743e-01" purity="4.9611693620681763e-01" nType="0">
        <Node pos="l" depth="1" NCoef="0" IVar="83" Cut="5.9711728245019913e-02" cType="1" res="-4.6385336667299271e-02" rms="-nan" purity="4.5411229133605957e-02" nType="-99"/>
        <Node pos="r" depth="1" NCoef="0" IVar="42" Cut="-6.6518098115921021e-01" cType="1" res="2.7231480926275253e-03" rms="2.3052324354648590e-01" purity="5.1791900396347046e-01" nType="0">
          <Node pos="l" depth="2" NCoef="0" IVar="-1" Cut="0.0000000000000000e+00" cType="1" res="4.1549082845449448e-02" rms="3.5833463072776794e-01" purity="5.6292301416397095e-01" nType="-99"/>
          <Node pos="r" depth="2" NCoef="0" IVar="-1" Cut="0.0000000000000000e+00" cType="1" res="-1.1278755846433342e-04" rms="2.2535659372806549e-01" purity="5.1672333478927612e-01" nType="-99"/>
        </Node>
      </Node>
    </BinaryTree>
    <BinaryTree type="DecisionTree" boostWeight="1.0000000000000000e+00" itree="1283">
      <Node pos="s" depth="0" NCoef="0" IVar="48" Cut="1.2550987005233765e+00" cType="1" res="-1.3041138299740851e-04" rms="2.1832890808582306e-01" purity="5.0518637895584106e-01" nType="0">
        <Node pos="l" depth="1" NCoef="0" IVar="2" Cut="2.1209905147552490e+00" cType="1" res="3.6453828215599060e-02" rms="2.6666536927223206e-01" purity="3.0832907557487488e-01" nType="0">
          <Node pos="l" depth="2" NCoef="0" IVar="-1" Cut="0.0000000000000000e+00" cType="1" res="-4.4070868752896786e-03" rms="1.9146762788295746e-01" purity="2.1209134161472321e-01" nType="-99"/>
          <Node pos="r" depth="2" NCoef="0" IVar="-1" Cut="0.0000000000000000e+00" cType="1" res="3.2803442329168320e-02" rms="3.3174988627433777e-01" purity="4.3478149175643921e-01" nType="-99"/>
        </Node>
        <Node pos="r" depth="1" NCoef="0" IVar="57" Cut="-6.8059569597244263e-01" cType="1" res="-8.6811287328600883e-03" rms="2.0445621013641357e-01" purity="5.5119717121124268e-01" nType="0">
          <Node pos="l" depth="2" NCoef="0" IVar="-1" Cut="0.0000000000000000e+00" cType="1" res="-6.7475080490112305e-02" rms="-nan" purity="-2.9414851218461990e-02" nType="-99"/>
          <Node pos="r" depth="2" NCoef="0" IVar="-1" Cut="0.0000000000000000e+00" cType="1" res="6.3848734134808183e-04" rms="2.4095176160335541e-01" purity="6.4230751991271973e-01" nType="-99"/>
        </Node>
      </Node>
    </BinaryTree>
    <BinaryTree type="DecisionTree" boostWeight="1.0000000000000000e+00" itree="1284">
      <Node pos="s" depth="0" NCoef="0" IVar="71" Cut="-1.3573919236660004e-01" cType="1" res="5.0609419122338295e-03" rms="2.3498664796352386e-01" purity="5.0367701053619385e-01" nType="0">
        <Node pos="l" depth="1" NCoef="0" IVar="22" Cut="1.2345679104328156e-02" cType="1" res="9.4584673643112183e-03" rms="2.4261321127414703e-01" purity="5.1165789365768433e-01" nType="0">
          <Node pos="l" depth="2" NCoef="0" IVar="-1" Cut="0.0000000000000000e+00" cType="1" res="3.4080225974321365e-02" rms="3.3306708931922913e-01" purity="3.8608419895172119e-01" nType="-99"/>
          <Node pos="r" depth="2" NCoef="0" IVar="-1" Cut="0.0000000000000000e+00" cType="1" res="2.1929554641246796e-03" rms="2.3805986344814301e-01" purity="5.1598125696182251e-01" nType="-99"/>
        </Node>
        <Node pos="r" depth="1" NCoef="0" IVar="52" Cut="2.9158210754394531e+00" cType="1" res="-3.2264474779367447e-02" rms="-nan" purity="3.4237697720527649e-01" nType="-99"/>
      </Node>
    </BinaryTree>
    <BinaryTree type="DecisionTree" boostWeight="1.0000000000000000e+00" itree="1285">
      <Node pos="s" depth="0" NCoef="0" IVar="16" Cut="1.1672058105468750e+00" cType="1" res="1.4763368526473641e-03" rms="2.2789698839187622e-01" purity="5.0526595115661621e-01" nType="0">
        <Node pos="l" depth="1" NCoef="0" IVar="18" Cut="-6.1994832754135132e-01" cType="1" res="4.9539767205715179e-03" rms="2.3559488356113434e-01" purity="5.1736861467361450e-01" nType="0">
          <Node pos="l" depth="2" NCoef="0" IVar="-1" Cut="0.0000000000000000e+00" cType="1" res="4.7620272380299866e-04" rms="2.2866179049015045e-01" purity="5.2406543493270874e-01" nType="-99"/>
          <Node pos="r" depth="2" NCoef="0" IVar="-1" Cut="0.0000000000000000e+00" cType="1" res="3.3632200211286545e-02" rms="3.5681498050689697e-01" purity="3.4961196780204773e-01" nType="-99"/>
        </Node>
        <Node pos="r" depth="1" NCoef="0" IVar="15" Cut="1.4071748256683350e+00" cType="1" res="-2.7062915265560150e-02" rms="-nan" purity="2.5473049283027649e-01" nType="-99"/>
      </Node>
    </BinaryTree>
    <BinaryTree type="DecisionTree" boostWeight="1.0000000000000000e+00" itree="1286">
      <Node pos="s" depth="0" NCoef="0" IVar="4" Cut="3.4204704761505127e+00" cType="1" res="2.1579216991085559e-04" rms="2.2470192611217499e-01" purity="5.0353711843490601e-01" nType="0">
        <Node pos="l" depth="1" NCoef="0" IVar="40" Cut="1.3821681737899780e+00" cType="1" res="4.7955218702554703e-02" rms="2.6850885152816772e-01" purity="2.9758465290069580e-01" nType="0">
          <Node pos="l" depth="2" NCoef="0" IVar="-1" Cut="0.0000000000000000e+00" cType="1" res="2.0749650895595551e-02" rms="2.8968915343284607e-01" purity="3.2967707514762878e-01" nType="-99"/>
          <Node pos="r" depth="2" NCoef="0" IVar="-1" Cut="0.0000000000000000e+00" cType="1" res="-6.3152313232421875e-02" rms="-nan" purity="5.8539034798741341e-03" nType="-99"/>
        </Node>
        <Node pos="r" depth="1" NCoef="0" IVar="13" Cut="-1.3768560886383057e+00" cType="1" res="-1.3153091073036194e-02" rms="2.0886233448982239e-01" purity="5.6121182441711426e-01" nType="0">
          <Node pos="l" depth="2" NCoef="0" IVar="-1" Cut="0.0000000000000000e+00" cType="1" res="-4.9879051744937897e-02" rms="-nan" purity="1.5411943197250366e-01" nType="-99"/>
          <Node pos="r" depth="2" NCoef="0" IVar="-1" Cut="0.0000000000000000e+00" cType="1" res="-2.2427791263908148e-03" rms="2.3124934732913971e-01" purity="5.9956383705139160e-01" nType="-99"/>
        </Node>
      </Node>
    </BinaryTree>
    <BinaryTree type="DecisionTree" boostWeight="1.0000000000000000e+00" itree="1287">
      <Node pos="s" depth="0" NCoef="0" IVar="77" Cut="1.3276478052139282e+00" cType="1" res="-6.6700833849608898e-03" rms="2.0968504250049591e-01" purity="4.9470067024230957e-01" nType="0">
        <Node pos="l" depth="1" NCoef="0" IVar="77" Cut="-2.8213727474212646e-01" cType="1" res="-1.9377168500795960e-03" rms="2.2475136816501617e-01" purity="5.2153223752975464e-01" nType="0">
          <Node pos="l" depth="2" NCoef="0" IVar="-1" Cut="0.0000000000000000e+00" cType="1" res="-2.8234247583895922e-03" rms="2.1824316680431366e-01" purity="5.3168433904647827e-01" nType="-99"/>
          <Node pos="r" depth="2" NCoef="0" IVar="-1" Cut="0.0000000000000000e+00" cType="1" res="1.7530009150505066e-02" rms="2.6929703354835510e-01" purity="4.3373501300811768e-01" nType="-99"/>
        </Node>
        <Node pos="r" depth="1" NCoef="0" IVar="58" Cut="-2.9966503381729126e-01" cType="1" res="-8.0767564475536346e-02" rms="-nan" purity="8.0992942675948143e-03" nType="-99"/>
      </Node>
    </BinaryTree>
    <BinaryTree type="DecisionTree" boostWeight="1.0000000000000000e+00" itree="1288">
      <Node pos="s" depth="0" NCoef="0" IVar="15" Cut="6.3316041231155396e-01" cType="1" res="-3.7968105170875788e-03" rms="2.1971669793128967e-01" purity="4.9079129099845886e-01" nType="0">
        <Node pos="l" depth="1" NCoef="0" IVar="19" Cut="7.9771357774734497e-01" cType="1" res="-3.1069857999682426e-02" rms="8.4834225475788116e-02" purity="2.0920260250568390e-01" nType="0">
          <Node pos="l" depth="2" NCoef="0" IVar="-1" Cut="0.0000000000000000e+00" cType="1" res="3.8817625027149916e-03" rms="2.0417061448097229e-01" purity="2.7520141005516052e-01" nType="-99"/>
          <Node pos="r" depth="2" NCoef="0" IVar="-1" Cut="0.0000000000000000e+00" cType="1" res="-6.1371427029371262e-02" rms="-nan" purity="1.0302299261093140e-01" nType="-99"/>
        </Node>
        <Node pos="r" depth="1" NCoef="0" IVar="35" Cut="1.3110461831092834e-01" cType="1" res="7.1564293466508389e-03" rms="2.5368180871009827e-01" purity="6.0388123989105225e-01" nType="0">
          <Node pos="l" depth="2" NCoef="0" IVar="-1" Cut="0.0000000000000000e+00" cType="1" res="-1.4286603545770049e-03" rms="2.4148318171501160e-01" purity="6.0148179531097412e-01" nType="-99"/>
          <Node pos="r" depth="2" NCoef="0" IVar="-1" Cut="0.0000000000000000e+00" cType="1" res="1.1551304720342159e-02" rms="2.8176742792129517e-01" purity="6.1039543151855469e-01" nType="-99"/>
        </Node>
      </Node>
    </BinaryTree>
    <BinaryTree type="DecisionTree" boostWeight="1.0000000000000000e+00" itree="1289">
      <Node pos="s" depth="0" NCoef="0" IVar="61" Cut="1.3420388698577881e+00" cType="1" res="2.4127066135406494e-03" rms="2.3159384727478027e-01" purity="4.9061813950538635e-01" nType="0">
        <Node pos="l" depth="1" NCoef="0" IVar="85" Cut="1.2345679104328156e-02" cType="1" res="-3.5781231708824635e-03" rms="2.2491519153118134e-01" purity="5.0619113445281982e-01" nType="0">
          <Node pos="l" depth="2" NCoef="0" IVar="-1" Cut="0.0000000000000000e+00" cType="1" res="-5.2000910043716431e-02" rms="-nan" purity="2.0300225913524628e-01" nType="-99"/>
          <Node pos="r" depth="2" NCoef="0" IVar="-1" Cut="0.0000000000000000e+00" cType="1" res="5.4549454944208264e-05" rms="2.3238605260848999e-01" purity="5.1443052291870117e-01" nType="-99"/>
        </Node>
        <Node pos="r" depth="1" NCoef="0" IVar="42" Cut="-2.2558747231960297e-01" cType="1" res="6.0011737048625946e-02" rms="2.8157854080200195e-01" purity="3.4089082479476929e-01" nType="0">
          <Node pos="l" depth="2" NCoef="0" IVar="-1" Cut="0.0000000000000000e+00" cType="1" res="6.2791205942630768e-02" rms="3.9094924926757812e-01" purity="4.7702258825302124e-01" nType="-99"/>
          <Node pos="r" depth="2" NCoef="0" IVar="-1" Cut="0.0000000000000000e+00" cType="1" res="2.6661690790206194e-03" rms="2.0794452726840973e-01" purity="2.9401740431785583e-01" nType="-99"/>
        </Node>
      </Node>
    </BinaryTree>
    <BinaryTree type="DecisionTree" boostWeight="1.0000000000000000e+00" itree="1290">
      <Node pos="s" depth="0" NCoef="0" IVar="19" Cut="1.2211124598979950e-01" cType="1" res="2.0230815280228853e-03" rms="2.2489853203296661e-01" purity="5.0104558467864990e-01" nType="0">
        <Node pos="l" depth="1" NCoef="0" IVar="31" Cut="2.9088704586029053e+00" cType="1" res="5.5844970047473907e-02" rms="3.2044062018394470e-01" purity="5.7068729400634766e-01" nType="0">
          <Node pos="l" depth="2" NCoef="0" IVar="-1" Cut="0.0000000000000000e+00" cType="1" res="5.3751185536384583e-02" rms="3.9451581239700317e-01" purity="5.2251040935516357e-01" nType="-99"/>
          <Node pos="r" depth="2" NCoef="0" IVar="-1" Cut="0.0000000000000000e+00" cType="1" res="-1.5007266774773598e-03" rms="2.4395504593849182e-01" purity="6.0156339406967163e-01" nType="-99"/>
        </Node>
        <Node pos="r" depth="1" NCoef="0" IVar="73" Cut="2.6575572490692139e+00" cType="1" res="-1.7391956644132733e-03" rms="2.1614946424961090e-01" purity="4.9617743492126465e-01" nType="0">
          <Node pos="l" depth="2" NCoef="0" IVar="-1" Cut="0.0000000000000000e+00" cType="1" res="-8.6811184883117676e-03" rms="1.4558041095733643e-01" purity="3.7549892067909241e-01" nType="-99"/>
          <Node pos="r" depth="2" NCoef="0" IVar="-1" Cut="0.0000000000000000e+00" cType="1" res="4.1275001130998135e-03" rms="2.4887709319591522e-01" purity="5.7012796401977539e-01" nType="-99"/>
        </Node>
      </Node>
    </BinaryTree>
    <BinaryTree type="DecisionTree" boostWeight="1.0000000000000000e+00" itree="1291">
      <Node pos="s" depth="0" NCoef="0" IVar="46" Cut="1.4225274324417114e+00" cType="1" res="2.6479871012270451e-03" rms="2.3422163724899292e-01" purity="5.0172466039657593e-01" nType="0">
        <Node pos="l" depth="1" NCoef="0" IVar="52" Cut="2.4886443614959717e+00" cType="1" res="6.2085236422717571e-03" rms="2.4149492383003235e-01" purity="5.1401293277740479e-01" nType="0">
          <Node pos="l" depth="2" NCoef="0" IVar="-1" Cut="0.0000000000000000e+00" cType="1" res="3.0999071896076202e-02" rms="3.2456788420677185e-01" purity="2.2599993646144867e-01" nType="-99"/>
          <Node pos="r" depth="2" NCoef="0" IVar="-1" Cut="0.0000000000000000e+00" cType="1" res="1.9279147090855986e-04" rms="2.3209719359874725e-01" purity="5.3877681493759155e-01" nType="-99"/>
        </Node>
        <Node pos="r" depth="1" NCoef="0" IVar="-1" Cut="0.0000000000000000e+00" cType="1" res="-7.2532162070274353e-02" rms="-nan" purity="5.7502802461385727e-02" nType="-99"/>
      </Node>
    </BinaryTree>
    <BinaryTree type="DecisionTree" boostWeight="1.0000000000000000e+00" itree="1292">
      <Node pos="s" depth="0" NCoef="0" IVar="82" Cut="1.2958868741989136e+00" cType="1" res="6.7157996818423271e-03" rms="2.3025768995285034e-01" purity="5.0897747278213501e-01" nType="0">
        <Node pos="l" depth="1" NCoef="0" IVar="37" Cut="-9.1433054208755493e-01" cType="1" res="1.3001912273466587e-02" rms="2.4708507955074310e-01" purity="5.3872263431549072e-01" nType="0">
          <Node pos="l" depth="2" NCoef="0" IVar="-1" Cut="0.0000000000000000e+00" cType="1" res="1.1997058056294918e-02" rms="2.7327451109886169e-01" purity="5.4228633642196655e-01" nType="-99"/>
          <Node pos="r" depth="2" NCoef="0" IVar="-1" Cut="0.0000000000000000e+00" cType="1" res="-1.1149108177050948e-03" rms="2.2452114522457123e-01" purity="5.3609853982925415e-01" nType="-99"/>
        </Node>
        <Node pos="r" depth="1" NCoef="0" IVar="39" Cut="-1.2724975347518921e+00" cType="1" res="-1.9277019426226616e-02" rms="-nan" purity="2.6301968097686768e-01" nType="-99"/>
      </Node>
    </BinaryTree>
    <BinaryTree type="DecisionTree" boostWeight="1.0000000000000000e+00" itree="1293">
      <Node pos="s" depth="0" NCoef="0" IVar="59" Cut="-2.1904036402702332e-01" cType="1" res="5.3433066932484508e-04" rms="2.2728450596332550e-01" purity="4.9148312211036682e-01" nType="0">
        <Node pos="l" depth="1" NCoef="0" IVar="61" Cut="1.3545066118240356e+00" cType="1" res="3.6092195659875870e-02" rms="2.3352296650409698e-01" purity="2.7951586246490479e-01" nType="0">
          <Node pos="l" depth="2" NCoef="0" IVar="-1" Cut="0.0000000000000000e+00" cType="1" res="8.2568069919943810e-03" rms="1.9540725648403168e-01" purity="2.7452108263969421e-01" nType="-99"/>
          <Node pos="r" depth="2" NCoef="0" IVar="-1" Cut="0.0000000000000000e+00" cType="1" res="1.0459731519222260e-01" rms="4.0546604990959167e-01" purity="3.2317170500755310e-01" nType="-99"/>
        </Node>
        <Node pos="r" depth="1" NCoef="0" IVar="3" Cut="5.2111101150512695e+00" cType="1" res="-1.2185778468847275e-02" rms="2.2364205121994019e-01" purity="5.6731015443801880e-01" nType="0">
          <Node pos="l" depth="2" NCoef="0" IVar="-1" Cut="0.0000000000000000e+00" cType="1" res="-2.6557564269751310e-03" rms="2.3505087196826935e-01" purity="5.7987922430038452e-01" nType="-99"/>
          <Node pos="r" depth="2" NCoef="0" IVar="-1" Cut="0.0000000000000000e+00" cType="1" res="-4.0636491030454636e-02" rms="-nan" purity="2.9589563608169556e-01" nType="-99"/>
        </Node>
      </Node>
    </BinaryTree>
    <BinaryTree type="DecisionTree" boostWeight="1.0000000000000000e+00" itree="1294">
      <Node pos="s" depth="0" NCoef="0" IVar="3" Cut="4.4159212112426758e+00" cType="1" res="1.1012075701728463e-03" rms="2.2180934250354767e-01" purity="5.0262945890426636e-01" nType="0">
        <Node pos="l" depth="1" NCoef="0" IVar="6" Cut="2.1346354484558105e+00" cType="1" res="4.7572154551744461e-02" rms="2.9544317722320557e-01" purity="3.4892386198043823e-01" nType="0">
          <Node pos="l" depth="2" NCoef="0" IVar="-1" Cut="0.0000000000000000e+00" cType="1" res="-1.8723169341683388e-02" rms="1.2730251252651215e-01" purity="1.2462207674980164e-01" nType="-99"/>
          <Node pos="r" depth="2" NCoef="0" IVar="-1" Cut="0.0000000000000000e+00" cType="1" res="2.7944307774305344e-02" rms="3.4204873442649841e-01" purity="4.6335256099700928e-01" nType="-99"/>
        </Node>
        <Node pos="r" depth="1" NCoef="0" IVar="60" Cut="-1.0973757505416870e+00" cType="1" res="-3.9966651238501072e-03" rms="2.1156160533428192e-01" purity="5.1949101686477661e-01" nType="0">
          <Node pos="l" depth="2" NCoef="0" IVar="-1" Cut="0.0000000000000000e+00" cType="1" res="1.3428529491648078e-03" rms="2.3084996640682220e-01" purity="5.7406181097030640e-01" nType="-99"/>
          <Node pos="r" depth="2" NCoef="0" IVar="-1" Cut="0.0000000000000000e+00" cType="1" res="-1.7497899010777473e-02" rms="-nan" purity="2.3102220892906189e-01" nType="-99"/>
        </Node>
      </Node>
    </BinaryTree>
    <BinaryTree type="DecisionTree" boostWeight="1.0000000000000000e+00" itree="1295">
      <Node pos="s" depth="0" NCoef="0" IVar="52" Cut="2.7174293994903564e+00" cType="1" res="-5.5694015463814139e-04" rms="2.2629314661026001e-01" purity="4.9613136053085327e-01" nType="0">
        <Node pos="l" depth="1" NCoef="0" IVar="67" Cut="9.8251026868820190e-01" cType="1" res="-4.3548971414566040e-02" rms="6.0351185500621796e-02" purity="2.0482762157917023e-01" nType="0">
          <Node pos="l" depth="2" NCoef="0" IVar="-1" Cut="0.0000000000000000e+00" cType="1" res="-3.2085832208395004e-03" rms="1.9362218677997589e-01" purity="3.0042079091072083e-01" nType="-99"/>
          <Node pos="r" depth="2" NCoef="0" IVar="-1" Cut="0.0000000000000000e+00" cType="1" res="-5.9303503483533859e-02" rms="-nan" purity="2.2815879434347153e-02" nType="-99"/>
        </Node>
        <Node pos="r" depth="1" NCoef="0" IVar="25" Cut="1.2130774259567261e+00" cType="1" res="9.1710714623332024e-03" rms="2.4790881574153900e-01" purity="5.6204605102539062e-01" nType="0">
          <Node pos="l" depth="2" NCoef="0" IVar="-1" Cut="0.0000000000000000e+00" cType="1" res="5.1854695193469524e-03" rms="2.5530797243118286e-01" purity="5.7951539754867554e-01" nType="-99"/>
          <Node pos="r" depth="2" NCoef="0" IVar="-1" Cut="0.0000000000000000e+00" cType="1" res="-2.6820847764611244e-02" rms="-nan" purity="2.8492477536201477e-01" nType="-99"/>
        </Node>
      </Node>
    </BinaryTree>
    <BinaryTree type="DecisionTree" boostWeight="1.0000000000000000e+00" itree="1296">
      <Node pos="s" depth="0" NCoef="0" IVar="83" Cut="-2.4403843283653259e-01" cType="1" res="-7.6839230023324490e-03" rms="2.1709100902080536e-01" purity="4.9446845054626465e-01" nType="0">
        <Node pos="l" depth="1" NCoef="0" IVar="5" Cut="1.6026681289076805e-02" cType="1" res="3.5667061805725098e-02" rms="2.7066385746002197e-01" purity="6.3255548477172852e-01" nType="0">
          <Node pos="l" depth="2" NCoef="0" IVar="-1" Cut="0.0000000000000000e+00" cType="1" res="6.1728399246931076e-02" rms="3.6917984485626221e-01" purity="5.2949523925781250e-01" nType="-99"/>
          <Node pos="r" depth="2" NCoef="0" IVar="-1" Cut="0.0000000000000000e+00" cType="1" res="7.3707792907953262e-03" rms="2.4879685044288635e-01" purity="6.4785730838775635e-01" nType="-99"/>
        </Node>
        <Node pos="r" depth="1" NCoef="0" IVar="5" Cut="3.7671342492103577e-01" cType="1" res="-1.6168519854545593e-02" rms="2.0389825105667114e-01" purity="4.6744227409362793e-01" nType="0">
          <Node pos="l" depth="2" NCoef="0" IVar="-1" Cut="0.0000000000000000e+00" cType="1" res="-2.7373353950679302e-03" rms="2.1729016304016113e-01" purity="5.1161992549896240e-01" nType="-99"/>
          <Node pos="r" depth="2" NCoef="0" IVar="-1" Cut="0.0000000000000000e+00" cType="1" res="-1.8607407808303833e-02" rms="1.3574835658073425e-01" purity="2.9737329483032227e-01" nType="-99"/>
        </Node>
      </Node>
    </BinaryTree>
    <BinaryTree type="DecisionTree" boostWeight="1.0000000000000000e+00" itree="1297">
      <Node pos="s" depth="0" NCoef="0" IVar="16" Cut="-3.1136827543377876e-02" cType="1" res="2.6150948833674192e-03" rms="2.2150920331478119e-01" purity="5.0342911481857300e-01" nType="0">
        <Node pos="l" depth="1" NCoef="0" IVar="77" Cut="-2.5628831982612610e-01" cType="1" res="1.5370080247521400e-02" rms="2.4138036370277405e-01" purity="5.1364028453826904e-01" nType="0">
          <Node pos="l" depth="2" NCoef="0" IVar="-1" Cut="0.0000000000000000e+00" cType="1" res="2.0393058657646179e-03" rms="2.2918821871280670e-01" purity="5.4573684930801392e-01" nType="-99"/>
          <Node pos="r" depth="2" NCoef="0" IVar="-1" Cut="0.0000000000000000e+00" cType="1" res="3.0575755983591080e-02" rms="2.9349482059478760e-01" purity="3.3957436680793762e-01" nType="-99"/>
        </Node>
        <Node pos="r" depth="1" NCoef="0" IVar="13" Cut="1.2082409858703613e+00" cType="1" res="-2.2185426205396652e-02" rms="1.7392598092556000e-01" purity="4.8357471823692322e-01" nType="0">
          <Node pos="l" depth="2" NCoef="0" IVar="-1" Cut="0.0000000000000000e+00" cType="1" res="-7.8123897314071655e-02" rms="-nan" purity="4.0621541440486908e-02" nType="-99"/>
          <Node pos="r" depth="2" NCoef="0" IVar="-1" Cut="0.0000000000000000e+00" cType="1" res="-2.9105393332429230e-04" rms="2.4552181363105774e-01" purity="5.9751129150390625e-01" nType="-99"/>
        </Node>
      </Node>
    </BinaryTree>
    <BinaryTree type="DecisionTree" boostWeight="1.0000000000000000e+00" itree="1298">
      <Node pos="s" depth="0" NCoef="0" IVar="10" Cut="2.9486007690429688e+00" cType="1" res="1.0851961560547352e-02" rms="2.5039944052696228e-01" purity="4.9986708164215088e-01" nType="0">
        <Node pos="l" depth="1" NCoef="0" IVar="61" Cut="8.9167910814285278e-01" cType="1" res="5.2013058215379715e-02" rms="3.0265173316001892e-01" purity="3.1202405691146851e-01" nType="0">
          <Node pos="l" depth="2" NCoef="0" IVar="-1" Cut="0.0000000000000000e+00" cType="1" res="3.1513623893260956e-02" rms="3.4402468800544739e-01" purity="4.0012323856353760e-01" nType="-99"/>
          <Node pos="r" depth="2" NCoef="0" IVar="-1" Cut="0.0000000000000000e+00" cType="1" res="-1.3808487914502621e-02" rms="1.6783174872398376e-01" purity="1.3777965307235718e-01" nType="-99"/>
        </Node>
        <Node pos="r" depth="1" NCoef="0" IVar="5" Cut="-4.1809219866991043e-02" cType="1" res="3.2185553573071957e-03" rms="2.3868009448051453e-01" purity="5.3470289707183838e-01" nType="0">
          <Node pos="l" depth="2" NCoef="0" IVar="-1" Cut="0.0000000000000000e+00" cType="1" res="2.2439662367105484e-02" rms="2.5175383687019348e-01" purity="3.4597280621528625e-01" nType="-99"/>
          <Node pos="r" depth="2" NCoef="0" IVar="-1" Cut="0.0000000000000000e+00" cType="1" res="-1.2848109472543001e-03" rms="2.3606353998184204e-01" purity="5.6024652719497681e-01" nType="-99"/>
        </Node>
      </Node>
    </BinaryTree>
    <BinaryTree type="DecisionTree" boostWeight="1.0000000000000000e+00" itree="1299">
      <Node pos="s" depth="0" NCoef="0" IVar="27" Cut="3.2952196598052979e+00" cType="1" res="6.5816803835332394e-03" rms="2.3758195340633392e-01" purity="4.9841904640197754e-01" nType="0">
        <Node pos="l" depth="1" NCoef="0" IVar="25" Cut="1.2594357728958130e+00" cType="1" res="3.1931570265442133e-03" rms="2.3082023859024048e-01" purity="4.8715755343437195e-01" nType="0">
          <Node pos="l" depth="2" NCoef="0" IVar="-1" Cut="0.0000000000000000e+00" cType="1" res="2.6470345910638571e-03" rms="2.3940230906009674e-01" purity="5.0056898593902588e-01" nType="-99"/>
          <Node pos="r" depth="2" NCoef="0" IVar="-1" Cut="0.0000000000000000e+00" cType="1" res="-3.6362275481224060e-02" rms="-nan" purity="2.1584767103195190e-01" nType="-99"/>
        </Node>
        <Node pos="r" depth="1" NCoef="0" IVar="-1" Cut="0.0000000000000000e+00" cType="1" res="3.3111646771430969e-02" rms="3.4882965683937073e-01" purity="7.5199955701828003e-01" nType="-99"/>
      </Node>
    </BinaryTree>
    <BinaryTree type="DecisionTree" boostWeight="1.0000000000000000e+00" itree="1300">
      <Node pos="s" depth="0" NCoef="0" IVar="17" Cut="1.2903624773025513e+00" cType="1" res="-3.2342022750526667e-03" rms="2.2254462540149689e-01" purity="4.9461689591407776e-01" nType="0">
        <Node pos="l" depth="1" NCoef="0" IVar="78" Cut="1.1010651588439941e+00" cType="1" res="-4.0643129497766495e-02" rms="-nan" purity="1.3386855134740472e-03" nType="-99"/>
        <Node pos="r" depth="1" NCoef="0" IVar="3" Cut="5.2246222496032715e+00" cType="1" res="7.9585472121834755e-03" rms="2.7421289682388306e-01" purity="6.5695708990097046e-01" nType="0">
          <Node pos="l" depth="2" NCoef="0" IVar="-1" Cut="0.0000000000000000e+00" cType="1" res="3.4703937126323581e-04" rms="2.6878514885902405e-01" purity="6.4943808317184448e-01" nType="-99"/>
          <Node pos="r" depth="2" NCoef="0" IVar="-1" Cut="0.0000000000000000e+00" cType="1" res="2.2940121591091156e-02" rms="3.2251143455505371e-01" purity="7.5045198202133179e-01" nType="-99"/>
        </Node>
      </Node>
    </BinaryTree>
    <BinaryTree type="DecisionTree" boostWeight="1.0000000000000000e+00" itree="1301">
      <Node pos="s" depth="0" NCoef="0" IVar="55" Cut="-1.1841185092926025e+00" cType="1" res="1.0758547112345695e-02" rms="2.4574851989746094e-01" purity="5.0607436895370483e-01" nType="0">
        <Node pos="l" depth="1" NCoef="0" IVar="67" Cut="9.4550025463104248e-01" cType="1" res="5.4909966886043549e-02" rms="2.5898328423500061e-01" purity="2.9959672689437866e-01" nType="0">
          <Node pos="l" depth="2" NCoef="0" IVar="-1" Cut="0.0000000000000000e+00" cType="1" res="5.0811812281608582e-02" rms="3.2840064167976379e-01" purity="3.8156440854072571e-01" nType="-99"/>
          <Node pos="r" depth="2" NCoef="0" IVar="-1" Cut="0.0000000000000000e+00" cType="1" res="-4.2949392809532583e-04" rms="1.5924952924251556e-01" purity="2.2923280298709869e-01" nType="-99"/>
        </Node>
        <Node pos="r" depth="1" NCoef="0" IVar="67" Cut="1.1887917518615723e+00" cType="1" res="1.3405784266069531e-03" rms="2.4179103970527649e-01" purity="5.5011826753616333e-01" nType="0">
          <Node pos="l" depth="2" NCoef="0" IVar="-1" Cut="0.0000000000000000e+00" cType="1" res="-1.5261366497725248e-03" rms="2.3593543469905853e-01" purity="5.6627982854843140e-01" nType="-99"/>
          <Node pos="r" depth="2" NCoef="0" IVar="-1" Cut="0.0000000000000000e+00" cType="1" res="2.6191232725977898e-02" rms="2.9356899857521057e-01" purity="3.6341527104377747e-01" nType="-99"/>
        </Node>
      </Node>
    </BinaryTree>
    <BinaryTree type="DecisionTree" boostWeight="1.0000000000000000e+00" itree="1302">
      <Node pos="s" depth="0" NCoef="0" IVar="48" Cut="8.4508502483367920e-01" cType="1" res="-2.4241399951279163e-03" rms="2.2220014035701752e-01" purity="4.9160957336425781e-01" nType="0">
        <Node pos="l" depth="1" NCoef="0" IVar="31" Cut="2.6841816902160645e+00" cType="1" res="6.3371412456035614e-02" rms="2.9438316822052002e-01" purity="2.7859440445899963e-01" nType="0">
          <Node pos="l" depth="2" NCoef="0" IVar="-1" Cut="0.0000000000000000e+00" cType="1" res="1.4586278796195984e-01" rms="4.2099562287330627e-01" purity="2.8588703274726868e-01" nType="-99"/>
          <Node pos="r" depth="2" NCoef="0" IVar="-1" Cut="0.0000000000000000e+00" cType="1" res="-5.1165989134460688e-04" rms="1.8106938898563385e-01" purity="2.7535605430603027e-01" nType="-99"/>
        </Node>
        <Node pos="r" depth="1" NCoef="0" IVar="52" Cut="2.5539054870605469e+00" cType="1" res="-7.3693017475306988e-03" rms="2.1498949825763702e-01" purity="5.0761967897415161e-01" nType="0">
          <Node pos="l" depth="2" NCoef="0" IVar="-1" Cut="0.0000000000000000e+00" cType="1" res="-3.0371086671948433e-02" rms="-nan" purity="1.2138128280639648e-01" nType="-99"/>
          <Node pos="r" depth="2" NCoef="0" IVar="-1" Cut="0.0000000000000000e+00" cType="1" res="-7.9406535951420665e-04" rms="2.2505320608615875e-01" purity="5.3675925731658936e-01" nType="-99"/>
        </Node>
      </Node>
    </BinaryTree>
    <BinaryTree type="DecisionTree" boostWeight="1.0000000000000000e+00" itree="1303">
      <Node pos="s" depth="0" NCoef="0" IVar="19" Cut="3.9916180074214935e-02" cType="1" res="3.4513545688241720e-04" rms="2.2960904240608215e-01" purity="4.9521121382713318e-01" nType="0">
        <Node pos="l" depth="1" NCoef="0" IVar="48" Cut="1.8680380582809448e+00" cType="1" res="7.7575780451297760e-02" rms="3.2705599069595337e-01" purity="6.5332818031311035e-01" nType="0">
          <Node pos="l" depth="2" NCoef="0" IVar="-1" Cut="0.0000000000000000e+00" cType="1" res="5.2598569542169571e-02" rms="4.1267287731170654e-01" purity="5.4240602254867554e-01" nType="-99"/>
          <Node pos="r" depth="2" NCoef="0" IVar="-1" Cut="0.0000000000000000e+00" cType="1" res="-3.9347837446257472e-04" rms="2.0868006348609924e-01" purity="7.3966449499130249e-01" nType="-99"/>
        </Node>
        <Node pos="r" depth="1" NCoef="0" IVar="25" Cut="1.3138524293899536e+00" cType="1" res="-3.6774447653442621e-03" rms="2.2263890504837036e-01" purity="4.8697566986083984e-01" nType="0">
          <Node pos="l" depth="2" NCoef="0" IVar="-1" Cut="0.0000000000000000e+00" cType="1" res="-2.8762659057974815e-03" rms="2.1675826609134674e-01" purity="4.9553337693214417e-01" nType="-99"/>
          <Node pos="r" depth="2" NCoef="0" IVar="-1" Cut="0.0000000000000000e+00" cType="1" res="4.2636752128601074e-02" rms="3.1291922926902771e-01" purity="3.0227172374725342e-01" nType="-99"/>
        </Node>
      </Node>
    </BinaryTree>
    <BinaryTree type="DecisionTree" boostWeight="1.0000000000000000e+00" itree="1304">
      <Node pos="s" depth="0" NCoef="0" IVar="88" Cut="8.0222636461257935e-01" cType="1" res="7.3103965260088444e-03" rms="2.3343601822853088e-01" purity="5.0788080692291260e-01" nType="0">
        <Node pos="l" depth="1" NCoef="0" IVar="-1" Cut="0.0000000000000000e+00" cType="1" res="-3.0597910284996033e-02" rms="-nan" purity="4.2858397960662842e-01" nType="-99"/>
        <Node pos="r" depth="1" NCoef="0" IVar="20" Cut="3.0504024028778076e-01" cType="1" res="1.0141025297343731e-02" rms="2.3758751153945923e-01" purity="5.1013058423995972e-01" nType="0">
          <Node pos="l" depth="2" NCoef="0" IVar="-1" Cut="0.0000000000000000e+00" cType="1" res="4.9354014918208122e-03" rms="2.4463899433612823e-01" purity="5.1850360631942749e-01" nType="-99"/>
          <Node pos="r" depth="2" NCoef="0" IVar="-1" Cut="0.0000000000000000e+00" cType="1" res="-2.7122247964143753e-02" rms="-nan" purity="3.1643542647361755e-01" nType="-99"/>
        </Node>
      </Node>
    </BinaryTree>
    <BinaryTree type="DecisionTree" boostWeight="1.0000000000000000e+00" itree="1305">
      <Node pos="s" depth="0" NCoef="0" IVar="42" Cut="-5.9602665901184082e-01" cType="1" res="-4.9712823238223791e-04" rms="2.2378981113433838e-01" purity="4.9669051170349121e-01" nType="0">
        <Node pos="l" depth="1" NCoef="0" IVar="-1" Cut="0.0000000000000000e+00" cType="1" res="4.0708336979150772e-02" rms="3.6702293157577515e-01" purity="5.0471359491348267e-01" nType="-99"/>
        <Node pos="r" depth="1" NCoef="0" IVar="52" Cut="2.3167960643768311e+00" cType="1" res="-4.5780013315379620e-03" rms="2.1559594571590424e-01" purity="4.9639338254928589e-01" nType="0">
          <Node pos="l" depth="2" NCoef="0" IVar="-1" Cut="0.0000000000000000e+00" cType="1" res="-5.0256092101335526e-02" rms="-nan" purity="3.1848669052124023e-02" nType="-99"/>
          <Node pos="r" depth="2" NCoef="0" IVar="-1" Cut="0.0000000000000000e+00" cType="1" res="-8.4117799997329712e-04" rms="2.2109517455101013e-01" purity="5.0684374570846558e-01" nType="-99"/>
        </Node>
      </Node>
    </BinaryTree>
    <BinaryTree type="DecisionTree" boostWeight="1.0000000000000000e+00" itree="1306">
      <Node pos="s" depth="0" NCoef="0" IVar="67" Cut="1.3855943679809570e+00" cType="1" res="-3.1911833502817899e-05" rms="2.2449518740177155e-01" purity="4.9930432438850403e-01" nType="0">
        <Node pos="l" depth="1" NCoef="0" IVar="13" Cut="-1.4155269861221313e+00" cType="1" res="3.2457483466714621e-03" rms="2.3321977257728577e-01" purity="5.1313841342926025e-01" nType="0">
          <Node pos="l" depth="2" NCoef="0" IVar="-1" Cut="0.0000000000000000e+00" cType="1" res="3.7974592298269272e-02" rms="2.7600908279418945e-01" purity="2.3544403910636902e-01" nType="-99"/>
          <Node pos="r" depth="2" NCoef="0" IVar="-1" Cut="0.0000000000000000e+00" cType="1" res="-9.1716053429991007e-04" rms="2.2798500955104828e-01" purity="5.3892344236373901e-01" nType="-99"/>
        </Node>
        <Node pos="r" depth="1" NCoef="0" IVar="-1" Cut="0.0000000000000000e+00" cType="1" res="-5.6147251278162003e-02" rms="-nan" purity="7.3244385421276093e-02" nType="-99"/>
      </Node>
    </BinaryTree>
    <BinaryTree type="DecisionTree" boostWeight="1.0000000000000000e+00" itree="1307">
      <Node pos="s" depth="0" NCoef="0" IVar="16" Cut="1.1672058105468750e+00" cType="1" res="5.5513032712042332e-03" rms="2.3824562132358551e-01" purity="5.0443476438522339e-01" nType="0">
        <Node pos="l" depth="1" NCoef="0" IVar="36" Cut="-9.5140337944030762e-01" cType="1" res="1.7674167174845934e-03" rms="2.3405389487743378e-01" purity="5.1123112440109253e-01" nType="0">
          <Node pos="l" depth="2" NCoef="0" IVar="-1" Cut="0.0000000000000000e+00" cType="1" res="-2.3278206586837769e-02" rms="-nan" purity="4.5851524919271469e-02" nType="-99"/>
          <Node pos="r" depth="2" NCoef="0" IVar="-1" Cut="0.0000000000000000e+00" cType="1" res="3.1884759664535522e-03" rms="2.5852349400520325e-01" purity="5.9751647710800171e-01" nType="-99"/>
        </Node>
        <Node pos="r" depth="1" NCoef="0" IVar="20" Cut="-2.4460444692522287e-03" cType="1" res="7.3848605155944824e-02" rms="2.9592496156692505e-01" purity="3.8176402449607849e-01" nType="0">
          <Node pos="l" depth="2" NCoef="0" IVar="-1" Cut="0.0000000000000000e+00" cType="1" res="-4.1137104853987694e-03" rms="1.5655219554901123e-01" purity="3.3107361197471619e-01" nType="-99"/>
          <Node pos="r" depth="2" NCoef="0" IVar="-1" Cut="0.0000000000000000e+00" cType="1" res="5.0401948392391205e-02" rms="3.6539369821548462e-01" purity="4.2942216992378235e-01" nType="-99"/>
        </Node>
      </Node>
    </BinaryTree>
    <BinaryTree type="DecisionTree" boostWeight="1.0000000000000000e+00" itree="1308">
      <Node pos="s" depth="0" NCoef="0" IVar="3" Cut="4.4658565521240234e+00" cType="1" res="3.3634761348366737e-03" rms="2.2995239496231079e-01" purity="5.0386059284210205e-01" nType="0">
        <Node pos="l" depth="1" NCoef="0" IVar="25" Cut="9.8686248064041138e-01" cType="1" res="-4.4978279620409012e-02" rms="1.1720063537359238e-01" purity="2.7418541908264160e-01" nType="0">
          <Node pos="l" depth="2" NCoef="0" IVar="-1" Cut="0.0000000000000000e+00" cType="1" res="-2.8742998838424683e-02" rms="-nan" purity="2.8823545575141907e-01" nType="-99"/>
          <Node pos="r" depth="2" NCoef="0" IVar="-1" Cut="0.0000000000000000e+00" cType="1" res="1.4006445184350014e-02" rms="2.6134598255157471e-01" purity="2.4694664776325226e-01" nType="-99"/>
        </Node>
        <Node pos="r" depth="1" NCoef="0" IVar="16" Cut="5.0362247228622437e-01" cType="1" res="1.0448765009641647e-02" rms="2.4129301309585571e-01" purity="5.3752332925796509e-01" nType="0">
          <Node pos="l" depth="2" NCoef="0" IVar="-1" Cut="0.0000000000000000e+00" cType="1" res="6.2894669827073812e-04" rms="2.2566317021846771e-01" purity="5.3765618801116943e-01" nType="-99"/>
          <Node pos="r" depth="2" NCoef="0" IVar="-1" Cut="0.0000000000000000e+00" cType="1" res="1.8612070009112358e-02" rms="3.0132234096527100e-01" purity="5.3689128160476685e-01" nType="-99"/>
        </Node>
      </Node>
    </BinaryTree>
    <BinaryTree type="DecisionTree" boostWeight="1.0000000000000000e+00" itree="1309">
      <Node pos="s" depth="0" NCoef="0" IVar="18" Cut="-2.3849706649780273e+00" cType="1" res="2.4685033131390810e-03" rms="2.4011968076229095e-01" purity="4.9308183789253235e-01" nType="0">
        <Node pos="l" depth="1" NCoef="0" IVar="4" Cut="3.3252167701721191e+00" cType="1" res="-2.4212688207626343e-02" rms="2.0692047476768494e-01" purity="5.9523302316665649e-01" nType="0">
          <Node pos="l" depth="2" NCoef="0" IVar="-1" Cut="0.0000000000000000e+00" cType="1" res="-5.4695535451173782e-02" rms="-nan" purity="1.0723236203193665e-01" nType="-99"/>
          <Node pos="r" depth="2" NCoef="0" IVar="-1" Cut="0.0000000000000000e+00" cType="1" res="-5.0905281677842140e-03" rms="2.2484643757343292e-01" purity="6.3565319776535034e-01" nType="-99"/>
        </Node>
        <Node pos="r" depth="1" NCoef="0" IVar="56" Cut="1.4441167116165161e+00" cType="1" res="1.2773885391652584e-02" rms="2.5101524591445923e-01" purity="4.5362681150436401e-01" nType="0">
          <Node pos="l" depth="2" NCoef="0" IVar="-1" Cut="0.0000000000000000e+00" cType="1" res="3.1369456555694342e-03" rms="2.4370287358760834e-01" purity="4.5950293540954590e-01" nType="-99"/>
          <Node pos="r" depth="2" NCoef="0" IVar="-1" Cut="0.0000000000000000e+00" cType="1" res="3.6789145320653915e-02" rms="3.5366326570510864e-01" purity="3.3993932604789734e-01" nType="-99"/>
        </Node>
      </Node>
    </BinaryTree>
    <BinaryTree type="DecisionTree" boostWeight="1.0000000000000000e+00" itree="1310">
      <Node pos="s" depth="0" NCoef="0" IVar="6" Cut="9.5402109622955322e-01" cType="1" res="7.0619495818391442e-04" rms="2.2385628521442413e-01" purity="4.9799731373786926e-01" nType="0">
        <Node pos="l" depth="1" NCoef="0" IVar="-1" Cut="0.0000000000000000e+00" cType="1" res="4.9367573112249374e-02" rms="3.4961280226707458e-01" purity="3.1009274721145630e-01" nType="-99"/>
        <Node pos="r" depth="1" NCoef="0" IVar="35" Cut="1.0975255966186523e+00" cType="1" res="-3.2335845753550529e-03" rms="2.1627634763717651e-01" purity="5.0565731525421143e-01" nType="0">
          <Node pos="l" depth="2" NCoef="0" IVar="-1" Cut="0.0000000000000000e+00" cType="1" res="-4.3743611313402653e-03" rms="1.9891628623008728e-01" purity="5.0250595808029175e-01" nType="-99"/>
          <Node pos="r" depth="2" NCoef="0" IVar="-1" Cut="0.0000000000000000e+00" cType="1" res="1.4726335182785988e-02" rms="2.8868886828422546e-01" purity="5.2267110347747803e-01" nType="-99"/>
        </Node>
      </Node>
    </BinaryTree>
    <BinaryTree type="DecisionTree" boostWeight="1.0000000000000000e+00" itree="1311">
      <Node pos="s" depth="0" NCoef="0" IVar="55" Cut="1.2845013141632080e+00" cType="1" res="8.7364753708243370e-03" rms="2.4719825387001038e-01" purity="5.0912290811538696e-01" nType="0">
        <Node pos="l" depth="1" NCoef="0" IVar="6" Cut="2.4936566352844238e+00" cType="1" res="3.6704108119010925e-02" rms="2.4998390674591064e-01" purity="2.9662850499153137e-01" nType="0">
          <Node pos="l" depth="2" NCoef="0" IVar="-1" Cut="0.0000000000000000e+00" cType="1" res="5.5794399231672287e-03" rms="1.9132930040359497e-01" purity="2.2296127676963806e-01" nType="-99"/>
          <Node pos="r" depth="2" NCoef="0" IVar="-1" Cut="0.0000000000000000e+00" cType="1" res="3.0618049204349518e-02" rms="3.3709269762039185e-01" purity="4.5424860715866089e-01" nType="-99"/>
        </Node>
        <Node pos="r" depth="1" NCoef="0" IVar="16" Cut="-1.2999510765075684e+00" cType="1" res="-4.4937296770513058e-03" rms="2.4475856125354767e-01" purity="6.0964429378509521e-01" nType="0">
          <Node pos="l" depth="2" NCoef="0" IVar="-1" Cut="0.0000000000000000e+00" cType="1" res="1.7766926437616348e-02" rms="2.6129809021949768e-01" purity="4.7646862268447876e-01" nType="-99"/>
          <Node pos="r" depth="2" NCoef="0" IVar="-1" Cut="0.0000000000000000e+00" cType="1" res="-3.8439375348389149e-03" rms="2.4224920570850372e-01" purity="6.2263995409011841e-01" nType="-99"/>
        </Node>
      </Node>
    </BinaryTree>
    <BinaryTree type="DecisionTree" boostWeight="1.0000000000000000e+00" itree="1312">
      <Node pos="s" depth="0" NCoef="0" IVar="18" Cut="-2.4496550559997559e+00" cType="1" res="4.0066399378702044e-04" rms="2.2791703045368195e-01" purity="5.0475382804870605e-01" nType="0">
        <Node pos="l" depth="1" NCoef="0" IVar="36" Cut="-2.9338997602462769e-01" cType="1" res="3.0853062868118286e-02" rms="2.7011588215827942e-01" purity="6.5663617849349976e-01" nType="0">
          <Node pos="l" depth="2" NCoef="0" IVar="-1" Cut="0.0000000000000000e+00" cType="1" res="6.2420200556516647e-02" rms="3.4289893507957458e-01" purity="2.3396606743335724e-01" nType="-99"/>
          <Node pos="r" depth="2" NCoef="0" IVar="-1" Cut="0.0000000000000000e+00" cType="1" res="4.5771822333335876e-03" rms="2.5045236945152283e-01" purity="7.3330831527709961e-01" nType="-99"/>
        </Node>
        <Node pos="r" depth="1" NCoef="0" IVar="81" Cut="-5.0273889303207397e-01" cType="1" res="-7.7471383847296238e-03" rms="2.1449601650238037e-01" purity="4.6411639451980591e-01" nType="0">
          <Node pos="l" depth="2" NCoef="0" IVar="-1" Cut="0.0000000000000000e+00" cType="1" res="-1.9603450782597065e-03" rms="2.2108550369739532e-01" purity="4.7426173090934753e-01" nType="-99"/>
          <Node pos="r" depth="2" NCoef="0" IVar="-1" Cut="0.0000000000000000e+00" cType="1" res="-5.0771825015544891e-02" rms="-nan" purity="8.0598391592502594e-02" nType="-99"/>
        </Node>
      </Node>
    </BinaryTree>
    <BinaryTree type="DecisionTree" boostWeight="1.0000000000000000e+00" itree="1313">
      <Node pos="s" depth="0" NCoef="0" IVar="29" Cut="-5.8173939585685730e-02" cType="1" res="1.7747733509168029e-03" rms="2.2588594257831573e-01" purity="4.9703875184059143e-01" nType="0">
        <Node pos="l" depth="1" NCoef="0" IVar="37" Cut="1.4039924144744873e+00" cType="1" res="-1.8088518409058452e-03" rms="2.2208641469478607e-01" purity="4.9823296070098877e-01" nType="0">
          <Node pos="l" depth="2" NCoef="0" IVar="-1" Cut="0.0000000000000000e+00" cType="1" res="-1.9117727642878890e-03" rms="2.1646364033222198e-01" purity="5.0287634134292603e-01" nType="-99"/>
          <Node pos="r" depth="2" NCoef="0" IVar="-1" Cut="0.0000000000000000e+00" cType="1" res="4.0103115141391754e-02" rms="3.4549018740653992e-01" purity="3.4390470385551453e-01" nType="-99"/>
        </Node>
        <Node pos="r" depth="1" NCoef="0" IVar="61" Cut="8.1703454256057739e-01" cType="1" res="8.1535600125789642e-02" rms="2.8681024909019470e-01" purity="4.7045993804931641e-01" nType="0">
          <Node pos="l" depth="2" NCoef="0" IVar="-1" Cut="0.0000000000000000e+00" cType="1" res="3.2303147600032389e-04" rms="1.4829997718334198e-01" purity="4.6046987175941467e-01" nType="-99"/>
          <Node pos="r" depth="2" NCoef="0" IVar="-1" Cut="0.0000000000000000e+00" cType="1" res="5.2028186619281769e-02" rms="3.5752484202384949e-01" purity="4.8002362251281738e-01" nType="-99"/>
        </Node>
      </Node>
    </BinaryTree>
    <BinaryTree type="DecisionTree" boostWeight="1.0000000000000000e+00" itree="1314">
      <Node pos="s" depth="0" NCoef="0" IVar="73" Cut="2.2759933471679688e+00" cType="1" res="6.2401113100349903e-03" rms="2.3934236168861389e-01" purity="4.9376001954078674e-01" nType="0">
        <Node pos="l" depth="1" NCoef="0" IVar="55" Cut="1.0497897863388062e-02" cType="1" res="6.1938382685184479e-02" rms="3.2515925168991089e-01" purity="3.2783043384552002e-01" nType="0">
          <Node pos="l" depth="2" NCoef="0" IVar="-1" Cut="0.0000000000000000e+00" cType="1" res="1.2243398278951645e-01" rms="4.2948064208030701e-01" purity="3.3458584547042847e-01" nType="-99"/>
          <Node pos="r" depth="2" NCoef="0" IVar="-1" Cut="0.0000000000000000e+00" cType="1" res="-6.5647005103528500e-03" rms="2.1417324244976044e-01" purity="3.2442477345466614e-01" nType="-99"/>
        </Node>
        <Node pos="r" depth="1" NCoef="0" IVar="5" Cut="3.8878789544105530e-01" cType="1" res="1.5361399855464697e-03" rms="2.3002029955387115e-01" purity="5.0777351856231689e-01" nType="0">
          <Node pos="l" depth="2" NCoef="0" IVar="-1" Cut="0.0000000000000000e+00" cType="1" res="3.9344378747045994e-03" rms="2.4369032680988312e-01" purity="5.5128729343414307e-01" nType="-99"/>
          <Node pos="r" depth="2" NCoef="0" IVar="-1" Cut="0.0000000000000000e+00" cType="1" res="-1.3875667937099934e-02" rms="1.5055392682552338e-01" purity="3.1713855266571045e-01" nType="-99"/>
        </Node>
      </Node>
    </BinaryTree>
    <BinaryTree type="DecisionTree" boostWeight="1.0000000000000000e+00" itree="1315">
      <Node pos="s" depth="0" NCoef="0" IVar="57" Cut="-3.7088590860366821e-01" cType="1" res="3.1334022060036659e-03" rms="2.4066329002380371e-01" purity="4.9285310506820679e-01" nType="0">
        <Node pos="l" depth="1" NCoef="0" IVar="19" Cut="9.6522945165634155e-01" cType="1" res="3.8503658026456833e-02" rms="1.9921065866947174e-01" purity="1.0059190541505814e-01" nType="0">
          <Node pos="l" depth="2" NCoef="0" IVar="-1" Cut="0.0000000000000000e+00" cType="1" res="4.5171953737735748e-02" rms="2.5915339589118958e-01" purity="1.3764402270317078e-01" nType="-99"/>
          <Node pos="r" depth="2" NCoef="0" IVar="-1" Cut="0.0000000000000000e+00" cType="1" res="-5.4072547703981400e-02" rms="-nan" purity="-1.1862353421747684e-02" nType="-99"/>
        </Node>
        <Node pos="r" depth="1" NCoef="0" IVar="48" Cut="7.4405860900878906e-01" cType="1" res="-5.4936157539486885e-03" rms="2.4897111952304840e-01" purity="5.8852797746658325e-01" nType="0">
          <Node pos="l" depth="2" NCoef="0" IVar="-1" Cut="0.0000000000000000e+00" cType="1" res="2.9406780377030373e-02" rms="3.3151218295097351e-01" purity="3.7377643585205078e-01" nType="-99"/>
          <Node pos="r" depth="2" NCoef="0" IVar="-1" Cut="0.0000000000000000e+00" cType="1" res="-3.2201230060309172e-03" rms="2.4455848336219788e-01" purity="5.9629887342453003e-01" nType="-99"/>
        </Node>
      </Node>
    </BinaryTree>
    <BinaryTree type="DecisionTree" boostWeight="1.0000000000000000e+00" itree="1316">
      <Node pos="s" depth="0" NCoef="0" IVar="73" Cut="2.1715714931488037e+00" cType="1" res="1.0246654972434044e-02" rms="2.4548910558223724e-01" purity="5.0561499595642090e-01" nType="0">
        <Node pos="l" depth="1" NCoef="0" IVar="-1" Cut="0.0000000000000000e+00" cType="1" res="-7.0385783910751343e-02" rms="-nan" purity="9.3393400311470032e-02" nType="-99"/>
        <Node pos="r" depth="1" NCoef="0" IVar="46" Cut="1.5787094831466675e+00" cType="1" res="1.3783972710371017e-02" rms="2.5122395157814026e-01" purity="5.1612246036529541e-01" nType="0">
          <Node pos="l" depth="2" NCoef="0" IVar="-1" Cut="0.0000000000000000e+00" cType="1" res="3.9085866883397102e-03" rms="2.4604763090610504e-01" purity="5.2159970998764038e-01" nType="-99"/>
          <Node pos="r" depth="2" NCoef="0" IVar="-1" Cut="0.0000000000000000e+00" cType="1" res="7.9622186720371246e-02" rms="3.8604912161827087e-01" purity="2.9331573843955994e-01" nType="-99"/>
        </Node>
      </Node>
    </BinaryTree>
    <BinaryTree type="DecisionTree" boostWeight="1.0000000000000000e+00" itree="1317">
      <Node pos="s" depth="0" NCoef="0" IVar="4" Cut="3.3556942939758301e+00" cType="1" res="-7.0340836828108877e-05" rms="2.2277741134166718e-01" purity="4.9743697047233582e-01" nType="0">
        <Node pos="l" depth="1" NCoef="0" IVar="80" Cut="-1.4929589033126831e+00" cType="1" res="-4.2395390570163727e-02" rms="4.6311590820550919e-02" purity="1.4946180582046509e-01" nType="0">
          <Node pos="l" depth="2" NCoef="0" IVar="-1" Cut="0.0000000000000000e+00" cType="1" res="1.9351350143551826e-02" rms="3.0703279376029968e-01" purity="3.6566716432571411e-01" nType="-99"/>
          <Node pos="r" depth="2" NCoef="0" IVar="-1" Cut="0.0000000000000000e+00" cType="1" res="-3.4766130149364471e-02" rms="-nan" purity="7.5829319655895233e-02" nType="-99"/>
        </Node>
        <Node pos="r" depth="1" NCoef="0" IVar="61" Cut="1.4649724960327148e+00" cType="1" res="6.0097677633166313e-03" rms="2.3697429895401001e-01" purity="5.4742455482482910e-01" nType="0">
          <Node pos="l" depth="2" NCoef="0" IVar="-1" Cut="0.0000000000000000e+00" cType="1" res="8.6080440087243915e-04" rms="2.3250056803226471e-01" purity="5.5528074502944946e-01" nType="-99"/>
          <Node pos="r" depth="2" NCoef="0" IVar="-1" Cut="0.0000000000000000e+00" cType="1" res="2.2203799337148666e-02" rms="2.9587817192077637e-01" purity="4.1367593407630920e-01" nType="-99"/>
        </Node>
      </Node>
    </BinaryTree>
    <BinaryTree type="DecisionTree" boostWeight="1.0000000000000000e+00" itree="1318">
      <Node pos="s" depth="0" NCoef="0" IVar="59" Cut="-1.1069830656051636e+00" cType="1" res="-4.7262563020922244e-04" rms="2.2500449419021606e-01" purity="4.9899408221244812e-01" nType="0">
        <Node pos="l" depth="1" NCoef="0" IVar="57" Cut="4.3980434536933899e-01" cType="1" res="-1.8686022609472275e-02" rms="-nan" purity="2.4231000244617462e-01" nType="-99"/>
        <Node pos="r" depth="1" NCoef="0" IVar="0" Cut="2.1363338828086853e-01" cType="1" res="8.5550975054502487e-03" rms="2.5190800428390503e-01" purity="5.6282716989517212e-01" nType="0">
          <Node pos="l" depth="2" NCoef="0" IVar="-1" Cut="0.0000000000000000e+00" cType="1" res="-2.4998079985380173e-02" rms="8.4058642387390137e-02" purity="5.4052001237869263e-01" nType="-99"/>
          <Node pos="r" depth="2" NCoef="0" IVar="-1" Cut="0.0000000000000000e+00" cType="1" res="5.0168754532933235e-03" rms="2.5993067026138306e-01" purity="5.6464916467666626e-01" nType="-99"/>
        </Node>
      </Node>
    </BinaryTree>
    <BinaryTree type="DecisionTree" boostWeight="1.0000000000000000e+00" itree="1319">
      <Node pos="s" depth="0" NCoef="0" IVar="72" Cut="1.0740740299224854e+00" cType="1" res="-1.7370858695358038e-03" rms="2.1869602799415588e-01" purity="5.0182759761810303e-01" nType="0">
        <Node pos="l" depth="1" NCoef="0" IVar="41" Cut="3.6823064088821411e-01" cType="1" res="1.1217416031286120e-03" rms="2.2560618817806244e-01" purity="5.0885778665542603e-01" nType="0">
          <Node pos="l" depth="2" NCoef="0" IVar="-1" Cut="0.0000000000000000e+00" cType="1" res="1.5082790050655603e-03" rms="2.2893512248992920e-01" purity="5.1428639888763428e-01" nType="-99"/>
          <Node pos="r" depth="2" NCoef="0" IVar="-1" Cut="0.0000000000000000e+00" cType="1" res="-4.0641371160745621e-02" rms="-nan" purity="3.1886106729507446e-01" nType="-99"/>
        </Node>
        <Node pos="r" depth="1" NCoef="0" IVar="-1" Cut="0.0000000000000000e+00" cType="1" res="-3.7565954029560089e-02" rms="-nan" purity="2.3501010239124298e-01" nType="-99"/>
      </Node>
    </BinaryTree>
    <BinaryTree type="DecisionTree" boostWeight="1.0000000000000000e+00" itree="1320">
      <Node pos="s" depth="0" NCoef="0" IVar="3" Cut="5.2806081771850586e+00" cType="1" res="-2.5861752219498158e-03" rms="2.2711932659149170e-01" purity="5.0081562995910645e-01" nType="0">
        <Node pos="l" depth="1" NCoef="0" IVar="16" Cut="-1.4541482925415039e+00" cType="1" res="3.1158940400928259e-03" rms="2.4178616702556610e-01" purity="5.2003633975982666e-01" nType="0">
          <Node pos="l" depth="2" NCoef="0" IVar="-1" Cut="0.0000000000000000e+00" cType="1" res="4.0688168257474899e-02" rms="2.7998647093772888e-01" purity="2.8211751580238342e-01" nType="-99"/>
          <Node pos="r" depth="2" NCoef="0" IVar="-1" Cut="0.0000000000000000e+00" cType="1" res="3.4691867767833173e-04" rms="2.4040509760379791e-01" purity="5.2528744935989380e-01" nType="-99"/>
        </Node>
        <Node pos="r" depth="1" NCoef="0" IVar="55" Cut="-9.5409458875656128e-01" cType="1" res="-2.8664510697126389e-02" rms="-nan" purity="2.5468358397483826e-01" nType="-99"/>
      </Node>
    </BinaryTree>
    <BinaryTree type="DecisionTree" boostWeight="1.0000000000000000e+00" itree="1321">
      <Node pos="s" depth="0" NCoef="0" IVar="55" Cut="-1.4927022457122803e+00" cType="1" res="2.8050576802343130e-03" rms="2.3156715929508209e-01" purity="5.0537604093551636e-01" nType="0">
        <Node pos="l" depth="1" NCoef="0" IVar="62" Cut="-4.5891847461462021e-02" cType="1" res="9.3983687460422516e-02" rms="3.3039453625679016e-01" purity="4.9862548708915710e-01" nType="0">
          <Node pos="l" depth="2" NCoef="0" IVar="-1" Cut="0.0000000000000000e+00" cType="1" res="-1.7347320914268494e-02" rms="-nan" purity="4.4134438037872314e-01" nType="-99"/>
          <Node pos="r" depth="2" NCoef="0" IVar="-1" Cut="0.0000000000000000e+00" cType="1" res="8.3521410822868347e-02" rms="4.2444735765457153e-01" purity="5.4480856657028198e-01" nType="-99"/>
        </Node>
        <Node pos="r" depth="1" NCoef="0" IVar="11" Cut="1.2345679104328156e-02" cType="1" res="-1.7996417591348290e-03" rms="2.2444945573806763e-01" purity="5.0571697950363159e-01" nType="0">
          <Node pos="l" depth="2" NCoef="0" IVar="-1" Cut="0.0000000000000000e+00" cType="1" res="1.7841594293713570e-02" rms="2.8567096590995789e-01" purity="3.6280739307403564e-01" nType="-99"/>
          <Node pos="r" depth="2" NCoef="0" IVar="-1" Cut="0.0000000000000000e+00" cType="1" res="-2.9564234428107738e-03" rms="2.1656019985675812e-01" purity="5.1990890502929688e-01" nType="-99"/>
        </Node>
      </Node>
    </BinaryTree>
    <BinaryTree type="DecisionTree" boostWeight="1.0000000000000000e+00" itree="1322">
      <Node pos="s" depth="0" NCoef="0" IVar="7" Cut="-1.2208305597305298e+00" cType="1" res="-1.0559723014011979e-03" rms="2.2789798676967621e-01" purity="5.0180310010910034e-01" nType="0">
        <Node pos="l" depth="1" NCoef="0" IVar="88" Cut="1.5691844224929810e+00" cType="1" res="-4.9012103118002415e-03" rms="2.2401453554630280e-01" purity="5.0708025693893433e-01" nType="0">
          <Node pos="l" depth="2" NCoef="0" IVar="-1" Cut="0.0000000000000000e+00" cType="1" res="-2.9678177088499069e-03" rms="2.1873591840267181e-01" purity="5.1417982578277588e-01" nType="-99"/>
          <Node pos="r" depth="2" NCoef="0" IVar="-1" Cut="0.0000000000000000e+00" cType="1" res="1.1971765756607056e-01" rms="3.6654469370841980e-01" purity="2.0360039174556732e-01" nType="-99"/>
        </Node>
        <Node pos="r" depth="1" NCoef="0" IVar="-1" Cut="0.0000000000000000e+00" cType="1" res="3.1622562557458878e-02" rms="2.9331120848655701e-01" purity="3.7076660990715027e-01" nType="-99"/>
      </Node>
    </BinaryTree>
    <BinaryTree type="DecisionTree" boostWeight="1.0000000000000000e+00" itree="1323">
      <Node pos="s" depth="0" NCoef="0" IVar="69" Cut="7.0103526115417480e-01" cType="1" res="5.6939595378935337e-03" rms="2.3535019159317017e-01" purity="5.0618517398834229e-01" nType="0">
        <Node pos="l" depth="1" NCoef="0" IVar="56" Cut="-1.2995903491973877e+00" cType="1" res="9.1373920440673828e-02" rms="3.5012227296829224e-01" purity="2.8892984986305237e-01" nType="0">
          <Node pos="l" depth="2" NCoef="0" IVar="-1" Cut="0.0000000000000000e+00" cType="1" res="1.1024720966815948e-01" rms="4.3506890535354614e-01" purity="3.8349106907844543e-01" nType="-99"/>
          <Node pos="r" depth="2" NCoef="0" IVar="-1" Cut="0.0000000000000000e+00" cType="1" res="-7.4265697039663792e-03" rms="1.9208383560180664e-01" purity="2.0265448093414307e-01" nType="-99"/>
        </Node>
        <Node pos="r" depth="1" NCoef="0" IVar="10" Cut="2.7814815044403076e+00" cType="1" res="1.4321410562843084e-03" rms="2.2729714214801788e-01" purity="5.1699167490005493e-01" nType="0">
          <Node pos="l" depth="2" NCoef="0" IVar="-1" Cut="0.0000000000000000e+00" cType="1" res="3.1845692545175552e-02" rms="3.3092635869979858e-01" purity="2.8733530640602112e-01" nType="-99"/>
          <Node pos="r" depth="2" NCoef="0" IVar="-1" Cut="0.0000000000000000e+00" cType="1" res="-1.0498346528038383e-03" rms="2.1975255012512207e-01" purity="5.2892875671386719e-01" nType="-99"/>
        </Node>
      </Node>
    </BinaryTree>
    <BinaryTree type="DecisionTree" boostWeight="1.0000000000000000e+00" itree="1324">
      <Node pos="s" depth="0" NCoef="0" IVar="56" Cut="-1.4538389444351196e+00" cType="1" res="5.4978788830339909e-03" rms="2.3484954237937927e-01" purity="5.0396597385406494e-01" nType="0">
        <Node pos="l" depth="1" NCoef="0" IVar="60" Cut="-1.2269947528839111e+00" cType="1" res="4.6971954405307770e-02" rms="2.8862014412879944e-01" purity="3.8102623820304871e-01" nType="0">
          <Node pos="l" depth="2" NCoef="0" IVar="-1" Cut="0.0000000000000000e+00" cType="1" res="5.3214719519019127e-03" rms="2.4551177024841309e-01" purity="3.9596167206764221e-01" nType="-99"/>
          <Node pos="r" depth="2" NCoef="0" IVar="-1" Cut="0.0000000000000000e+00" cType="1" res="6.5047658979892731e-02" rms="3.7883022427558899e-01" purity="3.3205491304397583e-01" nType="-99"/>
        </Node>
        <Node pos="r" depth="1" NCoef="0" IVar="11" Cut="1.2345679104328156e-02" cType="1" res="-5.0110267475247383e-03" rms="2.1788971126079559e-01" purity="5.3511703014373779e-01" nType="0">
          <Node pos="l" depth="2" NCoef="0" IVar="-1" Cut="0.0000000000000000e+00" cType="1" res="-2.7139894664287567e-02" rms="-nan" purity="2.6725271344184875e-01" nType="-99"/>
          <Node pos="r" depth="2" NCoef="0" IVar="-1" Cut="0.0000000000000000e+00" cType="1" res="-1.9413819245528430e-04" rms="2.2786769270896912e-01" purity="5.4975682497024536e-01" nType="-99"/>
        </Node>
      </Node>
    </BinaryTree>
    <BinaryTree type="DecisionTree" boostWeight="1.0000000000000000e+00" itree="1325">
      <Node pos="s" depth="0" NCoef="0" IVar="61" Cut="1.4217875003814697e+00" cType="1" res="7.3508624918758869e-03" rms="2.3700183629989624e-01" purity="5.0217783451080322e-01" nType="0">
        <Node pos="l" depth="1" NCoef="0" IVar="10" Cut="2.9402637481689453e+00" cType="1" res="1.2273580767214298e-02" rms="2.4455903470516205e-01" purity="5.1991248130798340e-01" nType="0">
          <Node pos="l" depth="2" NCoef="0" IVar="-1" Cut="0.0000000000000000e+00" cType="1" res="2.2491855546832085e-02" rms="3.2393962144851685e-01" purity="3.1583175063133240e-01" nType="-99"/>
          <Node pos="r" depth="2" NCoef="0" IVar="-1" Cut="0.0000000000000000e+00" cType="1" res="1.5210389392450452e-03" rms="2.2763000428676605e-01" purity="5.5387037992477417e-01" nType="-99"/>
        </Node>
        <Node pos="r" depth="1" NCoef="0" IVar="59" Cut="1.2783442735671997e+00" cType="1" res="-2.5881888344883919e-02" rms="-nan" purity="2.1968805789947510e-01" nType="-99"/>
      </Node>
    </BinaryTree>
    <BinaryTree type="DecisionTree" boostWeight="1.0000000000000000e+00" itree="1326">
      <Node pos="s" depth="0" NCoef="0" IVar="2" Cut="2.1753628253936768e+00" cType="1" res="-1.2262411182746291e-03" rms="2.1984155476093292e-01" purity="5.0610309839248657e-01" nType="0">
        <Node pos="l" depth="1" NCoef="0" IVar="77" Cut="1.3222332112491131e-02" cType="1" res="-2.6072714477777481e-02" rms="1.7465321719646454e-01" purity="2.3901762068271637e-01" nType="0">
          <Node pos="l" depth="2" NCoef="0" IVar="-1" Cut="0.0000000000000000e+00" cType="1" res="-1.7742054536938667e-02" rms="1.4708429574966431e-01" purity="2.5102847814559937e-01" nType="-99"/>
          <Node pos="r" depth="2" NCoef="0" IVar="-1" Cut="0.0000000000000000e+00" cType="1" res="2.2162251174449921e-02" rms="2.4441294372081757e-01" purity="1.9345472753047943e-01" nType="-99"/>
        </Node>
        <Node pos="r" depth="1" NCoef="0" IVar="1" Cut="2.6844799518585205e+00" cType="1" res="1.0710070841014385e-02" rms="2.3760300874710083e-01" purity="6.3441163301467896e-01" nType="0">
          <Node pos="l" depth="2" NCoef="0" IVar="-1" Cut="0.0000000000000000e+00" cType="1" res="1.7108401283621788e-02" rms="2.8941023349761963e-01" purity="5.8326077461242676e-01" nType="-99"/>
          <Node pos="r" depth="2" NCoef="0" IVar="-1" Cut="0.0000000000000000e+00" cType="1" res="4.6272714826045558e-05" rms="2.2191588580608368e-01" purity="6.4684385061264038e-01" nType="-99"/>
        </Node>
      </Node>
    </BinaryTree>
    <BinaryTree type="DecisionTree" boostWeight="1.0000000000000000e+00" itree="1327">
      <Node pos="s" depth="0" NCoef="0" IVar="81" Cut="-1.1312402486801147e+00" cType="1" res="3.2826364040374756e-03" rms="2.2674521803855896e-01" purity="5.1077562570571899e-01" nType="0">
        <Node pos="l" depth="1" NCoef="0" IVar="81" Cut="-2.0409123897552490e+00" cType="1" res="-4.2127980850636959e-03" rms="2.2001130878925323e-01" purity="5.6294578313827515e-01" nType="0">
          <Node pos="l" depth="2" NCoef="0" IVar="-1" Cut="0.0000000000000000e+00" cType="1" res="4.0594376623630524e-03" rms="2.4823069572448730e-01" purity="6.3264328241348267e-01" nType="-99"/>
          <Node pos="r" depth="2" NCoef="0" IVar="-1" Cut="0.0000000000000000e+00" cType="1" res="-9.1054961085319519e-03" rms="1.7397694289684296e-01" purity="4.7125962376594543e-01" nType="-99"/>
        </Node>
        <Node pos="r" depth="1" NCoef="0" IVar="3" Cut="5.0931901931762695e+00" cType="1" res="3.4377548843622208e-02" rms="2.5038748979568481e-01" purity="2.9434719681739807e-01" nType="0">
          <Node pos="l" depth="2" NCoef="0" IVar="-1" Cut="0.0000000000000000e+00" cType="1" res="2.0861109718680382e-02" rms="2.8355497121810913e-01" purity="3.2341882586479187e-01" nType="-99"/>
          <Node pos="r" depth="2" NCoef="0" IVar="-1" Cut="0.0000000000000000e+00" cType="1" res="-3.8867525756359100e-02" rms="-nan" purity="1.3452784717082977e-01" nType="-99"/>
        </Node>
      </Node>
    </BinaryTree>
    <BinaryTree type="DecisionTree" boostWeight="1.0000000000000000e+00" itree="1328">
      <Node pos="s" depth="0" NCoef="0" IVar="82" Cut="1.6709287166595459e+00" cType="1" res="-9.8586117383092642e-04" rms="2.3864473402500153e-01" purity="4.9687337875366211e-01" nType="0">
        <Node pos="l" depth="1" NCoef="0" IVar="34" Cut="-1.2614512443542480e+00" cType="1" res="-5.2825375460088253e-03" rms="2.3212358355522156e-01" purity="5.0192129611968994e-01" nType="0">
          <Node pos="l" depth="2" NCoef="0" IVar="-1" Cut="0.0000000000000000e+00" cType="1" res="1.3480877503752708e-02" rms="2.5135362148284912e-01" purity="2.9837563633918762e-01" nType="-99"/>
          <Node pos="r" depth="2" NCoef="0" IVar="-1" Cut="0.0000000000000000e+00" cType="1" res="-4.5570717193186283e-03" rms="2.2745758295059204e-01" purity="5.4190903902053833e-01" nType="-99"/>
        </Node>
        <Node pos="r" depth="1" NCoef="0" IVar="-1" Cut="0.0000000000000000e+00" cType="1" res="6.8900339305400848e-02" rms="3.7843233346939087e-01" purity="3.1417492032051086e-01" nType="-99"/>
      </Node>
    </BinaryTree>
    <BinaryTree type="DecisionTree" boostWeight="1.0000000000000000e+00" itree="1329">
      <Node pos="s" depth="0" NCoef="0" IVar="7" Cut="-6.7545896768569946e-01" cType="1" res="1.3981832889840007e-03" rms="2.2714945673942566e-01" purity="5.0417894124984741e-01" nType="0">
        <Node pos="l" depth="1" NCoef="0" IVar="5" Cut="-1.8826657533645630e-01" cType="1" res="-1.5017553232610226e-03" rms="2.2298517823219299e-01" purity="5.0549656152725220e-01" nType="0">
          <Node pos="l" depth="2" NCoef="0" IVar="-1" Cut="0.0000000000000000e+00" cType="1" res="6.0873560607433319e-02" rms="2.7373194694519043e-01" purity="2.4394331872463226e-01" nType="-99"/>
          <Node pos="r" depth="2" NCoef="0" IVar="-1" Cut="0.0000000000000000e+00" cType="1" res="-1.7788673285394907e-03" rms="2.2028848528862000e-01" purity="5.1423817873001099e-01" nType="-99"/>
        </Node>
        <Node pos="r" depth="1" NCoef="0" IVar="-1" Cut="0.0000000000000000e+00" cType="1" res="4.2601838707923889e-02" rms="3.4922215342521667e-01" purity="4.4072911143302917e-01" nType="-99"/>
      </Node>
    </BinaryTree>
    <BinaryTree type="DecisionTree" boostWeight="1.0000000000000000e+00" itree="1330">
      <Node pos="s" depth="0" NCoef="0" IVar="56" Cut="1.2125753164291382e+00" cType="1" res="-9.8389910999685526e-04" rms="2.2181023657321930e-01" purity="4.9763533473014832e-01" nType="0">
        <Node pos="l" depth="1" NCoef="0" IVar="52" Cut="2.5458786487579346e+00" cType="1" res="6.4879376441240311e-03" rms="2.3094619810581207e-01" purity="5.0899279117584229e-01" nType="0">
          <Node pos="l" depth="2" NCoef="0" IVar="-1" Cut="0.0000000000000000e+00" cType="1" res="-2.6073420420289040e-02" rms="-nan" purity="1.1758362501859665e-01" nType="-99"/>
          <Node pos="r" depth="2" NCoef="0" IVar="-1" Cut="0.0000000000000000e+00" cType="1" res="4.6291230246424675e-03" rms="2.4325256049633026e-01" purity="5.4248958826065063e-01" nType="-99"/>
        </Node>
        <Node pos="r" depth="1" NCoef="0" IVar="39" Cut="-1.3711569309234619e+00" cType="1" res="-5.7836297899484634e-02" rms="1.1861562728881836e-01" purity="4.1121748089790344e-01" nType="0">
          <Node pos="l" depth="2" NCoef="0" IVar="-1" Cut="0.0000000000000000e+00" cType="1" res="-9.0133408084511757e-03" rms="2.0382893085479736e-01" purity="5.0673228502273560e-01" nType="-99"/>
          <Node pos="r" depth="2" NCoef="0" IVar="-1" Cut="0.0000000000000000e+00" cType="1" res="-6.7896947264671326e-02" rms="-nan" purity="8.0623760819435120e-02" nType="-99"/>
        </Node>
      </Node>
    </BinaryTree>
    <BinaryTree type="DecisionTree" boostWeight="1.0000000000000000e+00" itree="1331">
      <Node pos="s" depth="0" NCoef="0" IVar="27" Cut="9.0114122629165649e-01" cType="1" res="-1.5544400084763765e-03" rms="2.2800585627555847e-01" purity="4.9910286068916321e-01" nType="0">
        <Node pos="l" depth="1" NCoef="0" IVar="3" Cut="4.7863774299621582e+00" cType="1" res="5.6449647992849350e-02" rms="3.1763508915901184e-01" purity="2.5122964382171631e-01" nType="0">
          <Node pos="l" depth="2" NCoef="0" IVar="-1" Cut="0.0000000000000000e+00" cType="1" res="-1.3780122622847557e-02" rms="1.7375689744949341e-01" purity="1.1609902232885361e-01" nType="-99"/>
          <Node pos="r" depth="2" NCoef="0" IVar="-1" Cut="0.0000000000000000e+00" cType="1" res="7.4323222041130066e-02" rms="4.2240294814109802e-01" purity="4.4454821944236755e-01" nType="-99"/>
        </Node>
        <Node pos="r" depth="1" NCoef="0" IVar="37" Cut="-5.2876245975494385e-01" cType="1" res="-7.2150691412389278e-03" rms="2.1645693480968475e-01" purity="5.2329283952713013e-01" nType="0">
          <Node pos="l" depth="2" NCoef="0" IVar="-1" Cut="0.0000000000000000e+00" cType="1" res="4.3843081220984459e-03" rms="2.4855022132396698e-01" purity="5.4936736822128296e-01" nType="-99"/>
          <Node pos="r" depth="2" NCoef="0" IVar="-1" Cut="0.0000000000000000e+00" cType="1" res="-1.1474274098873138e-02" rms="1.6512632369995117e-01" purity="4.9091330170631409e-01" nType="-99"/>
        </Node>
      </Node>
    </BinaryTree>
    <BinaryTree type="DecisionTree" boostWeight="1.0000000000000000e+00" itree="1332">
      <Node pos="s" depth="0" NCoef="0" IVar="59" Cut="-1.2997951507568359e+00" cType="1" res="9.7930375486612320e-03" rms="2.4696311354637146e-01" purity="5.0249546766281128e-01" nType="0">
        <Node pos="l" depth="1" NCoef="0" IVar="36" Cut="1.5193688869476318e+00" cType="1" res="5.7440709322690964e-02" rms="2.6811188459396362e-01" purity="3.2426258921623230e-01" nType="0">
          <Node pos="l" depth="2" NCoef="0" IVar="-1" Cut="0.0000000000000000e+00" cType="1" res="3.9672952145338058e-02" rms="2.9296198487281799e-01" purity="2.4493788182735443e-01" nType="-99"/>
          <Node pos="r" depth="2" NCoef="0" IVar="-1" Cut="0.0000000000000000e+00" cType="1" res="-7.7656074427068233e-03" rms="1.3100968301296234e-01" purity="5.8986192941665649e-01" nType="-99"/>
        </Node>
        <Node pos="r" depth="1" NCoef="0" IVar="17" Cut="-1.4538311958312988e+00" cType="1" res="-4.5815380872227252e-04" rms="2.4094319343566895e-01" purity="5.4084151983261108e-01" nType="0">
          <Node pos="l" depth="2" NCoef="0" IVar="-1" Cut="0.0000000000000000e+00" cType="1" res="1.0842180997133255e-01" rms="3.4924912452697754e-01" purity="1.7100183665752411e-01" nType="-99"/>
          <Node pos="r" depth="2" NCoef="0" IVar="-1" Cut="0.0000000000000000e+00" cType="1" res="-1.3918896438553929e-03" rms="2.3626036942005157e-01" purity="5.5109852552413940e-01" nType="-99"/>
        </Node>
      </Node>
    </BinaryTree>
    <BinaryTree type="DecisionTree" boostWeight="1.0000000000000000e+00" itree="1333">
      <Node pos="s" depth="0" NCoef="0" IVar="34" Cut="1.2448982000350952e+00" cType="1" res="9.2960633337497711e-03" rms="2.4923433363437653e-01" purity="5.0030785799026489e-01" nType="0">
        <Node pos="l" depth="1" NCoef="0" IVar="15" Cut="1.4834244251251221e+00" cType="1" res="3.9897635579109192e-02" rms="2.7083325386047363e-01" purity="2.9696568846702576e-01" nType="0">
          <Node pos="l" depth="2" NCoef="0" IVar="-1" Cut="0.0000000000000000e+00" cType="1" res="2.5739897042512894e-02" rms="2.7865701913833618e-01" purity="3.1206092238426208e-01" nType="-99"/>
          <Node pos="r" depth="2" NCoef="0" IVar="-1" Cut="0.0000000000000000e+00" cType="1" res="-7.2795650921761990e-03" rms="2.3038284480571747e-01" purity="2.4468676745891571e-01" nType="-99"/>
        </Node>
        <Node pos="r" depth="1" NCoef="0" IVar="8" Cut="-1.9391313195228577e-01" cType="1" res="-5.1842923276126385e-03" rms="2.3695917427539825e-01" purity="5.9652727842330933e-01" nType="0">
          <Node pos="l" depth="2" NCoef="0" IVar="-1" Cut="0.0000000000000000e+00" cType="1" res="-3.3748580608516932e-03" rms="2.3322761058807373e-01" purity="6.0162872076034546e-01" nType="-99"/>
          <Node pos="r" depth="2" NCoef="0" IVar="-1" Cut="0.0000000000000000e+00" cType="1" res="3.5483535379171371e-02" rms="3.0708712339401245e-01" purity="4.4584053754806519e-01" nType="-99"/>
        </Node>
      </Node>
    </BinaryTree>
    <BinaryTree type="DecisionTree" boostWeight="1.0000000000000000e+00" itree="1334">
      <Node pos="s" depth="0" NCoef="0" IVar="40" Cut="-3.5524606704711914e-02" cType="1" res="-7.6644204091280699e-04" rms="2.2853492200374603e-01" purity="5.0198233127593994e-01" nType="0">
        <Node pos="l" depth="1" NCoef="0" IVar="-1" Cut="0.0000000000000000e+00" cType="1" res="-4.1008066385984421e-02" rms="-nan" purity="5.3892678022384644e-01" nType="-99"/>
        <Node pos="r" depth="1" NCoef="0" IVar="19" Cut="1.3167853355407715e+00" cType="1" res="1.7788478871807456e-03" rms="2.3163236677646637e-01" purity="5.0106602907180786e-01" nType="0">
          <Node pos="l" depth="2" NCoef="0" IVar="-1" Cut="0.0000000000000000e+00" cType="1" res="-1.0051110293716192e-03" rms="2.2424322366714478e-01" purity="5.1130235195159912e-01" nType="-99"/>
          <Node pos="r" depth="2" NCoef="0" IVar="-1" Cut="0.0000000000000000e+00" cType="1" res="2.2993240505456924e-02" rms="3.1045341491699219e-01" purity="3.5864746570587158e-01" nType="-99"/>
        </Node>
      </Node>
    </BinaryTree>
    <BinaryTree type="DecisionTree" boostWeight="1.0000000000000000e+00" itree="1335">
      <Node pos="s" depth="0" NCoef="0" IVar="19" Cut="1.2400158643722534e+00" cType="1" res="-1.1290314141660929e-03" rms="2.2351704537868500e-01" purity="5.0368243455886841e-01" nType="0">
        <Node pos="l" depth="1" NCoef="0" IVar="62" Cut="-2.9452311992645264e-01" cType="1" res="3.8959037046879530e-03" rms="2.3111401498317719e-01" purity="5.2262437343597412e-01" nType="0">
          <Node pos="l" depth="2" NCoef="0" IVar="-1" Cut="0.0000000000000000e+00" cType="1" res="-1.7269272357225418e-02" rms="1.5736624598503113e-01" purity="5.4936826229095459e-01" nType="-99"/>
          <Node pos="r" depth="2" NCoef="0" IVar="-1" Cut="0.0000000000000000e+00" cType="1" res="3.4047788940370083e-03" rms="2.3696832358837128e-01" purity="5.1978397369384766e-01" nType="-99"/>
        </Node>
        <Node pos="r" depth="1" NCoef="0" IVar="81" Cut="-1.9549214839935303e+00" cType="1" res="-6.0938119888305664e-02" rms="7.0520982146263123e-02" purity="2.7822685241699219e-01" nType="0">
          <Node pos="l" depth="2" NCoef="0" IVar="-1" Cut="0.0000000000000000e+00" cType="1" res="-5.9567544609308243e-02" rms="-nan" purity="2.7554726600646973e-01" nType="-99"/>
          <Node pos="r" depth="2" NCoef="0" IVar="-1" Cut="0.0000000000000000e+00" cType="1" res="-4.2384373955428600e-04" rms="1.8879574537277222e-01" purity="2.7999356389045715e-01" nType="-99"/>
        </Node>
      </Node>
    </BinaryTree>
    <BinaryTree type="DecisionTree" boostWeight="1.0000000000000000e+00" itree="1336">
      <Node pos="s" depth="0" NCoef="0" IVar="3" Cut="5.4292569160461426e+00" cType="1" res="3.3154319971799850e-03" rms="2.3099480569362640e-01" purity="5.0187486410140991e-01" nType="0">
        <Node pos="l" depth="1" NCoef="0" IVar="73" Cut="2.1496491432189941e+00" cType="1" res="-3.8190872874110937e-04" rms="2.2713410854339600e-01" purity="5.1063340902328491e-01" nType="0">
          <Node pos="l" depth="2" NCoef="0" IVar="-1" Cut="0.0000000000000000e+00" cType="1" res="4.2422443628311157e-02" rms="3.4132188558578491e-01" purity="3.5799640417098999e-01" nType="-99"/>
          <Node pos="r" depth="2" NCoef="0" IVar="-1" Cut="0.0000000000000000e+00" cType="1" res="-1.3993103057146072e-03" rms="2.2180306911468506e-01" purity="5.1541393995285034e-01" nType="-99"/>
        </Node>
        <Node pos="r" depth="1" NCoef="0" IVar="-1" Cut="0.0000000000000000e+00" cType="1" res="3.1755745410919189e-02" rms="2.9732844233512878e-01" purity="2.8524121642112732e-01" nType="-99"/>
      </Node>
    </BinaryTree>
    <BinaryTree type="DecisionTree" boostWeight="1.0000000000000000e+00" itree="1337">
      <Node pos="s" depth="0" NCoef="0" IVar="3" Cut="4.3817377090454102e+00" cType="1" res="4.0217544883489609e-03" rms="2.3495504260063171e-01" purity="5.0625431537628174e-01" nType="0">
        <Node pos="l" depth="1" NCoef="0" IVar="62" Cut="-1.1362547986209393e-02" cType="1" res="-7.1452647447586060e-02" rms="3.1368993222713470e-02" purity="2.3546849191188812e-01" nType="0">
          <Node pos="l" depth="2" NCoef="0" IVar="-1" Cut="0.0000000000000000e+00" cType="1" res="2.0296759903430939e-03" rms="2.5876265764236450e-01" purity="3.3280286192893982e-01" nType="-99"/>
          <Node pos="r" depth="2" NCoef="0" IVar="-1" Cut="0.0000000000000000e+00" cType="1" res="-4.5839365571737289e-02" rms="-nan" purity="1.5777036547660828e-01" nType="-99"/>
        </Node>
        <Node pos="r" depth="1" NCoef="0" IVar="73" Cut="2.1379644870758057e+00" cType="1" res="8.9115398004651070e-03" rms="2.4150292575359344e-01" purity="5.2379781007766724e-01" nType="0">
          <Node pos="l" depth="2" NCoef="0" IVar="-1" Cut="0.0000000000000000e+00" cType="1" res="5.2535485476255417e-02" rms="3.5976248979568481e-01" purity="3.5853505134582520e-01" nType="-99"/>
          <Node pos="r" depth="2" NCoef="0" IVar="-1" Cut="0.0000000000000000e+00" cType="1" res="2.2002034820616245e-03" rms="2.3678293824195862e-01" purity="5.2826255559921265e-01" nType="-99"/>
        </Node>
      </Node>
    </BinaryTree>
    <BinaryTree type="DecisionTree" boostWeight="1.0000000000000000e+00" itree="1338">
      <Node pos="s" depth="0" NCoef="0" IVar="56" Cut="-1.4151864051818848e+00" cType="1" res="-6.2938164919614792e-03" rms="2.2194194793701172e-01" purity="4.9385470151901245e-01" nType="0">
        <Node pos="l" depth="1" NCoef="0" IVar="17" Cut="1.4431946277618408e+00" cType="1" res="2.5050692260265350e-02" rms="2.6352408528327942e-01" purity="3.9758157730102539e-01" nType="0">
          <Node pos="l" depth="2" NCoef="0" IVar="-1" Cut="0.0000000000000000e+00" cType="1" res="5.6759361177682877e-02" rms="2.8066241741180420e-01" purity="1.4936304092407227e-01" nType="-99"/>
          <Node pos="r" depth="2" NCoef="0" IVar="-1" Cut="0.0000000000000000e+00" cType="1" res="-2.9022651724517345e-03" rms="2.4530395865440369e-01" purity="5.6228399276733398e-01" nType="-99"/>
        </Node>
        <Node pos="r" depth="1" NCoef="0" IVar="17" Cut="-8.7357759475708008e-01" cType="1" res="-1.7638836055994034e-02" rms="2.0363548398017883e-01" purity="5.2870035171508789e-01" nType="0">
          <Node pos="l" depth="2" NCoef="0" IVar="-1" Cut="0.0000000000000000e+00" cType="1" res="-1.6206763684749603e-01" rms="-nan" purity="-7.6691731810569763e-02" nType="-99"/>
          <Node pos="r" depth="2" NCoef="0" IVar="-1" Cut="0.0000000000000000e+00" cType="1" res="-1.1605571489781141e-03" rms="2.5373733043670654e-01" purity="6.2900847196578979e-01" nType="-99"/>
        </Node>
      </Node>
    </BinaryTree>
    <BinaryTree type="DecisionTree" boostWeight="1.0000000000000000e+00" itree="1339">
      <Node pos="s" depth="0" NCoef="0" IVar="79" Cut="5.8907115459442139e-01" cType="1" res="6.0541140846908092e-03" rms="2.4373795092105865e-01" purity="4.9299693107604980e-01" nType="0">
        <Node pos="l" depth="1" NCoef="0" IVar="13" Cut="-5.6650733947753906e-01" cType="1" res="1.3486439362168312e-02" rms="2.5756806135177612e-01" purity="5.1920187473297119e-01" nType="0">
          <Node pos="l" depth="2" NCoef="0" IVar="-1" Cut="0.0000000000000000e+00" cType="1" res="3.2857481390237808e-02" rms="2.5450304150581360e-01" purity="2.3736874759197235e-01" nType="-99"/>
          <Node pos="r" depth="2" NCoef="0" IVar="-1" Cut="0.0000000000000000e+00" cType="1" res="1.6065544914454222e-03" rms="2.5738248229026794e-01" purity="5.7942014932632446e-01" nType="-99"/>
        </Node>
        <Node pos="r" depth="1" NCoef="0" IVar="41" Cut="1.2377884238958359e-02" cType="1" res="-3.5719159990549088e-02" rms="1.3559222221374512e-01" purity="3.4571221470832825e-01" nType="0">
          <Node pos="l" depth="2" NCoef="0" IVar="-1" Cut="0.0000000000000000e+00" cType="1" res="-3.3625323325395584e-02" rms="-nan" purity="3.6710098385810852e-01" nType="-99"/>
          <Node pos="r" depth="2" NCoef="0" IVar="-1" Cut="0.0000000000000000e+00" cType="1" res="6.4546265639364719e-03" rms="2.5422996282577515e-01" purity="3.2319039106369019e-01" nType="-99"/>
        </Node>
      </Node>
    </BinaryTree>
    <BinaryTree type="DecisionTree" boostWeight="1.0000000000000000e+00" itree="1340">
      <Node pos="s" depth="0" NCoef="0" IVar="73" Cut="2.1655480861663818e+00" cType="1" res="-3.5659417044371367e-03" rms="2.2316183149814606e-01" purity="4.9545106291770935e-01" nType="0">
        <Node pos="l" depth="1" NCoef="0" IVar="-1" Cut="0.0000000000000000e+00" cType="1" res="-4.2957812547683716e-02" rms="-nan" purity="1.4910164475440979e-01" nType="-99"/>
        <Node pos="r" depth="1" NCoef="0" IVar="3" Cut="5.3866176605224609e+00" cType="1" res="-7.2388030821457505e-04" rms="2.2929099202156067e-01" purity="5.0557303428649902e-01" nType="0">
          <Node pos="l" depth="2" NCoef="0" IVar="-1" Cut="0.0000000000000000e+00" cType="1" res="9.6295226830989122e-04" rms="2.3936687409877777e-01" purity="5.2033209800720215e-01" nType="-99"/>
          <Node pos="r" depth="2" NCoef="0" IVar="-1" Cut="0.0000000000000000e+00" cType="1" res="-2.6344485580921173e-02" rms="-nan" purity="1.6390238702297211e-01" nType="-99"/>
        </Node>
      </Node>
    </BinaryTree>
    <BinaryTree type="DecisionTree" boostWeight="1.0000000000000000e+00" itree="1341">
      <Node pos="s" depth="0" NCoef="0" IVar="10" Cut="2.9298303127288818e+00" cType="1" res="-7.9137290595099330e-04" rms="2.2829897701740265e-01" purity="5.0750368833541870e-01" nType="0">
        <Node pos="l" depth="1" NCoef="0" IVar="42" Cut="-2.1337820589542389e-01" cType="1" res="4.6115618199110031e-02" rms="2.8907477855682373e-01" purity="3.0289342999458313e-01" nType="0">
          <Node pos="l" depth="2" NCoef="0" IVar="-1" Cut="0.0000000000000000e+00" cType="1" res="5.0682164728641510e-02" rms="4.2579242587089539e-01" purity="3.5617899894714355e-01" nType="-99"/>
          <Node pos="r" depth="2" NCoef="0" IVar="-1" Cut="0.0000000000000000e+00" cType="1" res="3.6354237236082554e-03" rms="2.1397274732589722e-01" purity="2.8504195809364319e-01" nType="-99"/>
        </Node>
        <Node pos="r" depth="1" NCoef="0" IVar="73" Cut="2.4574453830718994e+00" cType="1" res="-8.1617105752229691e-03" rms="2.1628619730472565e-01" purity="5.3965336084365845e-01" nType="0">
          <Node pos="l" depth="2" NCoef="0" IVar="-1" Cut="0.0000000000000000e+00" cType="1" res="-1.8641881644725800e-02" rms="1.0828959941864014e-01" purity="3.2862064242362976e-01" nType="-99"/>
          <Node pos="r" depth="2" NCoef="0" IVar="-1" Cut="0.0000000000000000e+00" cType="1" res="-1.8033347441814840e-04" rms="2.3134990036487579e-01" purity="5.8235853910446167e-01" nType="-99"/>
        </Node>
      </Node>
    </BinaryTree>
    <BinaryTree type="DecisionTree" boostWeight="1.0000000000000000e+00" itree="1342">
      <Node pos="s" depth="0" NCoef="0" IVar="67" Cut="1.3454246520996094e+00" cType="1" res="4.1088270954787731e-03" rms="2.3603270947933197e-01" purity="5.0117033720016479e-01" nType="0">
        <Node pos="l" depth="1" NCoef="0" IVar="1" Cut="1.7710723876953125e+00" cType="1" res="6.8120047217234969e-04" rms="2.3223087191581726e-01" purity="5.1253592967987061e-01" nType="0">
          <Node pos="l" depth="2" NCoef="0" IVar="-1" Cut="0.0000000000000000e+00" cType="1" res="-6.7761786282062531e-02" rms="-nan" purity="4.9028713256120682e-02" nType="-99"/>
          <Node pos="r" depth="2" NCoef="0" IVar="-1" Cut="0.0000000000000000e+00" cType="1" res="1.1872997274622321e-03" rms="2.3747250437736511e-01" purity="5.2392816543579102e-01" nType="-99"/>
        </Node>
        <Node pos="r" depth="1" NCoef="0" IVar="37" Cut="-4.1630303859710693e-01" cType="1" res="7.7324114739894867e-02" rms="2.9686206579208374e-01" purity="2.5839620828628540e-01" nType="0">
          <Node pos="l" depth="2" NCoef="0" IVar="-1" Cut="0.0000000000000000e+00" cType="1" res="7.4808768928050995e-02" rms="3.8733819127082825e-01" purity="3.3665674924850464e-01" nType="-99"/>
          <Node pos="r" depth="2" NCoef="0" IVar="-1" Cut="0.0000000000000000e+00" cType="1" res="-1.5066586434841156e-02" rms="-nan" purity="1.6606922447681427e-01" nType="-99"/>
        </Node>
      </Node>
    </BinaryTree>
    <BinaryTree type="DecisionTree" boostWeight="1.0000000000000000e+00" itree="1343">
      <Node pos="s" depth="0" NCoef="0" IVar="48" Cut="1.6569229364395142e+00" cType="1" res="-5.0279876450076699e-04" rms="2.2653146088123322e-01" purity="4.9131950736045837e-01" nType="0">
        <Node pos="l" depth="1" NCoef="0" IVar="0" Cut="1.1336510181427002e+00" cType="1" res="-2.3034289479255676e-02" rms="1.8450149893760681e-01" purity="3.0394634604454041e-01" nType="0">
          <Node pos="l" depth="2" NCoef="0" IVar="-1" Cut="0.0000000000000000e+00" cType="1" res="-3.5298469010740519e-03" rms="2.1690471470355988e-01" purity="3.5059541463851929e-01" nType="-99"/>
          <Node pos="r" depth="2" NCoef="0" IVar="-1" Cut="0.0000000000000000e+00" cType="1" res="-4.6153686940670013e-02" rms="-nan" purity="6.7459493875503540e-02" nType="-99"/>
        </Node>
        <Node pos="r" depth="1" NCoef="0" IVar="62" Cut="3.4309247136116028e-01" cType="1" res="1.1478650383651257e-02" rms="2.4513179063796997e-01" purity="5.9095788002014160e-01" nType="0">
          <Node pos="l" depth="2" NCoef="0" IVar="-1" Cut="0.0000000000000000e+00" cType="1" res="2.8553805314004421e-03" rms="2.3887439072132111e-01" purity="5.9445673227310181e-01" nType="-99"/>
          <Node pos="r" depth="2" NCoef="0" IVar="-1" Cut="0.0000000000000000e+00" cType="1" res="3.7471476942300797e-02" rms="3.6226180195808411e-01" purity="4.9669134616851807e-01" nType="-99"/>
        </Node>
      </Node>
    </BinaryTree>
    <BinaryTree type="DecisionTree" boostWeight="1.0000000000000000e+00" itree="1344">
      <Node pos="s" depth="0" NCoef="0" IVar="56" Cut="1.3634920120239258e+00" cType="1" res="4.4213971123099327e-03" rms="2.3997046053409576e-01" purity="5.0107932090759277e-01" nType="0">
        <Node pos="l" depth="1" NCoef="0" IVar="46" Cut="1.5811254978179932e+00" cType="1" res="-3.0929531203582883e-04" rms="2.3396307229995728e-01" purity="5.0271290540695190e-01" nType="0">
          <Node pos="l" depth="2" NCoef="0" IVar="-1" Cut="0.0000000000000000e+00" cType="1" res="-1.2046187184751034e-03" rms="2.2895587980747223e-01" purity="5.0836330652236938e-01" nType="-99"/>
          <Node pos="r" depth="2" NCoef="0" IVar="-1" Cut="0.0000000000000000e+00" cType="1" res="7.1402192115783691e-02" rms="3.7364935874938965e-01" purity="2.5516951084136963e-01" nType="-99"/>
        </Node>
        <Node pos="r" depth="1" NCoef="0" IVar="78" Cut="-1.9624178111553192e-01" cType="1" res="5.4777979850769043e-02" rms="2.9175025224685669e-01" purity="4.8369038105010986e-01" nType="0">
          <Node pos="l" depth="2" NCoef="0" IVar="-1" Cut="0.0000000000000000e+00" cType="1" res="2.1781106479465961e-03" rms="2.3010993003845215e-01" purity="5.4691886901855469e-01" nType="-99"/>
          <Node pos="r" depth="2" NCoef="0" IVar="-1" Cut="0.0000000000000000e+00" cType="1" res="5.8869969099760056e-02" rms="3.6875611543655396e-01" purity="3.5490763187408447e-01" nType="-99"/>
        </Node>
      </Node>
    </BinaryTree>
    <BinaryTree type="DecisionTree" boostWeight="1.0000000000000000e+00" itree="1345">
      <Node pos="s" depth="0" NCoef="0" IVar="77" Cut="-7.1987938880920410e-01" cType="1" res="1.8873700173571706e-03" rms="2.3232048749923706e-01" purity="5.0023031234741211e-01" nType="0">
        <Node pos="l" depth="1" NCoef="0" IVar="52" Cut="2.4031629562377930e+00" cType="1" res="1.2527198530733585e-02" rms="2.5366663932800293e-01" purity="5.4787409305572510e-01" nType="0">
          <Node pos="l" depth="2" NCoef="0" IVar="-1" Cut="0.0000000000000000e+00" cType="1" res="3.9474673569202423e-02" rms="3.5843548178672791e-01" purity="2.6068499684333801e-01" nType="-99"/>
          <Node pos="r" depth="2" NCoef="0" IVar="-1" Cut="0.0000000000000000e+00" cType="1" res="2.8675429057329893e-03" rms="2.4620769917964935e-01" purity="5.6259483098983765e-01" nType="-99"/>
        </Node>
        <Node pos="r" depth="1" NCoef="0" IVar="69" Cut="2.2212293148040771e+00" cType="1" res="-2.4928664788603783e-02" rms="-nan" purity="2.5034731626510620e-01" nType="-99"/>
      </Node>
    </BinaryTree>
    <BinaryTree type="DecisionTree" boostWeight="1.0000000000000000e+00" itree="1346">
      <Node pos="s" depth="0" NCoef="0" IVar="55" Cut="-1.4926588535308838e+00" cType="1" res="4.0965266525745392e-03" rms="2.3534654080867767e-01" purity="5.0220507383346558e-01" nType="0">
        <Node pos="l" depth="1" NCoef="0" IVar="79" Cut="-2.6026991009712219e-01" cType="1" res="8.1233322620391846e-02" rms="3.3779531717300415e-01" purity="4.2778939008712769e-01" nType="0">
          <Node pos="l" depth="2" NCoef="0" IVar="-1" Cut="0.0000000000000000e+00" cType="1" res="-6.8959137424826622e-03" rms="1.1639091372489929e-01" purity="3.6317929625511169e-01" nType="-99"/>
          <Node pos="r" depth="2" NCoef="0" IVar="-1" Cut="0.0000000000000000e+00" cType="1" res="7.7196396887302399e-02" rms="4.3248021602630615e-01" purity="4.8521333932876587e-01" nType="-99"/>
        </Node>
        <Node pos="r" depth="1" NCoef="0" IVar="29" Cut="-3.8782626390457153e-02" cType="1" res="6.4496137201786041e-04" rms="2.2909049689769745e-01" purity="5.0553488731384277e-01" nType="0">
          <Node pos="l" depth="2" NCoef="0" IVar="-1" Cut="0.0000000000000000e+00" cType="1" res="1.3834034325554967e-03" rms="2.3428340256214142e-01" purity="5.1121199131011963e-01" nType="-99"/>
          <Node pos="r" depth="2" NCoef="0" IVar="-1" Cut="0.0000000000000000e+00" cType="1" res="-3.5710539668798447e-02" rms="-nan" purity="3.2983306050300598e-01" nType="-99"/>
        </Node>
      </Node>
    </BinaryTree>
    <BinaryTree type="DecisionTree" boostWeight="1.0000000000000000e+00" itree="1347">
      <Node pos="s" depth="0" NCoef="0" IVar="37" Cut="1.3596944808959961e+00" cType="1" res="5.1801595836877823e-03" rms="2.3936414718627930e-01" purity="5.0379168987274170e-01" nType="0">
        <Node pos="l" depth="1" NCoef="0" IVar="31" Cut="2.4483428001403809e+00" cType="1" res="8.7053785100579262e-03" rms="2.4379426240921021e-01" purity="5.1322793960571289e-01" nType="0">
          <Node pos="l" depth="2" NCoef="0" IVar="-1" Cut="0.0000000000000000e+00" cType="1" res="-2.2418532520532608e-02" rms="-nan" purity="1.0154101252555847e-01" nType="-99"/>
          <Node pos="r" depth="2" NCoef="0" IVar="-1" Cut="0.0000000000000000e+00" cType="1" res="4.3919086456298828e-03" rms="2.5079551339149475e-01" purity="5.3609675168991089e-01" nType="-99"/>
        </Node>
        <Node pos="r" depth="1" NCoef="0" IVar="-1" Cut="0.0000000000000000e+00" cType="1" res="-3.1558200716972351e-02" rms="-nan" purity="2.5046324729919434e-01" nType="-99"/>
      </Node>
    </BinaryTree>
    <BinaryTree type="DecisionTree" boostWeight="1.0000000000000000e+00" itree="1348">
      <Node pos="s" depth="0" NCoef="0" IVar="13" Cut="-1.4926202297210693e+00" cType="1" res="9.3061174266040325e-04" rms="2.2267161309719086e-01" purity="5.0512015819549561e-01" nType="0">
        <Node pos="l" depth="1" NCoef="0" IVar="-1" Cut="0.0000000000000000e+00" cType="1" res="3.9988622069358826e-02" rms="2.8280407190322876e-01" purity="3.5873386263847351e-01" nType="-99"/>
        <Node pos="r" depth="1" NCoef="0" IVar="3" Cut="4.3097901344299316e+00" cType="1" res="-2.4878748226910830e-03" rms="2.1948251128196716e-01" purity="5.1024830341339111e-01" nType="0">
          <Node pos="l" depth="2" NCoef="0" IVar="-1" Cut="0.0000000000000000e+00" cType="1" res="3.0384087935090065e-02" rms="3.5121154785156250e-01" purity="3.5849577188491821e-01" nType="-99"/>
          <Node pos="r" depth="2" NCoef="0" IVar="-1" Cut="0.0000000000000000e+00" cType="1" res="-2.3249669466167688e-03" rms="2.1238814294338226e-01" purity="5.1566261053085327e-01" nType="-99"/>
        </Node>
      </Node>
    </BinaryTree>
    <BinaryTree type="DecisionTree" boostWeight="1.0000000000000000e+00" itree="1349">
      <Node pos="s" depth="0" NCoef="0" IVar="31" Cut="2.2939438819885254e+00" cType="1" res="2.6731295511126518e-03" rms="2.3904694616794586e-01" purity="4.9743488430976868e-01" nType="0">
        <Node pos="l" depth="1" NCoef="0" IVar="-1" Cut="0.0000000000000000e+00" cType="1" res="-4.4616792351007462e-02" rms="-nan" purity="6.3853256404399872e-02" nType="-99"/>
        <Node pos="r" depth="1" NCoef="0" IVar="21" Cut="-5.6771570444107056e-01" cType="1" res="5.0712572410702705e-03" rms="2.4162487685680389e-01" purity="5.0682866573333740e-01" nType="0">
          <Node pos="l" depth="2" NCoef="0" IVar="-1" Cut="0.0000000000000000e+00" cType="1" res="3.6304045468568802e-02" rms="3.5513517260551453e-01" purity="5.8458507061004639e-01" nType="-99"/>
          <Node pos="r" depth="2" NCoef="0" IVar="-1" Cut="0.0000000000000000e+00" cType="1" res="5.8734335470944643e-04" rms="2.3525904119014740e-01" purity="5.0370693206787109e-01" nType="-99"/>
        </Node>
      </Node>
    </BinaryTree>
    <BinaryTree type="DecisionTree" boostWeight="1.0000000000000000e+00" itree="1350">
      <Node pos="s" depth="0" NCoef="0" IVar="81" Cut="-5.0276041030883789e-01" cType="1" res="-3.6212636623531580e-03" rms="2.2654025256633759e-01" purity="4.8865517973899841e-01" nType="0">
        <Node pos="l" depth="1" NCoef="0" IVar="55" Cut="5.1291584968566895e-01" cType="1" res="-6.8474109284579754e-03" rms="2.2139385342597961e-01" purity="4.9445068836212158e-01" nType="0">
          <Node pos="l" depth="2" NCoef="0" IVar="-1" Cut="0.0000000000000000e+00" cType="1" res="-1.9895840436220169e-02" rms="-nan" purity="2.1587349474430084e-01" nType="-99"/>
          <Node pos="r" depth="2" NCoef="0" IVar="-1" Cut="0.0000000000000000e+00" cType="1" res="1.2829077895730734e-03" rms="2.5366955995559692e-01" purity="5.7921707630157471e-01" nType="-99"/>
        </Node>
        <Node pos="r" depth="1" NCoef="0" IVar="-1" Cut="0.0000000000000000e+00" cType="1" res="4.1954346001148224e-02" rms="3.4136414527893066e-01" purity="2.9446172714233398e-01" nType="-99"/>
      </Node>
    </BinaryTree>
    <BinaryTree type="DecisionTree" boostWeight="1.0000000000000000e+00" itree="1351">
      <Node pos="s" depth="0" NCoef="0" IVar="55" Cut="-1.4926717281341553e+00" cType="1" res="5.1920986734330654e-03" rms="2.2700734436511993e-01" purity="5.0871586799621582e-01" nType="0">
        <Node pos="l" depth="1" NCoef="0" IVar="69" Cut="1.4913047552108765e+00" cType="1" res="8.0000825226306915e-02" rms="2.8349271416664124e-01" purity="4.6091568470001221e-01" nType="0">
          <Node pos="l" depth="2" NCoef="0" IVar="-1" Cut="0.0000000000000000e+00" cType="1" res="7.2357393801212311e-02" rms="4.0840125083923340e-01" purity="3.6904200911521912e-01" nType="-99"/>
          <Node pos="r" depth="2" NCoef="0" IVar="-1" Cut="0.0000000000000000e+00" cType="1" res="4.4257089029997587e-05" rms="-nan" purity="5.3913199901580811e-01" nType="-99"/>
        </Node>
        <Node pos="r" depth="1" NCoef="0" IVar="3" Cut="4.3877868652343750e+00" cType="1" res="1.7781626665964723e-03" rms="2.2349350154399872e-01" purity="5.1089721918106079e-01" nType="0">
          <Node pos="l" depth="2" NCoef="0" IVar="-1" Cut="0.0000000000000000e+00" cType="1" res="1.4473466202616692e-02" rms="2.7753335237503052e-01" purity="3.2457545399665833e-01" nType="-99"/>
          <Node pos="r" depth="2" NCoef="0" IVar="-1" Cut="0.0000000000000000e+00" cType="1" res="-8.5093418601900339e-04" rms="2.1786983311176300e-01" purity="5.2655059099197388e-01" nType="-99"/>
        </Node>
      </Node>
    </BinaryTree>
    <BinaryTree type="DecisionTree" boostWeight="1.0000000000000000e+00" itree="1352">
      <Node pos="s" depth="0" NCoef="0" IVar="17" Cut="1.3697938919067383e+00" cType="1" res="-2.4655107408761978e-03" rms="2.1421238780021667e-01" purity="5.0593686103820801e-01" nType="0">
        <Node pos="l" depth="1" NCoef="0" IVar="58" Cut="-2.2032900154590607e-01" cType="1" res="-2.9030445963144302e-02" rms="-nan" purity="2.0175304263830185e-02" nType="-99"/>
        <Node pos="r" depth="1" NCoef="0" IVar="36" Cut="-2.3050434887409210e-02" cType="1" res="9.4514526426792145e-03" rms="2.6835748553276062e-01" purity="6.8600839376449585e-01" nType="0">
          <Node pos="l" depth="2" NCoef="0" IVar="-1" Cut="0.0000000000000000e+00" cType="1" res="1.7304312437772751e-02" rms="2.9964318871498108e-01" purity="2.5616261363029480e-01" nType="-99"/>
          <Node pos="r" depth="2" NCoef="0" IVar="-1" Cut="0.0000000000000000e+00" cType="1" res="4.3564732186496258e-04" rms="2.6225346326828003e-01" purity="7.5270259380340576e-01" nType="-99"/>
        </Node>
      </Node>
    </BinaryTree>
    <BinaryTree type="DecisionTree" boostWeight="1.0000000000000000e+00" itree="1353">
      <Node pos="s" depth="0" NCoef="0" IVar="31" Cut="2.6930332183837891e+00" cType="1" res="2.0826132968068123e-03" rms="2.3162405192852020e-01" purity="4.9680346250534058e-01" nType="0">
        <Node pos="l" depth="1" NCoef="0" IVar="46" Cut="1.0724788904190063e+00" cType="1" res="-3.8944389671087265e-02" rms="9.4206467270851135e-02" purity="2.0378403365612030e-01" nType="0">
          <Node pos="l" depth="2" NCoef="0" IVar="-1" Cut="0.0000000000000000e+00" cType="1" res="-4.8393183387815952e-03" rms="1.7818614840507507e-01" purity="2.5700137019157410e-01" nType="-99"/>
          <Node pos="r" depth="2" NCoef="0" IVar="-1" Cut="0.0000000000000000e+00" cType="1" res="-1.1440736055374146e-01" rms="-nan" purity="-9.6632726490497589e-02" nType="-99"/>
        </Node>
        <Node pos="r" depth="1" NCoef="0" IVar="36" Cut="-1.3764014244079590e+00" cType="1" res="1.0746985673904419e-02" rms="2.5034978985786438e-01" purity="5.5868536233901978e-01" nType="0">
          <Node pos="l" depth="2" NCoef="0" IVar="-1" Cut="0.0000000000000000e+00" cType="1" res="6.5270178020000458e-02" rms="2.8402459621429443e-01" purity="1.4036779105663300e-01" nType="-99"/>
          <Node pos="r" depth="2" NCoef="0" IVar="-1" Cut="0.0000000000000000e+00" cType="1" res="1.5757656656205654e-03" rms="2.4616372585296631e-01" purity="5.9540575742721558e-01" nType="-99"/>
        </Node>
      </Node>
    </BinaryTree>
    <BinaryTree type="DecisionTree" boostWeight="1.0000000000000000e+00" itree="1354">
      <Node pos="s" depth="0" NCoef="0" IVar="34" Cut="-1.4155664443969727e+00" cType="1" res="2.6239398866891861e-03" rms="2.3021198809146881e-01" purity="5.0434654951095581e-01" nType="0">
        <Node pos="l" depth="1" NCoef="0" IVar="0" Cut="6.2293344736099243e-01" cType="1" res="-2.0854074507951736e-02" rms="-nan" purity="2.5406071543693542e-01" nType="-99"/>
        <Node pos="r" depth="1" NCoef="0" IVar="34" Cut="-5.9376455843448639e-02" cType="1" res="7.9637560993432999e-03" rms="2.4288292229175568e-01" purity="5.3266656398773193e-01" nType="0">
          <Node pos="l" depth="2" NCoef="0" IVar="-1" Cut="0.0000000000000000e+00" cType="1" res="1.8882432952523232e-02" rms="2.8662234544754028e-01" purity="2.9524087905883789e-01" nType="-99"/>
          <Node pos="r" depth="2" NCoef="0" IVar="-1" Cut="0.0000000000000000e+00" cType="1" res="3.2927026040852070e-04" rms="2.3402521014213562e-01" purity="5.7241582870483398e-01" nType="-99"/>
        </Node>
      </Node>
    </BinaryTree>
    <BinaryTree type="DecisionTree" boostWeight="1.0000000000000000e+00" itree="1355">
      <Node pos="s" depth="0" NCoef="0" IVar="63" Cut="-3.3764389157295227e-01" cType="1" res="2.9788019601255655e-03" rms="2.2625453770160675e-01" purity="4.9526569247245789e-01" nType="0">
        <Node pos="l" depth="1" NCoef="0" IVar="60" Cut="-1.5940140485763550e+00" cType="1" res="6.1766292899847031e-02" rms="3.1363821029663086e-01" purity="5.5700993537902832e-01" nType="0">
          <Node pos="l" depth="2" NCoef="0" IVar="-1" Cut="0.0000000000000000e+00" cType="1" res="4.2817536741495132e-03" rms="2.6132255792617798e-01" purity="5.9577411413192749e-01" nType="-99"/>
          <Node pos="r" depth="2" NCoef="0" IVar="-1" Cut="0.0000000000000000e+00" cType="1" res="5.4286383092403412e-02" rms="3.7113589048385620e-01" purity="4.9244987964630127e-01" nType="-99"/>
        </Node>
        <Node pos="r" depth="1" NCoef="0" IVar="52" Cut="2.9108951091766357e+00" cType="1" res="-6.7088236100971699e-03" rms="2.0676869153976440e-01" purity="4.8509079217910767e-01" nType="0">
          <Node pos="l" depth="2" NCoef="0" IVar="-1" Cut="0.0000000000000000e+00" cType="1" res="-1.3218531385064125e-02" rms="1.2699514627456665e-01" purity="3.0656012892723083e-01" nType="-99"/>
          <Node pos="r" depth="2" NCoef="0" IVar="-1" Cut="0.0000000000000000e+00" cType="1" res="3.2846222165971994e-03" rms="2.3747700452804565e-01" purity="5.8114075660705566e-01" nType="-99"/>
        </Node>
      </Node>
    </BinaryTree>
    <BinaryTree type="DecisionTree" boostWeight="1.0000000000000000e+00" itree="1356">
      <Node pos="s" depth="0" NCoef="0" IVar="69" Cut="6.9887709617614746e-01" cType="1" res="4.2829997837543488e-03" rms="2.3619811236858368e-01" purity="5.0154405832290649e-01" nType="0">
        <Node pos="l" depth="1" NCoef="0" IVar="73" Cut="2.3457310199737549e+00" cType="1" res="9.5295056700706482e-02" rms="3.6313489079475403e-01" purity="2.7441737055778503e-01" nType="0">
          <Node pos="l" depth="2" NCoef="0" IVar="-1" Cut="0.0000000000000000e+00" cType="1" res="9.4061739742755890e-02" rms="4.2664140462875366e-01" purity="3.1962805986404419e-01" nType="-99"/>
          <Node pos="r" depth="2" NCoef="0" IVar="-1" Cut="0.0000000000000000e+00" cType="1" res="1.2986791320145130e-02" rms="2.8707355260848999e-01" purity="2.3917791247367859e-01" nType="-99"/>
        </Node>
        <Node pos="r" depth="1" NCoef="0" IVar="10" Cut="2.8677551746368408e+00" cType="1" res="-2.0806063548661768e-04" rms="2.2717072069644928e-01" purity="5.1275175809860229e-01" nType="0">
          <Node pos="l" depth="2" NCoef="0" IVar="-1" Cut="0.0000000000000000e+00" cType="1" res="-2.2900268435478210e-02" rms="-nan" purity="2.0576108992099762e-01" nType="-99"/>
          <Node pos="r" depth="2" NCoef="0" IVar="-1" Cut="0.0000000000000000e+00" cType="1" res="1.9894279539585114e-03" rms="2.3789483308792114e-01" purity="5.3979146480560303e-01" nType="-99"/>
        </Node>
      </Node>
    </BinaryTree>
    <BinaryTree type="DecisionTree" boostWeight="1.0000000000000000e+00" itree="1357">
      <Node pos="s" depth="0" NCoef="0" IVar="83" Cut="-4.2453303933143616e-02" cType="1" res="-3.9780591614544392e-03" rms="2.2799703478813171e-01" purity="4.9562311172485352e-01" nType="0">
        <Node pos="l" depth="1" NCoef="0" IVar="0" Cut="1.2044850587844849e+00" cType="1" res="1.8266241997480392e-02" rms="2.7133974432945251e-01" purity="5.6896716356277466e-01" nType="0">
          <Node pos="l" depth="2" NCoef="0" IVar="-1" Cut="0.0000000000000000e+00" cType="1" res="1.5037650009617209e-03" rms="2.5022748112678528e-01" purity="5.8009135723114014e-01" nType="-99"/>
          <Node pos="r" depth="2" NCoef="0" IVar="-1" Cut="0.0000000000000000e+00" cType="1" res="4.2357109487056732e-02" rms="3.7445336580276489e-01" purity="4.8983928561210632e-01" nType="-99"/>
        </Node>
        <Node pos="r" depth="1" NCoef="0" IVar="5" Cut="9.9140005186200142e-03" cType="1" res="-2.1298242732882500e-02" rms="1.8559552729129791e-01" purity="4.3851482868194580e-01" nType="0">
          <Node pos="l" depth="2" NCoef="0" IVar="-1" Cut="0.0000000000000000e+00" cType="1" res="-4.1454959660768509e-02" rms="-nan" purity="2.4318487942218781e-01" nType="-99"/>
          <Node pos="r" depth="2" NCoef="0" IVar="-1" Cut="0.0000000000000000e+00" cType="1" res="-3.5221681464463472e-03" rms="2.1291583776473999e-01" purity="4.6952635049819946e-01" nType="-99"/>
        </Node>
      </Node>
    </BinaryTree>
    <BinaryTree type="DecisionTree" boostWeight="1.0000000000000000e+00" itree="1358">
      <Node pos="s" depth="0" NCoef="0" IVar="18" Cut="-1.7878546714782715e+00" cType="1" res="3.2287444919347763e-03" rms="2.3736222088336945e-01" purity="5.0661236047744751e-01" nType="0">
        <Node pos="l" depth="1" NCoef="0" IVar="59" Cut="1.1287088394165039e+00" cType="1" res="1.6343096271157265e-02" rms="2.5940665602684021e-01" purity="5.8284896612167358e-01" nType="0">
          <Node pos="l" depth="2" NCoef="0" IVar="-1" Cut="0.0000000000000000e+00" cType="1" res="2.1588096395134926e-02" rms="2.7115723490715027e-01" purity="3.7598329782485962e-01" nType="-99"/>
          <Node pos="r" depth="2" NCoef="0" IVar="-1" Cut="0.0000000000000000e+00" cType="1" res="-1.5955293201841414e-04" rms="2.5222450494766235e-01" purity="6.7422282695770264e-01" nType="-99"/>
        </Node>
        <Node pos="r" depth="1" NCoef="0" IVar="69" Cut="1.0968205928802490e+00" cType="1" res="-2.1166251972317696e-02" rms="1.8722984194755554e-01" purity="3.6479875445365906e-01" nType="0">
          <Node pos="l" depth="2" NCoef="0" IVar="-1" Cut="0.0000000000000000e+00" cType="1" res="1.5476824715733528e-02" rms="2.6167753338813782e-01" purity="2.2500671446323395e-01" nType="-99"/>
          <Node pos="r" depth="2" NCoef="0" IVar="-1" Cut="0.0000000000000000e+00" cType="1" res="-1.3676387257874012e-02" rms="1.5404772758483887e-01" purity="4.0727087855339050e-01" nType="-99"/>
        </Node>
      </Node>
    </BinaryTree>
    <BinaryTree type="DecisionTree" boostWeight="1.0000000000000000e+00" itree="1359">
      <Node pos="s" depth="0" NCoef="0" IVar="57" Cut="-1.1831873655319214e+00" cType="1" res="2.3605141323059797e-03" rms="2.4450524151325226e-01" purity="5.0263196229934692e-01" nType="0">
        <Node pos="l" depth="1" NCoef="0" IVar="58" Cut="3.1020510196685791e-01" cType="1" res="4.3042883276939392e-02" rms="2.2799143195152283e-01" purity="9.9466718733310699e-02" nType="0">
          <Node pos="l" depth="2" NCoef="0" IVar="-1" Cut="0.0000000000000000e+00" cType="1" res="8.1472499296069145e-03" rms="1.4430439472198486e-01" purity="6.8661458790302277e-02" nType="-99"/>
          <Node pos="r" depth="2" NCoef="0" IVar="-1" Cut="0.0000000000000000e+00" cType="1" res="1.0534980893135071e-01" rms="3.7504640221595764e-01" purity="2.0226638019084930e-01" nType="-99"/>
        </Node>
        <Node pos="r" depth="1" NCoef="0" IVar="61" Cut="1.4649724960327148e+00" cType="1" res="-4.4919140636920929e-03" rms="2.4651846289634705e-01" purity="5.7054007053375244e-01" nType="0">
          <Node pos="l" depth="2" NCoef="0" IVar="-1" Cut="0.0000000000000000e+00" cType="1" res="-2.9570194892585278e-03" rms="2.4203474819660187e-01" purity="5.8271193504333496e-01" nType="-99"/>
          <Node pos="r" depth="2" NCoef="0" IVar="-1" Cut="0.0000000000000000e+00" cType="1" res="1.6904128715395927e-02" rms="3.0090689659118652e-01" purity="3.8425472378730774e-01" nType="-99"/>
        </Node>
      </Node>
    </BinaryTree>
    <BinaryTree type="DecisionTree" boostWeight="1.0000000000000000e+00" itree="1360">
      <Node pos="s" depth="0" NCoef="0" IVar="79" Cut="1.3204813003540039e+00" cType="1" res="-1.7263256013393402e-03" rms="2.3111128807067871e-01" purity="4.9697792530059814e-01" nType="0">
        <Node pos="l" depth="1" NCoef="0" IVar="39" Cut="-7.2491437196731567e-01" cType="1" res="2.4647063110023737e-03" rms="2.4163350462913513e-01" purity="5.1241296529769897e-01" nType="0">
          <Node pos="l" depth="2" NCoef="0" IVar="-1" Cut="0.0000000000000000e+00" cType="1" res="-1.0570295853540301e-03" rms="2.3568408191204071e-01" purity="5.3258150815963745e-01" nType="-99"/>
          <Node pos="r" depth="2" NCoef="0" IVar="-1" Cut="0.0000000000000000e+00" cType="1" res="2.6882905513048172e-02" rms="2.9354244470596313e-01" purity="2.8701084852218628e-01" nType="-99"/>
        </Node>
        <Node pos="r" depth="1" NCoef="0" IVar="81" Cut="-1.5316361188888550e+00" cType="1" res="-5.4038435220718384e-02" rms="-nan" purity="1.6794371604919434e-01" nType="-99"/>
      </Node>
    </BinaryTree>
    <BinaryTree type="DecisionTree" boostWeight="1.0000000000000000e+00" itree="1361">
      <Node pos="s" depth="0" NCoef="0" IVar="61" Cut="1.4486218690872192e+00" cType="1" res="-3.0772620812058449e-03" rms="2.2568775713443756e-01" purity="5.0175023078918457e-01" nType="0">
        <Node pos="l" depth="1" NCoef="0" IVar="6" Cut="1.9304326772689819e+00" cType="1" res="-7.3598013259470463e-03" rms="2.1976849436759949e-01" purity="5.1442980766296387e-01" nType="0">
          <Node pos="l" depth="2" NCoef="0" IVar="-1" Cut="0.0000000000000000e+00" cType="1" res="-1.1347693391144276e-02" rms="1.6515955328941345e-01" purity="3.1863665580749512e-01" nType="-99"/>
          <Node pos="r" depth="2" NCoef="0" IVar="-1" Cut="0.0000000000000000e+00" cType="1" res="1.1893310584127903e-03" rms="2.4083043634891510e-01" purity="6.0797417163848877e-01" nType="-99"/>
        </Node>
        <Node pos="r" depth="1" NCoef="0" IVar="37" Cut="-4.8468732275068760e-03" cType="1" res="6.2219806015491486e-02" rms="2.9427069425582886e-01" purity="3.0842080712318420e-01" nType="0">
          <Node pos="l" depth="2" NCoef="0" IVar="-1" Cut="0.0000000000000000e+00" cType="1" res="-2.8901568148285151e-03" rms="1.8668779730796814e-01" purity="2.3441214859485626e-01" nType="-99"/>
          <Node pos="r" depth="2" NCoef="0" IVar="-1" Cut="0.0000000000000000e+00" cType="1" res="5.5250387638807297e-02" rms="3.8059085607528687e-01" purity="4.1755503416061401e-01" nType="-99"/>
        </Node>
      </Node>
    </BinaryTree>
    <BinaryTree type="DecisionTree" boostWeight="1.0000000000000000e+00" itree="1362">
      <Node pos="s" depth="0" NCoef="0" IVar="52" Cut="2.3744516372680664e+00" cType="1" res="4.0372963994741440e-03" rms="2.3332156240940094e-01" purity="5.0590449571609497e-01" nType="0">
        <Node pos="l" depth="1" NCoef="0" IVar="39" Cut="-2.0182535648345947e+00" cType="1" res="9.4905391335487366e-02" rms="3.1343844532966614e-01" purity="2.4556235969066620e-01" nType="0">
          <Node pos="l" depth="2" NCoef="0" IVar="-1" Cut="0.0000000000000000e+00" cType="1" res="5.2553232759237289e-02" rms="3.9348137378692627e-01" purity="3.8969466090202332e-01" nType="-99"/>
          <Node pos="r" depth="2" NCoef="0" IVar="-1" Cut="0.0000000000000000e+00" cType="1" res="4.0824366733431816e-03" rms="1.6691966354846954e-01" purity="1.0542253404855728e-01" nType="-99"/>
        </Node>
        <Node pos="r" depth="1" NCoef="0" IVar="35" Cut="8.2511502504348755e-01" cType="1" res="1.9055258599109948e-04" rms="2.2851741313934326e-01" purity="5.1692557334899902e-01" nType="0">
          <Node pos="l" depth="2" NCoef="0" IVar="-1" Cut="0.0000000000000000e+00" cType="1" res="-2.5739124976098537e-03" rms="2.1193265914916992e-01" purity="5.1227444410324097e-01" nType="-99"/>
          <Node pos="r" depth="2" NCoef="0" IVar="-1" Cut="0.0000000000000000e+00" cType="1" res="1.1617045849561691e-02" rms="2.8545171022415161e-01" purity="5.3626513481140137e-01" nType="-99"/>
        </Node>
      </Node>
    </BinaryTree>
    <BinaryTree type="DecisionTree" boostWeight="1.0000000000000000e+00" itree="1363">
      <Node pos="s" depth="0" NCoef="0" IVar="30" Cut="-5.6790125370025635e-01" cType="1" res="6.3303351635113358e-04" rms="2.3469041287899017e-01" purity="5.0396269559860229e-01" nType="0">
        <Node pos="l" depth="1" NCoef="0" IVar="34" Cut="1.2422273159027100e+00" cType="1" res="6.3207663595676422e-02" rms="3.2088449597358704e-01" purity="4.7363069653511047e-01" nType="0">
          <Node pos="l" depth="2" NCoef="0" IVar="-1" Cut="0.0000000000000000e+00" cType="1" res="4.1727658361196518e-02" rms="3.5602581501007080e-01" purity="3.9905142784118652e-01" nType="-99"/>
          <Node pos="r" depth="2" NCoef="0" IVar="-1" Cut="0.0000000000000000e+00" cType="1" res="-1.1564033105969429e-02" rms="2.3689740896224976e-01" purity="5.7287055253982544e-01" nType="-99"/>
        </Node>
        <Node pos="r" depth="1" NCoef="0" IVar="22" Cut="1.2345679104328156e-02" cType="1" res="-5.3814160637557507e-03" rms="2.2375054657459259e-01" purity="5.0687807798385620e-01" nType="0">
          <Node pos="l" depth="2" NCoef="0" IVar="-1" Cut="0.0000000000000000e+00" cType="1" res="-4.4653818011283875e-02" rms="-nan" purity="1.6630390286445618e-01" nType="-99"/>
          <Node pos="r" depth="2" NCoef="0" IVar="-1" Cut="0.0000000000000000e+00" cType="1" res="-9.8755175713449717e-04" rms="2.2910311818122864e-01" purity="5.1492518186569214e-01" nType="-99"/>
        </Node>
      </Node>
    </BinaryTree>
    <BinaryTree type="DecisionTree" boostWeight="1.0000000000000000e+00" itree="1364">
      <Node pos="s" depth="0" NCoef="0" IVar="25" Cut="1.4391269683837891e+00" cType="1" res="4.8514993977732956e-04" rms="2.2739423811435699e-01" purity="5.0234562158584595e-01" nType="0">
        <Node pos="l" depth="1" NCoef="0" IVar="27" Cut="1.1419483423233032e+00" cType="1" res="-2.7470560744404793e-03" rms="2.2375257313251495e-01" purity="5.0795751810073853e-01" nType="0">
          <Node pos="l" depth="2" NCoef="0" IVar="-1" Cut="0.0000000000000000e+00" cType="1" res="-2.0114812999963760e-02" rms="7.7365852892398834e-02" purity="2.0709106326103210e-01" nType="-99"/>
          <Node pos="r" depth="2" NCoef="0" IVar="-1" Cut="0.0000000000000000e+00" cType="1" res="1.4119306579232216e-03" rms="2.3857669532299042e-01" purity="5.5696880817413330e-01" nType="-99"/>
        </Node>
        <Node pos="r" depth="1" NCoef="0" IVar="-1" Cut="0.0000000000000000e+00" cType="1" res="4.9282144755125046e-02" rms="3.0870127677917480e-01" purity="3.1055843830108643e-01" nType="-99"/>
      </Node>
    </BinaryTree>
    <BinaryTree type="DecisionTree" boostWeight="1.0000000000000000e+00" itree="1365">
      <Node pos="s" depth="0" NCoef="0" IVar="31" Cut="2.6936302185058594e+00" cType="1" res="-1.5327648725360632e-03" rms="2.2106435894966125e-01" purity="4.9512943625450134e-01" nType="0">
        <Node pos="l" depth="1" NCoef="0" IVar="81" Cut="-1.8090372085571289e+00" cType="1" res="-4.1131578385829926e-02" rms="8.1262223422527313e-02" purity="1.9651049375534058e-01" nType="0">
          <Node pos="l" depth="2" NCoef="0" IVar="-1" Cut="0.0000000000000000e+00" cType="1" res="-7.5817102333530784e-04" rms="2.3282781243324280e-01" purity="3.1329637765884399e-01" nType="-99"/>
          <Node pos="r" depth="2" NCoef="0" IVar="-1" Cut="0.0000000000000000e+00" cType="1" res="-4.7052603214979172e-02" rms="-nan" purity="6.1442825943231583e-02" nType="-99"/>
        </Node>
        <Node pos="r" depth="1" NCoef="0" IVar="19" Cut="1.4708737134933472e+00" cType="1" res="6.6946879960596561e-03" rms="2.3928551375865936e-01" purity="5.5717355012893677e-01" nType="0">
          <Node pos="l" depth="2" NCoef="0" IVar="-1" Cut="0.0000000000000000e+00" cType="1" res="8.1389036495238543e-04" rms="2.3037618398666382e-01" purity="5.6358343362808228e-01" nType="-99"/>
          <Node pos="r" depth="2" NCoef="0" IVar="-1" Cut="0.0000000000000000e+00" cType="1" res="4.0087994188070297e-02" rms="3.8129022717475891e-01" purity="4.0392279624938965e-01" nType="-99"/>
        </Node>
      </Node>
    </BinaryTree>
    <BinaryTree type="DecisionTree" boostWeight="1.0000000000000000e+00" itree="1366">
      <Node pos="s" depth="0" NCoef="0" IVar="81" Cut="-5.8869385719299316e-01" cType="1" res="-2.2443255875259638e-03" rms="2.2855985164642334e-01" purity="4.9868887662887573e-01" nType="0">
        <Node pos="l" depth="1" NCoef="0" IVar="17" Cut="-1.4150810241699219e+00" cType="1" res="1.7273080302402377e-03" rms="2.3718318343162537e-01" purity="5.1699799299240112e-01" nType="0">
          <Node pos="l" depth="2" NCoef="0" IVar="-1" Cut="0.0000000000000000e+00" cType="1" res="1.1311962455511093e-01" rms="2.4650704860687256e-01" purity="9.3436457216739655e-02" nType="-99"/>
          <Node pos="r" depth="2" NCoef="0" IVar="-1" Cut="0.0000000000000000e+00" cType="1" res="-1.1070666369050741e-03" rms="2.3574799299240112e-01" purity="5.4818266630172729e-01" nType="-99"/>
        </Node>
        <Node pos="r" depth="1" NCoef="0" IVar="81" Cut="-4.9685505032539368e-01" cType="1" res="-4.5151371508836746e-02" rms="-nan" purity="1.0924500972032547e-01" nType="-99"/>
      </Node>
    </BinaryTree>
    <BinaryTree type="DecisionTree" boostWeight="1.0000000000000000e+00" itree="1367">
      <Node pos="s" depth="0" NCoef="0" IVar="13" Cut="-1.4926202297210693e+00" cType="1" res="-3.1164709944278002e-03" rms="2.3064436018466949e-01" purity="4.9651736021041870e-01" nType="0">
        <Node pos="l" depth="1" NCoef="0" IVar="-1" Cut="0.0000000000000000e+00" cType="1" res="4.1326899081468582e-02" rms="2.9534822702407837e-01" purity="3.6970204114913940e-01" nType="-99"/>
        <Node pos="r" depth="1" NCoef="0" IVar="84" Cut="1.1816740036010742e-01" cType="1" res="-6.4655379392206669e-03" rms="2.2739829123020172e-01" purity="5.0076919794082642e-01" nType="0">
          <Node pos="l" depth="2" NCoef="0" IVar="-1" Cut="0.0000000000000000e+00" cType="1" res="9.1444473946467042e-04" rms="2.4386064708232880e-01" purity="5.2177101373672485e-01" nType="-99"/>
          <Node pos="r" depth="2" NCoef="0" IVar="-1" Cut="0.0000000000000000e+00" cType="1" res="-1.3319251127541065e-02" rms="1.6529129445552826e-01" purity="4.3736442923545837e-01" nType="-99"/>
        </Node>
      </Node>
    </BinaryTree>
    <BinaryTree type="DecisionTree" boostWeight="1.0000000000000000e+00" itree="1368">
      <Node pos="s" depth="0" NCoef="0" IVar="38" Cut="7.8274154663085938e-01" cType="1" res="7.2478468064218760e-04" rms="2.2483222186565399e-01" purity="5.0075590610504150e-01" nType="0">
        <Node pos="l" depth="1" NCoef="0" IVar="80" Cut="-1.4925903081893921e+00" cType="1" res="-2.8013566508889198e-02" rms="9.5200970768928528e-02" purity="2.4938347935676575e-01" nType="0">
          <Node pos="l" depth="2" NCoef="0" IVar="-1" Cut="0.0000000000000000e+00" cType="1" res="1.0961816646158695e-02" rms="2.6744511723518372e-01" purity="4.4946959614753723e-01" nType="-99"/>
          <Node pos="r" depth="2" NCoef="0" IVar="-1" Cut="0.0000000000000000e+00" cType="1" res="-2.9698325321078300e-02" rms="-nan" purity="1.3270398974418640e-01" nType="-99"/>
        </Node>
        <Node pos="r" depth="1" NCoef="0" IVar="38" Cut="1.1162291765213013e+00" cType="1" res="1.2450298294425011e-02" rms="2.5884717702865601e-01" purity="6.0331821441650391e-01" nType="0">
          <Node pos="l" depth="2" NCoef="0" IVar="-1" Cut="0.0000000000000000e+00" cType="1" res="4.5137841254472733e-02" rms="3.4808161854743958e-01" purity="4.7766155004501343e-01" nType="-99"/>
          <Node pos="r" depth="2" NCoef="0" IVar="-1" Cut="0.0000000000000000e+00" cType="1" res="2.1828704047948122e-03" rms="2.5179502367973328e-01" purity="6.0988754034042358e-01" nType="-99"/>
        </Node>
      </Node>
    </BinaryTree>
    <BinaryTree type="DecisionTree" boostWeight="1.0000000000000000e+00" itree="1369">
      <Node pos="s" depth="0" NCoef="0" IVar="13" Cut="-1.4540321826934814e+00" cType="1" res="-4.1302284225821495e-03" rms="2.1843974292278290e-01" purity="4.9595287442207336e-01" nType="0">
        <Node pos="l" depth="1" NCoef="0" IVar="62" Cut="-8.4445215761661530e-02" cType="1" res="-5.0266988575458527e-02" rms="-nan" purity="1.6790893673896790e-01" nType="-99"/>
        <Node pos="r" depth="1" NCoef="0" IVar="82" Cut="1.2067115306854248e+00" cType="1" res="7.1536196628585458e-04" rms="2.3006680607795715e-01" purity="5.1473993062973022e-01" nType="0">
          <Node pos="l" depth="2" NCoef="0" IVar="-1" Cut="0.0000000000000000e+00" cType="1" res="-2.2098093759268522e-03" rms="2.2790625691413879e-01" purity="5.4005235433578491e-01" nType="-99"/>
          <Node pos="r" depth="2" NCoef="0" IVar="-1" Cut="0.0000000000000000e+00" cType="1" res="1.3890085741877556e-02" rms="2.3815780878067017e-01" purity="3.7816128134727478e-01" nType="-99"/>
        </Node>
      </Node>
    </BinaryTree>
    <BinaryTree type="DecisionTree" boostWeight="1.0000000000000000e+00" itree="1370">
      <Node pos="s" depth="0" NCoef="0" IVar="5" Cut="4.2639714479446411e-01" cType="1" res="-6.3269785605370998e-03" rms="2.1589893102645874e-01" purity="4.9384644627571106e-01" nType="0">
        <Node pos="l" depth="1" NCoef="0" IVar="36" Cut="-9.5113825798034668e-01" cType="1" res="7.4667291482910514e-04" rms="2.2812145948410034e-01" purity="5.2636355161666870e-01" nType="0">
          <Node pos="l" depth="2" NCoef="0" IVar="-1" Cut="0.0000000000000000e+00" cType="1" res="-2.3164808750152588e-02" rms="-nan" purity="5.4773926734924316e-02" nType="-99"/>
          <Node pos="r" depth="2" NCoef="0" IVar="-1" Cut="0.0000000000000000e+00" cType="1" res="3.0398566741496325e-03" rms="2.5131055712699890e-01" purity="6.1589211225509644e-01" nType="-99"/>
        </Node>
        <Node pos="r" depth="1" NCoef="0" IVar="32" Cut="1.2345679104328156e-02" cType="1" res="-5.6791797280311584e-02" rms="7.0647276937961578e-02" purity="2.6186305284500122e-01" nType="0">
          <Node pos="l" depth="2" NCoef="0" IVar="-1" Cut="0.0000000000000000e+00" cType="1" res="-5.5221971124410629e-02" rms="-nan" purity="8.9196488261222839e-02" nType="-99"/>
          <Node pos="r" depth="2" NCoef="0" IVar="-1" Cut="0.0000000000000000e+00" cType="1" res="-1.1961698532104492e-02" rms="1.6031980514526367e-01" purity="3.0573818087577820e-01" nType="-99"/>
        </Node>
      </Node>
    </BinaryTree>
    <BinaryTree type="DecisionTree" boostWeight="1.0000000000000000e+00" itree="1371">
      <Node pos="s" depth="0" NCoef="0" IVar="48" Cut="1.7682130336761475e+00" cType="1" res="6.7122969776391983e-03" rms="2.4389980733394623e-01" purity="4.9549558758735657e-01" nType="0">
        <Node pos="l" depth="1" NCoef="0" IVar="55" Cut="1.4366005659103394e+00" cType="1" res="2.8832551091909409e-02" rms="2.7745458483695984e-01" purity="3.5675755143165588e-01" nType="0">
          <Node pos="l" depth="2" NCoef="0" IVar="-1" Cut="0.0000000000000000e+00" cType="1" res="2.5848796591162682e-02" rms="2.9029253125190735e-01" purity="2.3992855846881866e-01" nType="-99"/>
          <Node pos="r" depth="2" NCoef="0" IVar="-1" Cut="0.0000000000000000e+00" cType="1" res="-2.2564553655683994e-03" rms="2.5630512833595276e-01" purity="5.0034093856811523e-01" nType="-99"/>
        </Node>
        <Node pos="r" depth="1" NCoef="0" IVar="81" Cut="-2.4002943038940430e+00" cType="1" res="-8.6744502186775208e-03" rms="2.1619738638401031e-01" purity="5.9200108051300049e-01" nType="0">
          <Node pos="l" depth="2" NCoef="0" IVar="-1" Cut="0.0000000000000000e+00" cType="1" res="1.2010242789983749e-02" rms="2.7460882067680359e-01" purity="7.4299210309982300e-01" nType="-99"/>
          <Node pos="r" depth="2" NCoef="0" IVar="-1" Cut="0.0000000000000000e+00" cType="1" res="-8.1393318250775337e-03" rms="1.9007366895675659e-01" purity="5.4009068012237549e-01" nType="-99"/>
        </Node>
      </Node>
    </BinaryTree>
    <BinaryTree type="DecisionTree" boostWeight="1.0000000000000000e+00" itree="1372">
      <Node pos="s" depth="0" NCoef="0" IVar="46" Cut="1.2887247800827026e+00" cType="1" res="3.2252650707960129e-03" rms="2.4038882553577423e-01" purity="5.0369948148727417e-01" nType="0">
        <Node pos="l" depth="1" NCoef="0" IVar="63" Cut="1.8273489177227020e-01" cType="1" res="7.1724755689501762e-03" rms="2.4962587654590607e-01" purity="5.1988542079925537e-01" nType="0">
          <Node pos="l" depth="2" NCoef="0" IVar="-1" Cut="0.0000000000000000e+00" cType="1" res="-7.0728699211031199e-04" rms="2.3954367637634277e-01" purity="5.2667868137359619e-01" nType="-99"/>
          <Node pos="r" depth="2" NCoef="0" IVar="-1" Cut="0.0000000000000000e+00" cType="1" res="1.7046935856342316e-02" rms="2.8605654835700989e-01" purity="4.9035680294036865e-01" nType="-99"/>
        </Node>
        <Node pos="r" depth="1" NCoef="0" IVar="42" Cut="5.4542225552722812e-04" cType="1" res="-4.0886621922254562e-02" rms="-nan" purity="1.6438724100589752e-01" nType="-99"/>
      </Node>
    </BinaryTree>
    <BinaryTree type="DecisionTree" boostWeight="1.0000000000000000e+00" itree="1373">
      <Node pos="s" depth="0" NCoef="0" IVar="36" Cut="5.9622657299041748e-01" cType="1" res="-9.8839085549116135e-03" rms="2.1709038317203522e-01" purity="4.9459251761436462e-01" nType="0">
        <Node pos="l" depth="1" NCoef="0" IVar="81" Cut="-2.0263857841491699e+00" cType="1" res="-2.2026641294360161e-02" rms="-nan" purity="5.9051141142845154e-02" nType="-99"/>
        <Node pos="r" depth="1" NCoef="0" IVar="55" Cut="-1.3769526481628418e+00" cType="1" res="-1.7380744975525886e-04" rms="2.5062301754951477e-01" purity="6.2042748928070068e-01" nType="0">
          <Node pos="l" depth="2" NCoef="0" IVar="-1" Cut="0.0000000000000000e+00" cType="1" res="-2.2000273689627647e-02" rms="-nan" purity="3.8106760382652283e-01" nType="-99"/>
          <Node pos="r" depth="2" NCoef="0" IVar="-1" Cut="0.0000000000000000e+00" cType="1" res="2.1904106251895428e-03" rms="2.6568874716758728e-01" purity="6.4785140752792358e-01" nType="-99"/>
        </Node>
      </Node>
    </BinaryTree>
    <BinaryTree type="DecisionTree" boostWeight="1.0000000000000000e+00" itree="1374">
      <Node pos="s" depth="0" NCoef="0" IVar="3" Cut="5.3611011505126953e+00" cType="1" res="2.9697259888052940e-03" rms="2.3278978466987610e-01" purity="5.0709247589111328e-01" nType="0">
        <Node pos="l" depth="1" NCoef="0" IVar="18" Cut="-1.4901704788208008e+00" cType="1" res="7.2723422199487686e-03" rms="2.4413460493087769e-01" purity="5.2445304393768311e-01" nType="0">
          <Node pos="l" depth="2" NCoef="0" IVar="-1" Cut="0.0000000000000000e+00" cType="1" res="-1.1329355183988810e-03" rms="2.3255844414234161e-01" purity="5.6861418485641479e-01" nType="-99"/>
          <Node pos="r" depth="2" NCoef="0" IVar="-1" Cut="0.0000000000000000e+00" cType="1" res="1.4275504276156425e-02" rms="2.7521541714668274e-01" purity="3.8429936766624451e-01" nType="-99"/>
        </Node>
        <Node pos="r" depth="1" NCoef="0" IVar="34" Cut="-1.3775440454483032e+00" cType="1" res="-3.0292289331555367e-02" rms="-nan" purity="1.4953510463237762e-01" nType="-99"/>
      </Node>
    </BinaryTree>
    <BinaryTree type="DecisionTree" boostWeight="1.0000000000000000e+00" itree="1375">
      <Node pos="s" depth="0" NCoef="0" IVar="0" Cut="1.5171141624450684e+00" cType="1" res="5.3522679954767227e-03" rms="2.3549385368824005e-01" purity="5.0024032592773438e-01" nType="0">
        <Node pos="l" depth="1" NCoef="0" IVar="43" Cut="1.2345679104328156e-02" cType="1" res="2.8414728585630655e-03" rms="2.3057794570922852e-01" purity="5.0425231456756592e-01" nType="0">
          <Node pos="l" depth="2" NCoef="0" IVar="-1" Cut="0.0000000000000000e+00" cType="1" res="2.9517903923988342e-02" rms="3.2498717308044434e-01" purity="3.2286208868026733e-01" nType="-99"/>
          <Node pos="r" depth="2" NCoef="0" IVar="-1" Cut="0.0000000000000000e+00" cType="1" res="-2.8439276502467692e-04" rms="2.2475974261760712e-01" purity="5.1237571239471436e-01" nType="-99"/>
        </Node>
        <Node pos="r" depth="1" NCoef="0" IVar="-1" Cut="0.0000000000000000e+00" cType="1" res="4.9297854304313660e-02" rms="3.7374073266983032e-01" purity="3.3314919471740723e-01" nType="-99"/>
      </Node>
    </BinaryTree>
    <BinaryTree type="DecisionTree" boostWeight="1.0000000000000000e+00" itree="1376">
      <Node pos="s" depth="0" NCoef="0" IVar="42" Cut="-2.8144541382789612e-01" cType="1" res="2.9282048344612122e-03" rms="2.2949357330799103e-01" purity="5.0303131341934204e-01" nType="0">
        <Node pos="l" depth="1" NCoef="0" IVar="56" Cut="-5.6505101919174194e-01" cType="1" res="-3.6096837371587753e-02" rms="1.6604785621166229e-01" purity="4.7850906848907471e-01" nType="0">
          <Node pos="l" depth="2" NCoef="0" IVar="-1" Cut="0.0000000000000000e+00" cType="1" res="-2.1806473378092051e-03" rms="2.3029997944831848e-01" purity="5.1907551288604736e-01" nType="-99"/>
          <Node pos="r" depth="2" NCoef="0" IVar="-1" Cut="0.0000000000000000e+00" cType="1" res="-3.5472318530082703e-02" rms="-nan" purity="3.9144456386566162e-01" nType="-99"/>
        </Node>
        <Node pos="r" depth="1" NCoef="0" IVar="37" Cut="-8.7596952915191650e-01" cType="1" res="1.0197269730269909e-02" rms="2.3875766992568970e-01" purity="5.0759899616241455e-01" nType="0">
          <Node pos="l" depth="2" NCoef="0" IVar="-1" Cut="0.0000000000000000e+00" cType="1" res="-4.6640704385936260e-03" rms="2.1417859196662903e-01" purity="4.8474076390266418e-01" nType="-99"/>
          <Node pos="r" depth="2" NCoef="0" IVar="-1" Cut="0.0000000000000000e+00" cType="1" res="9.9014304578304291e-03" rms="2.5371402502059937e-01" purity="5.2399301528930664e-01" nType="-99"/>
        </Node>
      </Node>
    </BinaryTree>
    <BinaryTree type="DecisionTree" boostWeight="1.0000000000000000e+00" itree="1377">
      <Node pos="s" depth="0" NCoef="0" IVar="27" Cut="1.1005893945693970e+00" cType="1" res="8.3861751481890678e-03" rms="2.3964396119117737e-01" purity="5.0031191110610962e-01" nType="0">
        <Node pos="l" depth="1" NCoef="0" IVar="40" Cut="8.0484622716903687e-01" cType="1" res="-3.5596054047346115e-02" rms="8.5467211902141571e-02" purity="2.1388554573059082e-01" nType="0">
          <Node pos="l" depth="2" NCoef="0" IVar="-1" Cut="0.0000000000000000e+00" cType="1" res="5.1400582306087017e-03" rms="2.0558747649192810e-01" purity="3.3363220095634460e-01" nType="-99"/>
          <Node pos="r" depth="2" NCoef="0" IVar="-1" Cut="0.0000000000000000e+00" cType="1" res="-5.3802505135536194e-02" rms="-nan" purity="8.3295330405235291e-02" nType="-99"/>
        </Node>
        <Node pos="r" depth="1" NCoef="0" IVar="1" Cut="2.9991030693054199e+00" cType="1" res="1.5115818008780479e-02" rms="2.5447481870651245e-01" purity="5.4413753747940063e-01" nType="0">
          <Node pos="l" depth="2" NCoef="0" IVar="-1" Cut="0.0000000000000000e+00" cType="1" res="1.1503532528877258e-02" rms="2.7291098237037659e-01" purity="4.8844414949417114e-01" nType="-99"/>
          <Node pos="r" depth="2" NCoef="0" IVar="-1" Cut="0.0000000000000000e+00" cType="1" res="-3.2147576566785574e-03" rms="2.2611837089061737e-01" purity="6.1661672592163086e-01" nType="-99"/>
        </Node>
      </Node>
    </BinaryTree>
    <BinaryTree type="DecisionTree" boostWeight="1.0000000000000000e+00" itree="1378">
      <Node pos="s" depth="0" NCoef="0" IVar="58" Cut="-1.3390408754348755e+00" cType="1" res="4.1747367940843105e-03" rms="2.3955950140953064e-01" purity="4.9867528676986694e-01" nType="0">
        <Node pos="l" depth="1" NCoef="0" IVar="5" Cut="4.4636905193328857e-02" cType="1" res="4.2155358940362930e-02" rms="2.8547418117523193e-01" purity="4.0185621380805969e-01" nType="0">
          <Node pos="l" depth="2" NCoef="0" IVar="-1" Cut="0.0000000000000000e+00" cType="1" res="4.9846459180116653e-02" rms="3.4081599116325378e-01" purity="3.7213522195816040e-01" nType="-99"/>
          <Node pos="r" depth="2" NCoef="0" IVar="-1" Cut="0.0000000000000000e+00" cType="1" res="6.2479823827743530e-03" rms="2.5742900371551514e-01" purity="4.1286072134971619e-01" nType="-99"/>
        </Node>
        <Node pos="r" depth="1" NCoef="0" IVar="73" Cut="2.2482986450195312e+00" cType="1" res="-4.3235593475401402e-03" rms="2.2715589404106140e-01" purity="5.2033889293670654e-01" nType="0">
          <Node pos="l" depth="2" NCoef="0" IVar="-1" Cut="0.0000000000000000e+00" cType="1" res="-3.8084369152784348e-02" rms="-nan" purity="2.1150687336921692e-01" nType="-99"/>
          <Node pos="r" depth="2" NCoef="0" IVar="-1" Cut="0.0000000000000000e+00" cType="1" res="1.4421691594179720e-04" rms="2.3561689257621765e-01" purity="5.3643655776977539e-01" nType="-99"/>
        </Node>
      </Node>
    </BinaryTree>
    <BinaryTree type="DecisionTree" boostWeight="1.0000000000000000e+00" itree="1379">
      <Node pos="s" depth="0" NCoef="0" IVar="39" Cut="-7.2447186708450317e-01" cType="1" res="-3.1015102285891771e-04" rms="2.2662037611007690e-01" purity="4.9705058336257935e-01" nType="0">
        <Node pos="l" depth="1" NCoef="0" IVar="82" Cut="1.4900795221328735e+00" cType="1" res="-5.6493827141821384e-03" rms="2.1861504018306732e-01" purity="5.2033656835556030e-01" nType="0">
          <Node pos="l" depth="2" NCoef="0" IVar="-1" Cut="0.0000000000000000e+00" cType="1" res="-7.3099182918667793e-04" rms="2.2831194102764130e-01" purity="5.3763306140899658e-01" nType="-99"/>
          <Node pos="r" depth="2" NCoef="0" IVar="-1" Cut="0.0000000000000000e+00" cType="1" res="-3.5987310111522675e-02" rms="-nan" purity="1.5801428258419037e-01" nType="-99"/>
        </Node>
        <Node pos="r" depth="1" NCoef="0" IVar="25" Cut="9.6840757131576538e-01" cType="1" res="5.9818208217620850e-02" rms="2.9590481519699097e-01" purity="2.3481269180774689e-01" nType="0">
          <Node pos="l" depth="2" NCoef="0" IVar="-1" Cut="0.0000000000000000e+00" cType="1" res="-9.4960881397128105e-03" rms="1.4639286696910858e-01" purity="1.7536127567291260e-01" nType="-99"/>
          <Node pos="r" depth="2" NCoef="0" IVar="-1" Cut="0.0000000000000000e+00" cType="1" res="8.0101080238819122e-02" rms="3.6453434824943542e-01" purity="2.8534698486328125e-01" nType="-99"/>
        </Node>
      </Node>
    </BinaryTree>
    <BinaryTree type="DecisionTree" boostWeight="1.0000000000000000e+00" itree="1380">
      <Node pos="s" depth="0" NCoef="0" IVar="77" Cut="-1.3379188776016235e+00" cType="1" res="1.7045976128429174e-03" rms="2.2573928534984589e-01" purity="5.0222951173782349e-01" nType="0">
        <Node pos="l" depth="1" NCoef="0" IVar="0" Cut="7.1130776405334473e-01" cType="1" res="-9.6960337832570076e-03" rms="2.1618512272834778e-01" purity="5.5678904056549072e-01" nType="0">
          <Node pos="l" depth="2" NCoef="0" IVar="-1" Cut="0.0000000000000000e+00" cType="1" res="6.4570736140012741e-03" rms="2.6230412721633911e-01" purity="6.6288775205612183e-01" nType="-99"/>
          <Node pos="r" depth="2" NCoef="0" IVar="-1" Cut="0.0000000000000000e+00" cType="1" res="-1.1276954784989357e-02" rms="1.6843827068805695e-01" purity="4.7379595041275024e-01" nType="-99"/>
        </Node>
        <Node pos="r" depth="1" NCoef="0" IVar="41" Cut="3.6428008228540421e-02" cType="1" res="3.1026687473058701e-02" rms="2.4621854722499847e-01" purity="3.6190393567085266e-01" nType="0">
          <Node pos="l" depth="2" NCoef="0" IVar="-1" Cut="0.0000000000000000e+00" cType="1" res="-4.1642542928457260e-03" rms="1.7072775959968567e-01" purity="3.6382782459259033e-01" nType="-99"/>
          <Node pos="r" depth="2" NCoef="0" IVar="-1" Cut="0.0000000000000000e+00" cType="1" res="3.5008963197469711e-02" rms="3.0564427375793457e-01" purity="3.5962986946105957e-01" nType="-99"/>
        </Node>
      </Node>
    </BinaryTree>
    <BinaryTree type="DecisionTree" boostWeight="1.0000000000000000e+00" itree="1381">
      <Node pos="s" depth="0" NCoef="0" IVar="46" Cut="1.6688745021820068e+00" cType="1" res="-7.2571495547890663e-04" rms="2.2703061997890472e-01" purity="4.9832335114479065e-01" nType="0">
        <Node pos="l" depth="1" NCoef="0" IVar="81" Cut="-2.3880581855773926e+00" cType="1" res="-3.9514014497399330e-03" rms="2.2090598940849304e-01" purity="5.0250464677810669e-01" nType="0">
          <Node pos="l" depth="2" NCoef="0" IVar="-1" Cut="0.0000000000000000e+00" cType="1" res="-1.3495483435690403e-02" rms="1.9612200558185577e-01" purity="6.1262935400009155e-01" nType="-99"/>
          <Node pos="r" depth="2" NCoef="0" IVar="-1" Cut="0.0000000000000000e+00" cType="1" res="2.0113494247198105e-03" rms="2.2694900631904602e-01" purity="4.6964871883392334e-01" nType="-99"/>
        </Node>
        <Node pos="r" depth="1" NCoef="0" IVar="-1" Cut="0.0000000000000000e+00" cType="1" res="8.4672302007675171e-02" rms="3.9672949910163879e-01" purity="3.0088725686073303e-01" nType="-99"/>
      </Node>
    </BinaryTree>
    <BinaryTree type="DecisionTree" boostWeight="1.0000000000000000e+00" itree="1382">
      <Node pos="s" depth="0" NCoef="0" IVar="34" Cut="-2.7981990948319435e-02" cType="1" res="7.7090407721698284e-03" rms="2.3740322887897491e-01" purity="5.0615161657333374e-01" nType="0">
        <Node pos="l" depth="1" NCoef="0" IVar="57" Cut="1.3663117885589600e+00" cType="1" res="3.3897381275892258e-02" rms="2.5001007318496704e-01" purity="2.9477417469024658e-01" nType="0">
          <Node pos="l" depth="2" NCoef="0" IVar="-1" Cut="0.0000000000000000e+00" cType="1" res="-8.0843819305300713e-03" rms="8.6293250322341919e-02" purity="8.6442723870277405e-02" nType="-99"/>
          <Node pos="r" depth="2" NCoef="0" IVar="-1" Cut="0.0000000000000000e+00" cType="1" res="2.2878510877490044e-02" rms="3.2604730129241943e-01" purity="4.7414502501487732e-01" nType="-99"/>
        </Node>
        <Node pos="r" depth="1" NCoef="0" IVar="58" Cut="-1.3771160840988159e+00" cType="1" res="-3.0897138640284538e-04" rms="2.3281903564929962e-01" purity="5.7086849212646484e-01" nType="0">
          <Node pos="l" depth="2" NCoef="0" IVar="-1" Cut="0.0000000000000000e+00" cType="1" res="-1.5492836013436317e-02" rms="1.2332906574010849e-01" purity="3.5895013809204102e-01" nType="-99"/>
          <Node pos="r" depth="2" NCoef="0" IVar="-1" Cut="0.0000000000000000e+00" cType="1" res="2.0220268052071333e-03" rms="2.4464608728885651e-01" purity="6.0300070047378540e-01" nType="-99"/>
        </Node>
      </Node>
    </BinaryTree>
    <BinaryTree type="DecisionTree" boostWeight="1.0000000000000000e+00" itree="1383">
      <Node pos="s" depth="0" NCoef="0" IVar="73" Cut="2.6862339973449707e+00" cType="1" res="-6.9637484848499298e-03" rms="2.2501075267791748e-01" purity="4.9915832281112671e-01" nType="0">
        <Node pos="l" depth="1" NCoef="0" IVar="20" Cut="3.0002379417419434e-01" cType="1" res="-2.4680210277438164e-02" rms="1.8221859633922577e-01" purity="3.7647235393524170e-01" nType="0">
          <Node pos="l" depth="2" NCoef="0" IVar="-1" Cut="0.0000000000000000e+00" cType="1" res="-1.2608799152076244e-02" rms="1.6390062868595123e-01" purity="3.7643009424209595e-01" nType="-99"/>
          <Node pos="r" depth="2" NCoef="0" IVar="-1" Cut="0.0000000000000000e+00" cType="1" res="4.1531305760145187e-02" rms="3.4396013617515564e-01" purity="3.7716051936149597e-01" nType="-99"/>
        </Node>
        <Node pos="r" depth="1" NCoef="0" IVar="39" Cut="-1.8753967285156250e+00" cType="1" res="4.6878880821168423e-03" rms="2.4849225580692291e-01" purity="5.7984554767608643e-01" nType="0">
          <Node pos="l" depth="2" NCoef="0" IVar="-1" Cut="0.0000000000000000e+00" cType="1" res="-6.4386059530079365e-03" rms="2.2121848165988922e-01" purity="6.7240500450134277e-01" nType="-99"/>
          <Node pos="r" depth="2" NCoef="0" IVar="-1" Cut="0.0000000000000000e+00" cType="1" res="1.1337772011756897e-02" rms="2.7620640397071838e-01" purity="4.6568220853805542e-01" nType="-99"/>
        </Node>
      </Node>
    </BinaryTree>
    <BinaryTree type="DecisionTree" boostWeight="1.0000000000000000e+00" itree="1384">
      <Node pos="s" depth="0" NCoef="0" IVar="40" Cut="2.3666532337665558e-01" cType="1" res="-1.3971000444144011e-03" rms="2.2497946023941040e-01" purity="5.0194793939590454e-01" nType="0">
        <Node pos="l" depth="1" NCoef="0" IVar="57" Cut="1.3288420438766479e+00" cType="1" res="5.0314631313085556e-02" rms="2.9635599255561829e-01" purity="6.2068033218383789e-01" nType="0">
          <Node pos="l" depth="2" NCoef="0" IVar="-1" Cut="0.0000000000000000e+00" cType="1" res="5.8286048471927643e-02" rms="3.7009423971176147e-01" purity="2.9262366890907288e-01" nType="-99"/>
          <Node pos="r" depth="2" NCoef="0" IVar="-1" Cut="0.0000000000000000e+00" cType="1" res="3.7463649641722441e-03" rms="2.5108906626701355e-01" purity="7.5012397766113281e-01" nType="-99"/>
        </Node>
        <Node pos="r" depth="1" NCoef="0" IVar="15" Cut="-7.5809526443481445e-01" cType="1" res="-7.3191043920814991e-03" rms="2.1450653672218323e-01" purity="4.8835074901580811e-01" nType="0">
          <Node pos="l" depth="2" NCoef="0" IVar="-1" Cut="0.0000000000000000e+00" cType="1" res="-3.0008615925908089e-02" rms="-nan" purity="1.7278039455413818e-01" nType="-99"/>
          <Node pos="r" depth="2" NCoef="0" IVar="-1" Cut="0.0000000000000000e+00" cType="1" res="1.0617349762469530e-03" rms="2.4715118110179901e-01" purity="5.8158636093139648e-01" nType="-99"/>
        </Node>
      </Node>
    </BinaryTree>
    <BinaryTree type="DecisionTree" boostWeight="1.0000000000000000e+00" itree="1385">
      <Node pos="s" depth="0" NCoef="0" IVar="41" Cut="3.5951793193817139e-02" cType="1" res="3.8560263346880674e-03" rms="2.3692911863327026e-01" purity="5.0085508823394775e-01" nType="0">
        <Node pos="l" depth="1" NCoef="0" IVar="6" Cut="1.5368759632110596e+00" cType="1" res="1.7071794718503952e-02" rms="2.5365900993347168e-01" purity="5.6144738197326660e-01" nType="0">
          <Node pos="l" depth="2" NCoef="0" IVar="-1" Cut="0.0000000000000000e+00" cType="1" res="2.7541028335690498e-02" rms="3.2607364654541016e-01" purity="3.7665995955467224e-01" nType="-99"/>
          <Node pos="r" depth="2" NCoef="0" IVar="-1" Cut="0.0000000000000000e+00" cType="1" res="2.1945626940578222e-03" rms="2.3553749918937683e-01" purity="5.9715461730957031e-01" nType="-99"/>
        </Node>
        <Node pos="r" depth="1" NCoef="0" IVar="5" Cut="-1.6359288245439529e-02" cType="1" res="-1.6168823465704918e-02" rms="2.0744538307189941e-01" purity="4.0904411673545837e-01" nType="0">
          <Node pos="l" depth="2" NCoef="0" IVar="-1" Cut="0.0000000000000000e+00" cType="1" res="2.2547528147697449e-02" rms="2.4176748096942902e-01" purity="3.3155661821365356e-01" nType="-99"/>
          <Node pos="r" depth="2" NCoef="0" IVar="-1" Cut="0.0000000000000000e+00" cType="1" res="-1.0737557895481586e-02" rms="1.9853237271308899e-01" purity="4.2202872037887573e-01" nType="-99"/>
        </Node>
      </Node>
    </BinaryTree>
    <BinaryTree type="DecisionTree" boostWeight="1.0000000000000000e+00" itree="1386">
      <Node pos="s" depth="0" NCoef="0" IVar="14" Cut="1.4056485891342163e+00" cType="1" res="1.2898151762783527e-03" rms="2.3386175930500031e-01" purity="4.9644359946250916e-01" nType="0">
        <Node pos="l" depth="1" NCoef="0" IVar="27" Cut="6.9226908683776855e-01" cType="1" res="4.2863655835390091e-03" rms="2.3923721909523010e-01" purity="5.0386744737625122e-01" nType="0">
          <Node pos="l" depth="2" NCoef="0" IVar="-1" Cut="0.0000000000000000e+00" cType="1" res="4.4840823858976364e-02" rms="3.5300326347351074e-01" purity="2.4147495627403259e-01" nType="-99"/>
          <Node pos="r" depth="2" NCoef="0" IVar="-1" Cut="0.0000000000000000e+00" cType="1" res="5.8341381372883916e-04" rms="2.3476077616214752e-01" purity="5.1106327772140503e-01" nType="-99"/>
        </Node>
        <Node pos="r" depth="1" NCoef="0" IVar="-1" Cut="0.0000000000000000e+00" cType="1" res="-4.7330472618341446e-02" rms="-nan" purity="1.6189494729042053e-01" nType="-99"/>
      </Node>
    </BinaryTree>
    <BinaryTree type="DecisionTree" boostWeight="1.0000000000000000e+00" itree="1387">
      <Node pos="s" depth="0" NCoef="0" IVar="52" Cut="2.7166392803192139e+00" cType="1" res="-4.8112687654793262e-03" rms="2.1940676867961884e-01" purity="4.9335733056068420e-01" nType="0">
        <Node pos="l" depth="1" NCoef="0" IVar="35" Cut="-4.4996502995491028e-01" cType="1" res="-1.9730512052774429e-02" rms="-nan" purity="2.0048283040523529e-01" nType="-99"/>
        <Node pos="r" depth="1" NCoef="0" IVar="84" Cut="-4.0377652645111084e-01" cType="1" res="5.0392416305840015e-03" rms="2.4397867918014526e-01" purity="5.5840325355529785e-01" nType="0">
          <Node pos="l" depth="2" NCoef="0" IVar="-1" Cut="0.0000000000000000e+00" cType="1" res="2.3115510120987892e-02" rms="3.0790999531745911e-01" purity="6.1289060115814209e-01" nType="-99"/>
          <Node pos="r" depth="2" NCoef="0" IVar="-1" Cut="0.0000000000000000e+00" cType="1" res="-5.2999122999608517e-04" rms="2.3486101627349854e-01" purity="5.5229550600051880e-01" nType="-99"/>
        </Node>
      </Node>
    </BinaryTree>
    <BinaryTree type="DecisionTree" boostWeight="1.0000000000000000e+00" itree="1388">
      <Node pos="s" depth="0" NCoef="0" IVar="3" Cut="5.3370289802551270e+00" cType="1" res="-7.9219453036785126e-03" rms="2.1566794812679291e-01" purity="4.8578122258186340e-01" nType="0">
        <Node pos="l" depth="1" NCoef="0" IVar="0" Cut="1.0640280246734619e+00" cType="1" res="-3.1499450560659170e-03" rms="2.2849184274673462e-01" purity="5.0325912237167358e-01" nType="0">
          <Node pos="l" depth="2" NCoef="0" IVar="-1" Cut="0.0000000000000000e+00" cType="1" res="1.6913231229409575e-03" rms="2.4751912057399750e-01" purity="5.4939937591552734e-01" nType="-99"/>
          <Node pos="r" depth="2" NCoef="0" IVar="-1" Cut="0.0000000000000000e+00" cType="1" res="-1.3750365003943443e-02" rms="1.2848539650440216e-01" purity="3.2690587639808655e-01" nType="-99"/>
        </Node>
        <Node pos="r" depth="1" NCoef="0" IVar="5" Cut="2.7752289175987244e-01" cType="1" res="-3.3663675189018250e-02" rms="-nan" purity="1.8914452195167542e-01" nType="-99"/>
      </Node>
    </BinaryTree>
    <BinaryTree type="DecisionTree" boostWeight="1.0000000000000000e+00" itree="1389">
      <Node pos="s" depth="0" NCoef="0" IVar="31" Cut="2.3091313838958740e+00" cType="1" res="-1.6884156502783298e-04" rms="2.2338615357875824e-01" purity="5.0542038679122925e-01" nType="0">
        <Node pos="l" depth="1" NCoef="0" IVar="-1" Cut="0.0000000000000000e+00" cType="1" res="4.8138670623302460e-02" rms="3.6513024568557739e-01" purity="2.7814754843711853e-01" nType="-99"/>
        <Node pos="r" depth="1" NCoef="0" IVar="1" Cut="1.7720191478729248e+00" cType="1" res="-4.1832588613033295e-03" rms="2.1608221530914307e-01" purity="5.1276248693466187e-01" nType="0">
          <Node pos="l" depth="2" NCoef="0" IVar="-1" Cut="0.0000000000000000e+00" cType="1" res="-6.2462579458951950e-02" rms="-nan" purity="4.8399049788713455e-02" nType="-99"/>
          <Node pos="r" depth="2" NCoef="0" IVar="-1" Cut="0.0000000000000000e+00" cType="1" res="-5.0150079187005758e-04" rms="2.2137553989887238e-01" purity="5.2473872900009155e-01" nType="-99"/>
        </Node>
      </Node>
    </BinaryTree>
    <BinaryTree type="DecisionTree" boostWeight="1.0000000000000000e+00" itree="1390">
      <Node pos="s" depth="0" NCoef="0" IVar="2" Cut="3.1082701683044434e+00" cType="1" res="1.0278353467583656e-02" rms="2.3770523071289062e-01" purity="5.1207590103149414e-01" nType="0">
        <Node pos="l" depth="1" NCoef="0" IVar="5" Cut="1.0298345237970352e-01" cType="1" res="3.4898112062364817e-03" rms="2.2724062204360962e-01" purity="4.6467369794845581e-01" nType="0">
          <Node pos="l" depth="2" NCoef="0" IVar="-1" Cut="0.0000000000000000e+00" cType="1" res="-1.1861886829137802e-02" rms="1.3260677456855774e-01" purity="3.7156394124031067e-01" nType="-99"/>
          <Node pos="r" depth="2" NCoef="0" IVar="-1" Cut="0.0000000000000000e+00" cType="1" res="5.0866273231804371e-03" rms="2.4959303438663483e-01" purity="4.9506691098213196e-01" nType="-99"/>
        </Node>
        <Node pos="r" depth="1" NCoef="0" IVar="36" Cut="1.4059939384460449e+00" cType="1" res="4.9164753407239914e-02" rms="2.8739914298057556e-01" purity="7.8360730409622192e-01" nType="0">
          <Node pos="l" depth="2" NCoef="0" IVar="-1" Cut="0.0000000000000000e+00" cType="1" res="3.7349447607994080e-02" rms="3.8117542862892151e-01" purity="5.2425152063369751e-01" nType="-99"/>
          <Node pos="r" depth="2" NCoef="0" IVar="-1" Cut="0.0000000000000000e+00" cType="1" res="7.0330989547073841e-03" rms="2.4464556574821472e-01" purity="8.5974425077438354e-01" nType="-99"/>
        </Node>
      </Node>
    </BinaryTree>
    <BinaryTree type="DecisionTree" boostWeight="1.0000000000000000e+00" itree="1391">
      <Node pos="s" depth="0" NCoef="0" IVar="4" Cut="3.2922823429107666e+00" cType="1" res="-9.1396737843751907e-03" rms="2.1179437637329102e-01" purity="4.8995363712310791e-01" nType="0">
        <Node pos="l" depth="1" NCoef="0" IVar="60" Cut="-2.0174036026000977e+00" cType="1" res="-2.8803998604416847e-02" rms="-nan" purity="1.1320763826370239e-01" nType="-99"/>
        <Node pos="r" depth="1" NCoef="0" IVar="46" Cut="8.1310397386550903e-01" cType="1" res="-4.6215415932238102e-03" rms="2.2159133851528168e-01" purity="5.1691877841949463e-01" nType="0">
          <Node pos="l" depth="2" NCoef="0" IVar="-1" Cut="0.0000000000000000e+00" cType="1" res="-2.6990011334419250e-02" rms="8.4212608635425568e-02" purity="5.5328881740570068e-01" nType="-99"/>
          <Node pos="r" depth="2" NCoef="0" IVar="-1" Cut="0.0000000000000000e+00" cType="1" res="-4.7897660988382995e-04" rms="2.2520650923252106e-01" purity="5.1529341936111450e-01" nType="-99"/>
        </Node>
      </Node>
    </BinaryTree>
    <BinaryTree type="DecisionTree" boostWeight="1.0000000000000000e+00" itree="1392">
      <Node pos="s" depth="0" NCoef="0" IVar="13" Cut="-1.4926353693008423e+00" cType="1" res="-4.3637035414576530e-03" rms="2.1620385348796844e-01" purity="4.9979886412620544e-01" nType="0">
        <Node pos="l" depth="1" NCoef="0" IVar="-1" Cut="0.0000000000000000e+00" cType="1" res="-7.8441955149173737e-02" rms="-nan" purity="1.5331996977329254e-01" nType="-99"/>
        <Node pos="r" depth="1" NCoef="0" IVar="63" Cut="-6.5763646364212036e-01" cType="1" res="-1.1486759176477790e-03" rms="2.2421246767044067e-01" purity="5.0834739208221436e-01" nType="0">
          <Node pos="l" depth="2" NCoef="0" IVar="-1" Cut="0.0000000000000000e+00" cType="1" res="-4.5025866478681564e-02" rms="-nan" purity="4.4932854175567627e-01" nType="-99"/>
          <Node pos="r" depth="2" NCoef="0" IVar="-1" Cut="0.0000000000000000e+00" cType="1" res="5.7735393056645989e-04" rms="2.2823604941368103e-01" purity="5.0963395833969116e-01" nType="-99"/>
        </Node>
      </Node>
    </BinaryTree>
    <BinaryTree type="DecisionTree" boostWeight="1.0000000000000000e+00" itree="1393">
      <Node pos="s" depth="0" NCoef="0" IVar="13" Cut="-1.0295637845993042e+00" cType="1" res="-2.2148157586343586e-04" rms="2.2020494937896729e-01" purity="4.9974843859672546e-01" nType="0">
        <Node pos="l" depth="1" NCoef="0" IVar="0" Cut="1.2292882204055786e+00" cType="1" res="-4.4790070503950119e-02" rms="-nan" purity="1.1535196006298065e-01" nType="-99"/>
        <Node pos="r" depth="1" NCoef="0" IVar="19" Cut="7.1304446458816528e-01" cType="1" res="1.1462294496595860e-02" rms="2.5401514768600464e-01" purity="5.6518089771270752e-01" nType="0">
          <Node pos="l" depth="2" NCoef="0" IVar="-1" Cut="0.0000000000000000e+00" cType="1" res="-3.2189965713769197e-03" rms="2.2519032657146454e-01" purity="5.9992396831512451e-01" nType="-99"/>
          <Node pos="r" depth="2" NCoef="0" IVar="-1" Cut="0.0000000000000000e+00" cType="1" res="1.1624895036220551e-02" rms="2.7932330965995789e-01" purity="5.2889859676361084e-01" nType="-99"/>
        </Node>
      </Node>
    </BinaryTree>
    <BinaryTree type="DecisionTree" boostWeight="1.0000000000000000e+00" itree="1394">
      <Node pos="s" depth="0" NCoef="0" IVar="82" Cut="1.6781526803970337e+00" cType="1" res="5.0013763830065727e-03" rms="2.3513038456439972e-01" purity="5.0192517042160034e-01" nType="0">
        <Node pos="l" depth="1" NCoef="0" IVar="3" Cut="5.4550828933715820e+00" cType="1" res="1.7923694103956223e-03" rms="2.3012924194335938e-01" purity="5.0655621290206909e-01" nType="0">
          <Node pos="l" depth="2" NCoef="0" IVar="-1" Cut="0.0000000000000000e+00" cType="1" res="1.6401363536715508e-03" rms="2.3805128037929535e-01" purity="5.1709109544754028e-01" nType="-99"/>
          <Node pos="r" depth="2" NCoef="0" IVar="-1" Cut="0.0000000000000000e+00" cType="1" res="-3.2862629741430283e-02" rms="-nan" purity="9.6706986427307129e-02" nType="-99"/>
        </Node>
        <Node pos="r" depth="1" NCoef="0" IVar="-1" Cut="0.0000000000000000e+00" cType="1" res="4.7762546688318253e-02" rms="3.5525065660476685e-01" purity="3.3264732360839844e-01" nType="-99"/>
      </Node>
    </BinaryTree>
    <BinaryTree type="DecisionTree" boostWeight="1.0000000000000000e+00" itree="1395">
      <Node pos="s" depth="0" NCoef="0" IVar="10" Cut="3.0229434967041016e+00" cType="1" res="5.5217146873474121e-03" rms="2.3739799857139587e-01" purity="5.0087857246398926e-01" nType="0">
        <Node pos="l" depth="1" NCoef="0" IVar="15" Cut="-1.4539343118667603e+00" cType="1" res="3.7348322570323944e-02" rms="2.7137470245361328e-01" purity="3.2742473483085632e-01" nType="0">
          <Node pos="l" depth="2" NCoef="0" IVar="-1" Cut="0.0000000000000000e+00" cType="1" res="-2.0900774002075195e-01" rms="-nan" purity="-6.9285497069358826e-02" nType="-99"/>
          <Node pos="r" depth="2" NCoef="0" IVar="-1" Cut="0.0000000000000000e+00" cType="1" res="1.6605027019977570e-02" rms="2.9360914230346680e-01" purity="3.6691901087760925e-01" nType="-99"/>
        </Node>
        <Node pos="r" depth="1" NCoef="0" IVar="4" Cut="3.3457241058349609e+00" cType="1" res="-3.4753424115478992e-03" rms="2.2606153786182404e-01" purity="5.4991221427917480e-01" nType="0">
          <Node pos="l" depth="2" NCoef="0" IVar="-1" Cut="0.0000000000000000e+00" cType="1" res="-8.8376574218273163e-02" rms="-nan" purity="-2.8535977005958557e-02" nType="-99"/>
          <Node pos="r" depth="2" NCoef="0" IVar="-1" Cut="0.0000000000000000e+00" cType="1" res="2.2272764181252569e-04" rms="2.3573681712150574e-01" purity="5.6556123495101929e-01" nType="-99"/>
        </Node>
      </Node>
    </BinaryTree>
    <BinaryTree type="DecisionTree" boostWeight="1.0000000000000000e+00" itree="1396">
      <Node pos="s" depth="0" NCoef="0" IVar="0" Cut="-6.4823873341083527e-02" cType="1" res="6.0335975140333176e-03" rms="2.3838987946510315e-01" purity="4.9792179465293884e-01" nType="0">
        <Node pos="l" depth="1" NCoef="0" IVar="-1" Cut="0.0000000000000000e+00" cType="1" res="-4.3697830289602280e-02" rms="-nan" purity="3.6296671628952026e-01" nType="-99"/>
        <Node pos="r" depth="1" NCoef="0" IVar="39" Cut="-2.3519072532653809e+00" cType="1" res="8.5241664201021194e-03" rms="2.4269373714923859e-01" purity="5.0078970193862915e-01" nType="0">
          <Node pos="l" depth="2" NCoef="0" IVar="-1" Cut="0.0000000000000000e+00" cType="1" res="1.0741236619651318e-02" rms="2.9027026891708374e-01" purity="6.4672762155532837e-01" nType="-99"/>
          <Node pos="r" depth="2" NCoef="0" IVar="-1" Cut="0.0000000000000000e+00" cType="1" res="-5.5348826572299004e-04" rms="2.1684473752975464e-01" purity="4.3424358963966370e-01" nType="-99"/>
        </Node>
      </Node>
    </BinaryTree>
    <BinaryTree type="DecisionTree" boostWeight="1.0000000000000000e+00" itree="1397">
      <Node pos="s" depth="0" NCoef="0" IVar="78" Cut="1.4445203542709351e+00" cType="1" res="1.0787526145577431e-02" rms="2.4584534764289856e-01" purity="5.1083183288574219e-01" nType="0">
        <Node pos="l" depth="1" NCoef="0" IVar="60" Cut="-5.3706163167953491e-01" cType="1" res="5.2428366616368294e-03" rms="2.3802363872528076e-01" purity="5.2920305728912354e-01" nType="0">
          <Node pos="l" depth="2" NCoef="0" IVar="-1" Cut="0.0000000000000000e+00" cType="1" res="2.9699183069169521e-03" rms="2.4294011294841766e-01" purity="5.4133903980255127e-01" nType="-99"/>
          <Node pos="r" depth="2" NCoef="0" IVar="-1" Cut="0.0000000000000000e+00" cType="1" res="-3.9387539029121399e-02" rms="-nan" purity="1.0235683619976044e-01" nType="-99"/>
        </Node>
        <Node pos="r" depth="1" NCoef="0" IVar="36" Cut="1.0959506034851074e+00" cType="1" res="1.0135852545499802e-01" rms="3.3698135614395142e-01" purity="2.1074394881725311e-01" nType="0">
          <Node pos="l" depth="2" NCoef="0" IVar="-1" Cut="0.0000000000000000e+00" cType="1" res="1.0981563478708267e-01" rms="3.8154396414756775e-01" purity="2.4830852448940277e-01" nType="-99"/>
          <Node pos="r" depth="2" NCoef="0" IVar="-1" Cut="0.0000000000000000e+00" cType="1" res="1.5273693017661572e-02" rms="2.7866804599761963e-01" purity="1.8048372864723206e-01" nType="-99"/>
        </Node>
      </Node>
    </BinaryTree>
    <BinaryTree type="DecisionTree" boostWeight="1.0000000000000000e+00" itree="1398">
      <Node pos="s" depth="0" NCoef="0" IVar="82" Cut="1.4250456094741821e+00" cType="1" res="-2.0255509298294783e-03" rms="2.2274859249591827e-01" purity="5.0450485944747925e-01" nType="0">
        <Node pos="l" depth="1" NCoef="0" IVar="61" Cut="1.5121104717254639e+00" cType="1" res="2.1858436521142721e-03" rms="2.3392358422279358e-01" purity="5.2700668573379517e-01" nType="0">
          <Node pos="l" depth="2" NCoef="0" IVar="-1" Cut="0.0000000000000000e+00" cType="1" res="-3.2581837149336934e-04" rms="2.2897058725357056e-01" purity="5.3552716970443726e-01" nType="-99"/>
          <Node pos="r" depth="2" NCoef="0" IVar="-1" Cut="0.0000000000000000e+00" cType="1" res="1.9990077242255211e-02" rms="3.0884224176406860e-01" purity="3.6209797859191895e-01" nType="-99"/>
        </Node>
        <Node pos="r" depth="1" NCoef="0" IVar="5" Cut="2.1174517273902893e-01" cType="1" res="-2.8191853314638138e-02" rms="-nan" purity="1.9847284257411957e-01" nType="-99"/>
      </Node>
    </BinaryTree>
    <BinaryTree type="DecisionTree" boostWeight="1.0000000000000000e+00" itree="1399">
      <Node pos="s" depth="0" NCoef="0" IVar="73" Cut="2.1931314468383789e+00" cType="1" res="-3.9908993057906628e-03" rms="2.3115475475788116e-01" purity="4.9123555421829224e-01" nType="0">
        <Node pos="l" depth="1" NCoef="0" IVar="-1" Cut="0.0000000000000000e+00" cType="1" res="4.1222926229238510e-02" rms="3.6613535881042480e-01" purity="2.9468956589698792e-01" nType="-99"/>
        <Node pos="r" depth="1" NCoef="0" IVar="35" Cut="-3.3277747035026550e-01" cType="1" res="-8.5524488240480423e-03" rms="2.2260369360446930e-01" purity="4.9942681193351746e-01" nType="0">
          <Node pos="l" depth="2" NCoef="0" IVar="-1" Cut="0.0000000000000000e+00" cType="1" res="1.0050636483356357e-03" rms="2.3291175067424774e-01" purity="5.1517033576965332e-01" nType="-99"/>
          <Node pos="r" depth="2" NCoef="0" IVar="-1" Cut="0.0000000000000000e+00" cType="1" res="-1.3177758082747459e-02" rms="1.9525954127311707e-01" purity="4.6415871381759644e-01" nType="-99"/>
        </Node>
      </Node>
    </BinaryTree>
    <BinaryTree type="DecisionTree" boostWeight="1.0000000000000000e+00" itree="1400">
      <Node pos="s" depth="0" NCoef="0" IVar="79" Cut="1.4371976852416992e+00" cType="1" res="-2.0435762125998735e-03" rms="2.1974875032901764e-01" purity="4.9955460429191589e-01" nType="0">
        <Node pos="l" depth="1" NCoef="0" IVar="81" Cut="-8.9361661672592163e-01" cType="1" res="-5.2742566913366318e-03" rms="2.1534651517868042e-01" purity="5.0366795063018799e-01" nType="0">
          <Node pos="l" depth="2" NCoef="0" IVar="-1" Cut="0.0000000000000000e+00" cType="1" res="-4.0612472221255302e-03" rms="2.0930273830890656e-01" purity="5.3762668371200562e-01" nType="-99"/>
          <Node pos="r" depth="2" NCoef="0" IVar="-1" Cut="0.0000000000000000e+00" cType="1" res="1.5766831114888191e-02" rms="2.5068593025207520e-01" purity="2.5899803638458252e-01" nType="-99"/>
        </Node>
        <Node pos="r" depth="1" NCoef="0" IVar="-1" Cut="0.0000000000000000e+00" cType="1" res="5.8571211993694305e-02" rms="3.3266270160675049e-01" purity="3.2365670800209045e-01" nType="-99"/>
      </Node>
    </BinaryTree>
    <BinaryTree type="DecisionTree" boostWeight="1.0000000000000000e+00" itree="1401">
      <Node pos="s" depth="0" NCoef="0" IVar="17" Cut="-1.1830164194107056e+00" cType="1" res="-8.2901533460244536e-04" rms="2.2135998308658600e-01" purity="5.0627708435058594e-01" nType="0">
        <Node pos="l" depth="1" NCoef="0" IVar="36" Cut="2.0653240382671356e-01" cType="1" res="-1.0020034015178680e-01" rms="-nan" purity="-2.6165129616856575e-02" nType="-99"/>
        <Node pos="r" depth="1" NCoef="0" IVar="2" Cut="1.4546053409576416e+00" cType="1" res="6.1302771791815758e-03" rms="2.5139853358268738e-01" purity="5.8728915452957153e-01" nType="0">
          <Node pos="l" depth="2" NCoef="0" IVar="-1" Cut="0.0000000000000000e+00" cType="1" res="-2.7545182034373283e-02" rms="1.3440191745758057e-01" purity="1.1658380180597305e-01" nType="-99"/>
          <Node pos="r" depth="2" NCoef="0" IVar="-1" Cut="0.0000000000000000e+00" cType="1" res="3.4383956808596849e-03" rms="2.5661900639533997e-01" purity="6.1862033605575562e-01" nType="-99"/>
        </Node>
      </Node>
    </BinaryTree>
    <BinaryTree type="DecisionTree" boostWeight="1.0000000000000000e+00" itree="1402">
      <Node pos="s" depth="0" NCoef="0" IVar="83" Cut="2.1946629881858826e-01" cType="1" res="1.9532374572008848e-03" rms="2.2666668891906738e-01" purity="5.0034213066101074e-01" nType="0">
        <Node pos="l" depth="1" NCoef="0" IVar="16" Cut="1.0515578985214233e+00" cType="1" res="-4.7058318741619587e-03" rms="2.2075538337230682e-01" purity="5.1201319694519043e-01" nType="0">
          <Node pos="l" depth="2" NCoef="0" IVar="-1" Cut="0.0000000000000000e+00" cType="1" res="-2.6556066586636007e-05" rms="2.3064291477203369e-01" purity="5.2469563484191895e-01" nType="-99"/>
          <Node pos="r" depth="2" NCoef="0" IVar="-1" Cut="0.0000000000000000e+00" cType="1" res="-2.3417612537741661e-02" rms="-nan" purity="3.4471073746681213e-01" nType="-99"/>
        </Node>
        <Node pos="r" depth="1" NCoef="0" IVar="13" Cut="9.3629503250122070e-01" cType="1" res="4.2131248861551285e-02" rms="2.5583946704864502e-01" purity="4.2992365360260010e-01" nType="0">
          <Node pos="l" depth="2" NCoef="0" IVar="-1" Cut="0.0000000000000000e+00" cType="1" res="7.2352774441242218e-02" rms="3.2077389955520630e-01" purity="2.7293792366981506e-01" nType="-99"/>
          <Node pos="r" depth="2" NCoef="0" IVar="-1" Cut="0.0000000000000000e+00" cType="1" res="4.8572546802461147e-03" rms="2.2368355095386505e-01" purity="4.8118877410888672e-01" nType="-99"/>
        </Node>
      </Node>
    </BinaryTree>
    <BinaryTree type="DecisionTree" boostWeight="1.0000000000000000e+00" itree="1403">
      <Node pos="s" depth="0" NCoef="0" IVar="49" Cut="-7.0395547151565552e-01" cType="1" res="-1.8096939893439412e-03" rms="2.2565476596355438e-01" purity="4.9775803089141846e-01" nType="0">
        <Node pos="l" depth="1" NCoef="0" IVar="61" Cut="1.5930316448211670e+00" cType="1" res="1.8068536883220077e-03" rms="2.3033131659030914e-01" purity="5.0378525257110596e-01" nType="0">
          <Node pos="l" depth="2" NCoef="0" IVar="-1" Cut="0.0000000000000000e+00" cType="1" res="-6.3970271730795503e-04" rms="2.2584261000156403e-01" purity="5.0869810581207275e-01" nType="-99"/>
          <Node pos="r" depth="2" NCoef="0" IVar="-1" Cut="0.0000000000000000e+00" cType="1" res="3.0607746914029121e-02" rms="3.1584405899047852e-01" purity="3.6882415413856506e-01" nType="-99"/>
        </Node>
        <Node pos="r" depth="1" NCoef="0" IVar="-1" Cut="0.0000000000000000e+00" cType="1" res="-3.8029968738555908e-02" rms="-nan" purity="3.3080366253852844e-01" nType="-99"/>
      </Node>
    </BinaryTree>
    <BinaryTree type="DecisionTree" boostWeight="1.0000000000000000e+00" itree="1404">
      <Node pos="s" depth="0" NCoef="0" IVar="78" Cut="1.4445203542709351e+00" cType="1" res="-5.3681083954870701e-03" rms="2.2186756134033203e-01" purity="5.0076144933700562e-01" nType="0">
        <Node pos="l" depth="1" NCoef="0" IVar="56" Cut="1.4830836057662964e+00" cType="1" res="-9.9826790392398834e-03" rms="2.1451622247695923e-01" purity="5.1848274469375610e-01" nType="0">
          <Node pos="l" depth="2" NCoef="0" IVar="-1" Cut="0.0000000000000000e+00" cType="1" res="-2.6898186188191175e-03" rms="2.1888515353202820e-01" purity="5.2859359979629517e-01" nType="-99"/>
          <Node pos="r" depth="2" NCoef="0" IVar="-1" Cut="0.0000000000000000e+00" cType="1" res="-5.5281471461057663e-02" rms="-nan" purity="5.6963365525007248e-02" nType="-99"/>
        </Node>
        <Node pos="r" depth="1" NCoef="0" IVar="57" Cut="1.0600717067718506e+00" cType="1" res="7.5140275061130524e-02" rms="3.1359329819679260e-01" purity="1.9158488512039185e-01" nType="0">
          <Node pos="l" depth="2" NCoef="0" IVar="-1" Cut="0.0000000000000000e+00" cType="1" res="1.2929308414459229e-01" rms="3.7558215856552124e-01" purity="2.3091068863868713e-01" nType="-99"/>
          <Node pos="r" depth="2" NCoef="0" IVar="-1" Cut="0.0000000000000000e+00" cType="1" res="-3.2616320531815290e-03" rms="2.1790315210819244e-01" purity="1.5947097539901733e-01" nType="-99"/>
        </Node>
      </Node>
    </BinaryTree>
    <BinaryTree type="DecisionTree" boostWeight="1.0000000000000000e+00" itree="1405">
      <Node pos="s" depth="0" NCoef="0" IVar="62" Cut="-9.1558597981929779e-02" cType="1" res="-7.5157778337597847e-04" rms="2.2416256368160248e-01" purity="4.9364697933197021e-01" nType="0">
        <Node pos="l" depth="1" NCoef="0" IVar="60" Cut="-2.0395560264587402e+00" cType="1" res="1.7597584053874016e-02" rms="2.5167703628540039e-01" purity="5.6818205118179321e-01" nType="0">
          <Node pos="l" depth="2" NCoef="0" IVar="-1" Cut="0.0000000000000000e+00" cType="1" res="-2.1761488169431686e-03" rms="2.1945194900035858e-01" purity="6.3609737157821655e-01" nType="-99"/>
          <Node pos="r" depth="2" NCoef="0" IVar="-1" Cut="0.0000000000000000e+00" cType="1" res="1.5784790739417076e-02" rms="2.8520843386650085e-01" purity="4.8055022954940796e-01" nType="-99"/>
        </Node>
        <Node pos="r" depth="1" NCoef="0" IVar="27" Cut="1.1919126510620117e+00" cType="1" res="-1.1653543449938297e-02" rms="2.0530758798122406e-01" purity="4.4936269521713257e-01" nType="0">
          <Node pos="l" depth="2" NCoef="0" IVar="-1" Cut="0.0000000000000000e+00" cType="1" res="-2.7005612850189209e-02" rms="-nan" purity="1.6609424352645874e-01" nType="-99"/>
          <Node pos="r" depth="2" NCoef="0" IVar="-1" Cut="0.0000000000000000e+00" cType="1" res="-9.1654859716072679e-04" rms="2.2755499184131622e-01" purity="5.0381255149841309e-01" nType="-99"/>
        </Node>
      </Node>
    </BinaryTree>
    <BinaryTree type="DecisionTree" boostWeight="1.0000000000000000e+00" itree="1406">
      <Node pos="s" depth="0" NCoef="0" IVar="55" Cut="-1.4926607608795166e+00" cType="1" res="6.1482319142669439e-04" rms="2.2710758447647095e-01" purity="4.9444079399108887e-01" nType="0">
        <Node pos="l" depth="1" NCoef="0" IVar="81" Cut="-1.6376028060913086e+00" cType="1" res="8.3418555557727814e-02" rms="3.2144170999526978e-01" purity="4.5821359753608704e-01" nType="0">
          <Node pos="l" depth="2" NCoef="0" IVar="-1" Cut="0.0000000000000000e+00" cType="1" res="-1.5992352273315191e-03" rms="2.1458229422569275e-01" purity="4.9894359707832336e-01" nType="-99"/>
          <Node pos="r" depth="2" NCoef="0" IVar="-1" Cut="0.0000000000000000e+00" cType="1" res="7.8085482120513916e-02" rms="3.8895624876022339e-01" purity="4.1011670231819153e-01" nType="-99"/>
        </Node>
        <Node pos="r" depth="1" NCoef="0" IVar="48" Cut="1.4562708139419556e+00" cType="1" res="-3.3553943503648043e-03" rms="2.2079902887344360e-01" purity="4.9617779254913330e-01" nType="0">
          <Node pos="l" depth="2" NCoef="0" IVar="-1" Cut="0.0000000000000000e+00" cType="1" res="-1.4239903539419174e-02" rms="1.5541572868824005e-01" purity="2.5769349932670593e-01" nType="-99"/>
          <Node pos="r" depth="2" NCoef="0" IVar="-1" Cut="0.0000000000000000e+00" cType="1" res="2.7092078235000372e-03" rms="2.3748448491096497e-01" purity="5.7470405101776123e-01" nType="-99"/>
        </Node>
      </Node>
    </BinaryTree>
    <BinaryTree type="DecisionTree" boostWeight="1.0000000000000000e+00" itree="1407">
      <Node pos="s" depth="0" NCoef="0" IVar="88" Cut="1.5475447177886963e+00" cType="1" res="4.4655338861048222e-03" rms="2.3577249050140381e-01" purity="4.9439746141433716e-01" nType="0">
        <Node pos="l" depth="1" NCoef="0" IVar="57" Cut="1.4854915142059326e+00" cType="1" res="1.0478488402441144e-03" rms="2.2963203489780426e-01" purity="5.0099635124206543e-01" nType="0">
          <Node pos="l" depth="2" NCoef="0" IVar="-1" Cut="0.0000000000000000e+00" cType="1" res="-7.1062510833144188e-03" rms="1.5199808776378632e-01" purity="2.1759021282196045e-01" nType="-99"/>
          <Node pos="r" depth="2" NCoef="0" IVar="-1" Cut="0.0000000000000000e+00" cType="1" res="6.0009253211319447e-03" rms="2.7891793847084045e-01" purity="7.4621969461441040e-01" nType="-99"/>
        </Node>
        <Node pos="r" depth="1" NCoef="0" IVar="-1" Cut="0.0000000000000000e+00" cType="1" res="1.1024893075227737e-01" rms="3.8543617725372314e-01" purity="2.3792687058448792e-01" nType="-99"/>
      </Node>
    </BinaryTree>
    <BinaryTree type="DecisionTree" boostWeight="1.0000000000000000e+00" itree="1408">
      <Node pos="s" depth="0" NCoef="0" IVar="38" Cut="8.6062824726104736e-01" cType="1" res="-4.7090076841413975e-03" rms="2.2718754410743713e-01" purity="4.8715007305145264e-01" nType="0">
        <Node pos="l" depth="1" NCoef="0" IVar="48" Cut="1.1717358827590942e+00" cType="1" res="-3.3579349517822266e-02" rms="9.4926640391349792e-02" purity="2.3176342248916626e-01" nType="0">
          <Node pos="l" depth="2" NCoef="0" IVar="-1" Cut="0.0000000000000000e+00" cType="1" res="2.9230346903204918e-02" rms="2.5564649701118469e-01" purity="2.1698012948036194e-01" nType="-99"/>
          <Node pos="r" depth="2" NCoef="0" IVar="-1" Cut="0.0000000000000000e+00" cType="1" res="-2.3916637524962425e-02" rms="-nan" purity="2.3555885255336761e-01" nType="-99"/>
        </Node>
        <Node pos="r" depth="1" NCoef="0" IVar="55" Cut="-1.3383896350860596e+00" cType="1" res="7.4821435846388340e-03" rms="2.6287585496902466e-01" purity="5.9499287605285645e-01" nType="0">
          <Node pos="l" depth="2" NCoef="0" IVar="-1" Cut="0.0000000000000000e+00" cType="1" res="3.1673602759838104e-02" rms="3.0602502822875977e-01" purity="3.6232197284698486e-01" nType="-99"/>
          <Node pos="r" depth="2" NCoef="0" IVar="-1" Cut="0.0000000000000000e+00" cType="1" res="-6.8440611357800663e-05" rms="2.5622045993804932e-01" purity="6.2244099378585815e-01" nType="-99"/>
        </Node>
      </Node>
    </BinaryTree>
    <BinaryTree type="DecisionTree" boostWeight="1.0000000000000000e+00" itree="1409">
      <Node pos="s" depth="0" NCoef="0" IVar="0" Cut="7.5876080989837646e-01" cType="1" res="1.6868933016667143e-05" rms="2.1984891593456268e-01" purity="5.0064647197723389e-01" nType="0">
        <Node pos="l" depth="1" NCoef="0" IVar="58" Cut="-1.4544186592102051e+00" cType="1" res="1.8686635419726372e-02" rms="2.5083953142166138e-01" purity="5.9307384490966797e-01" nType="0">
          <Node pos="l" depth="2" NCoef="0" IVar="-1" Cut="0.0000000000000000e+00" cType="1" res="4.3098188936710358e-02" rms="3.2898578047752380e-01" purity="4.6742293238639832e-01" nType="-99"/>
          <Node pos="r" depth="2" NCoef="0" IVar="-1" Cut="0.0000000000000000e+00" cType="1" res="4.1182036511600018e-03" rms="2.4295228719711304e-01" purity="6.0183924436569214e-01" nType="-99"/>
        </Node>
        <Node pos="r" depth="1" NCoef="0" IVar="55" Cut="-9.5279979705810547e-01" cType="1" res="-1.7277358099818230e-02" rms="1.8493072688579559e-01" purity="4.1502889990806580e-01" nType="0">
          <Node pos="l" depth="2" NCoef="0" IVar="-1" Cut="0.0000000000000000e+00" cType="1" res="-4.1766621172428131e-02" rms="-nan" purity="1.4420524239540100e-01" nType="-99"/>
          <Node pos="r" depth="2" NCoef="0" IVar="-1" Cut="0.0000000000000000e+00" cType="1" res="-8.4759999299421906e-04" rms="2.2734689712524414e-01" purity="4.7936317324638367e-01" nType="-99"/>
        </Node>
      </Node>
    </BinaryTree>
    <BinaryTree type="DecisionTree" boostWeight="1.0000000000000000e+00" itree="1410">
      <Node pos="s" depth="0" NCoef="0" IVar="10" Cut="2.8589806556701660e+00" cType="1" res="7.4191088788211346e-04" rms="2.2615584731101990e-01" purity="5.0875097513198853e-01" nType="0">
        <Node pos="l" depth="1" NCoef="0" IVar="55" Cut="1.0110248327255249e+00" cType="1" res="-2.5451667606830597e-02" rms="-nan" purity="1.5528707206249237e-01" nType="-99"/>
        <Node pos="r" depth="1" NCoef="0" IVar="84" Cut="-2.5226049125194550e-02" cType="1" res="5.9399544261395931e-03" rms="2.3696950078010559e-01" purity="5.3707522153854370e-01" nType="0">
          <Node pos="l" depth="2" NCoef="0" IVar="-1" Cut="0.0000000000000000e+00" cType="1" res="8.0145793035626411e-03" rms="2.6240566372871399e-01" purity="5.6769502162933350e-01" nType="-99"/>
          <Node pos="r" depth="2" NCoef="0" IVar="-1" Cut="0.0000000000000000e+00" cType="1" res="-4.4880863279104233e-03" rms="2.0409539341926575e-01" purity="5.0359910726547241e-01" nType="-99"/>
        </Node>
      </Node>
    </BinaryTree>
    <BinaryTree type="DecisionTree" boostWeight="1.0000000000000000e+00" itree="1411">
      <Node pos="s" depth="0" NCoef="0" IVar="14" Cut="-1.2990767955780029e+00" cType="1" res="1.0352537035942078e-02" rms="2.3761568963527679e-01" purity="4.9911767244338989e-01" nType="0">
        <Node pos="l" depth="1" NCoef="0" IVar="13" Cut="7.4391967058181763e-01" cType="1" res="-2.0996088162064552e-02" rms="1.3285851478576660e-01" purity="3.3933994174003601e-01" nType="0">
          <Node pos="l" depth="2" NCoef="0" IVar="-1" Cut="0.0000000000000000e+00" cType="1" res="-1.0395896434783936e-01" rms="-nan" purity="-3.5371605306863785e-02" nType="-99"/>
          <Node pos="r" depth="2" NCoef="0" IVar="-1" Cut="0.0000000000000000e+00" cType="1" res="-3.3441677805967629e-04" rms="2.1822905540466309e-01" purity="4.6537807583808899e-01" nType="-99"/>
        </Node>
        <Node pos="r" depth="1" NCoef="0" IVar="31" Cut="2.6374814510345459e+00" cType="1" res="2.0026294514536858e-02" rms="2.6084583997726440e-01" purity="5.4842287302017212e-01" nType="0">
          <Node pos="l" depth="2" NCoef="0" IVar="-1" Cut="0.0000000000000000e+00" cType="1" res="2.7934744954109192e-02" rms="3.0551910400390625e-01" purity="3.4239432215690613e-01" nType="-99"/>
          <Node pos="r" depth="2" NCoef="0" IVar="-1" Cut="0.0000000000000000e+00" cType="1" res="3.9375456981360912e-03" rms="2.5200158357620239e-01" purity="5.7970809936523438e-01" nType="-99"/>
        </Node>
      </Node>
    </BinaryTree>
    <BinaryTree type="DecisionTree" boostWeight="1.0000000000000000e+00" itree="1412">
      <Node pos="s" depth="0" NCoef="0" IVar="81" Cut="-5.4670137166976929e-01" cType="1" res="2.2328190971165895e-03" rms="2.3616495728492737e-01" purity="4.9660119414329529e-01" nType="0">
        <Node pos="l" depth="1" NCoef="0" IVar="46" Cut="8.4328615665435791e-01" cType="1" res="-2.2178383078426123e-03" rms="2.2945848107337952e-01" purity="5.0526583194732666e-01" nType="0">
          <Node pos="l" depth="2" NCoef="0" IVar="-1" Cut="0.0000000000000000e+00" cType="1" res="2.0906675606966019e-02" rms="3.3323955535888672e-01" purity="6.2415605783462524e-01" nType="-99"/>
          <Node pos="r" depth="2" NCoef="0" IVar="-1" Cut="0.0000000000000000e+00" cType="1" res="-3.9985254406929016e-03" rms="2.1048240363597870e-01" purity="4.8941817879676819e-01" nType="-99"/>
        </Node>
        <Node pos="r" depth="1" NCoef="0" IVar="25" Cut="9.8689138889312744e-01" cType="1" res="1.0421821475028992e-01" rms="3.4128361940383911e-01" purity="2.9805463552474976e-01" nType="0">
          <Node pos="l" depth="2" NCoef="0" IVar="-1" Cut="0.0000000000000000e+00" cType="1" res="1.5582519117742777e-03" rms="2.1306672692298889e-01" purity="2.3088850080966949e-01" nType="-99"/>
          <Node pos="r" depth="2" NCoef="0" IVar="-1" Cut="0.0000000000000000e+00" cType="1" res="8.7542928755283356e-02" rms="4.1065105795860291e-01" purity="3.6732903122901917e-01" nType="-99"/>
        </Node>
      </Node>
    </BinaryTree>
    <BinaryTree type="DecisionTree" boostWeight="1.0000000000000000e+00" itree="1413">
      <Node pos="s" depth="0" NCoef="0" IVar="3" Cut="4.2834258079528809e+00" cType="1" res="-2.8045254293829203e-03" rms="2.2410890460014343e-01" purity="4.9526876211166382e-01" nType="0">
        <Node pos="l" depth="1" NCoef="0" IVar="-1" Cut="0.0000000000000000e+00" cType="1" res="3.6332529038190842e-02" rms="3.3668202161788940e-01" purity="3.7597271800041199e-01" nType="-99"/>
        <Node pos="r" depth="1" NCoef="0" IVar="55" Cut="5.9021270275115967e-01" cType="1" res="-6.2398440204560757e-03" rms="2.1938048303127289e-01" purity="4.9834403395652771e-01" nType="0">
          <Node pos="l" depth="2" NCoef="0" IVar="-1" Cut="0.0000000000000000e+00" cType="1" res="-2.2410772740840912e-02" rms="-nan" purity="2.0718953013420105e-01" nType="-99"/>
          <Node pos="r" depth="2" NCoef="0" IVar="-1" Cut="0.0000000000000000e+00" cType="1" res="2.1445460151880980e-03" rms="2.5258940458297729e-01" purity="5.8579474687576294e-01" nType="-99"/>
        </Node>
      </Node>
    </BinaryTree>
    <BinaryTree type="DecisionTree" boostWeight="1.0000000000000000e+00" itree="1414">
      <Node pos="s" depth="0" NCoef="0" IVar="61" Cut="1.4228204488754272e+00" cType="1" res="9.1707200044766068e-04" rms="2.2912392020225525e-01" purity="4.9894407391548157e-01" nType="0">
        <Node pos="l" depth="1" NCoef="0" IVar="10" Cut="2.6917359828948975e+00" cType="1" res="5.4609701037406921e-03" rms="2.3688910901546478e-01" purity="5.1744645833969116e-01" nType="0">
          <Node pos="l" depth="2" NCoef="0" IVar="-1" Cut="0.0000000000000000e+00" cType="1" res="5.4941620677709579e-02" rms="3.4873053431510925e-01" purity="2.8651559352874756e-01" nType="-99"/>
          <Node pos="r" depth="2" NCoef="0" IVar="-1" Cut="0.0000000000000000e+00" cType="1" res="9.6119882073253393e-04" rms="2.3289319872856140e-01" purity="5.2274388074874878e-01" nType="-99"/>
        </Node>
        <Node pos="r" depth="1" NCoef="0" IVar="36" Cut="4.7675344347953796e-01" cType="1" res="-2.7989821508526802e-02" rms="-nan" purity="2.1287848055362701e-01" nType="-99"/>
      </Node>
    </BinaryTree>
    <BinaryTree type="DecisionTree" boostWeight="1.0000000000000000e+00" itree="1415">
      <Node pos="s" depth="0" NCoef="0" IVar="63" Cut="-3.4977170825004578e-01" cType="1" res="1.2164977379143238e-03" rms="2.2934554517269135e-01" purity="4.9561884999275208e-01" nType="0">
        <Node pos="l" depth="1" NCoef="0" IVar="17" Cut="5.1675724983215332e-01" cType="1" res="4.7856085002422333e-02" rms="3.0201926827430725e-01" purity="5.3358775377273560e-01" nType="0">
          <Node pos="l" depth="2" NCoef="0" IVar="-1" Cut="0.0000000000000000e+00" cType="1" res="2.0660994946956635e-01" rms="3.6649674177169800e-01" purity="1.9611045718193054e-01" nType="-99"/>
          <Node pos="r" depth="2" NCoef="0" IVar="-1" Cut="0.0000000000000000e+00" cType="1" res="3.8649265188723803e-03" rms="2.7033072710037231e-01" purity="6.3339495658874512e-01" nType="-99"/>
        </Node>
        <Node pos="r" depth="1" NCoef="0" IVar="17" Cut="9.0399593114852905e-01" cType="1" res="-5.5144513025879860e-03" rms="2.1602571010589600e-01" purity="4.9013921618461609e-01" nType="0">
          <Node pos="l" depth="2" NCoef="0" IVar="-1" Cut="0.0000000000000000e+00" cType="1" res="-6.5233170986175537e-02" rms="-nan" purity="-1.5418897382915020e-02" nType="-99"/>
          <Node pos="r" depth="2" NCoef="0" IVar="-1" Cut="0.0000000000000000e+00" cType="1" res="1.0224533034488559e-03" rms="2.6088950037956238e-01" purity="6.2334895133972168e-01" nType="-99"/>
        </Node>
      </Node>
    </BinaryTree>
    <BinaryTree type="DecisionTree" boostWeight="1.0000000000000000e+00" itree="1416">
      <Node pos="s" depth="0" NCoef="0" IVar="5" Cut="-2.0359559357166290e-01" cType="1" res="-2.0685868803411722e-03" rms="2.1892189979553223e-01" purity="4.9384522438049316e-01" nType="0">
        <Node pos="l" depth="1" NCoef="0" IVar="-1" Cut="0.0000000000000000e+00" cType="1" res="-1.0423642396926880e-01" rms="-nan" purity="-2.4168767035007477e-02" nType="-99"/>
        <Node pos="r" depth="1" NCoef="0" IVar="77" Cut="1.1337554454803467e+00" cType="1" res="7.5703317997977138e-04" rms="2.2683975100517273e-01" purity="5.0507879257202148e-01" nType="0">
          <Node pos="l" depth="2" NCoef="0" IVar="-1" Cut="0.0000000000000000e+00" cType="1" res="2.2456522565335035e-03" rms="2.3952142894268036e-01" purity="5.3443443775177002e-01" nType="-99"/>
          <Node pos="r" depth="2" NCoef="0" IVar="-1" Cut="0.0000000000000000e+00" cType="1" res="-4.5060556381940842e-02" rms="-nan" purity="1.1261690407991409e-01" nType="-99"/>
        </Node>
      </Node>
    </BinaryTree>
    <BinaryTree type="DecisionTree" boostWeight="1.0000000000000000e+00" itree="1417">
      <Node pos="s" depth="0" NCoef="0" IVar="17" Cut="1.1377209424972534e+00" cType="1" res="-2.6297699660062790e-03" rms="2.2150957584381104e-01" purity="4.9625957012176514e-01" nType="0">
        <Node pos="l" depth="1" NCoef="0" IVar="13" Cut="-1.0929283499717712e-01" cType="1" res="-5.5562406778335571e-02" rms="-nan" purity="-1.0606985539197922e-02" nType="-99"/>
        <Node pos="r" depth="1" NCoef="0" IVar="16" Cut="1.1668441295623779e+00" cType="1" res="7.1617201901972294e-03" rms="2.6982709765434265e-01" purity="6.3876187801361084e-01" nType="0">
          <Node pos="l" depth="2" NCoef="0" IVar="-1" Cut="0.0000000000000000e+00" cType="1" res="6.6908908775076270e-04" rms="2.6444986462593079e-01" purity="6.4714288711547852e-01" nType="-99"/>
          <Node pos="r" depth="2" NCoef="0" IVar="-1" Cut="0.0000000000000000e+00" cType="1" res="2.6450114324688911e-02" rms="3.4075716137886047e-01" purity="4.8640844225883484e-01" nType="-99"/>
        </Node>
      </Node>
    </BinaryTree>
    <BinaryTree type="DecisionTree" boostWeight="1.0000000000000000e+00" itree="1418">
      <Node pos="s" depth="0" NCoef="0" IVar="20" Cut="3.8766816724091768e-03" cType="1" res="4.0301261469721794e-03" rms="2.3414294421672821e-01" purity="4.9693983793258667e-01" nType="0">
        <Node pos="l" depth="1" NCoef="0" IVar="17" Cut="-1.3764022588729858e+00" cType="1" res="-9.3494253233075142e-03" rms="2.0569774508476257e-01" purity="5.2948194742202759e-01" nType="0">
          <Node pos="l" depth="2" NCoef="0" IVar="-1" Cut="0.0000000000000000e+00" cType="1" res="-6.7202627658843994e-01" rms="-nan" purity="-9.5289535820484161e-02" nType="-99"/>
          <Node pos="r" depth="2" NCoef="0" IVar="-1" Cut="0.0000000000000000e+00" cType="1" res="-5.7421973906457424e-04" rms="2.3326788842678070e-01" purity="5.8310687541961670e-01" nType="-99"/>
        </Node>
        <Node pos="r" depth="1" NCoef="0" IVar="34" Cut="1.1664603948593140e+00" cType="1" res="2.1117186173796654e-02" rms="2.6510491967201233e-01" purity="4.5538020133972168e-01" nType="0">
          <Node pos="l" depth="2" NCoef="0" IVar="-1" Cut="0.0000000000000000e+00" cType="1" res="2.6057021692395210e-02" rms="2.9901829361915588e-01" purity="3.0576229095458984e-01" nType="-99"/>
          <Node pos="r" depth="2" NCoef="0" IVar="-1" Cut="0.0000000000000000e+00" cType="1" res="-8.1673054955899715e-04" rms="2.4321918189525604e-01" purity="5.2944159507751465e-01" nType="-99"/>
        </Node>
      </Node>
    </BinaryTree>
    <BinaryTree type="DecisionTree" boostWeight="1.0000000000000000e+00" itree="1419">
      <Node pos="s" depth="0" NCoef="0" IVar="48" Cut="1.1851848363876343e+00" cType="1" res="4.5915818773210049e-03" rms="2.3959493637084961e-01" purity="4.9638000130653381e-01" nType="0">
        <Node pos="l" depth="1" NCoef="0" IVar="57" Cut="-1.2218819856643677e+00" cType="1" res="4.8017837107181549e-02" rms="2.9079896211624146e-01" purity="2.9799461364746094e-01" nType="0">
          <Node pos="l" depth="2" NCoef="0" IVar="-1" Cut="0.0000000000000000e+00" cType="1" res="1.1097984760999680e-01" rms="3.5536164045333862e-01" purity="2.0307905972003937e-01" nType="-99"/>
          <Node pos="r" depth="2" NCoef="0" IVar="-1" Cut="0.0000000000000000e+00" cType="1" res="5.5710356682538986e-03" rms="2.5848522782325745e-01" purity="3.2794469594955444e-01" nType="-99"/>
        </Node>
        <Node pos="r" depth="1" NCoef="0" IVar="79" Cut="1.1663330793380737e+00" cType="1" res="-4.4338628649711609e-03" rms="2.2646836936473846e-01" purity="5.3761118650436401e-01" nType="0">
          <Node pos="l" depth="2" NCoef="0" IVar="-1" Cut="0.0000000000000000e+00" cType="1" res="-3.7466832436621189e-03" rms="2.2062525153160095e-01" purity="5.5209779739379883e-01" nType="-99"/>
          <Node pos="r" depth="2" NCoef="0" IVar="-1" Cut="0.0000000000000000e+00" cType="1" res="2.4976046755909920e-02" rms="2.7886593341827393e-01" purity="3.6762222647666931e-01" nType="-99"/>
        </Node>
      </Node>
    </BinaryTree>
    <BinaryTree type="DecisionTree" boostWeight="1.0000000000000000e+00" itree="1420">
      <Node pos="s" depth="0" NCoef="0" IVar="20" Cut="-2.0380079746246338e-01" cType="1" res="5.8103026822209358e-03" rms="2.4196544289588928e-01" purity="4.9424993991851807e-01" nType="0">
        <Node pos="l" depth="1" NCoef="0" IVar="13" Cut="-8.7560957670211792e-01" cType="1" res="-3.0270107090473175e-02" rms="1.8480880558490753e-01" purity="5.2257710695266724e-01" nType="0">
          <Node pos="l" depth="2" NCoef="0" IVar="-1" Cut="0.0000000000000000e+00" cType="1" res="-1.4474254846572876e-01" rms="-nan" purity="4.2354751378297806e-02" nType="-99"/>
          <Node pos="r" depth="2" NCoef="0" IVar="-1" Cut="0.0000000000000000e+00" cType="1" res="-3.7422524765133858e-03" rms="2.4854227900505066e-01" purity="6.0462820529937744e-01" nType="-99"/>
        </Node>
        <Node pos="r" depth="1" NCoef="0" IVar="37" Cut="-2.6009237766265869e-01" cType="1" res="1.5123462304472923e-02" rms="2.5381273031234741e-01" purity="4.8693808913230896e-01" nType="0">
          <Node pos="l" depth="2" NCoef="0" IVar="-1" Cut="0.0000000000000000e+00" cType="1" res="-8.0708734458312392e-04" rms="2.3108813166618347e-01" purity="4.9509170651435852e-01" nType="-99"/>
          <Node pos="r" depth="2" NCoef="0" IVar="-1" Cut="0.0000000000000000e+00" cType="1" res="1.5616077929735184e-02" rms="2.8323951363563538e-01" purity="4.7438356280326843e-01" nType="-99"/>
        </Node>
      </Node>
    </BinaryTree>
    <BinaryTree type="DecisionTree" boostWeight="1.0000000000000000e+00" itree="1421">
      <Node pos="s" depth="0" NCoef="0" IVar="41" Cut="-3.1470734626054764e-02" cType="1" res="7.0734121836721897e-03" rms="2.3984034359455109e-01" purity="5.0369077920913696e-01" nType="0">
        <Node pos="l" depth="1" NCoef="0" IVar="3" Cut="5.3551268577575684e+00" cType="1" res="2.4490913376212120e-02" rms="2.6523590087890625e-01" purity="5.7740980386734009e-01" nType="0">
          <Node pos="l" depth="2" NCoef="0" IVar="-1" Cut="0.0000000000000000e+00" cType="1" res="5.5625736713409424e-03" rms="2.5820901989936829e-01" purity="5.8565497398376465e-01" nType="-99"/>
          <Node pos="r" depth="2" NCoef="0" IVar="-1" Cut="0.0000000000000000e+00" cType="1" res="4.8098765313625336e-02" rms="3.2040753960609436e-01" purity="4.6704104542732239e-01" nType="-99"/>
        </Node>
        <Node pos="r" depth="1" NCoef="0" IVar="2" Cut="2.4292135238647461e+00" cType="1" res="-9.2587033286690712e-03" rms="2.1200188994407654e-01" purity="4.3456563353538513e-01" nType="0">
          <Node pos="l" depth="2" NCoef="0" IVar="-1" Cut="0.0000000000000000e+00" cType="1" res="-1.6058918088674545e-02" rms="1.5789659321308136e-01" purity="2.4923427402973175e-01" nType="-99"/>
          <Node pos="r" depth="2" NCoef="0" IVar="-1" Cut="0.0000000000000000e+00" cType="1" res="5.3589362651109695e-03" rms="2.5155413150787354e-01" purity="6.1586838960647583e-01" nType="-99"/>
        </Node>
      </Node>
    </BinaryTree>
    <BinaryTree type="DecisionTree" boostWeight="1.0000000000000000e+00" itree="1422">
      <Node pos="s" depth="0" NCoef="0" IVar="38" Cut="-1.4540977478027344e+00" cType="1" res="1.6336842963937670e-04" rms="2.2904579341411591e-01" purity="5.0074392557144165e-01" nType="0">
        <Node pos="l" depth="1" NCoef="0" IVar="79" Cut="-3.8048389554023743e-01" cType="1" res="5.1276549696922302e-02" rms="2.5973194837570190e-01" purity="4.1273191571235657e-01" nType="0">
          <Node pos="l" depth="2" NCoef="0" IVar="-1" Cut="0.0000000000000000e+00" cType="1" res="4.2859360575675964e-02" rms="3.1853121519088745e-01" purity="4.5342576503753662e-01" nType="-99"/>
          <Node pos="r" depth="2" NCoef="0" IVar="-1" Cut="0.0000000000000000e+00" cType="1" res="-2.4944031611084938e-02" rms="-nan" purity="3.3741611242294312e-01" nType="-99"/>
        </Node>
        <Node pos="r" depth="1" NCoef="0" IVar="13" Cut="-1.3768560886383057e+00" cType="1" res="-4.8302537761628628e-03" rms="2.2520315647125244e-01" purity="5.0934243202209473e-01" nType="0">
          <Node pos="l" depth="2" NCoef="0" IVar="-1" Cut="0.0000000000000000e+00" cType="1" res="-5.1090430468320847e-02" rms="-nan" purity="1.0343630611896515e-01" nType="-99"/>
          <Node pos="r" depth="2" NCoef="0" IVar="-1" Cut="0.0000000000000000e+00" cType="1" res="1.7654444673098624e-04" rms="2.4327242374420166e-01" purity="5.4555732011795044e-01" nType="-99"/>
        </Node>
      </Node>
    </BinaryTree>
    <BinaryTree type="DecisionTree" boostWeight="1.0000000000000000e+00" itree="1423">
      <Node pos="s" depth="0" NCoef="0" IVar="31" Cut="2.4113681316375732e+00" cType="1" res="4.2493795044720173e-03" rms="2.3008197546005249e-01" purity="5.0602602958679199e-01" nType="0">
        <Node pos="l" depth="1" NCoef="0" IVar="31" Cut="2.3048493862152100e+00" cType="1" res="-3.9207380264997482e-02" rms="-nan" purity="5.7391427457332611e-02" nType="-99"/>
        <Node pos="r" depth="1" NCoef="0" IVar="39" Cut="-2.3046710491180420e+00" cType="1" res="8.6402818560600281e-03" rms="2.3945832252502441e-01" purity="5.2714610099792480e-01" nType="0">
          <Node pos="l" depth="2" NCoef="0" IVar="-1" Cut="0.0000000000000000e+00" cType="1" res="1.0792220011353493e-02" rms="2.7714201807975769e-01" purity="6.6732311248779297e-01" nType="-99"/>
          <Node pos="r" depth="2" NCoef="0" IVar="-1" Cut="0.0000000000000000e+00" cType="1" res="-1.3109709834679961e-03" rms="2.1333687007427216e-01" purity="4.4483989477157593e-01" nType="-99"/>
        </Node>
      </Node>
    </BinaryTree>
    <BinaryTree type="DecisionTree" boostWeight="1.0000000000000000e+00" itree="1424">
      <Node pos="s" depth="0" NCoef="0" IVar="13" Cut="-1.4154441356658936e+00" cType="1" res="1.0421452112495899e-02" rms="2.5047525763511658e-01" purity="5.0937408208847046e-01" nType="0">
        <Node pos="l" depth="1" NCoef="0" IVar="59" Cut="-1.1077650785446167e+00" cType="1" res="9.5031306147575378e-02" rms="2.9967311024665833e-01" purity="2.7737331390380859e-01" nType="0">
          <Node pos="l" depth="2" NCoef="0" IVar="-1" Cut="0.0000000000000000e+00" cType="1" res="1.8798040691763163e-03" rms="1.0197527706623077e-01" purity="2.2152656316757202e-01" nType="-99"/>
          <Node pos="r" depth="2" NCoef="0" IVar="-1" Cut="0.0000000000000000e+00" cType="1" res="9.6144907176494598e-02" rms="3.6730960011482239e-01" purity="3.1609177589416504e-01" nType="-99"/>
        </Node>
        <Node pos="r" depth="1" NCoef="0" IVar="81" Cut="-5.0273889303207397e-01" cType="1" res="1.7968933098018169e-03" rms="2.4325874447822571e-01" purity="5.3302270174026489e-01" nType="0">
          <Node pos="l" depth="2" NCoef="0" IVar="-1" Cut="0.0000000000000000e+00" cType="1" res="-7.2915956843644381e-04" rms="2.3772288858890533e-01" purity="5.3835338354110718e-01" nType="-99"/>
          <Node pos="r" depth="2" NCoef="0" IVar="-1" Cut="0.0000000000000000e+00" cType="1" res="5.6333608925342560e-02" rms="3.6729282140731812e-01" purity="3.4489849209785461e-01" nType="-99"/>
        </Node>
      </Node>
    </BinaryTree>
    <BinaryTree type="DecisionTree" boostWeight="1.0000000000000000e+00" itree="1425">
      <Node pos="s" depth="0" NCoef="0" IVar="16" Cut="1.2825090885162354e+00" cType="1" res="1.4519486576318741e-03" rms="2.2500158846378326e-01" purity="5.0512897968292236e-01" nType="0">
        <Node pos="l" depth="1" NCoef="0" IVar="84" Cut="-2.6976636052131653e-01" cType="1" res="4.4082682579755783e-03" rms="2.3170603811740875e-01" purity="5.1473069190979004e-01" nType="0">
          <Node pos="l" depth="2" NCoef="0" IVar="-1" Cut="0.0000000000000000e+00" cType="1" res="-1.1928169056773186e-02" rms="1.7008657753467560e-01" purity="5.0294917821884155e-01" nType="-99"/>
          <Node pos="r" depth="2" NCoef="0" IVar="-1" Cut="0.0000000000000000e+00" cType="1" res="4.5035732910037041e-03" rms="2.4265842139720917e-01" purity="5.1735657453536987e-01" nType="-99"/>
        </Node>
        <Node pos="r" depth="1" NCoef="0" IVar="-1" Cut="0.0000000000000000e+00" cType="1" res="-4.5602425932884216e-02" rms="-nan" purity="1.3855640590190887e-01" nType="-99"/>
      </Node>
    </BinaryTree>
    <BinaryTree type="DecisionTree" boostWeight="1.0000000000000000e+00" itree="1426">
      <Node pos="s" depth="0" NCoef="0" IVar="16" Cut="1.2828538417816162e+00" cType="1" res="4.0113204158842564e-03" rms="2.3080906271934509e-01" purity="4.9774041771888733e-01" nType="0">
        <Node pos="l" depth="1" NCoef="0" IVar="34" Cut="3.5726711153984070e-01" cType="1" res="7.1128387935459614e-03" rms="2.3632174730300903e-01" purity="5.0859320163726807e-01" nType="0">
          <Node pos="l" depth="2" NCoef="0" IVar="-1" Cut="0.0000000000000000e+00" cType="1" res="1.3631465844810009e-02" rms="2.4989321827888489e-01" purity="2.9465192556381226e-01" nType="-99"/>
          <Node pos="r" depth="2" NCoef="0" IVar="-1" Cut="0.0000000000000000e+00" cType="1" res="-7.5562763959169388e-04" rms="2.3075801134109497e-01" purity="5.8228462934494019e-01" nType="-99"/>
        </Node>
        <Node pos="r" depth="1" NCoef="0" IVar="-1" Cut="0.0000000000000000e+00" cType="1" res="-6.4376547932624817e-02" rms="-nan" purity="4.2927447706460953e-02" nType="-99"/>
      </Node>
    </BinaryTree>
    <BinaryTree type="DecisionTree" boostWeight="1.0000000000000000e+00" itree="1427">
      <Node pos="s" depth="0" NCoef="0" IVar="52" Cut="2.6884469985961914e+00" cType="1" res="2.2079667542129755e-03" rms="2.3349004983901978e-01" purity="4.9522185325622559e-01" nType="0">
        <Node pos="l" depth="1" NCoef="0" IVar="88" Cut="1.0111578702926636e+00" cType="1" res="4.5091107487678528e-02" rms="2.7117291092872620e-01" purity="2.8814417123794556e-01" nType="0">
          <Node pos="l" depth="2" NCoef="0" IVar="-1" Cut="0.0000000000000000e+00" cType="1" res="2.8665514662861824e-02" rms="3.2732611894607544e-01" purity="3.4955391287803650e-01" nType="-99"/>
          <Node pos="r" depth="2" NCoef="0" IVar="-1" Cut="0.0000000000000000e+00" cType="1" res="-3.0958397313952446e-02" rms="-nan" purity="1.2056798487901688e-01" nType="-99"/>
        </Node>
        <Node pos="r" depth="1" NCoef="0" IVar="73" Cut="2.2207150459289551e+00" cType="1" res="-7.2629619389772415e-03" rms="2.2320784628391266e-01" purity="5.4095584154129028e-01" nType="0">
          <Node pos="l" depth="2" NCoef="0" IVar="-1" Cut="0.0000000000000000e+00" cType="1" res="-3.5882066935300827e-02" rms="-nan" purity="2.5735324621200562e-01" nType="-99"/>
          <Node pos="r" depth="2" NCoef="0" IVar="-1" Cut="0.0000000000000000e+00" cType="1" res="-1.3804472982883453e-03" rms="2.2979600727558136e-01" purity="5.5227756500244141e-01" nType="-99"/>
        </Node>
      </Node>
    </BinaryTree>
    <BinaryTree type="DecisionTree" boostWeight="1.0000000000000000e+00" itree="1428">
      <Node pos="s" depth="0" NCoef="0" IVar="48" Cut="1.7071509361267090e+00" cType="1" res="-3.0205030925571918e-03" rms="2.1332111954689026e-01" purity="5.0307357311248779e-01" nType="0">
        <Node pos="l" depth="1" NCoef="0" IVar="0" Cut="1.0923534631729126e+00" cType="1" res="1.9879532977938652e-02" rms="2.5069862604141235e-01" purity="3.6482200026512146e-01" nType="0">
          <Node pos="l" depth="2" NCoef="0" IVar="-1" Cut="0.0000000000000000e+00" cType="1" res="1.3738856650888920e-02" rms="2.8104785084724426e-01" purity="4.1705811023712158e-01" nType="-99"/>
          <Node pos="r" depth="2" NCoef="0" IVar="-1" Cut="0.0000000000000000e+00" cType="1" res="-2.5636227801442146e-02" rms="-nan" purity="1.5914450585842133e-01" nType="-99"/>
        </Node>
        <Node pos="r" depth="1" NCoef="0" IVar="17" Cut="-3.7167426943778992e-01" cType="1" res="-1.7333870753645897e-02" rms="1.8475030362606049e-01" purity="5.8948582410812378e-01" nType="0">
          <Node pos="l" depth="2" NCoef="0" IVar="-1" Cut="0.0000000000000000e+00" cType="1" res="-1.7247273027896881e-01" rms="-nan" purity="-7.6346665620803833e-02" nType="-99"/>
          <Node pos="r" depth="2" NCoef="0" IVar="-1" Cut="0.0000000000000000e+00" cType="1" res="-1.3272290816530585e-03" rms="2.3631642758846283e-01" purity="6.9381844997406006e-01" nType="-99"/>
        </Node>
      </Node>
    </BinaryTree>
    <BinaryTree type="DecisionTree" boostWeight="1.0000000000000000e+00" itree="1429">
      <Node pos="s" depth="0" NCoef="0" IVar="15" Cut="1.4837456941604614e+00" cType="1" res="2.7075605466961861e-03" rms="2.2990271449089050e-01" purity="5.0306963920593262e-01" nType="0">
        <Node pos="l" depth="1" NCoef="0" IVar="83" Cut="-2.4919071793556213e-01" cType="1" res="1.4700464904308319e-02" rms="2.2631260752677917e-01" purity="4.5116573572158813e-01" nType="0">
          <Node pos="l" depth="2" NCoef="0" IVar="-1" Cut="0.0000000000000000e+00" cType="1" res="2.9770283028483391e-02" rms="3.1482565402984619e-01" purity="5.7682698965072632e-01" nType="-99"/>
          <Node pos="r" depth="2" NCoef="0" IVar="-1" Cut="0.0000000000000000e+00" cType="1" res="2.7784970588982105e-03" rms="2.0448622107505798e-01" purity="4.2764592170715332e-01" nType="-99"/>
        </Node>
        <Node pos="r" depth="1" NCoef="0" IVar="17" Cut="1.5230269432067871e+00" cType="1" res="-2.0047474652528763e-02" rms="2.3488764464855194e-01" purity="6.0155075788497925e-01" nType="0">
          <Node pos="l" depth="2" NCoef="0" IVar="-1" Cut="0.0000000000000000e+00" cType="1" res="-2.3886064067482948e-02" rms="1.1180743575096130e-01" purity="2.3104417324066162e-01" nType="-99"/>
          <Node pos="r" depth="2" NCoef="0" IVar="-1" Cut="0.0000000000000000e+00" cType="1" res="6.4803007990121841e-04" rms="2.6681458950042725e-01" purity="7.5531339645385742e-01" nType="-99"/>
        </Node>
      </Node>
    </BinaryTree>
    <BinaryTree type="DecisionTree" boostWeight="1.0000000000000000e+00" itree="1430">
      <Node pos="s" depth="0" NCoef="0" IVar="58" Cut="-1.4155714511871338e+00" cType="1" res="2.9129262547940016e-03" rms="2.3847657442092896e-01" purity="5.0432503223419189e-01" nType="0">
        <Node pos="l" depth="1" NCoef="0" IVar="15" Cut="5.1677042245864868e-01" cType="1" res="-2.6791753247380257e-02" rms="-nan" purity="2.6741394400596619e-01" nType="-99"/>
        <Node pos="r" depth="1" NCoef="0" IVar="57" Cut="-8.7202554941177368e-01" cType="1" res="9.3780048191547394e-03" rms="2.5035744905471802e-01" purity="5.2983969449996948e-01" nType="0">
          <Node pos="l" depth="2" NCoef="0" IVar="-1" Cut="0.0000000000000000e+00" cType="1" res="5.9700142592191696e-02" rms="2.7409091591835022e-01" purity="1.3288509845733643e-01" nType="-99"/>
          <Node pos="r" depth="2" NCoef="0" IVar="-1" Cut="0.0000000000000000e+00" cType="1" res="-8.5130892693996429e-04" rms="2.4409845471382141e-01" purity="5.9795981645584106e-01" nType="-99"/>
        </Node>
      </Node>
    </BinaryTree>
    <BinaryTree type="DecisionTree" boostWeight="1.0000000000000000e+00" itree="1431">
      <Node pos="s" depth="0" NCoef="0" IVar="16" Cut="1.1286565065383911e+00" cType="1" res="-4.3112291023135185e-03" rms="2.2583375871181488e-01" purity="4.9422350525856018e-01" nType="0">
        <Node pos="l" depth="1" NCoef="0" IVar="4" Cut="3.3179202079772949e+00" cType="1" res="-8.6804423481225967e-03" rms="2.1960759162902832e-01" purity="5.0175464153289795e-01" nType="0">
          <Node pos="l" depth="2" NCoef="0" IVar="-1" Cut="0.0000000000000000e+00" cType="1" res="-3.0966896563768387e-02" rms="-nan" purity="1.2662020325660706e-01" nType="-99"/>
          <Node pos="r" depth="2" NCoef="0" IVar="-1" Cut="0.0000000000000000e+00" cType="1" res="-9.7212119726464152e-04" rms="2.3595154285430908e-01" purity="5.3553688526153564e-01" nType="-99"/>
        </Node>
        <Node pos="r" depth="1" NCoef="0" IVar="20" Cut="2.8893307317048311e-03" cType="1" res="6.8172015249729156e-02" rms="3.0238991975784302e-01" purity="3.6928555369377136e-01" nType="0">
          <Node pos="l" depth="2" NCoef="0" IVar="-1" Cut="0.0000000000000000e+00" cType="1" res="-4.5514479279518127e-03" rms="1.6126523911952972e-01" purity="2.9960438609123230e-01" nType="-99"/>
          <Node pos="r" depth="2" NCoef="0" IVar="-1" Cut="0.0000000000000000e+00" cType="1" res="5.3926154971122742e-02" rms="3.7323597073554993e-01" purity="4.3203476071357727e-01" nType="-99"/>
        </Node>
      </Node>
    </BinaryTree>
    <BinaryTree type="DecisionTree" boostWeight="1.0000000000000000e+00" itree="1432">
      <Node pos="s" depth="0" NCoef="0" IVar="70" Cut="-1.0053409337997437e+00" cType="1" res="9.3161928816698492e-05" rms="2.2348619997501373e-01" purity="5.0316560268402100e-01" nType="0">
        <Node pos="l" depth="1" NCoef="0" IVar="59" Cut="1.2845013141632080e+00" cType="1" res="-4.6771625056862831e-03" rms="2.1800258755683899e-01" purity="5.0327986478805542e-01" nType="0">
          <Node pos="l" depth="2" NCoef="0" IVar="-1" Cut="0.0000000000000000e+00" cType="1" res="-1.4950668439269066e-02" rms="9.0236537158489227e-02" purity="2.3822920024394989e-01" nType="-99"/>
          <Node pos="r" depth="2" NCoef="0" IVar="-1" Cut="0.0000000000000000e+00" cType="1" res="3.3431029878556728e-03" rms="2.5866010785102844e-01" purity="6.3768458366394043e-01" nType="-99"/>
        </Node>
        <Node pos="r" depth="1" NCoef="0" IVar="0" Cut="1.0008587837219238e+00" cType="1" res="6.1339180916547775e-02" rms="2.7746248245239258e-01" purity="5.0169831514358521e-01" nType="0">
          <Node pos="l" depth="2" NCoef="0" IVar="-1" Cut="0.0000000000000000e+00" cType="1" res="8.4928739815950394e-03" rms="2.1477691829204559e-01" purity="5.3589332103729248e-01" nType="-99"/>
          <Node pos="r" depth="2" NCoef="0" IVar="-1" Cut="0.0000000000000000e+00" cType="1" res="4.9046017229557037e-02" rms="3.7479665875434875e-01" purity="4.1964805126190186e-01" nType="-99"/>
        </Node>
      </Node>
    </BinaryTree>
    <BinaryTree type="DecisionTree" boostWeight="1.0000000000000000e+00" itree="1433">
      <Node pos="s" depth="0" NCoef="0" IVar="82" Cut="1.7078132629394531e+00" cType="1" res="-2.5394826661795378e-03" rms="2.2644713521003723e-01" purity="4.9093595147132874e-01" nType="0">
        <Node pos="l" depth="1" NCoef="0" IVar="77" Cut="-8.7416404485702515e-01" cType="1" res="-5.4281656630337238e-03" rms="2.2224552929401398e-01" purity="4.9406528472900391e-01" nType="0">
          <Node pos="l" depth="2" NCoef="0" IVar="-1" Cut="0.0000000000000000e+00" cType="1" res="7.6091452501714230e-04" rms="2.4138696491718292e-01" purity="5.4538977146148682e-01" nType="-99"/>
          <Node pos="r" depth="2" NCoef="0" IVar="-1" Cut="0.0000000000000000e+00" cType="1" res="-2.0104402676224709e-02" rms="6.3740588724613190e-02" purity="2.4139523506164551e-01" nType="-99"/>
        </Node>
        <Node pos="r" depth="1" NCoef="0" IVar="-1" Cut="0.0000000000000000e+00" cType="1" res="4.4556964188814163e-02" rms="3.3568540215492249e-01" purity="3.6658635735511780e-01" nType="-99"/>
      </Node>
    </BinaryTree>
    <BinaryTree type="DecisionTree" boostWeight="1.0000000000000000e+00" itree="1434">
      <Node pos="s" depth="0" NCoef="0" IVar="1" Cut="2.6735746860504150e+00" cType="1" res="1.7116249073296785e-03" rms="2.2990237176418304e-01" purity="4.9880295991897583e-01" nType="0">
        <Node pos="l" depth="1" NCoef="0" IVar="29" Cut="-1.7452181875705719e-01" cType="1" res="2.3470925167202950e-02" rms="2.6811847090721130e-01" purity="3.7036573886871338e-01" nType="0">
          <Node pos="l" depth="2" NCoef="0" IVar="-1" Cut="0.0000000000000000e+00" cType="1" res="4.7284136526286602e-03" rms="2.5787520408630371e-01" purity="3.6081397533416748e-01" nType="-99"/>
          <Node pos="r" depth="2" NCoef="0" IVar="-1" Cut="0.0000000000000000e+00" cType="1" res="5.3204819560050964e-02" rms="3.4199202060699463e-01" purity="4.8101690411567688e-01" nType="-99"/>
        </Node>
        <Node pos="r" depth="1" NCoef="0" IVar="35" Cut="1.4435511827468872e+00" cType="1" res="-1.2140158563852310e-02" rms="2.0061394572257996e-01" purity="5.8056503534317017e-01" nType="0">
          <Node pos="l" depth="2" NCoef="0" IVar="-1" Cut="0.0000000000000000e+00" cType="1" res="-2.7460821438580751e-03" rms="2.0979426801204681e-01" purity="5.9297925233840942e-01" nType="-99"/>
          <Node pos="r" depth="2" NCoef="0" IVar="-1" Cut="0.0000000000000000e+00" cType="1" res="-5.6857503950595856e-02" rms="-nan" purity="2.3446722328662872e-01" nType="-99"/>
        </Node>
      </Node>
    </BinaryTree>
    <BinaryTree type="DecisionTree" boostWeight="1.0000000000000000e+00" itree="1435">
      <Node pos="s" depth="0" NCoef="0" IVar="2" Cut="2.1710047721862793e+00" cType="1" res="5.0635612569749355e-03" rms="2.3390677571296692e-01" purity="5.0754827260971069e-01" nType="0">
        <Node pos="l" depth="1" NCoef="0" IVar="34" Cut="-1.4927144050598145e+00" cType="1" res="-2.2418290376663208e-02" rms="1.7251485586166382e-01" purity="2.5174549221992493e-01" nType="0">
          <Node pos="l" depth="2" NCoef="0" IVar="-1" Cut="0.0000000000000000e+00" cType="1" res="3.9684977382421494e-02" rms="3.4331515431404114e-01" purity="2.6448503136634827e-01" nType="-99"/>
          <Node pos="r" depth="2" NCoef="0" IVar="-1" Cut="0.0000000000000000e+00" cType="1" res="-1.3065936975181103e-02" rms="1.4967364072799683e-01" purity="2.5082403421401978e-01" nType="-99"/>
        </Node>
        <Node pos="r" depth="1" NCoef="0" IVar="16" Cut="1.2057551145553589e+00" cType="1" res="1.8345262855291367e-02" rms="2.5735101103782654e-01" purity="6.3117516040802002e-01" nType="0">
          <Node pos="l" depth="2" NCoef="0" IVar="-1" Cut="0.0000000000000000e+00" cType="1" res="4.2604915797710419e-03" rms="2.5030842423439026e-01" purity="6.3837265968322754e-01" nType="-99"/>
          <Node pos="r" depth="2" NCoef="0" IVar="-1" Cut="0.0000000000000000e+00" cType="1" res="3.8966383785009384e-02" rms="3.4216246008872986e-01" purity="5.0110292434692383e-01" nType="-99"/>
        </Node>
      </Node>
    </BinaryTree>
    <BinaryTree type="DecisionTree" boostWeight="1.0000000000000000e+00" itree="1436">
      <Node pos="s" depth="0" NCoef="0" IVar="35" Cut="-1.3766583204269409e+00" cType="1" res="2.6036051567643881e-03" rms="2.3128508031368256e-01" purity="4.9664288759231567e-01" nType="0">
        <Node pos="l" depth="1" NCoef="0" IVar="19" Cut="8.4592258930206299e-01" cType="1" res="-2.1756559610366821e-02" rms="1.7929343879222870e-01" purity="3.9766684174537659e-01" nType="0">
          <Node pos="l" depth="2" NCoef="0" IVar="-1" Cut="0.0000000000000000e+00" cType="1" res="2.0384558592922986e-04" rms="2.3049178719520569e-01" purity="4.5426571369171143e-01" nType="-99"/>
          <Node pos="r" depth="2" NCoef="0" IVar="-1" Cut="0.0000000000000000e+00" cType="1" res="-3.3946212381124496e-02" rms="-nan" purity="2.7286267280578613e-01" nType="-99"/>
        </Node>
        <Node pos="r" depth="1" NCoef="0" IVar="82" Cut="1.5910605192184448e+00" cType="1" res="1.3126188889145851e-02" rms="2.4969302117824554e-01" purity="5.3939634561538696e-01" nType="0">
          <Node pos="l" depth="2" NCoef="0" IVar="-1" Cut="0.0000000000000000e+00" cType="1" res="6.2752906233072281e-03" rms="2.5758200883865356e-01" purity="5.5040305852890015e-01" nType="-99"/>
          <Node pos="r" depth="2" NCoef="0" IVar="-1" Cut="0.0000000000000000e+00" cType="1" res="-3.8708906620740891e-02" rms="-nan" purity="2.0540744066238403e-01" nType="-99"/>
        </Node>
      </Node>
    </BinaryTree>
    <BinaryTree type="DecisionTree" boostWeight="1.0000000000000000e+00" itree="1437">
      <Node pos="s" depth="0" NCoef="0" IVar="41" Cut="-4.6766686439514160e-01" cType="1" res="1.7997861141338944e-03" rms="2.3207718133926392e-01" purity="5.0765091180801392e-01" nType="0">
        <Node pos="l" depth="1" NCoef="0" IVar="-1" Cut="0.0000000000000000e+00" cType="1" res="-3.9652191102504730e-02" rms="2.7704900130629539e-02" purity="5.0740683078765869e-01" nType="-99"/>
        <Node pos="r" depth="1" NCoef="0" IVar="52" Cut="2.3876981735229492e+00" cType="1" res="4.3131848797202110e-03" rms="2.3425976932048798e-01" purity="5.0765681266784668e-01" nType="0">
          <Node pos="l" depth="2" NCoef="0" IVar="-1" Cut="0.0000000000000000e+00" cType="1" res="3.6418981850147247e-02" rms="3.3095365762710571e-01" purity="2.2420555353164673e-01" nType="-99"/>
          <Node pos="r" depth="2" NCoef="0" IVar="-1" Cut="0.0000000000000000e+00" cType="1" res="2.4067853519227356e-04" rms="2.2810102999210358e-01" purity="5.2084302902221680e-01" nType="-99"/>
        </Node>
      </Node>
    </BinaryTree>
    <BinaryTree type="DecisionTree" boostWeight="1.0000000000000000e+00" itree="1438">
      <Node pos="s" depth="0" NCoef="0" IVar="57" Cut="-1.3764917850494385e+00" cType="1" res="-4.7422051429748535e-03" rms="2.2002291679382324e-01" purity="4.9639090895652771e-01" nType="0">
        <Node pos="l" depth="1" NCoef="0" IVar="57" Cut="-1.4504765272140503e+00" cType="1" res="-5.1491755992174149e-02" rms="-nan" purity="-7.0438124239444733e-03" nType="-99"/>
        <Node pos="r" depth="1" NCoef="0" IVar="84" Cut="-6.1730813980102539e-01" cType="1" res="3.2170212944038212e-04" rms="2.3674257099628448e-01" purity="5.4151713848114014e-01" nType="0">
          <Node pos="l" depth="2" NCoef="0" IVar="-1" Cut="0.0000000000000000e+00" cType="1" res="-4.3333005160093307e-02" rms="-nan" purity="4.4969150424003601e-01" nType="-99"/>
          <Node pos="r" depth="2" NCoef="0" IVar="-1" Cut="0.0000000000000000e+00" cType="1" res="1.0759190190583467e-03" rms="2.4117092788219452e-01" purity="5.4397183656692505e-01" nType="-99"/>
        </Node>
      </Node>
    </BinaryTree>
    <BinaryTree type="DecisionTree" boostWeight="1.0000000000000000e+00" itree="1439">
      <Node pos="s" depth="0" NCoef="0" IVar="4" Cut="3.6330590248107910e+00" cType="1" res="6.0654538683593273e-03" rms="2.4059358239173889e-01" purity="5.0240081548690796e-01" nType="0">
        <Node pos="l" depth="1" NCoef="0" IVar="79" Cut="-5.2731537818908691e-01" cType="1" res="2.4649260565638542e-02" rms="2.6373210549354553e-01" purity="3.8687890768051147e-01" nType="0">
          <Node pos="l" depth="2" NCoef="0" IVar="-1" Cut="0.0000000000000000e+00" cType="1" res="2.6198662817478180e-03" rms="2.4349401891231537e-01" purity="4.0962129831314087e-01" nType="-99"/>
          <Node pos="r" depth="2" NCoef="0" IVar="-1" Cut="0.0000000000000000e+00" cType="1" res="2.8592029586434364e-02" rms="3.0655470490455627e-01" purity="3.2631170749664307e-01" nType="-99"/>
        </Node>
        <Node pos="r" depth="1" NCoef="0" IVar="17" Cut="-1.3377283811569214e+00" cType="1" res="-1.0217865929007530e-02" rms="2.1700859069824219e-01" purity="6.0362231731414795e-01" nType="0">
          <Node pos="l" depth="2" NCoef="0" IVar="-1" Cut="0.0000000000000000e+00" cType="1" res="-1.5117220878601074e+00" rms="-nan" purity="-8.9756831526756287e-02" nType="-99"/>
          <Node pos="r" depth="2" NCoef="0" IVar="-1" Cut="0.0000000000000000e+00" cType="1" res="-1.3453894061967731e-03" rms="2.4211072921752930e-01" purity="6.6037410497665405e-01" nType="-99"/>
        </Node>
      </Node>
    </BinaryTree>
    <BinaryTree type="DecisionTree" boostWeight="1.0000000000000000e+00" itree="1440">
      <Node pos="s" depth="0" NCoef="0" IVar="61" Cut="1.2184141874313354e+00" cType="1" res="-4.9155321903526783e-03" rms="2.1617634594440460e-01" purity="4.9886721372604370e-01" nType="0">
        <Node pos="l" depth="1" NCoef="0" IVar="61" Cut="1.0712536573410034e+00" cType="1" res="2.3496209178119898e-03" rms="2.2783453762531281e-01" purity="5.3464806079864502e-01" nType="0">
          <Node pos="l" depth="2" NCoef="0" IVar="-1" Cut="0.0000000000000000e+00" cType="1" res="-1.1959853582084179e-03" rms="2.1964709460735321e-01" purity="5.4578024148941040e-01" nType="-99"/>
          <Node pos="r" depth="2" NCoef="0" IVar="-1" Cut="0.0000000000000000e+00" cType="1" res="2.7879837900400162e-02" rms="3.0088245868682861e-01" purity="4.0397483110427856e-01" nType="-99"/>
        </Node>
        <Node pos="r" depth="1" NCoef="0" IVar="78" Cut="-1.2263942956924438e+00" cType="1" res="-6.0042183846235275e-02" rms="6.3367635011672974e-02" purity="2.2736842930316925e-01" nType="0">
          <Node pos="l" depth="2" NCoef="0" IVar="-1" Cut="0.0000000000000000e+00" cType="1" res="-8.9465279597789049e-04" rms="2.6210910081863403e-01" purity="3.7183794379234314e-01" nType="-99"/>
          <Node pos="r" depth="2" NCoef="0" IVar="-1" Cut="0.0000000000000000e+00" cType="1" res="-7.0872977375984192e-02" rms="-nan" purity="3.9658411405980587e-03" nType="-99"/>
        </Node>
      </Node>
    </BinaryTree>
    <BinaryTree type="DecisionTree" boostWeight="1.0000000000000000e+00" itree="1441">
      <Node pos="s" depth="0" NCoef="0" IVar="6" Cut="2.8651299476623535e+00" cType="1" res="-8.2087342161685228e-04" rms="2.3225750029087067e-01" purity="4.9379166960716248e-01" nType="0">
        <Node pos="l" depth="1" NCoef="0" IVar="1" Cut="3.1105170249938965e+00" cType="1" res="-1.0003977455198765e-02" rms="2.1697337925434113e-01" purity="4.4975528120994568e-01" nType="0">
          <Node pos="l" depth="2" NCoef="0" IVar="-1" Cut="0.0000000000000000e+00" cType="1" res="-2.5031768018379807e-04" rms="2.2762054204940796e-01" purity="4.3900761008262634e-01" nType="-99"/>
          <Node pos="r" depth="2" NCoef="0" IVar="-1" Cut="0.0000000000000000e+00" cType="1" res="-2.1824764087796211e-02" rms="1.5458787977695465e-01" purity="4.9757665395736694e-01" nType="-99"/>
        </Node>
        <Node pos="r" depth="1" NCoef="0" IVar="57" Cut="5.3823020309209824e-02" cType="1" res="4.0392529219388962e-02" rms="2.8754359483718872e-01" purity="6.9142526388168335e-01" nType="0">
          <Node pos="l" depth="2" NCoef="0" IVar="-1" Cut="0.0000000000000000e+00" cType="1" res="6.3482977449893951e-02" rms="3.8342523574829102e-01" purity="3.2136967778205872e-01" nType="-99"/>
          <Node pos="r" depth="2" NCoef="0" IVar="-1" Cut="0.0000000000000000e+00" cType="1" res="5.2070301026105881e-03" rms="2.5480741262435913e-01" purity="7.6994383335113525e-01" nType="-99"/>
        </Node>
      </Node>
    </BinaryTree>
    <BinaryTree type="DecisionTree" boostWeight="1.0000000000000000e+00" itree="1442">
      <Node pos="s" depth="0" NCoef="0" IVar="62" Cut="2.1736270189285278e-01" cType="1" res="-2.6212234515696764e-03" rms="2.2474321722984314e-01" purity="4.9577817320823669e-01" nType="0">
        <Node pos="l" depth="1" NCoef="0" IVar="18" Cut="-8.6138153076171875e-01" cType="1" res="-1.2238719500601292e-02" rms="2.0665457844734192e-01" purity="5.0722610950469971e-01" nType="0">
          <Node pos="l" depth="2" NCoef="0" IVar="-1" Cut="0.0000000000000000e+00" cType="1" res="-2.1936423145234585e-03" rms="2.2077465057373047e-01" purity="5.3022503852844238e-01" nType="-99"/>
          <Node pos="r" depth="2" NCoef="0" IVar="-1" Cut="0.0000000000000000e+00" cType="1" res="-3.6717962473630905e-02" rms="-nan" purity="2.0125795900821686e-01" nType="-99"/>
        </Node>
        <Node pos="r" depth="1" NCoef="0" IVar="57" Cut="1.2889753580093384e+00" cType="1" res="5.5383391678333282e-02" rms="3.0602392554283142e-01" purity="4.2673361301422119e-01" nType="0">
          <Node pos="l" depth="2" NCoef="0" IVar="-1" Cut="0.0000000000000000e+00" cType="1" res="4.7813858836889267e-02" rms="3.4278091788291931e-01" purity="2.6584768295288086e-01" nType="-99"/>
          <Node pos="r" depth="2" NCoef="0" IVar="-1" Cut="0.0000000000000000e+00" cType="1" res="2.9264185577630997e-03" rms="2.6640149950981140e-01" purity="5.4405021667480469e-01" nType="-99"/>
        </Node>
      </Node>
    </BinaryTree>
    <BinaryTree type="DecisionTree" boostWeight="1.0000000000000000e+00" itree="1443">
      <Node pos="s" depth="0" NCoef="0" IVar="31" Cut="2.4344277381896973e+00" cType="1" res="7.7473302371799946e-03" rms="2.3952810466289520e-01" purity="4.9928021430969238e-01" nType="0">
        <Node pos="l" depth="1" NCoef="0" IVar="83" Cut="3.5427298396825790e-02" cType="1" res="8.5300199687480927e-02" rms="3.2803249359130859e-01" purity="2.0683073997497559e-01" nType="0">
          <Node pos="l" depth="2" NCoef="0" IVar="-1" Cut="0.0000000000000000e+00" cType="1" res="7.9602017998695374e-02" rms="3.9778435230255127e-01" purity="3.0028450489044189e-01" nType="-99"/>
          <Node pos="r" depth="2" NCoef="0" IVar="-1" Cut="0.0000000000000000e+00" cType="1" res="-9.6162119880318642e-03" rms="1.6706700623035431e-01" purity="9.7003333270549774e-02" nType="-99"/>
        </Node>
        <Node pos="r" depth="1" NCoef="0" IVar="59" Cut="8.6021387577056885e-01" cType="1" res="2.6568700559437275e-03" rms="2.3163740336894989e-01" purity="5.1847618818283081e-01" nType="0">
          <Node pos="l" depth="2" NCoef="0" IVar="-1" Cut="0.0000000000000000e+00" cType="1" res="1.2217713519930840e-02" rms="2.2835226356983185e-01" purity="3.0542206764221191e-01" nType="-99"/>
          <Node pos="r" depth="2" NCoef="0" IVar="-1" Cut="0.0000000000000000e+00" cType="1" res="-3.1834533438086510e-03" rms="2.3213949799537659e-01" purity="6.1216515302658081e-01" nType="-99"/>
        </Node>
      </Node>
    </BinaryTree>
    <BinaryTree type="DecisionTree" boostWeight="1.0000000000000000e+00" itree="1444">
      <Node pos="s" depth="0" NCoef="0" IVar="18" Cut="-5.9367072582244873e-01" cType="1" res="2.9028579592704773e-03" rms="2.3499056696891785e-01" purity="5.0109821557998657e-01" nType="0">
        <Node pos="l" depth="1" NCoef="0" IVar="50" Cut="-2.3269575834274292e-01" cType="1" res="-6.7149859387427568e-04" rms="2.2840727865695953e-01" purity="5.0722646713256836e-01" nType="0">
          <Node pos="l" depth="2" NCoef="0" IVar="-1" Cut="0.0000000000000000e+00" cType="1" res="-2.0154481753706932e-03" rms="2.2212070226669312e-01" purity="5.0701826810836792e-01" nType="-99"/>
          <Node pos="r" depth="2" NCoef="0" IVar="-1" Cut="0.0000000000000000e+00" cType="1" res="2.0723640918731689e-02" rms="2.9667532444000244e-01" purity="5.1017874479293823e-01" nType="-99"/>
        </Node>
        <Node pos="r" depth="1" NCoef="0" IVar="-1" Cut="0.0000000000000000e+00" cType="1" res="3.6828447133302689e-02" rms="3.5787186026573181e-01" purity="3.3526453375816345e-01" nType="-99"/>
      </Node>
    </BinaryTree>
    <BinaryTree type="DecisionTree" boostWeight="1.0000000000000000e+00" itree="1445">
      <Node pos="s" depth="0" NCoef="0" IVar="58" Cut="9.7377282381057739e-01" cType="1" res="3.5771955735981464e-03" rms="2.3324128985404968e-01" purity="5.0001704692840576e-01" nType="0">
        <Node pos="l" depth="1" NCoef="0" IVar="25" Cut="1.0637456178665161e+00" cType="1" res="1.0820421390235424e-02" rms="2.4187804758548737e-01" purity="5.1241761445999146e-01" nType="0">
          <Node pos="l" depth="2" NCoef="0" IVar="-1" Cut="0.0000000000000000e+00" cType="1" res="1.1304821819067001e-03" rms="2.3211784660816193e-01" purity="5.3993016481399536e-01" nType="-99"/>
          <Node pos="r" depth="2" NCoef="0" IVar="-1" Cut="0.0000000000000000e+00" cType="1" res="2.0558038726449013e-02" rms="2.8040507435798645e-01" purity="3.8316261768341064e-01" nType="-99"/>
        </Node>
        <Node pos="r" depth="1" NCoef="0" IVar="25" Cut="8.8132894039154053e-01" cType="1" res="-4.5003652572631836e-02" rms="1.5545767545700073e-01" purity="4.1684570908546448e-01" nType="0">
          <Node pos="l" depth="2" NCoef="0" IVar="-1" Cut="0.0000000000000000e+00" cType="1" res="-4.3181031942367554e-02" rms="-nan" purity="4.8746001720428467e-01" nType="-99"/>
          <Node pos="r" depth="2" NCoef="0" IVar="-1" Cut="0.0000000000000000e+00" cType="1" res="-8.0288369208574295e-03" rms="1.8138121068477631e-01" purity="3.9791756868362427e-01" nType="-99"/>
        </Node>
      </Node>
    </BinaryTree>
    <BinaryTree type="DecisionTree" boostWeight="1.0000000000000000e+00" itree="1446">
      <Node pos="s" depth="0" NCoef="0" IVar="69" Cut="2.2117598056793213e+00" cType="1" res="3.7681316025555134e-03" rms="2.3807956278324127e-01" purity="4.9681234359741211e-01" nType="0">
        <Node pos="l" depth="1" NCoef="0" IVar="41" Cut="-1.3273577392101288e-01" cType="1" res="1.5510467812418938e-02" rms="2.5272753834724426e-01" purity="4.3148189783096313e-01" nType="0">
          <Node pos="l" depth="2" NCoef="0" IVar="-1" Cut="0.0000000000000000e+00" cType="1" res="-7.2438176721334457e-03" rms="1.8703168630599976e-01" purity="4.7286456823348999e-01" nType="-99"/>
          <Node pos="r" depth="2" NCoef="0" IVar="-1" Cut="0.0000000000000000e+00" cType="1" res="1.1129884980618954e-02" rms="2.7262750267982483e-01" purity="4.1555556654930115e-01" nType="-99"/>
        </Node>
        <Node pos="r" depth="1" NCoef="0" IVar="36" Cut="-6.1316099017858505e-02" cType="1" res="-2.3914970457553864e-02" rms="1.9657385349273682e-01" purity="6.5083193778991699e-01" nType="0">
          <Node pos="l" depth="2" NCoef="0" IVar="-1" Cut="0.0000000000000000e+00" cType="1" res="-7.2347000241279602e-02" rms="-nan" purity="-1.3405689038336277e-02" nType="-99"/>
          <Node pos="r" depth="2" NCoef="0" IVar="-1" Cut="0.0000000000000000e+00" cType="1" res="-3.7561994977295399e-03" rms="2.3080258071422577e-01" purity="7.3652333021163940e-01" nType="-99"/>
        </Node>
      </Node>
    </BinaryTree>
    <BinaryTree type="DecisionTree" boostWeight="1.0000000000000000e+00" itree="1447">
      <Node pos="s" depth="0" NCoef="0" IVar="56" Cut="-1.2992879152297974e+00" cType="1" res="4.5291823334991932e-04" rms="2.2836022078990936e-01" purity="4.9267783761024475e-01" nType="0">
        <Node pos="l" depth="1" NCoef="0" IVar="48" Cut="7.8841280937194824e-01" cType="1" res="2.1239975467324257e-02" rms="2.5899019837379456e-01" purity="4.6598082780838013e-01" nType="0">
          <Node pos="l" depth="2" NCoef="0" IVar="-1" Cut="0.0000000000000000e+00" cType="1" res="5.5960077792406082e-02" rms="3.5586962103843689e-01" purity="3.0171906948089600e-01" nType="-99"/>
          <Node pos="r" depth="2" NCoef="0" IVar="-1" Cut="0.0000000000000000e+00" cType="1" res="4.6316273510456085e-03" rms="2.4709734320640564e-01" purity="4.7921198606491089e-01" nType="-99"/>
        </Node>
        <Node pos="r" depth="1" NCoef="0" IVar="52" Cut="2.8553414344787598e+00" cType="1" res="-1.3679777272045612e-02" rms="2.0373012125492096e-01" purity="5.1082861423492432e-01" nType="0">
          <Node pos="l" depth="2" NCoef="0" IVar="-1" Cut="0.0000000000000000e+00" cType="1" res="-2.5717861950397491e-02" rms="-nan" purity="2.6823890209197998e-01" nType="-99"/>
          <Node pos="r" depth="2" NCoef="0" IVar="-1" Cut="0.0000000000000000e+00" cType="1" res="2.6646454352885485e-04" rms="2.2745028138160706e-01" purity="5.7460123300552368e-01" nType="-99"/>
        </Node>
      </Node>
    </BinaryTree>
    <BinaryTree type="DecisionTree" boostWeight="1.0000000000000000e+00" itree="1448">
      <Node pos="s" depth="0" NCoef="0" IVar="21" Cut="-5.0159066915512085e-01" cType="1" res="4.4008698314428329e-03" rms="2.3623676598072052e-01" purity="4.9678686261177063e-01" nType="0">
        <Node pos="l" depth="1" NCoef="0" IVar="17" Cut="1.3654080629348755e+00" cType="1" res="8.0070115625858307e-02" rms="3.3004391193389893e-01" purity="5.4688364267349243e-01" nType="0">
          <Node pos="l" depth="2" NCoef="0" IVar="-1" Cut="0.0000000000000000e+00" cType="1" res="1.1143512278795242e-01" rms="3.8739421963691711e-01" purity="2.9628074169158936e-01" nType="-99"/>
          <Node pos="r" depth="2" NCoef="0" IVar="-1" Cut="0.0000000000000000e+00" cType="1" res="-9.6475344616919756e-04" rms="2.5593397021293640e-01" purity="7.0064651966094971e-01" nType="-99"/>
        </Node>
        <Node pos="r" depth="1" NCoef="0" IVar="40" Cut="1.6794714927673340e+00" cType="1" res="-5.6945318647194654e-05" rms="2.2873815894126892e-01" purity="4.9383559823036194e-01" nType="0">
          <Node pos="l" depth="2" NCoef="0" IVar="-1" Cut="0.0000000000000000e+00" cType="1" res="-1.2207673862576485e-03" rms="2.2348520159721375e-01" purity="4.9669900536537170e-01" nType="-99"/>
          <Node pos="r" depth="2" NCoef="0" IVar="-1" Cut="0.0000000000000000e+00" cType="1" res="5.8272432535886765e-02" rms="3.6538988351821899e-01" purity="3.7475112080574036e-01" nType="-99"/>
        </Node>
      </Node>
    </BinaryTree>
    <BinaryTree type="DecisionTree" boostWeight="1.0000000000000000e+00" itree="1449">
      <Node pos="s" depth="0" NCoef="0" IVar="55" Cut="-1.4926607608795166e+00" cType="1" res="-1.8759719096124172e-03" rms="2.2440858185291290e-01" purity="4.9560898542404175e-01" nType="0">
        <Node pos="l" depth="1" NCoef="0" IVar="35" Cut="-5.6972324848175049e-01" cType="1" res="8.6841106414794922e-02" rms="3.1860241293907166e-01" purity="4.5300132036209106e-01" nType="0">
          <Node pos="l" depth="2" NCoef="0" IVar="-1" Cut="0.0000000000000000e+00" cType="1" res="-5.1077920943498611e-03" rms="1.0445420444011688e-01" purity="4.9192705750465393e-01" nType="-99"/>
          <Node pos="r" depth="2" NCoef="0" IVar="-1" Cut="0.0000000000000000e+00" cType="1" res="9.3028202652931213e-02" rms="4.0759986639022827e-01" purity="4.1751918196678162e-01" nType="-99"/>
        </Node>
        <Node pos="r" depth="1" NCoef="0" IVar="67" Cut="1.3722430467605591e+00" cType="1" res="-5.7881413958966732e-03" rms="2.1849791705608368e-01" purity="4.9748790264129639e-01" nType="0">
          <Node pos="l" depth="2" NCoef="0" IVar="-1" Cut="0.0000000000000000e+00" cType="1" res="-9.2771445633843541e-04" rms="2.2670181095600128e-01" purity="5.1375925540924072e-01" nType="-99"/>
          <Node pos="r" depth="2" NCoef="0" IVar="-1" Cut="0.0000000000000000e+00" cType="1" res="-6.7995540797710419e-02" rms="-nan" purity="4.3331630527973175e-02" nType="-99"/>
        </Node>
      </Node>
    </BinaryTree>
    <BinaryTree type="DecisionTree" boostWeight="1.0000000000000000e+00" itree="1450">
      <Node pos="s" depth="0" NCoef="0" IVar="36" Cut="-8.3509200811386108e-01" cType="1" res="9.0878410264849663e-03" rms="2.3789277672767639e-01" purity="5.0619244575500488e-01" nType="0">
        <Node pos="l" depth="1" NCoef="0" IVar="77" Cut="-1.3383080959320068e+00" cType="1" res="4.5158419758081436e-02" rms="2.4261556565761566e-01" purity="1.2990163266658783e-01" nType="0">
          <Node pos="l" depth="2" NCoef="0" IVar="-1" Cut="0.0000000000000000e+00" cType="1" res="-2.0197855774313211e-03" rms="1.4351826906204224e-01" purity="9.0771526098251343e-02" nType="-99"/>
          <Node pos="r" depth="2" NCoef="0" IVar="-1" Cut="0.0000000000000000e+00" cType="1" res="7.3106415569782257e-02" rms="3.2727840542793274e-01" purity="1.8828789889812469e-01" nType="-99"/>
        </Node>
        <Node pos="r" depth="1" NCoef="0" IVar="36" Cut="8.2257199287414551e-01" cType="1" res="1.0299968998879194e-03" rms="2.3607295751571655e-01" purity="5.9025239944458008e-01" nType="0">
          <Node pos="l" depth="2" NCoef="0" IVar="-1" Cut="0.0000000000000000e+00" cType="1" res="-2.4759447202086449e-02" rms="-nan" purity="9.0164333581924438e-02" nType="-99"/>
          <Node pos="r" depth="2" NCoef="0" IVar="-1" Cut="0.0000000000000000e+00" cType="1" res="2.2475633304566145e-03" rms="2.4773587286472321e-01" purity="6.3132405281066895e-01" nType="-99"/>
        </Node>
      </Node>
    </BinaryTree>
    <BinaryTree type="DecisionTree" boostWeight="1.0000000000000000e+00" itree="1451">
      <Node pos="s" depth="0" NCoef="0" IVar="10" Cut="2.9030199050903320e+00" cType="1" res="3.0662047211080790e-03" rms="2.3115338385105133e-01" purity="5.0038194656372070e-01" nType="0">
        <Node pos="l" depth="1" NCoef="0" IVar="14" Cut="-6.8154782056808472e-01" cType="1" res="-5.0695512443780899e-02" rms="4.0336422622203827e-02" purity="1.7792452871799469e-01" nType="0">
          <Node pos="l" depth="2" NCoef="0" IVar="-1" Cut="0.0000000000000000e+00" cType="1" res="-1.0278249392285943e-03" rms="1.8190532922744751e-01" purity="2.1304090321063995e-01" nType="-99"/>
          <Node pos="r" depth="2" NCoef="0" IVar="-1" Cut="0.0000000000000000e+00" cType="1" res="-7.0999734103679657e-02" rms="-nan" purity="7.8133352100849152e-02" nType="-99"/>
        </Node>
        <Node pos="r" depth="1" NCoef="0" IVar="14" Cut="1.2873709201812744e+00" cType="1" res="9.2593990266323090e-03" rms="2.4295748770236969e-01" purity="5.3752809762954712e-01" nType="0">
          <Node pos="l" depth="2" NCoef="0" IVar="-1" Cut="0.0000000000000000e+00" cType="1" res="1.8860447453334928e-03" rms="2.3747864365577698e-01" purity="5.3606235980987549e-01" nType="-99"/>
          <Node pos="r" depth="2" NCoef="0" IVar="-1" Cut="0.0000000000000000e+00" cType="1" res="2.7060095220804214e-02" rms="3.1717190146446228e-01" purity="5.6432276964187622e-01" nType="-99"/>
        </Node>
      </Node>
    </BinaryTree>
    <BinaryTree type="DecisionTree" boostWeight="1.0000000000000000e+00" itree="1452">
      <Node pos="s" depth="0" NCoef="0" IVar="5" Cut="4.9578121304512024e-01" cType="1" res="-6.2899747863411903e-03" rms="2.1187856793403625e-01" purity="5.0089883804321289e-01" nType="0">
        <Node pos="l" depth="1" NCoef="0" IVar="81" Cut="-1.0265049934387207e+00" cType="1" res="-2.2912847343832254e-03" rms="2.2009749710559845e-01" purity="5.1824867725372314e-01" nType="0">
          <Node pos="l" depth="2" NCoef="0" IVar="-1" Cut="0.0000000000000000e+00" cType="1" res="-4.1102189570665359e-03" rms="2.0982727408409119e-01" purity="5.5685418844223022e-01" nType="-99"/>
          <Node pos="r" depth="2" NCoef="0" IVar="-1" Cut="0.0000000000000000e+00" cType="1" res="1.7480192705988884e-02" rms="2.6229816675186157e-01" purity="3.1991514563560486e-01" nType="-99"/>
        </Node>
        <Node pos="r" depth="1" NCoef="0" IVar="39" Cut="-1.8567706346511841e+00" cType="1" res="-3.6029551178216934e-02" rms="-nan" purity="1.3888400793075562e-01" nType="-99"/>
      </Node>
    </BinaryTree>
    <BinaryTree type="DecisionTree" boostWeight="1.0000000000000000e+00" itree="1453">
      <Node pos="s" depth="0" NCoef="0" IVar="84" Cut="3.0204054713249207e-01" cType="1" res="-2.2355359978973866e-03" rms="2.1704678237438202e-01" purity="5.0260174274444580e-01" nType="0">
        <Node pos="l" depth="1" NCoef="0" IVar="61" Cut="5.9236943721771240e-01" cType="1" res="-7.2801741771399975e-03" rms="2.1156424283981323e-01" purity="5.0718486309051514e-01" nType="0">
          <Node pos="l" depth="2" NCoef="0" IVar="-1" Cut="0.0000000000000000e+00" cType="1" res="6.1989524401724339e-03" rms="2.5167357921600342e-01" purity="6.0893493890762329e-01" nType="-99"/>
          <Node pos="r" depth="2" NCoef="0" IVar="-1" Cut="0.0000000000000000e+00" cType="1" res="-8.0484049394726753e-03" rms="1.8283508718013763e-01" purity="4.4806447625160217e-01" nType="-99"/>
        </Node>
        <Node pos="r" depth="1" NCoef="0" IVar="76" Cut="-1.0322204828262329e+00" cType="1" res="6.0433205217123032e-02" rms="2.6843607425689697e-01" purity="4.4566679000854492e-01" nType="0">
          <Node pos="l" depth="2" NCoef="0" IVar="-1" Cut="0.0000000000000000e+00" cType="1" res="3.8969796150922775e-02" rms="3.3344978094100952e-01" purity="6.1179345846176147e-01" nType="-99"/>
          <Node pos="r" depth="2" NCoef="0" IVar="-1" Cut="0.0000000000000000e+00" cType="1" res="-1.6547847539186478e-02" rms="-nan" purity="1.7204980552196503e-01" nType="-99"/>
        </Node>
      </Node>
    </BinaryTree>
    <BinaryTree type="DecisionTree" boostWeight="1.0000000000000000e+00" itree="1454">
      <Node pos="s" depth="0" NCoef="0" IVar="82" Cut="1.2111486196517944e+00" cType="1" res="7.7386982738971710e-03" rms="2.4268360435962677e-01" purity="5.0156891345977783e-01" nType="0">
        <Node pos="l" depth="1" NCoef="0" IVar="25" Cut="1.1032168865203857e+00" cType="1" res="1.0891845449805260e-03" rms="2.3775383830070496e-01" purity="5.2638399600982666e-01" nType="0">
          <Node pos="l" depth="2" NCoef="0" IVar="-1" Cut="0.0000000000000000e+00" cType="1" res="2.6378219481557608e-03" rms="2.5128555297851562e-01" purity="5.5152726173400879e-01" nType="-99"/>
          <Node pos="r" depth="2" NCoef="0" IVar="-1" Cut="0.0000000000000000e+00" cType="1" res="-1.8483113497495651e-02" rms="6.7154981195926666e-02" purity="3.3798772096633911e-01" nType="-99"/>
        </Node>
        <Node pos="r" depth="1" NCoef="0" IVar="82" Cut="1.2998847961425781e+00" cType="1" res="4.4886488467454910e-02" rms="2.6551795005798340e-01" purity="3.6293840408325195e-01" nType="0">
          <Node pos="l" depth="2" NCoef="0" IVar="-1" Cut="0.0000000000000000e+00" cType="1" res="4.9697194248437881e-02" rms="3.4732747077941895e-01" purity="4.9636051058769226e-01" nType="-99"/>
          <Node pos="r" depth="2" NCoef="0" IVar="-1" Cut="0.0000000000000000e+00" cType="1" res="5.4108696058392525e-03" rms="2.1945559978485107e-01" purity="3.1383880972862244e-01" nType="-99"/>
        </Node>
      </Node>
    </BinaryTree>
    <BinaryTree type="DecisionTree" boostWeight="1.0000000000000000e+00" itree="1455">
      <Node pos="s" depth="0" NCoef="0" IVar="67" Cut="1.3372867107391357e+00" cType="1" res="2.8365293983370066e-03" rms="2.3467490077018738e-01" purity="5.0397509336471558e-01" nType="0">
        <Node pos="l" depth="1" NCoef="0" IVar="77" Cut="1.2900253534317017e+00" cType="1" res="-1.7297643935307860e-03" rms="2.2908830642700195e-01" purity="5.1551508903503418e-01" nType="0">
          <Node pos="l" depth="2" NCoef="0" IVar="-1" Cut="0.0000000000000000e+00" cType="1" res="-2.2842746693640947e-03" rms="2.2714175283908844e-01" purity="5.3578692674636841e-01" nType="-99"/>
          <Node pos="r" depth="2" NCoef="0" IVar="-1" Cut="0.0000000000000000e+00" cType="1" res="3.5487141460180283e-02" rms="2.4748145043849945e-01" purity="2.0773133635520935e-01" nType="-99"/>
        </Node>
        <Node pos="r" depth="1" NCoef="0" IVar="58" Cut="8.2366012036800385e-02" cType="1" res="8.9608311653137207e-02" rms="3.1045109033584595e-01" purity="2.8468444943428040e-01" nType="0">
          <Node pos="l" depth="2" NCoef="0" IVar="-1" Cut="0.0000000000000000e+00" cType="1" res="8.3722971379756927e-02" rms="3.7352180480957031e-01" purity="3.9865800738334656e-01" nType="-99"/>
          <Node pos="r" depth="2" NCoef="0" IVar="-1" Cut="0.0000000000000000e+00" cType="1" res="-8.5552809759974480e-03" rms="1.2242470681667328e-01" purity="1.1793420463800430e-01" nType="-99"/>
        </Node>
      </Node>
    </BinaryTree>
    <BinaryTree type="DecisionTree" boostWeight="1.0000000000000000e+00" itree="1456">
      <Node pos="s" depth="0" NCoef="0" IVar="39" Cut="-8.3377563953399658e-01" cType="1" res="-1.8854745430871844e-03" rms="2.2302795946598053e-01" purity="4.9647715687751770e-01" nType="0">
        <Node pos="l" depth="1" NCoef="0" IVar="13" Cut="-1.2997330427169800e+00" cType="1" res="4.7061387449502945e-03" rms="2.3536776006221771e-01" purity="5.3210586309432983e-01" nType="0">
          <Node pos="l" depth="2" NCoef="0" IVar="-1" Cut="0.0000000000000000e+00" cType="1" res="3.8736402988433838e-02" rms="2.3810756206512451e-01" purity="2.4591432511806488e-01" nType="-99"/>
          <Node pos="r" depth="2" NCoef="0" IVar="-1" Cut="0.0000000000000000e+00" cType="1" res="-1.0082715889438987e-03" rms="2.3401573300361633e-01" purity="5.7412487268447876e-01" nType="-99"/>
        </Node>
        <Node pos="r" depth="1" NCoef="0" IVar="1" Cut="2.3690443038940430e+00" cType="1" res="-2.8156902641057968e-02" rms="-nan" purity="1.7241531610488892e-01" nType="-99"/>
      </Node>
    </BinaryTree>
    <BinaryTree type="DecisionTree" boostWeight="1.0000000000000000e+00" itree="1457">
      <Node pos="s" depth="0" NCoef="0" IVar="46" Cut="1.6654528379440308e+00" cType="1" res="-3.3406438305974007e-03" rms="2.2242864966392517e-01" purity="4.9742883443832397e-01" nType="0">
        <Node pos="l" depth="1" NCoef="0" IVar="4" Cut="4.1507854461669922e+00" cType="1" res="-5.8033661916851997e-03" rms="2.1778608858585358e-01" purity="5.0165027379989624e-01" nType="0">
          <Node pos="l" depth="2" NCoef="0" IVar="-1" Cut="0.0000000000000000e+00" cType="1" res="-1.2265159748494625e-03" rms="2.2348259389400482e-01" purity="5.0396072864532471e-01" nType="-99"/>
          <Node pos="r" depth="2" NCoef="0" IVar="-1" Cut="0.0000000000000000e+00" cType="1" res="-5.5231038480997086e-02" rms="-nan" purity="4.0040281414985657e-01" nType="-99"/>
        </Node>
        <Node pos="r" depth="1" NCoef="0" IVar="-1" Cut="0.0000000000000000e+00" cType="1" res="6.1709433794021606e-02" rms="3.6718425154685974e-01" purity="2.9038235545158386e-01" nType="-99"/>
      </Node>
    </BinaryTree>
    <BinaryTree type="DecisionTree" boostWeight="1.0000000000000000e+00" itree="1458">
      <Node pos="s" depth="0" NCoef="0" IVar="25" Cut="1.3568109273910522e+00" cType="1" res="4.8165940679609776e-03" rms="2.3356536030769348e-01" purity="5.0128924846649170e-01" nType="0">
        <Node pos="l" depth="1" NCoef="0" IVar="10" Cut="2.7823956012725830e+00" cType="1" res="7.6910909265279770e-03" rms="2.3993150889873505e-01" purity="5.1061367988586426e-01" nType="0">
          <Node pos="l" depth="2" NCoef="0" IVar="-1" Cut="0.0000000000000000e+00" cType="1" res="3.5094849765300751e-02" rms="3.0745750665664673e-01" purity="2.7576208114624023e-01" nType="-99"/>
          <Node pos="r" depth="2" NCoef="0" IVar="-1" Cut="0.0000000000000000e+00" cType="1" res="1.3547406997531652e-03" rms="2.3522284626960754e-01" purity="5.2270627021789551e-01" nType="-99"/>
        </Node>
        <Node pos="r" depth="1" NCoef="0" IVar="-1" Cut="0.0000000000000000e+00" cType="1" res="-4.2260739952325821e-02" rms="-nan" purity="2.2727416455745697e-01" nType="-99"/>
      </Node>
    </BinaryTree>
    <BinaryTree type="DecisionTree" boostWeight="1.0000000000000000e+00" itree="1459">
      <Node pos="s" depth="0" NCoef="0" IVar="13" Cut="-1.2997852563858032e+00" cType="1" res="-1.3826818903908134e-03" rms="2.3074913024902344e-01" purity="4.9019327759742737e-01" nType="0">
        <Node pos="l" depth="1" NCoef="0" IVar="78" Cut="-9.2115855216979980e-01" cType="1" res="-3.8047071546316147e-02" rms="-nan" purity="1.1082839220762253e-01" nType="-99"/>
        <Node pos="r" depth="1" NCoef="0" IVar="10" Cut="2.8049335479736328e+00" cType="1" res="4.4127111323177814e-03" rms="2.5195801258087158e-01" purity="5.4061067104339600e-01" nType="0">
          <Node pos="l" depth="2" NCoef="0" IVar="-1" Cut="0.0000000000000000e+00" cType="1" res="2.6902057230472565e-02" rms="3.4217327833175659e-01" purity="2.9666164517402649e-01" nType="-99"/>
          <Node pos="r" depth="2" NCoef="0" IVar="-1" Cut="0.0000000000000000e+00" cType="1" res="-9.1348345449659973e-05" rms="2.4488863348960876e-01" purity="5.5479449033737183e-01" nType="-99"/>
        </Node>
      </Node>
    </BinaryTree>
    <BinaryTree type="DecisionTree" boostWeight="1.0000000000000000e+00" itree="1460">
      <Node pos="s" depth="0" NCoef="0" IVar="2" Cut="2.3004999160766602e+00" cType="1" res="5.1756864413619041e-03" rms="2.3589377105236053e-01" purity="5.0313013792037964e-01" nType="0">
        <Node pos="l" depth="1" NCoef="0" IVar="52" Cut="2.5806777477264404e+00" cType="1" res="-1.9583014771342278e-02" rms="1.8414504826068878e-01" purity="2.8818050026893616e-01" nType="0">
          <Node pos="l" depth="2" NCoef="0" IVar="-1" Cut="0.0000000000000000e+00" cType="1" res="-9.0961836278438568e-02" rms="-nan" purity="-3.6213759332895279e-02" nType="-99"/>
          <Node pos="r" depth="2" NCoef="0" IVar="-1" Cut="0.0000000000000000e+00" cType="1" res="-3.7318926770240068e-03" rms="2.1311631798744202e-01" purity="3.2542347908020020e-01" nType="-99"/>
        </Node>
        <Node pos="r" depth="1" NCoef="0" IVar="52" Cut="2.6091945171356201e+00" cType="1" res="2.1636489778757095e-02" rms="2.6347455382347107e-01" purity="6.4603924751281738e-01" nType="0">
          <Node pos="l" depth="2" NCoef="0" IVar="-1" Cut="0.0000000000000000e+00" cType="1" res="2.3245455697178841e-02" rms="3.0471324920654297e-01" purity="3.4815990924835205e-01" nType="-99"/>
          <Node pos="r" depth="2" NCoef="0" IVar="-1" Cut="0.0000000000000000e+00" cType="1" res="4.6652387827634811e-03" rms="2.5533840060234070e-01" purity="6.9198584556579590e-01" nType="-99"/>
        </Node>
      </Node>
    </BinaryTree>
    <BinaryTree type="DecisionTree" boostWeight="1.0000000000000000e+00" itree="1461">
      <Node pos="s" depth="0" NCoef="0" IVar="7" Cut="-7.7276736497879028e-01" cType="1" res="6.2088104896247387e-03" rms="2.4111428856849670e-01" purity="4.9949830770492554e-01" nType="0">
        <Node pos="l" depth="1" NCoef="0" IVar="5" Cut="5.3344035148620605e-01" cType="1" res="2.5368800852447748e-03" rms="2.3540301620960236e-01" purity="5.0056719779968262e-01" nType="0">
          <Node pos="l" depth="2" NCoef="0" IVar="-1" Cut="0.0000000000000000e+00" cType="1" res="-1.0972880409099162e-04" rms="2.3289296030998230e-01" purity="5.0584679841995239e-01" nType="-99"/>
          <Node pos="r" depth="2" NCoef="0" IVar="-1" Cut="0.0000000000000000e+00" cType="1" res="4.0879227221012115e-02" rms="2.9563450813293457e-01" purity="3.0801913142204285e-01" nType="-99"/>
        </Node>
        <Node pos="r" depth="1" NCoef="0" IVar="-1" Cut="0.0000000000000000e+00" cType="1" res="5.7287238538265228e-02" rms="3.9714592695236206e-01" purity="4.4768306612968445e-01" nType="-99"/>
      </Node>
    </BinaryTree>
    <BinaryTree type="DecisionTree" boostWeight="1.0000000000000000e+00" itree="1462">
      <Node pos="s" depth="0" NCoef="0" IVar="3" Cut="5.4071660041809082e+00" cType="1" res="-1.4348347031045705e-04" rms="2.2618678212165833e-01" purity="5.0293511152267456e-01" nType="0">
        <Node pos="l" depth="1" NCoef="0" IVar="52" Cut="2.3262581825256348e+00" cType="1" res="-4.6738325618207455e-03" rms="2.2350455820560455e-01" purity="5.1144659519195557e-01" nType="0">
          <Node pos="l" depth="2" NCoef="0" IVar="-1" Cut="0.0000000000000000e+00" cType="1" res="-5.4369393736124039e-02" rms="-nan" purity="1.5601570717990398e-02" nType="-99"/>
          <Node pos="r" depth="2" NCoef="0" IVar="-1" Cut="0.0000000000000000e+00" cType="1" res="-7.0799799868836999e-04" rms="2.3039962351322174e-01" purity="5.2376878261566162e-01" nType="-99"/>
        </Node>
        <Node pos="r" depth="1" NCoef="0" IVar="15" Cut="7.1796715259552002e-01" cType="1" res="9.6366889774799347e-02" rms="2.5904473662376404e-01" purity="3.2161286473274231e-01" nType="0">
          <Node pos="l" depth="2" NCoef="0" IVar="-1" Cut="0.0000000000000000e+00" cType="1" res="-2.3785954341292381e-02" rms="-nan" purity="3.5483315587043762e-02" nType="-99"/>
          <Node pos="r" depth="2" NCoef="0" IVar="-1" Cut="0.0000000000000000e+00" cType="1" res="4.5311007648706436e-02" rms="3.4028744697570801e-01" purity="5.5357378721237183e-01" nType="-99"/>
        </Node>
      </Node>
    </BinaryTree>
    <BinaryTree type="DecisionTree" boostWeight="1.0000000000000000e+00" itree="1463">
      <Node pos="s" depth="0" NCoef="0" IVar="51" Cut="-7.1604937314987183e-01" cType="1" res="-2.2571971639990807e-03" rms="2.3143355548381805e-01" purity="4.9471625685691833e-01" nType="0">
        <Node pos="l" depth="1" NCoef="0" IVar="16" Cut="-7.2181361913681030e-01" cType="1" res="-5.5035274475812912e-02" rms="1.1483551561832428e-01" purity="3.9009895920753479e-01" nType="0">
          <Node pos="l" depth="2" NCoef="0" IVar="-1" Cut="0.0000000000000000e+00" cType="1" res="-6.1225920915603638e-02" rms="-nan" purity="2.5251230597496033e-01" nType="-99"/>
          <Node pos="r" depth="2" NCoef="0" IVar="-1" Cut="0.0000000000000000e+00" cType="1" res="9.6282974118366838e-04" rms="2.3365291953086853e-01" purity="4.6996989846229553e-01" nType="-99"/>
        </Node>
        <Node pos="r" depth="1" NCoef="0" IVar="27" Cut="1.1005649566650391e+00" cType="1" res="2.1374472416937351e-03" rms="2.3805893957614899e-01" purity="5.0342738628387451e-01" nType="0">
          <Node pos="l" depth="2" NCoef="0" IVar="-1" Cut="0.0000000000000000e+00" cType="1" res="-1.8317433074116707e-02" rms="-nan" purity="1.9711993634700775e-01" nType="-99"/>
          <Node pos="r" depth="2" NCoef="0" IVar="-1" Cut="0.0000000000000000e+00" cType="1" res="3.2242140732705593e-03" rms="2.5564330816268921e-01" purity="5.5005127191543579e-01" nType="-99"/>
        </Node>
      </Node>
    </BinaryTree>
    <BinaryTree type="DecisionTree" boostWeight="1.0000000000000000e+00" itree="1464">
      <Node pos="s" depth="0" NCoef="0" IVar="34" Cut="-1.4155935049057007e+00" cType="1" res="-1.3869955437257886e-03" rms="2.2879214584827423e-01" purity="5.0160187482833862e-01" nType="0">
        <Node pos="l" depth="1" NCoef="0" IVar="52" Cut="3.1587476730346680e+00" cType="1" res="-2.7752734720706940e-02" rms="-nan" purity="2.2738482058048248e-01" nType="-99"/>
        <Node pos="r" depth="1" NCoef="0" IVar="34" Cut="8.9316940307617188e-01" cType="1" res="4.9622263759374619e-03" rms="2.4261213839054108e-01" purity="5.3161996603012085e-01" nType="0">
          <Node pos="l" depth="2" NCoef="0" IVar="-1" Cut="0.0000000000000000e+00" cType="1" res="1.5351195819675922e-02" rms="2.6260483264923096e-01" purity="2.8451311588287354e-01" nType="-99"/>
          <Node pos="r" depth="2" NCoef="0" IVar="-1" Cut="0.0000000000000000e+00" cType="1" res="-1.1908557498827577e-03" rms="2.3704381287097931e-01" purity="5.8838695287704468e-01" nType="-99"/>
        </Node>
      </Node>
    </BinaryTree>
    <BinaryTree type="DecisionTree" boostWeight="1.0000000000000000e+00" itree="1465">
      <Node pos="s" depth="0" NCoef="0" IVar="31" Cut="2.2906727790832520e+00" cType="1" res="1.0243556462228298e-03" rms="2.2400164604187012e-01" purity="5.0065469741821289e-01" nType="0">
        <Node pos="l" depth="1" NCoef="0" IVar="-1" Cut="0.0000000000000000e+00" cType="1" res="-5.6729100644588470e-02" rms="-nan" purity="3.7287224084138870e-02" nType="-99"/>
        <Node pos="r" depth="1" NCoef="0" IVar="10" Cut="2.6949896812438965e+00" cType="1" res="3.6624281201511621e-03" rms="2.2880548238754272e-01" purity="5.1059591770172119e-01" nType="0">
          <Node pos="l" depth="2" NCoef="0" IVar="-1" Cut="0.0000000000000000e+00" cType="1" res="4.5767135918140411e-02" rms="3.1356018781661987e-01" purity="3.0832305550575256e-01" nType="-99"/>
          <Node pos="r" depth="2" NCoef="0" IVar="-1" Cut="0.0000000000000000e+00" cType="1" res="3.0839641112834215e-04" rms="2.2550283372402191e-01" purity="5.1576495170593262e-01" nType="-99"/>
        </Node>
      </Node>
    </BinaryTree>
    <BinaryTree type="DecisionTree" boostWeight="1.0000000000000000e+00" itree="1466">
      <Node pos="s" depth="0" NCoef="0" IVar="15" Cut="1.5220671892166138e+00" cType="1" res="1.0444692336022854e-02" rms="2.4624089896678925e-01" purity="5.0336521863937378e-01" nType="0">
        <Node pos="l" depth="1" NCoef="0" IVar="19" Cut="5.8085137605667114e-01" cType="1" res="1.7990803346037865e-02" rms="2.4566698074340820e-01" purity="4.9321529269218445e-01" nType="0">
          <Node pos="l" depth="2" NCoef="0" IVar="-1" Cut="0.0000000000000000e+00" cType="1" res="-2.1480524446815252e-03" rms="2.0084737241268158e-01" purity="5.3305846452713013e-01" nType="-99"/>
          <Node pos="r" depth="2" NCoef="0" IVar="-1" Cut="0.0000000000000000e+00" cType="1" res="1.1984010227024555e-02" rms="2.6517781615257263e-01" purity="4.7251084446907043e-01" nType="-99"/>
        </Node>
        <Node pos="r" depth="1" NCoef="0" IVar="56" Cut="6.7131847143173218e-01" cType="1" res="-2.6788717135787010e-02" rms="2.4568325281143188e-01" purity="5.5344599485397339e-01" nType="0">
          <Node pos="l" depth="2" NCoef="0" IVar="-1" Cut="0.0000000000000000e+00" cType="1" res="-1.4464410021901131e-02" rms="2.3007623851299286e-01" purity="5.2966755628585815e-01" nType="-99"/>
          <Node pos="r" depth="2" NCoef="0" IVar="-1" Cut="0.0000000000000000e+00" cType="1" res="1.0685825720429420e-02" rms="2.8158119320869446e-01" purity="6.3130927085876465e-01" nType="-99"/>
        </Node>
      </Node>
    </BinaryTree>
    <BinaryTree type="DecisionTree" boostWeight="1.0000000000000000e+00" itree="1467">
      <Node pos="s" depth="0" NCoef="0" IVar="49" Cut="-1.1793642044067383e+00" cType="1" res="-7.0024956949055195e-04" rms="2.3054544627666473e-01" purity="5.0244522094726562e-01" nType="0">
        <Node pos="l" depth="1" NCoef="0" IVar="5" Cut="5.0696003437042236e-01" cType="1" res="-5.6451782584190369e-03" rms="2.2302453219890594e-01" purity="5.0433588027954102e-01" nType="0">
          <Node pos="l" depth="2" NCoef="0" IVar="-1" Cut="0.0000000000000000e+00" cType="1" res="-6.8285799352452159e-04" rms="2.3021410405635834e-01" purity="5.1947563886642456e-01" nType="-99"/>
          <Node pos="r" depth="2" NCoef="0" IVar="-1" Cut="0.0000000000000000e+00" cType="1" res="-4.0572959929704666e-02" rms="-nan" purity="1.1998531222343445e-01" nType="-99"/>
        </Node>
        <Node pos="r" depth="1" NCoef="0" IVar="34" Cut="1.0898333787918091e+00" cType="1" res="7.1524180471897125e-02" rms="3.1209248304367065e-01" purity="4.7483113408088684e-01" nType="0">
          <Node pos="l" depth="2" NCoef="0" IVar="-1" Cut="0.0000000000000000e+00" cType="1" res="6.8103455007076263e-02" rms="3.9578494429588318e-01" purity="3.9554479718208313e-01" nType="-99"/>
          <Node pos="r" depth="2" NCoef="0" IVar="-1" Cut="0.0000000000000000e+00" cType="1" res="2.6277669239789248e-03" rms="2.3153182864189148e-01" purity="5.1812136173248291e-01" nType="-99"/>
        </Node>
      </Node>
    </BinaryTree>
    <BinaryTree type="DecisionTree" boostWeight="1.0000000000000000e+00" itree="1468">
      <Node pos="s" depth="0" NCoef="0" IVar="6" Cut="1.7582324743270874e+00" cType="1" res="7.9048108309507370e-03" rms="2.4522610008716583e-01" purity="5.0085556507110596e-01" nType="0">
        <Node pos="l" depth="1" NCoef="0" IVar="5" Cut="3.7762868404388428e-01" cType="1" res="3.9942938834428787e-02" rms="2.7959731221199036e-01" purity="3.1815186142921448e-01" nType="0">
          <Node pos="l" depth="2" NCoef="0" IVar="-1" Cut="0.0000000000000000e+00" cType="1" res="2.7729313820600510e-02" rms="3.1648728251457214e-01" purity="3.8013580441474915e-01" nType="-99"/>
          <Node pos="r" depth="2" NCoef="0" IVar="-1" Cut="0.0000000000000000e+00" cType="1" res="-1.7093675211071968e-02" rms="1.2075047940015793e-01" purity="1.6374248266220093e-01" nType="-99"/>
        </Node>
        <Node pos="r" depth="1" NCoef="0" IVar="79" Cut="1.6767191886901855e-01" cType="1" res="-3.2108174636960030e-03" rms="2.3107917606830597e-01" purity="5.6424462795257568e-01" nType="0">
          <Node pos="l" depth="2" NCoef="0" IVar="-1" Cut="0.0000000000000000e+00" cType="1" res="3.2784577924758196e-03" rms="2.5512042641639709e-01" purity="5.9480351209640503e-01" nType="-99"/>
          <Node pos="r" depth="2" NCoef="0" IVar="-1" Cut="0.0000000000000000e+00" cType="1" res="-2.5796839967370033e-02" rms="-nan" purity="4.2058062553405762e-01" nType="-99"/>
        </Node>
      </Node>
    </BinaryTree>
    <BinaryTree type="DecisionTree" boostWeight="1.0000000000000000e+00" itree="1469">
      <Node pos="s" depth="0" NCoef="0" IVar="70" Cut="-8.0552875995635986e-01" cType="1" res="-3.4740921109914780e-03" rms="2.1675716340541840e-01" purity="5.0700700283050537e-01" nType="0">
        <Node pos="l" depth="1" NCoef="0" IVar="62" Cut="-2.2369761765003204e-01" cType="1" res="-8.2630729302763939e-03" rms="2.0988436043262482e-01" purity="5.0705021619796753e-01" nType="0">
          <Node pos="l" depth="2" NCoef="0" IVar="-1" Cut="0.0000000000000000e+00" cType="1" res="-1.6676325350999832e-02" rms="1.2930066883563995e-01" purity="5.6200087070465088e-01" nType="-99"/>
          <Node pos="r" depth="2" NCoef="0" IVar="-1" Cut="0.0000000000000000e+00" cType="1" res="-4.1606943705119193e-04" rms="2.2174417972564697e-01" purity="4.9613109230995178e-01" nType="-99"/>
        </Node>
        <Node pos="r" depth="1" NCoef="0" IVar="88" Cut="9.3173462152481079e-01" cType="1" res="6.8235449492931366e-02" rms="2.9224085807800293e-01" purity="5.0636017322540283e-01" nType="0">
          <Node pos="l" depth="2" NCoef="0" IVar="-1" Cut="0.0000000000000000e+00" cType="1" res="5.7351652532815933e-02" rms="3.7146610021591187e-01" purity="6.0603874921798706e-01" nType="-99"/>
          <Node pos="r" depth="2" NCoef="0" IVar="-1" Cut="0.0000000000000000e+00" cType="1" res="-7.4061863124370575e-03" rms="1.4147445559501648e-01" purity="4.1195878386497498e-01" nType="-99"/>
        </Node>
      </Node>
    </BinaryTree>
    <BinaryTree type="DecisionTree" boostWeight="1.0000000000000000e+00" itree="1470">
      <Node pos="s" depth="0" NCoef="0" IVar="77" Cut="1.4009686708450317e+00" cType="1" res="-3.9760116487741470e-03" rms="2.1420866250991821e-01" purity="4.9847161769866943e-01" nType="0">
        <Node pos="l" depth="1" NCoef="0" IVar="35" Cut="2.4707514047622681e-01" cType="1" res="2.1530127560254186e-04" rms="2.2715005278587341e-01" purity="5.2109390497207642e-01" nType="0">
          <Node pos="l" depth="2" NCoef="0" IVar="-1" Cut="0.0000000000000000e+00" cType="1" res="-4.1278279386460781e-03" rms="2.0502468943595886e-01" purity="5.1525068283081055e-01" nType="-99"/>
          <Node pos="r" depth="2" NCoef="0" IVar="-1" Cut="0.0000000000000000e+00" cType="1" res="1.2030326761305332e-02" rms="2.8064626455307007e-01" purity="5.3857284784317017e-01" nType="-99"/>
        </Node>
        <Node pos="r" depth="1" NCoef="0" IVar="57" Cut="1.0937433242797852e+00" cType="1" res="-1.1250624805688858e-01" rms="-nan" purity="-2.7392875403165817e-02" nType="-99"/>
      </Node>
    </BinaryTree>
    <BinaryTree type="DecisionTree" boostWeight="1.0000000000000000e+00" itree="1471">
      <Node pos="s" depth="0" NCoef="0" IVar="56" Cut="-1.4538642168045044e+00" cType="1" res="-7.2816903411876410e-05" rms="2.2396045923233032e-01" purity="4.9457317590713501e-01" nType="0">
        <Node pos="l" depth="1" NCoef="0" IVar="52" Cut="2.8857407569885254e+00" cType="1" res="-3.2174888998270035e-02" rms="1.3330329954624176e-01" purity="3.0464172363281250e-01" nType="0">
          <Node pos="l" depth="2" NCoef="0" IVar="-1" Cut="0.0000000000000000e+00" cType="1" res="-2.6469975709915161e-02" rms="-nan" purity="1.9449377059936523e-01" nType="-99"/>
          <Node pos="r" depth="2" NCoef="0" IVar="-1" Cut="0.0000000000000000e+00" cType="1" res="1.0348257608711720e-02" rms="2.6879644393920898e-01" purity="4.8873114585876465e-01" nType="-99"/>
        </Node>
        <Node pos="r" depth="1" NCoef="0" IVar="31" Cut="2.3240194320678711e+00" cType="1" res="7.2191818617284298e-03" rms="2.3922392725944519e-01" purity="5.3771615028381348e-01" nType="0">
          <Node pos="l" depth="2" NCoef="0" IVar="-1" Cut="0.0000000000000000e+00" cType="1" res="4.5004088431596756e-02" rms="3.5633435845375061e-01" purity="2.4898588657379150e-01" nType="-99"/>
          <Node pos="r" depth="2" NCoef="0" IVar="-1" Cut="0.0000000000000000e+00" cType="1" res="1.6274831723421812e-03" rms="2.3448178172111511e-01" purity="5.4568725824356079e-01" nType="-99"/>
        </Node>
      </Node>
    </BinaryTree>
    <BinaryTree type="DecisionTree" boostWeight="1.0000000000000000e+00" itree="1472">
      <Node pos="s" depth="0" NCoef="0" IVar="13" Cut="8.9935362339019775e-01" cType="1" res="6.1826813034713268e-03" rms="2.3493632674217224e-01" purity="4.9899905920028687e-01" nType="0">
        <Node pos="l" depth="1" NCoef="0" IVar="88" Cut="9.4603967666625977e-01" cType="1" res="3.9797946810722351e-02" rms="2.1779894828796387e-01" purity="2.0880797505378723e-01" nType="0">
          <Node pos="l" depth="2" NCoef="0" IVar="-1" Cut="0.0000000000000000e+00" cType="1" res="5.3632367402315140e-02" rms="3.0048573017120361e-01" purity="2.9550012946128845e-01" nType="-99"/>
          <Node pos="r" depth="2" NCoef="0" IVar="-1" Cut="0.0000000000000000e+00" cType="1" res="-8.3769466727972031e-03" rms="7.4175395071506500e-02" purity="1.3444146513938904e-01" nType="-99"/>
        </Node>
        <Node pos="r" depth="1" NCoef="0" IVar="13" Cut="1.5390350818634033e+00" cType="1" res="-2.9602099675685167e-03" rms="2.3856739699840546e-01" purity="5.7792705297470093e-01" nType="0">
          <Node pos="l" depth="2" NCoef="0" IVar="-1" Cut="0.0000000000000000e+00" cType="1" res="-3.8442937657237053e-03" rms="2.3118849098682404e-01" purity="5.2056932449340820e-01" nType="-99"/>
          <Node pos="r" depth="2" NCoef="0" IVar="-1" Cut="0.0000000000000000e+00" cType="1" res="1.1508196592330933e-02" rms="2.6710358262062073e-01" purity="8.4448987245559692e-01" nType="-99"/>
        </Node>
      </Node>
    </BinaryTree>
    <BinaryTree type="DecisionTree" boostWeight="1.0000000000000000e+00" itree="1473">
      <Node pos="s" depth="0" NCoef="0" IVar="0" Cut="1.0208145380020142e+00" cType="1" res="-3.0680685304105282e-03" rms="2.2025845944881439e-01" purity="4.9742197990417480e-01" nType="0">
        <Node pos="l" depth="1" NCoef="0" IVar="4" Cut="3.3205668926239014e+00" cType="1" res="7.1724499575793743e-03" rms="2.4255570769309998e-01" purity="5.5530697107315063e-01" nType="0">
          <Node pos="l" depth="2" NCoef="0" IVar="-1" Cut="0.0000000000000000e+00" cType="1" res="2.6089644059538841e-02" rms="2.7968207001686096e-01" purity="2.9408949613571167e-01" nType="-99"/>
          <Node pos="r" depth="2" NCoef="0" IVar="-1" Cut="0.0000000000000000e+00" cType="1" res="-2.2002446348778903e-04" rms="2.3669981956481934e-01" purity="5.8524447679519653e-01" nType="-99"/>
        </Node>
        <Node pos="r" depth="1" NCoef="0" IVar="10" Cut="3.0915396213531494e+00" cType="1" res="-3.4599110484123230e-02" rms="1.2418740242719650e-01" purity="3.1919124722480774e-01" nType="0">
          <Node pos="l" depth="2" NCoef="0" IVar="-1" Cut="0.0000000000000000e+00" cType="1" res="-6.2890544533729553e-02" rms="-nan" purity="5.5051557719707489e-02" nType="-99"/>
          <Node pos="r" depth="2" NCoef="0" IVar="-1" Cut="0.0000000000000000e+00" cType="1" res="-6.1427679611369967e-04" rms="2.1110363304615021e-01" purity="4.2174968123435974e-01" nType="-99"/>
        </Node>
      </Node>
    </BinaryTree>
    <BinaryTree type="DecisionTree" boostWeight="1.0000000000000000e+00" itree="1474">
      <Node pos="s" depth="0" NCoef="0" IVar="27" Cut="7.4223345518112183e-01" cType="1" res="-5.7921702973544598e-03" rms="2.1795232594013214e-01" purity="4.9501609802246094e-01" nType="0">
        <Node pos="l" depth="1" NCoef="0" IVar="58" Cut="-4.5685425400733948e-01" cType="1" res="7.4785634875297546e-02" rms="3.3540442585945129e-01" purity="2.4838858842849731e-01" nType="0">
          <Node pos="l" depth="2" NCoef="0" IVar="-1" Cut="0.0000000000000000e+00" cType="1" res="-1.4257736504077911e-02" rms="1.4257192611694336e-01" purity="1.5860837697982788e-01" nType="-99"/>
          <Node pos="r" depth="2" NCoef="0" IVar="-1" Cut="0.0000000000000000e+00" cType="1" res="8.2524478435516357e-02" rms="4.2861708998680115e-01" purity="3.3869111537933350e-01" nType="-99"/>
        </Node>
        <Node pos="r" depth="1" NCoef="0" IVar="36" Cut="-1.1056485176086426e+00" cType="1" res="-9.2357033863663673e-03" rms="2.1079939603805542e-01" purity="5.0555586814880371e-01" nType="0">
          <Node pos="l" depth="2" NCoef="0" IVar="-1" Cut="0.0000000000000000e+00" cType="1" res="-3.8608770817518234e-02" rms="-nan" purity="1.3455512933433056e-02" nType="-99"/>
          <Node pos="r" depth="2" NCoef="0" IVar="-1" Cut="0.0000000000000000e+00" cType="1" res="-5.2253500325605273e-04" rms="2.3598694801330566e-01" purity="5.8738797903060913e-01" nType="-99"/>
        </Node>
      </Node>
    </BinaryTree>
    <BinaryTree type="DecisionTree" boostWeight="1.0000000000000000e+00" itree="1475">
      <Node pos="s" depth="0" NCoef="0" IVar="79" Cut="5.9238636493682861e-01" cType="1" res="-9.5371564384549856e-04" rms="2.2665682435035706e-01" purity="4.9979919195175171e-01" nType="0">
        <Node pos="l" depth="1" NCoef="0" IVar="5" Cut="2.9535272717475891e-01" cType="1" res="6.1483937315642834e-03" rms="2.4067907035350800e-01" purity="5.3180438280105591e-01" nType="0">
          <Node pos="l" depth="2" NCoef="0" IVar="-1" Cut="0.0000000000000000e+00" cType="1" res="-3.3253224100917578e-03" rms="2.2165539860725403e-01" purity="5.5401068925857544e-01" nType="-99"/>
          <Node pos="r" depth="2" NCoef="0" IVar="-1" Cut="0.0000000000000000e+00" cType="1" res="1.0132345370948315e-02" rms="2.6763361692428589e-01" purity="4.9481865763664246e-01" nType="-99"/>
        </Node>
        <Node pos="r" depth="1" NCoef="0" IVar="13" Cut="4.8462171107530594e-02" cType="1" res="-4.2400643229484558e-02" rms="1.0544254630804062e-01" purity="3.1302142143249512e-01" nType="0">
          <Node pos="l" depth="2" NCoef="0" IVar="-1" Cut="0.0000000000000000e+00" cType="1" res="-1.1506008356809616e-01" rms="-nan" purity="1.1274038814008236e-02" nType="-99"/>
          <Node pos="r" depth="2" NCoef="0" IVar="-1" Cut="0.0000000000000000e+00" cType="1" res="-6.6810492426156998e-03" rms="2.0573496818542480e-01" purity="3.9790484309196472e-01" nType="-99"/>
        </Node>
      </Node>
    </BinaryTree>
    <BinaryTree type="DecisionTree" boostWeight="1.0000000000000000e+00" itree="1476">
      <Node pos="s" depth="0" NCoef="0" IVar="25" Cut="1.4852961301803589e+00" cType="1" res="-5.5956322466954589e-04" rms="2.2807013988494873e-01" purity="4.9726155400276184e-01" nType="0">
        <Node pos="l" depth="1" NCoef="0" IVar="19" Cut="1.4329141378402710e+00" cType="1" res="-3.2452763989567757e-03" rms="2.2335796058177948e-01" purity="5.0238096714019775e-01" nType="0">
          <Node pos="l" depth="2" NCoef="0" IVar="-1" Cut="0.0000000000000000e+00" cType="1" res="-2.6542537380009890e-03" rms="2.1574954688549042e-01" purity="5.0857394933700562e-01" nType="-99"/>
          <Node pos="r" depth="2" NCoef="0" IVar="-1" Cut="0.0000000000000000e+00" cType="1" res="2.7995901182293892e-02" rms="3.4174430370330811e-01" purity="3.6628484725952148e-01" nType="-99"/>
        </Node>
        <Node pos="r" depth="1" NCoef="0" IVar="-1" Cut="0.0000000000000000e+00" cType="1" res="6.7489922046661377e-02" rms="3.5767608880996704e-01" purity="2.8359624743461609e-01" nType="-99"/>
      </Node>
    </BinaryTree>
    <BinaryTree type="DecisionTree" boostWeight="1.0000000000000000e+00" itree="1477">
      <Node pos="s" depth="0" NCoef="0" IVar="20" Cut="-4.6952870488166809e-01" cType="1" res="-4.3205427937209606e-03" rms="2.1969774365425110e-01" purity="4.9591612815856934e-01" nType="0">
        <Node pos="l" depth="1" NCoef="0" IVar="-1" Cut="0.0000000000000000e+00" cType="1" res="3.5011932253837585e-02" rms="3.4562444686889648e-01" purity="6.2380826473236084e-01" nType="-99"/>
        <Node pos="r" depth="1" NCoef="0" IVar="52" Cut="2.5795173645019531e+00" cType="1" res="-7.8517803922295570e-03" rms="2.1265859901905060e-01" purity="4.9106112122535706e-01" nType="0">
          <Node pos="l" depth="2" NCoef="0" IVar="-1" Cut="0.0000000000000000e+00" cType="1" res="-2.6131767779588699e-02" rms="-nan" purity="1.3681393861770630e-01" nType="-99"/>
          <Node pos="r" depth="2" NCoef="0" IVar="-1" Cut="0.0000000000000000e+00" cType="1" res="-6.0180103173479438e-04" rms="2.3026090860366821e-01" purity="5.3189593553543091e-01" nType="-99"/>
        </Node>
      </Node>
    </BinaryTree>
    <BinaryTree type="DecisionTree" boostWeight="1.0000000000000000e+00" itree="1478">
      <Node pos="s" depth="0" NCoef="0" IVar="0" Cut="1.4162441492080688e+00" cType="1" res="9.8326690495014191e-03" rms="2.3229235410690308e-01" purity="5.1542943716049194e-01" nType="0">
        <Node pos="l" depth="1" NCoef="0" IVar="84" Cut="-5.2842384576797485e-01" cType="1" res="5.9256460517644882e-03" rms="2.2719813883304596e-01" purity="5.2254205942153931e-01" nType="0">
          <Node pos="l" depth="2" NCoef="0" IVar="-1" Cut="0.0000000000000000e+00" cType="1" res="2.7946485206484795e-02" rms="3.0806639790534973e-01" purity="5.5898159742355347e-01" nType="-99"/>
          <Node pos="r" depth="2" NCoef="0" IVar="-1" Cut="0.0000000000000000e+00" cType="1" res="7.2450214065611362e-04" rms="2.2108404338359833e-01" purity="5.2049225568771362e-01" nType="-99"/>
        </Node>
        <Node pos="r" depth="1" NCoef="0" IVar="25" Cut="1.0069444179534912e+00" cType="1" res="9.1580420732498169e-02" rms="3.0973169207572937e-01" purity="3.6660981178283691e-01" nType="0">
          <Node pos="l" depth="2" NCoef="0" IVar="-1" Cut="0.0000000000000000e+00" cType="1" res="-1.3327166670933366e-03" rms="1.3879744708538055e-01" purity="3.0787250399589539e-01" nType="-99"/>
          <Node pos="r" depth="2" NCoef="0" IVar="-1" Cut="0.0000000000000000e+00" cType="1" res="1.0546053200960159e-01" rms="4.0358275175094604e-01" purity="4.3558257818222046e-01" nType="-99"/>
        </Node>
      </Node>
    </BinaryTree>
    <BinaryTree type="DecisionTree" boostWeight="1.0000000000000000e+00" itree="1479">
      <Node pos="s" depth="0" NCoef="0" IVar="10" Cut="2.9368994235992432e+00" cType="1" res="1.6399715095758438e-03" rms="2.3379758000373840e-01" purity="5.0085669755935669e-01" nType="0">
        <Node pos="l" depth="1" NCoef="0" IVar="0" Cut="7.0886594057083130e-01" cType="1" res="4.8556424677371979e-02" rms="2.9386186599731445e-01" purity="2.9963916540145874e-01" nType="0">
          <Node pos="l" depth="2" NCoef="0" IVar="-1" Cut="0.0000000000000000e+00" cType="1" res="3.2604049891233444e-02" rms="3.5848096013069153e-01" purity="4.1995853185653687e-01" nType="-99"/>
          <Node pos="r" depth="2" NCoef="0" IVar="-1" Cut="0.0000000000000000e+00" cType="1" res="1.8921665614470840e-03" rms="2.2343556582927704e-01" purity="2.0872965455055237e-01" nType="-99"/>
        </Node>
        <Node pos="r" depth="1" NCoef="0" IVar="3" Cut="4.3837156295776367e+00" cType="1" res="-6.4087701030075550e-03" rms="2.2086587548255920e-01" purity="5.3537654876708984e-01" nType="0">
          <Node pos="l" depth="2" NCoef="0" IVar="-1" Cut="0.0000000000000000e+00" cType="1" res="-3.3692061901092529e-02" rms="-nan" purity="2.1969003975391388e-01" nType="-99"/>
          <Node pos="r" depth="2" NCoef="0" IVar="-1" Cut="0.0000000000000000e+00" cType="1" res="-9.4761338550597429e-04" rms="2.2758704423904419e-01" purity="5.4848480224609375e-01" nType="-99"/>
        </Node>
      </Node>
    </BinaryTree>
    <BinaryTree type="DecisionTree" boostWeight="1.0000000000000000e+00" itree="1480">
      <Node pos="s" depth="0" NCoef="0" IVar="35" Cut="1.4810283184051514e+00" cType="1" res="1.0382335633039474e-02" rms="2.4182903766632080e-01" purity="5.0466573238372803e-01" nType="0">
        <Node pos="l" depth="1" NCoef="0" IVar="0" Cut="1.2871654033660889e+00" cType="1" res="6.3166380859911442e-03" rms="2.3431098461151123e-01" purity="5.1104956865310669e-01" nType="0">
          <Node pos="l" depth="2" NCoef="0" IVar="-1" Cut="0.0000000000000000e+00" cType="1" res="4.5226542279124260e-03" rms="2.4671420454978943e-01" purity="5.3157085180282593e-01" nType="-99"/>
          <Node pos="r" depth="2" NCoef="0" IVar="-1" Cut="0.0000000000000000e+00" cType="1" res="-2.5939321145415306e-02" rms="-nan" purity="2.5466561317443848e-01" nType="-99"/>
        </Node>
        <Node pos="r" depth="1" NCoef="0" IVar="-1" Cut="0.0000000000000000e+00" cType="1" res="6.4977020025253296e-02" rms="3.9085713028907776e-01" purity="3.0747845768928528e-01" nType="-99"/>
      </Node>
    </BinaryTree>
    <BinaryTree type="DecisionTree" boostWeight="1.0000000000000000e+00" itree="1481">
      <Node pos="s" depth="0" NCoef="0" IVar="84" Cut="-1.7848159372806549e-01" cType="1" res="-2.4843348655849695e-03" rms="2.2674541175365448e-01" purity="4.9256747961044312e-01" nType="0">
        <Node pos="l" depth="1" NCoef="0" IVar="4" Cut="3.4942665100097656e+00" cType="1" res="-4.0652956813573837e-02" rms="1.4815632998943329e-01" purity="4.7890567779541016e-01" nType="0">
          <Node pos="l" depth="2" NCoef="0" IVar="-1" Cut="0.0000000000000000e+00" cType="1" res="-4.1892211884260178e-02" rms="-nan" purity="2.0847965776920319e-01" nType="-99"/>
          <Node pos="r" depth="2" NCoef="0" IVar="-1" Cut="0.0000000000000000e+00" cType="1" res="-6.4394054934382439e-03" rms="2.1739120781421661e-01" purity="5.8775836229324341e-01" nType="-99"/>
        </Node>
        <Node pos="r" depth="1" NCoef="0" IVar="10" Cut="2.9919056892395020e+00" cType="1" res="1.1880774982273579e-02" rms="2.4849058687686920e-01" purity="4.9770918488502502e-01" nType="0">
          <Node pos="l" depth="2" NCoef="0" IVar="-1" Cut="0.0000000000000000e+00" cType="1" res="2.1371517330408096e-02" rms="3.1512001156806946e-01" purity="3.2964423298835754e-01" nType="-99"/>
          <Node pos="r" depth="2" NCoef="0" IVar="-1" Cut="0.0000000000000000e+00" cType="1" res="6.2717510445509106e-05" rms="2.2804689407348633e-01" purity="5.3813797235488892e-01" nType="-99"/>
        </Node>
      </Node>
    </BinaryTree>
    <BinaryTree type="DecisionTree" boostWeight="1.0000000000000000e+00" itree="1482">
      <Node pos="s" depth="0" NCoef="0" IVar="63" Cut="-5.2130997180938721e-01" cType="1" res="1.5604615909978747e-03" rms="2.3205085098743439e-01" purity="5.0391280651092529e-01" nType="0">
        <Node pos="l" depth="1" NCoef="0" IVar="15" Cut="1.4021222591400146e+00" cType="1" res="8.7599024176597595e-02" rms="3.2405430078506470e-01" purity="5.4565411806106567e-01" nType="0">
          <Node pos="l" depth="2" NCoef="0" IVar="-1" Cut="0.0000000000000000e+00" cType="1" res="6.0191057622432709e-02" rms="3.8089415431022644e-01" purity="4.9739748239517212e-01" nType="-99"/>
          <Node pos="r" depth="2" NCoef="0" IVar="-1" Cut="0.0000000000000000e+00" cType="1" res="-6.0114213265478611e-03" rms="1.8254914879798889e-01" purity="6.0779863595962524e-01" nType="-99"/>
        </Node>
        <Node pos="r" depth="1" NCoef="0" IVar="78" Cut="1.1392203569412231e+00" cType="1" res="-3.4305779263377190e-03" rms="2.2455579042434692e-01" purity="5.0149136781692505e-01" nType="0">
          <Node pos="l" depth="2" NCoef="0" IVar="-1" Cut="0.0000000000000000e+00" cType="1" res="1.3138457434251904e-03" rms="2.4076807498931885e-01" purity="5.5548173189163208e-01" nType="-99"/>
          <Node pos="r" depth="2" NCoef="0" IVar="-1" Cut="0.0000000000000000e+00" cType="1" res="-2.8812356293201447e-02" rms="-nan" purity="1.1299133300781250e-01" nType="-99"/>
        </Node>
      </Node>
    </BinaryTree>
    <BinaryTree type="DecisionTree" boostWeight="1.0000000000000000e+00" itree="1483">
      <Node pos="s" depth="0" NCoef="0" IVar="67" Cut="1.3388935327529907e+00" cType="1" res="9.3529066070914268e-03" rms="2.4042122066020966e-01" purity="5.0941604375839233e-01" nType="0">
        <Node pos="l" depth="1" NCoef="0" IVar="77" Cut="1.4821660518646240e+00" cType="1" res="5.4299319162964821e-03" rms="2.3540171980857849e-01" purity="5.2160459756851196e-01" nType="0">
          <Node pos="l" depth="2" NCoef="0" IVar="-1" Cut="0.0000000000000000e+00" cType="1" res="3.0005078297108412e-03" rms="2.4290384352207184e-01" purity="5.3438729047775269e-01" nType="-99"/>
          <Node pos="r" depth="2" NCoef="0" IVar="-1" Cut="0.0000000000000000e+00" cType="1" res="-1.4761693775653839e-01" rms="-nan" purity="-8.4662310779094696e-02" nType="-99"/>
        </Node>
        <Node pos="r" depth="1" NCoef="0" IVar="48" Cut="1.3671895265579224e+00" cType="1" res="8.7062463164329529e-02" rms="3.1427699327468872e-01" purity="2.6797565817832947e-01" nType="0">
          <Node pos="l" depth="2" NCoef="0" IVar="-1" Cut="0.0000000000000000e+00" cType="1" res="1.4259037375450134e-01" rms="4.0881088376045227e-01" purity="2.9006895422935486e-01" nType="-99"/>
          <Node pos="r" depth="2" NCoef="0" IVar="-1" Cut="0.0000000000000000e+00" cType="1" res="4.3754936195909977e-03" rms="1.8445101380348206e-01" purity="2.5177040696144104e-01" nType="-99"/>
        </Node>
      </Node>
    </BinaryTree>
    <BinaryTree type="DecisionTree" boostWeight="1.0000000000000000e+00" itree="1484">
      <Node pos="s" depth="0" NCoef="0" IVar="48" Cut="7.0261210203170776e-01" cType="1" res="-3.2252336386591196e-03" rms="2.2908830642700195e-01" purity="4.9294930696487427e-01" nType="0">
        <Node pos="l" depth="1" NCoef="0" IVar="-1" Cut="0.0000000000000000e+00" cType="1" res="-6.5862476825714111e-02" rms="-nan" purity="2.6795355603098869e-02" nType="-99"/>
        <Node pos="r" depth="1" NCoef="0" IVar="48" Cut="8.9876472949981689e-01" cType="1" res="-6.2768236966803670e-04" rms="2.3534148931503296e-01" purity="5.0375878810882568e-01" nType="0">
          <Node pos="l" depth="2" NCoef="0" IVar="-1" Cut="0.0000000000000000e+00" cType="1" res="3.3389970660209656e-02" rms="3.3997687697410583e-01" purity="2.9548415541648865e-01" nType="-99"/>
          <Node pos="r" depth="2" NCoef="0" IVar="-1" Cut="0.0000000000000000e+00" cType="1" res="-2.0885481499135494e-03" rms="2.2644643485546112e-01" purity="5.1659059524536133e-01" nType="-99"/>
        </Node>
      </Node>
    </BinaryTree>
    <BinaryTree type="DecisionTree" boostWeight="1.0000000000000000e+00" itree="1485">
      <Node pos="s" depth="0" NCoef="0" IVar="9" Cut="2.3456789553165436e-01" cType="1" res="-5.3424312500283122e-04" rms="2.2051334381103516e-01" purity="4.9966049194335938e-01" nType="0">
        <Node pos="l" depth="1" NCoef="0" IVar="60" Cut="-2.4129698276519775e+00" cType="1" res="-3.2306544017046690e-03" rms="2.1617782115936279e-01" purity="5.0416696071624756e-01" nType="0">
          <Node pos="l" depth="2" NCoef="0" IVar="-1" Cut="0.0000000000000000e+00" cType="1" res="1.0184677317738533e-02" rms="2.6399815082550049e-01" purity="6.8378520011901855e-01" nType="-99"/>
          <Node pos="r" depth="2" NCoef="0" IVar="-1" Cut="0.0000000000000000e+00" cType="1" res="-5.0687519833445549e-03" rms="1.9744606316089630e-01" purity="4.4665503501892090e-01" nType="-99"/>
        </Node>
        <Node pos="r" depth="1" NCoef="0" IVar="-1" Cut="0.0000000000000000e+00" cType="1" res="4.3450508266687393e-02" rms="3.3884391188621521e-01" purity="3.1109091639518738e-01" nType="-99"/>
      </Node>
    </BinaryTree>
    <BinaryTree type="DecisionTree" boostWeight="1.0000000000000000e+00" itree="1486">
      <Node pos="s" depth="0" NCoef="0" IVar="19" Cut="8.2566750049591064e-01" cType="1" res="-3.9601181633770466e-03" rms="2.2252625226974487e-01" purity="4.9619609117507935e-01" nType="0">
        <Node pos="l" depth="1" NCoef="0" IVar="13" Cut="1.3237386941909790e+00" cType="1" res="1.2288356199860573e-02" rms="2.5151792168617249e-01" purity="5.4875749349594116e-01" nType="0">
          <Node pos="l" depth="2" NCoef="0" IVar="-1" Cut="0.0000000000000000e+00" cType="1" res="3.5774983465671539e-02" rms="2.4534097313880920e-01" purity="2.4183279275894165e-01" nType="-99"/>
          <Node pos="r" depth="2" NCoef="0" IVar="-1" Cut="0.0000000000000000e+00" cType="1" res="-1.1606545886024833e-03" rms="2.5173950195312500e-01" purity="6.5526747703552246e-01" nType="-99"/>
        </Node>
        <Node pos="r" depth="1" NCoef="0" IVar="16" Cut="-1.2614017724990845e+00" cType="1" res="-3.5886786878108978e-02" rms="1.4482945203781128e-01" purity="3.9291790127754211e-01" nType="0">
          <Node pos="l" depth="2" NCoef="0" IVar="-1" Cut="0.0000000000000000e+00" cType="1" res="2.8165269643068314e-02" rms="2.8717857599258423e-01" purity="3.3349746465682983e-01" nType="-99"/>
          <Node pos="r" depth="2" NCoef="0" IVar="-1" Cut="0.0000000000000000e+00" cType="1" res="-2.0217843353748322e-02" rms="9.9612452089786530e-02" purity="4.0179592370986938e-01" nType="-99"/>
        </Node>
      </Node>
    </BinaryTree>
    <BinaryTree type="DecisionTree" boostWeight="1.0000000000000000e+00" itree="1487">
      <Node pos="s" depth="0" NCoef="0" IVar="41" Cut="-4.9241378903388977e-02" cType="1" res="3.0854195356369019e-03" rms="2.2933623194694519e-01" purity="5.0179648399353027e-01" nType="0">
        <Node pos="l" depth="1" NCoef="0" IVar="60" Cut="-6.7436546087265015e-01" cType="1" res="2.4279518052935600e-02" rms="2.6584711670875549e-01" purity="5.7348591089248657e-01" nType="0">
          <Node pos="l" depth="2" NCoef="0" IVar="-1" Cut="0.0000000000000000e+00" cType="1" res="6.4621716737747192e-03" rms="2.5674858689308167e-01" purity="5.9070760011672974e-01" nType="-99"/>
          <Node pos="r" depth="2" NCoef="0" IVar="-1" Cut="0.0000000000000000e+00" cType="1" res="4.1472055017948151e-02" rms="3.6130437254905701e-01" purity="3.2504752278327942e-01" nType="-99"/>
        </Node>
        <Node pos="r" depth="1" NCoef="0" IVar="55" Cut="-1.2612463235855103e+00" cType="1" res="-1.4450974762439728e-02" rms="1.9224081933498383e-01" purity="4.4247931241989136e-01" nType="0">
          <Node pos="l" depth="2" NCoef="0" IVar="-1" Cut="0.0000000000000000e+00" cType="1" res="-4.1594866663217545e-02" rms="-nan" purity="1.4880268275737762e-01" nType="-99"/>
          <Node pos="r" depth="2" NCoef="0" IVar="-1" Cut="0.0000000000000000e+00" cType="1" res="-1.1898630764335394e-03" rms="2.2389684617519379e-01" purity="4.9106553196907043e-01" nType="-99"/>
        </Node>
      </Node>
    </BinaryTree>
    <BinaryTree type="DecisionTree" boostWeight="1.0000000000000000e+00" itree="1488">
      <Node pos="s" depth="0" NCoef="0" IVar="78" Cut="1.4826167821884155e+00" cType="1" res="-4.8202192410826683e-03" rms="2.2137252986431122e-01" purity="4.8781242966651917e-01" nType="0">
        <Node pos="l" depth="1" NCoef="0" IVar="3" Cut="5.5309634208679199e+00" cType="1" res="-2.0227292552590370e-03" rms="2.2739978134632111e-01" purity="4.9992591142654419e-01" nType="0">
