<?xml version="1.0"?>
<MethodSetup Method="BDT::GBDTXicPi_Run1">
  <GeneralInfo>
    <Info name="TMVA Release" value="4.2.1 [262657]"/>
    <Info name="ROOT Release" value="6.06/00 [394752]"/>
    <Info name="Creator" value="mstahl"/>
    <Info name="Date" value="Sun Mar 17 17:57:12 2019"/>
    <Info name="Host" value="Linux lcgapp-slc6-physical1.cern.ch 2.6.32-573.8.1.el6.x86_64 #1 SMP Wed Nov 11 15:27:45 CET 2015 x86_64 x86_64 x86_64 GNU/Linux"/>
    <Info name="Dir" value="/auto/sigma0/mstahl/stuff/DfromBBDTs"/>
    <Info name="Training events" value="260000"/>
    <Info name="TrainingTime" value="6.01951107e+02"/>
    <Info name="AnalysisType" value="Classification"/>
  </GeneralInfo>
  <Options>
    <Option name="V" modified="Yes">False</Option>
    <Option name="VerbosityLevel" modified="No">Default</Option>
    <Option name="VarTransform" modified="No">None</Option>
    <Option name="H" modified="Yes">False</Option>
    <Option name="CreateMVAPdfs" modified="No">False</Option>
    <Option name="IgnoreNegWeightsInTraining" modified="No">False</Option>
    <Option name="NTrees" modified="Yes">1600</Option>
    <Option name="MaxDepth" modified="Yes">2</Option>
    <Option name="MinNodeSize" modified="Yes">2.0%</Option>
    <Option name="nCuts" modified="Yes">80</Option>
    <Option name="BoostType" modified="Yes">Grad</Option>
    <Option name="AdaBoostR2Loss" modified="No">quadratic</Option>
    <Option name="UseBaggedBoost" modified="Yes">True</Option>
    <Option name="Shrinkage" modified="Yes">5.000000e-02</Option>
    <Option name="AdaBoostBeta" modified="No">5.000000e-01</Option>
    <Option name="UseRandomisedTrees" modified="No">False</Option>
    <Option name="UseNvars" modified="No">8</Option>
    <Option name="UsePoissonNvars" modified="No">True</Option>
    <Option name="BaggedSampleFraction" modified="No">6.000000e-01</Option>
    <Option name="UseYesNoLeaf" modified="No">True</Option>
    <Option name="NegWeightTreatment" modified="Yes">pray</Option>
    <Option name="Css" modified="No">1.000000e+00</Option>
    <Option name="Cts_sb" modified="No">1.000000e+00</Option>
    <Option name="Ctb_ss" modified="No">1.000000e+00</Option>
    <Option name="Cbb" modified="No">1.000000e+00</Option>
    <Option name="NodePurityLimit" modified="No">5.000000e-01</Option>
    <Option name="SeparationType" modified="No">giniindex</Option>
    <Option name="DoBoostMonitor" modified="No">False</Option>
    <Option name="UseFisherCuts" modified="No">False</Option>
    <Option name="MinLinCorrForFisher" modified="No">8.000000e-01</Option>
    <Option name="UseExclusiveVars" modified="No">False</Option>
    <Option name="DoPreselection" modified="No">False</Option>
    <Option name="SigToBkgFraction" modified="No">1.000000e+00</Option>
    <Option name="PruneMethod" modified="No">nopruning</Option>
    <Option name="PruneStrength" modified="No">0.000000e+00</Option>
    <Option name="PruningValFraction" modified="No">5.000000e-01</Option>
    <Option name="nEventsMin" modified="No">0</Option>
    <Option name="UseBaggedGrad" modified="No">False</Option>
    <Option name="GradBaggingFraction" modified="No">6.000000e-01</Option>
    <Option name="UseNTrainEvents" modified="No">0</Option>
    <Option name="NNodesMax" modified="No">0</Option>
  </Options>
  <Variables NVar="69">
    <Variable VarIndex="0" Expression="Xic_log_ENDVERTEX_CHI2" Label="Xic_log_ENDVERTEX_CHI2" Title="Xic_log_ENDVERTEX_CHI2" Unit=" " Internal="Xic_log_ENDVERTEX_CHI2" Type="F" Min="-5.44933510e+00" Max="1.47709358e+00"/>
    <Variable VarIndex="1" Expression="Xic_log_FDCHI2_OWNPV" Label="Xic_log_FDCHI2_OWNPV" Title="Xic_log_FDCHI2_OWNPV" Unit=" " Internal="Xic_log_FDCHI2_OWNPV" Type="F" Min="1.38926017e+00" Max="6.88369942e+00"/>
    <Variable VarIndex="2" Expression="Xic_log_IPCHI2_OWNPV" Label="Xic_log_IPCHI2_OWNPV" Title="Xic_log_IPCHI2_OWNPV" Unit=" " Internal="Xic_log_IPCHI2_OWNPV" Type="F" Min="-4.48609018e+00" Max="4.99322462e+00"/>
    <Variable VarIndex="3" Expression="Xic_log_P" Label="Xic_log_P" Title="Xic_log_P" Unit=" " Internal="Xic_log_P" Type="F" Min="3.91430926e+00" Max="6.17937899e+00"/>
    <Variable VarIndex="4" Expression="Xic_log_PT" Label="Xic_log_PT" Title="Xic_log_PT" Unit=" " Internal="Xic_log_PT" Type="F" Min="8.93462598e-01" Max="4.90539742e+00"/>
    <Variable VarIndex="5" Expression="Xic_beta" Label="Xic_beta" Title="Xic_beta" Unit=" " Internal="Xic_beta" Type="F" Min="-8.42093527e-01" Max="7.17378557e-01"/>
    <Variable VarIndex="6" Expression="Xic_p_log_IPCHI2_OWNPV" Label="Xic_p_log_IPCHI2_OWNPV" Title="Xic_p_log_IPCHI2_OWNPV" Unit=" " Internal="Xic_p_log_IPCHI2_OWNPV" Type="F" Min="5.99489808e-01" Max="5.07705736e+00"/>
    <Variable VarIndex="7" Expression="Xic_p_atan_MuonLLbg" Label="Xic_p_atan_MuonLLbg" Title="Xic_p_atan_MuonLLbg" Unit=" " Internal="Xic_p_atan_MuonLLbg" Type="F" Min="-1.57069635e+00" Max="1.43990051e-02"/>
    <Variable VarIndex="8" Expression="Xic_p_atan_MuonLLmu" Label="Xic_p_atan_MuonLLmu" Title="Xic_p_atan_MuonLLmu" Unit=" " Internal="Xic_p_atan_MuonLLmu" Type="F" Min="-1.57069635e+00" Max="0.00000000e+00"/>
    <Variable VarIndex="9" Expression="Xic_p_MuonNShared" Label="Xic_p_MuonNShared" Title="Xic_p_MuonNShared" Unit=" " Internal="Xic_p_MuonNShared" Type="F" Min="-1.00000000e+00" Max="3.00000000e+01"/>
    <Variable VarIndex="10" Expression="Xic_p_log_PT" Label="Xic_p_log_PT" Title="Xic_p_log_PT" Unit=" " Internal="Xic_p_log_PT" Type="F" Min="2.00020003e+00" Max="4.75071287e+00"/>
    <Variable VarIndex="11" Expression="Xic_p_RichAboveKaThres" Label="Xic_p_RichAboveKaThres" Title="Xic_p_RichAboveKaThres" Unit=" " Internal="Xic_p_RichAboveKaThres" Type="F" Min="0.00000000e+00" Max="1.00000000e+00"/>
    <Variable VarIndex="12" Expression="Xic_p_RichAbovePrThres" Label="Xic_p_RichAbovePrThres" Title="Xic_p_RichAbovePrThres" Unit=" " Internal="Xic_p_RichAbovePrThres" Type="F" Min="0.00000000e+00" Max="1.00000000e+00"/>
    <Variable VarIndex="13" Expression="Xic_p_atan_RichDLLbt" Label="Xic_p_atan_RichDLLbt" Title="Xic_p_atan_RichDLLbt" Unit=" " Internal="Xic_p_atan_RichDLLbt" Type="F" Min="-1.56979632e+00" Max="1.55668473e+00"/>
    <Variable VarIndex="14" Expression="Xic_p_atan_RichDLLe" Label="Xic_p_atan_RichDLLe" Title="Xic_p_atan_RichDLLe" Unit=" " Internal="Xic_p_atan_RichDLLe" Type="F" Min="-1.56979632e+00" Max="1.56367588e+00"/>
    <Variable VarIndex="15" Expression="Xic_p_atan_RichDLLk" Label="Xic_p_atan_RichDLLk" Title="Xic_p_atan_RichDLLk" Unit=" " Internal="Xic_p_atan_RichDLLk" Type="F" Min="-1.56979632e+00" Max="1.56391621e+00"/>
    <Variable VarIndex="16" Expression="Xic_p_atan_RichDLLmu" Label="Xic_p_atan_RichDLLmu" Title="Xic_p_atan_RichDLLmu" Unit=" " Internal="Xic_p_atan_RichDLLmu" Type="F" Min="-1.56979632e+00" Max="1.56180465e+00"/>
    <Variable VarIndex="17" Expression="Xic_p_atan_RichDLLp" Label="Xic_p_atan_RichDLLp" Title="Xic_p_atan_RichDLLp" Unit=" " Internal="Xic_p_atan_RichDLLp" Type="F" Min="-1.56979632e+00" Max="1.56473589e+00"/>
    <Variable VarIndex="18" Expression="Xic_p_log_TRACK_GhostProb" Label="Xic_p_log_TRACK_GhostProb" Title="Xic_p_log_TRACK_GhostProb" Unit=" " Internal="Xic_p_log_TRACK_GhostProb" Type="F" Min="-5.58958054e+00" Max="-3.97944599e-01"/>
    <Variable VarIndex="19" Expression="Xic_p_log_TRACK_MatchCHI2" Label="Xic_p_log_TRACK_MatchCHI2" Title="Xic_p_log_TRACK_MatchCHI2" Unit=" " Internal="Xic_p_log_TRACK_MatchCHI2" Type="F" Min="-1.63310266e+00" Max="2.09111524e+00"/>
    <Variable VarIndex="20" Expression="Xic_p_log_TRACK_TCHI2NDOF" Label="Xic_p_log_TRACK_TCHI2NDOF" Title="Xic_p_log_TRACK_TCHI2NDOF" Unit=" " Internal="Xic_p_log_TRACK_TCHI2NDOF" Type="F" Min="-2.89468908e+00" Max="1.45028925e+00"/>
    <Variable VarIndex="21" Expression="Xic_p_log_TRACK_VeloCHI2NDOF" Label="Xic_p_log_TRACK_VeloCHI2NDOF" Title="Xic_p_log_TRACK_VeloCHI2NDOF" Unit=" " Internal="Xic_p_log_TRACK_VeloCHI2NDOF" Type="F" Min="-4.12601566e+00" Max="1.76788628e+00"/>
    <Variable VarIndex="22" Expression="Xic_p_UsedRich1Gas" Label="Xic_p_UsedRich1Gas" Title="Xic_p_UsedRich1Gas" Unit=" " Internal="Xic_p_UsedRich1Gas" Type="F" Min="0.00000000e+00" Max="1.00000000e+00"/>
    <Variable VarIndex="23" Expression="Xic_p_UsedRich2Gas" Label="Xic_p_UsedRich2Gas" Title="Xic_p_UsedRich2Gas" Unit=" " Internal="Xic_p_UsedRich2Gas" Type="F" Min="0.00000000e+00" Max="1.00000000e+00"/>
    <Variable VarIndex="24" Expression="Xic_p_UsedRichAerogel" Label="Xic_p_UsedRichAerogel" Title="Xic_p_UsedRichAerogel" Unit=" " Internal="Xic_p_UsedRichAerogel" Type="F" Min="0.00000000e+00" Max="1.00000000e+00"/>
    <Variable VarIndex="25" Expression="Xic_p_VeloCharge" Label="Xic_p_VeloCharge" Title="Xic_p_VeloCharge" Unit=" " Internal="Xic_p_VeloCharge" Type="F" Min="5.16853929e-01" Max="4.63132000e+00"/>
    <Variable VarIndex="26" Expression="Xic_p_isMuon" Label="Xic_p_isMuon" Title="Xic_p_isMuon" Unit=" " Internal="Xic_p_isMuon" Type="F" Min="0.00000000e+00" Max="1.00000000e+00"/>
    <Variable VarIndex="27" Expression="Xic_K_log_IPCHI2_OWNPV" Label="Xic_K_log_IPCHI2_OWNPV" Title="Xic_K_log_IPCHI2_OWNPV" Unit=" " Internal="Xic_K_log_IPCHI2_OWNPV" Type="F" Min="5.97317219e-01" Max="5.10949755e+00"/>
    <Variable VarIndex="28" Expression="Xic_K_atan_MuonLLbg" Label="Xic_K_atan_MuonLLbg" Title="Xic_K_atan_MuonLLbg" Unit=" " Internal="Xic_K_atan_MuonLLbg" Type="F" Min="-1.57069635e+00" Max="1.71983037e-02"/>
    <Variable VarIndex="29" Expression="Xic_K_atan_MuonLLmu" Label="Xic_K_atan_MuonLLmu" Title="Xic_K_atan_MuonLLmu" Unit=" " Internal="Xic_K_atan_MuonLLmu" Type="F" Min="-1.57069635e+00" Max="0.00000000e+00"/>
    <Variable VarIndex="30" Expression="Xic_K_MuonNShared" Label="Xic_K_MuonNShared" Title="Xic_K_MuonNShared" Unit=" " Internal="Xic_K_MuonNShared" Type="F" Min="-1.00000000e+00" Max="3.30000000e+01"/>
    <Variable VarIndex="31" Expression="Xic_K_log_PT" Label="Xic_K_log_PT" Title="Xic_K_log_PT" Unit=" " Internal="Xic_K_log_PT" Type="F" Min="2.00017285e+00" Max="4.54826307e+00"/>
    <Variable VarIndex="32" Expression="Xic_K_RichAboveKaThres" Label="Xic_K_RichAboveKaThres" Title="Xic_K_RichAboveKaThres" Unit=" " Internal="Xic_K_RichAboveKaThres" Type="F" Min="0.00000000e+00" Max="1.00000000e+00"/>
    <Variable VarIndex="33" Expression="Xic_K_RichAbovePrThres" Label="Xic_K_RichAbovePrThres" Title="Xic_K_RichAbovePrThres" Unit=" " Internal="Xic_K_RichAbovePrThres" Type="F" Min="0.00000000e+00" Max="1.00000000e+00"/>
    <Variable VarIndex="34" Expression="Xic_K_atan_RichDLLbt" Label="Xic_K_atan_RichDLLbt" Title="Xic_K_atan_RichDLLbt" Unit=" " Internal="Xic_K_atan_RichDLLbt" Type="F" Min="-1.56979632e+00" Max="1.55640674e+00"/>
    <Variable VarIndex="35" Expression="Xic_K_atan_RichDLLe" Label="Xic_K_atan_RichDLLe" Title="Xic_K_atan_RichDLLe" Unit=" " Internal="Xic_K_atan_RichDLLe" Type="F" Min="-1.56979632e+00" Max="1.56316030e+00"/>
    <Variable VarIndex="36" Expression="Xic_K_atan_RichDLLk" Label="Xic_K_atan_RichDLLk" Title="Xic_K_atan_RichDLLk" Unit=" " Internal="Xic_K_atan_RichDLLk" Type="F" Min="-1.56979632e+00" Max="1.56457984e+00"/>
    <Variable VarIndex="37" Expression="Xic_K_atan_RichDLLmu" Label="Xic_K_atan_RichDLLmu" Title="Xic_K_atan_RichDLLmu" Unit=" " Internal="Xic_K_atan_RichDLLmu" Type="F" Min="-1.56979632e+00" Max="1.55817485e+00"/>
    <Variable VarIndex="38" Expression="Xic_K_atan_RichDLLp" Label="Xic_K_atan_RichDLLp" Title="Xic_K_atan_RichDLLp" Unit=" " Internal="Xic_K_atan_RichDLLp" Type="F" Min="-1.56979632e+00" Max="1.56077039e+00"/>
    <Variable VarIndex="39" Expression="Xic_K_log_TRACK_GhostProb" Label="Xic_K_log_TRACK_GhostProb" Title="Xic_K_log_TRACK_GhostProb" Unit=" " Internal="Xic_K_log_TRACK_GhostProb" Type="F" Min="-5.58763981e+00" Max="-3.98085713e-01"/>
    <Variable VarIndex="40" Expression="Xic_K_log_TRACK_MatchCHI2" Label="Xic_K_log_TRACK_MatchCHI2" Title="Xic_K_log_TRACK_MatchCHI2" Unit=" " Internal="Xic_K_log_TRACK_MatchCHI2" Type="F" Min="-1.69750953e+00" Max="2.09800243e+00"/>
    <Variable VarIndex="41" Expression="Xic_K_log_TRACK_TCHI2NDOF" Label="Xic_K_log_TRACK_TCHI2NDOF" Title="Xic_K_log_TRACK_TCHI2NDOF" Unit=" " Internal="Xic_K_log_TRACK_TCHI2NDOF" Type="F" Min="-2.97013497e+00" Max="1.45774722e+00"/>
    <Variable VarIndex="42" Expression="Xic_K_log_TRACK_VeloCHI2NDOF" Label="Xic_K_log_TRACK_VeloCHI2NDOF" Title="Xic_K_log_TRACK_VeloCHI2NDOF" Unit=" " Internal="Xic_K_log_TRACK_VeloCHI2NDOF" Type="F" Min="-4.21959257e+00" Max="1.44401705e+00"/>
    <Variable VarIndex="43" Expression="Xic_K_UsedRich1Gas" Label="Xic_K_UsedRich1Gas" Title="Xic_K_UsedRich1Gas" Unit=" " Internal="Xic_K_UsedRich1Gas" Type="F" Min="0.00000000e+00" Max="1.00000000e+00"/>
    <Variable VarIndex="44" Expression="Xic_K_UsedRich2Gas" Label="Xic_K_UsedRich2Gas" Title="Xic_K_UsedRich2Gas" Unit=" " Internal="Xic_K_UsedRich2Gas" Type="F" Min="0.00000000e+00" Max="1.00000000e+00"/>
    <Variable VarIndex="45" Expression="Xic_K_UsedRichAerogel" Label="Xic_K_UsedRichAerogel" Title="Xic_K_UsedRichAerogel" Unit=" " Internal="Xic_K_UsedRichAerogel" Type="F" Min="0.00000000e+00" Max="1.00000000e+00"/>
    <Variable VarIndex="46" Expression="Xic_K_VeloCharge" Label="Xic_K_VeloCharge" Title="Xic_K_VeloCharge" Unit=" " Internal="Xic_K_VeloCharge" Type="F" Min="5.61797738e-01" Max="4.63132000e+00"/>
    <Variable VarIndex="47" Expression="Xic_K_isMuon" Label="Xic_K_isMuon" Title="Xic_K_isMuon" Unit=" " Internal="Xic_K_isMuon" Type="F" Min="0.00000000e+00" Max="1.00000000e+00"/>
    <Variable VarIndex="48" Expression="Xic_pi_log_IPCHI2_OWNPV" Label="Xic_pi_log_IPCHI2_OWNPV" Title="Xic_pi_log_IPCHI2_OWNPV" Unit=" " Internal="Xic_pi_log_IPCHI2_OWNPV" Type="F" Min="5.34536302e-01" Max="5.03451633e+00"/>
    <Variable VarIndex="49" Expression="Xic_pi_atan_MuonLLbg" Label="Xic_pi_atan_MuonLLbg" Title="Xic_pi_atan_MuonLLbg" Unit=" " Internal="Xic_pi_atan_MuonLLbg" Type="F" Min="-1.57069635e+00" Max="1.30992504e-02"/>
    <Variable VarIndex="50" Expression="Xic_pi_atan_MuonLLmu" Label="Xic_pi_atan_MuonLLmu" Title="Xic_pi_atan_MuonLLmu" Unit=" " Internal="Xic_pi_atan_MuonLLmu" Type="F" Min="-1.57069635e+00" Max="0.00000000e+00"/>
    <Variable VarIndex="51" Expression="Xic_pi_MuonNShared" Label="Xic_pi_MuonNShared" Title="Xic_pi_MuonNShared" Unit=" " Internal="Xic_pi_MuonNShared" Type="F" Min="-1.00000000e+00" Max="3.70000000e+01"/>
    <Variable VarIndex="52" Expression="Xic_pi_log_PT" Label="Xic_pi_log_PT" Title="Xic_pi_log_PT" Unit=" " Internal="Xic_pi_log_PT" Type="F" Min="2.00002718e+00" Max="4.51236677e+00"/>
    <Variable VarIndex="53" Expression="Xic_pi_RichAboveKaThres" Label="Xic_pi_RichAboveKaThres" Title="Xic_pi_RichAboveKaThres" Unit=" " Internal="Xic_pi_RichAboveKaThres" Type="F" Min="0.00000000e+00" Max="1.00000000e+00"/>
    <Variable VarIndex="54" Expression="Xic_pi_RichAbovePrThres" Label="Xic_pi_RichAbovePrThres" Title="Xic_pi_RichAbovePrThres" Unit=" " Internal="Xic_pi_RichAbovePrThres" Type="F" Min="0.00000000e+00" Max="1.00000000e+00"/>
    <Variable VarIndex="55" Expression="Xic_pi_atan_RichDLLbt" Label="Xic_pi_atan_RichDLLbt" Title="Xic_pi_atan_RichDLLbt" Unit=" " Internal="Xic_pi_atan_RichDLLbt" Type="F" Min="-1.56979632e+00" Max="1.55395877e+00"/>
    <Variable VarIndex="56" Expression="Xic_pi_atan_RichDLLe" Label="Xic_pi_atan_RichDLLe" Title="Xic_pi_atan_RichDLLe" Unit=" " Internal="Xic_pi_atan_RichDLLe" Type="F" Min="-1.56979632e+00" Max="1.56305623e+00"/>
    <Variable VarIndex="57" Expression="Xic_pi_atan_RichDLLk" Label="Xic_pi_atan_RichDLLk" Title="Xic_pi_atan_RichDLLk" Unit=" " Internal="Xic_pi_atan_RichDLLk" Type="F" Min="-1.56979632e+00" Max="1.52083194e+00"/>
    <Variable VarIndex="58" Expression="Xic_pi_atan_RichDLLmu" Label="Xic_pi_atan_RichDLLmu" Title="Xic_pi_atan_RichDLLmu" Unit=" " Internal="Xic_pi_atan_RichDLLmu" Type="F" Min="-1.56979632e+00" Max="1.55997896e+00"/>
    <Variable VarIndex="59" Expression="Xic_pi_atan_RichDLLp" Label="Xic_pi_atan_RichDLLp" Title="Xic_pi_atan_RichDLLp" Unit=" " Internal="Xic_pi_atan_RichDLLp" Type="F" Min="-1.56979632e+00" Max="1.56070530e+00"/>
    <Variable VarIndex="60" Expression="Xic_pi_log_TRACK_GhostProb" Label="Xic_pi_log_TRACK_GhostProb" Title="Xic_pi_log_TRACK_GhostProb" Unit=" " Internal="Xic_pi_log_TRACK_GhostProb" Type="F" Min="-5.16945028e+00" Max="-3.97975177e-01"/>
    <Variable VarIndex="61" Expression="Xic_pi_log_TRACK_MatchCHI2" Label="Xic_pi_log_TRACK_MatchCHI2" Title="Xic_pi_log_TRACK_MatchCHI2" Unit=" " Internal="Xic_pi_log_TRACK_MatchCHI2" Type="F" Min="-1.45416760e+00" Max="2.07990980e+00"/>
    <Variable VarIndex="62" Expression="Xic_pi_log_TRACK_TCHI2NDOF" Label="Xic_pi_log_TRACK_TCHI2NDOF" Title="Xic_pi_log_TRACK_TCHI2NDOF" Unit=" " Internal="Xic_pi_log_TRACK_TCHI2NDOF" Type="F" Min="-2.45559335e+00" Max="1.12454581e+00"/>
    <Variable VarIndex="63" Expression="Xic_pi_log_TRACK_VeloCHI2NDOF" Label="Xic_pi_log_TRACK_VeloCHI2NDOF" Title="Xic_pi_log_TRACK_VeloCHI2NDOF" Unit=" " Internal="Xic_pi_log_TRACK_VeloCHI2NDOF" Type="F" Min="-3.66751957e+00" Max="1.53432488e+00"/>
    <Variable VarIndex="64" Expression="Xic_pi_UsedRich1Gas" Label="Xic_pi_UsedRich1Gas" Title="Xic_pi_UsedRich1Gas" Unit=" " Internal="Xic_pi_UsedRich1Gas" Type="F" Min="0.00000000e+00" Max="1.00000000e+00"/>
    <Variable VarIndex="65" Expression="Xic_pi_UsedRich2Gas" Label="Xic_pi_UsedRich2Gas" Title="Xic_pi_UsedRich2Gas" Unit=" " Internal="Xic_pi_UsedRich2Gas" Type="F" Min="0.00000000e+00" Max="1.00000000e+00"/>
    <Variable VarIndex="66" Expression="Xic_pi_UsedRichAerogel" Label="Xic_pi_UsedRichAerogel" Title="Xic_pi_UsedRichAerogel" Unit=" " Internal="Xic_pi_UsedRichAerogel" Type="F" Min="0.00000000e+00" Max="1.00000000e+00"/>
    <Variable VarIndex="67" Expression="Xic_pi_VeloCharge" Label="Xic_pi_VeloCharge" Title="Xic_pi_VeloCharge" Unit=" " Internal="Xic_pi_VeloCharge" Type="F" Min="5.24344563e-01" Max="3.79837704e+00"/>
    <Variable VarIndex="68" Expression="Xic_pi_isMuon" Label="Xic_pi_isMuon" Title="Xic_pi_isMuon" Unit=" " Internal="Xic_pi_isMuon" Type="F" Min="0.00000000e+00" Max="1.00000000e+00"/>
  </Variables>
  <Spectators NSpec="0"/>
  <Classes NClass="2">
    <Class Name="Signal" Index="0"/>
    <Class Name="Background" Index="1"/>
  </Classes>
  <Transformations NTransformations="0"/>
  <MVAPdfs/>
  <Weights NTrees="1600" AnalysisType="1">
    <BinaryTree type="DecisionTree" boostWeight="1.0000000000000000e+00" itree="0">
      <Node pos="s" depth="0" NCoef="0" IVar="17" Cut="1.4441871643066406e+00" cType="1" res="-3.5738672595471144e-03" rms="4.9998721480369568e-01" purity="4.9642613530158997e-01" nType="0">
        <Node pos="l" depth="1" NCoef="0" IVar="60" Cut="-1.7362623214721680e+00" cType="1" res="-4.6298831701278687e-01" rms="1.8879039585590363e-01" purity="3.7011675536632538e-02" nType="0">
          <Node pos="l" depth="2" NCoef="0" IVar="-1" Cut="0.0000000000000000e+00" cType="1" res="-1.3092936016619205e-02" rms="2.9335534572601318e-01" purity="9.5101684331893921e-02" nType="-99"/>
          <Node pos="r" depth="2" NCoef="0" IVar="-1" Cut="0.0000000000000000e+00" cType="1" res="-2.1137269213795662e-02" rms="0.0000000000000000e+00" purity="-2.2660691291093826e-02" nType="-99"/>
        </Node>
        <Node pos="r" depth="1" NCoef="0" IVar="36" Cut="1.3296864032745361e+00" cType="1" res="2.5333148241043091e-01" rms="4.3107211589813232e-01" purity="7.5333148241043091e-01" nType="0">
          <Node pos="l" depth="2" NCoef="0" IVar="-1" Cut="0.0000000000000000e+00" cType="1" res="-4.6634636819362640e-03" rms="4.3621730804443359e-01" purity="2.5563460588455200e-01" nType="-99"/>
          <Node pos="r" depth="2" NCoef="0" IVar="-1" Cut="0.0000000000000000e+00" cType="1" res="2.9128289315849543e-03" rms="3.7168782949447632e-01" purity="8.3443707227706909e-01" nType="-99"/>
        </Node>
      </Node>
    </BinaryTree>
    <BinaryTree type="DecisionTree" boostWeight="1.0000000000000000e+00" itree="1">
      <Node pos="s" depth="0" NCoef="0" IVar="17" Cut="1.4441871643066406e+00" cType="1" res="-1.9472715212032199e-04" rms="4.9645563960075378e-01" purity="4.9742284417152405e-01" nType="0">
        <Node pos="l" depth="1" NCoef="0" IVar="3" Cut="5.1929507255554199e+00" cType="1" res="-4.6384856104850769e-01" rms="1.6335961222648621e-01" purity="2.7523469179868698e-02" nType="0">
          <Node pos="l" depth="2" NCoef="0" IVar="-1" Cut="0.0000000000000000e+00" cType="1" res="-2.1996133029460907e-02" rms="8.7188258767127991e-02" purity="7.7377734705805779e-03" nType="-99"/>
          <Node pos="r" depth="2" NCoef="0" IVar="-1" Cut="0.0000000000000000e+00" cType="1" res="-4.6718460507690907e-03" rms="3.8914051651954651e-01" purity="1.8622268736362457e-01" nType="-99"/>
        </Node>
        <Node pos="r" depth="1" NCoef="0" IVar="36" Cut="1.2913550138473511e+00" cType="1" res="2.4947737157344818e-01" rms="4.3211171030998230e-01" purity="7.5045812129974365e-01" nType="0">
          <Node pos="l" depth="2" NCoef="0" IVar="-1" Cut="0.0000000000000000e+00" cType="1" res="-8.4778461605310440e-03" rms="3.5502609610557556e-01" purity="1.4792545139789581e-01" nType="-99"/>
          <Node pos="r" depth="2" NCoef="0" IVar="-1" Cut="0.0000000000000000e+00" cType="1" res="2.8944835066795349e-03" rms="3.7482377886772156e-01" purity="8.3088636398315430e-01" nType="-99"/>
        </Node>
      </Node>
    </BinaryTree>
    <BinaryTree type="DecisionTree" boostWeight="1.0000000000000000e+00" itree="2">
      <Node pos="s" depth="0" NCoef="0" IVar="17" Cut="1.4844523668289185e+00" cType="1" res="-9.7801082301884890e-04" rms="4.9249148368835449e-01" purity="4.9336272478103638e-01" nType="0">
        <Node pos="l" depth="1" NCoef="0" IVar="17" Cut="1.4467287063598633e+00" cType="1" res="-3.7853768467903137e-01" rms="3.0389210581779480e-01" purity="1.0623718053102493e-01" nType="0">
          <Node pos="l" depth="2" NCoef="0" IVar="-1" Cut="0.0000000000000000e+00" cType="1" res="-1.6131494194269180e-02" rms="1.9699659943580627e-01" purity="4.0879867970943451e-02" nType="-99"/>
          <Node pos="r" depth="2" NCoef="0" IVar="-1" Cut="0.0000000000000000e+00" cType="1" res="-8.7111437460407615e-04" rms="4.9211576581001282e-01" purity="4.2112970352172852e-01" nType="-99"/>
        </Node>
        <Node pos="r" depth="1" NCoef="0" IVar="36" Cut="1.1366981267929077e+00" cType="1" res="2.8998014330863953e-01" rms="4.0470179915428162e-01" purity="7.9169255495071411e-01" nType="0">
          <Node pos="l" depth="2" NCoef="0" IVar="-1" Cut="0.0000000000000000e+00" cType="1" res="-6.5954066812992096e-03" rms="4.1411596536636353e-01" purity="2.1980728209018707e-01" nType="-99"/>
          <Node pos="r" depth="2" NCoef="0" IVar="-1" Cut="0.0000000000000000e+00" cType="1" res="3.0795792117714882e-03" rms="3.5268589854240417e-01" purity="8.5425752401351929e-01" nType="-99"/>
        </Node>
      </Node>
    </BinaryTree>
    <BinaryTree type="DecisionTree" boostWeight="1.0000000000000000e+00" itree="3">
      <Node pos="s" depth="0" NCoef="0" IVar="17" Cut="1.4830439090728760e+00" cType="1" res="9.4253458082675934e-03" rms="4.8924529552459717e-01" purity="5.0155812501907349e-01" nType="0">
        <Node pos="l" depth="1" NCoef="0" IVar="17" Cut="1.4076453447341919e+00" cType="1" res="-3.7030491232872009e-01" rms="3.0442929267883301e-01" purity="1.0748847573995590e-01" nType="0">
          <Node pos="l" depth="2" NCoef="0" IVar="-1" Cut="0.0000000000000000e+00" cType="1" res="-1.9859952852129936e-02" rms="1.4639556407928467e-01" purity="2.2025596350431442e-02" nType="-99"/>
          <Node pos="r" depth="2" NCoef="0" IVar="-1" Cut="0.0000000000000000e+00" cType="1" res="-1.5219282358884811e-03" rms="4.7805097699165344e-01" purity="3.6593624949455261e-01" nType="-99"/>
        </Node>
        <Node pos="r" depth="1" NCoef="0" IVar="36" Cut="9.8157596588134766e-01" cType="1" res="2.9465401172637939e-01" rms="3.9984357357025146e-01" purity="7.9755759239196777e-01" nType="0">
          <Node pos="l" depth="2" NCoef="0" IVar="-1" Cut="0.0000000000000000e+00" cType="1" res="-9.2239649966359138e-03" rms="3.5567712783813477e-01" purity="1.4854709804058075e-01" nType="-99"/>
          <Node pos="r" depth="2" NCoef="0" IVar="-1" Cut="0.0000000000000000e+00" cType="1" res="3.0826556030660868e-03" rms="3.5475268959999084e-01" purity="8.5202318429946899e-01" nType="-99"/>
        </Node>
      </Node>
    </BinaryTree>
    <BinaryTree type="DecisionTree" boostWeight="1.0000000000000000e+00" itree="4">
      <Node pos="s" depth="0" NCoef="0" IVar="17" Cut="1.4844523668289185e+00" cType="1" res="1.3882546685636044e-02" rms="4.8585426807403564e-01" purity="5.0311952829360962e-01" nType="0">
        <Node pos="l" depth="1" NCoef="0" IVar="17" Cut="1.4090199470520020e+00" cType="1" res="-3.5617178678512573e-01" rms="3.1171715259552002e-01" purity="1.1385601013898849e-01" nType="0">
          <Node pos="l" depth="2" NCoef="0" IVar="-1" Cut="0.0000000000000000e+00" cType="1" res="-1.6733923926949501e-02" rms="2.0354565978050232e-01" purity="4.3634612113237381e-02" nType="-99"/>
          <Node pos="r" depth="2" NCoef="0" IVar="-1" Cut="0.0000000000000000e+00" cType="1" res="-1.8537907162681222e-03" rms="4.6892037987709045e-01" purity="3.3549174666404724e-01" nType="-99"/>
        </Node>
        <Node pos="r" depth="1" NCoef="0" IVar="36" Cut="1.1746133565902710e+00" cType="1" res="2.9450616240501404e-01" rms="3.9847323298454285e-01" purity="7.9831004142761230e-01" nType="0">
          <Node pos="l" depth="2" NCoef="0" IVar="-1" Cut="0.0000000000000000e+00" cType="1" res="-4.6660397201776505e-03" rms="4.3789687752723694e-01" purity="2.5937667489051819e-01" nType="-99"/>
          <Node pos="r" depth="2" NCoef="0" IVar="-1" Cut="0.0000000000000000e+00" cType="1" res="3.1043442431837320e-03" rms="3.4690585732460022e-01" purity="8.5993283987045288e-01" nType="-99"/>
        </Node>
      </Node>
    </BinaryTree>
    <BinaryTree type="DecisionTree" boostWeight="1.0000000000000000e+00" itree="5">
      <Node pos="s" depth="0" NCoef="0" IVar="17" Cut="1.4447457790374756e+00" cType="1" res="1.8237968906760216e-02" rms="4.8250359296798706e-01" purity="5.0578814744949341e-01" nType="0">
        <Node pos="l" depth="1" NCoef="0" IVar="17" Cut="1.4075173139572144e+00" cType="1" res="-4.0984800457954407e-01" rms="2.0917269587516785e-01" purity="4.6868152916431427e-02" nType="0">
          <Node pos="l" depth="2" NCoef="0" IVar="-1" Cut="0.0000000000000000e+00" cType="1" res="-1.8528757616877556e-02" rms="1.4322817325592041e-01" purity="2.1015787497162819e-02" nType="-99"/>
          <Node pos="r" depth="2" NCoef="0" IVar="-1" Cut="0.0000000000000000e+00" cType="1" res="-3.0167817603796721e-03" rms="4.4246169924736023e-01" purity="2.6945173740386963e-01" nType="-99"/>
        </Node>
        <Node pos="r" depth="1" NCoef="0" IVar="36" Cut="1.4070059061050415e+00" cType="1" res="2.4949577450752258e-01" rms="4.2715594172477722e-01" purity="7.5370287895202637e-01" nType="0">
          <Node pos="l" depth="2" NCoef="0" IVar="-1" Cut="0.0000000000000000e+00" cType="1" res="-3.7449989467859268e-03" rms="4.4496446847915649e-01" purity="2.7739173173904419e-01" nType="-99"/>
          <Node pos="r" depth="2" NCoef="0" IVar="-1" Cut="0.0000000000000000e+00" cType="1" res="2.9618076514452696e-03" rms="3.5887414216995239e-01" purity="8.4760665893554688e-01" nType="-99"/>
        </Node>
      </Node>
    </BinaryTree>
    <BinaryTree type="DecisionTree" boostWeight="1.0000000000000000e+00" itree="6">
      <Node pos="s" depth="0" NCoef="0" IVar="17" Cut="1.4828280210494995e+00" cType="1" res="2.3326229304075241e-02" rms="4.7910064458847046e-01" purity="5.0805699825286865e-01" nType="0">
        <Node pos="l" depth="1" NCoef="0" IVar="17" Cut="1.3697650432586670e+00" cType="1" res="-3.4791591763496399e-01" rms="3.0200073122978210e-01" purity="1.0775098949670792e-01" nType="0">
          <Node pos="l" depth="2" NCoef="0" IVar="-1" Cut="0.0000000000000000e+00" cType="1" res="-1.9386641681194305e-02" rms="1.6331678628921509e-01" purity="2.7654606848955154e-02" nType="-99"/>
          <Node pos="r" depth="2" NCoef="0" IVar="-1" Cut="0.0000000000000000e+00" cType="1" res="-2.1619091276079416e-03" rms="4.5697996020317078e-01" purity="3.0702051520347595e-01" nType="-99"/>
        </Node>
        <Node pos="r" depth="1" NCoef="0" IVar="36" Cut="1.3294904232025146e+00" cType="1" res="2.9613128304481506e-01" rms="3.9432376623153687e-01" purity="8.0221939086914062e-01" nType="0">
          <Node pos="l" depth="2" NCoef="0" IVar="-1" Cut="0.0000000000000000e+00" cType="1" res="-4.1063008829951286e-03" rms="4.3948274850845337e-01" purity="2.6519212126731873e-01" nType="-99"/>
          <Node pos="r" depth="2" NCoef="0" IVar="-1" Cut="0.0000000000000000e+00" cType="1" res="3.1444069463759661e-03" rms="3.3224093914031982e-01" purity="8.7356394529342651e-01" nType="-99"/>
        </Node>
      </Node>
    </BinaryTree>
    <BinaryTree type="DecisionTree" boostWeight="1.0000000000000000e+00" itree="7">
      <Node pos="s" depth="0" NCoef="0" IVar="17" Cut="1.4437762498855591e+00" cType="1" res="1.6275895759463310e-02" rms="4.7572621703147888e-01" purity="4.9827858805656433e-01" nType="0">
        <Node pos="l" depth="1" NCoef="0" IVar="5" Cut="2.4204017221927643e-01" cType="1" res="-4.0204405784606934e-01" rms="1.8822564184665680e-01" purity="3.7499491125345230e-02" nType="0">
          <Node pos="l" depth="2" NCoef="0" IVar="-1" Cut="0.0000000000000000e+00" cType="1" res="-8.9355502277612686e-03" rms="3.2148659229278564e-01" purity="1.1992558091878891e-01" nType="-99"/>
          <Node pos="r" depth="2" NCoef="0" IVar="-1" Cut="0.0000000000000000e+00" cType="1" res="-2.0229464396834373e-02" rms="0.0000000000000000e+00" purity="-5.6101256050169468e-03" nType="-99"/>
        </Node>
        <Node pos="r" depth="1" NCoef="0" IVar="36" Cut="9.8157596588134766e-01" cType="1" res="2.5058764219284058e-01" rms="4.2463701963424683e-01" purity="7.5637274980545044e-01" nType="0">
          <Node pos="l" depth="2" NCoef="0" IVar="-1" Cut="0.0000000000000000e+00" cType="1" res="-8.0643249675631523e-03" rms="3.8219544291496277e-01" purity="1.7642830312252045e-01" nType="-99"/>
          <Node pos="r" depth="2" NCoef="0" IVar="-1" Cut="0.0000000000000000e+00" cType="1" res="2.7455184608697891e-03" rms="3.8287764787673950e-01" purity="8.1988382339477539e-01" nType="-99"/>
        </Node>
      </Node>
    </BinaryTree>
    <BinaryTree type="DecisionTree" boostWeight="1.0000000000000000e+00" itree="8">
      <Node pos="s" depth="0" NCoef="0" IVar="17" Cut="1.4844523668289185e+00" cType="1" res="2.6599407196044922e-02" rms="4.7220912575721741e-01" purity="5.0747603178024292e-01" nType="0">
        <Node pos="l" depth="1" NCoef="0" IVar="17" Cut="1.3336069583892822e+00" cType="1" res="-3.3840578794479370e-01" rms="2.9256156086921692e-01" purity="1.0504372417926788e-01" nType="0">
          <Node pos="l" depth="2" NCoef="0" IVar="-1" Cut="0.0000000000000000e+00" cType="1" res="-2.2470666095614433e-02" rms="0.0000000000000000e+00" purity="-6.4542482141405344e-04" nType="-99"/>
          <Node pos="r" depth="2" NCoef="0" IVar="-1" Cut="0.0000000000000000e+00" cType="1" res="-2.2262702696025372e-03" rms="4.5157951116561890e-01" purity="3.0442714691162109e-01" nType="-99"/>
        </Node>
        <Node pos="r" depth="1" NCoef="0" IVar="36" Cut="1.0975474119186401e+00" cType="1" res="2.9448112845420837e-01" rms="3.9277759194374084e-01" purity="8.0282598733901978e-01" nType="0">
          <Node pos="l" depth="2" NCoef="0" IVar="-1" Cut="0.0000000000000000e+00" cType="1" res="-7.7913822606205940e-03" rms="3.7569427490234375e-01" purity="1.7031270265579224e-01" nType="-99"/>
          <Node pos="r" depth="2" NCoef="0" IVar="-1" Cut="0.0000000000000000e+00" cType="1" res="3.0776299536228180e-03" rms="3.4582817554473877e-01" purity="8.6059826612472534e-01" nType="-99"/>
        </Node>
      </Node>
    </BinaryTree>
    <BinaryTree type="DecisionTree" boostWeight="1.0000000000000000e+00" itree="9">
      <Node pos="s" depth="0" NCoef="0" IVar="17" Cut="1.4457910060882568e+00" cType="1" res="1.8674332648515701e-02" rms="4.6873822808265686e-01" purity="4.9586248397827148e-01" nType="0">
        <Node pos="l" depth="1" NCoef="0" IVar="17" Cut="1.2968709468841553e+00" cType="1" res="-3.8602849841117859e-01" rms="1.8382328748703003e-01" purity="3.7051636725664139e-02" nType="0">
          <Node pos="l" depth="2" NCoef="0" IVar="-1" Cut="0.0000000000000000e+00" cType="1" res="-2.2733984515070915e-02" rms="0.0000000000000000e+00" purity="-8.4974354831501842e-04" nType="-99"/>
          <Node pos="r" depth="2" NCoef="0" IVar="-1" Cut="0.0000000000000000e+00" cType="1" res="-4.8571615479886532e-03" rms="3.6519196629524231e-01" purity="1.6201758384704590e-01" nType="-99"/>
        </Node>
        <Node pos="r" depth="1" NCoef="0" IVar="36" Cut="1.2908332347869873e+00" cType="1" res="2.4628448486328125e-01" rms="4.2468932271003723e-01" purity="7.5390362739562988e-01" nType="0">
          <Node pos="l" depth="2" NCoef="0" IVar="-1" Cut="0.0000000000000000e+00" cType="1" res="-4.9997060559689999e-03" rms="4.2395117878913879e-01" purity="2.3684725165367126e-01" nType="-99"/>
          <Node pos="r" depth="2" NCoef="0" IVar="-1" Cut="0.0000000000000000e+00" cType="1" res="2.7753531467169523e-03" rms="3.7356239557266235e-01" purity="8.3125984668731689e-01" nType="-99"/>
        </Node>
      </Node>
    </BinaryTree>
    <BinaryTree type="DecisionTree" boostWeight="1.0000000000000000e+00" itree="10">
      <Node pos="s" depth="0" NCoef="0" IVar="17" Cut="1.4844523668289185e+00" cType="1" res="2.3712500929832458e-02" rms="4.6503916382789612e-01" purity="4.9833226203918457e-01" nType="0">
        <Node pos="l" depth="1" NCoef="0" IVar="17" Cut="1.4467279911041260e+00" cType="1" res="-3.1456899642944336e-01" rms="2.9934662580490112e-01" purity="1.1374900490045547e-01" nType="0">
          <Node pos="l" depth="2" NCoef="0" IVar="-1" Cut="0.0000000000000000e+00" cType="1" res="-1.3293011114001274e-02" rms="2.0001395046710968e-01" purity="4.3958179652690887e-02" nType="-99"/>
          <Node pos="r" depth="2" NCoef="0" IVar="-1" Cut="0.0000000000000000e+00" cType="1" res="-4.5415543718263507e-04" rms="4.9340105056762695e-01" purity="4.5585227012634277e-01" nType="-99"/>
        </Node>
        <Node pos="r" depth="1" NCoef="0" IVar="36" Cut="1.3681474924087524e+00" cType="1" res="2.8547257184982300e-01" rms="3.9648178219795227e-01" purity="7.9592043161392212e-01" nType="0">
          <Node pos="l" depth="2" NCoef="0" IVar="-1" Cut="0.0000000000000000e+00" cType="1" res="-4.5631108805537224e-03" rms="4.2174300551414490e-01" purity="2.3936395347118378e-01" nType="-99"/>
          <Node pos="r" depth="2" NCoef="0" IVar="-1" Cut="0.0000000000000000e+00" cType="1" res="3.1189413275569677e-03" rms="3.3493936061859131e-01" purity="8.7119919061660767e-01" nType="-99"/>
        </Node>
      </Node>
    </BinaryTree>
    <BinaryTree type="DecisionTree" boostWeight="1.0000000000000000e+00" itree="11">
      <Node pos="s" depth="0" NCoef="0" IVar="17" Cut="1.4830439090728760e+00" cType="1" res="2.4107508361339569e-02" rms="4.6227219700813293e-01" purity="4.9703353643417358e-01" nType="0">
        <Node pos="l" depth="1" NCoef="0" IVar="17" Cut="1.4453383684158325e+00" cType="1" res="-3.2291433215141296e-01" rms="2.7978271245956421e-01" purity="9.8860062658786774e-02" nType="0">
          <Node pos="l" depth="2" NCoef="0" IVar="-1" Cut="0.0000000000000000e+00" cType="1" res="-1.4152158051729202e-02" rms="1.7503584921360016e-01" purity="3.3501174300909042e-02" nType="-99"/>
          <Node pos="r" depth="2" NCoef="0" IVar="-1" Cut="0.0000000000000000e+00" cType="1" res="-6.7714822944253683e-04" rms="4.9159806966781616e-01" purity="4.3275874853134155e-01" nType="-99"/>
        </Node>
        <Node pos="r" depth="1" NCoef="0" IVar="36" Cut="1.3296864032745361e+00" cType="1" res="2.8301528096199036e-01" rms="3.9730146527290344e-01" purity="7.9410475492477417e-01" nType="0">
          <Node pos="l" depth="2" NCoef="0" IVar="-1" Cut="0.0000000000000000e+00" cType="1" res="-4.1794115677475929e-03" rms="4.3547454476356506e-01" purity="2.6002225279808044e-01" nType="-99"/>
          <Node pos="r" depth="2" NCoef="0" IVar="-1" Cut="0.0000000000000000e+00" cType="1" res="3.0468655750155449e-03" rms="3.4018376469612122e-01" purity="8.6632114648818970e-01" nType="-99"/>
        </Node>
      </Node>
    </BinaryTree>
    <BinaryTree type="DecisionTree" boostWeight="1.0000000000000000e+00" itree="12">
      <Node pos="s" depth="0" NCoef="0" IVar="17" Cut="1.4457910060882568e+00" cType="1" res="3.2263159751892090e-02" rms="4.6036252379417419e-01" purity="5.0338840484619141e-01" nType="0">
        <Node pos="l" depth="1" NCoef="0" IVar="17" Cut="1.3340944051742554e+00" cType="1" res="-3.5054740309715271e-01" rms="2.1267528831958771e-01" purity="5.0352118909358978e-02" nType="0">
          <Node pos="l" depth="2" NCoef="0" IVar="-1" Cut="0.0000000000000000e+00" cType="1" res="-1.8737288191914558e-02" rms="1.3119019567966461e-01" purity="1.7685335129499435e-02" nType="-99"/>
          <Node pos="r" depth="2" NCoef="0" IVar="-1" Cut="0.0000000000000000e+00" cType="1" res="-4.1171130724251270e-03" rms="3.8208290934562683e-01" purity="1.8293423950672150e-01" nType="-99"/>
        </Node>
        <Node pos="r" depth="1" NCoef="0" IVar="36" Cut="1.3287323713302612e+00" cType="1" res="2.4631239473819733e-01" rms="4.2117515206336975e-01" purity="7.5670444965362549e-01" nType="0">
          <Node pos="l" depth="2" NCoef="0" IVar="-1" Cut="0.0000000000000000e+00" cType="1" res="-4.7326046042144299e-03" rms="4.1965141892433167e-01" purity="2.3046132922172546e-01" nType="-99"/>
          <Node pos="r" depth="2" NCoef="0" IVar="-1" Cut="0.0000000000000000e+00" cType="1" res="2.8200859669595957e-03" rms="3.6732083559036255e-01" purity="8.3796501159667969e-01" nType="-99"/>
        </Node>
      </Node>
    </BinaryTree>
    <BinaryTree type="DecisionTree" boostWeight="1.0000000000000000e+00" itree="13">
      <Node pos="s" depth="0" NCoef="0" IVar="17" Cut="1.4844523668289185e+00" cType="1" res="2.9444603249430656e-02" rms="4.5886084437370300e-01" purity="4.9664303660392761e-01" nType="0">
        <Node pos="l" depth="1" NCoef="0" IVar="17" Cut="1.3336204290390015e+00" cType="1" res="-2.7467480301856995e-01" rms="3.2420027256011963e-01" purity="1.3655312359333038e-01" nType="0">
          <Node pos="l" depth="2" NCoef="0" IVar="-1" Cut="0.0000000000000000e+00" cType="1" res="-1.7683489248156548e-02" rms="1.4602763950824738e-01" purity="2.1944459527730942e-02" nType="-99"/>
          <Node pos="r" depth="2" NCoef="0" IVar="-1" Cut="0.0000000000000000e+00" cType="1" res="-1.4447668800130486e-03" rms="4.6982252597808838e-01" purity="3.5165289044380188e-01" nType="-99"/>
        </Node>
        <Node pos="r" depth="1" NCoef="0" IVar="36" Cut="9.4283252954483032e-01" cType="1" res="2.7629414200782776e-01" rms="4.0017130970954895e-01" purity="7.8892308473587036e-01" nType="0">
          <Node pos="l" depth="2" NCoef="0" IVar="-1" Cut="0.0000000000000000e+00" cType="1" res="-7.5049013830721378e-03" rms="3.8093429803848267e-01" purity="1.7613421380519867e-01" nType="-99"/>
          <Node pos="r" depth="2" NCoef="0" IVar="-1" Cut="0.0000000000000000e+00" cType="1" res="2.8714681975543499e-03" rms="3.5834467411041260e-01" purity="8.4757810831069946e-01" nType="-99"/>
        </Node>
      </Node>
    </BinaryTree>
    <BinaryTree type="DecisionTree" boostWeight="1.0000000000000000e+00" itree="14">
      <Node pos="s" depth="0" NCoef="0" IVar="17" Cut="1.4833937883377075e+00" cType="1" res="2.7288997545838356e-02" rms="4.5354002714157104e-01" purity="4.9428084492683411e-01" nType="0">
        <Node pos="l" depth="1" NCoef="0" IVar="17" Cut="1.4456974267959595e+00" cType="1" res="-3.1208544969558716e-01" rms="2.6733049750328064e-01" purity="9.1042354702949524e-02" nType="0">
          <Node pos="l" depth="2" NCoef="0" IVar="-1" Cut="0.0000000000000000e+00" cType="1" res="-1.3642925769090652e-02" rms="1.7385648190975189e-01" purity="3.3173814415931702e-02" nType="-99"/>
          <Node pos="r" depth="2" NCoef="0" IVar="-1" Cut="0.0000000000000000e+00" cType="1" res="-1.0054330341517925e-03" rms="4.8564726114273071e-01" purity="3.9947000145912170e-01" nType="-99"/>
        </Node>
        <Node pos="r" depth="1" NCoef="0" IVar="36" Cut="9.8174846172332764e-01" cType="1" res="2.8068399429321289e-01" rms="3.9461272954940796e-01" purity="7.9536008834838867e-01" nType="0">
          <Node pos="l" depth="2" NCoef="0" IVar="-1" Cut="0.0000000000000000e+00" cType="1" res="-1.1876707896590233e-02" rms="2.5524321198463440e-01" purity="6.9927200675010681e-02" nType="-99"/>
          <Node pos="r" depth="2" NCoef="0" IVar="-1" Cut="0.0000000000000000e+00" cType="1" res="2.9117108788341284e-03" rms="3.5234281420707703e-01" purity="8.5358405113220215e-01" nType="-99"/>
        </Node>
      </Node>
    </BinaryTree>
    <BinaryTree type="DecisionTree" boostWeight="1.0000000000000000e+00" itree="15">
      <Node pos="s" depth="0" NCoef="0" IVar="17" Cut="1.4828280210494995e+00" cType="1" res="2.3524403572082520e-02" rms="4.5151150226593018e-01" purity="4.8793691396713257e-01" nType="0">
        <Node pos="l" depth="1" NCoef="0" IVar="17" Cut="1.4451383352279663e+00" cType="1" res="-3.0477476119995117e-01" rms="2.6923963427543640e-01" purity="9.3131862580776215e-02" nType="0">
          <Node pos="l" depth="2" NCoef="0" IVar="-1" Cut="0.0000000000000000e+00" cType="1" res="-1.3066190294921398e-02" rms="1.7584271728992462e-01" purity="3.3864781260490417e-02" nType="-99"/>
          <Node pos="r" depth="2" NCoef="0" IVar="-1" Cut="0.0000000000000000e+00" cType="1" res="-1.0445587104186416e-03" rms="4.8530709743499756e-01" purity="4.0070867538452148e-01" nType="-99"/>
        </Node>
        <Node pos="r" depth="1" NCoef="0" IVar="36" Cut="1.4070059061050415e+00" cType="1" res="2.7252399921417236e-01" rms="3.9969429373741150e-01" purity="7.8737813234329224e-01" nType="0">
          <Node pos="l" depth="2" NCoef="0" IVar="-1" Cut="0.0000000000000000e+00" cType="1" res="-2.5839977897703648e-03" rms="4.5524755120277405e-01" purity="3.1112593412399292e-01" nType="-99"/>
          <Node pos="r" depth="2" NCoef="0" IVar="-1" Cut="0.0000000000000000e+00" cType="1" res="2.9585245065391064e-03" rms="3.3727318048477173e-01" purity="8.6909198760986328e-01" nType="-99"/>
        </Node>
      </Node>
    </BinaryTree>
    <BinaryTree type="DecisionTree" boostWeight="1.0000000000000000e+00" itree="16">
      <Node pos="s" depth="0" NCoef="0" IVar="17" Cut="1.4844523668289185e+00" cType="1" res="4.1516080498695374e-02" rms="4.4957903027534485e-01" purity="5.0556242465972900e-01" nType="0">
        <Node pos="l" depth="1" NCoef="0" IVar="17" Cut="1.4090127944946289e+00" cType="1" res="-2.7470323443412781e-01" rms="3.0111965537071228e-01" purity="1.2081338465213776e-01" nType="0">
          <Node pos="l" depth="2" NCoef="0" IVar="-1" Cut="0.0000000000000000e+00" cType="1" res="-1.5047045424580574e-02" rms="1.5662595629692078e-01" purity="2.6628475636243820e-02" nType="-99"/>
          <Node pos="r" depth="2" NCoef="0" IVar="-1" Cut="0.0000000000000000e+00" cType="1" res="-1.0143878171220422e-03" rms="4.8054486513137817e-01" purity="3.9041349291801453e-01" nType="-99"/>
        </Node>
        <Node pos="r" depth="1" NCoef="0" IVar="36" Cut="1.4073475599288940e+00" cType="1" res="2.8284832835197449e-01" rms="3.9066761732101440e-01" purity="7.9919517040252686e-01" nType="0">
          <Node pos="l" depth="2" NCoef="0" IVar="-1" Cut="0.0000000000000000e+00" cType="1" res="-2.2184036206454039e-03" rms="4.6067717671394348e-01" purity="3.3004102110862732e-01" nType="-99"/>
          <Node pos="r" depth="2" NCoef="0" IVar="-1" Cut="0.0000000000000000e+00" cType="1" res="3.0739125795662403e-03" rms="3.2888188958168030e-01" purity="8.7661212682723999e-01" nType="-99"/>
        </Node>
      </Node>
    </BinaryTree>
    <BinaryTree type="DecisionTree" boostWeight="1.0000000000000000e+00" itree="17">
      <Node pos="s" depth="0" NCoef="0" IVar="17" Cut="1.4830439090728760e+00" cType="1" res="4.0323674678802490e-02" rms="4.4529440999031067e-01" purity="5.0440931320190430e-01" nType="0">
        <Node pos="l" depth="1" NCoef="0" IVar="17" Cut="1.4453527927398682e+00" cType="1" res="-3.0254784226417542e-01" rms="2.5315907597541809e-01" purity="8.5265666246414185e-02" nType="0">
          <Node pos="l" depth="2" NCoef="0" IVar="-1" Cut="0.0000000000000000e+00" cType="1" res="-1.3519424013793468e-02" rms="1.3592284917831421e-01" purity="2.0875632762908936e-02" nType="-99"/>
          <Node pos="r" depth="2" NCoef="0" IVar="-1" Cut="0.0000000000000000e+00" cType="1" res="-8.7034062016755342e-04" rms="4.8805058002471924e-01" purity="4.1454458236694336e-01" nType="-99"/>
        </Node>
        <Node pos="r" depth="1" NCoef="0" IVar="36" Cut="1.2913550138473511e+00" cType="1" res="2.8200468420982361e-01" rms="3.8936379551887512e-01" purity="7.9985255002975464e-01" nType="0">
          <Node pos="l" depth="2" NCoef="0" IVar="-1" Cut="0.0000000000000000e+00" cType="1" res="-6.2542702071368694e-03" rms="3.7620157003402710e-01" purity="1.7658281326293945e-01" nType="-99"/>
          <Node pos="r" depth="2" NCoef="0" IVar="-1" Cut="0.0000000000000000e+00" cType="1" res="3.0041106510907412e-03" rms="3.3657258749008179e-01" purity="8.6940467357635498e-01" nType="-99"/>
        </Node>
      </Node>
    </BinaryTree>
    <BinaryTree type="DecisionTree" boostWeight="1.0000000000000000e+00" itree="18">
      <Node pos="s" depth="0" NCoef="0" IVar="17" Cut="1.4828280210494995e+00" cType="1" res="3.6042690277099609e-02" rms="4.4408282637596130e-01" purity="4.9618494510650635e-01" nType="0">
        <Node pos="l" depth="1" NCoef="0" IVar="17" Cut="1.4074229001998901e+00" cType="1" res="-2.8251034021377563e-01" rms="2.7335205674171448e-01" purity="1.0042397677898407e-01" nType="0">
          <Node pos="l" depth="2" NCoef="0" IVar="-1" Cut="0.0000000000000000e+00" cType="1" res="-1.6659954562783241e-02" rms="1.0924649983644485e-01" purity="1.2865510769188404e-02" nType="-99"/>
          <Node pos="r" depth="2" NCoef="0" IVar="-1" Cut="0.0000000000000000e+00" cType="1" res="-1.2720627710223198e-03" rms="4.7264423966407776e-01" purity="3.6793294548988342e-01" nType="-99"/>
        </Node>
        <Node pos="r" depth="1" NCoef="0" IVar="36" Cut="1.4070059061050415e+00" cType="1" res="2.7538707852363586e-01" rms="3.9460268616676331e-01" purity="7.9353934526443481e-01" nType="0">
          <Node pos="l" depth="2" NCoef="0" IVar="-1" Cut="0.0000000000000000e+00" cType="1" res="-1.9481355557218194e-03" rms="4.6836256980895996e-01" purity="3.4589168429374695e-01" nType="-99"/>
          <Node pos="r" depth="2" NCoef="0" IVar="-1" Cut="0.0000000000000000e+00" cType="1" res="2.9602306894958019e-03" rms="3.3870527148246765e-01" purity="8.6778920888900757e-01" nType="-99"/>
        </Node>
      </Node>
    </BinaryTree>
    <BinaryTree type="DecisionTree" boostWeight="1.0000000000000000e+00" itree="19">
      <Node pos="s" depth="0" NCoef="0" IVar="17" Cut="1.4830439090728760e+00" cType="1" res="4.1478868573904037e-02" rms="4.4134336709976196e-01" purity="4.9976187944412231e-01" nType="0">
        <Node pos="l" depth="1" NCoef="0" IVar="17" Cut="1.3699740171432495e+00" cType="1" res="-2.7736389636993408e-01" rms="2.7383339405059814e-01" purity="9.8916552960872650e-02" nType="0">
          <Node pos="l" depth="2" NCoef="0" IVar="-1" Cut="0.0000000000000000e+00" cType="1" res="-1.8323039636015892e-02" rms="9.0649306774139404e-02" purity="8.4391897544264793e-03" nType="-99"/>
          <Node pos="r" depth="2" NCoef="0" IVar="-1" Cut="0.0000000000000000e+00" cType="1" res="-1.8127189250662923e-03" rms="4.5588582754135132e-01" purity="3.1717035174369812e-01" nType="-99"/>
        </Node>
        <Node pos="r" depth="1" NCoef="0" IVar="36" Cut="1.1366981267929077e+00" cType="1" res="2.8017634153366089e-01" rms="3.8908436894416809e-01" purity="7.9984956979751587e-01" nType="0">
          <Node pos="l" depth="2" NCoef="0" IVar="-1" Cut="0.0000000000000000e+00" cType="1" res="-6.6484329290688038e-03" rms="3.8840043544769287e-01" purity="1.8755841255187988e-01" nType="-99"/>
          <Node pos="r" depth="2" NCoef="0" IVar="-1" Cut="0.0000000000000000e+00" cType="1" res="2.9145502485334873e-03" rms="3.4755733609199524e-01" purity="8.5817193984985352e-01" nType="-99"/>
        </Node>
      </Node>
    </BinaryTree>
    <BinaryTree type="DecisionTree" boostWeight="1.0000000000000000e+00" itree="20">
      <Node pos="s" depth="0" NCoef="0" IVar="17" Cut="1.4844523668289185e+00" cType="1" res="4.4100787490606308e-02" rms="4.3856546282768250e-01" purity="5.0054645538330078e-01" nType="0">
        <Node pos="l" depth="1" NCoef="0" IVar="17" Cut="1.3713134527206421e+00" cType="1" res="-2.6741254329681396e-01" rms="2.7825778722763062e-01" purity="1.0465558618307114e-01" nType="0">
          <Node pos="l" depth="2" NCoef="0" IVar="-1" Cut="0.0000000000000000e+00" cType="1" res="-1.8125383183360100e-02" rms="7.5142636895179749e-02" purity="5.5567286908626556e-03" nType="-99"/>
          <Node pos="r" depth="2" NCoef="0" IVar="-1" Cut="0.0000000000000000e+00" cType="1" res="-1.5589513350278139e-03" rms="4.6036288142204285e-01" purity="3.3183768391609192e-01" nType="-99"/>
        </Node>
        <Node pos="r" depth="1" NCoef="0" IVar="36" Cut="1.2908332347869873e+00" cType="1" res="2.8117153048515320e-01" rms="3.8695996999740601e-01" purity="8.0183094739913940e-01" nType="0">
          <Node pos="l" depth="2" NCoef="0" IVar="-1" Cut="0.0000000000000000e+00" cType="1" res="-4.0513179264962673e-03" rms="4.2817676067352295e-01" purity="2.4600072205066681e-01" nType="-99"/>
          <Node pos="r" depth="2" NCoef="0" IVar="-1" Cut="0.0000000000000000e+00" cType="1" res="2.9385492671281099e-03" rms="3.3874395489692688e-01" purity="8.6733889579772949e-01" nType="-99"/>
        </Node>
      </Node>
    </BinaryTree>
    <BinaryTree type="DecisionTree" boostWeight="1.0000000000000000e+00" itree="21">
      <Node pos="s" depth="0" NCoef="0" IVar="17" Cut="1.4844523668289185e+00" cType="1" res="4.8424098640680313e-02" rms="4.3673369288444519e-01" purity="5.0221759080886841e-01" nType="0">
        <Node pos="l" depth="1" NCoef="0" IVar="17" Cut="1.4090337753295898e+00" cType="1" res="-2.4228000640869141e-01" rms="3.0085662007331848e-01" purity="1.2486751377582550e-01" nType="0">
          <Node pos="l" depth="2" NCoef="0" IVar="-1" Cut="0.0000000000000000e+00" cType="1" res="-1.3898446224629879e-02" rms="1.6409955918788910e-01" purity="2.8556346893310547e-02" nType="-99"/>
          <Node pos="r" depth="2" NCoef="0" IVar="-1" Cut="0.0000000000000000e+00" cType="1" res="-7.5999670661985874e-04" rms="4.8232764005661011e-01" purity="4.0363591909408569e-01" nType="-99"/>
        </Node>
        <Node pos="r" depth="1" NCoef="0" IVar="36" Cut="1.3292280435562134e+00" cType="1" res="2.7570626139640808e-01" rms="3.8905513286590576e-01" purity="7.9724252223968506e-01" nType="0">
          <Node pos="l" depth="2" NCoef="0" IVar="-1" Cut="0.0000000000000000e+00" cType="1" res="-4.1795498691499233e-03" rms="4.2042326927185059e-01" purity="2.3922222852706909e-01" nType="-99"/>
          <Node pos="r" depth="2" NCoef="0" IVar="-1" Cut="0.0000000000000000e+00" cType="1" res="2.9520152602344751e-03" rms="3.3490628004074097e-01" purity="8.7106424570083618e-01" nType="-99"/>
        </Node>
      </Node>
    </BinaryTree>
    <BinaryTree type="DecisionTree" boostWeight="1.0000000000000000e+00" itree="22">
      <Node pos="s" depth="0" NCoef="0" IVar="17" Cut="1.4844523668289185e+00" cType="1" res="3.8247391581535339e-02" rms="4.3554711341857910e-01" purity="4.8896098136901855e-01" nType="0">
        <Node pos="l" depth="1" NCoef="0" IVar="17" Cut="1.3336204290390015e+00" cType="1" res="-2.3937606811523438e-01" rms="2.9859817028045654e-01" purity="1.2254675477743149e-01" nType="0">
          <Node pos="l" depth="2" NCoef="0" IVar="-1" Cut="0.0000000000000000e+00" cType="1" res="-1.7554981634020805e-02" rms="1.1631268262863159e-01" purity="1.3727675192058086e-02" nType="-99"/>
          <Node pos="r" depth="2" NCoef="0" IVar="-1" Cut="0.0000000000000000e+00" cType="1" res="-1.4215039554983377e-03" rms="4.5739316940307617e-01" purity="3.3213546872138977e-01" nType="-99"/>
        </Node>
        <Node pos="r" depth="1" NCoef="0" IVar="36" Cut="1.0975474119186401e+00" cType="1" res="2.6186501979827881e-01" rms="3.9824280142784119e-01" purity="7.8409707546234131e-01" nType="0">
          <Node pos="l" depth="2" NCoef="0" IVar="-1" Cut="0.0000000000000000e+00" cType="1" res="-7.3632583953440189e-03" rms="3.6215937137603760e-01" purity="1.5667569637298584e-01" nType="-99"/>
          <Node pos="r" depth="2" NCoef="0" IVar="-1" Cut="0.0000000000000000e+00" cType="1" res="2.7959665749222040e-03" rms="3.5870754718780518e-01" purity="8.4668743610382080e-01" nType="-99"/>
        </Node>
      </Node>
    </BinaryTree>
    <BinaryTree type="DecisionTree" boostWeight="1.0000000000000000e+00" itree="23">
      <Node pos="s" depth="0" NCoef="0" IVar="17" Cut="1.4833937883377075e+00" cType="1" res="5.0592996180057526e-02" rms="4.3170955777168274e-01" purity="5.0169587135314941e-01" nType="0">
        <Node pos="l" depth="1" NCoef="0" IVar="17" Cut="1.4456958770751953e+00" cType="1" res="-2.5125166773796082e-01" rms="2.7579724788665771e-01" purity="1.0446194559335709e-01" nType="0">
          <Node pos="l" depth="2" NCoef="0" IVar="-1" Cut="0.0000000000000000e+00" cType="1" res="-1.1698110960423946e-02" rms="1.8057650327682495e-01" purity="3.6702513694763184e-02" nType="-99"/>
          <Node pos="r" depth="2" NCoef="0" IVar="-1" Cut="0.0000000000000000e+00" cType="1" res="-6.2771805096417665e-04" rms="4.9156612157821655e-01" purity="4.3375512957572937e-01" nType="-99"/>
        </Node>
        <Node pos="r" depth="1" NCoef="0" IVar="36" Cut="1.3683462142944336e+00" cType="1" res="2.7720233798027039e-01" rms="3.8656800985336304e-01" purity="7.9991847276687622e-01" nType="0">
          <Node pos="l" depth="2" NCoef="0" IVar="-1" Cut="0.0000000000000000e+00" cType="1" res="-2.1502438466995955e-03" rms="4.6135872602462769e-01" purity="3.2298329472541809e-01" nType="-99"/>
          <Node pos="r" depth="2" NCoef="0" IVar="-1" Cut="0.0000000000000000e+00" cType="1" res="2.9632204677909613e-03" rms="3.3139902353286743e-01" purity="8.7422198057174683e-01" nType="-99"/>
        </Node>
      </Node>
    </BinaryTree>
    <BinaryTree type="DecisionTree" boostWeight="1.0000000000000000e+00" itree="24">
      <Node pos="s" depth="0" NCoef="0" IVar="17" Cut="1.4844523668289185e+00" cType="1" res="5.8030668646097183e-02" rms="4.2942413687705994e-01" purity="5.0903552770614624e-01" nType="0">
        <Node pos="l" depth="1" NCoef="0" IVar="36" Cut="1.3285809755325317e+00" cType="1" res="-2.4372790753841400e-01" rms="2.8143423795700073e-01" purity="1.0804981738328934e-01" nType="0">
          <Node pos="l" depth="2" NCoef="0" IVar="-1" Cut="0.0000000000000000e+00" cType="1" res="-1.7419064417481422e-02" rms="0.0000000000000000e+00" purity="-6.1210659332573414e-03" nType="-99"/>
          <Node pos="r" depth="2" NCoef="0" IVar="-1" Cut="0.0000000000000000e+00" cType="1" res="-3.8676047697663307e-03" rms="3.5021916031837463e-01" purity="1.8156501650810242e-01" nType="-99"/>
        </Node>
        <Node pos="r" depth="1" NCoef="0" IVar="36" Cut="1.2913550138473511e+00" cType="1" res="2.8243070840835571e-01" rms="3.8021835684776306e-01" purity="8.0722498893737793e-01" nType="0">
          <Node pos="l" depth="2" NCoef="0" IVar="-1" Cut="0.0000000000000000e+00" cType="1" res="-4.2341076768934727e-03" rms="4.2208263278007507e-01" purity="2.3675529658794403e-01" nType="-99"/>
          <Node pos="r" depth="2" NCoef="0" IVar="-1" Cut="0.0000000000000000e+00" cType="1" res="2.9710573144257069e-03" rms="3.2952389121055603e-01" purity="8.7557983398437500e-01" nType="-99"/>
        </Node>
      </Node>
    </BinaryTree>
    <BinaryTree type="DecisionTree" boostWeight="1.0000000000000000e+00" itree="25">
      <Node pos="s" depth="0" NCoef="0" IVar="17" Cut="1.4833937883377075e+00" cType="1" res="4.9297563731670380e-02" rms="4.2953139543533325e-01" purity="4.9638000130653381e-01" nType="0">
        <Node pos="l" depth="1" NCoef="0" IVar="17" Cut="1.2572289705276489e+00" cType="1" res="-2.2775544226169586e-01" rms="2.9623621702194214e-01" purity="1.1934034526348114e-01" nType="0">
          <Node pos="l" depth="2" NCoef="0" IVar="-1" Cut="0.0000000000000000e+00" cType="1" res="-1.7995843663811684e-02" rms="9.3361638486385345e-02" purity="9.0420087799429893e-03" nType="-99"/>
          <Node pos="r" depth="2" NCoef="0" IVar="-1" Cut="0.0000000000000000e+00" cType="1" res="-1.7105139559134841e-03" rms="4.4344332814216614e-01" purity="2.9760661721229553e-01" nType="-99"/>
        </Node>
        <Node pos="r" depth="1" NCoef="0" IVar="36" Cut="1.2905743122100830e+00" cType="1" res="2.6781547069549561e-01" rms="3.9052292704582214e-01" purity="7.9375958442687988e-01" nType="0">
          <Node pos="l" depth="2" NCoef="0" IVar="-1" Cut="0.0000000000000000e+00" cType="1" res="-4.3087610974907875e-03" rms="4.1885593533515930e-01" purity="2.3367428779602051e-01" nType="-99"/>
          <Node pos="r" depth="2" NCoef="0" IVar="-1" Cut="0.0000000000000000e+00" cType="1" res="2.8308262117207050e-03" rms="3.4592348337173462e-01" purity="8.6051827669143677e-01" nType="-99"/>
        </Node>
      </Node>
    </BinaryTree>
    <BinaryTree type="DecisionTree" boostWeight="1.0000000000000000e+00" itree="26">
      <Node pos="s" depth="0" NCoef="0" IVar="17" Cut="1.4833937883377075e+00" cType="1" res="5.4762270301580429e-02" rms="4.2608910799026489e-01" purity="5.0450444221496582e-01" nType="0">
        <Node pos="l" depth="1" NCoef="0" IVar="17" Cut="1.4456958770751953e+00" cType="1" res="-2.3919397592544556e-01" rms="2.7157878875732422e-01" purity="1.0425317287445068e-01" nType="0">
          <Node pos="l" depth="2" NCoef="0" IVar="-1" Cut="0.0000000000000000e+00" cType="1" res="-1.1351631022989750e-02" rms="1.7508302628993988e-01" purity="3.6026515066623688e-02" nType="-99"/>
          <Node pos="r" depth="2" NCoef="0" IVar="-1" Cut="0.0000000000000000e+00" cType="1" res="-5.8177247410640121e-04" rms="4.8969620466232300e-01" purity="4.3245342373847961e-01" nType="-99"/>
        </Node>
        <Node pos="r" depth="1" NCoef="0" IVar="36" Cut="1.4070059061050415e+00" cType="1" res="2.6830503344535828e-01" rms="3.8921409845352173e-01" purity="7.9526460170745850e-01" nType="0">
          <Node pos="l" depth="2" NCoef="0" IVar="-1" Cut="0.0000000000000000e+00" cType="1" res="-2.0142002031207085e-03" rms="4.6005776524543762e-01" purity="3.3577084541320801e-01" nType="-99"/>
          <Node pos="r" depth="2" NCoef="0" IVar="-1" Cut="0.0000000000000000e+00" cType="1" res="2.9353140853345394e-03" rms="3.3397951722145081e-01" purity="8.7204658985137939e-01" nType="-99"/>
        </Node>
      </Node>
    </BinaryTree>
    <BinaryTree type="DecisionTree" boostWeight="1.0000000000000000e+00" itree="27">
      <Node pos="s" depth="0" NCoef="0" IVar="17" Cut="1.4844523668289185e+00" cType="1" res="5.6639723479747772e-02" rms="4.2331904172897339e-01" purity="5.0455880165100098e-01" nType="0">
        <Node pos="l" depth="1" NCoef="0" IVar="17" Cut="1.4467221498489380e+00" cType="1" res="-2.2346872091293335e-01" rms="2.8377714753150940e-01" purity="1.1812184005975723e-01" nType="0">
          <Node pos="l" depth="2" NCoef="0" IVar="-1" Cut="0.0000000000000000e+00" cType="1" res="-1.0941147804260254e-02" rms="1.8074382841587067e-01" purity="3.8848191499710083e-02" nType="-99"/>
          <Node pos="r" depth="2" NCoef="0" IVar="-1" Cut="0.0000000000000000e+00" cType="1" res="-5.6298325944226235e-05" rms="4.9252960085868835e-01" purity="4.8257628083229065e-01" nType="-99"/>
        </Node>
        <Node pos="r" depth="1" NCoef="0" IVar="36" Cut="1.2913550138473511e+00" cType="1" res="2.6927939057350159e-01" rms="3.8642534613609314e-01" purity="7.9791605472564697e-01" nType="0">
          <Node pos="l" depth="2" NCoef="0" IVar="-1" Cut="0.0000000000000000e+00" cType="1" res="-5.3925369866192341e-03" rms="3.9303785562515259e-01" purity="1.9723130762577057e-01" nType="-99"/>
          <Node pos="r" depth="2" NCoef="0" IVar="-1" Cut="0.0000000000000000e+00" cType="1" res="2.8688330203294754e-03" rms="3.4175884723663330e-01" purity="8.6446321010589600e-01" nType="-99"/>
        </Node>
      </Node>
    </BinaryTree>
    <BinaryTree type="DecisionTree" boostWeight="1.0000000000000000e+00" itree="28">
      <Node pos="s" depth="0" NCoef="0" IVar="17" Cut="1.4830439090728760e+00" cType="1" res="5.1361571997404099e-02" rms="4.2120483517646790e-01" purity="4.9600937962532043e-01" nType="0">
        <Node pos="l" depth="1" NCoef="0" IVar="17" Cut="1.4076544046401978e+00" cType="1" res="-2.3332417011260986e-01" rms="2.6591363549232483e-01" purity="1.0001979023218155e-01" nType="0">
          <Node pos="l" depth="2" NCoef="0" IVar="-1" Cut="0.0000000000000000e+00" cType="1" res="-1.4564371667802334e-02" rms="1.0252236574888229e-01" purity="1.1903581209480762e-02" nType="-99"/>
          <Node pos="r" depth="2" NCoef="0" IVar="-1" Cut="0.0000000000000000e+00" cType="1" res="-1.0740256402641535e-03" rms="4.7380045056343079e-01" purity="3.6677476763725281e-01" nType="-99"/>
        </Node>
        <Node pos="r" depth="1" NCoef="0" IVar="36" Cut="1.4456657171249390e+00" cType="1" res="2.6615703105926514e-01" rms="3.8811722397804260e-01" purity="7.9478359222412109e-01" nType="0">
          <Node pos="l" depth="2" NCoef="0" IVar="-1" Cut="0.0000000000000000e+00" cType="1" res="-1.5742284012958407e-03" rms="4.6450033783912659e-01" purity="3.6030432581901550e-01" nType="-99"/>
          <Node pos="r" depth="2" NCoef="0" IVar="-1" Cut="0.0000000000000000e+00" cType="1" res="2.9619438573718071e-03" rms="3.2214468717575073e-01" purity="8.8234966993331909e-01" nType="-99"/>
        </Node>
      </Node>
    </BinaryTree>
    <BinaryTree type="DecisionTree" boostWeight="1.0000000000000000e+00" itree="29">
      <Node pos="s" depth="0" NCoef="0" IVar="17" Cut="1.4844523668289185e+00" cType="1" res="5.4608613252639771e-02" rms="4.2000275850296021e-01" purity="4.9837744235992432e-01" nType="0">
        <Node pos="l" depth="1" NCoef="0" IVar="2" Cut="2.5452866554260254e+00" cType="1" res="-2.2598476707935333e-01" rms="2.7304098010063171e-01" purity="1.0332750529050827e-01" nType="0">
          <Node pos="l" depth="2" NCoef="0" IVar="-1" Cut="0.0000000000000000e+00" cType="1" res="-1.0457484982907772e-02" rms="1.6318745911121368e-01" purity="3.3502757549285889e-02" nType="-99"/>
          <Node pos="r" depth="2" NCoef="0" IVar="-1" Cut="0.0000000000000000e+00" cType="1" res="-2.4891807697713375e-03" rms="3.7304031848907471e-01" purity="2.2243548929691315e-01" nType="-99"/>
        </Node>
        <Node pos="r" depth="1" NCoef="0" IVar="36" Cut="9.4308871030807495e-01" cType="1" res="2.6670485734939575e-01" rms="3.8586562871932983e-01" purity="7.9698967933654785e-01" nType="0">
          <Node pos="l" depth="2" NCoef="0" IVar="-1" Cut="0.0000000000000000e+00" cType="1" res="-9.6154576167464256e-03" rms="3.1441357731819153e-01" purity="1.1122743040323257e-01" nType="-99"/>
          <Node pos="r" depth="2" NCoef="0" IVar="-1" Cut="0.0000000000000000e+00" cType="1" res="2.7855266816914082e-03" rms="3.5011386871337891e-01" purity="8.5415661334991455e-01" nType="-99"/>
        </Node>
      </Node>
    </BinaryTree>
    <BinaryTree type="DecisionTree" boostWeight="1.0000000000000000e+00" itree="30">
      <Node pos="s" depth="0" NCoef="0" IVar="17" Cut="1.4833937883377075e+00" cType="1" res="5.7631719857454300e-02" rms="4.1648617386817932e-01" purity="5.0173527002334595e-01" nType="0">
        <Node pos="l" depth="1" NCoef="0" IVar="17" Cut="1.4456974267959595e+00" cType="1" res="-2.3937551677227020e-01" rms="2.4664312601089478e-01" purity="8.4344796836376190e-02" nType="0">
          <Node pos="l" depth="2" NCoef="0" IVar="-1" Cut="0.0000000000000000e+00" cType="1" res="-1.1857818812131882e-02" rms="1.5009690821170807e-01" purity="2.4591559544205666e-02" nType="-99"/>
          <Node pos="r" depth="2" NCoef="0" IVar="-1" Cut="0.0000000000000000e+00" cType="1" res="-8.4321555914357305e-04" rms="4.8433196544647217e-01" purity="4.0327209234237671e-01" nType="-99"/>
        </Node>
        <Node pos="r" depth="1" NCoef="0" IVar="36" Cut="9.0471291542053223e-01" cType="1" res="2.7117770910263062e-01" rms="3.8133022189140320e-01" purity="8.0183595418930054e-01" nType="0">
          <Node pos="l" depth="2" NCoef="0" IVar="-1" Cut="0.0000000000000000e+00" cType="1" res="-8.9286137372255325e-03" rms="3.3667269349098206e-01" purity="1.3023163378238678e-01" nType="-99"/>
          <Node pos="r" depth="2" NCoef="0" IVar="-1" Cut="0.0000000000000000e+00" cType="1" res="2.8161243535578251e-03" rms="3.4439361095428467e-01" purity="8.5973560810089111e-01" nType="-99"/>
        </Node>
      </Node>
    </BinaryTree>
    <BinaryTree type="DecisionTree" boostWeight="1.0000000000000000e+00" itree="31">
      <Node pos="s" depth="0" NCoef="0" IVar="17" Cut="1.4844523668289185e+00" cType="1" res="6.5559186041355133e-02" rms="4.1750133037567139e-01" purity="5.0795322656631470e-01" nType="0">
        <Node pos="l" depth="1" NCoef="0" IVar="17" Cut="1.4467405080795288e+00" cType="1" res="-2.1451424062252045e-01" rms="2.7784237265586853e-01" purity="1.0703172534704208e-01" nType="0">
          <Node pos="l" depth="2" NCoef="0" IVar="-1" Cut="0.0000000000000000e+00" cType="1" res="-1.0475111193954945e-02" rms="2.0331349968910217e-01" purity="4.7184243798255920e-02" nType="-99"/>
          <Node pos="r" depth="2" NCoef="0" IVar="-1" Cut="0.0000000000000000e+00" cType="1" res="-6.8972905864939094e-04" rms="4.8636755347251892e-01" purity="4.1798251867294312e-01" nType="-99"/>
        </Node>
        <Node pos="r" depth="1" NCoef="0" IVar="36" Cut="1.2140265703201294e+00" cType="1" res="2.7170294523239136e-01" rms="3.8151511549949646e-01" purity="8.0304539203643799e-01" nType="0">
          <Node pos="l" depth="2" NCoef="0" IVar="-1" Cut="0.0000000000000000e+00" cType="1" res="-3.3691718708723783e-03" rms="4.4026824831962585e-01" purity="2.6881048083305359e-01" nType="-99"/>
          <Node pos="r" depth="2" NCoef="0" IVar="-1" Cut="0.0000000000000000e+00" cType="1" res="2.8500645421445370e-03" rms="3.4310084581375122e-01" purity="8.6244857311248779e-01" nType="-99"/>
        </Node>
      </Node>
    </BinaryTree>
    <BinaryTree type="DecisionTree" boostWeight="1.0000000000000000e+00" itree="32">
      <Node pos="s" depth="0" NCoef="0" IVar="17" Cut="1.4828280210494995e+00" cType="1" res="5.3275525569915771e-02" rms="4.1459375619888306e-01" purity="4.9304997920989990e-01" nType="0">
        <Node pos="l" depth="1" NCoef="0" IVar="17" Cut="1.4451383352279663e+00" cType="1" res="-2.2210672497749329e-01" rms="2.6058018207550049e-01" purity="9.5223039388656616e-02" nType="0">
          <Node pos="l" depth="2" NCoef="0" IVar="-1" Cut="0.0000000000000000e+00" cType="1" res="-1.1141159571707249e-02" rms="1.7280213534832001e-01" purity="3.3884238451719284e-02" nType="-99"/>
          <Node pos="r" depth="2" NCoef="0" IVar="-1" Cut="0.0000000000000000e+00" cType="1" res="-8.3081633783876896e-04" rms="4.8493945598602295e-01" purity="4.0768733620643616e-01" nType="-99"/>
        </Node>
        <Node pos="r" depth="1" NCoef="0" IVar="36" Cut="1.3294904232025146e+00" cType="1" res="2.6146182417869568e-01" rms="3.8707622885704041e-01" purity="7.9380321502685547e-01" nType="0">
          <Node pos="l" depth="2" NCoef="0" IVar="-1" Cut="0.0000000000000000e+00" cType="1" res="-3.2098649535328150e-03" rms="4.3307098746299744e-01" purity="2.5960239768028259e-01" nType="-99"/>
          <Node pos="r" depth="2" NCoef="0" IVar="-1" Cut="0.0000000000000000e+00" cType="1" res="2.7888703625649214e-03" rms="3.4119802713394165e-01" purity="8.6504578590393066e-01" nType="-99"/>
        </Node>
      </Node>
    </BinaryTree>
    <BinaryTree type="DecisionTree" boostWeight="1.0000000000000000e+00" itree="33">
      <Node pos="s" depth="0" NCoef="0" IVar="17" Cut="1.4844523668289185e+00" cType="1" res="5.6303266435861588e-02" rms="4.1226851940155029e-01" purity="4.9487027525901794e-01" nType="0">
        <Node pos="l" depth="1" NCoef="0" IVar="17" Cut="1.3713271617889404e+00" cType="1" res="-2.0639705657958984e-01" rms="2.7346399426460266e-01" purity="1.1028528958559036e-01" nType="0">
          <Node pos="l" depth="2" NCoef="0" IVar="-1" Cut="0.0000000000000000e+00" cType="1" res="-1.6559099778532982e-02" rms="0.0000000000000000e+00" purity="-1.5518259024247527e-03" nType="-99"/>
          <Node pos="r" depth="2" NCoef="0" IVar="-1" Cut="0.0000000000000000e+00" cType="1" res="-8.8933465303853154e-04" rms="4.6660634875297546e-01" purity="3.5887160897254944e-01" nType="-99"/>
        </Node>
        <Node pos="r" depth="1" NCoef="0" IVar="36" Cut="1.3674178123474121e+00" cType="1" res="2.6238206028938293e-01" rms="3.8474315404891968e-01" purity="7.9656314849853516e-01" nType="0">
          <Node pos="l" depth="2" NCoef="0" IVar="-1" Cut="0.0000000000000000e+00" cType="1" res="-2.6553119532763958e-03" rms="4.4338351488113403e-01" purity="2.9252141714096069e-01" nType="-99"/>
          <Node pos="r" depth="2" NCoef="0" IVar="-1" Cut="0.0000000000000000e+00" cType="1" res="2.7965442277491093e-03" rms="3.3629792928695679e-01" purity="8.6978775262832642e-01" nType="-99"/>
        </Node>
      </Node>
    </BinaryTree>
    <BinaryTree type="DecisionTree" boostWeight="1.0000000000000000e+00" itree="34">
      <Node pos="s" depth="0" NCoef="0" IVar="17" Cut="1.4844523668289185e+00" cType="1" res="5.2466265857219696e-02" rms="4.1209462285041809e-01" purity="4.8855954408645630e-01" nType="0">
        <Node pos="l" depth="1" NCoef="0" IVar="17" Cut="1.4090337753295898e+00" cType="1" res="-1.8781048059463501e-01" rms="2.9265427589416504e-01" purity="1.2784537672996521e-01" nType="0">
          <Node pos="l" depth="2" NCoef="0" IVar="-1" Cut="0.0000000000000000e+00" cType="1" res="-1.2854179367423058e-02" rms="1.4508782327175140e-01" purity="2.2617049515247345e-02" nType="-99"/>
          <Node pos="r" depth="2" NCoef="0" IVar="-1" Cut="0.0000000000000000e+00" cType="1" res="-4.8434594646096230e-04" rms="4.7894001007080078e-01" purity="4.1071343421936035e-01" nType="-99"/>
        </Node>
        <Node pos="r" depth="1" NCoef="0" IVar="36" Cut="1.1753623485565186e+00" cType="1" res="2.5104176998138428e-01" rms="3.9018338918685913e-01" purity="7.8667008876800537e-01" nType="0">
          <Node pos="l" depth="2" NCoef="0" IVar="-1" Cut="0.0000000000000000e+00" cType="1" res="-8.2857878878712654e-03" rms="3.1532520055770874e-01" purity="1.1358162015676498e-01" nType="-99"/>
          <Node pos="r" depth="2" NCoef="0" IVar="-1" Cut="0.0000000000000000e+00" cType="1" res="2.6895857881754637e-03" rms="3.5222816467285156e-01" purity="8.5315221548080444e-01" nType="-99"/>
        </Node>
      </Node>
    </BinaryTree>
    <BinaryTree type="DecisionTree" boostWeight="1.0000000000000000e+00" itree="35">
      <Node pos="s" depth="0" NCoef="0" IVar="17" Cut="1.4828280210494995e+00" cType="1" res="6.5069876611232758e-02" rms="4.1239920258522034e-01" purity="4.9974638223648071e-01" nType="0">
        <Node pos="l" depth="1" NCoef="0" IVar="36" Cut="1.3285769224166870e+00" cType="1" res="-1.8914158642292023e-01" rms="2.8933563828468323e-01" purity="1.1487703025341034e-01" nType="0">
          <Node pos="l" depth="2" NCoef="0" IVar="-1" Cut="0.0000000000000000e+00" cType="1" res="-1.5306495130062103e-02" rms="5.8966491371393204e-02" purity="1.4412129530683160e-03" nType="-99"/>
          <Node pos="r" depth="2" NCoef="0" IVar="-1" Cut="0.0000000000000000e+00" cType="1" res="-2.8070008847862482e-03" rms="3.5501953959465027e-01" purity="1.8862523138523102e-01" nType="-99"/>
        </Node>
        <Node pos="r" depth="1" NCoef="0" IVar="1" Cut="2.3117070198059082e+00" cType="1" res="2.6001933217048645e-01" rms="3.8566249608993530e-01" purity="7.9489457607269287e-01" nType="0">
          <Node pos="l" depth="2" NCoef="0" IVar="-1" Cut="0.0000000000000000e+00" cType="1" res="-3.5490896552801132e-03" rms="3.8908779621124268e-01" purity="1.9886384904384613e-01" nType="-99"/>
          <Node pos="r" depth="2" NCoef="0" IVar="-1" Cut="0.0000000000000000e+00" cType="1" res="2.7462309226393700e-03" rms="3.5386970639228821e-01" purity="8.3765143156051636e-01" nType="-99"/>
        </Node>
      </Node>
    </BinaryTree>
    <BinaryTree type="DecisionTree" boostWeight="1.0000000000000000e+00" itree="36">
      <Node pos="s" depth="0" NCoef="0" IVar="17" Cut="1.4844523668289185e+00" cType="1" res="5.7809777557849884e-02" rms="4.0778619050979614e-01" purity="4.9429485201835632e-01" nType="0">
        <Node pos="l" depth="1" NCoef="0" IVar="5" Cut="2.4372418224811554e-01" cType="1" res="-2.0438531041145325e-01" rms="2.6210203766822815e-01" purity="9.9363937973976135e-02" nType="0">
          <Node pos="l" depth="2" NCoef="0" IVar="-1" Cut="0.0000000000000000e+00" cType="1" res="-2.0338625181466341e-03" rms="3.6993262171745300e-01" purity="2.2500516474246979e-01" nType="-99"/>
          <Node pos="r" depth="2" NCoef="0" IVar="-1" Cut="0.0000000000000000e+00" cType="1" res="-9.6478154882788658e-03" rms="1.3452938199043274e-01" purity="2.7808653190732002e-02" nType="-99"/>
        </Node>
        <Node pos="r" depth="1" NCoef="0" IVar="36" Cut="1.2140265703201294e+00" cType="1" res="2.5660595297813416e-01" rms="3.8553929328918457e-01" purity="7.9373115301132202e-01" nType="0">
          <Node pos="l" depth="2" NCoef="0" IVar="-1" Cut="0.0000000000000000e+00" cType="1" res="-5.9499554336071014e-03" rms="3.8222277164459229e-01" purity="1.8022312223911285e-01" nType="-99"/>
          <Node pos="r" depth="2" NCoef="0" IVar="-1" Cut="0.0000000000000000e+00" cType="1" res="2.7330412995070219e-03" rms="3.4845051169395447e-01" purity="8.5695916414260864e-01" nType="-99"/>
        </Node>
      </Node>
    </BinaryTree>
    <BinaryTree type="DecisionTree" boostWeight="1.0000000000000000e+00" itree="37">
      <Node pos="s" depth="0" NCoef="0" IVar="17" Cut="1.4833937883377075e+00" cType="1" res="6.0536880046129227e-02" rms="4.0618488192558289e-01" purity="4.9582952260971069e-01" nType="0">
        <Node pos="l" depth="1" NCoef="0" IVar="17" Cut="1.4456974267959595e+00" cType="1" res="-1.9686841964721680e-01" rms="2.6680234074592590e-01" purity="1.0444077104330063e-01" nType="0">
          <Node pos="l" depth="2" NCoef="0" IVar="-1" Cut="0.0000000000000000e+00" cType="1" res="-1.0304738767445087e-02" rms="1.7548032104969025e-01" purity="3.6216113716363907e-02" nType="-99"/>
          <Node pos="r" depth="2" NCoef="0" IVar="-1" Cut="0.0000000000000000e+00" cType="1" res="-4.2215324356220663e-04" rms="4.8718518018722534e-01" purity="4.3572884798049927e-01" nType="-99"/>
        </Node>
        <Node pos="r" depth="1" NCoef="0" IVar="36" Cut="1.1753623485565186e+00" cType="1" res="2.5643536448478699e-01" rms="3.8415262103080750e-01" purity="7.9369622468948364e-01" nType="0">
          <Node pos="l" depth="2" NCoef="0" IVar="-1" Cut="0.0000000000000000e+00" cType="1" res="-5.4157455451786518e-03" rms="3.9130061864852905e-01" purity="1.9469542801380157e-01" nType="-99"/>
          <Node pos="r" depth="2" NCoef="0" IVar="-1" Cut="0.0000000000000000e+00" cType="1" res="2.7151312679052353e-03" rms="3.4594509005546570e-01" purity="8.5912823677062988e-01" nType="-99"/>
        </Node>
      </Node>
    </BinaryTree>
    <BinaryTree type="DecisionTree" boostWeight="1.0000000000000000e+00" itree="38">
      <Node pos="s" depth="0" NCoef="0" IVar="17" Cut="1.4833937883377075e+00" cType="1" res="7.3042236268520355e-02" rms="4.0505000948905945e-01" purity="5.0867551565170288e-01" nType="0">
        <Node pos="l" depth="1" NCoef="0" IVar="17" Cut="1.3326163291931152e+00" cType="1" res="-1.8400312960147858e-01" rms="2.7995631098747253e-01" purity="1.1249738186597824e-01" nType="0">
          <Node pos="l" depth="2" NCoef="0" IVar="-1" Cut="0.0000000000000000e+00" cType="1" res="-1.5786200761795044e-02" rms="1.0061432421207428e-01" purity="1.0515202768146992e-02" nType="-99"/>
          <Node pos="r" depth="2" NCoef="0" IVar="-1" Cut="0.0000000000000000e+00" cType="1" res="-1.1522738495841622e-03" rms="4.4763371348381042e-01" purity="3.1720328330993652e-01" nType="-99"/>
        </Node>
        <Node pos="r" depth="1" NCoef="0" IVar="36" Cut="9.4291883707046509e-01" cType="1" res="2.6433852314949036e-01" rms="3.7692302465438843e-01" purity="8.0351608991622925e-01" nType="0">
          <Node pos="l" depth="2" NCoef="0" IVar="-1" Cut="0.0000000000000000e+00" cType="1" res="-9.0733738616108894e-03" rms="3.1840059161186218e-01" purity="1.1467508226633072e-01" nType="-99"/>
          <Node pos="r" depth="2" NCoef="0" IVar="-1" Cut="0.0000000000000000e+00" cType="1" res="2.7500314172357321e-03" rms="3.4399569034576416e-01" purity="8.5993409156799316e-01" nType="-99"/>
        </Node>
      </Node>
    </BinaryTree>
    <BinaryTree type="DecisionTree" boostWeight="1.0000000000000000e+00" itree="39">
      <Node pos="s" depth="0" NCoef="0" IVar="17" Cut="1.4844523668289185e+00" cType="1" res="6.6038489341735840e-02" rms="4.0224850177764893e-01" purity="5.0001341104507446e-01" nType="0">
        <Node pos="l" depth="1" NCoef="0" IVar="17" Cut="1.4467405080795288e+00" cType="1" res="-1.8260391056537628e-01" rms="2.7183347940444946e-01" purity="1.1395430564880371e-01" nType="0">
          <Node pos="l" depth="2" NCoef="0" IVar="-1" Cut="0.0000000000000000e+00" cType="1" res="-1.0282012633979321e-02" rms="1.6320632398128510e-01" purity="3.1604379415512085e-02" nType="-99"/>
          <Node pos="r" depth="2" NCoef="0" IVar="-1" Cut="0.0000000000000000e+00" cType="1" res="1.2433886877261102e-04" rms="4.9152833223342896e-01" purity="4.8632413148880005e-01" nType="-99"/>
        </Node>
        <Node pos="r" depth="1" NCoef="0" IVar="36" Cut="1.3686834573745728e+00" cType="1" res="2.5748488306999207e-01" rms="3.8110175728797913e-01" purity="7.9726606607437134e-01" nType="0">
          <Node pos="l" depth="2" NCoef="0" IVar="-1" Cut="0.0000000000000000e+00" cType="1" res="-2.7952152304351330e-03" rms="4.3602183461189270e-01" purity="2.7342855930328369e-01" nType="-99"/>
          <Node pos="r" depth="2" NCoef="0" IVar="-1" Cut="0.0000000000000000e+00" cType="1" res="2.7904526796191931e-03" rms="3.3274126052856445e-01" purity="8.7279880046844482e-01" nType="-99"/>
        </Node>
      </Node>
    </BinaryTree>
    <BinaryTree type="DecisionTree" boostWeight="1.0000000000000000e+00" itree="40">
      <Node pos="s" depth="0" NCoef="0" IVar="17" Cut="1.4844523668289185e+00" cType="1" res="6.9404959678649902e-02" rms="4.0190729498863220e-01" purity="5.0247752666473389e-01" nType="0">
        <Node pos="l" depth="1" NCoef="0" IVar="17" Cut="1.4090199470520020e+00" cType="1" res="-1.8277689814567566e-01" rms="2.7065244317054749e-01" purity="1.0742009431123734e-01" nType="0">
          <Node pos="l" depth="2" NCoef="0" IVar="-1" Cut="0.0000000000000000e+00" cType="1" res="-1.3079938478767872e-02" rms="1.1766429990530014e-01" purity="1.5100713819265366e-02" nType="-99"/>
          <Node pos="r" depth="2" NCoef="0" IVar="-1" Cut="0.0000000000000000e+00" cType="1" res="-6.5767846535891294e-04" rms="4.7589066624641418e-01" purity="3.7993308901786804e-01" nType="-99"/>
        </Node>
        <Node pos="r" depth="1" NCoef="0" IVar="36" Cut="1.2913550138473511e+00" cType="1" res="2.5918909907341003e-01" rms="3.7958613038063049e-01" purity="7.9978531599044800e-01" nType="0">
          <Node pos="l" depth="2" NCoef="0" IVar="-1" Cut="0.0000000000000000e+00" cType="1" res="-3.1305144075304270e-03" rms="4.3181404471397400e-01" purity="2.5820416212081909e-01" nType="-99"/>
          <Node pos="r" depth="2" NCoef="0" IVar="-1" Cut="0.0000000000000000e+00" cType="1" res="2.7419924736022949e-03" rms="3.3939206600189209e-01" purity="8.6636900901794434e-01" nType="-99"/>
        </Node>
      </Node>
    </BinaryTree>
    <BinaryTree type="DecisionTree" boostWeight="1.0000000000000000e+00" itree="41">
      <Node pos="s" depth="0" NCoef="0" IVar="17" Cut="1.4826761484146118e+00" cType="1" res="7.6044440269470215e-02" rms="4.0038499236106873e-01" purity="5.0941616296768188e-01" nType="0">
        <Node pos="l" depth="1" NCoef="0" IVar="36" Cut="6.7132717370986938e-01" cType="1" res="-1.8357273936271667e-01" rms="2.6482242345809937e-01" purity="1.0021577030420303e-01" nType="0">
          <Node pos="l" depth="2" NCoef="0" IVar="-1" Cut="0.0000000000000000e+00" cType="1" res="-2.1450141444802284e-02" rms="0.0000000000000000e+00" purity="-2.3386759683489799e-02" nType="-99"/>
          <Node pos="r" depth="2" NCoef="0" IVar="-1" Cut="0.0000000000000000e+00" cType="1" res="-3.5150884650647640e-03" rms="3.1758221983909607e-01" purity="1.5053704380989075e-01" nType="-99"/>
        </Node>
        <Node pos="r" depth="1" NCoef="0" IVar="36" Cut="8.2710939645767212e-01" cType="1" res="2.6217049360275269e-01" rms="3.7682095170021057e-01" purity="8.0278211832046509e-01" nType="0">
          <Node pos="l" depth="2" NCoef="0" IVar="-1" Cut="0.0000000000000000e+00" cType="1" res="-6.9976095110177994e-03" rms="3.5771366953849792e-01" purity="1.5061463415622711e-01" nType="-99"/>
          <Node pos="r" depth="2" NCoef="0" IVar="-1" Cut="0.0000000000000000e+00" cType="1" res="2.7091735973954201e-03" rms="3.4587040543556213e-01" purity="8.5772246122360229e-01" nType="-99"/>
        </Node>
      </Node>
    </BinaryTree>
    <BinaryTree type="DecisionTree" boostWeight="1.0000000000000000e+00" itree="42">
      <Node pos="s" depth="0" NCoef="0" IVar="17" Cut="1.4844523668289185e+00" cType="1" res="7.0443399250507355e-02" rms="4.0106675028800964e-01" purity="5.0109100341796875e-01" nType="0">
        <Node pos="l" depth="1" NCoef="0" IVar="5" Cut="2.8571492433547974e-01" cType="1" res="-1.7096337676048279e-01" rms="2.8103262186050415e-01" purity="1.1393511295318604e-01" nType="0">
          <Node pos="l" depth="2" NCoef="0" IVar="-1" Cut="0.0000000000000000e+00" cType="1" res="-1.4579403214156628e-03" rms="3.7522712349891663e-01" purity="2.3343221843242645e-01" nType="-99"/>
          <Node pos="r" depth="2" NCoef="0" IVar="-1" Cut="0.0000000000000000e+00" cType="1" res="-8.3924680948257446e-03" rms="1.6534307599067688e-01" purity="3.7360019981861115e-02" nType="-99"/>
        </Node>
        <Node pos="r" depth="1" NCoef="0" IVar="36" Cut="1.6989332437515259e-01" cType="1" res="2.5537666678428650e-01" rms="3.8043630123138428e-01" purity="7.9767757654190063e-01" nType="0">
          <Node pos="l" depth="2" NCoef="0" IVar="-1" Cut="0.0000000000000000e+00" cType="1" res="-1.0664282366633415e-02" rms="2.9511716961860657e-01" purity="9.6640266478061676e-02" nType="-99"/>
          <Node pos="r" depth="2" NCoef="0" IVar="-1" Cut="0.0000000000000000e+00" cType="1" res="2.6266649365425110e-03" rms="3.5571455955505371e-01" purity="8.4549021720886230e-01" nType="-99"/>
        </Node>
      </Node>
    </BinaryTree>
    <BinaryTree type="DecisionTree" boostWeight="1.0000000000000000e+00" itree="43">
      <Node pos="s" depth="0" NCoef="0" IVar="17" Cut="1.4844523668289185e+00" cType="1" res="7.5550101697444916e-02" rms="3.9792504906654358e-01" purity="5.0498396158218384e-01" nType="0">
        <Node pos="l" depth="1" NCoef="0" IVar="17" Cut="1.4090222120285034e+00" cType="1" res="-1.6799049079418182e-01" rms="2.7864533662796021e-01" purity="1.1200670897960663e-01" nType="0">
          <Node pos="l" depth="2" NCoef="0" IVar="-1" Cut="0.0000000000000000e+00" cType="1" res="-1.2575810775160789e-02" rms="1.3519959151744843e-01" purity="1.9220829010009766e-02" nType="-99"/>
          <Node pos="r" depth="2" NCoef="0" IVar="-1" Cut="0.0000000000000000e+00" cType="1" res="-4.7615441144444048e-04" rms="4.8031932115554810e-01" purity="3.8630273938179016e-01" nType="-99"/>
        </Node>
        <Node pos="r" depth="1" NCoef="0" IVar="1" Cut="2.4610605239868164e+00" cType="1" res="2.6181098818778992e-01" rms="3.7417870759963989e-01" purity="8.0553466081619263e-01" nType="0">
          <Node pos="l" depth="2" NCoef="0" IVar="-1" Cut="0.0000000000000000e+00" cType="1" res="-2.2713756188750267e-03" rms="4.4201686978340149e-01" purity="3.2603174448013306e-01" nType="-99"/>
          <Node pos="r" depth="2" NCoef="0" IVar="-1" Cut="0.0000000000000000e+00" cType="1" res="2.8331521898508072e-03" rms="3.3374026417732239e-01" purity="8.5709136724472046e-01" nType="-99"/>
        </Node>
      </Node>
    </BinaryTree>
    <BinaryTree type="DecisionTree" boostWeight="1.0000000000000000e+00" itree="44">
      <Node pos="s" depth="0" NCoef="0" IVar="17" Cut="1.4844523668289185e+00" cType="1" res="7.5623206794261932e-02" rms="3.9967170357704163e-01" purity="5.0351488590240479e-01" nType="0">
        <Node pos="l" depth="1" NCoef="0" IVar="36" Cut="1.3285809755325317e+00" cType="1" res="-1.5111304819583893e-01" rms="2.9385045170783997e-01" purity="1.2927880883216858e-01" nType="0">
          <Node pos="l" depth="2" NCoef="0" IVar="-1" Cut="0.0000000000000000e+00" cType="1" res="-1.4729274436831474e-02" rms="7.9194821417331696e-02" purity="6.2204799614846706e-03" nType="-99"/>
          <Node pos="r" depth="2" NCoef="0" IVar="-1" Cut="0.0000000000000000e+00" cType="1" res="-1.9070353591814637e-03" rms="3.5882487893104553e-01" purity="2.0933508872985840e-01" nType="-99"/>
        </Node>
        <Node pos="r" depth="1" NCoef="0" IVar="1" Cut="2.5987524986267090e+00" cType="1" res="2.5344097614288330e-01" rms="3.8125604391098022e-01" purity="7.9700917005538940e-01" nType="0">
          <Node pos="l" depth="2" NCoef="0" IVar="-1" Cut="0.0000000000000000e+00" cType="1" res="-7.8674941323697567e-04" rms="4.7307360172271729e-01" purity="4.4498249888420105e-01" nType="-99"/>
          <Node pos="r" depth="2" NCoef="0" IVar="-1" Cut="0.0000000000000000e+00" cType="1" res="2.8344527818262577e-03" rms="3.2966765761375427e-01" purity="8.6192572116851807e-01" nType="-99"/>
        </Node>
      </Node>
    </BinaryTree>
    <BinaryTree type="DecisionTree" boostWeight="1.0000000000000000e+00" itree="45">
      <Node pos="s" depth="0" NCoef="0" IVar="17" Cut="1.4844523668289185e+00" cType="1" res="6.6804707050323486e-02" rms="3.9625620841979980e-01" purity="4.9464499950408936e-01" nType="0">
        <Node pos="l" depth="1" NCoef="0" IVar="17" Cut="1.4467279911041260e+00" cType="1" res="-1.5693935751914978e-01" rms="2.8167188167572021e-01" purity="1.2118786573410034e-01" nType="0">
          <Node pos="l" depth="2" NCoef="0" IVar="-1" Cut="0.0000000000000000e+00" cType="1" res="-9.0246526524424553e-03" rms="1.9173735380172729e-01" purity="4.2344134300947189e-02" nType="-99"/>
          <Node pos="r" depth="2" NCoef="0" IVar="-1" Cut="0.0000000000000000e+00" cType="1" res="1.0840292816283181e-04" rms="4.8737376928329468e-01" purity="4.7724750638008118e-01" nType="-99"/>
        </Node>
        <Node pos="r" depth="1" NCoef="0" IVar="36" Cut="1.4073475599288940e+00" cType="1" res="2.4346679449081421e-01" rms="3.8420867919921875e-01" purity="7.8951638936996460e-01" nType="0">
          <Node pos="l" depth="2" NCoef="0" IVar="-1" Cut="0.0000000000000000e+00" cType="1" res="-2.5382828898727894e-03" rms="4.3506643176078796e-01" purity="2.9241955280303955e-01" nType="-99"/>
          <Node pos="r" depth="2" NCoef="0" IVar="-1" Cut="0.0000000000000000e+00" cType="1" res="2.7111584786325693e-03" rms="3.3530938625335693e-01" purity="8.7042081356048584e-01" nType="-99"/>
        </Node>
      </Node>
    </BinaryTree>
    <BinaryTree type="DecisionTree" boostWeight="1.0000000000000000e+00" itree="46">
      <Node pos="s" depth="0" NCoef="0" IVar="17" Cut="1.4833937883377075e+00" cType="1" res="7.2681866586208344e-02" rms="3.9434742927551270e-01" purity="5.0210916996002197e-01" nType="0">
        <Node pos="l" depth="1" NCoef="0" IVar="36" Cut="1.3285809755325317e+00" cType="1" res="-1.6579143702983856e-01" rms="2.6828032732009888e-01" purity="1.0676030069589615e-01" nType="0">
          <Node pos="l" depth="2" NCoef="0" IVar="-1" Cut="0.0000000000000000e+00" cType="1" res="-1.4440745115280151e-02" rms="4.6390308998525143e-03" purity="1.5262475935742259e-03" nType="-99"/>
          <Node pos="r" depth="2" NCoef="0" IVar="-1" Cut="0.0000000000000000e+00" cType="1" res="-2.6569683104753494e-03" rms="3.3500763773918152e-01" purity="1.7522834241390228e-01" nType="-99"/>
        </Node>
        <Node pos="r" depth="1" NCoef="0" IVar="36" Cut="9.4308871030807495e-01" cType="1" res="2.5076857209205627e-01" rms="3.7908923625946045e-01" purity="7.9734712839126587e-01" nType="0">
          <Node pos="l" depth="2" NCoef="0" IVar="-1" Cut="0.0000000000000000e+00" cType="1" res="-7.6633524149656296e-03" rms="3.3522343635559082e-01" purity="1.2965354323387146e-01" nType="-99"/>
          <Node pos="r" depth="2" NCoef="0" IVar="-1" Cut="0.0000000000000000e+00" cType="1" res="2.6381504721939564e-03" rms="3.5057896375656128e-01" purity="8.5294872522354126e-01" nType="-99"/>
        </Node>
      </Node>
    </BinaryTree>
    <BinaryTree type="DecisionTree" boostWeight="1.0000000000000000e+00" itree="47">
      <Node pos="s" depth="0" NCoef="0" IVar="17" Cut="1.4844523668289185e+00" cType="1" res="7.1925178170204163e-02" rms="3.9459007978439331e-01" purity="4.9718910455703735e-01" nType="0">
        <Node pos="l" depth="1" NCoef="0" IVar="5" Cut="2.8204399347305298e-01" cType="1" res="-1.4429201185703278e-01" rms="2.9108071327209473e-01" purity="1.2956815958023071e-01" nType="0">
          <Node pos="l" depth="2" NCoef="0" IVar="-1" Cut="0.0000000000000000e+00" cType="1" res="-1.0271284263581038e-03" rms="3.6908578872680664e-01" purity="2.4803760647773743e-01" nType="-99"/>
          <Node pos="r" depth="2" NCoef="0" IVar="-1" Cut="0.0000000000000000e+00" cType="1" res="-7.1317623369395733e-03" rms="2.0150542259216309e-01" purity="5.2240967750549316e-02" nType="-99"/>
        </Node>
        <Node pos="r" depth="1" NCoef="0" IVar="36" Cut="1.2908332347869873e+00" cType="1" res="2.4513278901576996e-01" rms="3.8092711567878723e-01" purity="7.9168343544006348e-01" nType="0">
          <Node pos="l" depth="2" NCoef="0" IVar="-1" Cut="0.0000000000000000e+00" cType="1" res="-3.8585101719945669e-03" rms="4.0979975461959839e-01" purity="2.2602131962776184e-01" nType="-99"/>
          <Node pos="r" depth="2" NCoef="0" IVar="-1" Cut="0.0000000000000000e+00" cType="1" res="2.6350396219640970e-03" rms="3.4130713343620300e-01" purity="8.6413919925689697e-01" nType="-99"/>
        </Node>
      </Node>
    </BinaryTree>
    <BinaryTree type="DecisionTree" boostWeight="1.0000000000000000e+00" itree="48">
      <Node pos="s" depth="0" NCoef="0" IVar="17" Cut="1.4844523668289185e+00" cType="1" res="7.8687407076358795e-02" rms="3.9334642887115479e-01" purity="5.0392901897430420e-01" nType="0">
        <Node pos="l" depth="1" NCoef="0" IVar="3" Cut="4.9750323295593262e+00" cType="1" res="-1.5207250416278839e-01" rms="2.8266757726669312e-01" purity="1.1538603901863098e-01" nType="0">
          <Node pos="l" depth="2" NCoef="0" IVar="-1" Cut="0.0000000000000000e+00" cType="1" res="-6.9124577566981316e-03" rms="2.3379787802696228e-01" purity="7.8950211405754089e-02" nType="-99"/>
          <Node pos="r" depth="2" NCoef="0" IVar="-1" Cut="0.0000000000000000e+00" cType="1" res="-5.2368134493008256e-04" rms="3.8275334239006042e-01" purity="2.4085508286952972e-01" nType="-99"/>
        </Node>
        <Node pos="r" depth="1" NCoef="0" IVar="36" Cut="1.1366981267929077e+00" cType="1" res="2.5663188099861145e-01" rms="3.7375202775001526e-01" purity="8.0354374647140503e-01" nType="0">
          <Node pos="l" depth="2" NCoef="0" IVar="-1" Cut="0.0000000000000000e+00" cType="1" res="-3.7887047510594130e-03" rms="4.2173853516578674e-01" purity="2.3549629747867584e-01" nType="-99"/>
          <Node pos="r" depth="2" NCoef="0" IVar="-1" Cut="0.0000000000000000e+00" cType="1" res="2.6722468901425600e-03" rms="3.4017616510391235e-01" purity="8.6435306072235107e-01" nType="-99"/>
        </Node>
      </Node>
    </BinaryTree>
    <BinaryTree type="DecisionTree" boostWeight="1.0000000000000000e+00" itree="49">
      <Node pos="s" depth="0" NCoef="0" IVar="17" Cut="1.4844523668289185e+00" cType="1" res="7.2343304753303528e-02" rms="3.9238202571868896e-01" purity="4.9824219942092896e-01" nType="0">
        <Node pos="l" depth="1" NCoef="0" IVar="36" Cut="1.2895681858062744e+00" cType="1" res="-1.5459796786308289e-01" rms="2.7883252501487732e-01" purity="1.0833876579999924e-01" nType="0">
          <Node pos="l" depth="2" NCoef="0" IVar="-1" Cut="0.0000000000000000e+00" cType="1" res="-1.4049057848751545e-02" rms="6.0334615409374237e-02" purity="3.3583266194909811e-03" nType="-99"/>
          <Node pos="r" depth="2" NCoef="0" IVar="-1" Cut="0.0000000000000000e+00" cType="1" res="-2.4408739991486073e-03" rms="3.4239381551742554e-01" purity="1.7264060676097870e-01" nType="-99"/>
        </Node>
        <Node pos="r" depth="1" NCoef="0" IVar="1" Cut="2.6201198101043701e+00" cType="1" res="2.4515244364738464e-01" rms="3.7804687023162842e-01" purity="7.9514223337173462e-01" nType="0">
          <Node pos="l" depth="2" NCoef="0" IVar="-1" Cut="0.0000000000000000e+00" cType="1" res="-1.6430731629952788e-03" rms="4.4886487722396851e-01" purity="3.6715248227119446e-01" nType="-99"/>
          <Node pos="r" depth="2" NCoef="0" IVar="-1" Cut="0.0000000000000000e+00" cType="1" res="2.8159378562122583e-03" rms="3.2552742958068848e-01" purity="8.6287540197372437e-01" nType="-99"/>
        </Node>
      </Node>
    </BinaryTree>
    <BinaryTree type="DecisionTree" boostWeight="1.0000000000000000e+00" itree="50">
      <Node pos="s" depth="0" NCoef="0" IVar="17" Cut="1.4844523668289185e+00" cType="1" res="7.9327262938022614e-02" rms="3.9109393954277039e-01" purity="5.0657236576080322e-01" nType="0">
        <Node pos="l" depth="1" NCoef="0" IVar="5" Cut="2.8417992591857910e-01" cType="1" res="-1.5084990859031677e-01" rms="2.7855181694030762e-01" purity="1.1086273938417435e-01" nType="0">
          <Node pos="l" depth="2" NCoef="0" IVar="-1" Cut="0.0000000000000000e+00" cType="1" res="-1.1468374868854880e-03" rms="3.7419003248214722e-01" purity="2.2710289061069489e-01" nType="-99"/>
          <Node pos="r" depth="2" NCoef="0" IVar="-1" Cut="0.0000000000000000e+00" cType="1" res="-7.8709656372666359e-03" rms="1.6086937487125397e-01" purity="3.5941570997238159e-02" nType="-99"/>
        </Node>
        <Node pos="r" depth="1" NCoef="0" IVar="36" Cut="1.4073475599288940e+00" cType="1" res="2.5132739543914795e-01" rms="3.7429305911064148e-01" purity="8.0226677656173706e-01" nType="0">
          <Node pos="l" depth="2" NCoef="0" IVar="-1" Cut="0.0000000000000000e+00" cType="1" res="-1.3624768471345305e-03" rms="4.5498749613761902e-01" purity="3.5071575641632080e-01" nType="-99"/>
          <Node pos="r" depth="2" NCoef="0" IVar="-1" Cut="0.0000000000000000e+00" cType="1" res="2.7550728991627693e-03" rms="3.2692384719848633e-01" purity="8.7767177820205688e-01" nType="-99"/>
        </Node>
      </Node>
    </BinaryTree>
    <BinaryTree type="DecisionTree" boostWeight="1.0000000000000000e+00" itree="51">
      <Node pos="s" depth="0" NCoef="0" IVar="17" Cut="1.4826761484146118e+00" cType="1" res="7.3849812150001526e-02" rms="3.8871675729751587e-01" purity="4.9843204021453857e-01" nType="0">
        <Node pos="l" depth="1" NCoef="0" IVar="10" Cut="3.7000207901000977e+00" cType="1" res="-1.4890652894973755e-01" rms="2.7356538176536560e-01" purity="1.1139912158250809e-01" nType="0">
          <Node pos="l" depth="2" NCoef="0" IVar="-1" Cut="0.0000000000000000e+00" cType="1" res="-5.5632414296269417e-03" rms="2.3976975679397583e-01" purity="8.7763734161853790e-02" nType="-99"/>
          <Node pos="r" depth="2" NCoef="0" IVar="-1" Cut="0.0000000000000000e+00" cType="1" res="3.6358369980007410e-03" rms="4.5915126800537109e-01" purity="4.7631019353866577e-01" nType="-99"/>
        </Node>
        <Node pos="r" depth="1" NCoef="0" IVar="36" Cut="1.4070059061050415e+00" cType="1" res="2.4570685625076294e-01" rms="3.7698870897293091e-01" purity="7.9702877998352051e-01" nType="0">
          <Node pos="l" depth="2" NCoef="0" IVar="-1" Cut="0.0000000000000000e+00" cType="1" res="-1.7576639074832201e-03" rms="4.4413685798645020e-01" purity="3.2625418901443481e-01" nType="-99"/>
          <Node pos="r" depth="2" NCoef="0" IVar="-1" Cut="0.0000000000000000e+00" cType="1" res="2.6898777578026056e-03" rms="3.2956311106681824e-01" purity="8.7524294853210449e-01" nType="-99"/>
        </Node>
      </Node>
    </BinaryTree>
    <BinaryTree type="DecisionTree" boostWeight="1.0000000000000000e+00" itree="52">
      <Node pos="s" depth="0" NCoef="0" IVar="17" Cut="1.4833937883377075e+00" cType="1" res="7.5692698359489441e-02" rms="3.8594660162925720e-01" purity="5.0252133607864380e-01" nType="0">
        <Node pos="l" depth="1" NCoef="0" IVar="1" Cut="2.7943537235260010e+00" cType="1" res="-1.5858046710491180e-01" rms="2.5626757740974426e-01" purity="9.9797584116458893e-02" nType="0">
          <Node pos="l" depth="2" NCoef="0" IVar="-1" Cut="0.0000000000000000e+00" cType="1" res="-1.0285808704793453e-02" rms="9.9884457886219025e-02" purity="1.2932702898979187e-02" nType="-99"/>
          <Node pos="r" depth="2" NCoef="0" IVar="-1" Cut="0.0000000000000000e+00" cType="1" res="-2.5954584125429392e-03" rms="3.2067871093750000e-01" purity="1.6906103491783142e-01" nType="-99"/>
        </Node>
        <Node pos="r" depth="1" NCoef="0" IVar="36" Cut="1.4070059061050415e+00" cType="1" res="2.4995079636573792e-01" rms="3.7378048896789551e-01" purity="8.0207699537277222e-01" nType="0">
          <Node pos="l" depth="2" NCoef="0" IVar="-1" Cut="0.0000000000000000e+00" cType="1" res="-1.0679012630134821e-03" rms="4.6016517281532288e-01" purity="3.6617875099182129e-01" nType="-99"/>
          <Node pos="r" depth="2" NCoef="0" IVar="-1" Cut="0.0000000000000000e+00" cType="1" res="2.6736762374639511e-03" rms="3.2664763927459717e-01" purity="8.7780755758285522e-01" nType="-99"/>
        </Node>
      </Node>
    </BinaryTree>
    <BinaryTree type="DecisionTree" boostWeight="1.0000000000000000e+00" itree="53">
      <Node pos="s" depth="0" NCoef="0" IVar="17" Cut="1.4826761484146118e+00" cType="1" res="7.7355392277240753e-02" rms="3.8741698861122131e-01" purity="5.0345402956008911e-01" nType="0">
        <Node pos="l" depth="1" NCoef="0" IVar="2" Cut="2.3868970870971680e+00" cType="1" res="-1.5533785521984100e-01" rms="2.6317077875137329e-01" purity="9.8174922168254852e-02" nType="0">
          <Node pos="l" depth="2" NCoef="0" IVar="-1" Cut="0.0000000000000000e+00" cType="1" res="-8.7272087112069130e-03" rms="1.6409236192703247e-01" purity="3.5545121878385544e-02" nType="-99"/>
          <Node pos="r" depth="2" NCoef="0" IVar="-1" Cut="0.0000000000000000e+00" cType="1" res="-2.2819584701210260e-03" rms="3.3820462226867676e-01" purity="1.7597562074661255e-01" nType="-99"/>
        </Node>
        <Node pos="r" depth="1" NCoef="0" IVar="36" Cut="1.2140265703201294e+00" cType="1" res="2.4833403527736664e-01" rms="3.7478962540626526e-01" purity="8.0124545097351074e-01" nType="0">
          <Node pos="l" depth="2" NCoef="0" IVar="-1" Cut="0.0000000000000000e+00" cType="1" res="-3.1324394512921572e-03" rms="4.2801073193550110e-01" purity="2.5062090158462524e-01" nType="-99"/>
          <Node pos="r" depth="2" NCoef="0" IVar="-1" Cut="0.0000000000000000e+00" cType="1" res="2.5959289632737637e-03" rms="3.4271839261054993e-01" purity="8.6147552728652954e-01" nType="-99"/>
        </Node>
      </Node>
    </BinaryTree>
    <BinaryTree type="DecisionTree" boostWeight="1.0000000000000000e+00" itree="54">
      <Node pos="s" depth="0" NCoef="0" IVar="17" Cut="1.4828280210494995e+00" cType="1" res="7.8900121152400970e-02" rms="3.8689950108528137e-01" purity="5.0477683544158936e-01" nType="0">
        <Node pos="l" depth="1" NCoef="0" IVar="5" Cut="2.9898047447204590e-01" cType="1" res="-1.4031140506267548e-01" rms="2.7870491147041321e-01" purity="1.1528175324201584e-01" nType="0">
          <Node pos="l" depth="2" NCoef="0" IVar="-1" Cut="0.0000000000000000e+00" cType="1" res="-1.5234777238219976e-03" rms="3.5251927375793457e-01" purity="2.0922735333442688e-01" nType="-99"/>
          <Node pos="r" depth="2" NCoef="0" IVar="-1" Cut="0.0000000000000000e+00" cType="1" res="-6.9807949475944042e-03" rms="2.0063325762748718e-01" purity="5.3267158567905426e-02" nType="-99"/>
        </Node>
        <Node pos="r" depth="1" NCoef="0" IVar="36" Cut="1.4070059061050415e+00" cType="1" res="2.4450348317623138e-01" rms="3.7465739250183105e-01" purity="7.9902094602584839e-01" nType="0">
          <Node pos="l" depth="2" NCoef="0" IVar="-1" Cut="0.0000000000000000e+00" cType="1" res="-1.5125476056709886e-03" rms="4.5085984468460083e-01" purity="3.4258532524108887e-01" nType="-99"/>
          <Node pos="r" depth="2" NCoef="0" IVar="-1" Cut="0.0000000000000000e+00" cType="1" res="2.6629425119608641e-03" rms="3.2630673050880432e-01" purity="8.7797325849533081e-01" nType="-99"/>
        </Node>
      </Node>
    </BinaryTree>
    <BinaryTree type="DecisionTree" boostWeight="1.0000000000000000e+00" itree="55">
      <Node pos="s" depth="0" NCoef="0" IVar="17" Cut="1.4833937883377075e+00" cType="1" res="6.5574109554290771e-02" rms="3.8116750121116638e-01" purity="4.9273371696472168e-01" nType="0">
        <Node pos="l" depth="1" NCoef="0" IVar="36" Cut="1.0965946912765503e+00" cType="1" res="-1.7382262647151947e-01" rms="2.2413498163223267e-01" purity="7.6493673026561737e-02" nType="0">
          <Node pos="l" depth="2" NCoef="0" IVar="-1" Cut="0.0000000000000000e+00" cType="1" res="-2.1069392561912537e-02" rms="0.0000000000000000e+00" purity="-3.5082798451185226e-02" nType="-99"/>
          <Node pos="r" depth="2" NCoef="0" IVar="-1" Cut="0.0000000000000000e+00" cType="1" res="-3.3632756676524878e-03" rms="2.9451495409011841e-01" purity="1.3305059075355530e-01" nType="-99"/>
        </Node>
        <Node pos="r" depth="1" NCoef="0" IVar="36" Cut="1.0593698024749756e+00" cType="1" res="2.3922382295131683e-01" rms="3.7750583887100220e-01" purity="7.9465913772583008e-01" nType="0">
          <Node pos="l" depth="2" NCoef="0" IVar="-1" Cut="0.0000000000000000e+00" cType="1" res="-6.4321076497435570e-03" rms="3.5437318682670593e-01" purity="1.4997598528862000e-01" nType="-99"/>
          <Node pos="r" depth="2" NCoef="0" IVar="-1" Cut="0.0000000000000000e+00" cType="1" res="2.5525474920868874e-03" rms="3.4905263781547546e-01" purity="8.5414820909500122e-01" nType="-99"/>
        </Node>
      </Node>
    </BinaryTree>
    <BinaryTree type="DecisionTree" boostWeight="1.0000000000000000e+00" itree="56">
      <Node pos="s" depth="0" NCoef="0" IVar="17" Cut="1.4844523668289185e+00" cType="1" res="7.2337910532951355e-02" rms="3.8377895951271057e-01" purity="4.9591064453125000e-01" nType="0">
        <Node pos="l" depth="1" NCoef="0" IVar="2" Cut="2.5005888938903809e+00" cType="1" res="-1.4788779616355896e-01" rms="2.6321387290954590e-01" purity="1.0164523869752884e-01" nType="0">
          <Node pos="l" depth="2" NCoef="0" IVar="-1" Cut="0.0000000000000000e+00" cType="1" res="-8.4418589249253273e-03" rms="1.5726700425148010e-01" purity="3.0825860798358917e-02" nType="-99"/>
          <Node pos="r" depth="2" NCoef="0" IVar="-1" Cut="0.0000000000000000e+00" cType="1" res="-1.4724698849022388e-03" rms="3.5287448763847351e-01" purity="2.0807483792304993e-01" nType="-99"/>
        </Node>
        <Node pos="r" depth="1" NCoef="0" IVar="1" Cut="2.3392546176910400e+00" cType="1" res="2.3995748162269592e-01" rms="3.7636059522628784e-01" purity="7.9599636793136597e-01" nType="0">
          <Node pos="l" depth="2" NCoef="0" IVar="-1" Cut="0.0000000000000000e+00" cType="1" res="-4.4148410670459270e-03" rms="3.5258755087852478e-01" purity="1.7885939776897430e-01" nType="-99"/>
          <Node pos="r" depth="2" NCoef="0" IVar="-1" Cut="0.0000000000000000e+00" cType="1" res="2.6258404832333326e-03" rms="3.4398782253265381e-01" purity="8.4265625476837158e-01" nType="-99"/>
        </Node>
      </Node>
    </BinaryTree>
    <BinaryTree type="DecisionTree" boostWeight="1.0000000000000000e+00" itree="57">
      <Node pos="s" depth="0" NCoef="0" IVar="17" Cut="1.4830439090728760e+00" cType="1" res="8.9552141726016998e-02" rms="3.8237911462783813e-01" purity="5.1966780424118042e-01" nType="0">
        <Node pos="l" depth="1" NCoef="0" IVar="2" Cut="2.3868970870971680e+00" cType="1" res="-1.3944186270236969e-01" rms="2.7012428641319275e-01" purity="1.0542037338018417e-01" nType="0">
          <Node pos="l" depth="2" NCoef="0" IVar="-1" Cut="0.0000000000000000e+00" cType="1" res="-9.1236410662531853e-03" rms="1.3355089724063873e-01" purity="1.9670495763421059e-02" nType="-99"/>
          <Node pos="r" depth="2" NCoef="0" IVar="-1" Cut="0.0000000000000000e+00" cType="1" res="-1.3890570262447000e-03" rms="3.5512411594390869e-01" purity="2.0686462521553040e-01" nType="-99"/>
        </Node>
        <Node pos="r" depth="1" NCoef="0" IVar="36" Cut="1.1748617887496948e+00" cType="1" res="2.4875041842460632e-01" rms="3.6788019537925720e-01" purity="8.0765563249588013e-01" nType="0">
          <Node pos="l" depth="2" NCoef="0" IVar="-1" Cut="0.0000000000000000e+00" cType="1" res="-5.3377505391836166e-03" rms="3.7189570069313049e-01" purity="1.6840422153472900e-01" nType="-99"/>
          <Node pos="r" depth="2" NCoef="0" IVar="-1" Cut="0.0000000000000000e+00" cType="1" res="2.6170185301452875e-03" rms="3.3711817860603333e-01" purity="8.6652010679244995e-01" nType="-99"/>
        </Node>
      </Node>
    </BinaryTree>
    <BinaryTree type="DecisionTree" boostWeight="1.0000000000000000e+00" itree="58">
      <Node pos="s" depth="0" NCoef="0" IVar="17" Cut="1.4824117422103882e+00" cType="1" res="7.3917247354984283e-02" rms="3.8127538561820984e-01" purity="4.9650129675865173e-01" nType="0">
        <Node pos="l" depth="1" NCoef="0" IVar="17" Cut="1.3316578865051270e+00" cType="1" res="-1.4953619241714478e-01" rms="2.5031077861785889e-01" purity="9.3873098492622375e-02" nType="0">
          <Node pos="l" depth="2" NCoef="0" IVar="-1" Cut="0.0000000000000000e+00" cType="1" res="-1.6920519992709160e-02" rms="0.0000000000000000e+00" purity="-7.1988729760050774e-03" nType="-99"/>
          <Node pos="r" depth="2" NCoef="0" IVar="-1" Cut="0.0000000000000000e+00" cType="1" res="-7.7674706699326634e-04" rms="4.3560543656349182e-01" purity="2.9700002074241638e-01" nType="-99"/>
        </Node>
        <Node pos="r" depth="1" NCoef="0" IVar="36" Cut="9.0361487865447998e-01" cType="1" res="2.4010761082172394e-01" rms="3.7700703740119934e-01" purity="7.9595041275024414e-01" nType="0">
          <Node pos="l" depth="2" NCoef="0" IVar="-1" Cut="0.0000000000000000e+00" cType="1" res="-4.5042629353702068e-03" rms="3.9794296026229858e-01" purity="1.9833567738533020e-01" nType="-99"/>
          <Node pos="r" depth="2" NCoef="0" IVar="-1" Cut="0.0000000000000000e+00" cType="1" res="2.4954704567790031e-03" rms="3.5114476084709167e-01" purity="8.5133379697799683e-01" nType="-99"/>
        </Node>
      </Node>
    </BinaryTree>
    <BinaryTree type="DecisionTree" boostWeight="1.0000000000000000e+00" itree="59">
      <Node pos="s" depth="0" NCoef="0" IVar="17" Cut="1.4833937883377075e+00" cType="1" res="7.6427467167377472e-02" rms="3.7985438108444214e-01" purity="5.0119674205780029e-01" nType="0">
        <Node pos="l" depth="1" NCoef="0" IVar="5" Cut="2.4372418224811554e-01" cType="1" res="-1.4300177991390228e-01" rms="2.5968456268310547e-01" purity="9.8884396255016327e-02" nType="0">
          <Node pos="l" depth="2" NCoef="0" IVar="-1" Cut="0.0000000000000000e+00" cType="1" res="-1.6153238248080015e-03" rms="3.4142705798149109e-01" purity="1.9373460114002228e-01" nType="-99"/>
          <Node pos="r" depth="2" NCoef="0" IVar="-1" Cut="0.0000000000000000e+00" cType="1" res="-6.9295214489102364e-03" rms="1.8818968534469604e-01" purity="4.7724626958370209e-02" nType="-99"/>
        </Node>
        <Node pos="r" depth="1" NCoef="0" IVar="1" Cut="2.4261977672576904e+00" cType="1" res="2.3879684507846832e-01" rms="3.7304887175559998e-01" purity="7.9889267683029175e-01" nType="0">
          <Node pos="l" depth="2" NCoef="0" IVar="-1" Cut="0.0000000000000000e+00" cType="1" res="-2.9038514476269484e-03" rms="4.1708076000213623e-01" purity="2.8382986783981323e-01" nType="-99"/>
          <Node pos="r" depth="2" NCoef="0" IVar="-1" Cut="0.0000000000000000e+00" cType="1" res="2.6268179062753916e-03" rms="3.3580896258354187e-01" purity="8.5057467222213745e-01" nType="-99"/>
        </Node>
      </Node>
    </BinaryTree>
    <BinaryTree type="DecisionTree" boostWeight="1.0000000000000000e+00" itree="60">
      <Node pos="s" depth="0" NCoef="0" IVar="17" Cut="1.4821780920028687e+00" cType="1" res="8.8318608701229095e-02" rms="3.7980419397354126e-01" purity="5.1514083147048950e-01" nType="0">
        <Node pos="l" depth="1" NCoef="0" IVar="17" Cut="1.1430613994598389e+00" cType="1" res="-1.2679407000541687e-01" rms="2.7295321226119995e-01" purity="1.1226008832454681e-01" nType="0">
          <Node pos="l" depth="2" NCoef="0" IVar="-1" Cut="0.0000000000000000e+00" cType="1" res="-1.7268611118197441e-02" rms="3.0580461025238037e-02" purity="9.5510575920343399e-04" nType="-99"/>
          <Node pos="r" depth="2" NCoef="0" IVar="-1" Cut="0.0000000000000000e+00" cType="1" res="-8.1371463602408767e-04" rms="4.0892773866653442e-01" purity="2.6829910278320312e-01" nType="-99"/>
        </Node>
        <Node pos="r" depth="1" NCoef="0" IVar="36" Cut="1.3296864032745361e+00" cType="1" res="2.4151217937469482e-01" rms="3.7081030011177063e-01" purity="8.0205440521240234e-01" nType="0">
          <Node pos="l" depth="2" NCoef="0" IVar="-1" Cut="0.0000000000000000e+00" cType="1" res="-3.0350051820278168e-03" rms="4.2091062664985657e-01" purity="2.5314545631408691e-01" nType="-99"/>
          <Node pos="r" depth="2" NCoef="0" IVar="-1" Cut="0.0000000000000000e+00" cType="1" res="2.5599242653697729e-03" rms="3.3358490467071533e-01" purity="8.7051975727081299e-01" nType="-99"/>
        </Node>
      </Node>
    </BinaryTree>
    <BinaryTree type="DecisionTree" boostWeight="1.0000000000000000e+00" itree="61">
      <Node pos="s" depth="0" NCoef="0" IVar="17" Cut="1.4844523668289185e+00" cType="1" res="7.1228295564651489e-02" rms="3.8059264421463013e-01" purity="4.9080187082290649e-01" nType="0">
        <Node pos="l" depth="1" NCoef="0" IVar="5" Cut="2.4519944190979004e-01" cType="1" res="-1.2755954265594482e-01" rms="2.7001410722732544e-01" purity="1.1204546689987183e-01" nType="0">
          <Node pos="l" depth="2" NCoef="0" IVar="-1" Cut="0.0000000000000000e+00" cType="1" res="-7.0448691258206964e-04" rms="3.6253371834754944e-01" purity="2.2937029600143433e-01" nType="-99"/>
          <Node pos="r" depth="2" NCoef="0" IVar="-1" Cut="0.0000000000000000e+00" cType="1" res="-6.6736522130668163e-03" rms="1.7703154683113098e-01" purity="4.5824382454156876e-02" nType="-99"/>
        </Node>
        <Node pos="r" depth="1" NCoef="0" IVar="1" Cut="2.5069639682769775e+00" cType="1" res="2.2733691334724426e-01" rms="3.8202816247940063e-01" purity="7.8824031352996826e-01" nType="0">
          <Node pos="l" depth="2" NCoef="0" IVar="-1" Cut="0.0000000000000000e+00" cType="1" res="-1.7910171300172806e-03" rms="4.4825586676597595e-01" purity="3.6646637320518494e-01" nType="-99"/>
          <Node pos="r" depth="2" NCoef="0" IVar="-1" Cut="0.0000000000000000e+00" cType="1" res="2.5764331221580505e-03" rms="3.4285575151443481e-01" purity="8.4511625766754150e-01" nType="-99"/>
        </Node>
      </Node>
    </BinaryTree>
    <BinaryTree type="DecisionTree" boostWeight="1.0000000000000000e+00" itree="62">
      <Node pos="s" depth="0" NCoef="0" IVar="17" Cut="1.4830439090728760e+00" cType="1" res="8.2002937793731689e-02" rms="3.7887379527091980e-01" purity="5.0171142816543579e-01" nType="0">
        <Node pos="l" depth="1" NCoef="0" IVar="3" Cut="5.0417551994323730e+00" cType="1" res="-1.1666927486658096e-01" rms="2.8213542699813843e-01" purity="1.2179504334926605e-01" nType="0">
          <Node pos="l" depth="2" NCoef="0" IVar="-1" Cut="0.0000000000000000e+00" cType="1" res="-5.5805332958698273e-03" rms="2.3709550499916077e-01" purity="8.4100253880023956e-02" nType="-99"/>
          <Node pos="r" depth="2" NCoef="0" IVar="-1" Cut="0.0000000000000000e+00" cType="1" res="8.6151453433558345e-04" rms="3.9037099480628967e-01" purity="2.9175165295600891e-01" nType="-99"/>
        </Node>
        <Node pos="r" depth="1" NCoef="0" IVar="36" Cut="1.3123354315757751e-01" cType="1" res="2.3757651448249817e-01" rms="3.7216559052467346e-01" purity="7.9921132326126099e-01" nType="0">
          <Node pos="l" depth="2" NCoef="0" IVar="-1" Cut="0.0000000000000000e+00" cType="1" res="-1.0700576938688755e-02" rms="2.8383487462997437e-01" purity="8.9020252227783203e-02" nType="-99"/>
          <Node pos="r" depth="2" NCoef="0" IVar="-1" Cut="0.0000000000000000e+00" cType="1" res="2.4490857031196356e-03" rms="3.5091799497604370e-01" purity="8.4732228517532349e-01" nType="-99"/>
        </Node>
      </Node>
    </BinaryTree>
    <BinaryTree type="DecisionTree" boostWeight="1.0000000000000000e+00" itree="63">
      <Node pos="s" depth="0" NCoef="0" IVar="17" Cut="1.5209901332855225e+00" cType="1" res="7.7451042830944061e-02" rms="3.7519931793212891e-01" purity="4.9815747141838074e-01" nType="0">
        <Node pos="l" depth="1" NCoef="0" IVar="36" Cut="1.4057414531707764e+00" cType="1" res="-7.4631236493587494e-02" rms="3.3511599898338318e-01" purity="2.4538359045982361e-01" nType="0">
          <Node pos="l" depth="2" NCoef="0" IVar="-1" Cut="0.0000000000000000e+00" cType="1" res="-9.6493409946560860e-03" rms="1.8234851956367493e-01" purity="3.0287543311715126e-02" nType="-99"/>
          <Node pos="r" depth="2" NCoef="0" IVar="-1" Cut="0.0000000000000000e+00" cType="1" res="8.4883300587534904e-05" rms="3.8175261020660400e-01" purity="3.8207441568374634e-01" nType="-99"/>
        </Node>
        <Node pos="r" depth="1" NCoef="0" IVar="15" Cut="1.5227712392807007e+00" cType="1" res="2.9995223879814148e-01" rms="3.1477671861648560e-01" purity="8.6797362565994263e-01" nType="0">
          <Node pos="l" depth="2" NCoef="0" IVar="-1" Cut="0.0000000000000000e+00" cType="1" res="3.3234322909265757e-03" rms="2.3990233242511749e-01" purity="9.2685365676879883e-01" nType="-99"/>
          <Node pos="r" depth="2" NCoef="0" IVar="-1" Cut="0.0000000000000000e+00" cType="1" res="6.3091458287090063e-04" rms="4.5372313261032104e-01" purity="6.1660271883010864e-01" nType="-99"/>
        </Node>
      </Node>
    </BinaryTree>
    <BinaryTree type="DecisionTree" boostWeight="1.0000000000000000e+00" itree="64">
      <Node pos="s" depth="0" NCoef="0" IVar="17" Cut="1.4844523668289185e+00" cType="1" res="8.6936876177787781e-02" rms="3.7669816613197327e-01" purity="5.0726521015167236e-01" nType="0">
        <Node pos="l" depth="1" NCoef="0" IVar="2" Cut="2.6204826831817627e+00" cType="1" res="-1.0645516216754913e-01" rms="2.8834941983222961e-01" purity="1.3085648417472839e-01" nType="0">
          <Node pos="l" depth="2" NCoef="0" IVar="-1" Cut="0.0000000000000000e+00" cType="1" res="-6.7273620516061783e-03" rms="1.9833341240882874e-01" purity="5.5544234812259674e-02" nType="-99"/>
          <Node pos="r" depth="2" NCoef="0" IVar="-1" Cut="0.0000000000000000e+00" cType="1" res="2.2210745373740792e-04" rms="3.8699108362197876e-01" purity="2.8070950508117676e-01" nType="-99"/>
        </Node>
        <Node pos="r" depth="1" NCoef="0" IVar="36" Cut="9.0471291542053223e-01" cType="1" res="2.3867750167846680e-01" rms="3.6828318238258362e-01" purity="8.0260568857192993e-01" nType="0">
          <Node pos="l" depth="2" NCoef="0" IVar="-1" Cut="0.0000000000000000e+00" cType="1" res="-7.8157959505915642e-03" rms="3.1898775696754456e-01" purity="1.1776641011238098e-01" nType="-99"/>
          <Node pos="r" depth="2" NCoef="0" IVar="-1" Cut="0.0000000000000000e+00" cType="1" res="2.5190936867147684e-03" rms="3.4300467371940613e-01" purity="8.5855728387832642e-01" nType="-99"/>
        </Node>
      </Node>
    </BinaryTree>
    <BinaryTree type="DecisionTree" boostWeight="1.0000000000000000e+00" itree="65">
      <Node pos="s" depth="0" NCoef="0" IVar="17" Cut="1.4844523668289185e+00" cType="1" res="6.6381946206092834e-02" rms="3.7221157550811768e-01" purity="4.8612648248672485e-01" nType="0">
        <Node pos="l" depth="1" NCoef="0" IVar="5" Cut="2.9942679405212402e-01" cType="1" res="-1.4150421321392059e-01" rms="2.3955342173576355e-01" purity="9.0104982256889343e-02" nType="0">
          <Node pos="l" depth="2" NCoef="0" IVar="-1" Cut="0.0000000000000000e+00" cType="1" res="-1.8083690665662289e-03" rms="3.2546463608741760e-01" purity="1.8139626085758209e-01" nType="-99"/>
          <Node pos="r" depth="2" NCoef="0" IVar="-1" Cut="0.0000000000000000e+00" cType="1" res="-7.4752806685864925e-03" rms="1.3930787146091461e-01" purity="3.0526015907526016e-02" nType="-99"/>
        </Node>
        <Node pos="r" depth="1" NCoef="0" IVar="36" Cut="1.3300192356109619e+00" cType="1" res="2.2519184648990631e-01" rms="3.7723132967948914e-01" purity="7.8865814208984375e-01" nType="0">
          <Node pos="l" depth="2" NCoef="0" IVar="-1" Cut="0.0000000000000000e+00" cType="1" res="-3.3229182008653879e-03" rms="4.1396704316139221e-01" purity="2.3605987429618835e-01" nType="-99"/>
          <Node pos="r" depth="2" NCoef="0" IVar="-1" Cut="0.0000000000000000e+00" cType="1" res="2.4896881077438593e-03" rms="3.4092822670936584e-01" purity="8.6360353231430054e-01" nType="-99"/>
        </Node>
      </Node>
    </BinaryTree>
    <BinaryTree type="DecisionTree" boostWeight="1.0000000000000000e+00" itree="66">
      <Node pos="s" depth="0" NCoef="0" IVar="17" Cut="1.4833937883377075e+00" cType="1" res="7.6845034956932068e-02" rms="3.7463310360908508e-01" purity="4.9570375680923462e-01" nType="0">
        <Node pos="l" depth="1" NCoef="0" IVar="3" Cut="4.9840393066406250e+00" cType="1" res="-1.3138064742088318e-01" rms="2.5652980804443359e-01" purity="9.4367623329162598e-02" nType="0">
          <Node pos="l" depth="2" NCoef="0" IVar="-1" Cut="0.0000000000000000e+00" cType="1" res="-6.8833315744996071e-03" rms="1.9428808987140656e-01" purity="5.3888265043497086e-02" nType="-99"/>
          <Node pos="r" depth="2" NCoef="0" IVar="-1" Cut="0.0000000000000000e+00" cType="1" res="7.5672032835427672e-05" rms="3.7430399656295776e-01" purity="2.3533520102500916e-01" nType="-99"/>
        </Node>
        <Node pos="r" depth="1" NCoef="0" IVar="1" Cut="2.5801398754119873e+00" cType="1" res="2.3359405994415283e-01" rms="3.7316870689392090e-01" purity="7.9782325029373169e-01" nType="0">
          <Node pos="l" depth="2" NCoef="0" IVar="-1" Cut="0.0000000000000000e+00" cType="1" res="-1.4049857854843140e-03" rms="4.5680156350135803e-01" purity="3.9062404632568359e-01" nType="-99"/>
          <Node pos="r" depth="2" NCoef="0" IVar="-1" Cut="0.0000000000000000e+00" cType="1" res="2.6696135755628347e-03" rms="3.2544526457786560e-01" purity="8.6237365007400513e-01" nType="-99"/>
        </Node>
      </Node>
    </BinaryTree>
    <BinaryTree type="DecisionTree" boostWeight="1.0000000000000000e+00" itree="67">
      <Node pos="s" depth="0" NCoef="0" IVar="17" Cut="1.5220416784286499e+00" cType="1" res="6.7846149206161499e-02" rms="3.7089931964874268e-01" purity="4.8457649350166321e-01" nType="0">
        <Node pos="l" depth="1" NCoef="0" IVar="5" Cut="3.5801371932029724e-01" cType="1" res="-7.9314045608043671e-02" rms="3.2969108223915100e-01" purity="2.3607207834720612e-01" nType="0">
          <Node pos="l" depth="2" NCoef="0" IVar="-1" Cut="0.0000000000000000e+00" cType="1" res="1.9912589050363749e-04" rms="3.6751934885978699e-01" purity="3.5506534576416016e-01" nType="-99"/>
          <Node pos="r" depth="2" NCoef="0" IVar="-1" Cut="0.0000000000000000e+00" cType="1" res="-4.2419987730681896e-03" rms="2.3759353160858154e-01" purity="9.5381729304790497e-02" nType="-99"/>
        </Node>
        <Node pos="r" depth="1" NCoef="0" IVar="15" Cut="1.5221256017684937e+00" cType="1" res="2.9712986946105957e-01" rms="3.1021770834922791e-01" purity="8.7176012992858887e-01" nType="0">
          <Node pos="l" depth="2" NCoef="0" IVar="-1" Cut="0.0000000000000000e+00" cType="1" res="3.3615333959460258e-03" rms="2.2522497177124023e-01" purity="9.3489599227905273e-01" nType="-99"/>
          <Node pos="r" depth="2" NCoef="0" IVar="-1" Cut="0.0000000000000000e+00" cType="1" res="6.4268370624631643e-04" rms="4.5301848649978638e-01" purity="6.2339514493942261e-01" nType="-99"/>
        </Node>
      </Node>
    </BinaryTree>
    <BinaryTree type="DecisionTree" boostWeight="1.0000000000000000e+00" itree="68">
      <Node pos="s" depth="0" NCoef="0" IVar="17" Cut="1.4828280210494995e+00" cType="1" res="7.6846212148666382e-02" rms="3.6974990367889404e-01" purity="4.9901100993156433e-01" nType="0">
        <Node pos="l" depth="1" NCoef="0" IVar="0" Cut="6.2222844362258911e-01" cType="1" res="-1.4583972096443176e-01" rms="2.2888824343681335e-01" purity="7.3075711727142334e-02" nType="0">
          <Node pos="l" depth="2" NCoef="0" IVar="-1" Cut="0.0000000000000000e+00" cType="1" res="-2.3115365765988827e-03" rms="3.2043921947479248e-01" purity="1.5396498143672943e-01" nType="-99"/>
          <Node pos="r" depth="2" NCoef="0" IVar="-1" Cut="0.0000000000000000e+00" cType="1" res="-9.5028346404433250e-03" rms="0.0000000000000000e+00" purity="-1.9301220774650574e-02" nType="-99"/>
        </Node>
        <Node pos="r" depth="1" NCoef="0" IVar="36" Cut="1.2913550138473511e+00" cType="1" res="2.3530909419059753e-01" rms="3.6921900510787964e-01" purity="8.0210572481155396e-01" nType="0">
          <Node pos="l" depth="2" NCoef="0" IVar="-1" Cut="0.0000000000000000e+00" cType="1" res="-2.5450482498854399e-03" rms="4.2453119158744812e-01" purity="2.5902444124221802e-01" nType="-99"/>
          <Node pos="r" depth="2" NCoef="0" IVar="-1" Cut="0.0000000000000000e+00" cType="1" res="2.4994020350277424e-03" rms="3.3742436766624451e-01" purity="8.6638295650482178e-01" nType="-99"/>
        </Node>
      </Node>
    </BinaryTree>
    <BinaryTree type="DecisionTree" boostWeight="1.0000000000000000e+00" itree="69">
      <Node pos="s" depth="0" NCoef="0" IVar="17" Cut="1.4833937883377075e+00" cType="1" res="8.6422704160213470e-02" rms="3.7122172117233276e-01" purity="5.0978195667266846e-01" nType="0">
        <Node pos="l" depth="1" NCoef="0" IVar="5" Cut="2.2755880653858185e-01" cType="1" res="-1.2288033962249756e-01" rms="2.6230600476264954e-01" purity="1.0036877542734146e-01" nType="0">
          <Node pos="l" depth="2" NCoef="0" IVar="-1" Cut="0.0000000000000000e+00" cType="1" res="-4.6258704969659448e-04" rms="3.6139345169067383e-01" purity="2.2893209755420685e-01" nType="-99"/>
          <Node pos="r" depth="2" NCoef="0" IVar="-1" Cut="0.0000000000000000e+00" cType="1" res="-7.2833867743611336e-03" rms="1.5886315703392029e-01" purity="2.9446531087160110e-02" nType="-99"/>
        </Node>
        <Node pos="r" depth="1" NCoef="0" IVar="36" Cut="9.4337713718414307e-01" cType="1" res="2.3743188381195068e-01" rms="3.6493623256683350e-01" purity="8.0516773462295532e-01" nType="0">
          <Node pos="l" depth="2" NCoef="0" IVar="-1" Cut="0.0000000000000000e+00" cType="1" res="-5.5984514765441418e-03" rms="3.6517763137817383e-01" purity="1.6285359859466553e-01" nType="-99"/>
          <Node pos="r" depth="2" NCoef="0" IVar="-1" Cut="0.0000000000000000e+00" cType="1" res="2.5079767219722271e-03" rms="3.3970329165458679e-01" purity="8.6104166507720947e-01" nType="-99"/>
        </Node>
      </Node>
    </BinaryTree>
    <BinaryTree type="DecisionTree" boostWeight="1.0000000000000000e+00" itree="70">
      <Node pos="s" depth="0" NCoef="0" IVar="17" Cut="1.4844523668289185e+00" cType="1" res="8.0562166869640350e-02" rms="3.7169277667999268e-01" purity="5.0080358982086182e-01" nType="0">
        <Node pos="l" depth="1" NCoef="0" IVar="17" Cut="1.4467279911041260e+00" cType="1" res="-1.1515507847070694e-01" rms="2.6457849144935608e-01" purity="1.1026839166879654e-01" nType="0">
          <Node pos="l" depth="2" NCoef="0" IVar="-1" Cut="0.0000000000000000e+00" cType="1" res="-7.9166619107127190e-03" rms="1.7652224004268646e-01" purity="3.9061795920133591e-02" nType="-99"/>
          <Node pos="r" depth="2" NCoef="0" IVar="-1" Cut="0.0000000000000000e+00" cType="1" res="3.9559727883897722e-04" rms="4.7779136896133423e-01" purity="4.5027470588684082e-01" nType="-99"/>
        </Node>
        <Node pos="r" depth="1" NCoef="0" IVar="1" Cut="2.5987524986267090e+00" cType="1" res="2.2955507040023804e-01" rms="3.7239667773246765e-01" purity="7.9810482263565063e-01" nType="0">
          <Node pos="l" depth="2" NCoef="0" IVar="-1" Cut="0.0000000000000000e+00" cType="1" res="-9.9855184089392424e-04" rms="4.5168364048004150e-01" purity="4.3379905819892883e-01" nType="-99"/>
          <Node pos="r" depth="2" NCoef="0" IVar="-1" Cut="0.0000000000000000e+00" cType="1" res="2.6380203198641539e-03" rms="3.2907375693321228e-01" purity="8.5881048440933228e-01" nType="-99"/>
        </Node>
      </Node>
    </BinaryTree>
    <BinaryTree type="DecisionTree" boostWeight="1.0000000000000000e+00" itree="71">
      <Node pos="s" depth="0" NCoef="0" IVar="17" Cut="1.5220416784286499e+00" cType="1" res="7.2540648281574249e-02" rms="3.6690145730972290e-01" purity="4.9427238106727600e-01" nType="0">
        <Node pos="l" depth="1" NCoef="0" IVar="17" Cut="1.4456998109817505e+00" cType="1" res="-6.5110020339488983e-02" rms="3.2903307676315308e-01" purity="2.5352174043655396e-01" nType="0">
          <Node pos="l" depth="2" NCoef="0" IVar="-1" Cut="0.0000000000000000e+00" cType="1" res="-9.0922601521015167e-03" rms="1.4418700337409973e-01" purity="2.7665512636303902e-02" nType="-99"/>
          <Node pos="r" depth="2" NCoef="0" IVar="-1" Cut="0.0000000000000000e+00" cType="1" res="6.4851250499486923e-04" rms="4.5285636186599731e-01" purity="5.7820188999176025e-01" nType="-99"/>
        </Node>
        <Node pos="r" depth="1" NCoef="0" IVar="15" Cut="1.5224903821945190e+00" cType="1" res="2.8389018774032593e-01" rms="3.1830734014511108e-01" purity="8.6392217874526978e-01" nType="0">
          <Node pos="l" depth="2" NCoef="0" IVar="-1" Cut="0.0000000000000000e+00" cType="1" res="3.2605177257210016e-03" rms="2.3473714292049408e-01" purity="9.2968791723251343e-01" nType="-99"/>
          <Node pos="r" depth="2" NCoef="0" IVar="-1" Cut="0.0000000000000000e+00" cType="1" res="5.8362347772344947e-04" rms="4.5164069533348083e-01" purity="6.2243145704269409e-01" nType="-99"/>
        </Node>
      </Node>
    </BinaryTree>
    <BinaryTree type="DecisionTree" boostWeight="1.0000000000000000e+00" itree="72">
      <Node pos="s" depth="0" NCoef="0" IVar="17" Cut="1.4844523668289185e+00" cType="1" res="7.7943600714206696e-02" rms="3.6748203635215759e-01" purity="4.9959436058998108e-01" nType="0">
        <Node pos="l" depth="1" NCoef="0" IVar="27" Cut="3.0516173839569092e+00" cType="1" res="-1.2449724972248077e-01" rms="2.5070533156394958e-01" purity="9.5241524279117584e-02" nType="0">
          <Node pos="l" depth="2" NCoef="0" IVar="-1" Cut="0.0000000000000000e+00" cType="1" res="-5.6224660947918892e-03" rms="2.0482338964939117e-01" purity="6.2092743813991547e-02" nType="-99"/>
          <Node pos="r" depth="2" NCoef="0" IVar="-1" Cut="0.0000000000000000e+00" cType="1" res="7.2709034429863095e-04" rms="3.9762711524963379e-01" purity="2.9241847991943359e-01" nType="-99"/>
        </Node>
        <Node pos="r" depth="1" NCoef="0" IVar="36" Cut="1.4073475599288940e+00" cType="1" res="2.2841334342956543e-01" rms="3.6823606491088867e-01" purity="8.0014073848724365e-01" nType="0">
          <Node pos="l" depth="2" NCoef="0" IVar="-1" Cut="0.0000000000000000e+00" cType="1" res="-1.4985328307375312e-03" rms="4.4226798415184021e-01" purity="3.3715847134590149e-01" nType="-99"/>
          <Node pos="r" depth="2" NCoef="0" IVar="-1" Cut="0.0000000000000000e+00" cType="1" res="2.5459208991378546e-03" rms="3.2557687163352966e-01" purity="8.7736278772354126e-01" nType="-99"/>
        </Node>
      </Node>
    </BinaryTree>
    <BinaryTree type="DecisionTree" boostWeight="1.0000000000000000e+00" itree="73">
      <Node pos="s" depth="0" NCoef="0" IVar="17" Cut="1.5231137275695801e+00" cType="1" res="7.2746656835079193e-02" rms="3.7059062719345093e-01" purity="4.8948973417282104e-01" nType="0">
        <Node pos="l" depth="1" NCoef="0" IVar="2" Cut="2.5510685443878174e+00" cType="1" res="-5.7356443256139755e-02" rms="3.4116110205650330e-01" purity="2.5931194424629211e-01" nType="0">
          <Node pos="l" depth="2" NCoef="0" IVar="-1" Cut="0.0000000000000000e+00" cType="1" res="-3.7213061004877090e-03" rms="2.8294250369071960e-01" purity="1.3925148546695709e-01" nType="-99"/>
          <Node pos="r" depth="2" NCoef="0" IVar="-1" Cut="0.0000000000000000e+00" cType="1" res="8.6688343435525894e-04" rms="3.8054704666137695e-01" purity="4.3422216176986694e-01" nType="-99"/>
        </Node>
        <Node pos="r" depth="1" NCoef="0" IVar="15" Cut="1.5225082635879517e+00" cType="1" res="2.8437712788581848e-01" rms="3.1478333473205566e-01" purity="8.6390525102615356e-01" nType="0">
          <Node pos="l" depth="2" NCoef="0" IVar="-1" Cut="0.0000000000000000e+00" cType="1" res="3.3305154647678137e-03" rms="2.2946646809577942e-01" purity="9.3122899532318115e-01" nType="-99"/>
          <Node pos="r" depth="2" NCoef="0" IVar="-1" Cut="0.0000000000000000e+00" cType="1" res="5.9561827220022678e-04" rms="4.4927117228507996e-01" purity="6.1830312013626099e-01" nType="-99"/>
        </Node>
      </Node>
    </BinaryTree>
    <BinaryTree type="DecisionTree" boostWeight="1.0000000000000000e+00" itree="74">
      <Node pos="s" depth="0" NCoef="0" IVar="17" Cut="1.4457910060882568e+00" cType="1" res="7.8994885087013245e-02" rms="3.6619991064071655e-01" purity="5.0105464458465576e-01" nType="0">
        <Node pos="l" depth="1" NCoef="0" IVar="5" Cut="3.3735799789428711e-01" cType="1" res="-1.4911527931690216e-01" rms="1.5803855657577515e-01" purity="2.8482243418693542e-02" nType="0">
          <Node pos="l" depth="2" NCoef="0" IVar="-1" Cut="0.0000000000000000e+00" cType="1" res="-4.0962379425764084e-03" rms="2.7153280377388000e-01" purity="9.1693900525569916e-02" nType="-99"/>
          <Node pos="r" depth="2" NCoef="0" IVar="-1" Cut="0.0000000000000000e+00" cType="1" res="-1.4761739410459995e-02" rms="0.0000000000000000e+00" purity="-2.5355638936161995e-02" nType="-99"/>
        </Node>
        <Node pos="r" depth="1" NCoef="0" IVar="36" Cut="1.3686834573745728e+00" cType="1" res="2.0320622622966766e-01" rms="3.8699069619178772e-01" purity="7.5838142633438110e-01" nType="0">
          <Node pos="l" depth="2" NCoef="0" IVar="-1" Cut="0.0000000000000000e+00" cType="1" res="-2.8331035282462835e-03" rms="4.0132462978363037e-01" purity="2.4571989476680756e-01" nType="-99"/>
          <Node pos="r" depth="2" NCoef="0" IVar="-1" Cut="0.0000000000000000e+00" cType="1" res="2.3643029853701591e-03" rms="3.5159814357757568e-01" purity="8.4263342618942261e-01" nType="-99"/>
        </Node>
      </Node>
    </BinaryTree>
    <BinaryTree type="DecisionTree" boostWeight="1.0000000000000000e+00" itree="75">
      <Node pos="s" depth="0" NCoef="0" IVar="17" Cut="1.4844523668289185e+00" cType="1" res="8.8225387036800385e-02" rms="3.6878791451454163e-01" purity="5.0992989540100098e-01" nType="0">
        <Node pos="l" depth="1" NCoef="0" IVar="5" Cut="2.8427755832672119e-01" cType="1" res="-9.6717663109302521e-02" rms="2.8055322170257568e-01" purity="1.2276814877986908e-01" nType="0">
          <Node pos="l" depth="2" NCoef="0" IVar="-1" Cut="0.0000000000000000e+00" cType="1" res="-2.8241355903446674e-04" rms="3.5968306660652161e-01" purity="2.3027688264846802e-01" nType="-99"/>
          <Node pos="r" depth="2" NCoef="0" IVar="-1" Cut="0.0000000000000000e+00" cType="1" res="-5.8095706626772881e-03" rms="1.9623816013336182e-01" purity="5.3826320916414261e-02" nType="-99"/>
        </Node>
        <Node pos="r" depth="1" NCoef="0" IVar="36" Cut="1.4073475599288940e+00" cType="1" res="2.2730667889118195e-01" rms="3.6609488725662231e-01" purity="8.0108410120010376e-01" nType="0">
          <Node pos="l" depth="2" NCoef="0" IVar="-1" Cut="0.0000000000000000e+00" cType="1" res="-1.5166944358497858e-03" rms="4.4180482625961304e-01" purity="3.2846292853355408e-01" nType="-99"/>
          <Node pos="r" depth="2" NCoef="0" IVar="-1" Cut="0.0000000000000000e+00" cType="1" res="2.5170133449137211e-03" rms="3.2277882099151611e-01" purity="8.7943917512893677e-01" nType="-99"/>
        </Node>
      </Node>
    </BinaryTree>
    <BinaryTree type="DecisionTree" boostWeight="1.0000000000000000e+00" itree="76">
      <Node pos="s" depth="0" NCoef="0" IVar="17" Cut="1.4833937883377075e+00" cType="1" res="7.2925910353660583e-02" rms="3.6111393570899963e-01" purity="4.9180397391319275e-01" nType="0">
        <Node pos="l" depth="1" NCoef="0" IVar="5" Cut="2.9884493350982666e-01" cType="1" res="-1.2740822136402130e-01" rms="2.3036880791187286e-01" purity="8.3881422877311707e-02" nType="0">
          <Node pos="l" depth="2" NCoef="0" IVar="-1" Cut="0.0000000000000000e+00" cType="1" res="-1.8940817099064589e-03" rms="3.1498488783836365e-01" purity="1.6607587039470673e-01" nType="-99"/>
          <Node pos="r" depth="2" NCoef="0" IVar="-1" Cut="0.0000000000000000e+00" cType="1" res="-7.1379817090928555e-03" rms="1.3792651891708374e-01" purity="3.0929895117878914e-02" nType="-99"/>
        </Node>
        <Node pos="r" depth="1" NCoef="0" IVar="36" Cut="1.4460117816925049e+00" cType="1" res="2.2259742021560669e-01" rms="3.6850234866142273e-01" purity="7.9656678438186646e-01" nType="0">
          <Node pos="l" depth="2" NCoef="0" IVar="-1" Cut="0.0000000000000000e+00" cType="1" res="-1.1148494668304920e-03" rms="4.4600152969360352e-01" purity="3.7719321250915527e-01" nType="-99"/>
          <Node pos="r" depth="2" NCoef="0" IVar="-1" Cut="0.0000000000000000e+00" cType="1" res="2.5596653576940298e-03" rms="3.1658893823623657e-01" purity="8.8463985919952393e-01" nType="-99"/>
        </Node>
      </Node>
    </BinaryTree>
    <BinaryTree type="DecisionTree" boostWeight="1.0000000000000000e+00" itree="77">
      <Node pos="s" depth="0" NCoef="0" IVar="17" Cut="1.5231137275695801e+00" cType="1" res="8.0348238348960876e-02" rms="3.6637991666793823e-01" purity="4.9820673465728760e-01" nType="0">
        <Node pos="l" depth="1" NCoef="0" IVar="17" Cut="1.4467365741729736e+00" cType="1" res="-4.6792224049568176e-02" rms="3.4000533819198608e-01" purity="2.6946967840194702e-01" nType="0">
          <Node pos="l" depth="2" NCoef="0" IVar="-1" Cut="0.0000000000000000e+00" cType="1" res="-7.6274746097624302e-03" rms="1.8318225443363190e-01" purity="4.0168892592191696e-02" nType="-99"/>
          <Node pos="r" depth="2" NCoef="0" IVar="-1" Cut="0.0000000000000000e+00" cType="1" res="7.2348618414252996e-04" rms="4.5260155200958252e-01" purity="5.8751213550567627e-01" nType="-99"/>
        </Node>
        <Node pos="r" depth="1" NCoef="0" IVar="15" Cut="1.5233229398727417e+00" cType="1" res="2.8836345672607422e-01" rms="3.0821812152862549e-01" purity="8.7244486808776855e-01" nType="0">
          <Node pos="l" depth="2" NCoef="0" IVar="-1" Cut="0.0000000000000000e+00" cType="1" res="3.2839905470609665e-03" rms="2.2815583646297455e-01" purity="9.3376028537750244e-01" nType="-99"/>
          <Node pos="r" depth="2" NCoef="0" IVar="-1" Cut="0.0000000000000000e+00" cType="1" res="5.5690354201942682e-04" rms="4.5172423124313354e-01" purity="6.1676180362701416e-01" nType="-99"/>
        </Node>
      </Node>
    </BinaryTree>
    <BinaryTree type="DecisionTree" boostWeight="1.0000000000000000e+00" itree="78">
      <Node pos="s" depth="0" NCoef="0" IVar="17" Cut="1.5231137275695801e+00" cType="1" res="7.2046197950839996e-02" rms="3.6518421769142151e-01" purity="4.8630625009536743e-01" nType="0">
        <Node pos="l" depth="1" NCoef="0" IVar="17" Cut="1.4467365741729736e+00" cType="1" res="-5.4010383784770966e-02" rms="3.3528757095336914e-01" purity="2.5791704654693604e-01" nType="0">
          <Node pos="l" depth="2" NCoef="0" IVar="-1" Cut="0.0000000000000000e+00" cType="1" res="-7.6336553320288658e-03" rms="1.6719596087932587e-01" purity="3.4829277545213699e-02" nType="-99"/>
          <Node pos="r" depth="2" NCoef="0" IVar="-1" Cut="0.0000000000000000e+00" cType="1" res="6.4144592033699155e-04" rms="4.5676761865615845e-01" purity="5.7432729005813599e-01" nType="-99"/>
        </Node>
        <Node pos="r" depth="1" NCoef="0" IVar="15" Cut="1.5233229398727417e+00" cType="1" res="2.8169050812721252e-01" rms="3.1274580955505371e-01" purity="8.6613959074020386e-01" nType="0">
          <Node pos="l" depth="2" NCoef="0" IVar="-1" Cut="0.0000000000000000e+00" cType="1" res="3.2639845740050077e-03" rms="2.3373769223690033e-01" purity="9.2955809831619263e-01" nType="-99"/>
          <Node pos="r" depth="2" NCoef="0" IVar="-1" Cut="0.0000000000000000e+00" cType="1" res="5.5235665058717132e-04" rms="4.4978299736976624e-01" purity="6.1550295352935791e-01" nType="-99"/>
        </Node>
      </Node>
    </BinaryTree>
    <BinaryTree type="DecisionTree" boostWeight="1.0000000000000000e+00" itree="79">
      <Node pos="s" depth="0" NCoef="0" IVar="17" Cut="1.5220416784286499e+00" cType="1" res="7.9959988594055176e-02" rms="3.6346778273582458e-01" purity="4.9808284640312195e-01" nType="0">
        <Node pos="l" depth="1" NCoef="0" IVar="17" Cut="1.4075287580490112e+00" cType="1" res="-4.5002665370702744e-02" rms="3.3602496981620789e-01" purity="2.6590147614479065e-01" nType="0">
          <Node pos="l" depth="2" NCoef="0" IVar="-1" Cut="0.0000000000000000e+00" cType="1" res="-1.0398568585515022e-02" rms="1.1808096617460251e-01" purity="1.6728419810533524e-02" nType="-99"/>
          <Node pos="r" depth="2" NCoef="0" IVar="-1" Cut="0.0000000000000000e+00" cType="1" res="6.7092978861182928e-04" rms="4.5006814599037170e-01" purity="5.4844051599502563e-01" nType="-99"/>
        </Node>
        <Node pos="r" depth="1" NCoef="0" IVar="15" Cut="1.5224903821945190e+00" cType="1" res="2.7661585807800293e-01" rms="3.1475359201431274e-01" purity="8.6347067356109619e-01" nType="0">
          <Node pos="l" depth="2" NCoef="0" IVar="-1" Cut="0.0000000000000000e+00" cType="1" res="3.2083494588732719e-03" rms="2.3040278255939484e-01" purity="9.3051743507385254e-01" nType="-99"/>
          <Node pos="r" depth="2" NCoef="0" IVar="-1" Cut="0.0000000000000000e+00" cType="1" res="5.0431489944458008e-04" rms="4.5152968168258667e-01" purity="6.1314105987548828e-01" nType="-99"/>
        </Node>
      </Node>
    </BinaryTree>
    <BinaryTree type="DecisionTree" boostWeight="1.0000000000000000e+00" itree="80">
      <Node pos="s" depth="0" NCoef="0" IVar="17" Cut="1.4830439090728760e+00" cType="1" res="8.6640924215316772e-02" rms="3.6475345492362976e-01" purity="5.0316077470779419e-01" nType="0">
        <Node pos="l" depth="1" NCoef="0" IVar="5" Cut="2.3044461011886597e-01" cType="1" res="-9.6220679581165314e-02" rms="2.6832348108291626e-01" purity="1.0858034342527390e-01" nType="0">
          <Node pos="l" depth="2" NCoef="0" IVar="-1" Cut="0.0000000000000000e+00" cType="1" res="-4.5218702871352434e-04" rms="3.5617029666900635e-01" purity="2.0967599749565125e-01" nType="-99"/>
          <Node pos="r" depth="2" NCoef="0" IVar="-1" Cut="0.0000000000000000e+00" cType="1" res="-5.5840020067989826e-03" rms="1.9671109318733215e-01" purity="5.6372534483671188e-02" nType="-99"/>
        </Node>
        <Node pos="r" depth="1" NCoef="0" IVar="1" Cut="2.3381862640380859e+00" cType="1" res="2.2405660152435303e-01" rms="3.6730045080184937e-01" purity="7.9967761039733887e-01" nType="0">
          <Node pos="l" depth="2" NCoef="0" IVar="-1" Cut="0.0000000000000000e+00" cType="1" res="-2.9150759801268578e-03" rms="4.2085742950439453e-01" purity="2.7168664336204529e-01" nType="-99"/>
          <Node pos="r" depth="2" NCoef="0" IVar="-1" Cut="0.0000000000000000e+00" cType="1" res="2.4788239970803261e-03" rms="3.3847749233245850e-01" purity="8.4302848577499390e-01" nType="-99"/>
        </Node>
      </Node>
    </BinaryTree>
    <BinaryTree type="DecisionTree" boostWeight="1.0000000000000000e+00" itree="81">
      <Node pos="s" depth="0" NCoef="0" IVar="17" Cut="1.5231137275695801e+00" cType="1" res="6.9285653531551361e-02" rms="3.5763666033744812e-01" purity="4.8809185624122620e-01" nType="0">
        <Node pos="l" depth="1" NCoef="0" IVar="2" Cut="2.4145705699920654e+00" cType="1" res="-5.8949634432792664e-02" rms="3.2294028997421265e-01" purity="2.5372642278671265e-01" nType="0">
          <Node pos="l" depth="2" NCoef="0" IVar="-1" Cut="0.0000000000000000e+00" cType="1" res="-5.1325829699635506e-03" rms="2.1613681316375732e-01" purity="9.0592481195926666e-02" nType="-99"/>
          <Node pos="r" depth="2" NCoef="0" IVar="-1" Cut="0.0000000000000000e+00" cType="1" res="7.5665727490559220e-04" rms="3.7113821506500244e-01" purity="4.2000699043273926e-01" nType="-99"/>
        </Node>
        <Node pos="r" depth="1" NCoef="0" IVar="15" Cut="1.5230776071548462e+00" cType="1" res="2.7657938003540039e-01" rms="3.1068065762519836e-01" purity="8.6694610118865967e-01" nType="0">
          <Node pos="l" depth="2" NCoef="0" IVar="-1" Cut="0.0000000000000000e+00" cType="1" res="3.2103909179568291e-03" rms="2.3135407269001007e-01" purity="9.2958199977874756e-01" nType="-99"/>
          <Node pos="r" depth="2" NCoef="0" IVar="-1" Cut="0.0000000000000000e+00" cType="1" res="5.9738539857789874e-04" rms="4.4797903299331665e-01" purity="6.2650448083877563e-01" nType="-99"/>
        </Node>
      </Node>
    </BinaryTree>
    <BinaryTree type="DecisionTree" boostWeight="1.0000000000000000e+00" itree="82">
      <Node pos="s" depth="0" NCoef="0" IVar="17" Cut="1.5231137275695801e+00" cType="1" res="8.1167533993721008e-02" rms="3.6046490073204041e-01" purity="4.9984961748123169e-01" nType="0">
        <Node pos="l" depth="1" NCoef="0" IVar="5" Cut="2.8046363592147827e-01" cType="1" res="-5.1593493670225143e-02" rms="3.3151257038116455e-01" purity="2.5740098953247070e-01" nType="0">
          <Node pos="l" depth="2" NCoef="0" IVar="-1" Cut="0.0000000000000000e+00" cType="1" res="9.2297600349411368e-04" rms="3.6914291977882385e-01" purity="4.1702324151992798e-01" nType="-99"/>
          <Node pos="r" depth="2" NCoef="0" IVar="-1" Cut="0.0000000000000000e+00" cType="1" res="-3.0416019726544619e-03" rms="2.6850306987762451e-01" purity="1.2996992468833923e-01" nType="-99"/>
        </Node>
        <Node pos="r" depth="1" NCoef="0" IVar="15" Cut="1.5227357149124146e+00" cType="1" res="2.8799986839294434e-01" rms="3.0150982737541199e-01" purity="8.7756752967834473e-01" nType="0">
          <Node pos="l" depth="2" NCoef="0" IVar="-1" Cut="0.0000000000000000e+00" cType="1" res="3.2530785538256168e-03" rms="2.2408209741115570e-01" purity="9.3597072362899780e-01" nType="-99"/>
          <Node pos="r" depth="2" NCoef="0" IVar="-1" Cut="0.0000000000000000e+00" cType="1" res="8.4602978313341737e-04" rms="4.4002282619476318e-01" purity="6.5299695730209351e-01" nType="-99"/>
        </Node>
      </Node>
    </BinaryTree>
    <BinaryTree type="DecisionTree" boostWeight="1.0000000000000000e+00" itree="83">
      <Node pos="s" depth="0" NCoef="0" IVar="17" Cut="1.4447457790374756e+00" cType="1" res="8.8252730667591095e-02" rms="3.6316484212875366e-01" purity="5.0823467969894409e-01" nType="0">
        <Node pos="l" depth="1" NCoef="0" IVar="25" Cut="9.4243693351745605e-01" cType="1" res="-1.1581114679574966e-01" rms="1.9927017390727997e-01" purity="4.9451448023319244e-02" nType="0">
          <Node pos="l" depth="2" NCoef="0" IVar="-1" Cut="0.0000000000000000e+00" cType="1" res="-2.3088350426405668e-03" rms="2.9187366366386414e-01" purity="1.1365161836147308e-01" nType="-99"/>
          <Node pos="r" depth="2" NCoef="0" IVar="-1" Cut="0.0000000000000000e+00" cType="1" res="-1.2519412674009800e-02" rms="8.9756257832050323e-02" purity="9.7257476300001144e-03" nType="-99"/>
        </Node>
        <Node pos="r" depth="1" NCoef="0" IVar="36" Cut="1.4068046808242798e+00" cType="1" res="2.0084227621555328e-01" rms="3.8353094458580017e-01" purity="7.6136219501495361e-01" nType="0">
          <Node pos="l" depth="2" NCoef="0" IVar="-1" Cut="0.0000000000000000e+00" cType="1" res="-1.7012564931064844e-03" rms="4.3153968453407288e-01" purity="3.1044572591781616e-01" nType="-99"/>
          <Node pos="r" depth="2" NCoef="0" IVar="-1" Cut="0.0000000000000000e+00" cType="1" res="2.3674713447690010e-03" rms="3.4475967288017273e-01" purity="8.4760212898254395e-01" nType="-99"/>
        </Node>
      </Node>
    </BinaryTree>
    <BinaryTree type="DecisionTree" boostWeight="1.0000000000000000e+00" itree="84">
      <Node pos="s" depth="0" NCoef="0" IVar="17" Cut="1.5220416784286499e+00" cType="1" res="8.0201759934425354e-02" rms="3.6169078946113586e-01" purity="4.9737173318862915e-01" nType="0">
        <Node pos="l" depth="1" NCoef="0" IVar="1" Cut="2.7940342426300049e+00" cType="1" res="-4.8022024333477020e-02" rms="3.3575850725173950e-01" purity="2.5707885622978210e-01" nType="0">
          <Node pos="l" depth="2" NCoef="0" IVar="-1" Cut="0.0000000000000000e+00" cType="1" res="-5.2849273197352886e-03" rms="2.1889200806617737e-01" purity="8.3864934742450714e-02" nType="-99"/>
          <Node pos="r" depth="2" NCoef="0" IVar="-1" Cut="0.0000000000000000e+00" cType="1" res="4.9433700041845441e-04" rms="3.7255683541297913e-01" purity="3.6918765306472778e-01" nType="-99"/>
        </Node>
        <Node pos="r" depth="1" NCoef="0" IVar="15" Cut="1.5233229398727417e+00" cType="1" res="2.7865025401115417e-01" rms="3.0656898021697998e-01" purity="8.6926651000976562e-01" nType="0">
          <Node pos="l" depth="2" NCoef="0" IVar="-1" Cut="0.0000000000000000e+00" cType="1" res="3.2074216287583113e-03" rms="2.2867512702941895e-01" purity="9.3121892213821411e-01" nType="-99"/>
          <Node pos="r" depth="2" NCoef="0" IVar="-1" Cut="0.0000000000000000e+00" cType="1" res="5.9311115182936192e-04" rms="4.4750761985778809e-01" purity="6.1817169189453125e-01" nType="-99"/>
        </Node>
      </Node>
    </BinaryTree>
    <BinaryTree type="DecisionTree" boostWeight="1.0000000000000000e+00" itree="85">
      <Node pos="s" depth="0" NCoef="0" IVar="17" Cut="1.4830439090728760e+00" cType="1" res="8.2641229033470154e-02" rms="3.6048123240470886e-01" purity="4.9915271997451782e-01" nType="0">
        <Node pos="l" depth="1" NCoef="0" IVar="5" Cut="3.0340620875358582e-01" cType="1" res="-9.2601016163825989e-02" rms="2.7001670002937317e-01" purity="1.0760068893432617e-01" nType="0">
          <Node pos="l" depth="2" NCoef="0" IVar="-1" Cut="0.0000000000000000e+00" cType="1" res="-5.1809678552672267e-04" rms="3.5387408733367920e-01" purity="1.9752895832061768e-01" nType="-99"/>
          <Node pos="r" depth="2" NCoef="0" IVar="-1" Cut="0.0000000000000000e+00" cType="1" res="-5.7846736162900925e-03" rms="1.7599029839038849e-01" purity="4.6545248478651047e-02" nType="-99"/>
        </Node>
        <Node pos="r" depth="1" NCoef="0" IVar="36" Cut="1.3296864032745361e+00" cType="1" res="2.1715047955513000e-01" rms="3.6340367794036865e-01" purity="7.9969304800033569e-01" nType="0">
          <Node pos="l" depth="2" NCoef="0" IVar="-1" Cut="0.0000000000000000e+00" cType="1" res="-3.0984664335846901e-03" rms="4.0452432632446289e-01" purity="2.3709170520305634e-01" nType="-99"/>
          <Node pos="r" depth="2" NCoef="0" IVar="-1" Cut="0.0000000000000000e+00" cType="1" res="2.4006180465221405e-03" rms="3.3020991086959839e-01" purity="8.6986553668975830e-01" nType="-99"/>
        </Node>
      </Node>
    </BinaryTree>
    <BinaryTree type="DecisionTree" boostWeight="1.0000000000000000e+00" itree="86">
      <Node pos="s" depth="0" NCoef="0" IVar="17" Cut="1.4824117422103882e+00" cType="1" res="6.9817550480365753e-02" rms="3.5341748595237732e-01" purity="4.8791915178298950e-01" nType="0">
        <Node pos="l" depth="1" NCoef="0" IVar="41" Cut="-1.4054884016513824e-01" cType="1" res="-1.2439484894275665e-01" rms="2.1473780274391174e-01" purity="7.0501156151294708e-02" nType="0">
          <Node pos="l" depth="2" NCoef="0" IVar="-1" Cut="0.0000000000000000e+00" cType="1" res="-4.8331197467632592e-04" rms="3.3907502889633179e-01" purity="1.9237497448921204e-01" nType="-99"/>
          <Node pos="r" depth="2" NCoef="0" IVar="-1" Cut="0.0000000000000000e+00" cType="1" res="-5.9835198335349560e-03" rms="1.7679551243782043e-01" purity="4.8576049506664276e-02" nType="-99"/>
        </Node>
        <Node pos="r" depth="1" NCoef="0" IVar="1" Cut="2.2605278491973877e+00" cType="1" res="2.1301321685314178e-01" rms="3.6699149012565613e-01" purity="7.9568761587142944e-01" nType="0">
          <Node pos="l" depth="2" NCoef="0" IVar="-1" Cut="0.0000000000000000e+00" cType="1" res="-4.0086084045469761e-03" rms="3.5171902179718018e-01" purity="2.0012167096138000e-01" nType="-99"/>
          <Node pos="r" depth="2" NCoef="0" IVar="-1" Cut="0.0000000000000000e+00" cType="1" res="2.3344252258539200e-03" rms="3.4326094388961792e-01" purity="8.3460623025894165e-01" nType="-99"/>
        </Node>
      </Node>
    </BinaryTree>
    <BinaryTree type="DecisionTree" boostWeight="1.0000000000000000e+00" itree="87">
      <Node pos="s" depth="0" NCoef="0" IVar="17" Cut="1.4447457790374756e+00" cType="1" res="8.2445837557315826e-02" rms="3.5886204242706299e-01" purity="5.0007706880569458e-01" nType="0">
        <Node pos="l" depth="1" NCoef="0" IVar="43" Cut="1.2345679104328156e-02" cType="1" res="-1.2601830065250397e-01" rms="1.6436150670051575e-01" purity="3.2082621008157730e-02" nType="0">
          <Node pos="l" depth="2" NCoef="0" IVar="-1" Cut="0.0000000000000000e+00" cType="1" res="1.0420765029266477e-03" rms="3.7595486640930176e-01" purity="1.9376632571220398e-01" nType="-99"/>
          <Node pos="r" depth="2" NCoef="0" IVar="-1" Cut="0.0000000000000000e+00" cType="1" res="-9.3831056728959084e-03" rms="1.2068221718072891e-01" purity="1.7903557047247887e-02" nType="-99"/>
        </Node>
        <Node pos="r" depth="1" NCoef="0" IVar="36" Cut="5.4100371897220612e-02" cType="1" res="1.9739174842834473e-01" rms="3.8434511423110962e-01" purity="7.5812643766403198e-01" nType="0">
          <Node pos="l" depth="2" NCoef="0" IVar="-1" Cut="0.0000000000000000e+00" cType="1" res="-1.0200950317084789e-02" rms="2.8665214776992798e-01" purity="9.1337017714977264e-02" nType="-99"/>
          <Node pos="r" depth="2" NCoef="0" IVar="-1" Cut="0.0000000000000000e+00" cType="1" res="2.1852776408195496e-03" rms="3.6793065071105957e-01" purity="8.1153118610382080e-01" nType="-99"/>
        </Node>
      </Node>
    </BinaryTree>
    <BinaryTree type="DecisionTree" boostWeight="1.0000000000000000e+00" itree="88">
      <Node pos="s" depth="0" NCoef="0" IVar="17" Cut="1.5214687585830688e+00" cType="1" res="8.7940827012062073e-02" rms="3.5898682475090027e-01" purity="5.0920420885086060e-01" nType="0">
        <Node pos="l" depth="1" NCoef="0" IVar="36" Cut="1.4460117816925049e+00" cType="1" res="-2.9665064066648483e-02" rms="3.3960849046707153e-01" purity="2.7855715155601501e-01" nType="0">
          <Node pos="l" depth="2" NCoef="0" IVar="-1" Cut="0.0000000000000000e+00" cType="1" res="-6.0374340973794460e-03" rms="2.0989365875720978e-01" purity="7.0069111883640289e-02" nType="-99"/>
          <Node pos="r" depth="2" NCoef="0" IVar="-1" Cut="0.0000000000000000e+00" cType="1" res="7.9707638360559940e-04" rms="3.8481435179710388e-01" purity="4.2796102166175842e-01" nType="-99"/>
        </Node>
        <Node pos="r" depth="1" NCoef="0" IVar="36" Cut="9.8174846172332764e-01" cType="1" res="2.7109745144844055e-01" rms="3.0800661444664001e-01" purity="8.6840850114822388e-01" nType="0">
          <Node pos="l" depth="2" NCoef="0" IVar="-1" Cut="0.0000000000000000e+00" cType="1" res="-5.3491611033678055e-03" rms="3.6631131172180176e-01" purity="1.7105947434902191e-01" nType="-99"/>
          <Node pos="r" depth="2" NCoef="0" IVar="-1" Cut="0.0000000000000000e+00" cType="1" res="2.8326178435236216e-03" rms="2.8250598907470703e-01" purity="9.0810257196426392e-01" nType="-99"/>
        </Node>
      </Node>
    </BinaryTree>
    <BinaryTree type="DecisionTree" boostWeight="1.0000000000000000e+00" itree="89">
      <Node pos="s" depth="0" NCoef="0" IVar="17" Cut="1.5231137275695801e+00" cType="1" res="8.4839411079883575e-02" rms="3.5889452695846558e-01" purity="5.0502634048461914e-01" nType="0">
        <Node pos="l" depth="1" NCoef="0" IVar="5" Cut="2.8452664613723755e-01" cType="1" res="-3.0696051195263863e-02" rms="3.4082871675491333e-01" purity="2.7965590357780457e-01" nType="0">
          <Node pos="l" depth="2" NCoef="0" IVar="-1" Cut="0.0000000000000000e+00" cType="1" res="1.4068005839362741e-03" rms="3.8170921802520752e-01" purity="4.4552305340766907e-01" nType="-99"/>
          <Node pos="r" depth="2" NCoef="0" IVar="-1" Cut="0.0000000000000000e+00" cType="1" res="-2.7838437817990780e-03" rms="2.6704591512680054e-01" purity="1.4223352074623108e-01" nType="-99"/>
        </Node>
        <Node pos="r" depth="1" NCoef="0" IVar="15" Cut="1.5199713706970215e+00" cType="1" res="2.7227917313575745e-01" rms="3.0417764186859131e-01" purity="8.7065768241882324e-01" nType="0">
          <Node pos="l" depth="2" NCoef="0" IVar="-1" Cut="0.0000000000000000e+00" cType="1" res="3.2037070486694574e-03" rms="2.2149169445037842e-01" purity="9.3393623828887939e-01" nType="-99"/>
          <Node pos="r" depth="2" NCoef="0" IVar="-1" Cut="0.0000000000000000e+00" cType="1" res="8.0181774683296680e-04" rms="4.3767195940017700e-01" purity="6.5359413623809814e-01" nType="-99"/>
        </Node>
      </Node>
    </BinaryTree>
    <BinaryTree type="DecisionTree" boostWeight="1.0000000000000000e+00" itree="90">
      <Node pos="s" depth="0" NCoef="0" IVar="17" Cut="1.5231137275695801e+00" cType="1" res="8.2285299897193909e-02" rms="3.5679280757904053e-01" purity="5.0147676467895508e-01" nType="0">
        <Node pos="l" depth="1" NCoef="0" IVar="2" Cut="2.5246231555938721e+00" cType="1" res="-3.6309026181697845e-02" rms="3.3666196465492249e-01" purity="2.6907035708427429e-01" nType="0">
          <Node pos="l" depth="2" NCoef="0" IVar="-1" Cut="0.0000000000000000e+00" cType="1" res="-3.4254239872097969e-03" rms="2.6154530048370361e-01" purity="1.3556116819381714e-01" nType="-99"/>
          <Node pos="r" depth="2" NCoef="0" IVar="-1" Cut="0.0000000000000000e+00" cType="1" res="1.1262065963819623e-03" rms="3.8288930058479309e-01" purity="4.3936938047409058e-01" nType="-99"/>
        </Node>
        <Node pos="r" depth="1" NCoef="0" IVar="36" Cut="1.1361116170883179e+00" cType="1" res="2.7228754758834839e-01" rms="3.0171567201614380e-01" purity="8.7381964921951294e-01" nType="0">
          <Node pos="l" depth="2" NCoef="0" IVar="-1" Cut="0.0000000000000000e+00" cType="1" res="-4.7242268919944763e-03" rms="3.6870855093002319e-01" purity="1.8308199942111969e-01" nType="-99"/>
          <Node pos="r" depth="2" NCoef="0" IVar="-1" Cut="0.0000000000000000e+00" cType="1" res="2.8669661842286587e-03" rms="2.7437281608581543e-01" purity="9.1426855325698853e-01" nType="-99"/>
        </Node>
      </Node>
    </BinaryTree>
    <BinaryTree type="DecisionTree" boostWeight="1.0000000000000000e+00" itree="91">
      <Node pos="s" depth="0" NCoef="0" IVar="17" Cut="1.4447457790374756e+00" cType="1" res="7.5641721487045288e-02" rms="3.5428673028945923e-01" purity="4.9570542573928833e-01" nType="0">
        <Node pos="l" depth="1" NCoef="0" IVar="5" Cut="2.6142346858978271e-01" cType="1" res="-1.3654413819313049e-01" rms="1.1821584403514862e-01" purity="1.8241405487060547e-02" nType="0">
          <Node pos="l" depth="2" NCoef="0" IVar="-1" Cut="0.0000000000000000e+00" cType="1" res="-3.0264982488006353e-03" rms="2.7892243862152100e-01" purity="1.0005117207765579e-01" nType="-99"/>
          <Node pos="r" depth="2" NCoef="0" IVar="-1" Cut="0.0000000000000000e+00" cType="1" res="-1.4946388080716133e-02" rms="0.0000000000000000e+00" purity="-2.8340980410575867e-02" nType="-99"/>
        </Node>
        <Node pos="r" depth="1" NCoef="0" IVar="36" Cut="1.4070059061050415e+00" cType="1" res="1.8981501460075378e-01" rms="3.8506808876991272e-01" purity="7.5261998176574707e-01" nType="0">
          <Node pos="l" depth="2" NCoef="0" IVar="-1" Cut="0.0000000000000000e+00" cType="1" res="-1.8605293007567525e-03" rms="4.2419168353080750e-01" purity="3.0047038197517395e-01" nType="-99"/>
          <Node pos="r" depth="2" NCoef="0" IVar="-1" Cut="0.0000000000000000e+00" cType="1" res="2.2642163094133139e-03" rms="3.4847325086593628e-01" purity="8.4272658824920654e-01" nType="-99"/>
        </Node>
      </Node>
    </BinaryTree>
    <BinaryTree type="DecisionTree" boostWeight="1.0000000000000000e+00" itree="92">
      <Node pos="s" depth="0" NCoef="0" IVar="17" Cut="1.5216873884201050e+00" cType="1" res="7.7011480927467346e-02" rms="3.5705897212028503e-01" purity="4.9442905187606812e-01" nType="0">
        <Node pos="l" depth="1" NCoef="0" IVar="2" Cut="2.4920179843902588e+00" cType="1" res="-5.0282672047615051e-02" rms="3.2795420289039612e-01" purity="2.4521832168102264e-01" nType="0">
          <Node pos="l" depth="2" NCoef="0" IVar="-1" Cut="0.0000000000000000e+00" cType="1" res="-3.8138891104608774e-03" rms="2.6029753684997559e-01" purity="1.2574100494384766e-01" nType="-99"/>
          <Node pos="r" depth="2" NCoef="0" IVar="-1" Cut="0.0000000000000000e+00" cType="1" res="7.3748093564063311e-04" rms="3.7428167462348938e-01" purity="3.9740943908691406e-01" nType="-99"/>
        </Node>
        <Node pos="r" depth="1" NCoef="0" IVar="15" Cut="1.5201463699340820e+00" cType="1" res="2.6715773344039917e-01" rms="3.1130722165107727e-01" purity="8.6668878793716431e-01" nType="0">
          <Node pos="l" depth="2" NCoef="0" IVar="-1" Cut="0.0000000000000000e+00" cType="1" res="3.2090949825942516e-03" rms="2.2360336780548096e-01" purity="9.3539696931838989e-01" nType="-99"/>
          <Node pos="r" depth="2" NCoef="0" IVar="-1" Cut="0.0000000000000000e+00" cType="1" res="6.5797974821180105e-04" rms="4.4262459874153137e-01" purity="6.4045000076293945e-01" nType="-99"/>
        </Node>
      </Node>
    </BinaryTree>
    <BinaryTree type="DecisionTree" boostWeight="1.0000000000000000e+00" itree="93">
      <Node pos="s" depth="0" NCoef="0" IVar="17" Cut="1.4833937883377075e+00" cType="1" res="9.2880994081497192e-02" rms="3.5206350684165955e-01" purity="5.1686662435531616e-01" nType="0">
        <Node pos="l" depth="1" NCoef="0" IVar="17" Cut="1.3326163291931152e+00" cType="1" res="-9.1204799711704254e-02" rms="2.5338891148567200e-01" purity="1.0078496485948563e-01" nType="0">
          <Node pos="l" depth="2" NCoef="0" IVar="-1" Cut="0.0000000000000000e+00" cType="1" res="-1.4045675285160542e-02" rms="3.6123279482126236e-02" purity="1.4281021431088448e-03" nType="-99"/>
          <Node pos="r" depth="2" NCoef="0" IVar="-1" Cut="0.0000000000000000e+00" cType="1" res="-7.3643626819830388e-05" rms="4.2521592974662781e-01" purity="3.0252128839492798e-01" nType="-99"/>
        </Node>
        <Node pos="r" depth="1" NCoef="0" IVar="1" Cut="2.3103728294372559e+00" cType="1" res="2.2327506542205811e-01" rms="3.5392117500305176e-01" purity="8.1159114837646484e-01" nType="0">
          <Node pos="l" depth="2" NCoef="0" IVar="-1" Cut="0.0000000000000000e+00" cType="1" res="-3.0570358503609896e-03" rms="4.0583890676498413e-01" purity="2.6093411445617676e-01" nType="-99"/>
          <Node pos="r" depth="2" NCoef="0" IVar="-1" Cut="0.0000000000000000e+00" cType="1" res="2.4578622542321682e-03" rms="3.2665619254112244e-01" purity="8.5146754980087280e-01" nType="-99"/>
        </Node>
      </Node>
    </BinaryTree>
    <BinaryTree type="DecisionTree" boostWeight="1.0000000000000000e+00" itree="94">
      <Node pos="s" depth="0" NCoef="0" IVar="17" Cut="1.4828280210494995e+00" cType="1" res="7.5318053364753723e-02" rms="3.5279598832130432e-01" purity="4.9065688252449036e-01" nType="0">
        <Node pos="l" depth="1" NCoef="0" IVar="17" Cut="1.1436440944671631e+00" cType="1" res="-9.3197792768478394e-02" rms="2.4588890373706818e-01" purity="9.4613827764987946e-02" nType="0">
          <Node pos="l" depth="2" NCoef="0" IVar="-1" Cut="0.0000000000000000e+00" cType="1" res="-1.8356008455157280e-02" rms="0.0000000000000000e+00" purity="-6.9972313940525055e-03" nType="-99"/>
          <Node pos="r" depth="2" NCoef="0" IVar="-1" Cut="0.0000000000000000e+00" cType="1" res="-5.1696604350581765e-04" rms="3.8777020573616028e-01" purity="2.4075537919998169e-01" nType="-99"/>
        </Node>
        <Node pos="r" depth="1" NCoef="0" IVar="48" Cut="9.6596974134445190e-01" cType="1" res="2.0319493114948273e-01" rms="3.6760291457176208e-01" purity="7.9119098186492920e-01" nType="0">
          <Node pos="l" depth="2" NCoef="0" IVar="-1" Cut="0.0000000000000000e+00" cType="1" res="-3.2644507009536028e-03" rms="3.6434239149093628e-01" purity="2.0079357922077179e-01" nType="-99"/>
          <Node pos="r" depth="2" NCoef="0" IVar="-1" Cut="0.0000000000000000e+00" cType="1" res="2.2816860582679510e-03" rms="3.4367105364799500e-01" purity="8.2821196317672729e-01" nType="-99"/>
        </Node>
      </Node>
    </BinaryTree>
    <BinaryTree type="DecisionTree" boostWeight="1.0000000000000000e+00" itree="95">
      <Node pos="s" depth="0" NCoef="0" IVar="17" Cut="1.5231137275695801e+00" cType="1" res="7.7919669449329376e-02" rms="3.5094571113586426e-01" purity="4.9481984972953796e-01" nType="0">
        <Node pos="l" depth="1" NCoef="0" IVar="5" Cut="3.0224487185478210e-01" cType="1" res="-4.2376819998025894e-02" rms="3.2436129450798035e-01" purity="2.5452336668968201e-01" nType="0">
          <Node pos="l" depth="2" NCoef="0" IVar="-1" Cut="0.0000000000000000e+00" cType="1" res="9.3960470985621214e-04" rms="3.5770034790039062e-01" purity="4.0582746267318726e-01" nType="-99"/>
          <Node pos="r" depth="2" NCoef="0" IVar="-1" Cut="0.0000000000000000e+00" cType="1" res="-2.8626299463212490e-03" rms="2.6496270298957825e-01" purity="1.2394263595342636e-01" nType="-99"/>
        </Node>
        <Node pos="r" depth="1" NCoef="0" IVar="15" Cut="1.5230776071548462e+00" cType="1" res="2.6625913381576538e-01" rms="3.0519130825996399e-01" purity="8.7103468179702759e-01" nType="0">
          <Node pos="l" depth="2" NCoef="0" IVar="-1" Cut="0.0000000000000000e+00" cType="1" res="3.1265283469110727e-03" rms="2.2578218579292297e-01" purity="9.3342101573944092e-01" nType="-99"/>
          <Node pos="r" depth="2" NCoef="0" IVar="-1" Cut="0.0000000000000000e+00" cType="1" res="7.5770920375362039e-04" rms="4.4178339838981628e-01" purity="6.4685064554214478e-01" nType="-99"/>
        </Node>
      </Node>
    </BinaryTree>
    <BinaryTree type="DecisionTree" boostWeight="1.0000000000000000e+00" itree="96">
      <Node pos="s" depth="0" NCoef="0" IVar="17" Cut="1.5220416784286499e+00" cType="1" res="8.6909435689449310e-02" rms="3.5538512468338013e-01" purity="5.0410670042037964e-01" nType="0">
        <Node pos="l" depth="1" NCoef="0" IVar="1" Cut="3.0198242664337158e+00" cType="1" res="-3.0655166134238243e-02" rms="3.3799347281455994e-01" purity="2.6558229327201843e-01" nType="0">
          <Node pos="l" depth="2" NCoef="0" IVar="-1" Cut="0.0000000000000000e+00" cType="1" res="-3.2492850441485643e-03" rms="2.7736169099807739e-01" purity="1.3064697384834290e-01" nType="-99"/>
          <Node pos="r" depth="2" NCoef="0" IVar="-1" Cut="0.0000000000000000e+00" cType="1" res="9.4683881616219878e-04" rms="3.7056753039360046e-01" purity="4.0846306085586548e-01" nType="-99"/>
        </Node>
        <Node pos="r" depth="1" NCoef="0" IVar="1" Cut="2.4531958103179932e+00" cType="1" res="2.6999792456626892e-01" rms="3.0005407333374023e-01" purity="8.7557125091552734e-01" nType="0">
          <Node pos="l" depth="2" NCoef="0" IVar="-1" Cut="0.0000000000000000e+00" cType="1" res="-1.5060933073982596e-03" rms="4.4850069284439087e-01" purity="3.8929030299186707e-01" nType="-99"/>
          <Node pos="r" depth="2" NCoef="0" IVar="-1" Cut="0.0000000000000000e+00" cType="1" res="2.9116421937942505e-03" rms="2.6106053590774536e-01" purity="9.1374015808105469e-01" nType="-99"/>
        </Node>
      </Node>
    </BinaryTree>
    <BinaryTree type="DecisionTree" boostWeight="1.0000000000000000e+00" itree="97">
      <Node pos="s" depth="0" NCoef="0" IVar="17" Cut="1.4844523668289185e+00" cType="1" res="7.7536925673484802e-02" rms="3.4763899445533752e-01" purity="4.9790930747985840e-01" nType="0">
        <Node pos="l" depth="1" NCoef="0" IVar="60" Cut="-1.2043281793594360e+00" cType="1" res="-1.0019163787364960e-01" rms="2.3303118348121643e-01" purity="8.7592512369155884e-02" nType="0">
          <Node pos="l" depth="2" NCoef="0" IVar="-1" Cut="0.0000000000000000e+00" cType="1" res="-2.3614147212356329e-03" rms="2.7532282471656799e-01" purity="1.2229248881340027e-01" nType="-99"/>
          <Node pos="r" depth="2" NCoef="0" IVar="-1" Cut="0.0000000000000000e+00" cType="1" res="-1.2027866207063198e-02" rms="0.0000000000000000e+00" purity="-5.9079885482788086e-02" nType="-99"/>
        </Node>
        <Node pos="r" depth="1" NCoef="0" IVar="1" Cut="2.2592542171478271e+00" cType="1" res="2.0879492163658142e-01" rms="3.5978415608406067e-01" purity="8.0094087123870850e-01" nType="0">
          <Node pos="l" depth="2" NCoef="0" IVar="-1" Cut="0.0000000000000000e+00" cType="1" res="-4.4949157163500786e-03" rms="3.3123946189880371e-01" purity="1.6359618306159973e-01" nType="-99"/>
          <Node pos="r" depth="2" NCoef="0" IVar="-1" Cut="0.0000000000000000e+00" cType="1" res="2.3070822935551405e-03" rms="3.3580026030540466e-01" purity="8.3998751640319824e-01" nType="-99"/>
        </Node>
      </Node>
    </BinaryTree>
    <BinaryTree type="DecisionTree" boostWeight="1.0000000000000000e+00" itree="98">
      <Node pos="s" depth="0" NCoef="0" IVar="17" Cut="1.4447457790374756e+00" cType="1" res="8.3452694118022919e-02" rms="3.5161027312278748e-01" purity="5.0039541721343994e-01" nType="0">
        <Node pos="l" depth="1" NCoef="0" IVar="58" Cut="-9.1485881805419922e-01" cType="1" res="-1.0659601539373398e-01" rms="1.7305202782154083e-01" purity="3.7248883396387100e-02" nType="0">
          <Node pos="l" depth="2" NCoef="0" IVar="-1" Cut="0.0000000000000000e+00" cType="1" res="-4.3796580284833908e-03" rms="2.4820926785469055e-01" purity="7.6917231082916260e-02" nType="-99"/>
          <Node pos="r" depth="2" NCoef="0" IVar="-1" Cut="0.0000000000000000e+00" cType="1" res="-1.0587312281131744e-02" rms="0.0000000000000000e+00" purity="-8.1555461511015892e-03" nType="-99"/>
        </Node>
        <Node pos="r" depth="1" NCoef="0" IVar="36" Cut="1.3683462142944336e+00" cType="1" res="1.8902382254600525e-01" rms="3.8008052110671997e-01" purity="7.5767099857330322e-01" nType="0">
          <Node pos="l" depth="2" NCoef="0" IVar="-1" Cut="0.0000000000000000e+00" cType="1" res="-2.6286400388926268e-03" rms="3.9921367168426514e-01" purity="2.5389075279235840e-01" nType="-99"/>
          <Node pos="r" depth="2" NCoef="0" IVar="-1" Cut="0.0000000000000000e+00" cType="1" res="2.2468359675258398e-03" rms="3.4908092021942139e-01" purity="8.4038668870925903e-01" nType="-99"/>
        </Node>
      </Node>
    </BinaryTree>
    <BinaryTree type="DecisionTree" boostWeight="1.0000000000000000e+00" itree="99">
      <Node pos="s" depth="0" NCoef="0" IVar="17" Cut="1.5214687585830688e+00" cType="1" res="8.5079990327358246e-02" rms="3.5210785269737244e-01" purity="5.0309330224990845e-01" nType="0">
        <Node pos="l" depth="1" NCoef="0" IVar="17" Cut="1.4451391696929932e+00" cType="1" res="-2.6907399296760559e-02" rms="3.3421719074249268e-01" purity="2.6995509862899780e-01" nType="0">
          <Node pos="l" depth="2" NCoef="0" IVar="-1" Cut="0.0000000000000000e+00" cType="1" res="-6.5859113819897175e-03" rms="1.8147374689579010e-01" purity="4.0675215423107147e-02" nType="-99"/>
          <Node pos="r" depth="2" NCoef="0" IVar="-1" Cut="0.0000000000000000e+00" cType="1" res="7.8371079871430993e-04" rms="4.4936230778694153e-01" purity="5.8668142557144165e-01" nType="-99"/>
        </Node>
        <Node pos="r" depth="1" NCoef="0" IVar="36" Cut="9.0426164865493774e-01" cType="1" res="2.6080387830734253e-01" rms="3.0444929003715515e-01" purity="8.6891967058181763e-01" nType="0">
          <Node pos="l" depth="2" NCoef="0" IVar="-1" Cut="0.0000000000000000e+00" cType="1" res="-6.4292238093912601e-03" rms="3.5769146680831909e-01" purity="1.5493594110012054e-01" nType="-99"/>
          <Node pos="r" depth="2" NCoef="0" IVar="-1" Cut="0.0000000000000000e+00" cType="1" res="2.7527078054845333e-03" rms="2.7974233031272888e-01" purity="9.0867346525192261e-01" nType="-99"/>
        </Node>
      </Node>
    </BinaryTree>
    <BinaryTree type="DecisionTree" boostWeight="1.0000000000000000e+00" itree="100">
      <Node pos="s" depth="0" NCoef="0" IVar="17" Cut="1.4830439090728760e+00" cType="1" res="9.2780850827693939e-02" rms="3.5184904932975769e-01" purity="5.1472383737564087e-01" nType="0">
        <Node pos="l" depth="1" NCoef="0" IVar="36" Cut="1.3285769224166870e+00" cType="1" res="-7.7946782112121582e-02" rms="2.6296520233154297e-01" purity="1.0218557715415955e-01" nType="0">
          <Node pos="l" depth="2" NCoef="0" IVar="-1" Cut="0.0000000000000000e+00" cType="1" res="-1.3832611031830311e-02" rms="0.0000000000000000e+00" purity="-1.4204335398972034e-02" nType="-99"/>
          <Node pos="r" depth="2" NCoef="0" IVar="-1" Cut="0.0000000000000000e+00" cType="1" res="-6.8333226954564452e-04" rms="3.3821439743041992e-01" purity="1.7649641633033752e-01" nType="-99"/>
        </Node>
        <Node pos="r" depth="1" NCoef="0" IVar="48" Cut="9.3896526098251343e-01" cType="1" res="2.1275226771831512e-01" rms="3.5682350397109985e-01" purity="8.0461716651916504e-01" nType="0">
          <Node pos="l" depth="2" NCoef="0" IVar="-1" Cut="0.0000000000000000e+00" cType="1" res="-2.7884521987289190e-03" rms="4.2417815327644348e-01" purity="2.6700744032859802e-01" nType="-99"/>
          <Node pos="r" depth="2" NCoef="0" IVar="-1" Cut="0.0000000000000000e+00" cType="1" res="2.3595071397721767e-03" rms="3.3010059595108032e-01" purity="8.4208709001541138e-01" nType="-99"/>
        </Node>
      </Node>
    </BinaryTree>
    <BinaryTree type="DecisionTree" boostWeight="1.0000000000000000e+00" itree="101">
      <Node pos="s" depth="0" NCoef="0" IVar="17" Cut="1.5231137275695801e+00" cType="1" res="7.5170300900936127e-02" rms="3.4612593054771423e-01" purity="4.9555364251136780e-01" nType="0">
        <Node pos="l" depth="1" NCoef="0" IVar="5" Cut="3.0224487185478210e-01" cType="1" res="-4.1928388178348541e-02" rms="3.2090139389038086e-01" purity="2.5598976016044617e-01" nType="0">
          <Node pos="l" depth="2" NCoef="0" IVar="-1" Cut="0.0000000000000000e+00" cType="1" res="9.3375117285177112e-04" rms="3.5515755414962769e-01" purity="4.0559375286102295e-01" nType="-99"/>
          <Node pos="r" depth="2" NCoef="0" IVar="-1" Cut="0.0000000000000000e+00" cType="1" res="-2.7807003352791071e-03" rms="2.6236942410469055e-01" purity="1.2965099513530731e-01" nType="-99"/>
        </Node>
        <Node pos="r" depth="1" NCoef="0" IVar="15" Cut="1.5230847597122192e+00" cType="1" res="2.5955626368522644e-01" rms="3.0117657780647278e-01" purity="8.7277573347091675e-01" nType="0">
          <Node pos="l" depth="2" NCoef="0" IVar="-1" Cut="0.0000000000000000e+00" cType="1" res="3.0895399395376444e-03" rms="2.2081181406974792e-01" purity="9.3565958738327026e-01" nType="-99"/>
          <Node pos="r" depth="2" NCoef="0" IVar="-1" Cut="0.0000000000000000e+00" cType="1" res="3.5850040148943663e-04" rms="4.4523590803146362e-01" purity="6.1568427085876465e-01" nType="-99"/>
        </Node>
      </Node>
    </BinaryTree>
    <BinaryTree type="DecisionTree" boostWeight="1.0000000000000000e+00" itree="102">
      <Node pos="s" depth="0" NCoef="0" IVar="17" Cut="1.4830439090728760e+00" cType="1" res="8.6424499750137329e-02" rms="3.4866231679916382e-01" purity="5.0549125671386719e-01" nType="0">
        <Node pos="l" depth="1" NCoef="0" IVar="3" Cut="4.9787998199462891e+00" cType="1" res="-7.9696379601955414e-02" rms="2.5275436043739319e-01" purity="1.0161004960536957e-01" nType="0">
          <Node pos="l" depth="2" NCoef="0" IVar="-1" Cut="0.0000000000000000e+00" cType="1" res="-4.8714107833802700e-03" rms="2.0880074799060822e-01" purity="6.5960936248302460e-02" nType="-99"/>
          <Node pos="r" depth="2" NCoef="0" IVar="-1" Cut="0.0000000000000000e+00" cType="1" res="7.6987058855593204e-04" rms="3.4228742122650146e-01" purity="2.2375223040580750e-01" nType="-99"/>
        </Node>
        <Node pos="r" depth="1" NCoef="0" IVar="1" Cut="2.5789196491241455e+00" cType="1" res="2.0880882441997528e-01" rms="3.5881930589675903e-01" purity="8.0303794145584106e-01" nType="0">
          <Node pos="l" depth="2" NCoef="0" IVar="-1" Cut="0.0000000000000000e+00" cType="1" res="-8.4058166248723865e-04" rms="4.4432520866394043e-01" purity="4.5202332735061646e-01" nType="-99"/>
          <Node pos="r" depth="2" NCoef="0" IVar="-1" Cut="0.0000000000000000e+00" cType="1" res="2.4285824038088322e-03" rms="3.1944516301155090e-01" purity="8.6179471015930176e-01" nType="-99"/>
        </Node>
      </Node>
    </BinaryTree>
    <BinaryTree type="DecisionTree" boostWeight="1.0000000000000000e+00" itree="103">
      <Node pos="s" depth="0" NCoef="0" IVar="17" Cut="1.5231137275695801e+00" cType="1" res="8.7105743587017059e-02" rms="3.4733036160469055e-01" purity="5.0856077671051025e-01" nType="0">
        <Node pos="l" depth="1" NCoef="0" IVar="5" Cut="3.0203419923782349e-01" cType="1" res="-2.7766166254878044e-02" rms="3.2939156889915466e-01" purity="2.7162489295005798e-01" nType="0">
          <Node pos="l" depth="2" NCoef="0" IVar="-1" Cut="0.0000000000000000e+00" cType="1" res="1.1949255131185055e-03" rms="3.6278882622718811e-01" purity="4.2422786355018616e-01" nType="-99"/>
          <Node pos="r" depth="2" NCoef="0" IVar="-1" Cut="0.0000000000000000e+00" cType="1" res="-2.5534713640809059e-03" rms="2.7086272835731506e-01" purity="1.4062508940696716e-01" nType="-99"/>
        </Node>
        <Node pos="r" depth="1" NCoef="0" IVar="15" Cut="1.5224975347518921e+00" cType="1" res="2.6781308650970459e-01" rms="2.9380616545677185e-01" purity="8.8128942251205444e-01" nType="0">
          <Node pos="l" depth="2" NCoef="0" IVar="-1" Cut="0.0000000000000000e+00" cType="1" res="3.1527963001281023e-03" rms="2.1363246440887451e-01" purity="9.4015240669250488e-01" nType="-99"/>
          <Node pos="r" depth="2" NCoef="0" IVar="-1" Cut="0.0000000000000000e+00" cType="1" res="6.0663843760266900e-04" rms="4.4019371271133423e-01" purity="6.4614325761795044e-01" nType="-99"/>
        </Node>
      </Node>
    </BinaryTree>
    <BinaryTree type="DecisionTree" boostWeight="1.0000000000000000e+00" itree="104">
      <Node pos="s" depth="0" NCoef="0" IVar="17" Cut="1.5220416784286499e+00" cType="1" res="7.7522337436676025e-02" rms="3.5410663485527039e-01" purity="4.9070617556571960e-01" nType="0">
        <Node pos="l" depth="1" NCoef="0" IVar="5" Cut="2.0575107634067535e-01" cType="1" res="-3.1748834997415543e-02" rms="3.3566802740097046e-01" purity="2.5486025214195251e-01" nType="0">
          <Node pos="l" depth="2" NCoef="0" IVar="-1" Cut="0.0000000000000000e+00" cType="1" res="1.3467972166836262e-03" rms="3.6981895565986633e-01" purity="4.1661664843559265e-01" nType="-99"/>
          <Node pos="r" depth="2" NCoef="0" IVar="-1" Cut="0.0000000000000000e+00" cType="1" res="-2.2607017308473587e-03" rms="2.9063627123832703e-01" purity="1.4942878484725952e-01" nType="-99"/>
        </Node>
        <Node pos="r" depth="1" NCoef="0" IVar="15" Cut="1.5227357149124146e+00" cType="1" res="2.5030091404914856e-01" rms="3.1107825040817261e-01" purity="8.6362361907958984e-01" nType="0">
          <Node pos="l" depth="2" NCoef="0" IVar="-1" Cut="0.0000000000000000e+00" cType="1" res="3.0441766139119864e-03" rms="2.3155741393566132e-01" purity="9.2829620838165283e-01" nType="-99"/>
          <Node pos="r" depth="2" NCoef="0" IVar="-1" Cut="0.0000000000000000e+00" cType="1" res="7.0074322866275907e-04" rms="4.3821626901626587e-01" purity="6.5292966365814209e-01" nType="-99"/>
        </Node>
      </Node>
    </BinaryTree>
    <BinaryTree type="DecisionTree" boostWeight="1.0000000000000000e+00" itree="105">
      <Node pos="s" depth="0" NCoef="0" IVar="17" Cut="1.5220416784286499e+00" cType="1" res="8.0266155302524567e-02" rms="3.4386423230171204e-01" purity="5.0027477741241455e-01" nType="0">
        <Node pos="l" depth="1" NCoef="0" IVar="17" Cut="1.4456969499588013e+00" cType="1" res="-3.5279683768749237e-02" rms="3.2104948163032532e-01" purity="2.5723621249198914e-01" nType="0">
          <Node pos="l" depth="2" NCoef="0" IVar="-1" Cut="0.0000000000000000e+00" cType="1" res="-7.7726957388222218e-03" rms="1.3470475375652313e-01" purity="2.3754447698593140e-02" nType="-99"/>
          <Node pos="r" depth="2" NCoef="0" IVar="-1" Cut="0.0000000000000000e+00" cType="1" res="7.5013987952843308e-04" rms="4.4866043329238892e-01" purity="5.8366090059280396e-01" nType="-99"/>
        </Node>
        <Node pos="r" depth="1" NCoef="0" IVar="15" Cut="1.5230776071548462e+00" cType="1" res="2.5740760564804077e-01" rms="2.9941973090171814e-01" purity="8.7287318706512451e-01" nType="0">
          <Node pos="l" depth="2" NCoef="0" IVar="-1" Cut="0.0000000000000000e+00" cType="1" res="3.0345979612320662e-03" rms="2.2475272417068481e-01" purity="9.3131804466247559e-01" nType="-99"/>
          <Node pos="r" depth="2" NCoef="0" IVar="-1" Cut="0.0000000000000000e+00" cType="1" res="3.7910338141955435e-04" rms="4.4180068373680115e-01" purity="6.2468361854553223e-01" nType="-99"/>
        </Node>
      </Node>
    </BinaryTree>
    <BinaryTree type="DecisionTree" boostWeight="1.0000000000000000e+00" itree="106">
      <Node pos="s" depth="0" NCoef="0" IVar="17" Cut="1.4830439090728760e+00" cType="1" res="8.5098944604396820e-02" rms="3.4636998176574707e-01" purity="5.0397378206253052e-01" nType="0">
        <Node pos="l" depth="1" NCoef="0" IVar="17" Cut="1.3322759866714478e+00" cType="1" res="-7.1382664144039154e-02" rms="2.5970193743705750e-01" purity="1.0889056324958801e-01" nType="0">
          <Node pos="l" depth="2" NCoef="0" IVar="-1" Cut="0.0000000000000000e+00" cType="1" res="-1.3056230731308460e-02" rms="6.8335257470607758e-02" purity="4.9475394189357758e-03" nType="-99"/>
          <Node pos="r" depth="2" NCoef="0" IVar="-1" Cut="0.0000000000000000e+00" cType="1" res="2.0085793221369386e-04" rms="4.2281544208526611e-01" purity="3.1103312969207764e-01" nType="-99"/>
        </Node>
        <Node pos="r" depth="1" NCoef="0" IVar="36" Cut="9.0426164865493774e-01" cType="1" res="2.0300875604152679e-01" rms="3.5664853453636169e-01" purity="8.0167132616043091e-01" nType="0">
          <Node pos="l" depth="2" NCoef="0" IVar="-1" Cut="0.0000000000000000e+00" cType="1" res="-8.0971447750926018e-03" rms="3.0111157894134521e-01" purity="1.0353861004114151e-01" nType="-99"/>
          <Node pos="r" depth="2" NCoef="0" IVar="-1" Cut="0.0000000000000000e+00" cType="1" res="2.2338870912790298e-03" rms="3.3637839555740356e-01" purity="8.5751533508300781e-01" nType="-99"/>
        </Node>
      </Node>
    </BinaryTree>
    <BinaryTree type="DecisionTree" boostWeight="1.0000000000000000e+00" itree="107">
      <Node pos="s" depth="0" NCoef="0" IVar="17" Cut="1.5231137275695801e+00" cType="1" res="8.0260612070560455e-02" rms="3.4437987208366394e-01" purity="4.9786633253097534e-01" nType="0">
        <Node pos="l" depth="1" NCoef="0" IVar="2" Cut="2.4472055435180664e+00" cType="1" res="-2.6266666129231453e-02" rms="3.2392537593841553e-01" purity="2.7018737792968750e-01" nType="0">
          <Node pos="l" depth="2" NCoef="0" IVar="-1" Cut="0.0000000000000000e+00" cType="1" res="-3.5399815533310175e-03" rms="2.5233992934226990e-01" purity="1.2142502516508102e-01" nType="-99"/>
          <Node pos="r" depth="2" NCoef="0" IVar="-1" Cut="0.0000000000000000e+00" cType="1" res="1.0834824061021209e-03" rms="3.6095613241195679e-01" purity="4.3375080823898315e-01" nType="-99"/>
        </Node>
        <Node pos="r" depth="1" NCoef="0" IVar="15" Cut="1.5233584642410278e+00" cType="1" res="2.5466951727867126e-01" rms="3.0328261852264404e-01" purity="8.7062752246856689e-01" nType="0">
          <Node pos="l" depth="2" NCoef="0" IVar="-1" Cut="0.0000000000000000e+00" cType="1" res="3.0633471906185150e-03" rms="2.2607494890689850e-01" purity="9.3215316534042358e-01" nType="-99"/>
          <Node pos="r" depth="2" NCoef="0" IVar="-1" Cut="0.0000000000000000e+00" cType="1" res="2.3243640316650271e-04" rms="4.5044782757759094e-01" purity="6.0286688804626465e-01" nType="-99"/>
        </Node>
      </Node>
    </BinaryTree>
    <BinaryTree type="DecisionTree" boostWeight="1.0000000000000000e+00" itree="108">
      <Node pos="s" depth="0" NCoef="0" IVar="17" Cut="1.5231137275695801e+00" cType="1" res="7.4822105467319489e-02" rms="3.4500196576118469e-01" purity="4.9089953303337097e-01" nType="0">
        <Node pos="l" depth="1" NCoef="0" IVar="2" Cut="2.7034759521484375e+00" cType="1" res="-3.4470669925212860e-02" rms="3.2431882619857788e-01" purity="2.5628963112831116e-01" nType="0">
          <Node pos="l" depth="2" NCoef="0" IVar="-1" Cut="0.0000000000000000e+00" cType="1" res="-2.7063144370913506e-03" rms="2.7412053942680359e-01" purity="1.4745470881462097e-01" nType="-99"/>
          <Node pos="r" depth="2" NCoef="0" IVar="-1" Cut="0.0000000000000000e+00" cType="1" res="1.3730110367760062e-03" rms="3.6954116821289062e-01" purity="4.6853291988372803e-01" nType="-99"/>
        </Node>
        <Node pos="r" depth="1" NCoef="0" IVar="15" Cut="1.5204561948776245e+00" cType="1" res="2.5170722603797913e-01" rms="3.0134871602058411e-01" purity="8.7060439586639404e-01" nType="0">
          <Node pos="l" depth="2" NCoef="0" IVar="-1" Cut="0.0000000000000000e+00" cType="1" res="3.1055894214659929e-03" rms="2.0977963507175446e-01" purity="9.3991273641586304e-01" nType="-99"/>
          <Node pos="r" depth="2" NCoef="0" IVar="-1" Cut="0.0000000000000000e+00" cType="1" res="6.3611177029088140e-04" rms="4.3759542703628540e-01" purity="6.4872086048126221e-01" nType="-99"/>
        </Node>
      </Node>
    </BinaryTree>
    <BinaryTree type="DecisionTree" boostWeight="1.0000000000000000e+00" itree="109">
      <Node pos="s" depth="0" NCoef="0" IVar="17" Cut="1.5220416784286499e+00" cType="1" res="8.9104220271110535e-02" rms="3.4483900666236877e-01" purity="5.0996655225753784e-01" nType="0">
        <Node pos="l" depth="1" NCoef="0" IVar="36" Cut="1.3672260046005249e+00" cType="1" res="-1.9916690886020660e-02" rms="3.3070734143257141e-01" purity="2.7219915390014648e-01" nType="0">
          <Node pos="l" depth="2" NCoef="0" IVar="-1" Cut="0.0000000000000000e+00" cType="1" res="-9.0474430471658707e-03" rms="1.3049775362014771e-01" purity="2.4396628141403198e-02" nType="-99"/>
          <Node pos="r" depth="2" NCoef="0" IVar="-1" Cut="0.0000000000000000e+00" cType="1" res="7.5014977483078837e-04" rms="3.7866669893264771e-01" purity="4.0270841121673584e-01" nType="-99"/>
        </Node>
        <Node pos="r" depth="1" NCoef="0" IVar="15" Cut="1.5227712392807007e+00" cType="1" res="2.5763776898384094e-01" rms="2.9477888345718384e-01" purity="8.7752717733383179e-01" nType="0">
          <Node pos="l" depth="2" NCoef="0" IVar="-1" Cut="0.0000000000000000e+00" cType="1" res="3.0563119798898697e-03" rms="2.1891385316848755e-01" purity="9.3681937456130981e-01" nType="-99"/>
          <Node pos="r" depth="2" NCoef="0" IVar="-1" Cut="0.0000000000000000e+00" cType="1" res="4.6911457320675254e-04" rms="4.4096481800079346e-01" purity="6.2833285331726074e-01" nType="-99"/>
        </Node>
      </Node>
    </BinaryTree>
    <BinaryTree type="DecisionTree" boostWeight="1.0000000000000000e+00" itree="110">
      <Node pos="s" depth="0" NCoef="0" IVar="17" Cut="1.5231137275695801e+00" cType="1" res="8.3123527467250824e-02" rms="3.4003320336341858e-01" purity="5.0836783647537231e-01" nType="0">
        <Node pos="l" depth="1" NCoef="0" IVar="5" Cut="2.8046363592147827e-01" cType="1" res="-2.6275549083948135e-02" rms="3.2165786623954773e-01" purity="2.7240934967994690e-01" nType="0">
          <Node pos="l" depth="2" NCoef="0" IVar="-1" Cut="0.0000000000000000e+00" cType="1" res="1.3639046810567379e-03" rms="3.5512325167655945e-01" purity="4.4155105948448181e-01" nType="-99"/>
          <Node pos="r" depth="2" NCoef="0" IVar="-1" Cut="0.0000000000000000e+00" cType="1" res="-2.5596464984118938e-03" rms="2.6139289140701294e-01" purity="1.3725423812866211e-01" nType="-99"/>
        </Node>
        <Node pos="r" depth="1" NCoef="0" IVar="15" Cut="1.5224903821945190e+00" cType="1" res="2.5509139895439148e-01" rms="2.9385256767272949e-01" purity="8.7927854061126709e-01" nType="0">
          <Node pos="l" depth="2" NCoef="0" IVar="-1" Cut="0.0000000000000000e+00" cType="1" res="3.0392573680728674e-03" rms="2.1754281222820282e-01" purity="9.3662327527999878e-01" nType="-99"/>
          <Node pos="r" depth="2" NCoef="0" IVar="-1" Cut="0.0000000000000000e+00" cType="1" res="6.5298745175823569e-04" rms="4.4024521112442017e-01" purity="6.5130877494812012e-01" nType="-99"/>
        </Node>
      </Node>
    </BinaryTree>
    <BinaryTree type="DecisionTree" boostWeight="1.0000000000000000e+00" itree="111">
      <Node pos="s" depth="0" NCoef="0" IVar="17" Cut="1.5220416784286499e+00" cType="1" res="8.2096084952354431e-02" rms="3.4402418136596680e-01" purity="4.9941819906234741e-01" nType="0">
        <Node pos="l" depth="1" NCoef="0" IVar="36" Cut="1.3686834573745728e+00" cType="1" res="-2.2215709090232849e-02" rms="3.2747504115104675e-01" purity="2.6712763309478760e-01" nType="0">
          <Node pos="l" depth="2" NCoef="0" IVar="-1" Cut="0.0000000000000000e+00" cType="1" res="-9.1487178578972816e-03" rms="1.4468029141426086e-01" purity="2.0000135526061058e-02" nType="-99"/>
          <Node pos="r" depth="2" NCoef="0" IVar="-1" Cut="0.0000000000000000e+00" cType="1" res="6.6900043748319149e-04" rms="3.7322500348091125e-01" purity="3.9698362350463867e-01" nType="-99"/>
        </Node>
        <Node pos="r" depth="1" NCoef="0" IVar="15" Cut="1.5197514295578003e+00" cType="1" res="2.4884061515331268e-01" rms="3.0152848362922668e-01" purity="8.7073945999145508e-01" nType="0">
          <Node pos="l" depth="2" NCoef="0" IVar="-1" Cut="0.0000000000000000e+00" cType="1" res="3.0581506434828043e-03" rms="2.1650032699108124e-01" purity="9.3666034936904907e-01" nType="-99"/>
          <Node pos="r" depth="2" NCoef="0" IVar="-1" Cut="0.0000000000000000e+00" cType="1" res="6.4555060816928744e-04" rms="4.3568083643913269e-01" purity="6.5347707271575928e-01" nType="-99"/>
        </Node>
      </Node>
    </BinaryTree>
    <BinaryTree type="DecisionTree" boostWeight="1.0000000000000000e+00" itree="112">
      <Node pos="s" depth="0" NCoef="0" IVar="17" Cut="1.5231137275695801e+00" cType="1" res="8.0137394368648529e-02" rms="3.4348538517951965e-01" purity="5.0024557113647461e-01" nType="0">
        <Node pos="l" depth="1" NCoef="0" IVar="5" Cut="3.0103641748428345e-01" cType="1" res="-2.1602012217044830e-02" rms="3.2705917954444885e-01" purity="2.7611652016639709e-01" nType="0">
          <Node pos="l" depth="2" NCoef="0" IVar="-1" Cut="0.0000000000000000e+00" cType="1" res="1.2498478172346950e-03" rms="3.5567060112953186e-01" purity="4.2853307723999023e-01" nType="-99"/>
          <Node pos="r" depth="2" NCoef="0" IVar="-1" Cut="0.0000000000000000e+00" cType="1" res="-2.3855417966842651e-03" rms="2.7356633543968201e-01" purity="1.4210653305053711e-01" nType="-99"/>
        </Node>
        <Node pos="r" depth="1" NCoef="0" IVar="1" Cut="2.4531958103179932e+00" cType="1" res="2.4868021905422211e-01" rms="3.0112266540527344e-01" purity="8.7154072523117065e-01" nType="0">
          <Node pos="l" depth="2" NCoef="0" IVar="-1" Cut="0.0000000000000000e+00" cType="1" res="-1.7783610383048654e-03" rms="4.4512203335762024e-01" purity="3.8321611285209656e-01" nType="-99"/>
          <Node pos="r" depth="2" NCoef="0" IVar="-1" Cut="0.0000000000000000e+00" cType="1" res="2.8022192418575287e-03" rms="2.6337158679962158e-01" purity="9.0949857234954834e-01" nType="-99"/>
        </Node>
      </Node>
    </BinaryTree>
    <BinaryTree type="DecisionTree" boostWeight="1.0000000000000000e+00" itree="113">
      <Node pos="s" depth="0" NCoef="0" IVar="17" Cut="1.5220416784286499e+00" cType="1" res="8.9997909963130951e-02" rms="3.4812965989112854e-01" purity="5.1229226589202881e-01" nType="0">
        <Node pos="l" depth="1" NCoef="0" IVar="1" Cut="2.7327408790588379e+00" cType="1" res="-1.3322063721716404e-02" rms="3.3573609590530396e-01" purity="2.8313338756561279e-01" nType="0">
          <Node pos="l" depth="2" NCoef="0" IVar="-1" Cut="0.0000000000000000e+00" cType="1" res="-4.7606481239199638e-03" rms="2.3175710439682007e-01" purity="8.0493248999118805e-02" nType="-99"/>
          <Node pos="r" depth="2" NCoef="0" IVar="-1" Cut="0.0000000000000000e+00" cType="1" res="9.2137820320203900e-04" rms="3.6154565215110779e-01" purity="3.9484363794326782e-01" nType="-99"/>
        </Node>
        <Node pos="r" depth="1" NCoef="0" IVar="15" Cut="1.5233229398727417e+00" cType="1" res="2.5283318758010864e-01" rms="3.0201408267021179e-01" purity="8.7345325946807861e-01" nType="0">
          <Node pos="l" depth="2" NCoef="0" IVar="-1" Cut="0.0000000000000000e+00" cType="1" res="3.0214581638574600e-03" rms="2.2666150331497192e-01" purity="9.3309587240219116e-01" nType="-99"/>
          <Node pos="r" depth="2" NCoef="0" IVar="-1" Cut="0.0000000000000000e+00" cType="1" res="7.3157850420102477e-04" rms="4.3555420637130737e-01" purity="6.5962803363800049e-01" nType="-99"/>
        </Node>
      </Node>
    </BinaryTree>
    <BinaryTree type="DecisionTree" boostWeight="1.0000000000000000e+00" itree="114">
      <Node pos="s" depth="0" NCoef="0" IVar="17" Cut="1.4844523668289185e+00" cType="1" res="8.3066202700138092e-02" rms="3.4344258904457092e-01" purity="5.0137609243392944e-01" nType="0">
        <Node pos="l" depth="1" NCoef="0" IVar="3" Cut="4.9526185989379883e+00" cType="1" res="-6.7496098577976227e-02" rms="2.6379454135894775e-01" purity="1.0799667239189148e-01" nType="0">
          <Node pos="l" depth="2" NCoef="0" IVar="-1" Cut="0.0000000000000000e+00" cType="1" res="-4.2960201390087605e-03" rms="2.2606471180915833e-01" purity="7.4686102569103241e-02" nType="-99"/>
          <Node pos="r" depth="2" NCoef="0" IVar="-1" Cut="0.0000000000000000e+00" cType="1" res="7.3996809078380466e-04" rms="3.3986511826515198e-01" purity="2.1363502740859985e-01" nType="-99"/>
        </Node>
        <Node pos="r" depth="1" NCoef="0" IVar="1" Cut="2.7327408790588379e+00" cType="1" res="1.9843852519989014e-01" rms="3.5260808467864990e-01" purity="8.0281341075897217e-01" nType="0">
          <Node pos="l" depth="2" NCoef="0" IVar="-1" Cut="0.0000000000000000e+00" cType="1" res="-5.6680710986256599e-04" rms="4.3943324685096741e-01" purity="4.9432387948036194e-01" nType="-99"/>
          <Node pos="r" depth="2" NCoef="0" IVar="-1" Cut="0.0000000000000000e+00" cType="1" res="2.5066200178116560e-03" rms="2.9871523380279541e-01" purity="8.7764567136764526e-01" nType="-99"/>
        </Node>
      </Node>
    </BinaryTree>
    <BinaryTree type="DecisionTree" boostWeight="1.0000000000000000e+00" itree="115">
      <Node pos="s" depth="0" NCoef="0" IVar="17" Cut="1.5231137275695801e+00" cType="1" res="7.5788915157318115e-02" rms="3.3961358666419983e-01" purity="4.9770787358283997e-01" nType="0">
        <Node pos="l" depth="1" NCoef="0" IVar="48" Cut="1.0185717344284058e+00" cType="1" res="-2.7778340503573418e-02" rms="3.2033437490463257e-01" purity="2.6992082595825195e-01" nType="0">
          <Node pos="l" depth="2" NCoef="0" IVar="-1" Cut="0.0000000000000000e+00" cType="1" res="-7.9841697588562965e-03" rms="0.0000000000000000e+00" purity="-4.8704314976930618e-02" nType="-99"/>
          <Node pos="r" depth="2" NCoef="0" IVar="-1" Cut="0.0000000000000000e+00" cType="1" res="2.2838950098957866e-04" rms="3.3971992135047913e-01" purity="3.2707512378692627e-01" nType="-99"/>
        </Node>
        <Node pos="r" depth="1" NCoef="0" IVar="15" Cut="1.5224903821945190e+00" cType="1" res="2.4587124586105347e-01" rms="2.9948142170906067e-01" purity="8.7178897857666016e-01" nType="0">
          <Node pos="l" depth="2" NCoef="0" IVar="-1" Cut="0.0000000000000000e+00" cType="1" res="2.9853251762688160e-03" rms="2.2354468703269958e-01" purity="9.3300348520278931e-01" nType="-99"/>
          <Node pos="r" depth="2" NCoef="0" IVar="-1" Cut="0.0000000000000000e+00" cType="1" res="5.0105142872780561e-04" rms="4.3792501091957092e-01" purity="6.3756364583969116e-01" nType="-99"/>
        </Node>
      </Node>
    </BinaryTree>
    <BinaryTree type="DecisionTree" boostWeight="1.0000000000000000e+00" itree="116">
      <Node pos="s" depth="0" NCoef="0" IVar="17" Cut="1.4830439090728760e+00" cType="1" res="8.4751687943935394e-02" rms="3.4091308712959290e-01" purity="5.0755149126052856e-01" nType="0">
        <Node pos="l" depth="1" NCoef="0" IVar="36" Cut="1.4058668613433838e+00" cType="1" res="-7.2488717734813690e-02" rms="2.4678792059421539e-01" purity="9.8221287131309509e-02" nType="0">
          <Node pos="l" depth="2" NCoef="0" IVar="-1" Cut="0.0000000000000000e+00" cType="1" res="-1.1591835878789425e-02" rms="0.0000000000000000e+00" purity="-6.9398265331983566e-03" nType="-99"/>
          <Node pos="r" depth="2" NCoef="0" IVar="-1" Cut="0.0000000000000000e+00" cType="1" res="-4.4372290722094476e-04" rms="3.2485830783843994e-01" purity="1.8112294375896454e-01" nType="-99"/>
        </Node>
        <Node pos="r" depth="1" NCoef="0" IVar="1" Cut="2.2833070755004883e+00" cType="1" res="1.9782941043376923e-01" rms="3.5416907072067261e-01" purity="8.0191683769226074e-01" nType="0">
          <Node pos="l" depth="2" NCoef="0" IVar="-1" Cut="0.0000000000000000e+00" cType="1" res="-3.6326553672552109e-03" rms="3.6606138944625854e-01" purity="2.0455445349216461e-01" nType="-99"/>
          <Node pos="r" depth="2" NCoef="0" IVar="-1" Cut="0.0000000000000000e+00" cType="1" res="2.2206129506230354e-03" rms="3.3122378587722778e-01" purity="8.4131073951721191e-01" nType="-99"/>
        </Node>
      </Node>
    </BinaryTree>
    <BinaryTree type="DecisionTree" boostWeight="1.0000000000000000e+00" itree="117">
      <Node pos="s" depth="0" NCoef="0" IVar="17" Cut="1.4457910060882568e+00" cType="1" res="7.6114714145660400e-02" rms="3.4306931495666504e-01" purity="4.9149006605148315e-01" nType="0">
        <Node pos="l" depth="1" NCoef="0" IVar="57" Cut="-1.2645567655563354e+00" cType="1" res="-8.7149046361446381e-02" rms="1.8184106051921844e-01" purity="4.1983552277088165e-02" nType="0">
          <Node pos="l" depth="2" NCoef="0" IVar="-1" Cut="0.0000000000000000e+00" cType="1" res="-2.2960719652473927e-03" rms="2.6934832334518433e-01" purity="9.3248590826988220e-02" nType="-99"/>
          <Node pos="r" depth="2" NCoef="0" IVar="-1" Cut="0.0000000000000000e+00" cType="1" res="-1.2794862501323223e-02" rms="0.0000000000000000e+00" purity="-2.8508255258202553e-02" nType="-99"/>
        </Node>
        <Node pos="r" depth="1" NCoef="0" IVar="36" Cut="9.0364718437194824e-01" cType="1" res="1.6937309503555298e-01" rms="3.7698233127593994e-01" purity="7.4825406074523926e-01" nType="0">
          <Node pos="l" depth="2" NCoef="0" IVar="-1" Cut="0.0000000000000000e+00" cType="1" res="-7.6985415071249008e-03" rms="2.9771953821182251e-01" purity="1.0285051912069321e-01" nType="-99"/>
          <Node pos="r" depth="2" NCoef="0" IVar="-1" Cut="0.0000000000000000e+00" cType="1" res="1.9570577424019575e-03" rms="3.6120158433914185e-01" purity="8.1275814771652222e-01" nType="-99"/>
        </Node>
      </Node>
    </BinaryTree>
    <BinaryTree type="DecisionTree" boostWeight="1.0000000000000000e+00" itree="118">
      <Node pos="s" depth="0" NCoef="0" IVar="17" Cut="1.4844523668289185e+00" cType="1" res="8.0842994153499603e-02" rms="3.3940789103507996e-01" purity="5.0003266334533691e-01" nType="0">
        <Node pos="l" depth="1" NCoef="0" IVar="5" Cut="2.4643249809741974e-01" cType="1" res="-6.7075721919536591e-02" rms="2.5326243042945862e-01" purity="1.0846614837646484e-01" nType="0">
          <Node pos="l" depth="2" NCoef="0" IVar="-1" Cut="0.0000000000000000e+00" cType="1" res="4.8360016080550849e-04" rms="3.4180110692977905e-01" purity="2.2216258943080902e-01" nType="-99"/>
          <Node pos="r" depth="2" NCoef="0" IVar="-1" Cut="0.0000000000000000e+00" cType="1" res="-5.1238662563264370e-03" rms="1.6567480564117432e-01" purity="4.3140862137079239e-02" nType="-99"/>
        </Node>
        <Node pos="r" depth="1" NCoef="0" IVar="36" Cut="1.4073475599288940e+00" cType="1" res="1.9464562833309174e-01" rms="3.5311958193778992e-01" purity="8.0128794908523560e-01" nType="0">
          <Node pos="l" depth="2" NCoef="0" IVar="-1" Cut="0.0000000000000000e+00" cType="1" res="-1.3651404296979308e-03" rms="4.3119263648986816e-01" purity="3.4418547153472900e-01" nType="-99"/>
          <Node pos="r" depth="2" NCoef="0" IVar="-1" Cut="0.0000000000000000e+00" cType="1" res="2.2704713046550751e-03" rms="3.1401425600051880e-01" purity="8.8062280416488647e-01" nType="-99"/>
        </Node>
      </Node>
    </BinaryTree>
    <BinaryTree type="DecisionTree" boostWeight="1.0000000000000000e+00" itree="119">
      <Node pos="s" depth="0" NCoef="0" IVar="17" Cut="1.4447457790374756e+00" cType="1" res="8.6550951004028320e-02" rms="3.3890426158905029e-01" purity="5.0794649124145508e-01" nType="0">
        <Node pos="l" depth="1" NCoef="0" IVar="17" Cut="9.9813669919967651e-01" cType="1" res="-8.3848863840103149e-02" rms="1.8236826360225677e-01" purity="4.3708849698305130e-02" nType="0">
          <Node pos="l" depth="2" NCoef="0" IVar="-1" Cut="0.0000000000000000e+00" cType="1" res="-1.8140066415071487e-02" rms="0.0000000000000000e+00" purity="-9.2094065621495247e-03" nType="-99"/>
          <Node pos="r" depth="2" NCoef="0" IVar="-1" Cut="0.0000000000000000e+00" cType="1" res="-5.8787851594388485e-04" rms="3.2953339815139771e-01" purity="1.4505806565284729e-01" nType="-99"/>
        </Node>
        <Node pos="r" depth="1" NCoef="0" IVar="36" Cut="1.4067025184631348e+00" cType="1" res="1.8063092231750488e-01" rms="3.6745765805244446e-01" purity="7.6425802707672119e-01" nType="0">
          <Node pos="l" depth="2" NCoef="0" IVar="-1" Cut="0.0000000000000000e+00" cType="1" res="-2.1013459190726280e-03" rms="3.9994585514068604e-01" purity="2.7876800298690796e-01" nType="-99"/>
          <Node pos="r" depth="2" NCoef="0" IVar="-1" Cut="0.0000000000000000e+00" cType="1" res="2.2395942360162735e-03" rms="3.3195614814758301e-01" purity="8.5467118024826050e-01" nType="-99"/>
        </Node>
      </Node>
    </BinaryTree>
    <BinaryTree type="DecisionTree" boostWeight="1.0000000000000000e+00" itree="120">
      <Node pos="s" depth="0" NCoef="0" IVar="17" Cut="1.4457910060882568e+00" cType="1" res="7.5847782194614410e-02" rms="3.3519211411476135e-01" purity="4.9536764621734619e-01" nType="0">
        <Node pos="l" depth="1" NCoef="0" IVar="14" Cut="-2.5715127587318420e-01" cType="1" res="-9.6153974533081055e-02" rms="1.4523710310459137e-01" purity="2.8894783928990364e-02" nType="0">
          <Node pos="l" depth="2" NCoef="0" IVar="-1" Cut="0.0000000000000000e+00" cType="1" res="-1.1082603596150875e-02" rms="5.0055522471666336e-02" purity="3.0161850154399872e-03" nType="-99"/>
          <Node pos="r" depth="2" NCoef="0" IVar="-1" Cut="0.0000000000000000e+00" cType="1" res="-1.4336362946778536e-03" rms="2.6415747404098511e-01" purity="1.0383409261703491e-01" nType="-99"/>
        </Node>
        <Node pos="r" depth="1" NCoef="0" IVar="36" Cut="1.3683462142944336e+00" cType="1" res="1.7170044779777527e-01" rms="3.7085884809494019e-01" purity="7.5532233715057373e-01" nType="0">
          <Node pos="l" depth="2" NCoef="0" IVar="-1" Cut="0.0000000000000000e+00" cType="1" res="-3.0602009501308203e-03" rms="3.8027629256248474e-01" purity="2.2655415534973145e-01" nType="-99"/>
          <Node pos="r" depth="2" NCoef="0" IVar="-1" Cut="0.0000000000000000e+00" cType="1" res="2.1120407618582249e-03" rms="3.4175628423690796e-01" purity="8.4173095226287842e-01" nType="-99"/>
        </Node>
      </Node>
    </BinaryTree>
    <BinaryTree type="DecisionTree" boostWeight="1.0000000000000000e+00" itree="121">
      <Node pos="s" depth="0" NCoef="0" IVar="17" Cut="1.5231137275695801e+00" cType="1" res="6.8137973546981812e-02" rms="3.3773899078369141e-01" purity="4.8534744977951050e-01" nType="0">
        <Node pos="l" depth="1" NCoef="0" IVar="36" Cut="1.4073475599288940e+00" cType="1" res="-3.4427043050527573e-02" rms="3.1591668725013733e-01" purity="2.5159779191017151e-01" nType="0">
          <Node pos="l" depth="2" NCoef="0" IVar="-1" Cut="0.0000000000000000e+00" cType="1" res="-8.5814539343118668e-03" rms="1.6427506506443024e-01" purity="2.2979892790317535e-02" nType="-99"/>
          <Node pos="r" depth="2" NCoef="0" IVar="-1" Cut="0.0000000000000000e+00" cType="1" res="4.5465055154636502e-04" rms="3.6340945959091187e-01" purity="3.8810995221138000e-01" nType="-99"/>
        </Node>
        <Node pos="r" depth="1" NCoef="0" IVar="36" Cut="1.1362046003341675e+00" cType="1" res="2.3568208515644073e-01" rms="3.0350241065025330e-01" purity="8.6718690395355225e-01" nType="0">
          <Node pos="l" depth="2" NCoef="0" IVar="-1" Cut="0.0000000000000000e+00" cType="1" res="-5.7483133859932423e-03" rms="3.5709860920906067e-01" purity="1.6292209923267365e-01" nType="-99"/>
          <Node pos="r" depth="2" NCoef="0" IVar="-1" Cut="0.0000000000000000e+00" cType="1" res="2.5547528639435768e-03" rms="2.7905297279357910e-01" purity="9.0893578529357910e-01" nType="-99"/>
        </Node>
      </Node>
    </BinaryTree>
    <BinaryTree type="DecisionTree" boostWeight="1.0000000000000000e+00" itree="122">
      <Node pos="s" depth="0" NCoef="0" IVar="17" Cut="1.5231137275695801e+00" cType="1" res="8.6428359150886536e-02" rms="3.3819577097892761e-01" purity="5.0986272096633911e-01" nType="0">
        <Node pos="l" depth="1" NCoef="0" IVar="5" Cut="2.8204399347305298e-01" cType="1" res="-1.7692748457193375e-02" rms="3.2545030117034912e-01" purity="2.7144771814346313e-01" nType="0">
          <Node pos="l" depth="2" NCoef="0" IVar="-1" Cut="0.0000000000000000e+00" cType="1" res="1.3940652133896947e-03" rms="3.5562124848365784e-01" purity="4.2690309882164001e-01" nType="-99"/>
          <Node pos="r" depth="2" NCoef="0" IVar="-1" Cut="0.0000000000000000e+00" cType="1" res="-2.1959610749036074e-03" rms="2.7642551064491272e-01" purity="1.5015628933906555e-01" nType="-99"/>
        </Node>
        <Node pos="r" depth="1" NCoef="0" IVar="15" Cut="1.5221327543258667e+00" cType="1" res="2.4813981354236603e-01" rms="2.9073208570480347e-01" purity="8.8014715909957886e-01" nType="0">
          <Node pos="l" depth="2" NCoef="0" IVar="-1" Cut="0.0000000000000000e+00" cType="1" res="2.9994361102581024e-03" rms="2.1595369279384613e-01" purity="9.3791627883911133e-01" nType="-99"/>
          <Node pos="r" depth="2" NCoef="0" IVar="-1" Cut="0.0000000000000000e+00" cType="1" res="9.7313727019354701e-04" rms="4.2254245281219482e-01" purity="6.8758183717727661e-01" nType="-99"/>
        </Node>
      </Node>
    </BinaryTree>
    <BinaryTree type="DecisionTree" boostWeight="1.0000000000000000e+00" itree="123">
      <Node pos="s" depth="0" NCoef="0" IVar="17" Cut="1.5210473537445068e+00" cType="1" res="8.1095986068248749e-02" rms="3.3802804350852966e-01" purity="5.0250947475433350e-01" nType="0">
        <Node pos="l" depth="1" NCoef="0" IVar="2" Cut="2.3411214351654053e+00" cType="1" res="-2.8519438579678535e-02" rms="3.1934511661529541e-01" purity="2.4805097281932831e-01" nType="0">
          <Node pos="l" depth="2" NCoef="0" IVar="-1" Cut="0.0000000000000000e+00" cType="1" res="-3.8276845589280128e-03" rms="2.4705502390861511e-01" purity="1.0707659274339676e-01" nType="-99"/>
          <Node pos="r" depth="2" NCoef="0" IVar="-1" Cut="0.0000000000000000e+00" cType="1" res="7.9028861364349723e-04" rms="3.5563629865646362e-01" purity="3.7870097160339355e-01" nType="-99"/>
        </Node>
        <Node pos="r" depth="1" NCoef="0" IVar="15" Cut="1.5227712392807007e+00" cType="1" res="2.4007967114448547e-01" rms="2.9895335435867310e-01" purity="8.7157016992568970e-01" nType="0">
          <Node pos="l" depth="2" NCoef="0" IVar="-1" Cut="0.0000000000000000e+00" cType="1" res="2.9190264176577330e-03" rms="2.2364592552185059e-01" purity="9.3196702003479004e-01" nType="-99"/>
          <Node pos="r" depth="2" NCoef="0" IVar="-1" Cut="0.0000000000000000e+00" cType="1" res="5.7511677732691169e-04" rms="4.3544730544090271e-01" purity="6.4904016256332397e-01" nType="-99"/>
        </Node>
      </Node>
    </BinaryTree>
    <BinaryTree type="DecisionTree" boostWeight="1.0000000000000000e+00" itree="124">
      <Node pos="s" depth="0" NCoef="0" IVar="17" Cut="1.4844523668289185e+00" cType="1" res="7.7981181442737579e-02" rms="3.3607444167137146e-01" purity="5.0027269124984741e-01" nType="0">
        <Node pos="l" depth="1" NCoef="0" IVar="17" Cut="1.4467405080795288e+00" cType="1" res="-6.4256489276885986e-02" rms="2.4755840003490448e-01" purity="1.0544679313898087e-01" nType="0">
          <Node pos="l" depth="2" NCoef="0" IVar="-1" Cut="0.0000000000000000e+00" cType="1" res="-6.4469329081475735e-03" rms="1.6021087765693665e-01" purity="3.2703988254070282e-02" nType="-99"/>
          <Node pos="r" depth="2" NCoef="0" IVar="-1" Cut="0.0000000000000000e+00" cType="1" res="6.0478766681626439e-04" rms="4.5872819423675537e-01" purity="4.4497147202491760e-01" nType="-99"/>
        </Node>
        <Node pos="r" depth="1" NCoef="0" IVar="48" Cut="1.0179938077926636e+00" cType="1" res="1.8516981601715088e-01" rms="3.5375329852104187e-01" purity="7.9780894517898560e-01" nType="0">
          <Node pos="l" depth="2" NCoef="0" IVar="-1" Cut="0.0000000000000000e+00" cType="1" res="-2.8813877142965794e-03" rms="3.7561482191085815e-01" purity="2.7486541867256165e-01" nType="-99"/>
          <Node pos="r" depth="2" NCoef="0" IVar="-1" Cut="0.0000000000000000e+00" cType="1" res="2.1961212623864412e-03" rms="3.2964181900024414e-01" purity="8.3690130710601807e-01" nType="-99"/>
        </Node>
      </Node>
    </BinaryTree>
    <BinaryTree type="DecisionTree" boostWeight="1.0000000000000000e+00" itree="125">
      <Node pos="s" depth="0" NCoef="0" IVar="17" Cut="1.4833937883377075e+00" cType="1" res="8.4607034921646118e-02" rms="3.3425754308700562e-01" purity="5.0397056341171265e-01" nType="0">
        <Node pos="l" depth="1" NCoef="0" IVar="3" Cut="5.0211219787597656e+00" cType="1" res="-6.4203523099422455e-02" rms="2.4686574935913086e-01" purity="9.3658857047557831e-02" nType="0">
          <Node pos="l" depth="2" NCoef="0" IVar="-1" Cut="0.0000000000000000e+00" cType="1" res="-4.4733467511832714e-03" rms="2.0449189841747284e-01" purity="6.0578998178243637e-02" nType="-99"/>
          <Node pos="r" depth="2" NCoef="0" IVar="-1" Cut="0.0000000000000000e+00" cType="1" res="1.4773125294595957e-03" rms="3.4775725007057190e-01" purity="2.2912201285362244e-01" nType="-99"/>
        </Node>
        <Node pos="r" depth="1" NCoef="0" IVar="1" Cut="2.3244824409484863e+00" cType="1" res="1.9455130398273468e-01" rms="3.4756407141685486e-01" purity="8.0711722373962402e-01" nType="0">
          <Node pos="l" depth="2" NCoef="0" IVar="-1" Cut="0.0000000000000000e+00" cType="1" res="-3.3132319804280996e-03" rms="3.8388052582740784e-01" purity="2.3611879348754883e-01" nType="-99"/>
          <Node pos="r" depth="2" NCoef="0" IVar="-1" Cut="0.0000000000000000e+00" cType="1" res="2.2401567548513412e-03" rms="3.2183393836021423e-01" purity="8.4955632686614990e-01" nType="-99"/>
        </Node>
      </Node>
    </BinaryTree>
    <BinaryTree type="DecisionTree" boostWeight="1.0000000000000000e+00" itree="126">
      <Node pos="s" depth="0" NCoef="0" IVar="17" Cut="1.4828280210494995e+00" cType="1" res="8.3376549184322357e-02" rms="3.3676248788833618e-01" purity="5.0555026531219482e-01" nType="0">
        <Node pos="l" depth="1" NCoef="0" IVar="10" Cut="3.4423680305480957e+00" cType="1" res="-5.9770487248897552e-02" rms="2.5389394164085388e-01" purity="1.0301998257637024e-01" nType="0">
          <Node pos="l" depth="2" NCoef="0" IVar="-1" Cut="0.0000000000000000e+00" cType="1" res="-3.8043595850467682e-03" rms="2.1589659154415131e-01" purity="6.9190688431262970e-02" nType="-99"/>
          <Node pos="r" depth="2" NCoef="0" IVar="-1" Cut="0.0000000000000000e+00" cType="1" res="1.6415982972830534e-03" rms="3.5342788696289062e-01" purity="2.5204929709434509e-01" nType="-99"/>
        </Node>
        <Node pos="r" depth="1" NCoef="0" IVar="48" Cut="9.5059430599212646e-01" cType="1" res="1.8835298717021942e-01" rms="3.5107955336570740e-01" purity="8.0074459314346313e-01" nType="0">
          <Node pos="l" depth="2" NCoef="0" IVar="-1" Cut="0.0000000000000000e+00" cType="1" res="-3.9928271435201168e-03" rms="3.3951082825660706e-01" purity="1.3537998497486115e-01" nType="-99"/>
          <Node pos="r" depth="2" NCoef="0" IVar="-1" Cut="0.0000000000000000e+00" cType="1" res="2.1759830415248871e-03" rms="3.2763260602951050e-01" purity="8.3749216794967651e-01" nType="-99"/>
        </Node>
      </Node>
    </BinaryTree>
    <BinaryTree type="DecisionTree" boostWeight="1.0000000000000000e+00" itree="127">
      <Node pos="s" depth="0" NCoef="0" IVar="17" Cut="1.5220416784286499e+00" cType="1" res="7.7938064932823181e-02" rms="3.4124481678009033e-01" purity="4.9432438611984253e-01" nType="0">
        <Node pos="l" depth="1" NCoef="0" IVar="36" Cut="1.4073475599288940e+00" cType="1" res="-2.0785955712199211e-02" rms="3.2592004537582397e-01" purity="2.5602847337722778e-01" nType="0">
          <Node pos="l" depth="2" NCoef="0" IVar="-1" Cut="0.0000000000000000e+00" cType="1" res="-7.4591082520782948e-03" rms="1.8537543714046478e-01" purity="3.3787455409765244e-02" nType="-99"/>
          <Node pos="r" depth="2" NCoef="0" IVar="-1" Cut="0.0000000000000000e+00" cType="1" res="6.4890080830082297e-04" rms="3.7355884909629822e-01" purity="3.9274322986602783e-01" nType="-99"/>
        </Node>
        <Node pos="r" depth="1" NCoef="0" IVar="1" Cut="2.4125626087188721e+00" cType="1" res="2.3106789588928223e-01" rms="3.0617031455039978e-01" purity="8.6394268274307251e-01" nType="0">
          <Node pos="l" depth="2" NCoef="0" IVar="-1" Cut="0.0000000000000000e+00" cType="1" res="-1.7081914702430367e-03" rms="4.5036265254020691e-01" purity="3.7473824620246887e-01" nType="-99"/>
          <Node pos="r" depth="2" NCoef="0" IVar="-1" Cut="0.0000000000000000e+00" cType="1" res="2.6558546815067530e-03" rms="2.7323019504547119e-01" purity="9.0017747879028320e-01" nType="-99"/>
        </Node>
      </Node>
    </BinaryTree>
    <BinaryTree type="DecisionTree" boostWeight="1.0000000000000000e+00" itree="128">
      <Node pos="s" depth="0" NCoef="0" IVar="17" Cut="1.4833937883377075e+00" cType="1" res="7.1470841765403748e-02" rms="3.3621001243591309e-01" purity="4.8372289538383484e-01" nType="0">
        <Node pos="l" depth="1" NCoef="0" IVar="3" Cut="5.0306720733642578e+00" cType="1" res="-6.5594755113124847e-02" rms="2.4485926330089569e-01" purity="9.0979516506195068e-02" nType="0">
          <Node pos="l" depth="2" NCoef="0" IVar="-1" Cut="0.0000000000000000e+00" cType="1" res="-4.6978648751974106e-03" rms="1.9795739650726318e-01" purity="5.4936744272708893e-02" nType="-99"/>
          <Node pos="r" depth="2" NCoef="0" IVar="-1" Cut="0.0000000000000000e+00" cType="1" res="1.6799172153696418e-03" rms="3.5279074311256409e-01" purity="2.4193386733531952e-01" nType="-99"/>
        </Node>
        <Node pos="r" depth="1" NCoef="0" IVar="48" Cut="9.5059430599212646e-01" cType="1" res="1.7804290354251862e-01" rms="3.5825148224830627e-01" purity="7.8909105062484741e-01" nType="0">
          <Node pos="l" depth="2" NCoef="0" IVar="-1" Cut="0.0000000000000000e+00" cType="1" res="-2.9966307338327169e-03" rms="3.8447135686874390e-01" purity="2.2432717680931091e-01" nType="-99"/>
          <Node pos="r" depth="2" NCoef="0" IVar="-1" Cut="0.0000000000000000e+00" cType="1" res="2.1113376133143902e-03" rms="3.3540615439414978e-01" purity="8.2636916637420654e-01" nType="-99"/>
        </Node>
      </Node>
    </BinaryTree>
    <BinaryTree type="DecisionTree" boostWeight="1.0000000000000000e+00" itree="129">
      <Node pos="s" depth="0" NCoef="0" IVar="17" Cut="1.4844523668289185e+00" cType="1" res="8.3141237497329712e-02" rms="3.3181872963905334e-01" purity="5.0439220666885376e-01" nType="0">
        <Node pos="l" depth="1" NCoef="0" IVar="2" Cut="2.6593737602233887e+00" cType="1" res="-5.9558026492595673e-02" rms="2.4734027683734894e-01" purity="1.0159385204315186e-01" nType="0">
          <Node pos="l" depth="2" NCoef="0" IVar="-1" Cut="0.0000000000000000e+00" cType="1" res="-4.5796246267855167e-03" rms="1.7884612083435059e-01" purity="5.2181698381900787e-02" nType="-99"/>
          <Node pos="r" depth="2" NCoef="0" IVar="-1" Cut="0.0000000000000000e+00" cType="1" res="5.6021747877821326e-04" rms="3.4416931867599487e-01" purity="2.1464270353317261e-01" nType="-99"/>
        </Node>
        <Node pos="r" depth="1" NCoef="0" IVar="1" Cut="2.5998988151550293e+00" cType="1" res="1.8981336057186127e-01" rms="3.4652090072631836e-01" purity="8.0549639463424683e-01" nType="0">
          <Node pos="l" depth="2" NCoef="0" IVar="-1" Cut="0.0000000000000000e+00" cType="1" res="-1.6237166710197926e-03" rms="4.3474444746971130e-01" purity="3.8271138072013855e-01" nType="-99"/>
          <Node pos="r" depth="2" NCoef="0" IVar="-1" Cut="0.0000000000000000e+00" cType="1" res="2.3315355647355318e-03" rms="3.0273368954658508e-01" purity="8.7096947431564331e-01" nType="-99"/>
        </Node>
      </Node>
    </BinaryTree>
    <BinaryTree type="DecisionTree" boostWeight="1.0000000000000000e+00" itree="130">
      <Node pos="s" depth="0" NCoef="0" IVar="17" Cut="1.4844523668289185e+00" cType="1" res="8.5901826620101929e-02" rms="3.3705475926399231e-01" purity="5.0643694400787354e-01" nType="0">
        <Node pos="l" depth="1" NCoef="0" IVar="5" Cut="2.4252998828887939e-01" cType="1" res="-5.0354879349470139e-02" rms="2.6316821575164795e-01" purity="1.1007843166589737e-01" nType="0">
          <Node pos="l" depth="2" NCoef="0" IVar="-1" Cut="0.0000000000000000e+00" cType="1" res="8.8237569434568286e-04" rms="3.5207203030586243e-01" purity="2.1342423558235168e-01" nType="-99"/>
          <Node pos="r" depth="2" NCoef="0" IVar="-1" Cut="0.0000000000000000e+00" cType="1" res="-3.9913556538522243e-03" rms="1.8375480175018311e-01" purity="5.3111232817173004e-02" nType="-99"/>
        </Node>
        <Node pos="r" depth="1" NCoef="0" IVar="36" Cut="-8.3526068925857544e-01" cType="1" res="1.8729126453399658e-01" rms="3.5001572966575623e-01" purity="8.0136972665786743e-01" nType="0">
          <Node pos="l" depth="2" NCoef="0" IVar="-1" Cut="0.0000000000000000e+00" cType="1" res="-2.0595295354723930e-02" rms="8.7675452232360840e-02" purity="6.1066658236086369e-03" nType="-99"/>
          <Node pos="r" depth="2" NCoef="0" IVar="-1" Cut="0.0000000000000000e+00" cType="1" res="2.0730372052639723e-03" rms="3.3853748440742493e-01" purity="8.4237241744995117e-01" nType="-99"/>
        </Node>
      </Node>
    </BinaryTree>
    <BinaryTree type="DecisionTree" boostWeight="1.0000000000000000e+00" itree="131">
      <Node pos="s" depth="0" NCoef="0" IVar="17" Cut="1.5220416784286499e+00" cType="1" res="6.7567102611064911e-02" rms="3.2922059297561646e-01" purity="4.8808795213699341e-01" nType="0">
        <Node pos="l" depth="1" NCoef="0" IVar="36" Cut="1.4460117816925049e+00" cType="1" res="-3.6247920244932175e-02" rms="3.0288439989089966e-01" purity="2.4176606535911560e-01" nType="0">
          <Node pos="l" depth="2" NCoef="0" IVar="-1" Cut="0.0000000000000000e+00" cType="1" res="-6.4402651041746140e-03" rms="1.6040869057178497e-01" purity="4.1889615356922150e-02" nType="-99"/>
          <Node pos="r" depth="2" NCoef="0" IVar="-1" Cut="0.0000000000000000e+00" cType="1" res="5.1201443420723081e-04" rms="3.5688301920890808e-01" purity="3.8577932119369507e-01" nType="-99"/>
        </Node>
        <Node pos="r" depth="1" NCoef="0" IVar="15" Cut="1.5233584642410278e+00" cType="1" res="2.2575908899307251e-01" rms="3.0381843447685242e-01" purity="8.6343002319335938e-01" nType="0">
          <Node pos="l" depth="2" NCoef="0" IVar="-1" Cut="0.0000000000000000e+00" cType="1" res="2.8552478179335594e-03" rms="2.2771753370761871e-01" purity="9.2790287733078003e-01" nType="-99"/>
          <Node pos="r" depth="2" NCoef="0" IVar="-1" Cut="0.0000000000000000e+00" cType="1" res="3.9968210330698639e-05" rms="4.4262805581092834e-01" purity="6.0026860237121582e-01" nType="-99"/>
        </Node>
      </Node>
    </BinaryTree>
    <BinaryTree type="DecisionTree" boostWeight="1.0000000000000000e+00" itree="132">
      <Node pos="s" depth="0" NCoef="0" IVar="17" Cut="1.5231137275695801e+00" cType="1" res="7.9920627176761627e-02" rms="3.2997104525566101e-01" purity="5.0293463468551636e-01" nType="0">
        <Node pos="l" depth="1" NCoef="0" IVar="2" Cut="2.4901125431060791e+00" cType="1" res="-1.5856640413403511e-02" rms="3.1440660357475281e-01" purity="2.6761275529861450e-01" nType="0">
          <Node pos="l" depth="2" NCoef="0" IVar="-1" Cut="0.0000000000000000e+00" cType="1" res="-2.8617293573915958e-03" rms="2.5551575422286987e-01" purity="1.2575700879096985e-01" nType="-99"/>
          <Node pos="r" depth="2" NCoef="0" IVar="-1" Cut="0.0000000000000000e+00" cType="1" res="1.1325365630909801e-03" rms="3.5018116235733032e-01" purity="4.3724799156188965e-01" nType="-99"/>
        </Node>
        <Node pos="r" depth="1" NCoef="0" IVar="15" Cut="1.5234886407852173e+00" cType="1" res="2.3110809922218323e-01" rms="2.9559198021888733e-01" purity="8.7439769506454468e-01" nType="0">
          <Node pos="l" depth="2" NCoef="0" IVar="-1" Cut="0.0000000000000000e+00" cType="1" res="2.8872082475572824e-03" rms="2.1990209817886353e-01" purity="9.3444168567657471e-01" nType="-99"/>
          <Node pos="r" depth="2" NCoef="0" IVar="-1" Cut="0.0000000000000000e+00" cType="1" res="4.7518473002128303e-04" rms="4.3528112769126892e-01" purity="6.4745396375656128e-01" nType="-99"/>
        </Node>
      </Node>
    </BinaryTree>
    <BinaryTree type="DecisionTree" boostWeight="1.0000000000000000e+00" itree="133">
      <Node pos="s" depth="0" NCoef="0" IVar="17" Cut="1.4447457790374756e+00" cType="1" res="8.7313160300254822e-02" rms="3.3620983362197876e-01" purity="5.0707763433456421e-01" nType="0">
        <Node pos="l" depth="1" NCoef="0" IVar="5" Cut="1.2873637676239014e-01" cType="1" res="-6.4776733517646790e-02" rms="2.0329062640666962e-01" purity="5.1118206232786179e-02" nType="0">
          <Node pos="l" depth="2" NCoef="0" IVar="-1" Cut="0.0000000000000000e+00" cType="1" res="-1.7929740351974033e-05" rms="3.1333622336387634e-01" purity="1.3308803737163544e-01" nType="-99"/>
          <Node pos="r" depth="2" NCoef="0" IVar="-1" Cut="0.0000000000000000e+00" cType="1" res="-8.3007756620645523e-03" rms="1.2814956903457642e-01" purity="1.8532689660787582e-02" nType="-99"/>
        </Node>
        <Node pos="r" depth="1" NCoef="0" IVar="36" Cut="8.2710939645767212e-01" cType="1" res="1.7213149368762970e-01" rms="3.6460185050964355e-01" purity="7.6135957241058350e-01" nType="0">
          <Node pos="l" depth="2" NCoef="0" IVar="-1" Cut="0.0000000000000000e+00" cType="1" res="-7.8450469300150871e-03" rms="2.7193745970726013e-01" purity="8.8051088154315948e-02" nType="-99"/>
          <Node pos="r" depth="2" NCoef="0" IVar="-1" Cut="0.0000000000000000e+00" cType="1" res="2.0177315454930067e-03" rms="3.5025787353515625e-01" purity="8.2389980554580688e-01" nType="-99"/>
        </Node>
      </Node>
    </BinaryTree>
    <BinaryTree type="DecisionTree" boostWeight="1.0000000000000000e+00" itree="134">
      <Node pos="s" depth="0" NCoef="0" IVar="17" Cut="1.4833937883377075e+00" cType="1" res="7.8258790075778961e-02" rms="3.3471089601516724e-01" purity="4.9757596850395203e-01" nType="0">
        <Node pos="l" depth="1" NCoef="0" IVar="3" Cut="5.0347948074340820e+00" cType="1" res="-5.3679708391427994e-02" rms="2.5471261143684387e-01" purity="1.0260260850191116e-01" nType="0">
          <Node pos="l" depth="2" NCoef="0" IVar="-1" Cut="0.0000000000000000e+00" cType="1" res="-3.7579941563308239e-03" rms="2.1332602202892303e-01" purity="7.0337563753128052e-02" nType="-99"/>
          <Node pos="r" depth="2" NCoef="0" IVar="-1" Cut="0.0000000000000000e+00" cType="1" res="1.8919986905530095e-03" rms="3.6040648818016052e-01" purity="2.4525773525238037e-01" nType="-99"/>
        </Node>
        <Node pos="r" depth="1" NCoef="0" IVar="48" Cut="1.1740661859512329e+00" cType="1" res="1.7801059782505035e-01" rms="3.5294431447982788e-01" purity="7.9619473218917847e-01" nType="0">
          <Node pos="l" depth="2" NCoef="0" IVar="-1" Cut="0.0000000000000000e+00" cType="1" res="-1.5098286094143987e-03" rms="4.2564851045608521e-01" purity="3.9435580372810364e-01" nType="-99"/>
          <Node pos="r" depth="2" NCoef="0" IVar="-1" Cut="0.0000000000000000e+00" cType="1" res="2.1516834385693073e-03" rms="3.2358580827713013e-01" purity="8.4216088056564331e-01" nType="-99"/>
        </Node>
      </Node>
    </BinaryTree>
    <BinaryTree type="DecisionTree" boostWeight="1.0000000000000000e+00" itree="135">
      <Node pos="s" depth="0" NCoef="0" IVar="17" Cut="1.5231137275695801e+00" cType="1" res="7.8013576567173004e-02" rms="3.3502334356307983e-01" purity="4.9697819352149963e-01" nType="0">
        <Node pos="l" depth="1" NCoef="0" IVar="5" Cut="2.8308928012847900e-01" cType="1" res="-9.3531114980578423e-03" rms="3.2229310274124146e-01" purity="2.7297034859657288e-01" nType="0">
          <Node pos="l" depth="2" NCoef="0" IVar="-1" Cut="0.0000000000000000e+00" cType="1" res="1.5901933657005429e-03" rms="3.5572209954261780e-01" purity="4.2826905846595764e-01" nType="-99"/>
          <Node pos="r" depth="2" NCoef="0" IVar="-1" Cut="0.0000000000000000e+00" cType="1" res="-2.0317051094025373e-03" rms="2.6802071928977966e-01" purity="1.5072456002235413e-01" nType="-99"/>
        </Node>
        <Node pos="r" depth="1" NCoef="0" IVar="15" Cut="1.5230776071548462e+00" cType="1" res="2.2167047858238220e-01" rms="3.0465003848075867e-01" purity="8.6531400680541992e-01" nType="0">
          <Node pos="l" depth="2" NCoef="0" IVar="-1" Cut="0.0000000000000000e+00" cType="1" res="2.8441967442631721e-03" rms="2.2491659224033356e-01" purity="9.3061882257461548e-01" nType="-99"/>
          <Node pos="r" depth="2" NCoef="0" IVar="-1" Cut="0.0000000000000000e+00" cType="1" res="4.7802146582398564e-05" rms="4.4618582725524902e-01" purity="6.0912126302719116e-01" nType="-99"/>
        </Node>
      </Node>
    </BinaryTree>
    <BinaryTree type="DecisionTree" boostWeight="1.0000000000000000e+00" itree="136">
      <Node pos="s" depth="0" NCoef="0" IVar="17" Cut="1.5231137275695801e+00" cType="1" res="7.5329147279262543e-02" rms="3.3163878321647644e-01" purity="4.9764469265937805e-01" nType="0">
        <Node pos="l" depth="1" NCoef="0" IVar="5" Cut="2.8571492433547974e-01" cType="1" res="-2.1740164607763290e-02" rms="3.1853780150413513e-01" purity="2.5830137729644775e-01" nType="0">
          <Node pos="l" depth="2" NCoef="0" IVar="-1" Cut="0.0000000000000000e+00" cType="1" res="1.2790932087227702e-03" rms="3.5553288459777832e-01" purity="4.0607941150665283e-01" nType="-99"/>
          <Node pos="r" depth="2" NCoef="0" IVar="-1" Cut="0.0000000000000000e+00" cType="1" res="-2.2378030698746443e-03" rms="2.6147976517677307e-01" purity="1.3730581104755402e-01" nType="-99"/>
        </Node>
        <Node pos="r" depth="1" NCoef="0" IVar="31" Cut="2.6194801330566406e+00" cType="1" res="2.2858440876007080e-01" rms="2.9166603088378906e-01" purity="8.7552541494369507e-01" nType="0">
          <Node pos="l" depth="2" NCoef="0" IVar="-1" Cut="0.0000000000000000e+00" cType="1" res="-2.7998611330986023e-03" rms="3.8013118505477905e-01" purity="3.7174633145332336e-01" nType="-99"/>
          <Node pos="r" depth="2" NCoef="0" IVar="-1" Cut="0.0000000000000000e+00" cType="1" res="2.5656979996711016e-03" rms="2.6696816086769104e-01" purity="9.0732979774475098e-01" nType="-99"/>
        </Node>
      </Node>
    </BinaryTree>
    <BinaryTree type="DecisionTree" boostWeight="1.0000000000000000e+00" itree="137">
      <Node pos="s" depth="0" NCoef="0" IVar="17" Cut="1.5231137275695801e+00" cType="1" res="8.4889709949493408e-02" rms="3.3277016878128052e-01" purity="5.0974184274673462e-01" nType="0">
        <Node pos="l" depth="1" NCoef="0" IVar="2" Cut="2.3349988460540771e+00" cType="1" res="-1.0544679127633572e-02" rms="3.2352522015571594e-01" purity="2.7478820085525513e-01" nType="0">
          <Node pos="l" depth="2" NCoef="0" IVar="-1" Cut="0.0000000000000000e+00" cType="1" res="-4.0072584524750710e-03" rms="2.3930762708187103e-01" purity="9.7926408052444458e-02" nType="-99"/>
          <Node pos="r" depth="2" NCoef="0" IVar="-1" Cut="0.0000000000000000e+00" cType="1" res="1.1700019240379333e-03" rms="3.5765144228935242e-01" purity="4.2538577318191528e-01" nType="-99"/>
        </Node>
        <Node pos="r" depth="1" NCoef="0" IVar="15" Cut="1.5230776071548462e+00" cType="1" res="2.3590596020221710e-01" rms="2.8830385208129883e-01" purity="8.8153469562530518e-01" nType="0">
          <Node pos="l" depth="2" NCoef="0" IVar="-1" Cut="0.0000000000000000e+00" cType="1" res="2.9209011700004339e-03" rms="2.1585083007812500e-01" purity="9.3748360872268677e-01" nType="-99"/>
          <Node pos="r" depth="2" NCoef="0" IVar="-1" Cut="0.0000000000000000e+00" cType="1" res="6.0144270537421107e-04" rms="4.2718356847763062e-01" purity="6.6697525978088379e-01" nType="-99"/>
        </Node>
      </Node>
    </BinaryTree>
    <BinaryTree type="DecisionTree" boostWeight="1.0000000000000000e+00" itree="138">
      <Node pos="s" depth="0" NCoef="0" IVar="17" Cut="1.4457910060882568e+00" cType="1" res="8.6718440055847168e-02" rms="3.3166480064392090e-01" purity="5.1144760847091675e-01" nType="0">
        <Node pos="l" depth="1" NCoef="0" IVar="5" Cut="9.5261067152023315e-02" cType="1" res="-7.3967978358268738e-02" rms="1.7615494132041931e-01" purity="3.9885837584733963e-02" nType="0">
          <Node pos="l" depth="2" NCoef="0" IVar="-1" Cut="0.0000000000000000e+00" cType="1" res="8.3902130427304655e-05" rms="3.1330609321594238e-01" purity="1.3443385064601898e-01" nType="-99"/>
          <Node pos="r" depth="2" NCoef="0" IVar="-1" Cut="0.0000000000000000e+00" cType="1" res="-9.2887943610548973e-03" rms="6.0687098652124405e-02" purity="5.3957337513566017e-03" nType="-99"/>
        </Node>
        <Node pos="r" depth="1" NCoef="0" IVar="1" Cut="2.2612051963806152e+00" cType="1" res="1.7347992956638336e-01" rms="3.6217734217643738e-01" purity="7.6606404781341553e-01" nType="0">
          <Node pos="l" depth="2" NCoef="0" IVar="-1" Cut="0.0000000000000000e+00" cType="1" res="-3.8363735657185316e-03" rms="3.4484648704528809e-01" purity="1.6702842712402344e-01" nType="-99"/>
          <Node pos="r" depth="2" NCoef="0" IVar="-1" Cut="0.0000000000000000e+00" cType="1" res="2.0513983909040689e-03" rms="3.4338834881782532e-01" purity="8.0798953771591187e-01" nType="-99"/>
        </Node>
      </Node>
    </BinaryTree>
    <BinaryTree type="DecisionTree" boostWeight="1.0000000000000000e+00" itree="139">
      <Node pos="s" depth="0" NCoef="0" IVar="17" Cut="1.5231137275695801e+00" cType="1" res="7.9786360263824463e-02" rms="3.2823210954666138e-01" purity="5.0205761194229126e-01" nType="0">
        <Node pos="l" depth="1" NCoef="0" IVar="36" Cut="1.4460117816925049e+00" cType="1" res="-1.1126714758574963e-02" rms="3.1642773747444153e-01" purity="2.6984456181526184e-01" nType="0">
          <Node pos="l" depth="2" NCoef="0" IVar="-1" Cut="0.0000000000000000e+00" cType="1" res="-5.1480992697179317e-03" rms="2.0149885118007660e-01" purity="6.1904251575469971e-02" nType="-99"/>
          <Node pos="r" depth="2" NCoef="0" IVar="-1" Cut="0.0000000000000000e+00" cType="1" res="8.5748027777299285e-04" rms="3.6287918686866760e-01" purity="4.2118406295776367e-01" nType="-99"/>
        </Node>
        <Node pos="r" depth="1" NCoef="0" IVar="15" Cut="1.5233584642410278e+00" cType="1" res="2.2572021186351776e-01" rms="2.9221156239509583e-01" purity="8.7480646371841431e-01" nType="0">
          <Node pos="l" depth="2" NCoef="0" IVar="-1" Cut="0.0000000000000000e+00" cType="1" res="2.8597873169928789e-03" rms="2.1479608118534088e-01" purity="9.3723458051681519e-01" nType="-99"/>
          <Node pos="r" depth="2" NCoef="0" IVar="-1" Cut="0.0000000000000000e+00" cType="1" res="3.5065357224084437e-04" rms="4.3413007259368896e-01" purity="6.3488674163818359e-01" nType="-99"/>
        </Node>
      </Node>
    </BinaryTree>
    <BinaryTree type="DecisionTree" boostWeight="1.0000000000000000e+00" itree="140">
      <Node pos="s" depth="0" NCoef="0" IVar="17" Cut="1.5231137275695801e+00" cType="1" res="8.5685305297374725e-02" rms="3.3084768056869507e-01" purity="5.1243925094604492e-01" nType="0">
        <Node pos="l" depth="1" NCoef="0" IVar="5" Cut="2.6412284374237061e-01" cType="1" res="-9.1876331716775894e-03" rms="3.2456961274147034e-01" purity="2.7285540103912354e-01" nType="0">
          <Node pos="l" depth="2" NCoef="0" IVar="-1" Cut="0.0000000000000000e+00" cType="1" res="1.4852505410090089e-03" rms="3.4754675626754761e-01" purity="4.3592295050621033e-01" nType="-99"/>
          <Node pos="r" depth="2" NCoef="0" IVar="-1" Cut="0.0000000000000000e+00" cType="1" res="-1.8925261683762074e-03" rms="2.8605329990386963e-01" purity="1.4791800081729889e-01" nType="-99"/>
        </Node>
        <Node pos="r" depth="1" NCoef="0" IVar="15" Cut="1.5217730998992920e+00" cType="1" res="2.3289345204830170e-01" rms="2.8321105241775513e-01" purity="8.8418585062026978e-01" nType="0">
          <Node pos="l" depth="2" NCoef="0" IVar="-1" Cut="0.0000000000000000e+00" cType="1" res="2.9366163071244955e-03" rms="1.9879724085330963e-01" purity="9.4658410549163818e-01" nType="-99"/>
          <Node pos="r" depth="2" NCoef="0" IVar="-1" Cut="0.0000000000000000e+00" cType="1" res="6.4069352811202407e-04" rms="4.2798820137977600e-01" purity="6.6532868146896362e-01" nType="-99"/>
        </Node>
      </Node>
    </BinaryTree>
    <BinaryTree type="DecisionTree" boostWeight="1.0000000000000000e+00" itree="141">
      <Node pos="s" depth="0" NCoef="0" IVar="17" Cut="1.5231137275695801e+00" cType="1" res="7.2910629212856293e-02" rms="3.3119329810142517e-01" purity="4.8996368050575256e-01" nType="0">
        <Node pos="l" depth="1" NCoef="0" IVar="36" Cut="1.3292280435562134e+00" cType="1" res="-1.3210657052695751e-02" rms="3.1661203503608704e-01" purity="2.6998803019523621e-01" nType="0">
          <Node pos="l" depth="2" NCoef="0" IVar="-1" Cut="0.0000000000000000e+00" cType="1" res="-9.4345398247241974e-03" rms="1.3399595022201538e-01" purity="1.6638837754726410e-02" nType="-99"/>
          <Node pos="r" depth="2" NCoef="0" IVar="-1" Cut="0.0000000000000000e+00" cType="1" res="6.5288238693028688e-04" rms="3.6128103733062744e-01" purity="3.9319291710853577e-01" nType="-99"/>
        </Node>
        <Node pos="r" depth="1" NCoef="0" IVar="1" Cut="2.4538977146148682e+00" cType="1" res="2.2087724506855011e-01" rms="3.0212721228599548e-01" purity="8.6790806055068970e-01" nType="0">
          <Node pos="l" depth="2" NCoef="0" IVar="-1" Cut="0.0000000000000000e+00" cType="1" res="-1.6251936322078109e-03" rms="4.3177571892738342e-01" purity="4.0451258420944214e-01" nType="-99"/>
          <Node pos="r" depth="2" NCoef="0" IVar="-1" Cut="0.0000000000000000e+00" cType="1" res="2.5976328179240227e-03" rms="2.6871889829635620e-01" purity="9.0531086921691895e-01" nType="-99"/>
        </Node>
      </Node>
    </BinaryTree>
    <BinaryTree type="DecisionTree" boostWeight="1.0000000000000000e+00" itree="142">
      <Node pos="s" depth="0" NCoef="0" IVar="17" Cut="1.5210473537445068e+00" cType="1" res="8.1778310239315033e-02" rms="3.3148714900016785e-01" purity="5.0553303956985474e-01" nType="0">
        <Node pos="l" depth="1" NCoef="0" IVar="2" Cut="2.4900536537170410e+00" cType="1" res="-7.7268043532967567e-03" rms="3.2018563151359558e-01" purity="2.6850140094757080e-01" nType="0">
          <Node pos="l" depth="2" NCoef="0" IVar="-1" Cut="0.0000000000000000e+00" cType="1" res="-2.5905759539455175e-03" rms="2.6114958524703979e-01" purity="1.3204656541347504e-01" nType="-99"/>
          <Node pos="r" depth="2" NCoef="0" IVar="-1" Cut="0.0000000000000000e+00" cType="1" res="1.2754503404721618e-03" rms="3.5788297653198242e-01" purity="4.3408763408660889e-01" nType="-99"/>
        </Node>
        <Node pos="r" depth="1" NCoef="0" IVar="15" Cut="1.5230776071548462e+00" cType="1" res="2.1801660954952240e-01" rms="3.0056473612785339e-01" purity="8.6632555723190308e-01" nType="0">
          <Node pos="l" depth="2" NCoef="0" IVar="-1" Cut="0.0000000000000000e+00" cType="1" res="2.8256098739802837e-03" rms="2.2176440060138702e-01" purity="9.3171876668930054e-01" nType="-99"/>
          <Node pos="r" depth="2" NCoef="0" IVar="-1" Cut="0.0000000000000000e+00" cType="1" res="-2.6261594030074775e-04" rms="4.4790926575660706e-01" purity="5.7809484004974365e-01" nType="-99"/>
        </Node>
      </Node>
    </BinaryTree>
    <BinaryTree type="DecisionTree" boostWeight="1.0000000000000000e+00" itree="143">
      <Node pos="s" depth="0" NCoef="0" IVar="17" Cut="1.4830439090728760e+00" cType="1" res="8.3808980882167816e-02" rms="3.3233886957168579e-01" purity="5.0765091180801392e-01" nType="0">
        <Node pos="l" depth="1" NCoef="0" IVar="3" Cut="4.9812889099121094e+00" cType="1" res="-4.4940166175365448e-02" rms="2.5888231396675110e-01" purity="1.0828299820423126e-01" nType="0">
          <Node pos="l" depth="2" NCoef="0" IVar="-1" Cut="0.0000000000000000e+00" cType="1" res="-3.9250156842172146e-03" rms="2.1251280605792999e-01" purity="6.4738556742668152e-02" nType="-99"/>
          <Node pos="r" depth="2" NCoef="0" IVar="-1" Cut="0.0000000000000000e+00" cType="1" res="1.8536268034949899e-03" rms="3.4785902500152588e-01" purity="2.5426834821701050e-01" nType="-99"/>
        </Node>
        <Node pos="r" depth="1" NCoef="0" IVar="48" Cut="1.0700682401657104e+00" cType="1" res="1.7789024114608765e-01" rms="3.4816664457321167e-01" purity="7.9948228597640991e-01" nType="0">
          <Node pos="l" depth="2" NCoef="0" IVar="-1" Cut="0.0000000000000000e+00" cType="1" res="-2.1354416385293007e-03" rms="4.0972948074340820e-01" purity="3.1761971116065979e-01" nType="-99"/>
          <Node pos="r" depth="2" NCoef="0" IVar="-1" Cut="0.0000000000000000e+00" cType="1" res="2.1642358042299747e-03" rms="3.2203352451324463e-01" purity="8.4213870763778687e-01" nType="-99"/>
        </Node>
      </Node>
    </BinaryTree>
    <BinaryTree type="DecisionTree" boostWeight="1.0000000000000000e+00" itree="144">
      <Node pos="s" depth="0" NCoef="0" IVar="17" Cut="1.4828280210494995e+00" cType="1" res="7.9032853245735168e-02" rms="3.2592099905014038e-01" purity="5.0158512592315674e-01" nType="0">
        <Node pos="l" depth="1" NCoef="0" IVar="3" Cut="4.9840393066406250e+00" cType="1" res="-5.4303087294101715e-02" rms="2.4431115388870239e-01" purity="9.4506271183490753e-02" nType="0">
          <Node pos="l" depth="2" NCoef="0" IVar="-1" Cut="0.0000000000000000e+00" cType="1" res="-3.9356620982289314e-03" rms="2.0053568482398987e-01" purity="6.2696248292922974e-02" nType="-99"/>
          <Node pos="r" depth="2" NCoef="0" IVar="-1" Cut="0.0000000000000000e+00" cType="1" res="1.3128920691087842e-03" rms="3.4060680866241455e-01" purity="2.0819795131683350e-01" nType="-99"/>
        </Node>
        <Node pos="r" depth="1" NCoef="0" IVar="1" Cut="2.3103728294372559e+00" cType="1" res="1.7753836512565613e-01" rms="3.4317192435264587e-01" purity="8.0232554674148560e-01" nType="0">
          <Node pos="l" depth="2" NCoef="0" IVar="-1" Cut="0.0000000000000000e+00" cType="1" res="-3.6289803683757782e-03" rms="3.6895811557769775e-01" purity="2.2311642765998840e-01" nType="-99"/>
          <Node pos="r" depth="2" NCoef="0" IVar="-1" Cut="0.0000000000000000e+00" cType="1" res="2.0965973380953074e-03" rms="3.2005891203880310e-01" purity="8.4420639276504517e-01" nType="-99"/>
        </Node>
      </Node>
    </BinaryTree>
    <BinaryTree type="DecisionTree" boostWeight="1.0000000000000000e+00" itree="145">
      <Node pos="s" depth="0" NCoef="0" IVar="17" Cut="1.4844523668289185e+00" cType="1" res="8.2097224891185760e-02" rms="3.2914161682128906e-01" purity="5.0876021385192871e-01" nType="0">
        <Node pos="l" depth="1" NCoef="0" IVar="3" Cut="4.8842287063598633e+00" cType="1" res="-5.3231395781040192e-02" rms="2.4833117425441742e-01" purity="9.9025748670101166e-02" nType="0">
          <Node pos="l" depth="2" NCoef="0" IVar="-1" Cut="0.0000000000000000e+00" cType="1" res="-4.8346077091991901e-03" rms="1.7567959427833557e-01" purity="4.7689363360404968e-02" nType="-99"/>
          <Node pos="r" depth="2" NCoef="0" IVar="-1" Cut="0.0000000000000000e+00" cType="1" res="1.3309509959071875e-03" rms="3.4125232696533203e-01" purity="2.1619020402431488e-01" nType="-99"/>
        </Node>
        <Node pos="r" depth="1" NCoef="0" IVar="1" Cut="2.5987524986267090e+00" cType="1" res="1.7975577712059021e-01" rms="3.4533599019050598e-01" purity="8.0444103479385376e-01" nType="0">
          <Node pos="l" depth="2" NCoef="0" IVar="-1" Cut="0.0000000000000000e+00" cType="1" res="-1.0050798300653696e-03" rms="4.2998185753822327e-01" purity="4.4385156035423279e-01" nType="-99"/>
          <Node pos="r" depth="2" NCoef="0" IVar="-1" Cut="0.0000000000000000e+00" cType="1" res="2.2512089926749468e-03" rms="3.0764421820640564e-01" purity="8.6575263738632202e-01" nType="-99"/>
        </Node>
      </Node>
    </BinaryTree>
    <BinaryTree type="DecisionTree" boostWeight="1.0000000000000000e+00" itree="146">
      <Node pos="s" depth="0" NCoef="0" IVar="17" Cut="1.4457910060882568e+00" cType="1" res="8.0977939069271088e-02" rms="3.2757762074470520e-01" purity="5.0337368249893188e-01" nType="0">
        <Node pos="l" depth="1" NCoef="0" IVar="48" Cut="2.4133870601654053e+00" cType="1" res="-7.4657797813415527e-02" rms="1.6421088576316833e-01" purity="3.4546080976724625e-02" nType="0">
          <Node pos="l" depth="2" NCoef="0" IVar="-1" Cut="0.0000000000000000e+00" cType="1" res="-8.8284276425838470e-03" rms="4.3358910828828812e-02" purity="4.5651611872017384e-03" nType="-99"/>
          <Node pos="r" depth="2" NCoef="0" IVar="-1" Cut="0.0000000000000000e+00" cType="1" res="-1.0558000067248940e-03" rms="2.7556115388870239e-01" purity="9.8834156990051270e-02" nType="-99"/>
        </Node>
        <Node pos="r" depth="1" NCoef="0" IVar="36" Cut="2.0855309069156647e-01" cType="1" res="1.6667585074901581e-01" rms="3.6175137758255005e-01" purity="7.6152479648590088e-01" nType="0">
          <Node pos="l" depth="2" NCoef="0" IVar="-1" Cut="0.0000000000000000e+00" cType="1" res="-8.3110714331269264e-03" rms="2.7899390459060669e-01" purity="9.0354718267917633e-02" nType="-99"/>
          <Node pos="r" depth="2" NCoef="0" IVar="-1" Cut="0.0000000000000000e+00" cType="1" res="1.9502501236274838e-03" rms="3.4997105598449707e-01" purity="8.1755924224853516e-01" nType="-99"/>
        </Node>
      </Node>
    </BinaryTree>
    <BinaryTree type="DecisionTree" boostWeight="1.0000000000000000e+00" itree="147">
      <Node pos="s" depth="0" NCoef="0" IVar="17" Cut="1.5231137275695801e+00" cType="1" res="7.9031676054000854e-02" rms="3.2781827449798584e-01" purity="5.0394529104232788e-01" nType="0">
        <Node pos="l" depth="1" NCoef="0" IVar="5" Cut="2.8046119213104248e-01" cType="1" res="-8.9910784736275673e-03" rms="3.1732034683227539e-01" purity="2.6976895332336426e-01" nType="0">
          <Node pos="l" depth="2" NCoef="0" IVar="-1" Cut="0.0000000000000000e+00" cType="1" res="1.6892002895474434e-03" rms="3.5910105705261230e-01" purity="4.4239237904548645e-01" nType="-99"/>
          <Node pos="r" depth="2" NCoef="0" IVar="-1" Cut="0.0000000000000000e+00" cType="1" res="-2.2942342329770327e-03" rms="2.4727122485637665e-01" purity="1.2945272028446198e-01" nType="-99"/>
        </Node>
        <Node pos="r" depth="1" NCoef="0" IVar="1" Cut="2.3691697120666504e+00" cType="1" res="2.1772180497646332e-01" rms="2.9443684220314026e-01" purity="8.7291741371154785e-01" nType="0">
          <Node pos="l" depth="2" NCoef="0" IVar="-1" Cut="0.0000000000000000e+00" cType="1" res="-1.7208321951329708e-03" rms="4.1268843412399292e-01" purity="3.9677152037620544e-01" nType="-99"/>
          <Node pos="r" depth="2" NCoef="0" IVar="-1" Cut="0.0000000000000000e+00" cType="1" res="2.5530187413096428e-03" rms="2.6864287257194519e-01" purity="9.0403431653976440e-01" nType="-99"/>
        </Node>
      </Node>
    </BinaryTree>
    <BinaryTree type="DecisionTree" boostWeight="1.0000000000000000e+00" itree="148">
      <Node pos="s" depth="0" NCoef="0" IVar="17" Cut="1.5216873884201050e+00" cType="1" res="7.4310183525085449e-02" rms="3.2792845368385315e-01" purity="4.9355193972587585e-01" nType="0">
        <Node pos="l" depth="1" NCoef="0" IVar="48" Cut="1.5861108303070068e+00" cType="1" res="-1.3496630825102329e-02" rms="3.1444904208183289e-01" purity="2.5503262877464294e-01" nType="0">
          <Node pos="l" depth="2" NCoef="0" IVar="-1" Cut="0.0000000000000000e+00" cType="1" res="-4.1013248264789581e-03" rms="2.0927672088146210e-01" purity="5.6775465607643127e-02" nType="-99"/>
          <Node pos="r" depth="2" NCoef="0" IVar="-1" Cut="0.0000000000000000e+00" cType="1" res="7.9635030124336481e-04" rms="3.3771687746047974e-01" purity="3.4502583742141724e-01" nType="-99"/>
        </Node>
        <Node pos="r" depth="1" NCoef="0" IVar="36" Cut="8.2710939645767212e-01" cType="1" res="2.1048481762409210e-01" rms="3.0077400803565979e-01" purity="8.6345815658569336e-01" nType="0">
          <Node pos="l" depth="2" NCoef="0" IVar="-1" Cut="0.0000000000000000e+00" cType="1" res="-6.9186962209641933e-03" rms="3.1474313139915466e-01" purity="1.2877680361270905e-01" nType="-99"/>
          <Node pos="r" depth="2" NCoef="0" IVar="-1" Cut="0.0000000000000000e+00" cType="1" res="2.4250135757029057e-03" rms="2.8084316849708557e-01" purity="9.0438246726989746e-01" nType="-99"/>
        </Node>
      </Node>
    </BinaryTree>
    <BinaryTree type="DecisionTree" boostWeight="1.0000000000000000e+00" itree="149">
      <Node pos="s" depth="0" NCoef="0" IVar="17" Cut="1.5231137275695801e+00" cType="1" res="8.2253344357013702e-02" rms="3.3255335688591003e-01" purity="5.0483822822570801e-01" nType="0">
        <Node pos="l" depth="1" NCoef="0" IVar="5" Cut="3.3902129530906677e-01" cType="1" res="-4.4991117902100086e-03" rms="3.2798093557357788e-01" purity="2.6768049597740173e-01" nType="0">
          <Node pos="l" depth="2" NCoef="0" IVar="-1" Cut="0.0000000000000000e+00" cType="1" res="1.4061982510611415e-03" rms="3.5379534959793091e-01" purity="4.0116807818412781e-01" nType="-99"/>
          <Node pos="r" depth="2" NCoef="0" IVar="-1" Cut="0.0000000000000000e+00" cType="1" res="-2.3267711512744427e-03" rms="2.6794600486755371e-01" purity="1.1572763323783875e-01" nType="-99"/>
        </Node>
        <Node pos="r" depth="1" NCoef="0" IVar="31" Cut="2.6503324508666992e+00" cType="1" res="2.1687959134578705e-01" rms="2.9236152768135071e-01" purity="8.7286996841430664e-01" nType="0">
          <Node pos="l" depth="2" NCoef="0" IVar="-1" Cut="0.0000000000000000e+00" cType="1" res="-2.1425902377814054e-03" rms="3.9459040760993958e-01" purity="4.1957822442054749e-01" nType="-99"/>
          <Node pos="r" depth="2" NCoef="0" IVar="-1" Cut="0.0000000000000000e+00" cType="1" res="2.5072239805012941e-03" rms="2.6808241009712219e-01" purity="9.0486395359039307e-01" nType="-99"/>
        </Node>
      </Node>
    </BinaryTree>
    <BinaryTree type="DecisionTree" boostWeight="1.0000000000000000e+00" itree="150">
      <Node pos="s" depth="0" NCoef="0" IVar="17" Cut="1.4830439090728760e+00" cType="1" res="8.3946026861667633e-02" rms="3.2739502191543579e-01" purity="5.1358032226562500e-01" nType="0">
        <Node pos="l" depth="1" NCoef="0" IVar="17" Cut="1.1438378095626831e+00" cType="1" res="-5.0639703869819641e-02" rms="2.4612312018871307e-01" purity="9.9199049174785614e-02" nType="0">
          <Node pos="l" depth="2" NCoef="0" IVar="-1" Cut="0.0000000000000000e+00" cType="1" res="-1.5945037826895714e-02" rms="0.0000000000000000e+00" purity="-3.8461133372038603e-03" nType="-99"/>
          <Node pos="r" depth="2" NCoef="0" IVar="-1" Cut="0.0000000000000000e+00" cType="1" res="2.0653662795666605e-04" rms="3.8063859939575195e-01" purity="2.4590261280536652e-01" nType="-99"/>
        </Node>
        <Node pos="r" depth="1" NCoef="0" IVar="1" Cut="2.2605681419372559e+00" cType="1" res="1.7826342582702637e-01" rms="3.4389355778694153e-01" purity="8.0397784709930420e-01" nType="0">
          <Node pos="l" depth="2" NCoef="0" IVar="-1" Cut="0.0000000000000000e+00" cType="1" res="-3.5927509889006615e-03" rms="3.7394514679908752e-01" purity="2.1336981654167175e-01" nType="-99"/>
          <Node pos="r" depth="2" NCoef="0" IVar="-1" Cut="0.0000000000000000e+00" cType="1" res="2.1058979909867048e-03" rms="3.2347536087036133e-01" purity="8.4185993671417236e-01" nType="-99"/>
        </Node>
      </Node>
    </BinaryTree>
    <BinaryTree type="DecisionTree" boostWeight="1.0000000000000000e+00" itree="151">
      <Node pos="s" depth="0" NCoef="0" IVar="17" Cut="1.5216873884201050e+00" cType="1" res="6.3026949763298035e-02" rms="3.2190188765525818e-01" purity="4.8420313000679016e-01" nType="0">
        <Node pos="l" depth="1" NCoef="0" IVar="1" Cut="2.7948133945465088e+00" cType="1" res="-3.4711413085460663e-02" rms="2.9586452245712280e-01" purity="2.3125010728836060e-01" nType="0">
          <Node pos="l" depth="2" NCoef="0" IVar="-1" Cut="0.0000000000000000e+00" cType="1" res="-4.8461933620274067e-03" rms="1.8249683082103729e-01" purity="5.7362474501132965e-02" nType="-99"/>
          <Node pos="r" depth="2" NCoef="0" IVar="-1" Cut="0.0000000000000000e+00" cType="1" res="5.4031162289902568e-04" rms="3.3556082844734192e-01" purity="3.4614428877830505e-01" nType="-99"/>
        </Node>
        <Node pos="r" depth="1" NCoef="0" IVar="15" Cut="1.5199713706970215e+00" cType="1" res="2.0956957340240479e-01" rms="3.0321618914604187e-01" purity="8.6346465349197388e-01" nType="0">
          <Node pos="l" depth="2" NCoef="0" IVar="-1" Cut="0.0000000000000000e+00" cType="1" res="2.7927984483540058e-03" rms="2.2600711882114410e-01" purity="9.2902833223342896e-01" nType="-99"/>
          <Node pos="r" depth="2" NCoef="0" IVar="-1" Cut="0.0000000000000000e+00" cType="1" res="5.7946291053667665e-04" rms="4.2391276359558105e-01" purity="6.6906023025512695e-01" nType="-99"/>
        </Node>
      </Node>
    </BinaryTree>
    <BinaryTree type="DecisionTree" boostWeight="1.0000000000000000e+00" itree="152">
      <Node pos="s" depth="0" NCoef="0" IVar="17" Cut="1.5220416784286499e+00" cType="1" res="6.9637097418308258e-02" rms="3.2637423276901245e-01" purity="4.9058416485786438e-01" nType="0">
        <Node pos="l" depth="1" NCoef="0" IVar="5" Cut="3.4117272496223450e-01" cType="1" res="-1.7461732029914856e-02" rms="3.1237262487411499e-01" purity="2.5317230820655823e-01" nType="0">
          <Node pos="l" depth="2" NCoef="0" IVar="-1" Cut="0.0000000000000000e+00" cType="1" res="1.2509821681305766e-03" rms="3.3995959162712097e-01" purity="3.8756784796714783e-01" nType="-99"/>
          <Node pos="r" depth="2" NCoef="0" IVar="-1" Cut="0.0000000000000000e+00" cType="1" res="-2.7670648414641619e-03" rms="2.4644511938095093e-01" purity="1.0224809497594833e-01" nType="-99"/>
        </Node>
        <Node pos="r" depth="1" NCoef="0" IVar="36" Cut="9.8174846172332764e-01" cType="1" res="2.0694829523563385e-01" rms="2.9967573285102844e-01" purity="8.6486363410949707e-01" nType="0">
          <Node pos="l" depth="2" NCoef="0" IVar="-1" Cut="0.0000000000000000e+00" cType="1" res="-5.3849676623940468e-03" rms="3.6031758785247803e-01" purity="1.7471686005592346e-01" nType="-99"/>
          <Node pos="r" depth="2" NCoef="0" IVar="-1" Cut="0.0000000000000000e+00" cType="1" res="2.3663090541958809e-03" rms="2.7972057461738586e-01" purity="9.0478038787841797e-01" nType="-99"/>
        </Node>
      </Node>
    </BinaryTree>
    <BinaryTree type="DecisionTree" boostWeight="1.0000000000000000e+00" itree="153">
      <Node pos="s" depth="0" NCoef="0" IVar="17" Cut="1.5231137275695801e+00" cType="1" res="7.8685902059078217e-02" rms="3.2727396488189697e-01" purity="5.0222355127334595e-01" nType="0">
        <Node pos="l" depth="1" NCoef="0" IVar="36" Cut="1.3678816556930542e+00" cType="1" res="-4.0436675772070885e-03" rms="3.1997609138488770e-01" purity="2.7514037489891052e-01" nType="0">
          <Node pos="l" depth="2" NCoef="0" IVar="-1" Cut="0.0000000000000000e+00" cType="1" res="-7.9390574246644974e-03" rms="1.4084732532501221e-01" purity="2.6145653799176216e-02" nType="-99"/>
          <Node pos="r" depth="2" NCoef="0" IVar="-1" Cut="0.0000000000000000e+00" cType="1" res="8.5517513798549771e-04" rms="3.6810865998268127e-01" purity="4.0706959366798401e-01" nType="-99"/>
        </Node>
        <Node pos="r" depth="1" NCoef="0" IVar="15" Cut="1.5230776071548462e+00" cType="1" res="2.1455356478691101e-01" rms="2.9183122515678406e-01" purity="8.7516474723815918e-01" nType="0">
          <Node pos="l" depth="2" NCoef="0" IVar="-1" Cut="0.0000000000000000e+00" cType="1" res="2.7976175770163536e-03" rms="2.1824510395526886e-01" purity="9.3399143218994141e-01" nType="-99"/>
          <Node pos="r" depth="2" NCoef="0" IVar="-1" Cut="0.0000000000000000e+00" cType="1" res="1.7765830853022635e-04" rms="4.3752309679985046e-01" purity="6.3205611705780029e-01" nType="-99"/>
        </Node>
      </Node>
    </BinaryTree>
    <BinaryTree type="DecisionTree" boostWeight="1.0000000000000000e+00" itree="154">
      <Node pos="s" depth="0" NCoef="0" IVar="17" Cut="1.4826761484146118e+00" cType="1" res="7.8847713768482208e-02" rms="3.2774233818054199e-01" purity="5.0116771459579468e-01" nType="0">
        <Node pos="l" depth="1" NCoef="0" IVar="2" Cut="2.3868970870971680e+00" cType="1" res="-4.3999806046485901e-02" rms="2.5119969248771667e-01" purity="1.0248174518346786e-01" nType="0">
          <Node pos="l" depth="2" NCoef="0" IVar="-1" Cut="0.0000000000000000e+00" cType="1" res="-6.1131143011152744e-03" rms="1.3859452307224274e-01" purity="2.5156322866678238e-02" nType="-99"/>
          <Node pos="r" depth="2" NCoef="0" IVar="-1" Cut="0.0000000000000000e+00" cType="1" res="5.5386556778103113e-04" rms="3.2926967740058899e-01" purity="1.9539318978786469e-01" nType="-99"/>
        </Node>
        <Node pos="r" depth="1" NCoef="0" IVar="48" Cut="1.2790718078613281e+00" cType="1" res="1.6991947591304779e-01" rms="3.4754076600074768e-01" purity="7.9672950506210327e-01" nType="0">
          <Node pos="l" depth="2" NCoef="0" IVar="-1" Cut="0.0000000000000000e+00" cType="1" res="-1.2058527208864689e-03" rms="4.1835695505142212e-01" purity="4.2721101641654968e-01" nType="-99"/>
          <Node pos="r" depth="2" NCoef="0" IVar="-1" Cut="0.0000000000000000e+00" cType="1" res="2.1718593779951334e-03" rms="3.1762373447418213e-01" purity="8.4736472368240356e-01" nType="-99"/>
        </Node>
      </Node>
    </BinaryTree>
    <BinaryTree type="DecisionTree" boostWeight="1.0000000000000000e+00" itree="155">
      <Node pos="s" depth="0" NCoef="0" IVar="17" Cut="1.5220416784286499e+00" cType="1" res="7.4906393885612488e-02" rms="3.2752022147178650e-01" purity="4.9855679273605347e-01" nType="0">
        <Node pos="l" depth="1" NCoef="0" IVar="5" Cut="2.9942926764488220e-01" cType="1" res="-1.3035695999860764e-02" rms="3.1519034504890442e-01" purity="2.5528332591056824e-01" nType="0">
          <Node pos="l" depth="2" NCoef="0" IVar="-1" Cut="0.0000000000000000e+00" cType="1" res="1.4632706297561526e-03" rms="3.4904029965400696e-01" purity="4.1560158133506775e-01" nType="-99"/>
          <Node pos="r" depth="2" NCoef="0" IVar="-1" Cut="0.0000000000000000e+00" cType="1" res="-2.2548874840140343e-03" rms="2.5688084959983826e-01" purity="1.1859253793954849e-01" nType="-99"/>
        </Node>
        <Node pos="r" depth="1" NCoef="0" IVar="15" Cut="1.5221256017684937e+00" cType="1" res="2.0777402818202972e-01" rms="2.9983973503112793e-01" purity="8.6610740423202515e-01" nType="0">
          <Node pos="l" depth="2" NCoef="0" IVar="-1" Cut="0.0000000000000000e+00" cType="1" res="2.7645356021821499e-03" rms="2.2858047485351562e-01" purity="9.2797780036926270e-01" nType="-99"/>
          <Node pos="r" depth="2" NCoef="0" IVar="-1" Cut="0.0000000000000000e+00" cType="1" res="7.0203190261963755e-05" rms="4.3283176422119141e-01" purity="6.2228131294250488e-01" nType="-99"/>
        </Node>
      </Node>
    </BinaryTree>
    <BinaryTree type="DecisionTree" boostWeight="1.0000000000000000e+00" itree="156">
      <Node pos="s" depth="0" NCoef="0" IVar="17" Cut="1.4457910060882568e+00" cType="1" res="7.3631100356578827e-02" rms="3.2574731111526489e-01" purity="4.9422493577003479e-01" nType="0">
        <Node pos="l" depth="1" NCoef="0" IVar="17" Cut="1.2968399524688721e+00" cType="1" res="-6.5918445587158203e-02" rms="1.7038455605506897e-01" purity="3.9230771362781525e-02" nType="0">
          <Node pos="l" depth="2" NCoef="0" IVar="-1" Cut="0.0000000000000000e+00" cType="1" res="-1.3866229914128780e-02" rms="0.0000000000000000e+00" purity="-1.1356326285749674e-03" nType="-99"/>
          <Node pos="r" depth="2" NCoef="0" IVar="-1" Cut="0.0000000000000000e+00" cType="1" res="3.4477017470635474e-04" rms="3.5431376099586487e-01" purity="1.7613050341606140e-01" nType="-99"/>
        </Node>
        <Node pos="r" depth="1" NCoef="0" IVar="36" Cut="1.3686834573745728e+00" cType="1" res="1.5242381393909454e-01" rms="3.6390772461891174e-01" purity="7.5112456083297729e-01" nType="0">
          <Node pos="l" depth="2" NCoef="0" IVar="-1" Cut="0.0000000000000000e+00" cType="1" res="-1.7453763866797090e-03" rms="3.9658546447753906e-01" purity="2.8533655405044556e-01" nType="-99"/>
          <Node pos="r" depth="2" NCoef="0" IVar="-1" Cut="0.0000000000000000e+00" cType="1" res="1.9289170159026980e-03" rms="3.3893206715583801e-01" purity="8.3906650543212891e-01" nType="-99"/>
        </Node>
      </Node>
    </BinaryTree>
    <BinaryTree type="DecisionTree" boostWeight="1.0000000000000000e+00" itree="157">
      <Node pos="s" depth="0" NCoef="0" IVar="17" Cut="1.5216873884201050e+00" cType="1" res="7.1697972714900970e-02" rms="3.2381623983383179e-01" purity="4.9574047327041626e-01" nType="0">
        <Node pos="l" depth="1" NCoef="0" IVar="57" Cut="-9.5931476354598999e-01" cType="1" res="-1.6296129673719406e-02" rms="3.1034469604492188e-01" purity="2.5228139758110046e-01" nType="0">
          <Node pos="l" depth="2" NCoef="0" IVar="-1" Cut="0.0000000000000000e+00" cType="1" res="7.2335690492764115e-04" rms="3.4466961026191711e-01" purity="3.2746270298957825e-01" nType="-99"/>
          <Node pos="r" depth="2" NCoef="0" IVar="-1" Cut="0.0000000000000000e+00" cType="1" res="-3.6532199010252953e-03" rms="1.7492555081844330e-01" purity="9.6158608794212341e-02" nType="-99"/>
        </Node>
        <Node pos="r" depth="1" NCoef="0" IVar="15" Cut="1.5199840068817139e+00" cType="1" res="2.0597314834594727e-01" rms="2.9672908782958984e-01" purity="8.6724847555160522e-01" nType="0">
          <Node pos="l" depth="2" NCoef="0" IVar="-1" Cut="0.0000000000000000e+00" cType="1" res="2.7881220448762178e-03" rms="2.1305868029594421e-01" purity="9.3652474880218506e-01" nType="-99"/>
          <Node pos="r" depth="2" NCoef="0" IVar="-1" Cut="0.0000000000000000e+00" cType="1" res="1.3027236855123192e-04" rms="4.3031287193298340e-01" purity="6.2992841005325317e-01" nType="-99"/>
        </Node>
      </Node>
    </BinaryTree>
    <BinaryTree type="DecisionTree" boostWeight="1.0000000000000000e+00" itree="158">
      <Node pos="s" depth="0" NCoef="0" IVar="17" Cut="1.5220416784286499e+00" cType="1" res="7.5363568961620331e-02" rms="3.2222777605056763e-01" purity="5.0049191713333130e-01" nType="0">
        <Node pos="l" depth="1" NCoef="0" IVar="36" Cut="1.3671723604202271e+00" cType="1" res="-1.1322597973048687e-02" rms="3.0946084856987000e-01" purity="2.5830826163291931e-01" nType="0">
          <Node pos="l" depth="2" NCoef="0" IVar="-1" Cut="0.0000000000000000e+00" cType="1" res="-7.6151993125677109e-03" rms="1.2035956233739853e-01" purity="2.0164744928479195e-02" nType="-99"/>
          <Node pos="r" depth="2" NCoef="0" IVar="-1" Cut="0.0000000000000000e+00" cType="1" res="7.0036709075793624e-04" rms="3.6050364375114441e-01" purity="3.8533210754394531e-01" nType="-99"/>
        </Node>
        <Node pos="r" depth="1" NCoef="0" IVar="15" Cut="1.5233229398727417e+00" cType="1" res="2.0737788081169128e-01" rms="2.9536578059196472e-01" purity="8.6931318044662476e-01" nType="0">
          <Node pos="l" depth="2" NCoef="0" IVar="-1" Cut="0.0000000000000000e+00" cType="1" res="2.7252717409282923e-03" rms="2.2352723777294159e-01" purity="9.2903923988342285e-01" nType="-99"/>
          <Node pos="r" depth="2" NCoef="0" IVar="-1" Cut="0.0000000000000000e+00" cType="1" res="1.9901517953258008e-04" rms="4.4091510772705078e-01" purity="6.2605732679367065e-01" nType="-99"/>
        </Node>
      </Node>
    </BinaryTree>
    <BinaryTree type="DecisionTree" boostWeight="1.0000000000000000e+00" itree="159">
      <Node pos="s" depth="0" NCoef="0" IVar="17" Cut="1.5216873884201050e+00" cType="1" res="7.2484254837036133e-02" rms="3.2147249579429626e-01" purity="4.9781236052513123e-01" nType="0">
        <Node pos="l" depth="1" NCoef="0" IVar="48" Cut="1.1343132257461548e+00" cType="1" res="-1.7579292878508568e-02" rms="3.0931034684181213e-01" purity="2.4298155307769775e-01" nType="0">
          <Node pos="l" depth="2" NCoef="0" IVar="-1" Cut="0.0000000000000000e+00" cType="1" res="-6.3120052218437195e-03" rms="9.7366578876972198e-02" purity="-7.6800477690994740e-03" nType="-99"/>
          <Node pos="r" depth="2" NCoef="0" IVar="-1" Cut="0.0000000000000000e+00" cType="1" res="3.9403871051035821e-04" rms="3.3062699437141418e-01" purity="3.0383250117301941e-01" nType="-99"/>
        </Node>
        <Node pos="r" depth="1" NCoef="0" IVar="15" Cut="1.5233874320983887e+00" cType="1" res="2.0435748994350433e-01" rms="2.9207894206047058e-01" purity="8.7094181776046753e-01" nType="0">
          <Node pos="l" depth="2" NCoef="0" IVar="-1" Cut="0.0000000000000000e+00" cType="1" res="2.7189287357032299e-03" rms="2.1844810247421265e-01" purity="9.3246144056320190e-01" nType="-99"/>
          <Node pos="r" depth="2" NCoef="0" IVar="-1" Cut="0.0000000000000000e+00" cType="1" res="4.2964427848346531e-05" rms="4.3723598122596741e-01" purity="6.1591076850891113e-01" nType="-99"/>
        </Node>
      </Node>
    </BinaryTree>
    <BinaryTree type="DecisionTree" boostWeight="1.0000000000000000e+00" itree="160">
      <Node pos="s" depth="0" NCoef="0" IVar="17" Cut="1.5231137275695801e+00" cType="1" res="7.7479846775531769e-02" rms="3.2249718904495239e-01" purity="5.0318878889083862e-01" nType="0">
        <Node pos="l" depth="1" NCoef="0" IVar="5" Cut="3.0103641748428345e-01" cType="1" res="-6.4810649491846561e-03" rms="3.1508257985115051e-01" purity="2.6692491769790649e-01" nType="0">
          <Node pos="l" depth="2" NCoef="0" IVar="-1" Cut="0.0000000000000000e+00" cType="1" res="1.4450728194788098e-03" rms="3.4540477395057678e-01" purity="4.0893945097923279e-01" nType="-99"/>
          <Node pos="r" depth="2" NCoef="0" IVar="-1" Cut="0.0000000000000000e+00" cType="1" res="-1.8065910553559661e-03" rms="2.6692745089530945e-01" purity="1.4631555974483490e-01" nType="-99"/>
        </Node>
        <Node pos="r" depth="1" NCoef="0" IVar="15" Cut="1.5199713706970215e+00" cType="1" res="2.1028952300548553e-01" rms="2.8756392002105713e-01" purity="8.7691187858581543e-01" nType="0">
          <Node pos="l" depth="2" NCoef="0" IVar="-1" Cut="0.0000000000000000e+00" cType="1" res="2.7671435382217169e-03" rms="2.0974513888359070e-01" purity="9.3968248367309570e-01" nType="-99"/>
          <Node pos="r" depth="2" NCoef="0" IVar="-1" Cut="0.0000000000000000e+00" cType="1" res="5.7686882792040706e-04" rms="4.1613546013832092e-01" purity="6.7665231227874756e-01" nType="-99"/>
        </Node>
      </Node>
    </BinaryTree>
    <BinaryTree type="DecisionTree" boostWeight="1.0000000000000000e+00" itree="161">
      <Node pos="s" depth="0" NCoef="0" IVar="17" Cut="1.4447457790374756e+00" cType="1" res="6.5990656614303589e-02" rms="3.1925663352012634e-01" purity="4.8781135678291321e-01" nType="0">
        <Node pos="l" depth="1" NCoef="0" IVar="48" Cut="2.2125041484832764e+00" cType="1" res="-7.1601599454879761e-02" rms="1.5037728846073151e-01" purity="2.9019303619861603e-02" nType="0">
          <Node pos="l" depth="2" NCoef="0" IVar="-1" Cut="0.0000000000000000e+00" cType="1" res="-1.0484531521797180e-02" rms="0.0000000000000000e+00" purity="-1.3147876597940922e-02" nType="-99"/>
          <Node pos="r" depth="2" NCoef="0" IVar="-1" Cut="0.0000000000000000e+00" cType="1" res="-1.2782556004822254e-03" rms="2.6316294074058533e-01" purity="8.9807257056236267e-02" nType="-99"/>
        </Node>
        <Node pos="r" depth="1" NCoef="0" IVar="36" Cut="1.3293907642364502e+00" cType="1" res="1.4371582865715027e-01" rms="3.6054384708404541e-01" purity="7.4698066711425781e-01" nType="0">
          <Node pos="l" depth="2" NCoef="0" IVar="-1" Cut="0.0000000000000000e+00" cType="1" res="-3.7266968283802271e-03" rms="3.3097049593925476e-01" purity="1.8371804058551788e-01" nType="-99"/>
          <Node pos="r" depth="2" NCoef="0" IVar="-1" Cut="0.0000000000000000e+00" cType="1" res="1.8813997739925981e-03" rms="3.4220260381698608e-01" purity="8.3084565401077271e-01" nType="-99"/>
        </Node>
      </Node>
    </BinaryTree>
    <BinaryTree type="DecisionTree" boostWeight="1.0000000000000000e+00" itree="162">
      <Node pos="s" depth="0" NCoef="0" IVar="36" Cut="1.3686834573745728e+00" cType="1" res="8.0466657876968384e-02" rms="3.2632032036781311e-01" purity="5.0327223539352417e-01" nType="0">
        <Node pos="l" depth="1" NCoef="0" IVar="3" Cut="4.8048472404479980e+00" cType="1" res="-1.0826142877340317e-01" rms="2.0970954000949860e-01" purity="7.4710741639137268e-02" nType="0">
          <Node pos="l" depth="2" NCoef="0" IVar="-1" Cut="0.0000000000000000e+00" cType="1" res="-1.4654612168669701e-02" rms="1.3030463457107544e-01" purity="1.1957206763327122e-02" nType="-99"/>
          <Node pos="r" depth="2" NCoef="0" IVar="-1" Cut="0.0000000000000000e+00" cType="1" res="-6.1464204918593168e-04" rms="2.6944315433502197e-01" purity="1.7005868256092072e-01" nType="-99"/>
        </Node>
        <Node pos="r" depth="1" NCoef="0" IVar="5" Cut="3.4180912375450134e-01" cType="1" res="1.4236371219158173e-01" rms="3.3387470245361328e-01" purity="6.4382737874984741e-01" nType="0">
          <Node pos="l" depth="2" NCoef="0" IVar="-1" Cut="0.0000000000000000e+00" cType="1" res="2.6598046533763409e-03" rms="2.8205251693725586e-01" purity="8.0452984571456909e-01" nType="-99"/>
          <Node pos="r" depth="2" NCoef="0" IVar="-1" Cut="0.0000000000000000e+00" cType="1" res="-2.0020917872898281e-04" rms="3.6060178279876709e-01" purity="3.5961854457855225e-01" nType="-99"/>
        </Node>
      </Node>
    </BinaryTree>
    <BinaryTree type="DecisionTree" boostWeight="1.0000000000000000e+00" itree="163">
      <Node pos="s" depth="0" NCoef="0" IVar="17" Cut="1.5220416784286499e+00" cType="1" res="7.9808846116065979e-02" rms="3.2295954227447510e-01" purity="5.0570303201675415e-01" nType="0">
        <Node pos="l" depth="1" NCoef="0" IVar="5" Cut="2.6305156946182251e-01" cType="1" res="-2.7288694400340319e-03" rms="3.1528741121292114e-01" purity="2.6849049329757690e-01" nType="0">
          <Node pos="l" depth="2" NCoef="0" IVar="-1" Cut="0.0000000000000000e+00" cType="1" res="1.7472405452281237e-03" rms="3.4794878959655762e-01" purity="4.3888273835182190e-01" nType="-99"/>
          <Node pos="r" depth="2" NCoef="0" IVar="-1" Cut="0.0000000000000000e+00" cType="1" res="-1.9698571413755417e-03" rms="2.6190769672393799e-01" purity="1.3696928322315216e-01" nType="-99"/>
        </Node>
        <Node pos="r" depth="1" NCoef="0" IVar="15" Cut="1.5224903821945190e+00" cType="1" res="2.0728808641433716e-01" rms="2.9170703887939453e-01" purity="8.7207710742950439e-01" nType="0">
          <Node pos="l" depth="2" NCoef="0" IVar="-1" Cut="0.0000000000000000e+00" cType="1" res="2.7345828711986542e-03" rms="2.2057285904884338e-01" purity="9.3274706602096558e-01" nType="-99"/>
          <Node pos="r" depth="2" NCoef="0" IVar="-1" Cut="0.0000000000000000e+00" cType="1" res="5.4387439740821719e-04" rms="4.2021888494491577e-01" purity="6.6561573743820190e-01" nType="-99"/>
        </Node>
      </Node>
    </BinaryTree>
    <BinaryTree type="DecisionTree" boostWeight="1.0000000000000000e+00" itree="164">
      <Node pos="s" depth="0" NCoef="0" IVar="17" Cut="1.4057568311691284e+00" cType="1" res="7.5561881065368652e-02" rms="3.2095119357109070e-01" purity="5.0310736894607544e-01" nType="0">
        <Node pos="l" depth="1" NCoef="0" IVar="13" Cut="1.4650948047637939e+00" cType="1" res="-7.4950136244297028e-02" rms="1.1029075831174850e-01" purity="1.4180233702063560e-02" nType="0">
          <Node pos="l" depth="2" NCoef="0" IVar="-1" Cut="0.0000000000000000e+00" cType="1" res="-7.9368874430656433e-03" rms="1.4718781411647797e-01" purity="2.4728415533900261e-02" nType="-99"/>
          <Node pos="r" depth="2" NCoef="0" IVar="-1" Cut="0.0000000000000000e+00" cType="1" res="-1.3484920375049114e-02" rms="0.0000000000000000e+00" purity="-5.2594754844903946e-02" nType="-99"/>
        </Node>
        <Node pos="r" depth="1" NCoef="0" IVar="36" Cut="9.4308871030807495e-01" cType="1" res="1.4554066956043243e-01" rms="3.6030206084251404e-01" purity="7.3042821884155273e-01" nType="0">
          <Node pos="l" depth="2" NCoef="0" IVar="-1" Cut="0.0000000000000000e+00" cType="1" res="-6.7633967846632004e-03" rms="2.7144142985343933e-01" purity="9.2562451958656311e-02" nType="-99"/>
          <Node pos="r" depth="2" NCoef="0" IVar="-1" Cut="0.0000000000000000e+00" cType="1" res="1.8346181605011225e-03" rms="3.5113674402236938e-01" purity="7.9906696081161499e-01" nType="-99"/>
        </Node>
      </Node>
    </BinaryTree>
    <BinaryTree type="DecisionTree" boostWeight="1.0000000000000000e+00" itree="165">
      <Node pos="s" depth="0" NCoef="0" IVar="17" Cut="1.4833937883377075e+00" cType="1" res="7.2199463844299316e-02" rms="3.1625533103942871e-01" purity="4.9705630540847778e-01" nType="0">
        <Node pos="l" depth="1" NCoef="0" IVar="2" Cut="2.4722847938537598e+00" cType="1" res="-4.8296358436346054e-02" rms="2.3205910623073578e-01" purity="8.8745720684528351e-02" nType="0">
          <Node pos="l" depth="2" NCoef="0" IVar="-1" Cut="0.0000000000000000e+00" cType="1" res="-5.6817401200532913e-03" rms="1.1385194212198257e-01" purity="2.5333620607852936e-02" nType="-99"/>
          <Node pos="r" depth="2" NCoef="0" IVar="-1" Cut="0.0000000000000000e+00" cType="1" res="6.3816655892878771e-04" rms="3.2894280552864075e-01" purity="1.8587894737720490e-01" nType="-99"/>
        </Node>
        <Node pos="r" depth="1" NCoef="0" IVar="1" Cut="2.2524602413177490e+00" cType="1" res="1.6157501935958862e-01" rms="3.3985710144042969e-01" purity="7.9991328716278076e-01" nType="0">
          <Node pos="l" depth="2" NCoef="0" IVar="-1" Cut="0.0000000000000000e+00" cType="1" res="-4.2628948576748371e-03" rms="3.3394217491149902e-01" purity="1.4659409224987030e-01" nType="-99"/>
          <Node pos="r" depth="2" NCoef="0" IVar="-1" Cut="0.0000000000000000e+00" cType="1" res="1.9366382621228695e-03" rms="3.2085582613945007e-01" purity="8.3769273757934570e-01" nType="-99"/>
        </Node>
      </Node>
    </BinaryTree>
    <BinaryTree type="DecisionTree" boostWeight="1.0000000000000000e+00" itree="166">
      <Node pos="s" depth="0" NCoef="0" IVar="17" Cut="1.5216873884201050e+00" cType="1" res="6.6526144742965698e-02" rms="3.1889626383781433e-01" purity="4.8695316910743713e-01" nType="0">
        <Node pos="l" depth="1" NCoef="0" IVar="5" Cut="2.8571492433547974e-01" cType="1" res="-1.2482532300055027e-02" rms="3.0537053942680359e-01" purity="2.5486111640930176e-01" nType="0">
          <Node pos="l" depth="2" NCoef="0" IVar="-1" Cut="0.0000000000000000e+00" cType="1" res="1.3716927496716380e-03" rms="3.3595475554466248e-01" purity="4.0675967931747437e-01" nType="-99"/>
          <Node pos="r" depth="2" NCoef="0" IVar="-1" Cut="0.0000000000000000e+00" cType="1" res="-2.0203064195811749e-03" rms="2.5864717364311218e-01" purity="1.3533031940460205e-01" nType="-99"/>
        </Node>
        <Node pos="r" depth="1" NCoef="0" IVar="15" Cut="1.5224903821945190e+00" cType="1" res="1.9404980540275574e-01" rms="2.9830437898635864e-01" purity="8.6156058311462402e-01" nType="0">
          <Node pos="l" depth="2" NCoef="0" IVar="-1" Cut="0.0000000000000000e+00" cType="1" res="2.6725572533905506e-03" rms="2.2233965992927551e-01" purity="9.2650693655014038e-01" nType="-99"/>
          <Node pos="r" depth="2" NCoef="0" IVar="-1" Cut="0.0000000000000000e+00" cType="1" res="-1.7470573948230594e-04" rms="4.4038224220275879e-01" purity="5.9937912225723267e-01" nType="-99"/>
        </Node>
      </Node>
    </BinaryTree>
    <BinaryTree type="DecisionTree" boostWeight="1.0000000000000000e+00" itree="167">
      <Node pos="s" depth="0" NCoef="0" IVar="17" Cut="1.5231137275695801e+00" cType="1" res="7.3807515203952789e-02" rms="3.1667152047157288e-01" purity="4.9932283163070679e-01" nType="0">
        <Node pos="l" depth="1" NCoef="0" IVar="5" Cut="2.8323230147361755e-01" cType="1" res="-1.0261190123856068e-02" rms="3.0786952376365662e-01" purity="2.5737273693084717e-01" nType="0">
          <Node pos="l" depth="2" NCoef="0" IVar="-1" Cut="0.0000000000000000e+00" cType="1" res="1.4769044937565923e-03" rms="3.3696460723876953e-01" purity="4.1630205512046814e-01" nType="-99"/>
          <Node pos="r" depth="2" NCoef="0" IVar="-1" Cut="0.0000000000000000e+00" cType="1" res="-1.9199907546862960e-03" rms="2.6214215159416199e-01" purity="1.3400925695896149e-01" nType="-99"/>
        </Node>
        <Node pos="r" depth="1" NCoef="0" IVar="1" Cut="2.5807313919067383e+00" cType="1" res="2.0573884248733521e-01" rms="2.8356763720512390e-01" purity="8.7902176380157471e-01" nType="0">
          <Node pos="l" depth="2" NCoef="0" IVar="-1" Cut="0.0000000000000000e+00" cType="1" res="-7.6629646355286241e-04" rms="4.2250096797943115e-01" purity="5.1994198560714722e-01" nType="-99"/>
          <Node pos="r" depth="2" NCoef="0" IVar="-1" Cut="0.0000000000000000e+00" cType="1" res="2.5611461605876684e-03" rms="2.4620862305164337e-01" purity="9.1842395067214966e-01" nType="-99"/>
        </Node>
      </Node>
    </BinaryTree>
    <BinaryTree type="DecisionTree" boostWeight="1.0000000000000000e+00" itree="168">
      <Node pos="s" depth="0" NCoef="0" IVar="17" Cut="1.4833937883377075e+00" cType="1" res="7.2599194943904877e-02" rms="3.1992241740226746e-01" purity="4.9920535087585449e-01" nType="0">
        <Node pos="l" depth="1" NCoef="0" IVar="0" Cut="6.2222844362258911e-01" cType="1" res="-4.5838639140129089e-02" rms="2.3818272352218628e-01" purity="9.6049979329109192e-02" nType="0">
          <Node pos="l" depth="2" NCoef="0" IVar="-1" Cut="0.0000000000000000e+00" cType="1" res="3.3703618100844324e-04" rms="3.0047184228897095e-01" purity="1.6626451909542084e-01" nType="-99"/>
          <Node pos="r" depth="2" NCoef="0" IVar="-1" Cut="0.0000000000000000e+00" cType="1" res="-5.5752689950168133e-03" rms="1.0853804647922516e-01" purity="1.7262432724237442e-02" nType="-99"/>
        </Node>
        <Node pos="r" depth="1" NCoef="0" IVar="48" Cut="1.1159363985061646e+00" cType="1" res="1.6028258204460144e-01" rms="3.4358471632003784e-01" purity="7.9767447710037231e-01" nType="0">
          <Node pos="l" depth="2" NCoef="0" IVar="-1" Cut="0.0000000000000000e+00" cType="1" res="-2.0335330627858639e-03" rms="4.0119612216949463e-01" purity="3.6742022633552551e-01" nType="-99"/>
          <Node pos="r" depth="2" NCoef="0" IVar="-1" Cut="0.0000000000000000e+00" cType="1" res="2.0501250401139259e-03" rms="3.1792253255844116e-01" purity="8.4187567234039307e-01" nType="-99"/>
        </Node>
      </Node>
    </BinaryTree>
    <BinaryTree type="DecisionTree" boostWeight="1.0000000000000000e+00" itree="169">
      <Node pos="s" depth="0" NCoef="0" IVar="5" Cut="3.0460646748542786e-01" cType="1" res="6.9556906819343567e-02" rms="3.2698988914489746e-01" purity="4.8831614851951599e-01" nType="0">
        <Node pos="l" depth="1" NCoef="0" IVar="36" Cut="9.4291883707046509e-01" cType="1" res="1.5754766762256622e-01" rms="3.1140881776809692e-01" purity="6.5624034404754639e-01" nType="0">
          <Node pos="l" depth="2" NCoef="0" IVar="-1" Cut="0.0000000000000000e+00" cType="1" res="-1.2073818594217300e-02" rms="1.1262417584657669e-01" purity="1.8904129043221474e-02" nType="-99"/>
          <Node pos="r" depth="2" NCoef="0" IVar="-1" Cut="0.0000000000000000e+00" cType="1" res="2.6214481331408024e-03" rms="3.0290889739990234e-01" purity="7.7886688709259033e-01" nType="-99"/>
        </Node>
        <Node pos="r" depth="1" NCoef="0" IVar="17" Cut="1.5199401378631592e+00" cType="1" res="-4.9309179186820984e-02" rms="3.0946952104568481e-01" purity="2.6146855950355530e-01" nType="0">
          <Node pos="l" depth="2" NCoef="0" IVar="-1" Cut="0.0000000000000000e+00" cType="1" res="-2.1722305100411177e-03" rms="2.5893491506576538e-01" purity="1.2748429179191589e-01" nType="-99"/>
          <Node pos="r" depth="2" NCoef="0" IVar="-1" Cut="0.0000000000000000e+00" cType="1" res="7.0619292091578245e-04" rms="4.1893693804740906e-01" purity="7.1772313117980957e-01" nType="-99"/>
        </Node>
      </Node>
    </BinaryTree>
    <BinaryTree type="DecisionTree" boostWeight="1.0000000000000000e+00" itree="170">
      <Node pos="s" depth="0" NCoef="0" IVar="17" Cut="1.5231137275695801e+00" cType="1" res="6.2094129621982574e-02" rms="3.1191429495811462e-01" purity="4.8769903182983398e-01" nType="0">
        <Node pos="l" depth="1" NCoef="0" IVar="5" Cut="3.0471518635749817e-01" cType="1" res="-2.3337680846452713e-02" rms="2.9578500986099243e-01" purity="2.4481250345706940e-01" nType="0">
          <Node pos="l" depth="2" NCoef="0" IVar="-1" Cut="0.0000000000000000e+00" cType="1" res="1.3956188922747970e-03" rms="3.3764454722404480e-01" purity="4.0455451607704163e-01" nType="-99"/>
          <Node pos="r" depth="2" NCoef="0" IVar="-1" Cut="0.0000000000000000e+00" cType="1" res="-2.7853373903781176e-03" rms="2.1389265358448029e-01" purity="9.6454121172428131e-02" nType="-99"/>
        </Node>
        <Node pos="r" depth="1" NCoef="0" IVar="15" Cut="1.5230776071548462e+00" cType="1" res="1.9706584513187408e-01" rms="2.8814554214477539e-01" purity="8.7142986059188843e-01" nType="0">
          <Node pos="l" depth="2" NCoef="0" IVar="-1" Cut="0.0000000000000000e+00" cType="1" res="2.6983981952071190e-03" rms="2.0861531794071198e-01" purity="9.3655943870544434e-01" nType="-99"/>
          <Node pos="r" depth="2" NCoef="0" IVar="-1" Cut="0.0000000000000000e+00" cType="1" res="-5.3236330131767318e-05" rms="4.3778237700462341e-01" purity="6.0861617326736450e-01" nType="-99"/>
        </Node>
      </Node>
    </BinaryTree>
    <BinaryTree type="DecisionTree" boostWeight="1.0000000000000000e+00" itree="171">
      <Node pos="s" depth="0" NCoef="0" IVar="17" Cut="1.4830439090728760e+00" cType="1" res="7.0795767009258270e-02" rms="3.1607648730278015e-01" purity="5.0109893083572388e-01" nType="0">
        <Node pos="l" depth="1" NCoef="0" IVar="5" Cut="3.0503758788108826e-01" cType="1" res="-5.2577394992113113e-02" rms="2.2562557458877563e-01" purity="8.2041122019290924e-02" nType="0">
          <Node pos="l" depth="2" NCoef="0" IVar="-1" Cut="0.0000000000000000e+00" cType="1" res="5.2012357627972960e-04" rms="3.1831315159797668e-01" purity="1.8187135457992554e-01" nType="-99"/>
          <Node pos="r" depth="2" NCoef="0" IVar="-1" Cut="0.0000000000000000e+00" cType="1" res="-5.5558243766427040e-03" rms="1.0482311248779297e-01" purity="1.3613462448120117e-02" nType="-99"/>
        </Node>
        <Node pos="r" depth="1" NCoef="0" IVar="1" Cut="2.4628164768218994e+00" cType="1" res="1.5840291976928711e-01" rms="3.4090173244476318e-01" purity="7.9867148399353027e-01" nType="0">
          <Node pos="l" depth="2" NCoef="0" IVar="-1" Cut="0.0000000000000000e+00" cType="1" res="-1.8342084949836135e-03" rms="4.1777345538139343e-01" purity="3.4886083006858826e-01" nType="-99"/>
          <Node pos="r" depth="2" NCoef="0" IVar="-1" Cut="0.0000000000000000e+00" cType="1" res="2.0021491218358278e-03" rms="3.1341919302940369e-01" purity="8.4985488653182983e-01" nType="-99"/>
        </Node>
      </Node>
    </BinaryTree>
    <BinaryTree type="DecisionTree" boostWeight="1.0000000000000000e+00" itree="172">
      <Node pos="s" depth="0" NCoef="0" IVar="17" Cut="1.5220416784286499e+00" cType="1" res="7.0445649325847626e-02" rms="3.1542497873306274e-01" purity="4.9487981200218201e-01" nType="0">
        <Node pos="l" depth="1" NCoef="0" IVar="5" Cut="2.8546217083930969e-01" cType="1" res="-1.2183658778667450e-02" rms="3.0587351322174072e-01" purity="2.4677637219429016e-01" nType="0">
          <Node pos="l" depth="2" NCoef="0" IVar="-1" Cut="0.0000000000000000e+00" cType="1" res="1.4090010663494468e-03" rms="3.4590062499046326e-01" purity="3.9720040559768677e-01" nType="-99"/>
          <Node pos="r" depth="2" NCoef="0" IVar="-1" Cut="0.0000000000000000e+00" cType="1" res="-1.9326193723827600e-03" rms="2.5141555070877075e-01" purity="1.3135732710361481e-01" nType="-99"/>
        </Node>
        <Node pos="r" depth="1" NCoef="0" IVar="36" Cut="1.1750472784042358e+00" cType="1" res="1.9551548361778259e-01" rms="2.8722527623176575e-01" purity="8.7041556835174561e-01" nType="0">
          <Node pos="l" depth="2" NCoef="0" IVar="-1" Cut="0.0000000000000000e+00" cType="1" res="-4.8754117451608181e-03" rms="3.4044811129570007e-01" purity="1.6936662793159485e-01" nType="-99"/>
          <Node pos="r" depth="2" NCoef="0" IVar="-1" Cut="0.0000000000000000e+00" cType="1" res="2.3468392901122570e-03" rms="2.6449012756347656e-01" purity="9.1547983884811401e-01" nType="-99"/>
        </Node>
      </Node>
    </BinaryTree>
    <BinaryTree type="DecisionTree" boostWeight="1.0000000000000000e+00" itree="173">
      <Node pos="s" depth="0" NCoef="0" IVar="17" Cut="1.4828280210494995e+00" cType="1" res="7.3242664337158203e-02" rms="3.1749299168586731e-01" purity="5.0160497426986694e-01" nType="0">
        <Node pos="l" depth="1" NCoef="0" IVar="14" Cut="-1.1837271451950073e+00" cType="1" res="-4.5545194298028946e-02" rms="2.3463852703571320e-01" purity="9.0781480073928833e-02" nType="0">
          <Node pos="l" depth="2" NCoef="0" IVar="-1" Cut="0.0000000000000000e+00" cType="1" res="-8.2376468926668167e-03" rms="3.8306616246700287e-02" purity="5.1612860988825560e-04" nType="-99"/>
          <Node pos="r" depth="2" NCoef="0" IVar="-1" Cut="0.0000000000000000e+00" cType="1" res="4.9061019672080874e-04" rms="3.1446912884712219e-01" purity="1.7778174579143524e-01" nType="-99"/>
        </Node>
        <Node pos="r" depth="1" NCoef="0" IVar="36" Cut="1.3686834573745728e+00" cType="1" res="1.5886573493480682e-01" rms="3.4098964929580688e-01" purity="7.9772919416427612e-01" nType="0">
          <Node pos="l" depth="2" NCoef="0" IVar="-1" Cut="0.0000000000000000e+00" cType="1" res="-1.7570900963619351e-03" rms="3.9369899034500122e-01" purity="2.9935249686241150e-01" nType="-99"/>
          <Node pos="r" depth="2" NCoef="0" IVar="-1" Cut="0.0000000000000000e+00" cType="1" res="1.9579536747187376e-03" rms="3.1561660766601562e-01" purity="8.7294125556945801e-01" nType="-99"/>
        </Node>
      </Node>
    </BinaryTree>
    <BinaryTree type="DecisionTree" boostWeight="1.0000000000000000e+00" itree="174">
      <Node pos="s" depth="0" NCoef="0" IVar="17" Cut="1.4447457790374756e+00" cType="1" res="7.2899207472801208e-02" rms="3.2120195031166077e-01" purity="4.9743688106536865e-01" nType="0">
        <Node pos="l" depth="1" NCoef="0" IVar="5" Cut="8.9403845369815826e-02" cType="1" res="-6.1638157814741135e-02" rms="1.5730339288711548e-01" purity="3.4345231950283051e-02" nType="0">
          <Node pos="l" depth="2" NCoef="0" IVar="-1" Cut="0.0000000000000000e+00" cType="1" res="5.1402940880507231e-04" rms="2.9606217145919800e-01" purity="1.3138549029827118e-01" nType="-99"/>
          <Node pos="r" depth="2" NCoef="0" IVar="-1" Cut="0.0000000000000000e+00" cType="1" res="-9.7573148086667061e-03" rms="0.0000000000000000e+00" purity="-1.4920657267794013e-03" nType="-99"/>
        </Node>
        <Node pos="r" depth="1" NCoef="0" IVar="36" Cut="1.4073475599288940e+00" cType="1" res="1.4634183049201965e-01" rms="3.6153596639633179e-01" purity="7.5023406744003296e-01" nType="0">
          <Node pos="l" depth="2" NCoef="0" IVar="-1" Cut="0.0000000000000000e+00" cType="1" res="-1.5610295813530684e-03" rms="4.0212827920913696e-01" purity="2.8990307450294495e-01" nType="-99"/>
          <Node pos="r" depth="2" NCoef="0" IVar="-1" Cut="0.0000000000000000e+00" cType="1" res="1.9465639488771558e-03" rms="3.3373010158538818e-01" purity="8.4481894969940186e-01" nType="-99"/>
        </Node>
      </Node>
    </BinaryTree>
    <BinaryTree type="DecisionTree" boostWeight="1.0000000000000000e+00" itree="175">
      <Node pos="s" depth="0" NCoef="0" IVar="17" Cut="1.4457910060882568e+00" cType="1" res="7.6029270887374878e-02" rms="3.1483304500579834e-01" purity="5.0739079713821411e-01" nType="0">
        <Node pos="l" depth="1" NCoef="0" IVar="48" Cut="9.5467919111251831e-01" cType="1" res="-5.8281820267438889e-02" rms="1.6405287384986877e-01" purity="3.7369638681411743e-02" nType="0">
          <Node pos="l" depth="2" NCoef="0" IVar="-1" Cut="0.0000000000000000e+00" cType="1" res="-1.2517987750470638e-02" rms="0.0000000000000000e+00" purity="-6.6791959106922150e-02" nType="-99"/>
          <Node pos="r" depth="2" NCoef="0" IVar="-1" Cut="0.0000000000000000e+00" cType="1" res="-3.0051423236727715e-03" rms="2.0946785807609558e-01" purity="5.8484096080064774e-02" nType="-99"/>
        </Node>
        <Node pos="r" depth="1" NCoef="0" IVar="1" Cut="2.4258627891540527e+00" cType="1" res="1.4904086291790009e-01" rms="3.5104757547378540e-01" purity="7.6289451122283936e-01" nType="0">
          <Node pos="l" depth="2" NCoef="0" IVar="-1" Cut="0.0000000000000000e+00" cType="1" res="-2.2424752824008465e-03" rms="3.8085889816284180e-01" purity="2.9803860187530518e-01" nType="-99"/>
          <Node pos="r" depth="2" NCoef="0" IVar="-1" Cut="0.0000000000000000e+00" cType="1" res="1.9269356271252036e-03" rms="3.2856488227844238e-01" purity="8.1734842061996460e-01" nType="-99"/>
        </Node>
      </Node>
    </BinaryTree>
    <BinaryTree type="DecisionTree" boostWeight="1.0000000000000000e+00" itree="176">
      <Node pos="s" depth="0" NCoef="0" IVar="17" Cut="1.5216873884201050e+00" cType="1" res="6.4492449164390564e-02" rms="3.1862154603004456e-01" purity="4.8286345601081848e-01" nType="0">
        <Node pos="l" depth="1" NCoef="0" IVar="5" Cut="2.2913543879985809e-01" cType="1" res="-1.0775710456073284e-02" rms="3.0761757493019104e-01" purity="2.4509309232234955e-01" nType="0">
          <Node pos="l" depth="2" NCoef="0" IVar="-1" Cut="0.0000000000000000e+00" cType="1" res="1.5142991906031966e-03" rms="3.4214815497398376e-01" purity="4.0993058681488037e-01" nType="-99"/>
          <Node pos="r" depth="2" NCoef="0" IVar="-1" Cut="0.0000000000000000e+00" cType="1" res="-1.7502101836726069e-03" rms="2.6527541875839233e-01" purity="1.3543166220188141e-01" nType="-99"/>
        </Node>
        <Node pos="r" depth="1" NCoef="0" IVar="36" Cut="9.0426164865493774e-01" cType="1" res="1.8336257338523865e-01" rms="2.9887375235557556e-01" purity="8.5837137699127197e-01" nType="0">
          <Node pos="l" depth="2" NCoef="0" IVar="-1" Cut="0.0000000000000000e+00" cType="1" res="-8.4835961461067200e-03" rms="2.7671235799789429e-01" purity="1.0301698744297028e-01" nType="-99"/>
          <Node pos="r" depth="2" NCoef="0" IVar="-1" Cut="0.0000000000000000e+00" cType="1" res="2.2222567349672318e-03" rms="2.8155556321144104e-01" purity="9.0169817209243774e-01" nType="-99"/>
        </Node>
      </Node>
    </BinaryTree>
    <BinaryTree type="DecisionTree" boostWeight="1.0000000000000000e+00" itree="177">
      <Node pos="s" depth="0" NCoef="0" IVar="17" Cut="1.5220416784286499e+00" cType="1" res="6.6544227302074432e-02" rms="3.1575337052345276e-01" purity="4.8980554938316345e-01" nType="0">
        <Node pos="l" depth="1" NCoef="0" IVar="5" Cut="3.0461463332176208e-01" cType="1" res="-1.2640671804547310e-02" rms="3.0264529585838318e-01" purity="2.5033742189407349e-01" nType="0">
          <Node pos="l" depth="2" NCoef="0" IVar="-1" Cut="0.0000000000000000e+00" cType="1" res="1.3263945002108812e-03" rms="3.3115771412849426e-01" purity="4.0088361501693726e-01" nType="-99"/>
          <Node pos="r" depth="2" NCoef="0" IVar="-1" Cut="0.0000000000000000e+00" cType="1" res="-2.1760212257504463e-03" rms="2.5285157561302185e-01" purity="1.1700177192687988e-01" nType="-99"/>
        </Node>
        <Node pos="r" depth="1" NCoef="0" IVar="1" Cut="2.3890156745910645e+00" cType="1" res="1.9164186716079712e-01" rms="2.9487439990043640e-01" purity="8.6812138557434082e-01" nType="0">
          <Node pos="l" depth="2" NCoef="0" IVar="-1" Cut="0.0000000000000000e+00" cType="1" res="-2.3115319199860096e-03" rms="4.2328661680221558e-01" purity="3.4465608000755310e-01" nType="-99"/>
          <Node pos="r" depth="2" NCoef="0" IVar="-1" Cut="0.0000000000000000e+00" cType="1" res="2.4093897081911564e-03" rms="2.6616778969764709e-01" purity="9.0329539775848389e-01" nType="-99"/>
        </Node>
      </Node>
    </BinaryTree>
    <BinaryTree type="DecisionTree" boostWeight="1.0000000000000000e+00" itree="178">
      <Node pos="s" depth="0" NCoef="0" IVar="17" Cut="1.4447457790374756e+00" cType="1" res="6.7659690976142883e-02" rms="3.1377372145652771e-01" purity="4.8873880505561829e-01" nType="0">
        <Node pos="l" depth="1" NCoef="0" IVar="9" Cut="-7.7777779102325439e-01" cType="1" res="-6.5379165112972260e-02" rms="1.4131072163581848e-01" purity="2.7201721444725990e-02" nType="0">
          <Node pos="l" depth="2" NCoef="0" IVar="-1" Cut="0.0000000000000000e+00" cType="1" res="3.0116420239210129e-03" rms="3.4802952408790588e-01" purity="1.6782504320144653e-01" nType="-99"/>
          <Node pos="r" depth="2" NCoef="0" IVar="-1" Cut="0.0000000000000000e+00" cType="1" res="-7.1748304180800915e-03" rms="9.5013283193111420e-02" purity="1.4392384327948093e-02" nType="-99"/>
        </Node>
        <Node pos="r" depth="1" NCoef="0" IVar="1" Cut="2.6437294483184814e+00" cType="1" res="1.4315164089202881e-01" rms="3.5671758651733398e-01" purity="7.5063478946685791e-01" nType="0">
          <Node pos="l" depth="2" NCoef="0" IVar="-1" Cut="0.0000000000000000e+00" cType="1" res="-7.9484435264021158e-04" rms="4.1846057772636414e-01" purity="4.2628312110900879e-01" nType="-99"/>
          <Node pos="r" depth="2" NCoef="0" IVar="-1" Cut="0.0000000000000000e+00" cType="1" res="1.9555047620087862e-03" rms="3.2249680161476135e-01" purity="8.2664120197296143e-01" nType="-99"/>
        </Node>
      </Node>
    </BinaryTree>
    <BinaryTree type="DecisionTree" boostWeight="1.0000000000000000e+00" itree="179">
      <Node pos="s" depth="0" NCoef="0" IVar="17" Cut="1.4457910060882568e+00" cType="1" res="7.5380757451057434e-02" rms="3.1661778688430786e-01" purity="5.0345331430435181e-01" nType="0">
        <Node pos="l" depth="1" NCoef="0" IVar="60" Cut="-1.7435120344161987e+00" cType="1" res="-6.0669135302305222e-02" rms="1.4937123656272888e-01" purity="3.2118953764438629e-02" nType="0">
          <Node pos="l" depth="2" NCoef="0" IVar="-1" Cut="0.0000000000000000e+00" cType="1" res="-1.5186114469543099e-03" rms="2.3568545281887054e-01" purity="7.6004400849342346e-02" nType="-99"/>
          <Node pos="r" depth="2" NCoef="0" IVar="-1" Cut="0.0000000000000000e+00" cType="1" res="-1.0088530369102955e-02" rms="0.0000000000000000e+00" purity="-1.3028477318584919e-02" nType="-99"/>
        </Node>
        <Node pos="r" depth="1" NCoef="0" IVar="1" Cut="2.6760489940643311e+00" cType="1" res="1.4877274632453918e-01" rms="3.5625475645065308e-01" purity="7.5771421194076538e-01" nType="0">
          <Node pos="l" depth="2" NCoef="0" IVar="-1" Cut="0.0000000000000000e+00" cType="1" res="-1.0649967007339001e-03" rms="4.1255289316177368e-01" purity="4.0780067443847656e-01" nType="-99"/>
          <Node pos="r" depth="2" NCoef="0" IVar="-1" Cut="0.0000000000000000e+00" cType="1" res="2.0638776477426291e-03" rms="3.2114672660827637e-01" purity="8.3500576019287109e-01" nType="-99"/>
        </Node>
      </Node>
    </BinaryTree>
    <BinaryTree type="DecisionTree" boostWeight="1.0000000000000000e+00" itree="180">
      <Node pos="s" depth="0" NCoef="0" IVar="5" Cut="3.4026998281478882e-01" cType="1" res="7.3452174663543701e-02" rms="3.2105892896652222e-01" purity="4.9758273363113403e-01" nType="0">
        <Node pos="l" depth="1" NCoef="0" IVar="36" Cut="9.8174846172332764e-01" cType="1" res="1.4779415726661682e-01" rms="3.0769339203834534e-01" purity="6.4166569709777832e-01" nType="0">
          <Node pos="l" depth="2" NCoef="0" IVar="-1" Cut="0.0000000000000000e+00" cType="1" res="-1.3724391348659992e-02" rms="4.9217108637094498e-02" purity="5.5768811143934727e-03" nType="-99"/>
          <Node pos="r" depth="2" NCoef="0" IVar="-1" Cut="0.0000000000000000e+00" cType="1" res="2.5224923156201839e-03" rms="3.0259758234024048e-01" purity="7.6072800159454346e-01" nType="-99"/>
        </Node>
        <Node pos="r" depth="1" NCoef="0" IVar="17" Cut="1.5214687585830688e+00" cType="1" res="-5.3762082010507584e-02" rms="3.0301538109779358e-01" purity="2.5102740526199341e-01" nType="0">
          <Node pos="l" depth="2" NCoef="0" IVar="-1" Cut="0.0000000000000000e+00" cType="1" res="-2.1481050644069910e-03" rms="2.4615089595317841e-01" purity="1.2079897522926331e-01" nType="-99"/>
          <Node pos="r" depth="2" NCoef="0" IVar="-1" Cut="0.0000000000000000e+00" cType="1" res="6.9213542155921459e-04" rms="4.3109983205795288e-01" purity="7.1978479623794556e-01" nType="-99"/>
        </Node>
      </Node>
    </BinaryTree>
    <BinaryTree type="DecisionTree" boostWeight="1.0000000000000000e+00" itree="181">
      <Node pos="s" depth="0" NCoef="0" IVar="17" Cut="1.5214687585830688e+00" cType="1" res="6.1660654842853546e-02" rms="3.1367343664169312e-01" purity="4.8868528008460999e-01" nType="0">
        <Node pos="l" depth="1" NCoef="0" IVar="48" Cut="1.5594226121902466e+00" cType="1" res="-1.7546962946653366e-02" rms="2.9870995879173279e-01" purity="2.4474789202213287e-01" nType="0">
          <Node pos="l" depth="2" NCoef="0" IVar="-1" Cut="0.0000000000000000e+00" cType="1" res="-4.1105458512902260e-03" rms="1.8006907403469086e-01" purity="5.4031003266572952e-02" nType="-99"/>
          <Node pos="r" depth="2" NCoef="0" IVar="-1" Cut="0.0000000000000000e+00" cType="1" res="6.2398309819400311e-04" rms="3.2549813389778137e-01" purity="3.2864207029342651e-01" nType="-99"/>
        </Node>
        <Node pos="r" depth="1" NCoef="0" IVar="15" Cut="1.5230776071548462e+00" cType="1" res="1.8308319151401520e-01" rms="2.9677790403366089e-01" purity="8.6263293027877808e-01" nType="0">
          <Node pos="l" depth="2" NCoef="0" IVar="-1" Cut="0.0000000000000000e+00" cType="1" res="2.6047832798212767e-03" rms="2.2127491235733032e-01" purity="9.2743033170700073e-01" nType="-99"/>
          <Node pos="r" depth="2" NCoef="0" IVar="-1" Cut="0.0000000000000000e+00" cType="1" res="-3.2086027204059064e-04" rms="4.4074010848999023e-01" purity="5.9567421674728394e-01" nType="-99"/>
        </Node>
      </Node>
    </BinaryTree>
    <BinaryTree type="DecisionTree" boostWeight="1.0000000000000000e+00" itree="182">
      <Node pos="s" depth="0" NCoef="0" IVar="17" Cut="1.5220416784286499e+00" cType="1" res="6.5512798726558685e-02" rms="3.1090626120567322e-01" purity="4.8744240403175354e-01" nType="0">
        <Node pos="l" depth="1" NCoef="0" IVar="2" Cut="2.4743211269378662e+00" cType="1" res="-1.5844462439417839e-02" rms="3.0029416084289551e-01" purity="2.4314510822296143e-01" nType="0">
          <Node pos="l" depth="2" NCoef="0" IVar="-1" Cut="0.0000000000000000e+00" cType="1" res="-3.1254366040229797e-03" rms="2.2689715027809143e-01" purity="1.0659752786159515e-01" nType="-99"/>
          <Node pos="r" depth="2" NCoef="0" IVar="-1" Cut="0.0000000000000000e+00" cType="1" res="1.1548148468136787e-03" rms="3.4960591793060303e-01" purity="4.0931391716003418e-01" nType="-99"/>
        </Node>
        <Node pos="r" depth="1" NCoef="0" IVar="15" Cut="1.5217730998992920e+00" cType="1" res="1.9478176534175873e-01" rms="2.8238469362258911e-01" purity="8.7560772895812988e-01" nType="0">
          <Node pos="l" depth="2" NCoef="0" IVar="-1" Cut="0.0000000000000000e+00" cType="1" res="2.6196544058620930e-03" rms="2.0938032865524292e-01" purity="9.3618696928024292e-01" nType="-99"/>
          <Node pos="r" depth="2" NCoef="0" IVar="-1" Cut="0.0000000000000000e+00" cType="1" res="3.7177969352342188e-04" rms="4.1844251751899719e-01" purity="6.5838831663131714e-01" nType="-99"/>
        </Node>
      </Node>
    </BinaryTree>
    <BinaryTree type="DecisionTree" boostWeight="1.0000000000000000e+00" itree="183">
      <Node pos="s" depth="0" NCoef="0" IVar="36" Cut="1.3296864032745361e+00" cType="1" res="7.4858576059341431e-02" rms="3.2264068722724915e-01" purity="4.9330711364746094e-01" nType="0">
        <Node pos="l" depth="1" NCoef="0" IVar="15" Cut="1.5199739933013916e+00" cType="1" res="-9.6673451364040375e-02" rms="2.0019049942493439e-01" purity="6.2873199582099915e-02" nType="0">
          <Node pos="l" depth="2" NCoef="0" IVar="-1" Cut="0.0000000000000000e+00" cType="1" res="-3.6810832098126411e-03" rms="2.0287664234638214e-01" purity="7.5307019054889679e-02" nType="-99"/>
          <Node pos="r" depth="2" NCoef="0" IVar="-1" Cut="0.0000000000000000e+00" cType="1" res="-2.2479619830846786e-02" rms="0.0000000000000000e+00" purity="-3.3811014145612717e-02" nType="-99"/>
        </Node>
        <Node pos="r" depth="1" NCoef="0" IVar="17" Cut="1.4060977697372437e+00" cType="1" res="1.2845887243747711e-01" rms="3.3471637964248657e-01" purity="6.2780904769897461e-01" nType="0">
          <Node pos="l" depth="2" NCoef="0" IVar="-1" Cut="0.0000000000000000e+00" cType="1" res="-3.9436845108866692e-03" rms="2.0452812314033508e-01" purity="4.9247410148382187e-02" nType="-99"/>
          <Node pos="r" depth="2" NCoef="0" IVar="-1" Cut="0.0000000000000000e+00" cType="1" res="1.8851365894079208e-03" rms="3.4934273362159729e-01" purity="8.1269907951354980e-01" nType="-99"/>
        </Node>
      </Node>
    </BinaryTree>
    <BinaryTree type="DecisionTree" boostWeight="1.0000000000000000e+00" itree="184">
      <Node pos="s" depth="0" NCoef="0" IVar="17" Cut="1.5220416784286499e+00" cType="1" res="6.4634300768375397e-02" rms="3.0922755599021912e-01" purity="4.9698233604431152e-01" nType="0">
        <Node pos="l" depth="1" NCoef="0" IVar="5" Cut="2.8308928012847900e-01" cType="1" res="-2.0887639373540878e-02" rms="2.9244765639305115e-01" purity="2.4377879500389099e-01" nType="0">
          <Node pos="l" depth="2" NCoef="0" IVar="-1" Cut="0.0000000000000000e+00" cType="1" res="1.4065784635022283e-03" rms="3.3212161064147949e-01" purity="4.1007012128829956e-01" nType="-99"/>
          <Node pos="r" depth="2" NCoef="0" IVar="-1" Cut="0.0000000000000000e+00" cType="1" res="-2.4256331380456686e-03" rms="2.2942550480365753e-01" purity="1.1276451498270035e-01" nType="-99"/>
        </Node>
        <Node pos="r" depth="1" NCoef="0" IVar="15" Cut="1.5230776071548462e+00" cType="1" res="1.9118061661720276e-01" rms="2.8935149312019348e-01" purity="8.7164610624313354e-01" nType="0">
          <Node pos="l" depth="2" NCoef="0" IVar="-1" Cut="0.0000000000000000e+00" cType="1" res="2.6266910135746002e-03" rms="2.2108194231987000e-01" purity="9.3162047863006592e-01" nType="-99"/>
          <Node pos="r" depth="2" NCoef="0" IVar="-1" Cut="0.0000000000000000e+00" cType="1" res="-2.0374156974867219e-06" rms="4.2799392342567444e-01" purity="6.2229591608047485e-01" nType="-99"/>
        </Node>
      </Node>
    </BinaryTree>
    <BinaryTree type="DecisionTree" boostWeight="1.0000000000000000e+00" itree="185">
      <Node pos="s" depth="0" NCoef="0" IVar="17" Cut="1.4071296453475952e+00" cType="1" res="7.3172621428966522e-02" rms="3.1470999121665955e-01" purity="5.0171768665313721e-01" nType="0">
        <Node pos="l" depth="1" NCoef="0" IVar="52" Cut="2.6008617877960205e+00" cType="1" res="-7.2959825396537781e-02" rms="6.7814171314239502e-02" purity="6.4627043902873993e-03" nType="0">
          <Node pos="l" depth="2" NCoef="0" IVar="-1" Cut="0.0000000000000000e+00" cType="1" res="-2.1721089258790016e-02" rms="0.0000000000000000e+00" purity="-6.5373830497264862e-02" nType="-99"/>
          <Node pos="r" depth="2" NCoef="0" IVar="-1" Cut="0.0000000000000000e+00" cType="1" res="-5.7345139794051647e-03" rms="1.6159999370574951e-01" purity="3.0970897525548935e-02" nType="-99"/>
        </Node>
        <Node pos="r" depth="1" NCoef="0" IVar="1" Cut="2.7081713676452637e+00" cType="1" res="1.4006929099559784e-01" rms="3.5780712962150574e-01" purity="7.2843611240386963e-01" nType="0">
          <Node pos="l" depth="2" NCoef="0" IVar="-1" Cut="0.0000000000000000e+00" cType="1" res="-6.0546345775946975e-04" rms="4.1466653347015381e-01" purity="4.2066431045532227e-01" nType="-99"/>
          <Node pos="r" depth="2" NCoef="0" IVar="-1" Cut="0.0000000000000000e+00" cType="1" res="2.0264640916138887e-03" rms="3.2349106669425964e-01" purity="8.1191873550415039e-01" nType="-99"/>
        </Node>
      </Node>
    </BinaryTree>
    <BinaryTree type="DecisionTree" boostWeight="1.0000000000000000e+00" itree="186">
      <Node pos="s" depth="0" NCoef="0" IVar="17" Cut="1.3684681653976440e+00" cType="1" res="7.1311078965663910e-02" rms="3.1433761119842529e-01" purity="4.9545547366142273e-01" nType="0">
        <Node pos="l" depth="1" NCoef="0" IVar="34" Cut="-1.4926679134368896e+00" cType="1" res="-6.5286062657833099e-02" rms="8.9771009981632233e-02" purity="9.5685720443725586e-03" nType="0">
          <Node pos="l" depth="2" NCoef="0" IVar="-1" Cut="0.0000000000000000e+00" cType="1" res="5.4573663510382175e-03" rms="3.3313217759132385e-01" purity="1.4555902779102325e-01" nType="-99"/>
          <Node pos="r" depth="2" NCoef="0" IVar="-1" Cut="0.0000000000000000e+00" cType="1" res="-1.2691413052380085e-02" rms="0.0000000000000000e+00" purity="-1.3496242463588715e-03" nType="-99"/>
        </Node>
        <Node pos="r" depth="1" NCoef="0" IVar="48" Cut="1.0207147598266602e+00" cType="1" res="1.3118903338909149e-01" rms="3.5612350702285767e-01" purity="7.0844614505767822e-01" nType="0">
          <Node pos="l" depth="2" NCoef="0" IVar="-1" Cut="0.0000000000000000e+00" cType="1" res="-2.3330471012741327e-03" rms="3.4582173824310303e-01" purity="2.4545076489448547e-01" nType="-99"/>
          <Node pos="r" depth="2" NCoef="0" IVar="-1" Cut="0.0000000000000000e+00" cType="1" res="1.8431799253448844e-03" rms="3.4117209911346436e-01" purity="7.5489449501037598e-01" nType="-99"/>
        </Node>
      </Node>
    </BinaryTree>
    <BinaryTree type="DecisionTree" boostWeight="1.0000000000000000e+00" itree="187">
      <Node pos="s" depth="0" NCoef="0" IVar="36" Cut="1.4073475599288940e+00" cType="1" res="7.7143497765064240e-02" rms="3.2196757197380066e-01" purity="4.9939191341400146e-01" nType="0">
        <Node pos="l" depth="1" NCoef="0" IVar="3" Cut="5.0370702743530273e+00" cType="1" res="-7.1389459073543549e-02" rms="2.5683745741844177e-01" purity="1.1002130061388016e-01" nType="0">
          <Node pos="l" depth="2" NCoef="0" IVar="-1" Cut="0.0000000000000000e+00" cType="1" res="-8.6929714307188988e-03" rms="1.6103687882423401e-01" purity="4.0702421218156815e-02" nType="-99"/>
          <Node pos="r" depth="2" NCoef="0" IVar="-1" Cut="0.0000000000000000e+00" cType="1" res="3.0374333728104830e-03" rms="3.6804223060607910e-01" purity="3.2671603560447693e-01" nType="-99"/>
        </Node>
        <Node pos="r" depth="1" NCoef="0" IVar="5" Cut="3.4236988425254822e-01" cType="1" res="1.3409493863582611e-01" rms="3.2621273398399353e-01" purity="6.4868694543838501e-01" nType="0">
          <Node pos="l" depth="2" NCoef="0" IVar="-1" Cut="0.0000000000000000e+00" cType="1" res="2.5781968142837286e-03" rms="2.7784606814384460e-01" purity="8.0786520242691040e-01" nType="-99"/>
          <Node pos="r" depth="2" NCoef="0" IVar="-1" Cut="0.0000000000000000e+00" cType="1" res="-8.3731174527201802e-05" rms="3.5603654384613037e-01" purity="3.7060922384262085e-01" nType="-99"/>
        </Node>
      </Node>
    </BinaryTree>
    <BinaryTree type="DecisionTree" boostWeight="1.0000000000000000e+00" itree="188">
      <Node pos="s" depth="0" NCoef="0" IVar="17" Cut="1.5216873884201050e+00" cType="1" res="6.3222058117389679e-02" rms="3.1035840511322021e-01" purity="4.9186596274375916e-01" nType="0">
        <Node pos="l" depth="1" NCoef="0" IVar="2" Cut="2.3411214351654053e+00" cType="1" res="-1.3245371170341969e-02" rms="2.9432639479637146e-01" purity="2.4754165112972260e-01" nType="0">
          <Node pos="l" depth="2" NCoef="0" IVar="-1" Cut="0.0000000000000000e+00" cType="1" res="-2.8916357550770044e-03" rms="2.3183789849281311e-01" purity="1.0745050013065338e-01" nType="-99"/>
          <Node pos="r" depth="2" NCoef="0" IVar="-1" Cut="0.0000000000000000e+00" cType="1" res="7.9065491445362568e-04" rms="3.2974720001220703e-01" purity="3.7578901648521423e-01" nType="-99"/>
        </Node>
        <Node pos="r" depth="1" NCoef="0" IVar="15" Cut="1.5221327543258667e+00" cType="1" res="1.7868769168853760e-01" rms="2.9799175262451172e-01" purity="8.6079514026641846e-01" nType="0">
          <Node pos="l" depth="2" NCoef="0" IVar="-1" Cut="0.0000000000000000e+00" cType="1" res="2.5768429040908813e-03" rms="2.2297076880931854e-01" purity="9.2794048786163330e-01" nType="-99"/>
          <Node pos="r" depth="2" NCoef="0" IVar="-1" Cut="0.0000000000000000e+00" cType="1" res="6.1099461163394153e-05" rms="4.2790463566780090e-01" purity="6.3185721635818481e-01" nType="-99"/>
        </Node>
      </Node>
    </BinaryTree>
    <BinaryTree type="DecisionTree" boostWeight="1.0000000000000000e+00" itree="189">
      <Node pos="s" depth="0" NCoef="0" IVar="17" Cut="1.5220416784286499e+00" cType="1" res="6.7823491990566254e-02" rms="3.0923968553543091e-01" purity="4.9453571438789368e-01" nType="0">
        <Node pos="l" depth="1" NCoef="0" IVar="5" Cut="2.8615799546241760e-01" cType="1" res="-8.6712436750531197e-03" rms="2.9725340008735657e-01" purity="2.5774431228637695e-01" nType="0">
          <Node pos="l" depth="2" NCoef="0" IVar="-1" Cut="0.0000000000000000e+00" cType="1" res="1.5325776766985655e-03" rms="3.4006789326667786e-01" purity="4.1308018565177917e-01" nType="-99"/>
          <Node pos="r" depth="2" NCoef="0" IVar="-1" Cut="0.0000000000000000e+00" cType="1" res="-2.0839245989918709e-03" rms="2.3273079097270966e-01" purity="1.3189025223255157e-01" nType="-99"/>
        </Node>
        <Node pos="r" depth="1" NCoef="0" IVar="15" Cut="1.5220184326171875e+00" cType="1" res="1.8959991633892059e-01" rms="2.8819668292999268e-01" purity="8.7149775028228760e-01" nType="0">
          <Node pos="l" depth="2" NCoef="0" IVar="-1" Cut="0.0000000000000000e+00" cType="1" res="2.6326337829232216e-03" rms="2.1173466742038727e-01" purity="9.3511581420898438e-01" nType="-99"/>
          <Node pos="r" depth="2" NCoef="0" IVar="-1" Cut="0.0000000000000000e+00" cType="1" res="4.5395147753879428e-04" rms="4.2290610074996948e-01" purity="6.6380208730697632e-01" nType="-99"/>
        </Node>
      </Node>
    </BinaryTree>
    <BinaryTree type="DecisionTree" boostWeight="1.0000000000000000e+00" itree="190">
      <Node pos="s" depth="0" NCoef="0" IVar="17" Cut="1.5231137275695801e+00" cType="1" res="7.8727386891841888e-02" rms="3.1927257776260376e-01" purity="5.0701475143432617e-01" nType="0">
        <Node pos="l" depth="1" NCoef="0" IVar="5" Cut="2.6692530512809753e-01" cType="1" res="1.0469457134604454e-02" rms="3.2176721096038818e-01" purity="2.7760148048400879e-01" nType="0">
          <Node pos="l" depth="2" NCoef="0" IVar="-1" Cut="0.0000000000000000e+00" cType="1" res="1.8290320876985788e-03" rms="3.4476837515830994e-01" purity="4.3499058485031128e-01" nType="-99"/>
          <Node pos="r" depth="2" NCoef="0" IVar="-1" Cut="0.0000000000000000e+00" cType="1" res="-1.3899612240493298e-03" rms="2.8499546647071838e-01" purity="1.5737769007682800e-01" nType="-99"/>
        </Node>
        <Node pos="r" depth="1" NCoef="0" IVar="15" Cut="1.5230776071548462e+00" cType="1" res="1.8886481225490570e-01" rms="2.8232365846633911e-01" purity="8.7718403339385986e-01" nType="0">
          <Node pos="l" depth="2" NCoef="0" IVar="-1" Cut="0.0000000000000000e+00" cType="1" res="2.6293115224689245e-03" rms="2.1443291008472443e-01" purity="9.3445551395416260e-01" nType="-99"/>
          <Node pos="r" depth="2" NCoef="0" IVar="-1" Cut="0.0000000000000000e+00" cType="1" res="3.2324311905540526e-04" rms="4.2293334007263184e-01" purity="6.5413957834243774e-01" nType="-99"/>
        </Node>
      </Node>
    </BinaryTree>
    <BinaryTree type="DecisionTree" boostWeight="1.0000000000000000e+00" itree="191">
      <Node pos="s" depth="0" NCoef="0" IVar="17" Cut="1.3684681653976440e+00" cType="1" res="7.1956709027290344e-02" rms="3.1561779975891113e-01" purity="4.9696198105812073e-01" nType="0">
        <Node pos="l" depth="1" NCoef="0" IVar="10" Cut="3.5581641197204590e+00" cType="1" res="-6.5435126423835754e-02" rms="7.4404381215572357e-02" purity="7.9977950081229210e-03" nType="0">
          <Node pos="l" depth="2" NCoef="0" IVar="-1" Cut="0.0000000000000000e+00" cType="1" res="-9.7202118486166000e-03" rms="1.1647798120975494e-01" purity="1.5515338629484177e-02" nType="-99"/>
          <Node pos="r" depth="2" NCoef="0" IVar="-1" Cut="0.0000000000000000e+00" cType="1" res="-1.2720674276351929e-02" rms="0.0000000000000000e+00" purity="-7.0359133183956146e-02" nType="-99"/>
        </Node>
        <Node pos="r" depth="1" NCoef="0" IVar="1" Cut="2.6734130382537842e+00" cType="1" res="1.3038332760334015e-01" rms="3.5802376270294189e-01" purity="7.0489662885665894e-01" nType="0">
          <Node pos="l" depth="2" NCoef="0" IVar="-1" Cut="0.0000000000000000e+00" cType="1" res="-8.9219975052401423e-04" rms="3.8498508930206299e-01" purity="3.8853719830513000e-01" nType="-99"/>
          <Node pos="r" depth="2" NCoef="0" IVar="-1" Cut="0.0000000000000000e+00" cType="1" res="1.9959008786827326e-03" rms="3.3303022384643555e-01" purity="7.8729021549224854e-01" nType="-99"/>
        </Node>
      </Node>
    </BinaryTree>
    <BinaryTree type="DecisionTree" boostWeight="1.0000000000000000e+00" itree="192">
      <Node pos="s" depth="0" NCoef="0" IVar="17" Cut="1.4060977697372437e+00" cType="1" res="8.4205329418182373e-02" rms="3.1956925988197327e-01" purity="5.1187646389007568e-01" nType="0">
        <Node pos="l" depth="1" NCoef="0" IVar="60" Cut="-2.3182873725891113e+00" cType="1" res="-4.1082601994276047e-02" rms="1.7078852653503418e-01" purity="3.5273607820272446e-02" nType="0">
          <Node pos="l" depth="2" NCoef="0" IVar="-1" Cut="0.0000000000000000e+00" cType="1" res="5.9777982532978058e-03" rms="3.5502913594245911e-01" purity="1.6688501834869385e-01" nType="-99"/>
          <Node pos="r" depth="2" NCoef="0" IVar="-1" Cut="0.0000000000000000e+00" cType="1" res="-8.2361502572894096e-03" rms="9.9082432687282562e-02" purity="1.3111208565533161e-02" nType="-99"/>
        </Node>
        <Node pos="r" depth="1" NCoef="0" IVar="36" Cut="-1.0087484121322632e-01" cType="1" res="1.4370182156562805e-01" rms="3.5464856028556824e-01" purity="7.3820471763610840e-01" nType="0">
          <Node pos="l" depth="2" NCoef="0" IVar="-1" Cut="0.0000000000000000e+00" cType="1" res="-1.0547879151999950e-02" rms="2.0507937669754028e-01" purity="5.0865445286035538e-02" nType="-99"/>
          <Node pos="r" depth="2" NCoef="0" IVar="-1" Cut="0.0000000000000000e+00" cType="1" res="1.8126039067283273e-03" rms="3.4989514946937561e-01" purity="7.9479449987411499e-01" nType="-99"/>
        </Node>
      </Node>
    </BinaryTree>
    <BinaryTree type="DecisionTree" boostWeight="1.0000000000000000e+00" itree="193">
      <Node pos="s" depth="0" NCoef="0" IVar="36" Cut="1.2913550138473511e+00" cType="1" res="7.0769764482975006e-02" rms="3.1583598256111145e-01" purity="4.9535506963729858e-01" nType="0">
        <Node pos="l" depth="1" NCoef="0" IVar="15" Cut="1.4431442022323608e+00" cType="1" res="-9.5640189945697784e-02" rms="1.9421021640300751e-01" purity="5.5985618382692337e-02" nType="0">
          <Node pos="l" depth="2" NCoef="0" IVar="-1" Cut="0.0000000000000000e+00" cType="1" res="-3.4459291491657495e-03" rms="1.8232043087482452e-01" purity="6.0795880854129791e-02" nType="-99"/>
          <Node pos="r" depth="2" NCoef="0" IVar="-1" Cut="0.0000000000000000e+00" cType="1" res="-1.0610017925500870e-02" rms="1.8319818377494812e-01" purity="4.3607253581285477e-02" nType="-99"/>
        </Node>
        <Node pos="r" depth="1" NCoef="0" IVar="5" Cut="3.4180912375450134e-01" cType="1" res="1.1961602419614792e-01" rms="3.2779103517532349e-01" purity="6.2432295083999634e-01" nType="0">
          <Node pos="l" depth="2" NCoef="0" IVar="-1" Cut="0.0000000000000000e+00" cType="1" res="2.4284094106405973e-03" rms="2.9116955399513245e-01" purity="7.8211975097656250e-01" nType="-99"/>
          <Node pos="r" depth="2" NCoef="0" IVar="-1" Cut="0.0000000000000000e+00" cType="1" res="-2.6318771415390074e-04" rms="3.4131053090095520e-01" purity="3.5552120208740234e-01" nType="-99"/>
        </Node>
      </Node>
    </BinaryTree>
    <BinaryTree type="DecisionTree" boostWeight="1.0000000000000000e+00" itree="194">
      <Node pos="s" depth="0" NCoef="0" IVar="17" Cut="1.3674497604370117e+00" cType="1" res="7.4377685785293579e-02" rms="3.1394344568252563e-01" purity="5.0570189952850342e-01" nType="0">
        <Node pos="l" depth="1" NCoef="0" IVar="27" Cut="3.3123769760131836e+00" cType="1" res="-6.2352981418371201e-02" rms="7.6882705092430115e-02" purity="8.2905171439051628e-03" nType="0">
          <Node pos="l" depth="2" NCoef="0" IVar="-1" Cut="0.0000000000000000e+00" cType="1" res="-1.2357160449028015e-02" rms="0.0000000000000000e+00" purity="-3.4162325318902731e-03" nType="-99"/>
          <Node pos="r" depth="2" NCoef="0" IVar="-1" Cut="0.0000000000000000e+00" cType="1" res="5.7362779043614864e-03" rms="3.5045617818832397e-01" purity="1.6857899725437164e-01" nType="-99"/>
        </Node>
        <Node pos="r" depth="1" NCoef="0" IVar="48" Cut="1.1183557510375977e+00" cType="1" res="1.3117446005344391e-01" rms="3.5504165291786194e-01" purity="7.1232235431671143e-01" nType="0">
          <Node pos="l" depth="2" NCoef="0" IVar="-1" Cut="0.0000000000000000e+00" cType="1" res="-2.0583947189152241e-03" rms="3.5478577017784119e-01" purity="2.8490442037582397e-01" nType="-99"/>
          <Node pos="r" depth="2" NCoef="0" IVar="-1" Cut="0.0000000000000000e+00" cType="1" res="1.8836747622117400e-03" rms="3.3861884474754333e-01" purity="7.6465010643005371e-01" nType="-99"/>
        </Node>
      </Node>
    </BinaryTree>
    <BinaryTree type="DecisionTree" boostWeight="1.0000000000000000e+00" itree="195">
      <Node pos="s" depth="0" NCoef="0" IVar="17" Cut="1.5216873884201050e+00" cType="1" res="6.3874937593936920e-02" rms="3.0368229746818542e-01" purity="4.9378523230552673e-01" nType="0">
        <Node pos="l" depth="1" NCoef="0" IVar="5" Cut="3.0168157815933228e-01" cType="1" res="-1.7336396500468254e-02" rms="2.8833940625190735e-01" purity="2.4000346660614014e-01" nType="0">
          <Node pos="l" depth="2" NCoef="0" IVar="-1" Cut="0.0000000000000000e+00" cType="1" res="1.3069337001070380e-03" rms="3.2528629899024963e-01" purity="3.9641177654266357e-01" nType="-99"/>
          <Node pos="r" depth="2" NCoef="0" IVar="-1" Cut="0.0000000000000000e+00" cType="1" res="-2.4285791441798210e-03" rms="2.2529938817024231e-01" purity="9.9559895694255829e-02" nType="-99"/>
        </Node>
        <Node pos="r" depth="1" NCoef="0" IVar="27" Cut="1.1265344619750977e+00" cType="1" res="1.8467910587787628e-01" rms="2.8518471121788025e-01" purity="8.7129288911819458e-01" nType="0">
          <Node pos="l" depth="2" NCoef="0" IVar="-1" Cut="0.0000000000000000e+00" cType="1" res="-1.6390259843319654e-03" rms="4.0533602237701416e-01" purity="4.4784253835678101e-01" nType="-99"/>
          <Node pos="r" depth="2" NCoef="0" IVar="-1" Cut="0.0000000000000000e+00" cType="1" res="2.3030685260891914e-03" rms="2.6227381825447083e-01" purity="9.0250509977340698e-01" nType="-99"/>
        </Node>
      </Node>
    </BinaryTree>
    <BinaryTree type="DecisionTree" boostWeight="1.0000000000000000e+00" itree="196">
      <Node pos="s" depth="0" NCoef="0" IVar="17" Cut="1.4447457790374756e+00" cType="1" res="7.9755373299121857e-02" rms="3.1513461470603943e-01" purity="5.1220709085464478e-01" nType="0">
        <Node pos="l" depth="1" NCoef="0" IVar="3" Cut="5.1855182647705078e+00" cType="1" res="-3.9994902908802032e-02" rms="1.8184018135070801e-01" purity="4.4161301106214523e-02" nType="0">
          <Node pos="l" depth="2" NCoef="0" IVar="-1" Cut="0.0000000000000000e+00" cType="1" res="-7.0662777870893478e-03" rms="1.2789988517761230e-01" purity="2.0091732963919640e-02" nType="-99"/>
          <Node pos="r" depth="2" NCoef="0" IVar="-1" Cut="0.0000000000000000e+00" cType="1" res="3.6780906375497580e-03" rms="3.6338853836059570e-01" purity="2.2691543400287628e-01" nType="-99"/>
        </Node>
        <Node pos="r" depth="1" NCoef="0" IVar="48" Cut="1.2010945081710815e+00" cType="1" res="1.4341276884078979e-01" rms="3.5049799084663391e-01" purity="7.6101291179656982e-01" nType="0">
          <Node pos="l" depth="2" NCoef="0" IVar="-1" Cut="0.0000000000000000e+00" cType="1" res="-1.3999583898112178e-03" rms="4.1496151685714722e-01" purity="3.7722569704055786e-01" nType="-99"/>
          <Node pos="r" depth="2" NCoef="0" IVar="-1" Cut="0.0000000000000000e+00" cType="1" res="1.9534232560545206e-03" rms="3.2431086897850037e-01" purity="8.1524544954299927e-01" nType="-99"/>
        </Node>
      </Node>
    </BinaryTree>
    <BinaryTree type="DecisionTree" boostWeight="1.0000000000000000e+00" itree="197">
      <Node pos="s" depth="0" NCoef="0" IVar="5" Cut="3.4279674291610718e-01" cType="1" res="7.2324655950069427e-02" rms="3.1959894299507141e-01" purity="4.9110490083694458e-01" nType="0">
        <Node pos="l" depth="1" NCoef="0" IVar="36" Cut="1.4070059061050415e+00" cType="1" res="1.3943009078502655e-01" rms="3.0188056826591492e-01" purity="6.3546085357666016e-01" nType="0">
          <Node pos="l" depth="2" NCoef="0" IVar="-1" Cut="0.0000000000000000e+00" cType="1" res="-2.5024532806128263e-03" rms="2.7811917662620544e-01" purity="1.4071300625801086e-01" nType="-99"/>
          <Node pos="r" depth="2" NCoef="0" IVar="-1" Cut="0.0000000000000000e+00" cType="1" res="2.5641741231083870e-03" rms="2.7614650130271912e-01" purity="8.0774062871932983e-01" nType="-99"/>
        </Node>
        <Node pos="r" depth="1" NCoef="0" IVar="34" Cut="-1.4926255941390991e+00" cType="1" res="-3.7871152162551880e-02" rms="3.1731387972831726e-01" purity="2.5405383110046387e-01" nType="0">
          <Node pos="l" depth="2" NCoef="0" IVar="-1" Cut="0.0000000000000000e+00" cType="1" res="3.4483021590858698e-03" rms="3.8775447010993958e-01" purity="5.2327430248260498e-01" nType="-99"/>
          <Node pos="r" depth="2" NCoef="0" IVar="-1" Cut="0.0000000000000000e+00" cType="1" res="-1.2409798800945282e-03" rms="2.9943704605102539e-01" purity="2.2753641009330750e-01" nType="-99"/>
        </Node>
      </Node>
    </BinaryTree>
    <BinaryTree type="DecisionTree" boostWeight="1.0000000000000000e+00" itree="198">
      <Node pos="s" depth="0" NCoef="0" IVar="5" Cut="3.3988729119300842e-01" cType="1" res="7.4763290584087372e-02" rms="3.1600779294967651e-01" purity="5.0365310907363892e-01" nType="0">
        <Node pos="l" depth="1" NCoef="0" IVar="36" Cut="9.8148834705352783e-01" cType="1" res="1.4464098215103149e-01" rms="3.0238676071166992e-01" purity="6.4954733848571777e-01" nType="0">
          <Node pos="l" depth="2" NCoef="0" IVar="-1" Cut="0.0000000000000000e+00" cType="1" res="-8.3562638610601425e-03" rms="1.2329666316509247e-01" purity="3.2235763967037201e-02" nType="-99"/>
          <Node pos="r" depth="2" NCoef="0" IVar="-1" Cut="0.0000000000000000e+00" cType="1" res="2.5060754269361496e-03" rms="2.9960986971855164e-01" purity="7.6634466648101807e-01" nType="-99"/>
        </Node>
        <Node pos="r" depth="1" NCoef="0" IVar="2" Cut="2.3103730678558350e+00" cType="1" res="-4.8058681190013885e-02" rms="3.0165928602218628e-01" purity="2.4721896648406982e-01" nType="0">
          <Node pos="l" depth="2" NCoef="0" IVar="-1" Cut="0.0000000000000000e+00" cType="1" res="-5.1690232940018177e-03" rms="2.2852464020252228e-01" purity="6.9294728338718414e-02" nType="-99"/>
          <Node pos="r" depth="2" NCoef="0" IVar="-1" Cut="0.0000000000000000e+00" cType="1" res="1.2438300473149866e-04" rms="3.2841923832893372e-01" purity="3.6183992028236389e-01" nType="-99"/>
        </Node>
      </Node>
    </BinaryTree>
    <BinaryTree type="DecisionTree" boostWeight="1.0000000000000000e+00" itree="199">
      <Node pos="s" depth="0" NCoef="0" IVar="17" Cut="1.3684681653976440e+00" cType="1" res="7.7304996550083160e-02" rms="3.1190386414527893e-01" purity="5.0666606426239014e-01" nType="0">
        <Node pos="l" depth="1" NCoef="0" IVar="52" Cut="2.2729508876800537e+00" cType="1" res="-6.0238391160964966e-02" rms="7.5592368841171265e-02" purity="8.0863237380981445e-03" nType="0">
          <Node pos="l" depth="2" NCoef="0" IVar="-1" Cut="0.0000000000000000e+00" cType="1" res="-4.2413841933012009e-02" rms="0.0000000000000000e+00" purity="-1.2740851938724518e-01" nType="-99"/>
          <Node pos="r" depth="2" NCoef="0" IVar="-1" Cut="0.0000000000000000e+00" cType="1" res="-7.5880838558077812e-03" rms="1.2403634935617447e-01" purity="1.8996471539139748e-02" nType="-99"/>
        </Node>
        <Node pos="r" depth="1" NCoef="0" IVar="1" Cut="2.7868342399597168e+00" cType="1" res="1.3485984504222870e-01" rms="3.5266476869583130e-01" purity="7.1529614925384521e-01" nType="0">
          <Node pos="l" depth="2" NCoef="0" IVar="-1" Cut="0.0000000000000000e+00" cType="1" res="-4.3768508476205170e-04" rms="4.0157118439674377e-01" purity="4.2247411608695984e-01" nType="-99"/>
          <Node pos="r" depth="2" NCoef="0" IVar="-1" Cut="0.0000000000000000e+00" cType="1" res="2.0556852687150240e-03" rms="3.1700363755226135e-01" purity="8.1024217605590820e-01" nType="-99"/>
        </Node>
      </Node>
    </BinaryTree>
    <BinaryTree type="DecisionTree" boostWeight="1.0000000000000000e+00" itree="200">
      <Node pos="s" depth="0" NCoef="0" IVar="17" Cut="1.4060977697372437e+00" cType="1" res="6.8735308945178986e-02" rms="3.0640694499015808e-01" purity="4.9881696701049805e-01" nType="0">
        <Node pos="l" depth="1" NCoef="0" IVar="42" Cut="-5.3058063983917236e-01" cType="1" res="-6.5719924867153168e-02" rms="5.1460787653923035e-02" purity="4.7716652043163776e-03" nType="0">
          <Node pos="l" depth="2" NCoef="0" IVar="-1" Cut="0.0000000000000000e+00" cType="1" res="-2.5749441236257553e-02" rms="0.0000000000000000e+00" purity="-1.2331930547952652e-01" nType="-99"/>
          <Node pos="r" depth="2" NCoef="0" IVar="-1" Cut="0.0000000000000000e+00" cType="1" res="-8.1057595089077950e-03" rms="1.1056213080883026e-01" purity="1.5140586532652378e-02" nType="-99"/>
        </Node>
        <Node pos="r" depth="1" NCoef="0" IVar="1" Cut="2.5630443096160889e+00" cType="1" res="1.3201539218425751e-01" rms="3.5257956385612488e-01" purity="7.3133468627929688e-01" nType="0">
          <Node pos="l" depth="2" NCoef="0" IVar="-1" Cut="0.0000000000000000e+00" cType="1" res="-1.8807840533554554e-03" rms="3.7163406610488892e-01" purity="3.1944045424461365e-01" nType="-99"/>
          <Node pos="r" depth="2" NCoef="0" IVar="-1" Cut="0.0000000000000000e+00" cType="1" res="1.9340085564181209e-03" rms="3.2928490638732910e-01" purity="7.9970163106918335e-01" nType="-99"/>
        </Node>
      </Node>
    </BinaryTree>
    <BinaryTree type="DecisionTree" boostWeight="1.0000000000000000e+00" itree="201">
      <Node pos="s" depth="0" NCoef="0" IVar="17" Cut="1.4060977697372437e+00" cType="1" res="7.8009232878684998e-02" rms="3.0676513910293579e-01" purity="5.1587474346160889e-01" nType="0">
        <Node pos="l" depth="1" NCoef="0" IVar="31" Cut="3.5079238414764404e+00" cType="1" res="-6.0142122209072113e-02" rms="7.5476624071598053e-02" purity="1.0268311947584152e-02" nType="0">
          <Node pos="l" depth="2" NCoef="0" IVar="-1" Cut="0.0000000000000000e+00" cType="1" res="-6.4775235950946808e-03" rms="1.3085736334323883e-01" purity="2.2444194182753563e-02" nType="-99"/>
          <Node pos="r" depth="2" NCoef="0" IVar="-1" Cut="0.0000000000000000e+00" cType="1" res="-2.3157969117164612e-02" rms="0.0000000000000000e+00" purity="-8.5539482533931732e-02" nType="-99"/>
        </Node>
        <Node pos="r" depth="1" NCoef="0" IVar="1" Cut="2.8315508365631104e+00" cType="1" res="1.3928347826004028e-01" rms="3.4798973798751831e-01" purity="7.4012625217437744e-01" nType="0">
          <Node pos="l" depth="2" NCoef="0" IVar="-1" Cut="0.0000000000000000e+00" cType="1" res="-4.9138645408675075e-04" rms="3.8898971676826477e-01" purity="4.6315556764602661e-01" nType="-99"/>
          <Node pos="r" depth="2" NCoef="0" IVar="-1" Cut="0.0000000000000000e+00" cType="1" res="2.1627747919410467e-03" rms="3.1001803278923035e-01" purity="8.3614748716354370e-01" nType="-99"/>
        </Node>
      </Node>
    </BinaryTree>
    <BinaryTree type="DecisionTree" boostWeight="1.0000000000000000e+00" itree="202">
      <Node pos="s" depth="0" NCoef="0" IVar="17" Cut="1.5231137275695801e+00" cType="1" res="7.7476568520069122e-02" rms="3.0957433581352234e-01" purity="5.1291006803512573e-01" nType="0">
        <Node pos="l" depth="1" NCoef="0" IVar="2" Cut="2.5057027339935303e+00" cType="1" res="8.7293069809675217e-03" rms="3.0886247754096985e-01" purity="2.7166679501533508e-01" nType="0">
          <Node pos="l" depth="2" NCoef="0" IVar="-1" Cut="0.0000000000000000e+00" cType="1" res="-1.6644288552924991e-03" rms="2.5996011495590210e-01" purity="1.4949131011962891e-01" nType="-99"/>
          <Node pos="r" depth="2" NCoef="0" IVar="-1" Cut="0.0000000000000000e+00" cType="1" res="1.3945514801889658e-03" rms="3.4573006629943848e-01" purity="4.3067610263824463e-01" nType="-99"/>
        </Node>
        <Node pos="r" depth="1" NCoef="0" IVar="15" Cut="1.5217802524566650e+00" cType="1" res="1.8151369690895081e-01" rms="2.8022578358650208e-01" purity="8.7799000740051270e-01" nType="0">
          <Node pos="l" depth="2" NCoef="0" IVar="-1" Cut="0.0000000000000000e+00" cType="1" res="2.6058740913867950e-03" rms="2.1107777953147888e-01" purity="9.3495446443557739e-01" nType="-99"/>
          <Node pos="r" depth="2" NCoef="0" IVar="-1" Cut="0.0000000000000000e+00" cType="1" res="2.9457337222993374e-04" rms="4.1907462477684021e-01" purity="6.6389364004135132e-01" nType="-99"/>
        </Node>
      </Node>
    </BinaryTree>
    <BinaryTree type="DecisionTree" boostWeight="1.0000000000000000e+00" itree="203">
      <Node pos="s" depth="0" NCoef="0" IVar="17" Cut="1.4060977697372437e+00" cType="1" res="7.5030945241451263e-02" rms="3.1029522418975830e-01" purity="5.0146889686584473e-01" nType="0">
        <Node pos="l" depth="1" NCoef="0" IVar="39" Cut="-2.5750811100006104e+00" cType="1" res="-5.1422927528619766e-02" rms="1.1757836490869522e-01" purity="1.5951484441757202e-02" nType="0">
          <Node pos="l" depth="2" NCoef="0" IVar="-1" Cut="0.0000000000000000e+00" cType="1" res="7.1825925260782242e-03" rms="3.4396097064018250e-01" purity="1.4630225300788879e-01" nType="-99"/>
          <Node pos="r" depth="2" NCoef="0" IVar="-1" Cut="0.0000000000000000e+00" cType="1" res="-9.3920612707734108e-03" rms="7.1646809577941895e-02" purity="6.6747437231242657e-03" nType="-99"/>
        </Node>
        <Node pos="r" depth="1" NCoef="0" IVar="5" Cut="3.9342796802520752e-01" cType="1" res="1.3527110219001770e-01" rms="3.5258790850639343e-01" purity="7.3276001214981079e-01" nType="0">
          <Node pos="l" depth="2" NCoef="0" IVar="-1" Cut="0.0000000000000000e+00" cType="1" res="2.1236049942672253e-03" rms="3.0344226956367493e-01" purity="8.1365239620208740e-01" nType="-99"/>
          <Node pos="r" depth="2" NCoef="0" IVar="-1" Cut="0.0000000000000000e+00" cType="1" res="-3.7388296914286911e-04" rms="4.4524678587913513e-01" purity="4.5322006940841675e-01" nType="-99"/>
        </Node>
      </Node>
    </BinaryTree>
    <BinaryTree type="DecisionTree" boostWeight="1.0000000000000000e+00" itree="204">
      <Node pos="s" depth="0" NCoef="0" IVar="17" Cut="1.4457910060882568e+00" cType="1" res="5.9392765164375305e-02" rms="2.9948055744171143e-01" purity="4.9146133661270142e-01" nType="0">
        <Node pos="l" depth="1" NCoef="0" IVar="9" Cut="-7.5308644771575928e-01" cType="1" res="-6.2450401484966278e-02" rms="9.3863666057586670e-02" purity="1.4541544951498508e-02" nType="0">
          <Node pos="l" depth="2" NCoef="0" IVar="-1" Cut="0.0000000000000000e+00" cType="1" res="-2.3400528356432915e-02" rms="0.0000000000000000e+00" purity="-1.7933073639869690e-01" nType="-99"/>
          <Node pos="r" depth="2" NCoef="0" IVar="-1" Cut="0.0000000000000000e+00" cType="1" res="-5.1595969125628471e-03" rms="1.4032319188117981e-01" purity="2.6435513049364090e-02" nType="-99"/>
        </Node>
        <Node pos="r" depth="1" NCoef="0" IVar="1" Cut="2.7338142395019531e+00" cType="1" res="1.2585045397281647e-01" rms="3.4826496243476868e-01" purity="7.5159060955047607e-01" nType="0">
          <Node pos="l" depth="2" NCoef="0" IVar="-1" Cut="0.0000000000000000e+00" cType="1" res="-7.8470492735505104e-04" rms="4.0318131446838379e-01" purity="4.5119637250900269e-01" nType="-99"/>
          <Node pos="r" depth="2" NCoef="0" IVar="-1" Cut="0.0000000000000000e+00" cType="1" res="1.9064127700403333e-03" rms="3.1142041087150574e-01" purity="8.3707708120346069e-01" nType="-99"/>
        </Node>
      </Node>
    </BinaryTree>
    <BinaryTree type="DecisionTree" boostWeight="1.0000000000000000e+00" itree="205">
      <Node pos="s" depth="0" NCoef="0" IVar="5" Cut="2.8427755832672119e-01" cType="1" res="6.2473032623529434e-02" rms="3.0053597688674927e-01" purity="4.8983386158943176e-01" nType="0">
        <Node pos="l" depth="1" NCoef="0" IVar="36" Cut="1.4454618692398071e+00" cType="1" res="1.4102476835250854e-01" rms="2.9186877608299255e-01" purity="6.5964400768280029e-01" nType="0">
          <Node pos="l" depth="2" NCoef="0" IVar="-1" Cut="0.0000000000000000e+00" cType="1" res="-1.7110439948737621e-03" rms="2.8311389684677124e-01" purity="2.0036864280700684e-01" nType="-99"/>
          <Node pos="r" depth="2" NCoef="0" IVar="-1" Cut="0.0000000000000000e+00" cType="1" res="2.6641339063644409e-03" rms="2.5288081169128418e-01" purity="8.5922944545745850e-01" nType="-99"/>
        </Node>
        <Node pos="r" depth="1" NCoef="0" IVar="17" Cut="1.5214687585830688e+00" cType="1" res="-3.8326345384120941e-02" rms="2.8077051043510437e-01" purity="2.7192959189414978e-01" nType="0">
          <Node pos="l" depth="2" NCoef="0" IVar="-1" Cut="0.0000000000000000e+00" cType="1" res="-2.1104267798364162e-03" rms="2.2150465846061707e-01" purity="1.1166332662105560e-01" nType="-99"/>
          <Node pos="r" depth="2" NCoef="0" IVar="-1" Cut="0.0000000000000000e+00" cType="1" res="1.0717757977545261e-03" rms="3.8304209709167480e-01" purity="7.7521860599517822e-01" nType="-99"/>
        </Node>
      </Node>
    </BinaryTree>
    <BinaryTree type="DecisionTree" boostWeight="1.0000000000000000e+00" itree="206">
      <Node pos="s" depth="0" NCoef="0" IVar="17" Cut="1.4844523668289185e+00" cType="1" res="6.0484554618597031e-02" rms="3.0049267411231995e-01" purity="4.9089834094047546e-01" nType="0">
        <Node pos="l" depth="1" NCoef="0" IVar="60" Cut="-1.1744233369827271e+00" cType="1" res="-4.3519966304302216e-02" rms="2.0294550061225891e-01" purity="8.0039247870445251e-02" nType="0">
          <Node pos="l" depth="2" NCoef="0" IVar="-1" Cut="0.0000000000000000e+00" cType="1" res="-9.4526063185185194e-04" rms="2.3641343414783478e-01" purity="1.0611424595117569e-01" nType="-99"/>
          <Node pos="r" depth="2" NCoef="0" IVar="-1" Cut="0.0000000000000000e+00" cType="1" res="-8.9995171874761581e-03" rms="0.0000000000000000e+00" purity="-3.6959212273359299e-02" nType="-99"/>
        </Node>
        <Node pos="r" depth="1" NCoef="0" IVar="1" Cut="2.2524204254150391e+00" cType="1" res="1.3740627467632294e-01" rms="3.3570772409439087e-01" purity="7.9476964473724365e-01" nType="0">
          <Node pos="l" depth="2" NCoef="0" IVar="-1" Cut="0.0000000000000000e+00" cType="1" res="-4.2451783083379269e-03" rms="3.0944716930389404e-01" purity="1.5393355488777161e-01" nType="-99"/>
          <Node pos="r" depth="2" NCoef="0" IVar="-1" Cut="0.0000000000000000e+00" cType="1" res="1.8156524747610092e-03" rms="3.1911817193031311e-01" purity="8.3523488044738770e-01" nType="-99"/>
        </Node>
      </Node>
    </BinaryTree>
    <BinaryTree type="DecisionTree" boostWeight="1.0000000000000000e+00" itree="207">
      <Node pos="s" depth="0" NCoef="0" IVar="17" Cut="1.5231137275695801e+00" cType="1" res="7.7130511403083801e-02" rms="3.0991849303245544e-01" purity="5.0848275423049927e-01" nType="0">
        <Node pos="l" depth="1" NCoef="0" IVar="2" Cut="2.5005888938903809e+00" cType="1" res="1.2762936763465405e-02" rms="3.1039789319038391e-01" purity="2.7817586064338684e-01" nType="0">
          <Node pos="l" depth="2" NCoef="0" IVar="-1" Cut="0.0000000000000000e+00" cType="1" res="-1.6714708181098104e-03" rms="2.6487627625465393e-01" purity="1.4456056058406830e-01" nType="-99"/>
          <Node pos="r" depth="2" NCoef="0" IVar="-1" Cut="0.0000000000000000e+00" cType="1" res="1.4347736723721027e-03" rms="3.4235003590583801e-01" purity="4.4670945405960083e-01" nType="-99"/>
        </Node>
        <Node pos="r" depth="1" NCoef="0" IVar="15" Cut="1.5224975347518921e+00" cType="1" res="1.8018451333045959e-01" rms="2.7985695004463196e-01" purity="8.7720942497253418e-01" nType="0">
          <Node pos="l" depth="2" NCoef="0" IVar="-1" Cut="0.0000000000000000e+00" cType="1" res="2.6380582712590694e-03" rms="2.0953476428985596e-01" purity="9.3799120187759399e-01" nType="-99"/>
          <Node pos="r" depth="2" NCoef="0" IVar="-1" Cut="0.0000000000000000e+00" cType="1" res="1.7937246593646705e-04" rms="4.1757002472877502e-01" purity="6.4704787731170654e-01" nType="-99"/>
        </Node>
      </Node>
    </BinaryTree>
    <BinaryTree type="DecisionTree" boostWeight="1.0000000000000000e+00" itree="208">
      <Node pos="s" depth="0" NCoef="0" IVar="36" Cut="1.3300192356109619e+00" cType="1" res="7.2311282157897949e-02" rms="3.0974406003952026e-01" purity="5.0196439027786255e-01" nType="0">
        <Node pos="l" depth="1" NCoef="0" IVar="15" Cut="1.5203990936279297e+00" cType="1" res="-7.6750501990318298e-02" rms="2.0492501556873322e-01" purity="7.7152892947196960e-02" nType="0">
          <Node pos="l" depth="2" NCoef="0" IVar="-1" Cut="0.0000000000000000e+00" cType="1" res="-2.6487594004720449e-03" rms="2.0680359005928040e-01" purity="9.1471634805202484e-02" nType="-99"/>
          <Node pos="r" depth="2" NCoef="0" IVar="-1" Cut="0.0000000000000000e+00" cType="1" res="-2.3204755038022995e-02" rms="0.0000000000000000e+00" purity="-3.6221850663423538e-02" nType="-99"/>
        </Node>
        <Node pos="r" depth="1" NCoef="0" IVar="5" Cut="3.0163764953613281e-01" cType="1" res="1.1877878010272980e-01" rms="3.2198250293731689e-01" purity="6.3439226150512695e-01" nType="0">
          <Node pos="l" depth="2" NCoef="0" IVar="-1" Cut="0.0000000000000000e+00" cType="1" res="2.5445213541388512e-03" rms="2.7630054950714111e-01" purity="8.1889605522155762e-01" nType="-99"/>
          <Node pos="r" depth="2" NCoef="0" IVar="-1" Cut="0.0000000000000000e+00" cType="1" res="-3.4289700124645606e-05" rms="3.4107419848442078e-01" purity="3.7867417931556702e-01" nType="-99"/>
        </Node>
      </Node>
    </BinaryTree>
    <BinaryTree type="DecisionTree" boostWeight="1.0000000000000000e+00" itree="209">
      <Node pos="s" depth="0" NCoef="0" IVar="1" Cut="2.7390940189361572e+00" cType="1" res="6.7660979926586151e-02" rms="3.0630725622177124e-01" purity="4.9672254920005798e-01" nType="0">
        <Node pos="l" depth="1" NCoef="0" IVar="3" Cut="4.7802109718322754e+00" cType="1" res="-6.8950146436691284e-02" rms="2.8140324354171753e-01" purity="1.8583966791629791e-01" nType="0">
          <Node pos="l" depth="2" NCoef="0" IVar="-1" Cut="0.0000000000000000e+00" cType="1" res="-6.5269498154520988e-03" rms="1.7459170520305634e-01" purity="6.5768338739871979e-02" nType="-99"/>
          <Node pos="r" depth="2" NCoef="0" IVar="-1" Cut="0.0000000000000000e+00" cType="1" res="8.0377765698358417e-04" rms="3.4205138683319092e-01" purity="3.3389878273010254e-01" nType="-99"/>
        </Node>
        <Node pos="r" depth="1" NCoef="0" IVar="17" Cut="1.4071296453475952e+00" cType="1" res="1.2260439991950989e-01" rms="2.9864034056663513e-01" purity="6.2175607681274414e-01" nType="0">
          <Node pos="l" depth="2" NCoef="0" IVar="-1" Cut="0.0000000000000000e+00" cType="1" res="-7.3398770764470100e-03" rms="9.7102671861648560e-02" purity="1.4876899309456348e-02" nType="-99"/>
          <Node pos="r" depth="2" NCoef="0" IVar="-1" Cut="0.0000000000000000e+00" cType="1" res="1.9735302776098251e-03" rms="3.1779226660728455e-01" purity="8.1516784429550171e-01" nType="-99"/>
        </Node>
      </Node>
    </BinaryTree>
    <BinaryTree type="DecisionTree" boostWeight="1.0000000000000000e+00" itree="210">
      <Node pos="s" depth="0" NCoef="0" IVar="17" Cut="1.5231137275695801e+00" cType="1" res="7.2765223681926727e-02" rms="3.0671361088752747e-01" purity="5.0425559282302856e-01" nType="0">
        <Node pos="l" depth="1" NCoef="0" IVar="3" Cut="4.9586615562438965e+00" cType="1" res="1.1349408887326717e-02" rms="3.0650505423545837e-01" purity="2.7798834443092346e-01" nType="0">
          <Node pos="l" depth="2" NCoef="0" IVar="-1" Cut="0.0000000000000000e+00" cType="1" res="-6.6745578078553081e-04" rms="2.7991899847984314e-01" purity="2.3582847416400909e-01" nType="-99"/>
          <Node pos="r" depth="2" NCoef="0" IVar="-1" Cut="0.0000000000000000e+00" cType="1" res="2.6809666305780411e-03" rms="3.4868958592414856e-01" purity="4.1279527544975281e-01" nType="-99"/>
        </Node>
        <Node pos="r" depth="1" NCoef="0" IVar="36" Cut="1.1744676828384399e+00" cType="1" res="1.7285773158073425e-01" rms="2.7949222922325134e-01" purity="8.7301504611968994e-01" nType="0">
          <Node pos="l" depth="2" NCoef="0" IVar="-1" Cut="0.0000000000000000e+00" cType="1" res="-3.8991949986666441e-03" rms="3.5760977864265442e-01" purity="1.9430185854434967e-01" nType="-99"/>
          <Node pos="r" depth="2" NCoef="0" IVar="-1" Cut="0.0000000000000000e+00" cType="1" res="2.1810433827340603e-03" rms="2.6072424650192261e-01" purity="9.1602623462677002e-01" nType="-99"/>
        </Node>
      </Node>
    </BinaryTree>
    <BinaryTree type="DecisionTree" boostWeight="1.0000000000000000e+00" itree="211">
      <Node pos="s" depth="0" NCoef="0" IVar="5" Cut="3.4026998281478882e-01" cType="1" res="7.4662983417510986e-02" rms="3.1317290663719177e-01" purity="5.0447833538055420e-01" nType="0">
        <Node pos="l" depth="1" NCoef="0" IVar="36" Cut="9.8157596588134766e-01" cType="1" res="1.4180628955364227e-01" rms="2.9800924658775330e-01" purity="6.4548790454864502e-01" nType="0">
          <Node pos="l" depth="2" NCoef="0" IVar="-1" Cut="0.0000000000000000e+00" cType="1" res="-8.5320593789219856e-03" rms="1.5586544573307037e-01" purity="3.3929165452718735e-02" nType="-99"/>
          <Node pos="r" depth="2" NCoef="0" IVar="-1" Cut="0.0000000000000000e+00" cType="1" res="2.4529807269573212e-03" rms="2.9456898570060730e-01" purity="7.6254969835281372e-01" nType="-99"/>
        </Node>
        <Node pos="r" depth="1" NCoef="0" IVar="2" Cut="2.7090849876403809e+00" cType="1" res="-3.6136221140623093e-02" rms="3.0603092908859253e-01" purity="2.7178579568862915e-01" nType="0">
          <Node pos="l" depth="2" NCoef="0" IVar="-1" Cut="0.0000000000000000e+00" cType="1" res="-2.1505644544959068e-03" rms="2.6524308323860168e-01" purity="1.6646766662597656e-01" nType="-99"/>
          <Node pos="r" depth="2" NCoef="0" IVar="-1" Cut="0.0000000000000000e+00" cType="1" res="6.0574192320927978e-04" rms="3.4823417663574219e-01" purity="4.4347685575485229e-01" nType="-99"/>
        </Node>
      </Node>
    </BinaryTree>
    <BinaryTree type="DecisionTree" boostWeight="1.0000000000000000e+00" itree="212">
      <Node pos="s" depth="0" NCoef="0" IVar="36" Cut="1.3294904232025146e+00" cType="1" res="6.9594815373420715e-02" rms="3.0686476826667786e-01" purity="5.0288110971450806e-01" nType="0">
        <Node pos="l" depth="1" NCoef="0" IVar="15" Cut="1.4431442022323608e+00" cType="1" res="-8.2643784582614899e-02" rms="1.9479875266551971e-01" purity="6.6197410225868225e-02" nType="0">
          <Node pos="l" depth="2" NCoef="0" IVar="-1" Cut="0.0000000000000000e+00" cType="1" res="-2.1682523656636477e-03" rms="1.8453894555568695e-01" purity="7.9203851521015167e-02" nType="-99"/>
          <Node pos="r" depth="2" NCoef="0" IVar="-1" Cut="0.0000000000000000e+00" cType="1" res="-1.0558328591287136e-02" rms="1.6693472862243652e-01" purity="3.0536439269781113e-02" nType="-99"/>
        </Node>
        <Node pos="r" depth="1" NCoef="0" IVar="5" Cut="3.0222198367118835e-01" cType="1" res="1.1615508794784546e-01" rms="3.1953695416450500e-01" purity="6.3643538951873779e-01" nType="0">
          <Node pos="l" depth="2" NCoef="0" IVar="-1" Cut="0.0000000000000000e+00" cType="1" res="2.4021633435040712e-03" rms="2.7182489633560181e-01" purity="8.1524252891540527e-01" nType="-99"/>
          <Node pos="r" depth="2" NCoef="0" IVar="-1" Cut="0.0000000000000000e+00" cType="1" res="1.7795835447032005e-04" rms="3.4595009684562683e-01" purity="4.0296193957328796e-01" nType="-99"/>
        </Node>
      </Node>
    </BinaryTree>
    <BinaryTree type="DecisionTree" boostWeight="1.0000000000000000e+00" itree="213">
      <Node pos="s" depth="0" NCoef="0" IVar="17" Cut="1.2524840831756592e+00" cType="1" res="7.5236946344375610e-02" rms="3.0902937054634094e-01" purity="5.0799787044525146e-01" nType="0">
        <Node pos="l" depth="1" NCoef="0" IVar="10" Cut="2.7608692646026611e+00" cType="1" res="-1.4010368846356869e-02" rms="0.0000000000000000e+00" purity="-1.5880079008638859e-03" nType="-99"/>
        <Node pos="r" depth="1" NCoef="0" IVar="48" Cut="1.1146723031997681e+00" cType="1" res="1.2375231087207794e-01" rms="3.4841063618659973e-01" purity="6.9025254249572754e-01" nType="0">
          <Node pos="l" depth="2" NCoef="0" IVar="-1" Cut="0.0000000000000000e+00" cType="1" res="-2.3212784435600042e-03" rms="3.3217197656631470e-01" purity="2.4922476708889008e-01" nType="-99"/>
          <Node pos="r" depth="2" NCoef="0" IVar="-1" Cut="0.0000000000000000e+00" cType="1" res="1.9102939404547215e-03" rms="3.3356773853302002e-01" purity="7.4801909923553467e-01" nType="-99"/>
        </Node>
      </Node>
    </BinaryTree>
    <BinaryTree type="DecisionTree" boostWeight="1.0000000000000000e+00" itree="214">
      <Node pos="s" depth="0" NCoef="0" IVar="17" Cut="1.5216873884201050e+00" cType="1" res="7.2444476187229156e-02" rms="3.0162161588668823e-01" purity="5.1010179519653320e-01" nType="0">
        <Node pos="l" depth="1" NCoef="0" IVar="15" Cut="1.5199739933013916e+00" cType="1" res="4.8350729048252106e-03" rms="2.9558342695236206e-01" purity="2.6762393116950989e-01" nType="0">
          <Node pos="l" depth="2" NCoef="0" IVar="-1" Cut="0.0000000000000000e+00" cType="1" res="4.5588312787003815e-04" rms="2.9099178314208984e-01" purity="2.8094303607940674e-01" nType="-99"/>
          <Node pos="r" depth="2" NCoef="0" IVar="-1" Cut="0.0000000000000000e+00" cType="1" res="-1.1250318028032780e-02" rms="2.0263741910457611e-01" purity="2.1843394264578819e-02" nType="-99"/>
        </Node>
        <Node pos="r" depth="1" NCoef="0" IVar="15" Cut="1.5202095508575439e+00" cType="1" res="1.7286498844623566e-01" rms="2.8188297152519226e-01" purity="8.7025505304336548e-01" nType="0">
          <Node pos="l" depth="2" NCoef="0" IVar="-1" Cut="0.0000000000000000e+00" cType="1" res="2.5595820043236017e-03" rms="2.0740672945976257e-01" purity="9.3352341651916504e-01" nType="-99"/>
          <Node pos="r" depth="2" NCoef="0" IVar="-1" Cut="0.0000000000000000e+00" cType="1" res="2.0918557129334658e-04" rms="4.1365200281143188e-01" purity="6.5714454650878906e-01" nType="-99"/>
        </Node>
      </Node>
    </BinaryTree>
    <BinaryTree type="DecisionTree" boostWeight="1.0000000000000000e+00" itree="215">
      <Node pos="s" depth="0" NCoef="0" IVar="5" Cut="3.3865693211555481e-01" cType="1" res="7.1998640894889832e-02" rms="3.0160227417945862e-01" purity="5.1265215873718262e-01" nType="0">
        <Node pos="l" depth="1" NCoef="0" IVar="36" Cut="9.8157596588134766e-01" cType="1" res="1.3693124055862427e-01" rms="2.8597459197044373e-01" purity="6.5511369705200195e-01" nType="0">
          <Node pos="l" depth="2" NCoef="0" IVar="-1" Cut="0.0000000000000000e+00" cType="1" res="-8.3184055984020233e-03" rms="1.6680464148521423e-01" purity="3.6402009427547455e-02" nType="-99"/>
          <Node pos="r" depth="2" NCoef="0" IVar="-1" Cut="0.0000000000000000e+00" cType="1" res="2.3261124733835459e-03" rms="2.8118553757667542e-01" purity="7.6793491840362549e-01" nType="-99"/>
        </Node>
        <Node pos="r" depth="1" NCoef="0" IVar="2" Cut="2.7284221649169922e+00" cType="1" res="-3.8535207509994507e-02" rms="2.9529666900634766e-01" purity="2.7014186978340149e-01" nType="0">
          <Node pos="l" depth="2" NCoef="0" IVar="-1" Cut="0.0000000000000000e+00" cType="1" res="-2.2516089957207441e-03" rms="2.4836002290248871e-01" purity="1.7006355524063110e-01" nType="-99"/>
          <Node pos="r" depth="2" NCoef="0" IVar="-1" Cut="0.0000000000000000e+00" cType="1" res="7.5851485598832369e-04" rms="3.4266421198844910e-01" purity="4.4088518619537354e-01" nType="-99"/>
        </Node>
      </Node>
    </BinaryTree>
    <BinaryTree type="DecisionTree" boostWeight="1.0000000000000000e+00" itree="216">
      <Node pos="s" depth="0" NCoef="0" IVar="5" Cut="3.0103641748428345e-01" cType="1" res="7.1321219205856323e-02" rms="3.0755448341369629e-01" purity="5.0062173604965210e-01" nType="0">
        <Node pos="l" depth="1" NCoef="0" IVar="36" Cut="1.3680466413497925e+00" cType="1" res="1.4019489288330078e-01" rms="2.8213176131248474e-01" purity="6.6307598352432251e-01" nType="0">
          <Node pos="l" depth="2" NCoef="0" IVar="-1" Cut="0.0000000000000000e+00" cType="1" res="-2.6460182853043079e-03" rms="2.5825202465057373e-01" purity="1.3108675181865692e-01" nType="-99"/>
          <Node pos="r" depth="2" NCoef="0" IVar="-1" Cut="0.0000000000000000e+00" cType="1" res="2.4715848267078400e-03" rms="2.5805479288101196e-01" purity="8.3148771524429321e-01" nType="-99"/>
        </Node>
        <Node pos="r" depth="1" NCoef="0" IVar="2" Cut="3.0585470199584961e+00" cType="1" res="-2.0613236352801323e-02" rms="3.1593814492225647e-01" purity="2.8377339243888855e-01" nType="0">
          <Node pos="l" depth="2" NCoef="0" IVar="-1" Cut="0.0000000000000000e+00" cType="1" res="-1.1469384189695120e-03" rms="2.9591658711433411e-01" purity="2.2039026021957397e-01" nType="-99"/>
          <Node pos="r" depth="2" NCoef="0" IVar="-1" Cut="0.0000000000000000e+00" cType="1" res="1.4616120606660843e-03" rms="3.5669374465942383e-01" purity="5.2689898014068604e-01" nType="-99"/>
        </Node>
      </Node>
    </BinaryTree>
    <BinaryTree type="DecisionTree" boostWeight="1.0000000000000000e+00" itree="217">
      <Node pos="s" depth="0" NCoef="0" IVar="1" Cut="2.7145054340362549e+00" cType="1" res="6.3900485634803772e-02" rms="2.9889467358589172e-01" purity="4.9776393175125122e-01" nType="0">
        <Node pos="l" depth="1" NCoef="0" IVar="15" Cut="1.5203990936279297e+00" cType="1" res="-6.8607404828071594e-02" rms="2.5503429770469666e-01" purity="2.0426923036575317e-01" nType="0">
          <Node pos="l" depth="2" NCoef="0" IVar="-1" Cut="0.0000000000000000e+00" cType="1" res="-1.0341457091271877e-03" rms="2.3877727985382080e-01" purity="2.1763829886913300e-01" nType="-99"/>
          <Node pos="r" depth="2" NCoef="0" IVar="-1" Cut="0.0000000000000000e+00" cType="1" res="-8.9019201695919037e-03" rms="2.6117712259292603e-01" purity="9.4339787960052490e-02" nType="-99"/>
        </Node>
        <Node pos="r" depth="1" NCoef="0" IVar="5" Cut="3.0184304714202881e-01" cType="1" res="1.1664178222417831e-01" rms="2.9872721433639526e-01" purity="6.1458188295364380e-01" nType="0">
          <Node pos="l" depth="2" NCoef="0" IVar="-1" Cut="0.0000000000000000e+00" cType="1" res="2.6197351980954409e-03" rms="2.4950323998928070e-01" purity="8.0823451280593872e-01" nType="-99"/>
          <Node pos="r" depth="2" NCoef="0" IVar="-1" Cut="0.0000000000000000e+00" cType="1" res="1.2487286585383117e-04" rms="3.2123914361000061e-01" purity="3.6340987682342529e-01" nType="-99"/>
        </Node>
      </Node>
    </BinaryTree>
    <BinaryTree type="DecisionTree" boostWeight="1.0000000000000000e+00" itree="218">
      <Node pos="s" depth="0" NCoef="0" IVar="36" Cut="1.4073475599288940e+00" cType="1" res="6.6477723419666290e-02" rms="2.9647791385650635e-01" purity="5.0435930490493774e-01" nType="0">
        <Node pos="l" depth="1" NCoef="0" IVar="3" Cut="4.8032116889953613e+00" cType="1" res="-7.2652257978916168e-02" rms="2.1715028584003448e-01" purity="1.0609228909015656e-01" nType="0">
          <Node pos="l" depth="2" NCoef="0" IVar="-1" Cut="0.0000000000000000e+00" cType="1" res="-1.0257388465106487e-02" rms="1.4980602264404297e-01" purity="2.8510661795735359e-02" nType="-99"/>
          <Node pos="r" depth="2" NCoef="0" IVar="-1" Cut="0.0000000000000000e+00" cType="1" res="4.7723410534672439e-04" rms="2.6595687866210938e-01" purity="2.2362074255943298e-01" nType="-99"/>
        </Node>
        <Node pos="r" depth="1" NCoef="0" IVar="5" Cut="3.8188749551773071e-01" cType="1" res="1.1924570053815842e-01" rms="3.0533006787300110e-01" purity="6.5541046857833862e-01" nType="0">
          <Node pos="l" depth="2" NCoef="0" IVar="-1" Cut="0.0000000000000000e+00" cType="1" res="2.2625632118433714e-03" rms="2.5766575336456299e-01" purity="7.8754687309265137e-01" nType="-99"/>
          <Node pos="r" depth="2" NCoef="0" IVar="-1" Cut="0.0000000000000000e+00" cType="1" res="-5.2354915533214808e-04" rms="3.5448056459426880e-01" purity="3.3324775099754333e-01" nType="-99"/>
        </Node>
      </Node>
    </BinaryTree>
    <BinaryTree type="DecisionTree" boostWeight="1.0000000000000000e+00" itree="219">
      <Node pos="s" depth="0" NCoef="0" IVar="36" Cut="1.4073475599288940e+00" cType="1" res="7.5053744018077850e-02" rms="3.0400165915489197e-01" purity="5.0860822200775146e-01" nType="0">
        <Node pos="l" depth="1" NCoef="0" IVar="3" Cut="4.9383249282836914e+00" cType="1" res="-6.3210159540176392e-02" rms="2.2683919966220856e-01" purity="1.1166615039110184e-01" nType="0">
          <Node pos="l" depth="2" NCoef="0" IVar="-1" Cut="0.0000000000000000e+00" cType="1" res="-6.9750356487929821e-03" rms="1.8196988105773926e-01" purity="5.6301750242710114e-02" nType="-99"/>
          <Node pos="r" depth="2" NCoef="0" IVar="-1" Cut="0.0000000000000000e+00" cType="1" res="1.1544222943484783e-03" rms="2.7989274263381958e-01" purity="2.4608530104160309e-01" nType="-99"/>
        </Node>
        <Node pos="r" depth="1" NCoef="0" IVar="5" Cut="2.8517329692840576e-01" cType="1" res="1.2675848603248596e-01" rms="3.1290951371192932e-01" purity="6.5704751014709473e-01" nType="0">
          <Node pos="l" depth="2" NCoef="0" IVar="-1" Cut="0.0000000000000000e+00" cType="1" res="2.5647836737334728e-03" rms="2.4888977408409119e-01" purity="8.5089409351348877e-01" nType="-99"/>
          <Node pos="r" depth="2" NCoef="0" IVar="-1" Cut="0.0000000000000000e+00" cType="1" res="3.4895481076091528e-04" rms="3.5020154714584351e-01" purity="4.1886445879936218e-01" nType="-99"/>
        </Node>
      </Node>
    </BinaryTree>
    <BinaryTree type="DecisionTree" boostWeight="1.0000000000000000e+00" itree="220">
      <Node pos="s" depth="0" NCoef="0" IVar="5" Cut="3.5801371932029724e-01" cType="1" res="7.5207047164440155e-02" rms="3.0800738930702209e-01" purity="5.1058411598205566e-01" nType="0">
        <Node pos="l" depth="1" NCoef="0" IVar="36" Cut="1.1750472784042358e+00" cType="1" res="1.3379767537117004e-01" rms="2.8844791650772095e-01" purity="6.4420258998870850e-01" nType="0">
          <Node pos="l" depth="2" NCoef="0" IVar="-1" Cut="0.0000000000000000e+00" cType="1" res="-6.3558910042047501e-03" rms="1.5107703208923340e-01" purity="4.8482514917850494e-02" nType="-99"/>
          <Node pos="r" depth="2" NCoef="0" IVar="-1" Cut="0.0000000000000000e+00" cType="1" res="2.3735431022942066e-03" rms="2.8693217039108276e-01" purity="7.6845127344131470e-01" nType="-99"/>
        </Node>
        <Node pos="r" depth="1" NCoef="0" IVar="2" Cut="2.3881614208221436e+00" cType="1" res="-3.7532377988100052e-02" rms="3.1305140256881714e-01" purity="2.5347694754600525e-01" nType="0">
          <Node pos="l" depth="2" NCoef="0" IVar="-1" Cut="0.0000000000000000e+00" cType="1" res="-3.5764318890869617e-03" rms="2.4169018864631653e-01" purity="1.0146515816450119e-01" nType="-99"/>
          <Node pos="r" depth="2" NCoef="0" IVar="-1" Cut="0.0000000000000000e+00" cType="1" res="3.2452979939989746e-04" rms="3.4767571091651917e-01" purity="3.7192371487617493e-01" nType="-99"/>
        </Node>
      </Node>
    </BinaryTree>
    <BinaryTree type="DecisionTree" boostWeight="1.0000000000000000e+00" itree="221">
      <Node pos="s" depth="0" NCoef="0" IVar="17" Cut="1.5231137275695801e+00" cType="1" res="6.8383902311325073e-02" rms="3.0279526114463806e-01" purity="5.0121456384658813e-01" nType="0">
        <Node pos="l" depth="1" NCoef="0" IVar="5" Cut="2.8308928012847900e-01" cType="1" res="2.0748851820826530e-03" rms="2.9979965090751648e-01" purity="2.6236009597778320e-01" nType="0">
          <Node pos="l" depth="2" NCoef="0" IVar="-1" Cut="0.0000000000000000e+00" cType="1" res="1.4979887055233121e-03" rms="3.1979075074195862e-01" purity="4.1277244687080383e-01" nType="-99"/>
          <Node pos="r" depth="2" NCoef="0" IVar="-1" Cut="0.0000000000000000e+00" cType="1" res="-1.3989548897370696e-03" rms="2.6906958222389221e-01" purity="1.4664304256439209e-01" nType="-99"/>
        </Node>
        <Node pos="r" depth="1" NCoef="0" IVar="15" Cut="1.5230776071548462e+00" cType="1" res="1.7257507145404816e-01" rms="2.7705016732215881e-01" purity="8.7652587890625000e-01" nType="0">
          <Node pos="l" depth="2" NCoef="0" IVar="-1" Cut="0.0000000000000000e+00" cType="1" res="2.4950574152171612e-03" rms="2.0915848016738892e-01" purity="9.3324637413024902e-01" nType="-99"/>
          <Node pos="r" depth="2" NCoef="0" IVar="-1" Cut="0.0000000000000000e+00" cType="1" res="3.8231062353588641e-04" rms="4.1920983791351318e-01" purity="6.6373151540756226e-01" nType="-99"/>
        </Node>
      </Node>
    </BinaryTree>
    <BinaryTree type="DecisionTree" boostWeight="1.0000000000000000e+00" itree="222">
      <Node pos="s" depth="0" NCoef="0" IVar="48" Cut="1.2253122329711914e+00" cType="1" res="6.5871149301528931e-02" rms="3.0330666899681091e-01" purity="4.9733170866966248e-01" nType="0">
        <Node pos="l" depth="1" NCoef="0" IVar="25" Cut="8.9772045612335205e-01" cType="1" res="-1.0338828712701797e-01" rms="2.4867404997348785e-01" purity="1.6536951065063477e-01" nType="0">
          <Node pos="l" depth="2" NCoef="0" IVar="-1" Cut="0.0000000000000000e+00" cType="1" res="-5.6037884205579758e-03" rms="0.0000000000000000e+00" purity="-2.0105509087443352e-02" nType="-99"/>
          <Node pos="r" depth="2" NCoef="0" IVar="-1" Cut="0.0000000000000000e+00" cType="1" res="-1.5739677473902702e-03" rms="2.8086614608764648e-01" purity="2.0562063157558441e-01" nType="-99"/>
        </Node>
        <Node pos="r" depth="1" NCoef="0" IVar="5" Cut="3.0224487185478210e-01" cType="1" res="1.0234501957893372e-01" rms="3.0164453387260437e-01" purity="5.6886655092239380e-01" nType="0">
          <Node pos="l" depth="2" NCoef="0" IVar="-1" Cut="0.0000000000000000e+00" cType="1" res="2.6694452390074730e-03" rms="2.6098051667213440e-01" purity="7.7219611406326294e-01" nType="-99"/>
          <Node pos="r" depth="2" NCoef="0" IVar="-1" Cut="0.0000000000000000e+00" cType="1" res="-7.0393864007201046e-05" rms="3.1089428067207336e-01" purity="3.3214011788368225e-01" nType="-99"/>
        </Node>
      </Node>
    </BinaryTree>
    <BinaryTree type="DecisionTree" boostWeight="1.0000000000000000e+00" itree="223">
      <Node pos="s" depth="0" NCoef="0" IVar="5" Cut="3.4026998281478882e-01" cType="1" res="7.5329452753067017e-02" rms="3.0452752113342285e-01" purity="5.1183402538299561e-01" nType="0">
        <Node pos="l" depth="1" NCoef="0" IVar="36" Cut="9.8148834705352783e-01" cType="1" res="1.3830523192882538e-01" rms="2.8732761740684509e-01" purity="6.5483868122100830e-01" nType="0">
          <Node pos="l" depth="2" NCoef="0" IVar="-1" Cut="0.0000000000000000e+00" cType="1" res="-8.6098443716764450e-03" rms="1.4884190261363983e-01" purity="3.0292740091681480e-02" nType="-99"/>
          <Node pos="r" depth="2" NCoef="0" IVar="-1" Cut="0.0000000000000000e+00" cType="1" res="2.4000988341867924e-03" rms="2.8487673401832581e-01" purity="7.7298563718795776e-01" nType="-99"/>
        </Node>
        <Node pos="r" depth="1" NCoef="0" IVar="34" Cut="-1.4926447868347168e+00" cType="1" res="-2.9716074466705322e-02" rms="3.0342614650726318e-01" purity="2.7329781651496887e-01" nType="0">
          <Node pos="l" depth="2" NCoef="0" IVar="-1" Cut="0.0000000000000000e+00" cType="1" res="2.9199770651757717e-03" rms="3.2197591662406921e-01" purity="5.0977176427841187e-01" nType="-99"/>
          <Node pos="r" depth="2" NCoef="0" IVar="-1" Cut="0.0000000000000000e+00" cType="1" res="-9.2692452017217875e-04" rms="2.9504567384719849e-01" purity="2.5178006291389465e-01" nType="-99"/>
        </Node>
      </Node>
    </BinaryTree>
    <BinaryTree type="DecisionTree" boostWeight="1.0000000000000000e+00" itree="224">
      <Node pos="s" depth="0" NCoef="0" IVar="2" Cut="1.9485350847244263e+00" cType="1" res="6.6840358078479767e-02" rms="3.0163633823394775e-01" purity="5.0349998474121094e-01" nType="0">
        <Node pos="l" depth="1" NCoef="0" IVar="15" Cut="1.4817870855331421e+00" cType="1" res="-7.5136177241802216e-02" rms="2.6379898190498352e-01" purity="1.9100742042064667e-01" nType="0">
          <Node pos="l" depth="2" NCoef="0" IVar="-1" Cut="0.0000000000000000e+00" cType="1" res="-9.2657364439219236e-04" rms="2.2581490874290466e-01" purity="1.9526763260364532e-01" nType="-99"/>
          <Node pos="r" depth="2" NCoef="0" IVar="-1" Cut="0.0000000000000000e+00" cType="1" res="-6.2933298759162426e-03" rms="3.1602489948272705e-01" purity="1.7794507741928101e-01" nType="-99"/>
        </Node>
        <Node pos="r" depth="1" NCoef="0" IVar="5" Cut="3.0429923534393311e-01" cType="1" res="1.0978201776742935e-01" rms="2.9919010400772095e-01" purity="5.9801524877548218e-01" nType="0">
          <Node pos="l" depth="2" NCoef="0" IVar="-1" Cut="0.0000000000000000e+00" cType="1" res="2.4354381021112204e-03" rms="2.5664222240447998e-01" purity="7.7646923065185547e-01" nType="-99"/>
          <Node pos="r" depth="2" NCoef="0" IVar="-1" Cut="0.0000000000000000e+00" cType="1" res="1.9021086336579174e-04" rms="3.2514744997024536e-01" purity="3.5063359141349792e-01" nType="-99"/>
        </Node>
      </Node>
    </BinaryTree>
    <BinaryTree type="DecisionTree" boostWeight="1.0000000000000000e+00" itree="225">
      <Node pos="s" depth="0" NCoef="0" IVar="17" Cut="1.5214687585830688e+00" cType="1" res="6.7254073917865753e-02" rms="3.0726760625839233e-01" purity="5.0208985805511475e-01" nType="0">
        <Node pos="l" depth="1" NCoef="0" IVar="15" Cut="1.5209717750549316e+00" cType="1" res="1.6055556479841471e-03" rms="3.0554825067520142e-01" purity="2.5344479084014893e-01" nType="0">
          <Node pos="l" depth="2" NCoef="0" IVar="-1" Cut="0.0000000000000000e+00" cType="1" res="3.6888796603307128e-04" rms="3.0171689391136169e-01" purity="2.6534289121627808e-01" nType="-99"/>
          <Node pos="r" depth="2" NCoef="0" IVar="-1" Cut="0.0000000000000000e+00" cType="1" res="-1.2204200960695744e-02" rms="2.3244185745716095e-01" purity="3.5519100725650787e-02" nType="-99"/>
        </Node>
        <Node pos="r" depth="1" NCoef="0" IVar="15" Cut="1.5224975347518921e+00" cType="1" res="1.6387674212455750e-01" rms="2.8334623575210571e-01" purity="8.6805015802383423e-01" nType="0">
          <Node pos="l" depth="2" NCoef="0" IVar="-1" Cut="0.0000000000000000e+00" cType="1" res="2.4984853807836771e-03" rms="2.1334040164947510e-01" purity="9.3183207511901855e-01" nType="-99"/>
          <Node pos="r" depth="2" NCoef="0" IVar="-1" Cut="0.0000000000000000e+00" cType="1" res="-9.9135781056247652e-05" rms="4.2102906107902527e-01" purity="6.2184828519821167e-01" nType="-99"/>
        </Node>
      </Node>
    </BinaryTree>
    <BinaryTree type="DecisionTree" boostWeight="1.0000000000000000e+00" itree="226">
      <Node pos="s" depth="0" NCoef="0" IVar="17" Cut="1.4071296453475952e+00" cType="1" res="7.2102516889572144e-02" rms="2.9530856013298035e-01" purity="5.1428139209747314e-01" nType="0">
        <Node pos="l" depth="1" NCoef="0" IVar="61" Cut="5.9440475702285767e-01" cType="1" res="-5.7707164436578751e-02" rms="4.6741127967834473e-02" purity="5.8391029015183449e-03" nType="0">
          <Node pos="l" depth="2" NCoef="0" IVar="-1" Cut="0.0000000000000000e+00" cType="1" res="5.4799858480691910e-04" rms="2.4256063997745514e-01" purity="7.2895668447017670e-02" nType="-99"/>
          <Node pos="r" depth="2" NCoef="0" IVar="-1" Cut="0.0000000000000000e+00" cType="1" res="-1.3980247080326080e-02" rms="0.0000000000000000e+00" purity="-2.0845264196395874e-02" nType="-99"/>
        </Node>
        <Node pos="r" depth="1" NCoef="0" IVar="36" Cut="-8.3517640829086304e-01" cType="1" res="1.3011287152767181e-01" rms="3.3809337019920349e-01" purity="7.4149799346923828e-01" nType="0">
          <Node pos="l" depth="2" NCoef="0" IVar="-1" Cut="0.0000000000000000e+00" cType="1" res="-1.5258515253663063e-02" rms="3.9662688970565796e-02" purity="3.0420625116676092e-03" nType="-99"/>
          <Node pos="r" depth="2" NCoef="0" IVar="-1" Cut="0.0000000000000000e+00" cType="1" res="1.7025258857756853e-03" rms="3.3711558580398560e-01" purity="7.9102355241775513e-01" nType="-99"/>
        </Node>
      </Node>
    </BinaryTree>
    <BinaryTree type="DecisionTree" boostWeight="1.0000000000000000e+00" itree="227">
      <Node pos="s" depth="0" NCoef="0" IVar="17" Cut="1.4437762498855591e+00" cType="1" res="7.5667098164558411e-02" rms="3.0240124464035034e-01" purity="5.1183193922042847e-01" nType="0">
        <Node pos="l" depth="1" NCoef="0" IVar="61" Cut="3.8459867238998413e-01" cType="1" res="-3.3078640699386597e-02" rms="1.7138171195983887e-01" purity="3.9110649377107620e-02" nType="0">
          <Node pos="l" depth="2" NCoef="0" IVar="-1" Cut="0.0000000000000000e+00" cType="1" res="4.3067964725196362e-03" rms="3.1184187531471252e-01" purity="1.4162595570087433e-01" nType="-99"/>
          <Node pos="r" depth="2" NCoef="0" IVar="-1" Cut="0.0000000000000000e+00" cType="1" res="-5.0663584843277931e-03" rms="1.3057072460651398e-01" purity="2.2843493148684502e-02" nType="-99"/>
        </Node>
        <Node pos="r" depth="1" NCoef="0" IVar="2" Cut="1.8279820680618286e+00" cType="1" res="1.3365150988101959e-01" rms="3.3893617987632751e-01" purity="7.6389211416244507e-01" nType="0">
          <Node pos="l" depth="2" NCoef="0" IVar="-1" Cut="0.0000000000000000e+00" cType="1" res="-2.1013051737099886e-03" rms="3.9208000898361206e-01" purity="3.6941072344779968e-01" nType="-99"/>
          <Node pos="r" depth="2" NCoef="0" IVar="-1" Cut="0.0000000000000000e+00" cType="1" res="1.8232138827443123e-03" rms="3.1602150201797485e-01" purity="8.1684505939483643e-01" nType="-99"/>
        </Node>
      </Node>
    </BinaryTree>
    <BinaryTree type="DecisionTree" boostWeight="1.0000000000000000e+00" itree="228">
      <Node pos="s" depth="0" NCoef="0" IVar="17" Cut="1.5209901332855225e+00" cType="1" res="6.5646350383758545e-02" rms="3.0747193098068237e-01" purity="4.8808866739273071e-01" nType="0">
        <Node pos="l" depth="1" NCoef="0" IVar="5" Cut="2.8496971726417542e-01" cType="1" res="3.9426512084901333e-03" rms="3.0573576688766479e-01" purity="2.4520815908908844e-01" nType="0">
          <Node pos="l" depth="2" NCoef="0" IVar="-1" Cut="0.0000000000000000e+00" cType="1" res="1.5603443607687950e-03" rms="3.2664135098457336e-01" purity="3.8970640301704407e-01" nType="-99"/>
          <Node pos="r" depth="2" NCoef="0" IVar="-1" Cut="0.0000000000000000e+00" cType="1" res="-1.3150704326108098e-03" rms="2.7701219916343689e-01" purity="1.3753110170364380e-01" nType="-99"/>
        </Node>
        <Node pos="r" depth="1" NCoef="0" IVar="15" Cut="1.5224903821945190e+00" cType="1" res="1.6079835593700409e-01" rms="2.8505370020866394e-01" purity="8.6262971162796021e-01" nType="0">
          <Node pos="l" depth="2" NCoef="0" IVar="-1" Cut="0.0000000000000000e+00" cType="1" res="2.4314471520483494e-03" rms="2.1824663877487183e-01" purity="9.2526978254318237e-01" nType="-99"/>
          <Node pos="r" depth="2" NCoef="0" IVar="-1" Cut="0.0000000000000000e+00" cType="1" res="1.1989339691353962e-04" rms="4.1618126630783081e-01" purity="6.3701575994491577e-01" nType="-99"/>
        </Node>
      </Node>
    </BinaryTree>
    <BinaryTree type="DecisionTree" boostWeight="1.0000000000000000e+00" itree="229">
      <Node pos="s" depth="0" NCoef="0" IVar="5" Cut="3.4125635027885437e-01" cType="1" res="6.8312130868434906e-02" rms="3.0023214221000671e-01" purity="5.0195389986038208e-01" nType="0">
        <Node pos="l" depth="1" NCoef="0" IVar="36" Cut="1.4068046808242798e+00" cType="1" res="1.2859480082988739e-01" rms="2.8039962053298950e-01" purity="6.4615476131439209e-01" nType="0">
          <Node pos="l" depth="2" NCoef="0" IVar="-1" Cut="0.0000000000000000e+00" cType="1" res="-2.0280259195715189e-03" rms="2.5797769427299500e-01" purity="1.4920744299888611e-01" nType="-99"/>
          <Node pos="r" depth="2" NCoef="0" IVar="-1" Cut="0.0000000000000000e+00" cType="1" res="2.4077009875327349e-03" rms="2.6031139492988586e-01" purity="8.1237524747848511e-01" nType="-99"/>
        </Node>
        <Node pos="r" depth="1" NCoef="0" IVar="15" Cut="1.5212173461914062e+00" cType="1" res="-3.4523524343967438e-02" rms="3.0497372150421143e-01" purity="2.5596302747726440e-01" nType="0">
          <Node pos="l" depth="2" NCoef="0" IVar="-1" Cut="0.0000000000000000e+00" cType="1" res="-1.7312499403487891e-04" rms="2.7842956781387329e-01" purity="2.4719929695129395e-01" nType="-99"/>
          <Node pos="r" depth="2" NCoef="0" IVar="-1" Cut="0.0000000000000000e+00" cType="1" res="-3.2108055893331766e-03" rms="4.0722966194152832e-01" purity="3.2261413335800171e-01" nType="-99"/>
        </Node>
      </Node>
    </BinaryTree>
    <BinaryTree type="DecisionTree" boostWeight="1.0000000000000000e+00" itree="230">
      <Node pos="s" depth="0" NCoef="0" IVar="1" Cut="2.7706077098846436e+00" cType="1" res="6.9116771221160889e-02" rms="2.9933193325996399e-01" purity="5.0696563720703125e-01" nType="0">
        <Node pos="l" depth="1" NCoef="0" IVar="3" Cut="4.7781219482421875e+00" cType="1" res="-5.2275102585554123e-02" rms="2.7253800630569458e-01" purity="2.2820901870727539e-01" nType="0">
          <Node pos="l" depth="2" NCoef="0" IVar="-1" Cut="0.0000000000000000e+00" cType="1" res="-5.1812459714710712e-03" rms="1.9264784455299377e-01" purity="9.8483741283416748e-02" nType="-99"/>
          <Node pos="r" depth="2" NCoef="0" IVar="-1" Cut="0.0000000000000000e+00" cType="1" res="8.6095120059326291e-04" rms="3.1121054291725159e-01" purity="3.7390506267547607e-01" nType="-99"/>
        </Node>
        <Node pos="r" depth="1" NCoef="0" IVar="17" Cut="1.3684681653976440e+00" cType="1" res="1.2198110669851303e-01" rms="2.9506006836891174e-01" purity="6.2836003303527832e-01" nType="0">
          <Node pos="l" depth="2" NCoef="0" IVar="-1" Cut="0.0000000000000000e+00" cType="1" res="-9.5562068745493889e-03" rms="8.3418004214763641e-02" purity="9.4578452408313751e-03" nType="-99"/>
          <Node pos="r" depth="2" NCoef="0" IVar="-1" Cut="0.0000000000000000e+00" cType="1" res="1.9888638053089380e-03" rms="3.1412267684936523e-01" purity="8.0766433477401733e-01" nType="-99"/>
        </Node>
      </Node>
    </BinaryTree>
    <BinaryTree type="DecisionTree" boostWeight="1.0000000000000000e+00" itree="231">
      <Node pos="s" depth="0" NCoef="0" IVar="17" Cut="1.5231137275695801e+00" cType="1" res="6.9551020860671997e-02" rms="2.9845339059829712e-01" purity="5.0719422101974487e-01" nType="0">
        <Node pos="l" depth="1" NCoef="0" IVar="2" Cut="2.4082691669464111e+00" cType="1" res="8.9065907523036003e-03" rms="2.9620358347892761e-01" purity="2.7284899353981018e-01" nType="0">
          <Node pos="l" depth="2" NCoef="0" IVar="-1" Cut="0.0000000000000000e+00" cType="1" res="-2.1234736777842045e-03" rms="2.3750708997249603e-01" purity="1.2519249320030212e-01" nType="-99"/>
          <Node pos="r" depth="2" NCoef="0" IVar="-1" Cut="0.0000000000000000e+00" cType="1" res="1.2698594946414232e-03" rms="3.3140730857849121e-01" purity="4.2395612597465515e-01" nType="-99"/>
        </Node>
        <Node pos="r" depth="1" NCoef="0" IVar="15" Cut="1.5221244096755981e+00" cType="1" res="1.6478934884071350e-01" rms="2.7627784013748169e-01" purity="8.7521892786026001e-01" nType="0">
          <Node pos="l" depth="2" NCoef="0" IVar="-1" Cut="0.0000000000000000e+00" cType="1" res="2.5107979308813810e-03" rms="2.0770783722400665e-01" purity="9.3522423505783081e-01" nType="-99"/>
          <Node pos="r" depth="2" NCoef="0" IVar="-1" Cut="0.0000000000000000e+00" cType="1" res="1.0192107583861798e-04" rms="4.1614270210266113e-01" purity="6.4465481042861938e-01" nType="-99"/>
        </Node>
      </Node>
    </BinaryTree>
    <BinaryTree type="DecisionTree" boostWeight="1.0000000000000000e+00" itree="232">
      <Node pos="s" depth="0" NCoef="0" IVar="48" Cut="1.6403501033782959e+00" cType="1" res="6.7163363099098206e-02" rms="3.0689892172813416e-01" purity="4.9955499172210693e-01" nType="0">
        <Node pos="l" depth="1" NCoef="0" IVar="1" Cut="2.7190029621124268e+00" cType="1" res="-5.2902590483427048e-02" rms="2.7239274978637695e-01" purity="2.5556460022926331e-01" nType="0">
          <Node pos="l" depth="2" NCoef="0" IVar="-1" Cut="0.0000000000000000e+00" cType="1" res="-3.0882793944329023e-03" rms="2.2330838441848755e-01" purity="1.2835773825645447e-01" nType="-99"/>
          <Node pos="r" depth="2" NCoef="0" IVar="-1" Cut="0.0000000000000000e+00" cType="1" res="4.9997319001704454e-04" rms="3.1606867909431458e-01" purity="4.5330142974853516e-01" nType="-99"/>
        </Node>
        <Node pos="r" depth="1" NCoef="0" IVar="5" Cut="2.7084740996360779e-01" cType="1" res="1.1361341923475266e-01" rms="3.0689653754234314e-01" purity="5.9394782781600952e-01" nType="0">
          <Node pos="l" depth="2" NCoef="0" IVar="-1" Cut="0.0000000000000000e+00" cType="1" res="2.7916736435145140e-03" rms="2.4592418968677521e-01" purity="8.1416285037994385e-01" nType="-99"/>
          <Node pos="r" depth="2" NCoef="0" IVar="-1" Cut="0.0000000000000000e+00" cType="1" res="4.2851647594943643e-04" rms="3.3529669046401978e-01" purity="3.6993101239204407e-01" nType="-99"/>
        </Node>
      </Node>
    </BinaryTree>
    <BinaryTree type="DecisionTree" boostWeight="1.0000000000000000e+00" itree="233">
      <Node pos="s" depth="0" NCoef="0" IVar="1" Cut="2.7066729068756104e+00" cType="1" res="6.5984956920146942e-02" rms="3.0251222848892212e-01" purity="4.9607527256011963e-01" nType="0">
        <Node pos="l" depth="1" NCoef="0" IVar="15" Cut="1.5191884040832520e+00" cType="1" res="-5.8321498334407806e-02" rms="2.7950760722160339e-01" purity="1.9543941318988800e-01" nType="0">
          <Node pos="l" depth="2" NCoef="0" IVar="-1" Cut="0.0000000000000000e+00" cType="1" res="-6.0795142780989408e-04" rms="2.6906850934028625e-01" purity="2.2010084986686707e-01" nType="-99"/>
          <Node pos="r" depth="2" NCoef="0" IVar="-1" Cut="0.0000000000000000e+00" cType="1" res="-1.3007499277591705e-02" rms="1.4974944293498993e-01" purity="-1.7782706767320633e-02" nType="-99"/>
        </Node>
        <Node pos="r" depth="1" NCoef="0" IVar="5" Cut="2.8330719470977783e-01" cType="1" res="1.1453372240066528e-01" rms="2.9723891615867615e-01" purity="6.1349076032638550e-01" nType="0">
          <Node pos="l" depth="2" NCoef="0" IVar="-1" Cut="0.0000000000000000e+00" cType="1" res="2.7052764780819416e-03" rms="2.5060981512069702e-01" purity="8.1427127122879028e-01" nType="-99"/>
          <Node pos="r" depth="2" NCoef="0" IVar="-1" Cut="0.0000000000000000e+00" cType="1" res="1.1726394586730748e-04" rms="3.1466701626777649e-01" purity="3.6544615030288696e-01" nType="-99"/>
        </Node>
      </Node>
    </BinaryTree>
    <BinaryTree type="DecisionTree" boostWeight="1.0000000000000000e+00" itree="234">
      <Node pos="s" depth="0" NCoef="0" IVar="17" Cut="1.4457910060882568e+00" cType="1" res="7.8234940767288208e-02" rms="2.9583373665809631e-01" purity="5.2568769454956055e-01" nType="0">
        <Node pos="l" depth="1" NCoef="0" IVar="55" Cut="-1.4158073663711548e+00" cType="1" res="-3.5958215594291687e-02" rms="1.6212926805019379e-01" purity="3.6407344043254852e-02" nType="0">
          <Node pos="l" depth="2" NCoef="0" IVar="-1" Cut="0.0000000000000000e+00" cType="1" res="1.9123584497720003e-03" rms="2.7452364563941956e-01" purity="1.0336985439062119e-01" nType="-99"/>
          <Node pos="r" depth="2" NCoef="0" IVar="-1" Cut="0.0000000000000000e+00" cType="1" res="-8.7045338004827499e-03" rms="0.0000000000000000e+00" purity="-4.7035780735313892e-03" nType="-99"/>
        </Node>
        <Node pos="r" depth="1" NCoef="0" IVar="1" Cut="2.5628533363342285e+00" cType="1" res="1.3652893900871277e-01" rms="3.2972800731658936e-01" purity="7.7545845508575439e-01" nType="0">
          <Node pos="l" depth="2" NCoef="0" IVar="-1" Cut="0.0000000000000000e+00" cType="1" res="-1.2695346958935261e-03" rms="3.7483140826225281e-01" purity="3.8902187347412109e-01" nType="-99"/>
          <Node pos="r" depth="2" NCoef="0" IVar="-1" Cut="0.0000000000000000e+00" cType="1" res="1.9427413353696465e-03" rms="3.0592367053031921e-01" purity="8.3850473165512085e-01" nType="-99"/>
        </Node>
      </Node>
    </BinaryTree>
    <BinaryTree type="DecisionTree" boostWeight="1.0000000000000000e+00" itree="235">
      <Node pos="s" depth="0" NCoef="0" IVar="5" Cut="3.4116539359092712e-01" cType="1" res="6.6787831485271454e-02" rms="3.0025804042816162e-01" purity="5.0080645084381104e-01" nType="0">
        <Node pos="l" depth="1" NCoef="0" IVar="48" Cut="9.5622384548187256e-01" cType="1" res="1.2848314642906189e-01" rms="2.8297516703605652e-01" purity="6.4780944585800171e-01" nType="0">
          <Node pos="l" depth="2" NCoef="0" IVar="-1" Cut="0.0000000000000000e+00" cType="1" res="-3.8570379838347435e-03" rms="2.1944078803062439e-01" purity="9.4643048942089081e-02" nType="-99"/>
          <Node pos="r" depth="2" NCoef="0" IVar="-1" Cut="0.0000000000000000e+00" cType="1" res="2.4461299180984497e-03" rms="2.6829272508621216e-01" purity="7.2298836708068848e-01" nType="-99"/>
        </Node>
        <Node pos="r" depth="1" NCoef="0" IVar="2" Cut="2.3466830253601074e+00" cType="1" res="-4.0764421224594116e-02" rms="2.9920580983161926e-01" purity="2.4453881382942200e-01" nType="0">
          <Node pos="l" depth="2" NCoef="0" IVar="-1" Cut="0.0000000000000000e+00" cType="1" res="-3.5580859985202551e-03" rms="2.5131437182426453e-01" purity="1.0819222033023834e-01" nType="-99"/>
          <Node pos="r" depth="2" NCoef="0" IVar="-1" Cut="0.0000000000000000e+00" cType="1" res="3.9429516618838534e-05" rms="3.2290717959403992e-01" purity="3.4380525350570679e-01" nType="-99"/>
        </Node>
      </Node>
    </BinaryTree>
    <BinaryTree type="DecisionTree" boostWeight="1.0000000000000000e+00" itree="236">
      <Node pos="s" depth="0" NCoef="0" IVar="5" Cut="3.3902129530906677e-01" cType="1" res="6.6592723131179810e-02" rms="2.9911258816719055e-01" purity="5.0050753355026245e-01" nType="0">
        <Node pos="l" depth="1" NCoef="0" IVar="36" Cut="1.4456657171249390e+00" cType="1" res="1.2720783054828644e-01" rms="2.8281459212303162e-01" purity="6.4652729034423828e-01" nType="0">
          <Node pos="l" depth="2" NCoef="0" IVar="-1" Cut="0.0000000000000000e+00" cType="1" res="-1.3597824145108461e-03" rms="2.8564321994781494e-01" purity="1.9878804683685303e-01" nType="-99"/>
          <Node pos="r" depth="2" NCoef="0" IVar="-1" Cut="0.0000000000000000e+00" cType="1" res="2.4557665456086397e-03" rms="2.5130265951156616e-01" purity="8.3192712068557739e-01" nType="-99"/>
        </Node>
        <Node pos="r" depth="1" NCoef="0" IVar="17" Cut="1.5207976102828979e+00" cType="1" res="-3.3030569553375244e-02" rms="2.9848381876945496e-01" purity="2.6051831245422363e-01" nType="0">
          <Node pos="l" depth="2" NCoef="0" IVar="-1" Cut="0.0000000000000000e+00" cType="1" res="-1.6312069492414594e-03" rms="2.5529882311820984e-01" purity="1.2358009815216064e-01" nType="-99"/>
          <Node pos="r" depth="2" NCoef="0" IVar="-1" Cut="0.0000000000000000e+00" cType="1" res="7.6972058741375804e-04" rms="3.9946043491363525e-01" purity="7.4232268333435059e-01" nType="-99"/>
        </Node>
      </Node>
    </BinaryTree>
    <BinaryTree type="DecisionTree" boostWeight="1.0000000000000000e+00" itree="237">
      <Node pos="s" depth="0" NCoef="0" IVar="1" Cut="2.9624123573303223e+00" cType="1" res="6.8734794855117798e-02" rms="3.0145129561424255e-01" purity="5.0105994939804077e-01" nType="0">
        <Node pos="l" depth="1" NCoef="0" IVar="48" Cut="1.1838437318801880e+00" cType="1" res="-2.7568569406867027e-02" rms="2.7821621298789978e-01" purity="2.8570461273193359e-01" nType="0">
          <Node pos="l" depth="2" NCoef="0" IVar="-1" Cut="0.0000000000000000e+00" cType="1" res="-4.1809645481407642e-03" rms="1.9210956990718842e-01" purity="8.0875076353549957e-02" nType="-99"/>
          <Node pos="r" depth="2" NCoef="0" IVar="-1" Cut="0.0000000000000000e+00" cType="1" res="4.3481553439050913e-04" rms="2.9756754636764526e-01" purity="3.8105544447898865e-01" nType="-99"/>
        </Node>
        <Node pos="r" depth="1" NCoef="0" IVar="17" Cut="1.1731057167053223e+00" cType="1" res="1.3459600508213043e-01" rms="2.9900437593460083e-01" purity="6.4833998680114746e-01" nType="0">
          <Node pos="l" depth="2" NCoef="0" IVar="-1" Cut="0.0000000000000000e+00" cType="1" res="-1.8046982586383820e-02" rms="0.0000000000000000e+00" purity="-7.8764017671346664e-03" nType="-99"/>
          <Node pos="r" depth="2" NCoef="0" IVar="-1" Cut="0.0000000000000000e+00" cType="1" res="2.1331673488020897e-03" rms="3.1602215766906738e-01" purity="7.9087072610855103e-01" nType="-99"/>
        </Node>
      </Node>
    </BinaryTree>
    <BinaryTree type="DecisionTree" boostWeight="1.0000000000000000e+00" itree="238">
      <Node pos="s" depth="0" NCoef="0" IVar="36" Cut="1.4073475599288940e+00" cType="1" res="7.6158218085765839e-02" rms="3.0921050906181335e-01" purity="5.0990492105484009e-01" nType="0">
        <Node pos="l" depth="1" NCoef="0" IVar="3" Cut="4.8331484794616699e+00" cType="1" res="-5.6346949189901352e-02" rms="2.4489448964595795e-01" purity="1.0526469349861145e-01" nType="0">
          <Node pos="l" depth="2" NCoef="0" IVar="-1" Cut="0.0000000000000000e+00" cType="1" res="-9.5621505752205849e-03" rms="1.6301400959491730e-01" purity="2.5588784366846085e-02" nType="-99"/>
          <Node pos="r" depth="2" NCoef="0" IVar="-1" Cut="0.0000000000000000e+00" cType="1" res="1.3327836059033871e-03" rms="3.0914002656936646e-01" purity="2.3353852331638336e-01" nType="-99"/>
        </Node>
        <Node pos="r" depth="1" NCoef="0" IVar="5" Cut="4.3527233600616455e-01" cType="1" res="1.2454276531934738e-01" rms="3.1602546572685242e-01" purity="6.5766012668609619e-01" nType="0">
          <Node pos="l" depth="2" NCoef="0" IVar="-1" Cut="0.0000000000000000e+00" cType="1" res="2.2820977028459311e-03" rms="2.9020759463310242e-01" purity="7.6890891790390015e-01" nType="-99"/>
          <Node pos="r" depth="2" NCoef="0" IVar="-1" Cut="0.0000000000000000e+00" cType="1" res="-8.4900989895686507e-04" rms="3.3743849396705627e-01" purity="2.7191165089607239e-01" nType="-99"/>
        </Node>
      </Node>
    </BinaryTree>
    <BinaryTree type="DecisionTree" boostWeight="1.0000000000000000e+00" itree="239">
      <Node pos="s" depth="0" NCoef="0" IVar="5" Cut="2.8463196754455566e-01" cType="1" res="5.7844225317239761e-02" rms="2.9776957631111145e-01" purity="4.9168950319290161e-01" nType="0">
        <Node pos="l" depth="1" NCoef="0" IVar="48" Cut="1.5367242097854614e+00" cType="1" res="1.2981545925140381e-01" rms="2.8191265463829041e-01" purity="6.6633403301239014e-01" nType="0">
          <Node pos="l" depth="2" NCoef="0" IVar="-1" Cut="0.0000000000000000e+00" cType="1" res="-8.8893034262582660e-04" rms="2.8251343965530396e-01" purity="3.1274053454399109e-01" nType="-99"/>
          <Node pos="r" depth="2" NCoef="0" IVar="-1" Cut="0.0000000000000000e+00" cType="1" res="2.8174996841698885e-03" rms="2.4790585041046143e-01" purity="8.1433957815170288e-01" nType="-99"/>
        </Node>
        <Node pos="r" depth="1" NCoef="0" IVar="17" Cut="1.5183701515197754e+00" cType="1" res="-3.1664326786994934e-02" rms="2.9265114665031433e-01" purity="2.7448904514312744e-01" nType="0">
          <Node pos="l" depth="2" NCoef="0" IVar="-1" Cut="0.0000000000000000e+00" cType="1" res="-2.0212954841554165e-03" rms="2.3528967797756195e-01" purity="1.0289954394102097e-01" nType="-99"/>
          <Node pos="r" depth="2" NCoef="0" IVar="-1" Cut="0.0000000000000000e+00" cType="1" res="9.0565514983609319e-04" rms="3.9096108078956604e-01" purity="7.5978398323059082e-01" nType="-99"/>
        </Node>
      </Node>
    </BinaryTree>
    <BinaryTree type="DecisionTree" boostWeight="1.0000000000000000e+00" itree="240">
      <Node pos="s" depth="0" NCoef="0" IVar="48" Cut="1.0250025987625122e+00" cType="1" res="6.2133070081472397e-02" rms="2.9798716306686401e-01" purity="4.9086537957191467e-01" nType="0">
        <Node pos="l" depth="1" NCoef="0" IVar="61" Cut="5.7964384555816650e-01" cType="1" res="-1.2921437621116638e-01" rms="2.1346394717693329e-01" purity="1.0124757885932922e-01" nType="0">
          <Node pos="l" depth="2" NCoef="0" IVar="-1" Cut="0.0000000000000000e+00" cType="1" res="1.2983195483684540e-04" rms="3.5568684339523315e-01" purity="3.0314424633979797e-01" nType="-99"/>
          <Node pos="r" depth="2" NCoef="0" IVar="-1" Cut="0.0000000000000000e+00" cType="1" res="-4.9169152043759823e-03" rms="9.2763833701610565e-02" purity="3.0644666403532028e-02" nType="-99"/>
        </Node>
        <Node pos="r" depth="1" NCoef="0" IVar="5" Cut="3.5764348506927490e-01" cType="1" res="9.0749010443687439e-02" rms="2.9827308654785156e-01" purity="5.4913258552551270e-01" nType="0">
          <Node pos="l" depth="2" NCoef="0" IVar="-1" Cut="0.0000000000000000e+00" cType="1" res="2.3210123181343079e-03" rms="2.6749175786972046e-01" purity="7.0938038825988770e-01" nType="-99"/>
          <Node pos="r" depth="2" NCoef="0" IVar="-1" Cut="0.0000000000000000e+00" cType="1" res="-4.3136169551871717e-04" rms="3.1467464566230774e-01" purity="2.7198600769042969e-01" nType="-99"/>
        </Node>
      </Node>
    </BinaryTree>
    <BinaryTree type="DecisionTree" boostWeight="1.0000000000000000e+00" itree="241">
      <Node pos="s" depth="0" NCoef="0" IVar="1" Cut="2.7709431648254395e+00" cType="1" res="6.5775915980339050e-02" rms="3.0269539356231689e-01" purity="5.0041395425796509e-01" nType="0">
        <Node pos="l" depth="1" NCoef="0" IVar="3" Cut="4.8778343200683594e+00" cType="1" res="-4.4096715748310089e-02" rms="2.8967112302780151e-01" purity="2.3074072599411011e-01" nType="0">
          <Node pos="l" depth="2" NCoef="0" IVar="-1" Cut="0.0000000000000000e+00" cType="1" res="-3.0252495780587196e-03" rms="2.4600988626480103e-01" purity="1.5700401365756989e-01" nType="-99"/>
          <Node pos="r" depth="2" NCoef="0" IVar="-1" Cut="0.0000000000000000e+00" cType="1" res="1.2336850631982088e-03" rms="3.3111268281936646e-01" purity="3.6922341585159302e-01" nType="-99"/>
        </Node>
        <Node pos="r" depth="1" NCoef="0" IVar="5" Cut="2.8874728083610535e-01" cType="1" res="1.1495728790760040e-01" rms="2.9539039731025696e-01" purity="6.2112551927566528e-01" nType="0">
          <Node pos="l" depth="2" NCoef="0" IVar="-1" Cut="0.0000000000000000e+00" cType="1" res="2.6802609208971262e-03" rms="2.4666213989257812e-01" purity="8.2231056690216064e-01" nType="-99"/>
          <Node pos="r" depth="2" NCoef="0" IVar="-1" Cut="0.0000000000000000e+00" cType="1" res="1.5444507880602032e-04" rms="3.1853887438774109e-01" purity="3.6153694987297058e-01" nType="-99"/>
        </Node>
      </Node>
    </BinaryTree>
    <BinaryTree type="DecisionTree" boostWeight="1.0000000000000000e+00" itree="242">
      <Node pos="s" depth="0" NCoef="0" IVar="5" Cut="3.0471518635749817e-01" cType="1" res="6.1718419194221497e-02" rms="2.9976087808609009e-01" purity="4.9033072590827942e-01" nType="0">
        <Node pos="l" depth="1" NCoef="0" IVar="36" Cut="1.4450289011001587e+00" cType="1" res="1.2676122784614563e-01" rms="2.7925220131874084e-01" purity="6.5755897760391235e-01" nType="0">
          <Node pos="l" depth="2" NCoef="0" IVar="-1" Cut="0.0000000000000000e+00" cType="1" res="-1.3804887421429157e-03" rms="2.7888584136962891e-01" purity="1.9028142094612122e-01" nType="-99"/>
          <Node pos="r" depth="2" NCoef="0" IVar="-1" Cut="0.0000000000000000e+00" cType="1" res="2.4706725962460041e-03" rms="2.4746495485305786e-01" purity="8.5342407226562500e-01" nType="-99"/>
        </Node>
        <Node pos="r" depth="1" NCoef="0" IVar="15" Cut="1.5219346284866333e+00" cType="1" res="-2.5000052526593208e-02" rms="3.0418443679809570e-01" purity="2.6737326383590698e-01" nType="0">
          <Node pos="l" depth="2" NCoef="0" IVar="-1" Cut="0.0000000000000000e+00" cType="1" res="-4.4879980123369023e-05" rms="2.7909371256828308e-01" purity="2.6016443967819214e-01" nType="-99"/>
          <Node pos="r" depth="2" NCoef="0" IVar="-1" Cut="0.0000000000000000e+00" cType="1" res="-3.0736934859305620e-03" rms="4.1754969954490662e-01" purity="3.2846072316169739e-01" nType="-99"/>
        </Node>
      </Node>
    </BinaryTree>
    <BinaryTree type="DecisionTree" boostWeight="1.0000000000000000e+00" itree="243">
      <Node pos="s" depth="0" NCoef="0" IVar="17" Cut="1.5231137275695801e+00" cType="1" res="5.8376278728246689e-02" rms="2.9323908686637878e-01" purity="4.8715436458587646e-01" nType="0">
        <Node pos="l" depth="1" NCoef="0" IVar="5" Cut="2.8582024574279785e-01" cType="1" res="-3.5909465514123440e-03" rms="2.8783372044563293e-01" purity="2.4945364892482758e-01" nType="0">
          <Node pos="l" depth="2" NCoef="0" IVar="-1" Cut="0.0000000000000000e+00" cType="1" res="1.4599483693018556e-03" rms="3.1754189729690552e-01" purity="4.0521046519279480e-01" nType="-99"/>
          <Node pos="r" depth="2" NCoef="0" IVar="-1" Cut="0.0000000000000000e+00" cType="1" res="-1.6458191676065326e-03" rms="2.4590434134006500e-01" purity="1.2725287675857544e-01" nType="-99"/>
        </Node>
        <Node pos="r" depth="1" NCoef="0" IVar="1" Cut="2.5640840530395508e+00" cType="1" res="1.5898364782333374e-01" rms="2.7337232232093811e-01" purity="8.7307530641555786e-01" nType="0">
          <Node pos="l" depth="2" NCoef="0" IVar="-1" Cut="0.0000000000000000e+00" cType="1" res="-9.0115109924226999e-04" rms="4.1275426745414734e-01" purity="4.9667763710021973e-01" nType="-99"/>
          <Node pos="r" depth="2" NCoef="0" IVar="-1" Cut="0.0000000000000000e+00" cType="1" res="2.2758487612009048e-03" rms="2.3801842331886292e-01" purity="9.1676121950149536e-01" nType="-99"/>
        </Node>
      </Node>
    </BinaryTree>
    <BinaryTree type="DecisionTree" boostWeight="1.0000000000000000e+00" itree="244">
      <Node pos="s" depth="0" NCoef="0" IVar="36" Cut="1.4070059061050415e+00" cType="1" res="6.3305787742137909e-02" rms="2.9361468553543091e-01" purity="4.9966371059417725e-01" nType="0">
        <Node pos="l" depth="1" NCoef="0" IVar="3" Cut="5.0193543434143066e+00" cType="1" res="-5.4001640528440475e-02" rms="2.3193091154098511e-01" purity="1.1501567810773849e-01" nType="0">
          <Node pos="l" depth="2" NCoef="0" IVar="-1" Cut="0.0000000000000000e+00" cType="1" res="-6.9451257586479187e-03" rms="1.5581427514553070e-01" purity="4.6848721802234650e-02" nType="-99"/>
          <Node pos="r" depth="2" NCoef="0" IVar="-1" Cut="0.0000000000000000e+00" cType="1" res="2.5421914178878069e-03" rms="3.2709634304046631e-01" purity="3.2192909717559814e-01" nType="-99"/>
        </Node>
        <Node pos="r" depth="1" NCoef="0" IVar="5" Cut="2.8538236021995544e-01" cType="1" res="1.0868135094642639e-01" rms="3.0227005481719971e-01" purity="6.4844900369644165e-01" nType="0">
          <Node pos="l" depth="2" NCoef="0" IVar="-1" Cut="0.0000000000000000e+00" cType="1" res="2.4076341651380062e-03" rms="2.4776926636695862e-01" purity="8.4885025024414062e-01" nType="-99"/>
          <Node pos="r" depth="2" NCoef="0" IVar="-1" Cut="0.0000000000000000e+00" cType="1" res="8.0659548984840512e-05" rms="3.3383369445800781e-01" purity="3.8769707083702087e-01" nType="-99"/>
        </Node>
      </Node>
    </BinaryTree>
    <BinaryTree type="DecisionTree" boostWeight="1.0000000000000000e+00" itree="245">
      <Node pos="s" depth="0" NCoef="0" IVar="1" Cut="2.7584252357482910e+00" cType="1" res="6.9855377078056335e-02" rms="3.0824232101440430e-01" purity="5.0299686193466187e-01" nType="0">
        <Node pos="l" depth="1" NCoef="0" IVar="3" Cut="4.8616352081298828e+00" cType="1" res="-5.2164416760206223e-02" rms="2.9006850719451904e-01" purity="2.1314249932765961e-01" nType="0">
          <Node pos="l" depth="2" NCoef="0" IVar="-1" Cut="0.0000000000000000e+00" cType="1" res="-4.0971641428768635e-03" rms="2.2349698841571808e-01" purity="1.1775822192430496e-01" nType="-99"/>
          <Node pos="r" depth="2" NCoef="0" IVar="-1" Cut="0.0000000000000000e+00" cType="1" res="1.4381408691406250e-03" rms="3.4397593140602112e-01" purity="3.8074374198913574e-01" nType="-99"/>
        </Node>
        <Node pos="r" depth="1" NCoef="0" IVar="5" Cut="2.8720191121101379e-01" cType="1" res="1.2256433814764023e-01" rms="3.0083325505256653e-01" purity="6.2820547819137573e-01" nType="0">
          <Node pos="l" depth="2" NCoef="0" IVar="-1" Cut="0.0000000000000000e+00" cType="1" res="2.7101789601147175e-03" rms="2.5136613845825195e-01" purity="8.2598471641540527e-01" nType="-99"/>
          <Node pos="r" depth="2" NCoef="0" IVar="-1" Cut="0.0000000000000000e+00" cType="1" res="4.3852874659933150e-04" rms="3.2807284593582153e-01" purity="3.8418540358543396e-01" nType="-99"/>
        </Node>
      </Node>
    </BinaryTree>
    <BinaryTree type="DecisionTree" boostWeight="1.0000000000000000e+00" itree="246">
      <Node pos="s" depth="0" NCoef="0" IVar="5" Cut="3.6013779044151306e-01" cType="1" res="5.9164773672819138e-02" rms="2.9804590344429016e-01" purity="4.9100452661514282e-01" nType="0">
        <Node pos="l" depth="1" NCoef="0" IVar="36" Cut="1.4456657171249390e+00" cType="1" res="1.1751223355531693e-01" rms="2.8100571036338806e-01" purity="6.3187229633331299e-01" nType="0">
          <Node pos="l" depth="2" NCoef="0" IVar="-1" Cut="0.0000000000000000e+00" cType="1" res="-1.0144282132387161e-03" rms="2.7861395478248596e-01" purity="2.0764468610286713e-01" nType="-99"/>
          <Node pos="r" depth="2" NCoef="0" IVar="-1" Cut="0.0000000000000000e+00" cType="1" res="2.3342457134276628e-03" rms="2.5749361515045166e-01" purity="8.1204771995544434e-01" nType="-99"/>
        </Node>
        <Node pos="r" depth="1" NCoef="0" IVar="15" Cut="1.5212173461914062e+00" cType="1" res="-5.1327075809240341e-02" rms="2.9809615015983582e-01" purity="2.2424498200416565e-01" nType="0">
          <Node pos="l" depth="2" NCoef="0" IVar="-1" Cut="0.0000000000000000e+00" cType="1" res="-5.2559020696207881e-04" rms="2.6917183399200439e-01" purity="2.1299865841865540e-01" nType="-99"/>
          <Node pos="r" depth="2" NCoef="0" IVar="-1" Cut="0.0000000000000000e+00" cType="1" res="-3.5921395756304264e-03" rms="4.0469148755073547e-01" purity="3.0510053038597107e-01" nType="-99"/>
        </Node>
      </Node>
    </BinaryTree>
    <BinaryTree type="DecisionTree" boostWeight="1.0000000000000000e+00" itree="247">
      <Node pos="s" depth="0" NCoef="0" IVar="5" Cut="2.9898047447204590e-01" cType="1" res="6.0462694615125656e-02" rms="2.9686483740806580e-01" purity="4.9287897348403931e-01" nType="0">
        <Node pos="l" depth="1" NCoef="0" IVar="36" Cut="1.4454618692398071e+00" cType="1" res="1.2382390350103378e-01" rms="2.7989035844802856e-01" purity="6.5225797891616821e-01" nType="0">
          <Node pos="l" depth="2" NCoef="0" IVar="-1" Cut="0.0000000000000000e+00" cType="1" res="-1.2113580014556646e-03" rms="2.8274649381637573e-01" purity="2.0075602829456329e-01" nType="-99"/>
          <Node pos="r" depth="2" NCoef="0" IVar="-1" Cut="0.0000000000000000e+00" cType="1" res="2.4904734455049038e-03" rms="2.4679729342460632e-01" purity="8.5491424798965454e-01" nType="-99"/>
        </Node>
        <Node pos="r" depth="1" NCoef="0" IVar="2" Cut="2.5746319293975830e+00" cType="1" res="-2.0480543375015259e-02" rms="2.9825326800346375e-01" purity="2.8927397727966309e-01" nType="0">
          <Node pos="l" depth="2" NCoef="0" IVar="-1" Cut="0.0000000000000000e+00" cType="1" res="-2.0522468257695436e-03" rms="2.5688070058822632e-01" purity="1.6449916362762451e-01" nType="-99"/>
          <Node pos="r" depth="2" NCoef="0" IVar="-1" Cut="0.0000000000000000e+00" cType="1" res="6.3796876929700375e-04" rms="3.2636424899101257e-01" purity="4.2664027214050293e-01" nType="-99"/>
        </Node>
      </Node>
    </BinaryTree>
    <BinaryTree type="DecisionTree" boostWeight="1.0000000000000000e+00" itree="248">
      <Node pos="s" depth="0" NCoef="0" IVar="1" Cut="2.7943537235260010e+00" cType="1" res="5.2737932652235031e-02" rms="2.9094946384429932e-01" purity="4.8908191919326782e-01" nType="0">
        <Node pos="l" depth="1" NCoef="0" IVar="15" Cut="1.5193979740142822e+00" cType="1" res="-6.3519112765789032e-02" rms="2.5437903404235840e-01" purity="2.0795145630836487e-01" nType="0">
          <Node pos="l" depth="2" NCoef="0" IVar="-1" Cut="0.0000000000000000e+00" cType="1" res="-7.9842907143756747e-04" rms="2.3776610195636749e-01" purity="2.2796738147735596e-01" nType="-99"/>
          <Node pos="r" depth="2" NCoef="0" IVar="-1" Cut="0.0000000000000000e+00" cType="1" res="-9.9446848034858704e-03" rms="2.3449575901031494e-01" purity="4.7333620488643646e-02" nType="-99"/>
        </Node>
        <Node pos="r" depth="1" NCoef="0" IVar="5" Cut="2.8387936949729919e-01" cType="1" res="1.0667701810598373e-01" rms="2.9107412695884705e-01" purity="6.1951637268066406e-01" nType="0">
          <Node pos="l" depth="2" NCoef="0" IVar="-1" Cut="0.0000000000000000e+00" cType="1" res="2.6399346534162760e-03" rms="2.4667891860008240e-01" purity="8.3057302236557007e-01" nType="-99"/>
          <Node pos="r" depth="2" NCoef="0" IVar="-1" Cut="0.0000000000000000e+00" cType="1" res="-9.9115811735828174e-07" rms="3.0646511912345886e-01" purity="3.5663419961929321e-01" nType="-99"/>
        </Node>
      </Node>
    </BinaryTree>
    <BinaryTree type="DecisionTree" boostWeight="1.0000000000000000e+00" itree="249">
      <Node pos="s" depth="0" NCoef="0" IVar="36" Cut="1.4460117816925049e+00" cType="1" res="6.4352959394454956e-02" rms="2.9611891508102417e-01" purity="4.9897158145904541e-01" nType="0">
        <Node pos="l" depth="1" NCoef="0" IVar="3" Cut="4.9665303230285645e+00" cType="1" res="-3.6651819944381714e-02" rms="2.6136824488639832e-01" purity="1.5545925498008728e-01" nType="0">
          <Node pos="l" depth="2" NCoef="0" IVar="-1" Cut="0.0000000000000000e+00" cType="1" res="-5.0015836022794247e-03" rms="1.8529632687568665e-01" purity="8.4915652871131897e-02" nType="-99"/>
          <Node pos="r" depth="2" NCoef="0" IVar="-1" Cut="0.0000000000000000e+00" cType="1" res="2.7733794413506985e-03" rms="3.4336048364639282e-01" purity="3.2755360007286072e-01" nType="-99"/>
        </Node>
        <Node pos="r" depth="1" NCoef="0" IVar="5" Cut="2.8315323591232300e-01" cType="1" res="1.1171481758356094e-01" rms="2.9957246780395508e-01" purity="6.6004693508148193e-01" nType="0">
          <Node pos="l" depth="2" NCoef="0" IVar="-1" Cut="0.0000000000000000e+00" cType="1" res="2.3787608370184898e-03" rms="2.3803903162479401e-01" purity="8.5680490732192993e-01" nType="-99"/>
          <Node pos="r" depth="2" NCoef="0" IVar="-1" Cut="0.0000000000000000e+00" cType="1" res="3.0503579182550311e-04" rms="3.3817204833030701e-01" purity="4.2333623766899109e-01" nType="-99"/>
        </Node>
      </Node>
    </BinaryTree>
    <BinaryTree type="DecisionTree" boostWeight="1.0000000000000000e+00" itree="250">
      <Node pos="s" depth="0" NCoef="0" IVar="17" Cut="1.5231137275695801e+00" cType="1" res="5.9813946485519409e-02" rms="2.9731732606887817e-01" purity="4.9287611246109009e-01" nType="0">
        <Node pos="l" depth="1" NCoef="0" IVar="15" Cut="1.5209717750549316e+00" cType="1" res="3.7159179337322712e-03" rms="2.9520958662033081e-01" purity="2.5974813103675842e-01" nType="0">
          <Node pos="l" depth="2" NCoef="0" IVar="-1" Cut="0.0000000000000000e+00" cType="1" res="4.5247477828525007e-04" rms="2.9051709175109863e-01" purity="2.7415964007377625e-01" nType="-99"/>
          <Node pos="r" depth="2" NCoef="0" IVar="-1" Cut="0.0000000000000000e+00" cType="1" res="-1.3121117837727070e-02" rms="2.1016520261764526e-01" purity="1.0328061878681183e-02" nType="-99"/>
        </Node>
        <Node pos="r" depth="1" NCoef="0" IVar="15" Cut="1.5221327543258667e+00" cType="1" res="1.5002185106277466e-01" rms="2.7786314487457275e-01" purity="8.6775529384613037e-01" nType="0">
          <Node pos="l" depth="2" NCoef="0" IVar="-1" Cut="0.0000000000000000e+00" cType="1" res="2.4249656125903130e-03" rms="2.1081617474555969e-01" purity="9.3207734823226929e-01" nType="-99"/>
          <Node pos="r" depth="2" NCoef="0" IVar="-1" Cut="0.0000000000000000e+00" cType="1" res="1.5080442244652659e-04" rms="4.0149185061454773e-01" purity="6.5450090169906616e-01" nType="-99"/>
        </Node>
      </Node>
    </BinaryTree>
    <BinaryTree type="DecisionTree" boostWeight="1.0000000000000000e+00" itree="251">
      <Node pos="s" depth="0" NCoef="0" IVar="36" Cut="1.2907350063323975e+00" cType="1" res="6.0976695269346237e-02" rms="2.8564971685409546e-01" purity="5.0562077760696411e-01" nType="0">
        <Node pos="l" depth="1" NCoef="0" IVar="15" Cut="1.4801180362701416e+00" cType="1" res="-8.6488768458366394e-02" rms="1.2238278239965439e-01" purity="4.9214694648981094e-02" nType="0">
          <Node pos="l" depth="2" NCoef="0" IVar="-1" Cut="0.0000000000000000e+00" cType="1" res="-3.1345523893833160e-03" rms="1.1715257167816162e-01" purity="6.0806605964899063e-02" nType="-99"/>
          <Node pos="r" depth="2" NCoef="0" IVar="-1" Cut="0.0000000000000000e+00" cType="1" res="-1.2887753546237946e-02" rms="4.8722378909587860e-02" purity="7.4278167448937893e-03" nType="-99"/>
        </Node>
        <Node pos="r" depth="1" NCoef="0" IVar="5" Cut="2.8817817568778992e-01" cType="1" res="1.0245367884635925e-01" rms="3.0413225293159485e-01" purity="6.3399207592010498e-01" nType="0">
          <Node pos="l" depth="2" NCoef="0" IVar="-1" Cut="0.0000000000000000e+00" cType="1" res="2.3278542794287205e-03" rms="2.5593742728233337e-01" purity="8.2293653488159180e-01" nType="-99"/>
          <Node pos="r" depth="2" NCoef="0" IVar="-1" Cut="0.0000000000000000e+00" cType="1" res="6.8568435381166637e-05" rms="3.3252310752868652e-01" purity="3.8845959305763245e-01" nType="-99"/>
        </Node>
      </Node>
    </BinaryTree>
    <BinaryTree type="DecisionTree" boostWeight="1.0000000000000000e+00" itree="252">
      <Node pos="s" depth="0" NCoef="0" IVar="36" Cut="1.1747674942016602e+00" cType="1" res="6.4367294311523438e-02" rms="2.9325920343399048e-01" purity="5.0493538379669189e-01" nType="0">
        <Node pos="l" depth="1" NCoef="0" IVar="13" Cut="1.2815860509872437e+00" cType="1" res="-1.0014472901821136e-01" rms="3.0704895034432411e-02" purity="1.5713751316070557e-02" nType="0">
          <Node pos="l" depth="2" NCoef="0" IVar="-1" Cut="0.0000000000000000e+00" cType="1" res="-5.8111860416829586e-03" rms="0.0000000000000000e+00" purity="1.5032971277832985e-02" nType="-99"/>
          <Node pos="r" depth="2" NCoef="0" IVar="-1" Cut="0.0000000000000000e+00" cType="1" res="-8.9496532455086708e-03" rms="0.0000000000000000e+00" purity="1.6142537817358971e-02" nType="-99"/>
        </Node>
        <Node pos="r" depth="1" NCoef="0" IVar="5" Cut="2.8294801712036133e-01" cType="1" res="1.0385017096996307e-01" rms="3.1362494826316833e-01" purity="6.2234842777252197e-01" nType="0">
          <Node pos="l" depth="2" NCoef="0" IVar="-1" Cut="0.0000000000000000e+00" cType="1" res="2.3581134155392647e-03" rms="2.7597531676292419e-01" purity="8.0753517150878906e-01" nType="-99"/>
          <Node pos="r" depth="2" NCoef="0" IVar="-1" Cut="0.0000000000000000e+00" cType="1" res="1.9223989511374384e-04" rms="3.3317440748214722e-01" purity="3.9057201147079468e-01" nType="-99"/>
        </Node>
      </Node>
    </BinaryTree>
    <BinaryTree type="DecisionTree" boostWeight="1.0000000000000000e+00" itree="253">
      <Node pos="s" depth="0" NCoef="0" IVar="1" Cut="2.7706077098846436e+00" cType="1" res="6.3330031931400299e-02" rms="2.8910055756568909e-01" purity="5.0837439298629761e-01" nType="0">
        <Node pos="l" depth="1" NCoef="0" IVar="3" Cut="4.7531938552856445e+00" cType="1" res="-5.0993315875530243e-02" rms="2.6840507984161377e-01" purity="2.0988033711910248e-01" nType="0">
          <Node pos="l" depth="2" NCoef="0" IVar="-1" Cut="0.0000000000000000e+00" cType="1" res="-4.8743230290710926e-03" rms="1.9719223678112030e-01" purity="9.3580693006515503e-02" nType="-99"/>
          <Node pos="r" depth="2" NCoef="0" IVar="-1" Cut="0.0000000000000000e+00" cType="1" res="6.2955816974863410e-04" rms="3.0748885869979858e-01" purity="3.3556267619132996e-01" nType="-99"/>
        </Node>
        <Node pos="r" depth="1" NCoef="0" IVar="5" Cut="3.0299681425094604e-01" cType="1" res="1.1192691326141357e-01" rms="2.8384196758270264e-01" purity="6.3525903224945068e-01" nType="0">
          <Node pos="l" depth="2" NCoef="0" IVar="-1" Cut="0.0000000000000000e+00" cType="1" res="2.5644514244049788e-03" rms="2.3994511365890503e-01" purity="8.2148623466491699e-01" nType="-99"/>
          <Node pos="r" depth="2" NCoef="0" IVar="-1" Cut="0.0000000000000000e+00" cType="1" res="9.8566371889319271e-05" rms="3.0671483278274536e-01" purity="3.7084695696830750e-01" nType="-99"/>
        </Node>
      </Node>
    </BinaryTree>
    <BinaryTree type="DecisionTree" boostWeight="1.0000000000000000e+00" itree="254">
      <Node pos="s" depth="0" NCoef="0" IVar="17" Cut="1.5220416784286499e+00" cType="1" res="5.8081440627574921e-02" rms="2.9058602452278137e-01" purity="4.9582582712173462e-01" nType="0">
        <Node pos="l" depth="1" NCoef="0" IVar="36" Cut="1.2913550138473511e+00" cType="1" res="-4.0024966001510620e-03" rms="2.8776693344116211e-01" purity="2.4678330123424530e-01" nType="0">
          <Node pos="l" depth="2" NCoef="0" IVar="-1" Cut="0.0000000000000000e+00" cType="1" res="-8.5050668567419052e-03" rms="5.8537337929010391e-02" purity="2.4208391550928354e-03" nType="-99"/>
          <Node pos="r" depth="2" NCoef="0" IVar="-1" Cut="0.0000000000000000e+00" cType="1" res="5.5743794655427337e-04" rms="3.3961132168769836e-01" purity="3.6052617430686951e-01" nType="-99"/>
        </Node>
        <Node pos="r" depth="1" NCoef="0" IVar="15" Cut="1.5224975347518921e+00" cType="1" res="1.5274247527122498e-01" rms="2.6849308609962463e-01" purity="8.7554758787155151e-01" nType="0">
          <Node pos="l" depth="2" NCoef="0" IVar="-1" Cut="0.0000000000000000e+00" cType="1" res="2.4226326495409012e-03" rms="1.9980670511722565e-01" purity="9.3775230646133423e-01" nType="-99"/>
          <Node pos="r" depth="2" NCoef="0" IVar="-1" Cut="0.0000000000000000e+00" cType="1" res="1.9108514243271202e-04" rms="4.0228608250617981e-01" purity="6.5533918142318726e-01" nType="-99"/>
        </Node>
      </Node>
    </BinaryTree>
    <BinaryTree type="DecisionTree" boostWeight="1.0000000000000000e+00" itree="255">
      <Node pos="s" depth="0" NCoef="0" IVar="17" Cut="1.4444003105163574e+00" cType="1" res="5.3461913019418716e-02" rms="2.8381469845771790e-01" purity="4.8761576414108276e-01" nType="0">
        <Node pos="l" depth="1" NCoef="0" IVar="31" Cut="3.5915071964263916e+00" cType="1" res="-5.7019900530576706e-02" rms="6.8131245672702789e-02" purity="1.1147232726216316e-02" nType="0">
          <Node pos="l" depth="2" NCoef="0" IVar="-1" Cut="0.0000000000000000e+00" cType="1" res="-4.9720569513738155e-03" rms="1.2037398666143417e-01" purity="2.2015113383531570e-02" nType="-99"/>
          <Node pos="r" depth="2" NCoef="0" IVar="-1" Cut="0.0000000000000000e+00" cType="1" res="-2.5664672255516052e-02" rms="0.0000000000000000e+00" purity="-1.3592025637626648e-01" nType="-99"/>
        </Node>
        <Node pos="r" depth="1" NCoef="0" IVar="27" Cut="1.3140424489974976e+00" cType="1" res="1.1478233337402344e-01" rms="3.3488404750823975e-01" purity="7.5206881761550903e-01" nType="0">
          <Node pos="l" depth="2" NCoef="0" IVar="-1" Cut="0.0000000000000000e+00" cType="1" res="-1.9071653950959444e-03" rms="3.2591134309768677e-01" purity="3.7608334422111511e-01" nType="-99"/>
          <Node pos="r" depth="2" NCoef="0" IVar="-1" Cut="0.0000000000000000e+00" cType="1" res="1.6309417551383376e-03" rms="3.2469236850738525e-01" purity="8.0158573389053345e-01" nType="-99"/>
        </Node>
      </Node>
    </BinaryTree>
    <BinaryTree type="DecisionTree" boostWeight="1.0000000000000000e+00" itree="256">
      <Node pos="s" depth="0" NCoef="0" IVar="17" Cut="1.5220416784286499e+00" cType="1" res="6.1160601675510406e-02" rms="2.8862348198890686e-01" purity="5.0550347566604614e-01" nType="0">
        <Node pos="l" depth="1" NCoef="0" IVar="5" Cut="2.4372418224811554e-01" cType="1" res="-4.4737141579389572e-03" rms="2.8450110554695129e-01" purity="2.4947954714298248e-01" nType="0">
          <Node pos="l" depth="2" NCoef="0" IVar="-1" Cut="0.0000000000000000e+00" cType="1" res="1.6669586766511202e-03" rms="3.2326474785804749e-01" purity="4.1757810115814209e-01" nType="-99"/>
          <Node pos="r" depth="2" NCoef="0" IVar="-1" Cut="0.0000000000000000e+00" cType="1" res="-1.7132080392912030e-03" rms="2.3476988077163696e-01" purity="1.3027010858058929e-01" nType="-99"/>
        </Node>
        <Node pos="r" depth="1" NCoef="0" IVar="31" Cut="2.6451020240783691e+00" cType="1" res="1.5650869905948639e-01" rms="2.6718229055404663e-01" purity="8.7743383646011353e-01" nType="0">
          <Node pos="l" depth="2" NCoef="0" IVar="-1" Cut="0.0000000000000000e+00" cType="1" res="-1.5777196967974305e-03" rms="3.5338944196701050e-01" purity="4.8304185271263123e-01" nType="-99"/>
          <Node pos="r" depth="2" NCoef="0" IVar="-1" Cut="0.0000000000000000e+00" cType="1" res="2.1377131342887878e-03" rms="2.5003352761268616e-01" purity="9.0756225585937500e-01" nType="-99"/>
        </Node>
      </Node>
    </BinaryTree>
    <BinaryTree type="DecisionTree" boostWeight="1.0000000000000000e+00" itree="257">
      <Node pos="s" depth="0" NCoef="0" IVar="5" Cut="3.4026998281478882e-01" cType="1" res="6.2773495912551880e-02" rms="2.9760581254959106e-01" purity="4.9903187155723572e-01" nType="0">
        <Node pos="l" depth="1" NCoef="0" IVar="36" Cut="1.3681474924087524e+00" cType="1" res="1.1833880841732025e-01" rms="2.7303460240364075e-01" purity="6.4734011888504028e-01" nType="0">
          <Node pos="l" depth="2" NCoef="0" IVar="-1" Cut="0.0000000000000000e+00" cType="1" res="-3.4680969547480345e-03" rms="2.1333163976669312e-01" purity="9.3640550971031189e-02" nType="-99"/>
          <Node pos="r" depth="2" NCoef="0" IVar="-1" Cut="0.0000000000000000e+00" cType="1" res="2.3343460634350777e-03" rms="2.6345032453536987e-01" purity="8.1231909990310669e-01" nType="-99"/>
        </Node>
        <Node pos="r" depth="1" NCoef="0" IVar="2" Cut="2.2608661651611328e+00" cType="1" res="-3.3466529101133347e-02" rms="3.1344002485275269e-01" purity="2.4215947091579437e-01" nType="0">
          <Node pos="l" depth="2" NCoef="0" IVar="-1" Cut="0.0000000000000000e+00" cType="1" res="-4.0737837553024292e-03" rms="2.5803974270820618e-01" purity="9.2412672936916351e-02" nType="-99"/>
          <Node pos="r" depth="2" NCoef="0" IVar="-1" Cut="0.0000000000000000e+00" cType="1" res="1.1459973757155240e-04" rms="3.3630681037902832e-01" purity="3.3306962251663208e-01" nType="-99"/>
        </Node>
      </Node>
    </BinaryTree>
    <BinaryTree type="DecisionTree" boostWeight="1.0000000000000000e+00" itree="258">
      <Node pos="s" depth="0" NCoef="0" IVar="48" Cut="1.0170620679855347e+00" cType="1" res="5.5711533874273300e-02" rms="2.8719818592071533e-01" purity="4.9649497866630554e-01" nType="0">
        <Node pos="l" depth="1" NCoef="0" IVar="15" Cut="1.3647391796112061e+00" cType="1" res="-1.4866714179515839e-01" rms="1.7514832317829132e-01" purity="7.3156967759132385e-02" nType="0">
          <Node pos="l" depth="2" NCoef="0" IVar="-1" Cut="0.0000000000000000e+00" cType="1" res="-2.9433493036776781e-03" rms="1.5932446718215942e-01" purity="6.1332982033491135e-02" nType="-99"/>
          <Node pos="r" depth="2" NCoef="0" IVar="-1" Cut="0.0000000000000000e+00" cType="1" res="-4.4972477480769157e-03" rms="1.1238483339548111e-01" purity="9.3074358999729156e-02" nType="-99"/>
        </Node>
        <Node pos="r" depth="1" NCoef="0" IVar="5" Cut="3.5801371932029724e-01" cType="1" res="8.4068216383457184e-02" rms="2.8822046518325806e-01" purity="5.5523139238357544e-01" nType="0">
          <Node pos="l" depth="2" NCoef="0" IVar="-1" Cut="0.0000000000000000e+00" cType="1" res="2.1858259569853544e-03" rms="2.5377488136291504e-01" purity="7.0709735155105591e-01" nType="-99"/>
          <Node pos="r" depth="2" NCoef="0" IVar="-1" Cut="0.0000000000000000e+00" cType="1" res="-3.5885054967366159e-04" rms="3.1575933098793030e-01" purity="2.8543645143508911e-01" nType="-99"/>
        </Node>
      </Node>
    </BinaryTree>
    <BinaryTree type="DecisionTree" boostWeight="1.0000000000000000e+00" itree="259">
      <Node pos="s" depth="0" NCoef="0" IVar="5" Cut="3.0042701959609985e-01" cType="1" res="5.7418745011091232e-02" rms="2.9212278127670288e-01" purity="4.9155274033546448e-01" nType="0">
        <Node pos="l" depth="1" NCoef="0" IVar="48" Cut="1.7438033819198608e+00" cType="1" res="1.2032993882894516e-01" rms="2.7226492762565613e-01" purity="6.5728724002838135e-01" nType="0">
          <Node pos="l" depth="2" NCoef="0" IVar="-1" Cut="0.0000000000000000e+00" cType="1" res="-2.4801716790534556e-04" rms="2.9137149453163147e-01" purity="3.5491597652435303e-01" nType="-99"/>
          <Node pos="r" depth="2" NCoef="0" IVar="-1" Cut="0.0000000000000000e+00" cType="1" res="2.7378175873309374e-03" rms="2.3183909058570862e-01" purity="8.2000339031219482e-01" nType="-99"/>
        </Node>
        <Node pos="r" depth="1" NCoef="0" IVar="2" Cut="2.5246231555938721e+00" cType="1" res="-2.6977932080626488e-02" rms="2.9654431343078613e-01" purity="2.6921647787094116e-01" nType="0">
          <Node pos="l" depth="2" NCoef="0" IVar="-1" Cut="0.0000000000000000e+00" cType="1" res="-3.3097418490797281e-03" rms="2.0294730365276337e-01" purity="1.0800366103649139e-01" nType="-99"/>
          <Node pos="r" depth="2" NCoef="0" IVar="-1" Cut="0.0000000000000000e+00" cType="1" res="7.8049796866253018e-04" rms="3.4758779406547546e-01" purity="4.2733979225158691e-01" nType="-99"/>
        </Node>
      </Node>
    </BinaryTree>
    <BinaryTree type="DecisionTree" boostWeight="1.0000000000000000e+00" itree="260">
      <Node pos="s" depth="0" NCoef="0" IVar="48" Cut="1.1159363985061646e+00" cType="1" res="5.9349481016397476e-02" rms="2.9323729872703552e-01" purity="4.9895861744880676e-01" nType="0">
        <Node pos="l" depth="1" NCoef="0" IVar="52" Cut="2.4487938880920410e+00" cType="1" res="-1.2579503655433655e-01" rms="1.9229657948017120e-01" purity="1.1890389770269394e-01" nType="0">
          <Node pos="l" depth="2" NCoef="0" IVar="-1" Cut="0.0000000000000000e+00" cType="1" res="-6.6304458305239677e-03" rms="0.0000000000000000e+00" purity="-1.4728104695677757e-02" nType="-99"/>
          <Node pos="r" depth="2" NCoef="0" IVar="-1" Cut="0.0000000000000000e+00" cType="1" res="-1.1284300126135349e-03" rms="2.8922611474990845e-01" purity="2.2434546053409576e-01" nType="-99"/>
        </Node>
        <Node pos="r" depth="1" NCoef="0" IVar="5" Cut="3.4353548288345337e-01" cType="1" res="9.0985469520092010e-02" rms="2.9581162333488464e-01" purity="5.6389933824539185e-01" nType="0">
          <Node pos="l" depth="2" NCoef="0" IVar="-1" Cut="0.0000000000000000e+00" cType="1" res="2.4204326327890158e-03" rms="2.6265674829483032e-01" purity="7.3654276132583618e-01" nType="-99"/>
          <Node pos="r" depth="2" NCoef="0" IVar="-1" Cut="0.0000000000000000e+00" cType="1" res="-3.8877091719768941e-04" rms="3.1288328766822815e-01" purity="2.8250694274902344e-01" nType="-99"/>
        </Node>
      </Node>
    </BinaryTree>
    <BinaryTree type="DecisionTree" boostWeight="1.0000000000000000e+00" itree="261">
      <Node pos="s" depth="0" NCoef="0" IVar="36" Cut="1.4068046808242798e+00" cType="1" res="6.0380287468433380e-02" rms="2.9711389541625977e-01" purity="4.9713888764381409e-01" nType="0">
        <Node pos="l" depth="1" NCoef="0" IVar="3" Cut="4.9419260025024414e+00" cType="1" res="-5.6586708873510361e-02" rms="2.1792167425155640e-01" purity="1.0008640587329865e-01" nType="0">
          <Node pos="l" depth="2" NCoef="0" IVar="-1" Cut="0.0000000000000000e+00" cType="1" res="-7.9466709867119789e-03" rms="1.4906415343284607e-01" purity="3.8250282406806946e-02" nType="-99"/>
          <Node pos="r" depth="2" NCoef="0" IVar="-1" Cut="0.0000000000000000e+00" cType="1" res="1.5736228087916970e-03" rms="2.9769751429557800e-01" purity="2.4886575341224670e-01" nType="-99"/>
        </Node>
        <Node pos="r" depth="1" NCoef="0" IVar="5" Cut="3.4180912375450134e-01" cType="1" res="1.0463478416204453e-01" rms="3.1076291203498840e-01" purity="6.4736372232437134e-01" nType="0">
          <Node pos="l" depth="2" NCoef="0" IVar="-1" Cut="0.0000000000000000e+00" cType="1" res="2.3603227455168962e-03" rms="2.6262751221656799e-01" purity="8.1364643573760986e-01" nType="-99"/>
          <Node pos="r" depth="2" NCoef="0" IVar="-1" Cut="0.0000000000000000e+00" cType="1" res="-4.2666768422350287e-04" rms="3.4918069839477539e-01" purity="3.3458450436592102e-01" nType="-99"/>
        </Node>
      </Node>
    </BinaryTree>
    <BinaryTree type="DecisionTree" boostWeight="1.0000000000000000e+00" itree="262">
      <Node pos="s" depth="0" NCoef="0" IVar="36" Cut="1.4073475599288940e+00" cType="1" res="6.4830511808395386e-02" rms="2.9639473557472229e-01" purity="5.0355261564254761e-01" nType="0">
        <Node pos="l" depth="1" NCoef="0" IVar="3" Cut="4.9008350372314453e+00" cType="1" res="-4.3857190757989883e-02" rms="2.3326158523559570e-01" purity="1.1983709782361984e-01" nType="0">
          <Node pos="l" depth="2" NCoef="0" IVar="-1" Cut="0.0000000000000000e+00" cType="1" res="-6.6483244299888611e-03" rms="1.8297994136810303e-01" purity="5.0151165574789047e-02" nType="-99"/>
          <Node pos="r" depth="2" NCoef="0" IVar="-1" Cut="0.0000000000000000e+00" cType="1" res="1.4724042266607285e-03" rms="2.8617724776268005e-01" purity="2.6495614647865295e-01" nType="-99"/>
        </Node>
        <Node pos="r" depth="1" NCoef="0" IVar="5" Cut="2.8436622023582458e-01" cType="1" res="1.0609135776758194e-01" rms="3.0717608332633972e-01" purity="6.4922153949737549e-01" nType="0">
          <Node pos="l" depth="2" NCoef="0" IVar="-1" Cut="0.0000000000000000e+00" cType="1" res="2.4073084350675344e-03" rms="2.5092342495918274e-01" purity="8.4973841905593872e-01" nType="-99"/>
          <Node pos="r" depth="2" NCoef="0" IVar="-1" Cut="0.0000000000000000e+00" cType="1" res="1.3977002527099103e-04" rms="3.4131246805191040e-01" purity="3.9980787038803101e-01" nType="-99"/>
        </Node>
      </Node>
    </BinaryTree>
    <BinaryTree type="DecisionTree" boostWeight="1.0000000000000000e+00" itree="263">
      <Node pos="s" depth="0" NCoef="0" IVar="17" Cut="1.3684681653976440e+00" cType="1" res="6.1950158327817917e-02" rms="2.8644588589668274e-01" purity="5.0700050592422485e-01" nType="0">
        <Node pos="l" depth="1" NCoef="0" IVar="25" Cut="1.0729643106460571e+00" cType="1" res="-1.1579406447708607e-02" rms="0.0000000000000000e+00" purity="-1.9327052868902683e-03" nType="-99"/>
        <Node pos="r" depth="1" NCoef="0" IVar="2" Cut="1.4883774518966675e+00" cType="1" res="1.1051944643259048e-01" rms="3.3064949512481689e-01" purity="7.1696782112121582e-01" nType="0">
          <Node pos="l" depth="2" NCoef="0" IVar="-1" Cut="0.0000000000000000e+00" cType="1" res="-6.2010814435780048e-03" rms="2.4213121831417084e-01" purity="1.7729392647743225e-01" nType="-99"/>
          <Node pos="r" depth="2" NCoef="0" IVar="-1" Cut="0.0000000000000000e+00" cType="1" res="1.5761440154165030e-03" rms="3.2404491305351257e-01" purity="7.4796640872955322e-01" nType="-99"/>
        </Node>
      </Node>
    </BinaryTree>
    <BinaryTree type="DecisionTree" boostWeight="1.0000000000000000e+00" itree="264">
      <Node pos="s" depth="0" NCoef="0" IVar="1" Cut="2.8984775543212891e+00" cType="1" res="6.1802569776773453e-02" rms="2.9539114236831665e-01" purity="5.0172829627990723e-01" nType="0">
        <Node pos="l" depth="1" NCoef="0" IVar="3" Cut="4.7808904647827148e+00" cType="1" res="-2.4336567148566246e-02" rms="2.9186916351318359e-01" purity="2.7009677886962891e-01" nType="0">
          <Node pos="l" depth="2" NCoef="0" IVar="-1" Cut="0.0000000000000000e+00" cType="1" res="-3.1145333778113127e-03" rms="2.4222795665264130e-01" purity="1.5034762024879456e-01" nType="-99"/>
          <Node pos="r" depth="2" NCoef="0" IVar="-1" Cut="0.0000000000000000e+00" cType="1" res="1.1814697645604610e-03" rms="3.1905871629714966e-01" purity="4.1099637746810913e-01" nType="-99"/>
        </Node>
        <Node pos="r" depth="1" NCoef="0" IVar="5" Cut="2.8716447949409485e-01" cType="1" res="1.1281488090753555e-01" rms="2.8545469045639038e-01" purity="6.3890242576599121e-01" nType="0">
          <Node pos="l" depth="2" NCoef="0" IVar="-1" Cut="0.0000000000000000e+00" cType="1" res="2.6315022259950638e-03" rms="2.2817142307758331e-01" purity="8.4238970279693604e-01" nType="-99"/>
          <Node pos="r" depth="2" NCoef="0" IVar="-1" Cut="0.0000000000000000e+00" cType="1" res="3.7090052501298487e-04" rms="3.1921759247779846e-01" purity="3.9387872815132141e-01" nType="-99"/>
        </Node>
      </Node>
    </BinaryTree>
    <BinaryTree type="DecisionTree" boostWeight="1.0000000000000000e+00" itree="265">
      <Node pos="s" depth="0" NCoef="0" IVar="36" Cut="1.4456657171249390e+00" cType="1" res="6.1593640595674515e-02" rms="2.9578375816345215e-01" purity="5.0239753723144531e-01" nType="0">
        <Node pos="l" depth="1" NCoef="0" IVar="3" Cut="4.9876976013183594e+00" cType="1" res="-4.2142897844314575e-02" rms="2.4493436515331268e-01" purity="1.5307828783988953e-01" nType="0">
          <Node pos="l" depth="2" NCoef="0" IVar="-1" Cut="0.0000000000000000e+00" cType="1" res="-4.5286407694220543e-03" rms="1.9810748100280762e-01" purity="9.3540847301483154e-02" nType="-99"/>
          <Node pos="r" depth="2" NCoef="0" IVar="-1" Cut="0.0000000000000000e+00" cType="1" res="2.0311796106398106e-03" rms="3.0697020888328552e-01" purity="3.1947612762451172e-01" nType="-99"/>
        </Node>
        <Node pos="r" depth="1" NCoef="0" IVar="5" Cut="3.0389732122421265e-01" cType="1" res="1.0858689248561859e-01" rms="3.0472975969314575e-01" purity="6.6064119338989258e-01" nType="0">
          <Node pos="l" depth="2" NCoef="0" IVar="-1" Cut="0.0000000000000000e+00" cType="1" res="2.4237798061221838e-03" rms="2.5288501381874084e-01" purity="8.4843713045120239e-01" nType="-99"/>
          <Node pos="r" depth="2" NCoef="0" IVar="-1" Cut="0.0000000000000000e+00" cType="1" res="8.2075028331018984e-05" rms="3.4114524722099304e-01" purity="3.9046368002891541e-01" nType="-99"/>
        </Node>
      </Node>
    </BinaryTree>
    <BinaryTree type="DecisionTree" boostWeight="1.0000000000000000e+00" itree="266">
      <Node pos="s" depth="0" NCoef="0" IVar="1" Cut="2.7724385261535645e+00" cType="1" res="6.3803024590015411e-02" rms="2.8966841101646423e-01" purity="5.0511932373046875e-01" nType="0">
        <Node pos="l" depth="1" NCoef="0" IVar="3" Cut="4.8125939369201660e+00" cType="1" res="-4.0698096156120300e-02" rms="2.6085227727890015e-01" purity="2.3223119974136353e-01" nType="0">
          <Node pos="l" depth="2" NCoef="0" IVar="-1" Cut="0.0000000000000000e+00" cType="1" res="-3.7143141962587833e-03" rms="2.1950900554656982e-01" purity="1.2254237383604050e-01" nType="-99"/>
          <Node pos="r" depth="2" NCoef="0" IVar="-1" Cut="0.0000000000000000e+00" cType="1" res="9.2422612942755222e-04" rms="2.8517213463783264e-01" purity="3.8444226980209351e-01" nType="-99"/>
        </Node>
        <Node pos="r" depth="1" NCoef="0" IVar="17" Cut="1.4049311876296997e+00" cType="1" res="1.1094093322753906e-01" rms="2.8968200087547302e-01" purity="6.2821251153945923e-01" nType="0">
          <Node pos="l" depth="2" NCoef="0" IVar="-1" Cut="0.0000000000000000e+00" cType="1" res="-3.4093512222170830e-03" rms="1.7581421136856079e-01" purity="3.7884760648012161e-02" nType="-99"/>
          <Node pos="r" depth="2" NCoef="0" IVar="-1" Cut="0.0000000000000000e+00" cType="1" res="1.8322785617783666e-03" rms="3.0508983135223389e-01" purity="8.1983077526092529e-01" nType="-99"/>
        </Node>
      </Node>
    </BinaryTree>
    <BinaryTree type="DecisionTree" boostWeight="1.0000000000000000e+00" itree="267">
      <Node pos="s" depth="0" NCoef="0" IVar="17" Cut="1.4071296453475952e+00" cType="1" res="6.4754508435726166e-02" rms="2.8926149010658264e-01" purity="5.0684684514999390e-01" nType="0">
        <Node pos="l" depth="1" NCoef="0" IVar="48" Cut="2.4133870601654053e+00" cType="1" res="-5.0872310996055603e-02" rms="4.2334146797657013e-02" purity="5.4723401553928852e-03" nType="0">
          <Node pos="l" depth="2" NCoef="0" IVar="-1" Cut="0.0000000000000000e+00" cType="1" res="-1.3072948902845383e-02" rms="0.0000000000000000e+00" purity="-1.8418386578559875e-02" nType="-99"/>
          <Node pos="r" depth="2" NCoef="0" IVar="-1" Cut="0.0000000000000000e+00" cType="1" res="-1.0552055900916457e-03" rms="2.1052779257297516e-01" purity="5.5554505437612534e-02" nType="-99"/>
        </Node>
        <Node pos="r" depth="1" NCoef="0" IVar="2" Cut="2.0247490406036377e+00" cType="1" res="1.1776588112115860e-01" rms="3.3507007360458374e-01" purity="7.3671174049377441e-01" nType="0">
          <Node pos="l" depth="2" NCoef="0" IVar="-1" Cut="0.0000000000000000e+00" cType="1" res="-8.5955183021724224e-04" rms="3.7656670808792114e-01" purity="4.3264687061309814e-01" nType="-99"/>
          <Node pos="r" depth="2" NCoef="0" IVar="-1" Cut="0.0000000000000000e+00" cType="1" res="1.7939337994903326e-03" rms="3.1159257888793945e-01" purity="8.0775314569473267e-01" nType="-99"/>
        </Node>
      </Node>
    </BinaryTree>
    <BinaryTree type="DecisionTree" boostWeight="1.0000000000000000e+00" itree="268">
      <Node pos="s" depth="0" NCoef="0" IVar="27" Cut="1.6713253259658813e+00" cType="1" res="6.6129788756370544e-02" rms="2.9753762483596802e-01" purity="5.1056921482086182e-01" nType="0">
        <Node pos="l" depth="1" NCoef="0" IVar="3" Cut="4.7808904647827148e+00" cType="1" res="-6.1087872833013535e-02" rms="2.5094351172447205e-01" purity="2.2504243254661560e-01" nType="0">
          <Node pos="l" depth="2" NCoef="0" IVar="-1" Cut="0.0000000000000000e+00" cType="1" res="-5.1808296702802181e-03" rms="2.0445190370082855e-01" purity="1.1374069005250931e-01" nType="-99"/>
          <Node pos="r" depth="2" NCoef="0" IVar="-1" Cut="0.0000000000000000e+00" cType="1" res="5.9371901443228126e-04" rms="2.7814882993698120e-01" purity="3.7738600373268127e-01" nType="-99"/>
        </Node>
        <Node pos="r" depth="1" NCoef="0" IVar="5" Cut="3.4346985816955566e-01" cType="1" res="1.0328128188848495e-01" rms="2.9980865120887756e-01" purity="5.9395182132720947e-01" nType="0">
          <Node pos="l" depth="2" NCoef="0" IVar="-1" Cut="0.0000000000000000e+00" cType="1" res="2.4294655304402113e-03" rms="2.5357648730278015e-01" purity="7.7996158599853516e-01" nType="-99"/>
          <Node pos="r" depth="2" NCoef="0" IVar="-1" Cut="0.0000000000000000e+00" cType="1" res="5.9425696235848591e-05" rms="3.3367991447448730e-01" purity="3.1630435585975647e-01" nType="-99"/>
        </Node>
      </Node>
    </BinaryTree>
    <BinaryTree type="DecisionTree" boostWeight="1.0000000000000000e+00" itree="269">
      <Node pos="s" depth="0" NCoef="0" IVar="17" Cut="1.4830439090728760e+00" cType="1" res="6.2951847910881042e-02" rms="2.9136109352111816e-01" purity="5.0887799263000488e-01" nType="0">
        <Node pos="l" depth="1" NCoef="0" IVar="60" Cut="-1.2129199504852295e+00" cType="1" res="-1.3678191229701042e-02" rms="2.3325182497501373e-01" purity="1.0068128257989883e-01" nType="0">
          <Node pos="l" depth="2" NCoef="0" IVar="-1" Cut="0.0000000000000000e+00" cType="1" res="7.5769110117107630e-04" rms="2.7614393830299377e-01" purity="1.3967427611351013e-01" nType="-99"/>
          <Node pos="r" depth="2" NCoef="0" IVar="-1" Cut="0.0000000000000000e+00" cType="1" res="-1.0453550145030022e-02" rms="0.0000000000000000e+00" purity="-4.7492314130067825e-02" nType="-99"/>
        </Node>
        <Node pos="r" depth="1" NCoef="0" IVar="15" Cut="1.5209704637527466e+00" cType="1" res="1.1798156797885895e-01" rms="3.1549635529518127e-01" purity="8.0201303958892822e-01" nType="0">
          <Node pos="l" depth="2" NCoef="0" IVar="-1" Cut="0.0000000000000000e+00" cType="1" res="1.8510232912376523e-03" rms="2.7821552753448486e-01" purity="8.5665655136108398e-01" nType="-99"/>
          <Node pos="r" depth="2" NCoef="0" IVar="-1" Cut="0.0000000000000000e+00" cType="1" res="-1.1515564983710647e-03" rms="3.9972427487373352e-01" purity="5.3452342748641968e-01" nType="-99"/>
        </Node>
      </Node>
    </BinaryTree>
    <BinaryTree type="DecisionTree" boostWeight="1.0000000000000000e+00" itree="270">
      <Node pos="s" depth="0" NCoef="0" IVar="17" Cut="1.5220416784286499e+00" cType="1" res="5.9160456061363220e-02" rms="2.8609547019004822e-01" purity="5.0455480813980103e-01" nType="0">
        <Node pos="l" depth="1" NCoef="0" IVar="2" Cut="2.4082691669464111e+00" cType="1" res="5.8678491041064262e-03" rms="2.8609001636505127e-01" purity="2.6615151762962341e-01" nType="0">
          <Node pos="l" depth="2" NCoef="0" IVar="-1" Cut="0.0000000000000000e+00" cType="1" res="-1.8662709044292569e-03" rms="2.3715132474899292e-01" purity="1.2323100864887238e-01" nType="-99"/>
          <Node pos="r" depth="2" NCoef="0" IVar="-1" Cut="0.0000000000000000e+00" cType="1" res="1.0720895370468497e-03" rms="3.1843453645706177e-01" purity="4.1337224841117859e-01" nType="-99"/>
        </Node>
        <Node pos="r" depth="1" NCoef="0" IVar="15" Cut="1.5221256017684937e+00" cType="1" res="1.4195674657821655e-01" rms="2.6568371057510376e-01" purity="8.7494212388992310e-01" nType="0">
          <Node pos="l" depth="2" NCoef="0" IVar="-1" Cut="0.0000000000000000e+00" cType="1" res="2.3132420610636473e-03" rms="1.9881929457187653e-01" purity="9.3584543466567993e-01" nType="-99"/>
          <Node pos="r" depth="2" NCoef="0" IVar="-1" Cut="0.0000000000000000e+00" cType="1" res="-1.4797183393966407e-04" rms="4.0507286787033081e-01" purity="6.3331556320190430e-01" nType="-99"/>
        </Node>
      </Node>
    </BinaryTree>
    <BinaryTree type="DecisionTree" boostWeight="1.0000000000000000e+00" itree="271">
      <Node pos="s" depth="0" NCoef="0" IVar="17" Cut="1.5231137275695801e+00" cType="1" res="6.0788113623857498e-02" rms="2.8863218426704407e-01" purity="5.0387597084045410e-01" nType="0">
        <Node pos="l" depth="1" NCoef="0" IVar="2" Cut="2.4427905082702637e+00" cType="1" res="4.3433560058474541e-03" rms="2.8950488567352295e-01" purity="2.6373505592346191e-01" nType="0">
          <Node pos="l" depth="2" NCoef="0" IVar="-1" Cut="0.0000000000000000e+00" cType="1" res="-1.8299891380593181e-03" rms="2.2821794450283051e-01" purity="1.3699604570865631e-01" nType="-99"/>
          <Node pos="r" depth="2" NCoef="0" IVar="-1" Cut="0.0000000000000000e+00" cType="1" res="1.1766869574785233e-03" rms="3.3553576469421387e-01" purity="4.1171151399612427e-01" nType="-99"/>
        </Node>
        <Node pos="r" depth="1" NCoef="0" IVar="15" Cut="1.5230776071548462e+00" cType="1" res="1.4891919493675232e-01" rms="2.6415741443634033e-01" purity="8.7882429361343384e-01" nType="0">
          <Node pos="l" depth="2" NCoef="0" IVar="-1" Cut="0.0000000000000000e+00" cType="1" res="2.4639060720801353e-03" rms="1.9471611082553864e-01" purity="9.4096368551254272e-01" nType="-99"/>
          <Node pos="r" depth="2" NCoef="0" IVar="-1" Cut="0.0000000000000000e+00" cType="1" res="-4.5157492422731593e-05" rms="4.0691864490509033e-01" purity="6.3511675596237183e-01" nType="-99"/>
        </Node>
      </Node>
    </BinaryTree>
    <BinaryTree type="DecisionTree" boostWeight="1.0000000000000000e+00" itree="272">
      <Node pos="s" depth="0" NCoef="0" IVar="5" Cut="3.4089198708534241e-01" cType="1" res="5.8958072215318680e-02" rms="2.8792011737823486e-01" purity="5.0448501110076904e-01" nType="0">
        <Node pos="l" depth="1" NCoef="0" IVar="48" Cut="1.0175926685333252e+00" cType="1" res="1.1205745488405228e-01" rms="2.6778897643089294e-01" purity="6.4838641881942749e-01" nType="0">
          <Node pos="l" depth="2" NCoef="0" IVar="-1" Cut="0.0000000000000000e+00" cType="1" res="-3.0511179938912392e-03" rms="2.3095677793025970e-01" purity="1.3949047029018402e-01" nType="-99"/>
          <Node pos="r" depth="2" NCoef="0" IVar="-1" Cut="0.0000000000000000e+00" cType="1" res="2.3202134761959314e-03" rms="2.5386103987693787e-01" purity="7.2711795568466187e-01" nType="-99"/>
        </Node>
        <Node pos="r" depth="1" NCoef="0" IVar="14" Cut="-7.9724210500717163e-01" cType="1" res="-3.4539818763732910e-02" rms="2.9814386367797852e-01" purity="2.5110206007957458e-01" nType="0">
          <Node pos="l" depth="2" NCoef="0" IVar="-1" Cut="0.0000000000000000e+00" cType="1" res="-1.7388631822541356e-03" rms="2.4915124475955963e-01" purity="1.6845664381980896e-01" nType="-99"/>
          <Node pos="r" depth="2" NCoef="0" IVar="-1" Cut="0.0000000000000000e+00" cType="1" res="4.7763224574737251e-04" rms="3.6114105582237244e-01" purity="4.0050426125526428e-01" nType="-99"/>
        </Node>
      </Node>
    </BinaryTree>
    <BinaryTree type="DecisionTree" boostWeight="1.0000000000000000e+00" itree="273">
      <Node pos="s" depth="0" NCoef="0" IVar="17" Cut="1.3298068046569824e+00" cType="1" res="6.0515433549880981e-02" rms="2.8894054889678955e-01" purity="4.9993476271629333e-01" nType="0">
        <Node pos="l" depth="1" NCoef="0" IVar="39" Cut="-1.6202310323715210e+00" cType="1" res="-1.2008750811219215e-02" rms="0.0000000000000000e+00" purity="-1.9640168175101280e-03" nType="-99"/>
        <Node pos="r" depth="1" NCoef="0" IVar="48" Cut="1.0616457462310791e+00" cType="1" res="1.0495158284902573e-01" rms="3.3267399668693542e-01" purity="6.9724994897842407e-01" nType="0">
          <Node pos="l" depth="2" NCoef="0" IVar="-1" Cut="0.0000000000000000e+00" cType="1" res="-1.7960558179765940e-03" rms="3.2952138781547546e-01" purity="2.8076544404029846e-01" nType="-99"/>
          <Node pos="r" depth="2" NCoef="0" IVar="-1" Cut="0.0000000000000000e+00" cType="1" res="1.6785063780844212e-03" rms="3.2207128405570984e-01" purity="7.4716848134994507e-01" nType="-99"/>
        </Node>
      </Node>
    </BinaryTree>
    <BinaryTree type="DecisionTree" boostWeight="1.0000000000000000e+00" itree="274">
      <Node pos="s" depth="0" NCoef="0" IVar="1" Cut="2.7706077098846436e+00" cType="1" res="5.3501751273870468e-02" rms="2.8382694721221924e-01" purity="4.9418988823890686e-01" nType="0">
        <Node pos="l" depth="1" NCoef="0" IVar="15" Cut="1.5219346284866333e+00" cType="1" res="-5.3566262125968933e-02" rms="2.5320428609848022e-01" purity="2.1732421219348907e-01" nType="0">
          <Node pos="l" depth="2" NCoef="0" IVar="-1" Cut="0.0000000000000000e+00" cType="1" res="-7.0743326796218753e-04" rms="2.3827724158763885e-01" purity="2.3255094885826111e-01" nType="-99"/>
          <Node pos="r" depth="2" NCoef="0" IVar="-1" Cut="0.0000000000000000e+00" cType="1" res="-7.3845721781253815e-03" rms="2.6808282732963562e-01" purity="8.3559624850749969e-02" nType="-99"/>
        </Node>
        <Node pos="r" depth="1" NCoef="0" IVar="5" Cut="3.3998674154281616e-01" cType="1" res="1.0120250284671783e-01" rms="2.8372848033905029e-01" purity="6.1753857135772705e-01" nType="0">
          <Node pos="l" depth="2" NCoef="0" IVar="-1" Cut="0.0000000000000000e+00" cType="1" res="2.3748793173581362e-03" rms="2.4745148420333862e-01" purity="7.7763789892196655e-01" nType="-99"/>
          <Node pos="r" depth="2" NCoef="0" IVar="-1" Cut="0.0000000000000000e+00" cType="1" res="-1.2810830958187580e-04" rms="3.0922445654869080e-01" purity="3.3700534701347351e-01" nType="-99"/>
        </Node>
      </Node>
    </BinaryTree>
    <BinaryTree type="DecisionTree" boostWeight="1.0000000000000000e+00" itree="275">
      <Node pos="s" depth="0" NCoef="0" IVar="17" Cut="1.5231137275695801e+00" cType="1" res="5.4172921925783157e-02" rms="2.8018775582313538e-01" purity="4.9799513816833496e-01" nType="0">
        <Node pos="l" depth="1" NCoef="0" IVar="48" Cut="1.0177102088928223e+00" cType="1" res="-4.8661390319466591e-03" rms="2.7243489027023315e-01" purity="2.5262564420700073e-01" nType="0">
          <Node pos="l" depth="2" NCoef="0" IVar="-1" Cut="0.0000000000000000e+00" cType="1" res="-6.8980390205979347e-03" rms="0.0000000000000000e+00" purity="-4.8335298895835876e-02" nType="-99"/>
          <Node pos="r" depth="2" NCoef="0" IVar="-1" Cut="0.0000000000000000e+00" cType="1" res="5.2936468273401260e-04" rms="2.9466715455055237e-01" purity="3.0819892883300781e-01" nType="-99"/>
        </Node>
        <Node pos="r" depth="1" NCoef="0" IVar="1" Cut="2.3112704753875732e+00" cType="1" res="1.4517115056514740e-01" rms="2.6731199026107788e-01" purity="8.7618875503540039e-01" nType="0">
          <Node pos="l" depth="2" NCoef="0" IVar="-1" Cut="0.0000000000000000e+00" cType="1" res="-2.0645328331738710e-03" rms="3.8820758461952209e-01" purity="3.6372688412666321e-01" nType="-99"/>
          <Node pos="r" depth="2" NCoef="0" IVar="-1" Cut="0.0000000000000000e+00" cType="1" res="2.0862559322267771e-03" rms="2.4906647205352783e-01" purity="9.0568292140960693e-01" nType="-99"/>
        </Node>
      </Node>
    </BinaryTree>
    <BinaryTree type="DecisionTree" boostWeight="1.0000000000000000e+00" itree="276">
      <Node pos="s" depth="0" NCoef="0" IVar="17" Cut="1.5231137275695801e+00" cType="1" res="5.5107291787862778e-02" rms="2.8687956929206848e-01" purity="4.9714589118957520e-01" nType="0">
        <Node pos="l" depth="1" NCoef="0" IVar="15" Cut="1.5204147100448608e+00" cType="1" res="-8.8984612375497818e-04" rms="2.8316169977188110e-01" purity="2.5968456268310547e-01" nType="0">
          <Node pos="l" depth="2" NCoef="0" IVar="-1" Cut="0.0000000000000000e+00" cType="1" res="3.4372517256997526e-04" rms="2.7878904342651367e-01" purity="2.7343317866325378e-01" nType="-99"/>
          <Node pos="r" depth="2" NCoef="0" IVar="-1" Cut="0.0000000000000000e+00" cType="1" res="-1.0999138467013836e-02" rms="1.9141180813312531e-01" purity="1.4757949858903885e-02" nType="-99"/>
        </Node>
        <Node pos="r" depth="1" NCoef="0" IVar="31" Cut="2.5969433784484863e+00" cType="1" res="1.4416925609111786e-01" rms="2.6972463726997375e-01" purity="8.7482178211212158e-01" nType="0">
          <Node pos="l" depth="2" NCoef="0" IVar="-1" Cut="0.0000000000000000e+00" cType="1" res="-3.1394292600452900e-03" rms="3.6316958069801331e-01" purity="3.9359071850776672e-01" nType="-99"/>
          <Node pos="r" depth="2" NCoef="0" IVar="-1" Cut="0.0000000000000000e+00" cType="1" res="2.0258165895938873e-03" rms="2.5315532088279724e-01" purity="9.0378957986831665e-01" nType="-99"/>
        </Node>
      </Node>
    </BinaryTree>
    <BinaryTree type="DecisionTree" boostWeight="1.0000000000000000e+00" itree="277">
      <Node pos="s" depth="0" NCoef="0" IVar="17" Cut="1.4830439090728760e+00" cType="1" res="5.7669606059789658e-02" rms="2.8565236926078796e-01" purity="5.0394690036773682e-01" nType="0">
        <Node pos="l" depth="1" NCoef="0" IVar="14" Cut="-5.2740174531936646e-01" cType="1" res="-2.3181220516562462e-02" rms="2.1688859164714813e-01" purity="9.1844663023948669e-02" nType="0">
          <Node pos="l" depth="2" NCoef="0" IVar="-1" Cut="0.0000000000000000e+00" cType="1" res="-3.3467316534370184e-03" rms="1.2939447164535522e-01" purity="4.6017095446586609e-02" nType="-99"/>
          <Node pos="r" depth="2" NCoef="0" IVar="-1" Cut="0.0000000000000000e+00" cType="1" res="1.5853743534535170e-03" rms="3.2010996341705322e-01" purity="1.8763212859630585e-01" nType="-99"/>
        </Node>
        <Node pos="r" depth="1" NCoef="0" IVar="15" Cut="1.5230582952499390e+00" cType="1" res="1.1589625477790833e-01" rms="3.1366547942161560e-01" purity="8.0073213577270508e-01" nType="0">
          <Node pos="l" depth="2" NCoef="0" IVar="-1" Cut="0.0000000000000000e+00" cType="1" res="1.7965899314731359e-03" rms="2.8022748231887817e-01" purity="8.5219550132751465e-01" nType="-99"/>
          <Node pos="r" depth="2" NCoef="0" IVar="-1" Cut="0.0000000000000000e+00" cType="1" res="-1.0339897125959396e-03" rms="3.9807540178298950e-01" purity="5.3237807750701904e-01" nType="-99"/>
        </Node>
      </Node>
    </BinaryTree>
    <BinaryTree type="DecisionTree" boostWeight="1.0000000000000000e+00" itree="278">
      <Node pos="s" depth="0" NCoef="0" IVar="17" Cut="1.5216873884201050e+00" cType="1" res="5.6381996721029282e-02" rms="2.8914886713027954e-01" purity="4.9566531181335449e-01" nType="0">
        <Node pos="l" depth="1" NCoef="0" IVar="2" Cut="2.0772511959075928e+00" cType="1" res="4.1424515657126904e-03" rms="2.8847169876098633e-01" purity="2.6386860013008118e-01" nType="0">
          <Node pos="l" depth="2" NCoef="0" IVar="-1" Cut="0.0000000000000000e+00" cType="1" res="-3.6417676601558924e-03" rms="2.0030514895915985e-01" purity="7.6071150600910187e-02" nType="-99"/>
          <Node pos="r" depth="2" NCoef="0" IVar="-1" Cut="0.0000000000000000e+00" cType="1" res="8.4445456741377711e-04" rms="3.1637713313102722e-01" purity="3.6023694276809692e-01" nType="-99"/>
        </Node>
        <Node pos="r" depth="1" NCoef="0" IVar="15" Cut="1.5230776071548462e+00" cType="1" res="1.4098775386810303e-01" rms="2.6956012845039368e-01" purity="8.7107706069946289e-01" nType="0">
          <Node pos="l" depth="2" NCoef="0" IVar="-1" Cut="0.0000000000000000e+00" cType="1" res="2.2879785392433405e-03" rms="2.1333858370780945e-01" purity="9.2805200815200806e-01" nType="-99"/>
          <Node pos="r" depth="2" NCoef="0" IVar="-1" Cut="0.0000000000000000e+00" cType="1" res="9.5586918178014457e-05" rms="3.9775887131690979e-01" purity="6.4506840705871582e-01" nType="-99"/>
        </Node>
      </Node>
    </BinaryTree>
    <BinaryTree type="DecisionTree" boostWeight="1.0000000000000000e+00" itree="279">
      <Node pos="s" depth="0" NCoef="0" IVar="1" Cut="2.7715682983398438e+00" cType="1" res="6.3467107713222504e-02" rms="2.8912413120269775e-01" purity="5.0337743759155273e-01" nType="0">
        <Node pos="l" depth="1" NCoef="0" IVar="15" Cut="1.5203990936279297e+00" cType="1" res="-4.0925111621618271e-02" rms="2.6133996248245239e-01" purity="2.2633592784404755e-01" nType="0">
          <Node pos="l" depth="2" NCoef="0" IVar="-1" Cut="0.0000000000000000e+00" cType="1" res="-3.4310648334212601e-04" rms="2.4604955315589905e-01" purity="2.4188941717147827e-01" nType="-99"/>
          <Node pos="r" depth="2" NCoef="0" IVar="-1" Cut="0.0000000000000000e+00" cType="1" res="-6.5256776288151741e-03" rms="2.8020021319389343e-01" purity="1.1115930229425430e-01" nType="-99"/>
        </Node>
        <Node pos="r" depth="1" NCoef="0" IVar="5" Cut="3.4197333455085754e-01" cType="1" res="1.0998056828975677e-01" rms="2.8877010941505432e-01" purity="6.2681728601455688e-01" nType="0">
          <Node pos="l" depth="2" NCoef="0" IVar="-1" Cut="0.0000000000000000e+00" cType="1" res="2.4640113115310669e-03" rms="2.5116330385208130e-01" purity="7.8266680240631104e-01" nType="-99"/>
          <Node pos="r" depth="2" NCoef="0" IVar="-1" Cut="0.0000000000000000e+00" cType="1" res="1.1170047218911350e-04" rms="3.2116383314132690e-01" purity="3.4719496965408325e-01" nType="-99"/>
        </Node>
      </Node>
    </BinaryTree>
    <BinaryTree type="DecisionTree" boostWeight="1.0000000000000000e+00" itree="280">
      <Node pos="s" depth="0" NCoef="0" IVar="1" Cut="2.7079684734344482e+00" cType="1" res="5.4003063589334488e-02" rms="2.8499281406402588e-01" purity="4.9382910132408142e-01" nType="0">
        <Node pos="l" depth="1" NCoef="0" IVar="15" Cut="1.4832879304885864e+00" cType="1" res="-6.2142889946699142e-02" rms="2.4714241921901703e-01" purity="1.8180349469184875e-01" nType="0">
          <Node pos="l" depth="2" NCoef="0" IVar="-1" Cut="0.0000000000000000e+00" cType="1" res="-7.6133687980473042e-04" rms="2.1021552383899689e-01" purity="1.8197861313819885e-01" nType="-99"/>
          <Node pos="r" depth="2" NCoef="0" IVar="-1" Cut="0.0000000000000000e+00" cType="1" res="-3.7576653994619846e-03" rms="3.1028705835342407e-01" purity="1.8122828006744385e-01" nType="-99"/>
        </Node>
        <Node pos="r" depth="1" NCoef="0" IVar="5" Cut="2.8546217083930969e-01" cType="1" res="9.7493708133697510e-02" rms="2.8604224324226379e-01" purity="6.1066645383834839e-01" nType="0">
          <Node pos="l" depth="2" NCoef="0" IVar="-1" Cut="0.0000000000000000e+00" cType="1" res="2.4844571016728878e-03" rms="2.4385733902454376e-01" purity="8.1140631437301636e-01" nType="-99"/>
          <Node pos="r" depth="2" NCoef="0" IVar="-1" Cut="0.0000000000000000e+00" cType="1" res="2.0070090249646455e-04" rms="3.0806669592857361e-01" purity="3.7223157286643982e-01" nType="-99"/>
        </Node>
      </Node>
    </BinaryTree>
    <BinaryTree type="DecisionTree" boostWeight="1.0000000000000000e+00" itree="281">
      <Node pos="s" depth="0" NCoef="0" IVar="36" Cut="1.4073475599288940e+00" cType="1" res="5.6676346808671951e-02" rms="2.8497570753097534e-01" purity="5.0185811519622803e-01" nType="0">
        <Node pos="l" depth="1" NCoef="0" IVar="34" Cut="-1.4543987512588501e+00" cType="1" res="-5.5673975497484207e-02" rms="2.0236591994762421e-01" purity="1.0780362039804459e-01" nType="0">
          <Node pos="l" depth="2" NCoef="0" IVar="-1" Cut="0.0000000000000000e+00" cType="1" res="2.0656120032072067e-03" rms="2.9501760005950928e-01" purity="2.8872352838516235e-01" nType="-99"/>
          <Node pos="r" depth="2" NCoef="0" IVar="-1" Cut="0.0000000000000000e+00" cType="1" res="-4.3648076243698597e-03" rms="1.6583076119422913e-01" purity="7.2787612676620483e-02" nType="-99"/>
        </Node>
        <Node pos="r" depth="1" NCoef="0" IVar="5" Cut="3.5940939188003540e-01" cType="1" res="9.8437398672103882e-02" rms="2.9956600069999695e-01" purity="6.4832967519760132e-01" nType="0">
          <Node pos="l" depth="2" NCoef="0" IVar="-1" Cut="0.0000000000000000e+00" cType="1" res="2.1540240850299597e-03" rms="2.5717014074325562e-01" purity="8.0165553092956543e-01" nType="-99"/>
          <Node pos="r" depth="2" NCoef="0" IVar="-1" Cut="0.0000000000000000e+00" cType="1" res="-3.0029442859813571e-04" rms="3.4429004788398743e-01" purity="3.2945320010185242e-01" nType="-99"/>
        </Node>
      </Node>
    </BinaryTree>
    <BinaryTree type="DecisionTree" boostWeight="1.0000000000000000e+00" itree="282">
      <Node pos="s" depth="0" NCoef="0" IVar="5" Cut="4.3691271543502808e-01" cType="1" res="6.3389562070369720e-02" rms="2.9351264238357544e-01" purity="5.0519478321075439e-01" nType="0">
        <Node pos="l" depth="1" NCoef="0" IVar="36" Cut="1.4456657171249390e+00" cType="1" res="1.0065861791372299e-01" rms="2.8152060508728027e-01" purity="6.0899442434310913e-01" nType="0">
          <Node pos="l" depth="2" NCoef="0" IVar="-1" Cut="0.0000000000000000e+00" cType="1" res="-8.5427646990865469e-04" rms="2.7135285735130310e-01" purity="1.9433480501174927e-01" nType="-99"/>
          <Node pos="r" depth="2" NCoef="0" IVar="-1" Cut="0.0000000000000000e+00" cType="1" res="2.0514631178230047e-03" rms="2.6923269033432007e-01" purity="7.7956992387771606e-01" nType="-99"/>
        </Node>
        <Node pos="r" depth="1" NCoef="0" IVar="34" Cut="-1.4926526546478271e+00" cType="1" res="-4.5292995870113373e-02" rms="3.0066031217575073e-01" purity="2.0249840617179871e-01" nType="0">
          <Node pos="l" depth="2" NCoef="0" IVar="-1" Cut="0.0000000000000000e+00" cType="1" res="4.2689703404903412e-03" rms="3.7316712737083435e-01" purity="5.4925197362899780e-01" nType="-99"/>
          <Node pos="r" depth="2" NCoef="0" IVar="-1" Cut="0.0000000000000000e+00" cType="1" res="-1.6522232908755541e-03" rms="2.7682220935821533e-01" purity="1.6877430677413940e-01" nType="-99"/>
        </Node>
      </Node>
    </BinaryTree>
    <BinaryTree type="DecisionTree" boostWeight="1.0000000000000000e+00" itree="283">
      <Node pos="s" depth="0" NCoef="0" IVar="27" Cut="1.4087454080581665e+00" cType="1" res="5.8381613343954086e-02" rms="2.8906586766242981e-01" purity="4.9559843540191650e-01" nType="0">
        <Node pos="l" depth="1" NCoef="0" IVar="3" Cut="4.7968811988830566e+00" cType="1" res="-8.0615289509296417e-02" rms="2.3395718634128571e-01" purity="1.7299273610115051e-01" nType="0">
          <Node pos="l" depth="2" NCoef="0" IVar="-1" Cut="0.0000000000000000e+00" cType="1" res="-6.9348737597465515e-03" rms="1.9584457576274872e-01" purity="6.3577882945537567e-02" nType="-99"/>
          <Node pos="r" depth="2" NCoef="0" IVar="-1" Cut="0.0000000000000000e+00" cType="1" res="3.9997420390136540e-04" rms="2.5613635778427124e-01" purity="3.5095003247261047e-01" nType="-99"/>
        </Node>
        <Node pos="r" depth="1" NCoef="0" IVar="5" Cut="2.8956955671310425e-01" cType="1" res="8.7213180959224701e-02" rms="2.9103088378906250e-01" purity="5.6251525878906250e-01" nType="0">
          <Node pos="l" depth="2" NCoef="0" IVar="-1" Cut="0.0000000000000000e+00" cType="1" res="2.4125562049448490e-03" rms="2.5169056653976440e-01" purity="7.7615141868591309e-01" nType="-99"/>
          <Node pos="r" depth="2" NCoef="0" IVar="-1" Cut="0.0000000000000000e+00" cType="1" res="1.0850247781490907e-04" rms="3.0740723013877869e-01" purity="3.3607017993927002e-01" nType="-99"/>
        </Node>
      </Node>
    </BinaryTree>
    <BinaryTree type="DecisionTree" boostWeight="1.0000000000000000e+00" itree="284">
      <Node pos="s" depth="0" NCoef="0" IVar="17" Cut="1.4447457790374756e+00" cType="1" res="5.3071703761816025e-02" rms="2.7942556142807007e-01" purity="4.9780136346817017e-01" nType="0">
        <Node pos="l" depth="1" NCoef="0" IVar="3" Cut="4.9409580230712891e+00" cType="1" res="-3.8806270807981491e-02" rms="1.2910217046737671e-01" purity="2.5397157296538353e-02" nType="0">
          <Node pos="l" depth="2" NCoef="0" IVar="-1" Cut="0.0000000000000000e+00" cType="1" res="-9.3986438587307930e-03" rms="0.0000000000000000e+00" purity="-1.3190314639359713e-03" nType="-99"/>
          <Node pos="r" depth="2" NCoef="0" IVar="-1" Cut="0.0000000000000000e+00" cType="1" res="1.2569698737934232e-03" rms="2.5519734621047974e-01" purity="1.0496215522289276e-01" nType="-99"/>
        </Node>
        <Node pos="r" depth="1" NCoef="0" IVar="1" Cut="2.3231873512268066e+00" cType="1" res="1.0320388525724411e-01" rms="3.2321470975875854e-01" purity="7.5556331872940063e-01" nType="0">
          <Node pos="l" depth="2" NCoef="0" IVar="-1" Cut="0.0000000000000000e+00" cType="1" res="-2.9096878133714199e-03" rms="3.1070977449417114e-01" purity="2.2794650495052338e-01" nType="-99"/>
          <Node pos="r" depth="2" NCoef="0" IVar="-1" Cut="0.0000000000000000e+00" cType="1" res="1.5447004698216915e-03" rms="3.1128996610641479e-01" purity="8.0386286973953247e-01" nType="-99"/>
        </Node>
      </Node>
    </BinaryTree>
    <BinaryTree type="DecisionTree" boostWeight="1.0000000000000000e+00" itree="285">
      <Node pos="s" depth="0" NCoef="0" IVar="48" Cut="1.0700179338455200e+00" cType="1" res="6.3056521117687225e-02" rms="2.8962898254394531e-01" purity="5.0357168912887573e-01" nType="0">
        <Node pos="l" depth="1" NCoef="0" IVar="13" Cut="1.4770994186401367e+00" cType="1" res="-1.0490829497575760e-01" rms="2.3230107128620148e-01" purity="1.0236333310604095e-01" nType="0">
          <Node pos="l" depth="2" NCoef="0" IVar="-1" Cut="0.0000000000000000e+00" cType="1" res="-1.0227897437289357e-03" rms="2.1354652941226959e-01" purity="8.2739450037479401e-02" nType="-99"/>
          <Node pos="r" depth="2" NCoef="0" IVar="-1" Cut="0.0000000000000000e+00" cType="1" res="-3.5285262856632471e-03" rms="1.9182805716991425e-01" purity="1.3342823088169098e-01" nType="-99"/>
        </Node>
        <Node pos="r" depth="1" NCoef="0" IVar="5" Cut="2.9942679405212402e-01" cType="1" res="8.8971242308616638e-02" rms="2.8892394900321960e-01" purity="5.6547272205352783e-01" nType="0">
          <Node pos="l" depth="2" NCoef="0" IVar="-1" Cut="0.0000000000000000e+00" cType="1" res="2.4267095141112804e-03" rms="2.4713559448719025e-01" purity="7.6284682750701904e-01" nType="-99"/>
          <Node pos="r" depth="2" NCoef="0" IVar="-1" Cut="0.0000000000000000e+00" cType="1" res="1.2811893247999251e-04" rms="3.1251260638237000e-01" purity="3.3082193136215210e-01" nType="-99"/>
        </Node>
      </Node>
    </BinaryTree>
    <BinaryTree type="DecisionTree" boostWeight="1.0000000000000000e+00" itree="286">
      <Node pos="s" depth="0" NCoef="0" IVar="2" Cut="2.3741695880889893e+00" cType="1" res="5.6836586445569992e-02" rms="2.8360503911972046e-01" purity="5.0633138418197632e-01" nType="0">
        <Node pos="l" depth="1" NCoef="0" IVar="3" Cut="4.8368930816650391e+00" cType="1" res="-2.5740081444382668e-02" rms="2.5718262791633606e-01" purity="2.9418954253196716e-01" nType="0">
          <Node pos="l" depth="2" NCoef="0" IVar="-1" Cut="0.0000000000000000e+00" cType="1" res="-3.0672610737383366e-03" rms="2.2368688881397247e-01" purity="1.7923934757709503e-01" nType="-99"/>
          <Node pos="r" depth="2" NCoef="0" IVar="-1" Cut="0.0000000000000000e+00" cType="1" res="1.1463775299489498e-03" rms="2.7003479003906250e-01" purity="4.3639993667602539e-01" nType="-99"/>
        </Node>
        <Node pos="r" depth="1" NCoef="0" IVar="17" Cut="1.0205157995223999e+00" cType="1" res="1.1459301412105560e-01" rms="2.8691589832305908e-01" purity="6.5470927953720093e-01" nType="0">
          <Node pos="l" depth="2" NCoef="0" IVar="-1" Cut="0.0000000000000000e+00" cType="1" res="-2.1372519433498383e-02" rms="0.0000000000000000e+00" purity="-1.5134014189243317e-02" nType="-99"/>
          <Node pos="r" depth="2" NCoef="0" IVar="-1" Cut="0.0000000000000000e+00" cType="1" res="1.8516601994633675e-03" rms="3.0526238679885864e-01" purity="7.8101420402526855e-01" nType="-99"/>
        </Node>
      </Node>
    </BinaryTree>
    <BinaryTree type="DecisionTree" boostWeight="1.0000000000000000e+00" itree="287">
      <Node pos="s" depth="0" NCoef="0" IVar="48" Cut="1.1287544965744019e+00" cType="1" res="6.0493681579828262e-02" rms="2.8846576809883118e-01" purity="5.0261265039443970e-01" nType="0">
        <Node pos="l" depth="1" NCoef="0" IVar="60" Cut="-1.3404774665832520e+00" cType="1" res="-9.4313807785511017e-02" rms="2.3884063959121704e-01" purity="1.3755464553833008e-01" nType="0">
          <Node pos="l" depth="2" NCoef="0" IVar="-1" Cut="0.0000000000000000e+00" cType="1" res="-6.0576840769499540e-04" rms="2.9871451854705811e-01" purity="2.4423666298389435e-01" nType="-99"/>
          <Node pos="r" depth="2" NCoef="0" IVar="-1" Cut="0.0000000000000000e+00" cType="1" res="-7.7823228202760220e-03" rms="0.0000000000000000e+00" purity="-4.7342900186777115e-02" nType="-99"/>
        </Node>
        <Node pos="r" depth="1" NCoef="0" IVar="5" Cut="3.0103641748428345e-01" cType="1" res="8.8136635720729828e-02" rms="2.8782218694686890e-01" purity="5.6779867410659790e-01" nType="0">
          <Node pos="l" depth="2" NCoef="0" IVar="-1" Cut="0.0000000000000000e+00" cType="1" res="2.4691540747880936e-03" rms="2.5359317660331726e-01" purity="7.6560258865356445e-01" nType="-99"/>
          <Node pos="r" depth="2" NCoef="0" IVar="-1" Cut="0.0000000000000000e+00" cType="1" res="1.5295825505745597e-05" rms="3.0208426713943481e-01" purity="3.2916826009750366e-01" nType="-99"/>
        </Node>
      </Node>
    </BinaryTree>
    <BinaryTree type="DecisionTree" boostWeight="1.0000000000000000e+00" itree="288">
      <Node pos="s" depth="0" NCoef="0" IVar="36" Cut="1.4454618692398071e+00" cType="1" res="5.7675816118717194e-02" rms="2.8260037302970886e-01" purity="5.0750112533569336e-01" nType="0">
        <Node pos="l" depth="1" NCoef="0" IVar="3" Cut="4.8905596733093262e+00" cType="1" res="-4.5140963047742844e-02" rms="2.1243694424629211e-01" purity="1.5936499834060669e-01" nType="0">
          <Node pos="l" depth="2" NCoef="0" IVar="-1" Cut="0.0000000000000000e+00" cType="1" res="-5.5855843238532543e-03" rms="1.7647738754749298e-01" purity="7.4367389082908630e-02" nType="-99"/>
          <Node pos="r" depth="2" NCoef="0" IVar="-1" Cut="0.0000000000000000e+00" cType="1" res="1.0487848194316030e-03" rms="2.3895698785781860e-01" purity="3.1826114654541016e-01" nType="-99"/>
        </Node>
        <Node pos="r" depth="1" NCoef="0" IVar="5" Cut="3.6006939411163330e-01" cType="1" res="1.0373425483703613e-01" rms="2.9759949445724487e-01" purity="6.6345423460006714e-01" nType="0">
          <Node pos="l" depth="2" NCoef="0" IVar="-1" Cut="0.0000000000000000e+00" cType="1" res="2.2604307159781456e-03" rms="2.4457676708698273e-01" purity="8.2054114341735840e-01" nType="-99"/>
          <Node pos="r" depth="2" NCoef="0" IVar="-1" Cut="0.0000000000000000e+00" cType="1" res="-3.1158037018030882e-04" rms="3.5286152362823486e-01" purity="3.4311333298683167e-01" nType="-99"/>
        </Node>
      </Node>
    </BinaryTree>
    <BinaryTree type="DecisionTree" boostWeight="1.0000000000000000e+00" itree="289">
      <Node pos="s" depth="0" NCoef="0" IVar="36" Cut="1.4460117816925049e+00" cType="1" res="5.0235658884048462e-02" rms="2.8042647242546082e-01" purity="4.9660280346870422e-01" nType="0">
        <Node pos="l" depth="1" NCoef="0" IVar="31" Cut="3.6294367313385010e+00" cType="1" res="-5.8029279112815857e-02" rms="2.1057581901550293e-01" purity="1.2574256956577301e-01" nType="0">
          <Node pos="l" depth="2" NCoef="0" IVar="-1" Cut="0.0000000000000000e+00" cType="1" res="-3.5382530186325312e-03" rms="1.8485739827156067e-01" purity="9.5132663846015930e-02" nType="-99"/>
          <Node pos="r" depth="2" NCoef="0" IVar="-1" Cut="0.0000000000000000e+00" cType="1" res="2.5878765154629946e-03" rms="3.1646460294723511e-01" purity="4.0500751137733459e-01" nType="-99"/>
        </Node>
        <Node pos="r" depth="1" NCoef="0" IVar="5" Cut="3.4243094921112061e-01" cType="1" res="9.8298534750938416e-02" rms="2.9385554790496826e-01" purity="6.6124165058135986e-01" nType="0">
          <Node pos="l" depth="2" NCoef="0" IVar="-1" Cut="0.0000000000000000e+00" cType="1" res="2.2928551770746708e-03" rms="2.5244376063346863e-01" purity="8.2542335987091064e-01" nType="-99"/>
          <Node pos="r" depth="2" NCoef="0" IVar="-1" Cut="0.0000000000000000e+00" cType="1" res="-3.6053115036338568e-04" rms="3.2664293050765991e-01" purity="3.5003191232681274e-01" nType="-99"/>
        </Node>
      </Node>
    </BinaryTree>
    <BinaryTree type="DecisionTree" boostWeight="1.0000000000000000e+00" itree="290">
      <Node pos="s" depth="0" NCoef="0" IVar="48" Cut="1.2378869056701660e+00" cType="1" res="5.5341176688671112e-02" rms="2.8381279110908508e-01" purity="4.9657946825027466e-01" nType="0">
        <Node pos="l" depth="1" NCoef="0" IVar="61" Cut="4.4819527864456177e-01" cType="1" res="-8.7897419929504395e-02" rms="2.3671182990074158e-01" purity="1.7010241746902466e-01" nType="0">
          <Node pos="l" depth="2" NCoef="0" IVar="-1" Cut="0.0000000000000000e+00" cType="1" res="1.6249602194875479e-03" rms="4.1032043099403381e-01" purity="3.2235971093177795e-01" nType="-99"/>
          <Node pos="r" depth="2" NCoef="0" IVar="-1" Cut="0.0000000000000000e+00" cType="1" res="-2.9226937331259251e-03" rms="1.7131343483924866e-01" purity="1.4129707217216492e-01" nType="-99"/>
        </Node>
        <Node pos="r" depth="1" NCoef="0" IVar="5" Cut="2.9942679405212402e-01" cType="1" res="8.6182661354541779e-02" rms="2.8365427255630493e-01" purity="5.6687498092651367e-01" nType="0">
          <Node pos="l" depth="2" NCoef="0" IVar="-1" Cut="0.0000000000000000e+00" cType="1" res="2.4147483054548502e-03" rms="2.3755571246147156e-01" purity="7.7398401498794556e-01" nType="-99"/>
          <Node pos="r" depth="2" NCoef="0" IVar="-1" Cut="0.0000000000000000e+00" cType="1" res="1.4374993043020368e-04" rms="3.0952829122543335e-01" purity="3.3429509401321411e-01" nType="-99"/>
        </Node>
      </Node>
    </BinaryTree>
    <BinaryTree type="DecisionTree" boostWeight="1.0000000000000000e+00" itree="291">
      <Node pos="s" depth="0" NCoef="0" IVar="17" Cut="1.4457910060882568e+00" cType="1" res="5.3628709167242050e-02" rms="2.7708974480628967e-01" purity="4.9933019280433655e-01" nType="0">
        <Node pos="l" depth="1" NCoef="0" IVar="55" Cut="-1.4542207717895508e+00" cType="1" res="-3.7904903292655945e-02" rms="1.2595324218273163e-01" purity="2.5353727862238884e-02" nType="0">
          <Node pos="l" depth="2" NCoef="0" IVar="-1" Cut="0.0000000000000000e+00" cType="1" res="1.8595319706946611e-03" rms="2.5906607508659363e-01" purity="8.9788459241390228e-02" nType="-99"/>
          <Node pos="r" depth="2" NCoef="0" IVar="-1" Cut="0.0000000000000000e+00" cType="1" res="-8.3557711914181709e-03" rms="0.0000000000000000e+00" purity="-8.0585740506649017e-03" nType="-99"/>
        </Node>
        <Node pos="r" depth="1" NCoef="0" IVar="27" Cut="1.4317646026611328e+00" cType="1" res="1.0412135720252991e-01" rms="3.2126265764236450e-01" purity="7.6078963279724121e-01" nType="0">
          <Node pos="l" depth="2" NCoef="0" IVar="-1" Cut="0.0000000000000000e+00" cType="1" res="-1.7533047357574105e-03" rms="3.2906201481819153e-01" purity="3.9070108532905579e-01" nType="-99"/>
          <Node pos="r" depth="2" NCoef="0" IVar="-1" Cut="0.0000000000000000e+00" cType="1" res="1.5614149160683155e-03" rms="3.0897048115730286e-01" purity="8.1450086832046509e-01" nType="-99"/>
        </Node>
      </Node>
    </BinaryTree>
    <BinaryTree type="DecisionTree" boostWeight="1.0000000000000000e+00" itree="292">
      <Node pos="s" depth="0" NCoef="0" IVar="17" Cut="1.5220416784286499e+00" cType="1" res="4.9564231187105179e-02" rms="2.7968028187751770e-01" purity="4.9485141038894653e-01" nType="0">
        <Node pos="l" depth="1" NCoef="0" IVar="3" Cut="4.9406895637512207e+00" cType="1" res="-7.3281088843941689e-03" rms="2.7403026819229126e-01" purity="2.4570900201797485e-01" nType="0">
          <Node pos="l" depth="2" NCoef="0" IVar="-1" Cut="0.0000000000000000e+00" cType="1" res="-1.0528592392802238e-03" rms="2.5358012318611145e-01" purity="2.0446984469890594e-01" nType="-99"/>
          <Node pos="r" depth="2" NCoef="0" IVar="-1" Cut="0.0000000000000000e+00" cType="1" res="1.9174388144165277e-03" rms="3.0647075176239014e-01" purity="3.7049767374992371e-01" nType="-99"/>
        </Node>
        <Node pos="r" depth="1" NCoef="0" IVar="31" Cut="2.6459510326385498e+00" cType="1" res="1.3560941815376282e-01" rms="2.6580733060836792e-01" purity="8.7165969610214233e-01" nType="0">
          <Node pos="l" depth="2" NCoef="0" IVar="-1" Cut="0.0000000000000000e+00" cType="1" res="-2.5637925136834383e-03" rms="3.5227730870246887e-01" purity="3.9442187547683716e-01" nType="-99"/>
          <Node pos="r" depth="2" NCoef="0" IVar="-1" Cut="0.0000000000000000e+00" cType="1" res="1.9926421809941530e-03" rms="2.4867041409015656e-01" purity="9.0430897474288940e-01" nType="-99"/>
        </Node>
      </Node>
    </BinaryTree>
    <BinaryTree type="DecisionTree" boostWeight="1.0000000000000000e+00" itree="293">
      <Node pos="s" depth="0" NCoef="0" IVar="2" Cut="1.9302512407302856e+00" cType="1" res="5.6711953133344650e-02" rms="2.8700286149978638e-01" purity="4.9973770976066589e-01" nType="0">
        <Node pos="l" depth="1" NCoef="0" IVar="15" Cut="1.4427297115325928e+00" cType="1" res="-6.9946743547916412e-02" rms="2.2970104217529297e-01" purity="1.8470647931098938e-01" nType="0">
          <Node pos="l" depth="2" NCoef="0" IVar="-1" Cut="0.0000000000000000e+00" cType="1" res="-5.7615461992099881e-04" rms="1.9336682558059692e-01" purity="1.7822317779064178e-01" nType="-99"/>
          <Node pos="r" depth="2" NCoef="0" IVar="-1" Cut="0.0000000000000000e+00" cType="1" res="-4.9422727897763252e-03" rms="2.5661891698837280e-01" purity="1.9895492494106293e-01" nType="-99"/>
        </Node>
        <Node pos="r" depth="1" NCoef="0" IVar="17" Cut="1.4049311876296997e+00" cType="1" res="9.2366129159927368e-02" rms="2.9140713810920715e-01" purity="5.8841842412948608e-01" nType="0">
          <Node pos="l" depth="2" NCoef="0" IVar="-1" Cut="0.0000000000000000e+00" cType="1" res="-3.0799894593656063e-03" rms="1.6545355319976807e-01" purity="3.4365661442279816e-02" nType="-99"/>
          <Node pos="r" depth="2" NCoef="0" IVar="-1" Cut="0.0000000000000000e+00" cType="1" res="1.5983857447281480e-03" rms="3.1536167860031128e-01" purity="7.8909540176391602e-01" nType="-99"/>
        </Node>
      </Node>
    </BinaryTree>
    <BinaryTree type="DecisionTree" boostWeight="1.0000000000000000e+00" itree="294">
      <Node pos="s" depth="0" NCoef="0" IVar="5" Cut="3.4154802560806274e-01" cType="1" res="5.5482011288404465e-02" rms="2.7949976921081543e-01" purity="5.0398123264312744e-01" nType="0">
        <Node pos="l" depth="1" NCoef="0" IVar="36" Cut="9.8174846172332764e-01" cType="1" res="1.0733769834041595e-01" rms="2.6019278168678284e-01" purity="6.4887672662734985e-01" nType="0">
          <Node pos="l" depth="2" NCoef="0" IVar="-1" Cut="0.0000000000000000e+00" cType="1" res="-8.6844293400645256e-03" rms="0.0000000000000000e+00" purity="1.3202266767621040e-02" nType="-99"/>
          <Node pos="r" depth="2" NCoef="0" IVar="-1" Cut="0.0000000000000000e+00" cType="1" res="2.1249991841614246e-03" rms="2.6753392815589905e-01" purity="7.6325041055679321e-01" nType="-99"/>
        </Node>
        <Node pos="r" depth="1" NCoef="0" IVar="38" Cut="-1.4155793190002441e+00" cType="1" res="-3.2971911132335663e-02" rms="2.8893435001373291e-01" purity="2.5682252645492554e-01" nType="0">
          <Node pos="l" depth="2" NCoef="0" IVar="-1" Cut="0.0000000000000000e+00" cType="1" res="1.7688843654468656e-03" rms="2.9081296920776367e-01" purity="4.1888883709907532e-01" nType="-99"/>
          <Node pos="r" depth="2" NCoef="0" IVar="-1" Cut="0.0000000000000000e+00" cType="1" res="-1.2622855138033628e-03" rms="2.8009504079818726e-01" purity="2.1742133796215057e-01" nType="-99"/>
        </Node>
      </Node>
    </BinaryTree>
    <BinaryTree type="DecisionTree" boostWeight="1.0000000000000000e+00" itree="295">
      <Node pos="s" depth="0" NCoef="0" IVar="48" Cut="1.0102272033691406e+00" cType="1" res="5.5959656834602356e-02" rms="2.8698688745498657e-01" purity="4.9682277441024780e-01" nType="0">
        <Node pos="l" depth="1" NCoef="0" IVar="17" Cut="1.4433462619781494e+00" cType="1" res="-1.2413813918828964e-01" rms="2.0054081082344055e-01" purity="8.2050628960132599e-02" nType="0">
          <Node pos="l" depth="2" NCoef="0" IVar="-1" Cut="0.0000000000000000e+00" cType="1" res="-5.9115006588399410e-03" rms="0.0000000000000000e+00" purity="-2.3970715701580048e-03" nType="-99"/>
          <Node pos="r" depth="2" NCoef="0" IVar="-1" Cut="0.0000000000000000e+00" cType="1" res="-2.8144717216491699e-03" rms="3.1606179475784302e-01" purity="2.0894004404544830e-01" nType="-99"/>
        </Node>
        <Node pos="r" depth="1" NCoef="0" IVar="17" Cut="1.4071296453475952e+00" cType="1" res="8.0711886286735535e-02" rms="2.8824168443679810e-01" purity="5.5382812023162842e-01" nType="0">
          <Node pos="l" depth="2" NCoef="0" IVar="-1" Cut="0.0000000000000000e+00" cType="1" res="-4.5623956248164177e-03" rms="1.4430165290832520e-01" purity="2.5826701894402504e-02" nType="-99"/>
          <Node pos="r" depth="2" NCoef="0" IVar="-1" Cut="0.0000000000000000e+00" cType="1" res="1.5681111253798008e-03" rms="3.1938055157661438e-01" purity="7.7281981706619263e-01" nType="-99"/>
        </Node>
      </Node>
    </BinaryTree>
    <BinaryTree type="DecisionTree" boostWeight="1.0000000000000000e+00" itree="296">
      <Node pos="s" depth="0" NCoef="0" IVar="48" Cut="1.2260903120040894e+00" cType="1" res="5.2556380629539490e-02" rms="2.8487995266914368e-01" purity="5.0209379196166992e-01" nType="0">
        <Node pos="l" depth="1" NCoef="0" IVar="15" Cut="1.5195906162261963e+00" cType="1" res="-9.1201230883598328e-02" rms="2.4044601619243622e-01" purity="1.4814668893814087e-01" nType="0">
          <Node pos="l" depth="2" NCoef="0" IVar="-1" Cut="0.0000000000000000e+00" cType="1" res="-1.6631183680146933e-03" rms="2.2502087056636810e-01" purity="1.6141350567340851e-01" nType="-99"/>
          <Node pos="r" depth="2" NCoef="0" IVar="-1" Cut="0.0000000000000000e+00" cType="1" res="-6.2971133738756180e-03" rms="2.5366508960723877e-01" purity="4.9722440540790558e-02" nType="-99"/>
        </Node>
        <Node pos="r" depth="1" NCoef="0" IVar="17" Cut="1.3276476860046387e+00" cType="1" res="8.3351507782936096e-02" rms="2.8422087430953979e-01" purity="5.7791477441787720e-01" nType="0">
          <Node pos="l" depth="2" NCoef="0" IVar="-1" Cut="0.0000000000000000e+00" cType="1" res="-1.0408150032162666e-02" rms="4.5782946050167084e-02" purity="3.3793968614190817e-03" nType="-99"/>
          <Node pos="r" depth="2" NCoef="0" IVar="-1" Cut="0.0000000000000000e+00" cType="1" res="1.6170715680345893e-03" rms="3.1455782055854797e-01" purity="7.5990021228790283e-01" nType="-99"/>
        </Node>
      </Node>
    </BinaryTree>
    <BinaryTree type="DecisionTree" boostWeight="1.0000000000000000e+00" itree="297">
      <Node pos="s" depth="0" NCoef="0" IVar="17" Cut="1.3671132326126099e+00" cType="1" res="6.0521632432937622e-02" rms="2.8380417823791504e-01" purity="5.1261329650878906e-01" nType="0">
        <Node pos="l" depth="1" NCoef="0" IVar="48" Cut="2.6743972301483154e+00" cType="1" res="-3.9474926888942719e-02" rms="6.7352488636970520e-02" purity="7.4156001210212708e-03" nType="0">
          <Node pos="l" depth="2" NCoef="0" IVar="-1" Cut="0.0000000000000000e+00" cType="1" res="-1.3408686034381390e-02" rms="0.0000000000000000e+00" purity="-1.2978736311197281e-02" nType="-99"/>
          <Node pos="r" depth="2" NCoef="0" IVar="-1" Cut="0.0000000000000000e+00" cType="1" res="3.2900399528443813e-03" rms="2.5090470910072327e-01" purity="7.7530972659587860e-02" nType="-99"/>
        </Node>
        <Node pos="r" depth="1" NCoef="0" IVar="31" Cut="2.5922164916992188e+00" cType="1" res="1.0139453411102295e-01" rms="3.2535362243652344e-01" purity="7.1910935640335083e-01" nType="0">
          <Node pos="l" depth="2" NCoef="0" IVar="-1" Cut="0.0000000000000000e+00" cType="1" res="-4.7332234680652618e-03" rms="2.6924130320549011e-01" purity="2.1109393239021301e-01" nType="-99"/>
          <Node pos="r" depth="2" NCoef="0" IVar="-1" Cut="0.0000000000000000e+00" cType="1" res="1.5329674351960421e-03" rms="3.1997326016426086e-01" purity="7.5851869583129883e-01" nType="-99"/>
        </Node>
      </Node>
    </BinaryTree>
    <BinaryTree type="DecisionTree" boostWeight="1.0000000000000000e+00" itree="298">
      <Node pos="s" depth="0" NCoef="0" IVar="48" Cut="1.2225245237350464e+00" cType="1" res="5.6008912622928619e-02" rms="2.8417614102363586e-01" purity="5.0093942880630493e-01" nType="0">
        <Node pos="l" depth="1" NCoef="0" IVar="65" Cut="1.2345679104328156e-02" cType="1" res="-1.0491319000720978e-01" rms="2.0478540658950806e-01" purity="1.3834266364574432e-01" nType="0">
          <Node pos="l" depth="2" NCoef="0" IVar="-1" Cut="0.0000000000000000e+00" cType="1" res="-5.7623474858701229e-03" rms="0.0000000000000000e+00" purity="1.6238864511251450e-02" nType="-99"/>
          <Node pos="r" depth="2" NCoef="0" IVar="-1" Cut="0.0000000000000000e+00" cType="1" res="-2.0633301755879074e-04" rms="2.9002672433853149e-01" purity="2.7867785096168518e-01" nType="-99"/>
        </Node>
        <Node pos="r" depth="1" NCoef="0" IVar="5" Cut="2.8452664613723755e-01" cType="1" res="8.8765330612659454e-02" rms="2.8690356016159058e-01" purity="5.7474762201309204e-01" nType="0">
          <Node pos="l" depth="2" NCoef="0" IVar="-1" Cut="0.0000000000000000e+00" cType="1" res="2.4368341546505690e-03" rms="2.3893383145332336e-01" purity="7.8302788734436035e-01" nType="-99"/>
          <Node pos="r" depth="2" NCoef="0" IVar="-1" Cut="0.0000000000000000e+00" cType="1" res="2.7700624195858836e-04" rms="3.1457543373107910e-01" purity="3.5039103031158447e-01" nType="-99"/>
        </Node>
      </Node>
    </BinaryTree>
    <BinaryTree type="DecisionTree" boostWeight="1.0000000000000000e+00" itree="299">
      <Node pos="s" depth="0" NCoef="0" IVar="5" Cut="4.3358969688415527e-01" cType="1" res="4.7149330377578735e-02" rms="2.8190854191780090e-01" purity="4.8916172981262207e-01" nType="0">
        <Node pos="l" depth="1" NCoef="0" IVar="36" Cut="1.2908332347869873e+00" cType="1" res="8.6826607584953308e-02" rms="2.7358090877532959e-01" purity="5.9648227691650391e-01" nType="0">
          <Node pos="l" depth="2" NCoef="0" IVar="-1" Cut="0.0000000000000000e+00" cType="1" res="-4.2482195422053337e-03" rms="1.7018312215805054e-01" purity="6.5998576581478119e-02" nType="-99"/>
          <Node pos="r" depth="2" NCoef="0" IVar="-1" Cut="0.0000000000000000e+00" cType="1" res="1.8217965262010694e-03" rms="2.8092175722122192e-01" purity="7.3491364717483521e-01" nType="-99"/>
        </Node>
        <Node pos="r" depth="1" NCoef="0" IVar="3" Cut="4.9530544281005859e+00" cType="1" res="-7.0900805294513702e-02" rms="2.7315923571586609e-01" purity="1.6985546052455902e-01" nType="0">
          <Node pos="l" depth="2" NCoef="0" IVar="-1" Cut="0.0000000000000000e+00" cType="1" res="-2.4626001249998808e-03" rms="2.4379745125770569e-01" purity="1.2431902438402176e-01" nType="-99"/>
          <Node pos="r" depth="2" NCoef="0" IVar="-1" Cut="0.0000000000000000e+00" cType="1" res="1.3777437852695584e-03" rms="3.3272480964660645e-01" purity="3.5285484790802002e-01" nType="-99"/>
        </Node>
      </Node>
    </BinaryTree>
    <BinaryTree type="DecisionTree" boostWeight="1.0000000000000000e+00" itree="300">
      <Node pos="s" depth="0" NCoef="0" IVar="36" Cut="1.4456657171249390e+00" cType="1" res="5.5889625102281570e-02" rms="2.7718162536621094e-01" purity="5.0919699668884277e-01" nType="0">
        <Node pos="l" depth="1" NCoef="0" IVar="31" Cut="2.8169183731079102e+00" cType="1" res="-5.3375162184238434e-02" rms="2.1063695847988129e-01" purity="1.4272978901863098e-01" nType="0">
          <Node pos="l" depth="2" NCoef="0" IVar="-1" Cut="0.0000000000000000e+00" cType="1" res="-8.1653427332639694e-03" rms="1.7842829227447510e-01" purity="4.2925894260406494e-02" nType="-99"/>
          <Node pos="r" depth="2" NCoef="0" IVar="-1" Cut="0.0000000000000000e+00" cType="1" res="-3.4647679422050714e-04" rms="2.1948833763599396e-01" purity="2.0793582499027252e-01" nType="-99"/>
        </Node>
        <Node pos="r" depth="1" NCoef="0" IVar="5" Cut="3.4243094921112061e-01" cType="1" res="1.0468059778213501e-01" rms="2.8915977478027344e-01" purity="6.7283892631530762e-01" nType="0">
          <Node pos="l" depth="2" NCoef="0" IVar="-1" Cut="0.0000000000000000e+00" cType="1" res="2.2743372246623039e-03" rms="2.3741777241230011e-01" purity="8.3592212200164795e-01" nType="-99"/>
          <Node pos="r" depth="2" NCoef="0" IVar="-1" Cut="0.0000000000000000e+00" cType="1" res="-1.6615088679827750e-04" rms="3.4250938892364502e-01" purity="3.5126802325248718e-01" nType="-99"/>
        </Node>
      </Node>
    </BinaryTree>
    <BinaryTree type="DecisionTree" boostWeight="1.0000000000000000e+00" itree="301">
      <Node pos="s" depth="0" NCoef="0" IVar="36" Cut="1.4456657171249390e+00" cType="1" res="5.6906450539827347e-02" rms="2.8499096632003784e-01" purity="4.9772551655769348e-01" nType="0">
        <Node pos="l" depth="1" NCoef="0" IVar="3" Cut="5.1720046997070312e+00" cType="1" res="-3.2599117606878281e-02" rms="2.3968519270420074e-01" purity="1.5672475099563599e-01" nType="0">
          <Node pos="l" depth="2" NCoef="0" IVar="-1" Cut="0.0000000000000000e+00" cType="1" res="-2.7824235148727894e-03" rms="2.1180950105190277e-01" purity="1.2191987782716751e-01" nType="-99"/>
          <Node pos="r" depth="2" NCoef="0" IVar="-1" Cut="0.0000000000000000e+00" cType="1" res="2.6820919010788202e-03" rms="3.0726140737533569e-01" purity="3.4962072968482971e-01" nType="-99"/>
        </Node>
        <Node pos="r" depth="1" NCoef="0" IVar="5" Cut="3.5992708802223206e-01" cType="1" res="9.8813340067863464e-02" rms="2.9469028115272522e-01" purity="6.5738356113433838e-01" nType="0">
          <Node pos="l" depth="2" NCoef="0" IVar="-1" Cut="0.0000000000000000e+00" cType="1" res="2.1873863879591227e-03" rms="2.4725693464279175e-01" purity="8.1297659873962402e-01" nType="-99"/>
          <Node pos="r" depth="2" NCoef="0" IVar="-1" Cut="0.0000000000000000e+00" cType="1" res="-2.2245160653255880e-04" rms="3.4751754999160767e-01" purity="3.3759957551956177e-01" nType="-99"/>
        </Node>
      </Node>
    </BinaryTree>
    <BinaryTree type="DecisionTree" boostWeight="1.0000000000000000e+00" itree="302">
      <Node pos="s" depth="0" NCoef="0" IVar="48" Cut="9.6362447738647461e-01" cType="1" res="5.9099905192852020e-02" rms="2.8764244914054871e-01" purity="5.0329703092575073e-01" nType="0">
        <Node pos="l" depth="1" NCoef="0" IVar="67" Cut="9.2955559492111206e-01" cType="1" res="-1.1437278985977173e-01" rms="2.0863091945648193e-01" purity="8.6198732256889343e-02" nType="0">
          <Node pos="l" depth="2" NCoef="0" IVar="-1" Cut="0.0000000000000000e+00" cType="1" res="-8.1360135227441788e-03" rms="0.0000000000000000e+00" purity="-1.2050803005695343e-01" nType="-99"/>
          <Node pos="r" depth="2" NCoef="0" IVar="-1" Cut="0.0000000000000000e+00" cType="1" res="-1.5202102949842811e-03" rms="2.6657655835151672e-01" purity="1.6938869655132294e-01" nType="-99"/>
        </Node>
        <Node pos="r" depth="1" NCoef="0" IVar="5" Cut="2.8719499707221985e-01" cType="1" res="8.0661594867706299e-02" rms="2.8880208730697632e-01" purity="5.5514007806777954e-01" nType="0">
          <Node pos="l" depth="2" NCoef="0" IVar="-1" Cut="0.0000000000000000e+00" cType="1" res="2.2894139401614666e-03" rms="2.5588095188140869e-01" purity="7.4380844831466675e-01" nType="-99"/>
          <Node pos="r" depth="2" NCoef="0" IVar="-1" Cut="0.0000000000000000e+00" cType="1" res="1.9977545889560133e-04" rms="3.0820086598396301e-01" purity="3.3665060997009277e-01" nType="-99"/>
        </Node>
      </Node>
    </BinaryTree>
    <BinaryTree type="DecisionTree" boostWeight="1.0000000000000000e+00" itree="303">
      <Node pos="s" depth="0" NCoef="0" IVar="17" Cut="1.4457910060882568e+00" cType="1" res="5.2773527801036835e-02" rms="2.7758237719535828e-01" purity="5.0040125846862793e-01" nType="0">
        <Node pos="l" depth="1" NCoef="0" IVar="13" Cut="1.4307713508605957e+00" cType="1" res="-3.7017203867435455e-02" rms="1.2116961926221848e-01" purity="2.4848924949765205e-02" nType="0">
          <Node pos="l" depth="2" NCoef="0" IVar="-1" Cut="0.0000000000000000e+00" cType="1" res="-2.7783785481005907e-03" rms="1.5500876307487488e-01" purity="3.5490471869707108e-02" nType="-99"/>
          <Node pos="r" depth="2" NCoef="0" IVar="-1" Cut="0.0000000000000000e+00" cType="1" res="-5.5555677972733974e-03" rms="0.0000000000000000e+00" purity="-5.1968256011605263e-03" nType="-99"/>
        </Node>
        <Node pos="r" depth="1" NCoef="0" IVar="31" Cut="2.4945547580718994e+00" cType="1" res="1.0171033442020416e-01" rms="3.2288587093353271e-01" purity="7.5958192348480225e-01" nType="0">
          <Node pos="l" depth="2" NCoef="0" IVar="-1" Cut="0.0000000000000000e+00" cType="1" res="-7.5441189110279083e-03" rms="2.3264393210411072e-01" purity="1.5216590464115143e-01" nType="-99"/>
          <Node pos="r" depth="2" NCoef="0" IVar="-1" Cut="0.0000000000000000e+00" cType="1" res="1.4192904345691204e-03" rms="3.1790074706077576e-01" purity="7.9034656286239624e-01" nType="-99"/>
        </Node>
      </Node>
    </BinaryTree>
    <BinaryTree type="DecisionTree" boostWeight="1.0000000000000000e+00" itree="304">
      <Node pos="s" depth="0" NCoef="0" IVar="17" Cut="1.5220416784286499e+00" cType="1" res="4.3055165559053421e-02" rms="2.6915329694747925e-01" purity="4.9608868360519409e-01" nType="0">
        <Node pos="l" depth="1" NCoef="0" IVar="5" Cut="2.9942679405212402e-01" cType="1" res="-1.2204050086438656e-02" rms="2.5570127367973328e-01" purity="2.5195753574371338e-01" nType="0">
          <Node pos="l" depth="2" NCoef="0" IVar="-1" Cut="0.0000000000000000e+00" cType="1" res="1.2572569539770484e-03" rms="2.8219327330589294e-01" purity="4.1100445389747620e-01" nType="-99"/>
          <Node pos="r" depth="2" NCoef="0" IVar="-1" Cut="0.0000000000000000e+00" cType="1" res="-1.9850018434226513e-03" rms="2.1007959544658661e-01" purity="1.1239057034254074e-01" nType="-99"/>
        </Node>
        <Node pos="r" depth="1" NCoef="0" IVar="15" Cut="1.5230847597122192e+00" cType="1" res="1.2816800177097321e-01" rms="2.6715293526649475e-01" purity="8.7211102247238159e-01" nType="0">
          <Node pos="l" depth="2" NCoef="0" IVar="-1" Cut="0.0000000000000000e+00" cType="1" res="2.2437409497797489e-03" rms="2.0763149857521057e-01" purity="9.3041890859603882e-01" nType="-99"/>
          <Node pos="r" depth="2" NCoef="0" IVar="-1" Cut="0.0000000000000000e+00" cType="1" res="-2.1942505554761738e-04" rms="4.0403038263320923e-01" purity="6.2835305929183960e-01" nType="-99"/>
        </Node>
      </Node>
    </BinaryTree>
    <BinaryTree type="DecisionTree" boostWeight="1.0000000000000000e+00" itree="305">
      <Node pos="s" depth="0" NCoef="0" IVar="5" Cut="3.6044019460678101e-01" cType="1" res="5.2514251321554184e-02" rms="2.7807620167732239e-01" purity="5.0388938188552856e-01" nType="0">
        <Node pos="l" depth="1" NCoef="0" IVar="36" Cut="1.4068046808242798e+00" cType="1" res="1.0394549369812012e-01" rms="2.6225379109382629e-01" purity="6.3890177011489868e-01" nType="0">
          <Node pos="l" depth="2" NCoef="0" IVar="-1" Cut="0.0000000000000000e+00" cType="1" res="-2.0048478618264198e-03" rms="2.2841311991214752e-01" purity="1.2979458272457123e-01" nType="-99"/>
          <Node pos="r" depth="2" NCoef="0" IVar="-1" Cut="0.0000000000000000e+00" cType="1" res="2.1986642386764288e-03" rms="2.5386923551559448e-01" purity="8.0411595106124878e-01" nType="-99"/>
        </Node>
        <Node pos="r" depth="1" NCoef="0" IVar="34" Cut="-1.4540401697158813e+00" cType="1" res="-4.7920573502779007e-02" rms="2.8065791726112366e-01" purity="2.4023748934268951e-01" nType="0">
          <Node pos="l" depth="2" NCoef="0" IVar="-1" Cut="0.0000000000000000e+00" cType="1" res="2.5242336560040712e-03" rms="3.2810431718826294e-01" purity="4.6157437562942505e-01" nType="-99"/>
          <Node pos="r" depth="2" NCoef="0" IVar="-1" Cut="0.0000000000000000e+00" cType="1" res="-1.4584960881620646e-03" rms="2.6444199681282043e-01" purity="2.1244651079177856e-01" nType="-99"/>
        </Node>
      </Node>
    </BinaryTree>
    <BinaryTree type="DecisionTree" boostWeight="1.0000000000000000e+00" itree="306">
      <Node pos="s" depth="0" NCoef="0" IVar="2" Cut="1.9302512407302856e+00" cType="1" res="5.5144958198070526e-02" rms="2.8618854284286499e-01" purity="5.0151067972183228e-01" nType="0">
        <Node pos="l" depth="1" NCoef="0" IVar="3" Cut="5.0274024009704590e+00" cType="1" res="-6.1615642160177231e-02" rms="2.5523185729980469e-01" purity="1.7577281594276428e-01" nType="0">
          <Node pos="l" depth="2" NCoef="0" IVar="-1" Cut="0.0000000000000000e+00" cType="1" res="-4.8108459450304508e-03" rms="2.2648000717163086e-01" purity="1.1919768899679184e-01" nType="-99"/>
          <Node pos="r" depth="2" NCoef="0" IVar="-1" Cut="0.0000000000000000e+00" cType="1" res="1.4752960996702313e-03" rms="2.7903607487678528e-01" purity="3.1367924809455872e-01" nType="-99"/>
        </Node>
        <Node pos="r" depth="1" NCoef="0" IVar="17" Cut="1.3684681653976440e+00" cType="1" res="8.7916448712348938e-02" rms="2.8584560751914978e-01" purity="5.9293627738952637e-01" nType="0">
          <Node pos="l" depth="2" NCoef="0" IVar="-1" Cut="0.0000000000000000e+00" cType="1" res="-5.9128776192665100e-03" rms="1.1924550682306290e-01" purity="1.7460329458117485e-02" nType="-99"/>
          <Node pos="r" depth="2" NCoef="0" IVar="-1" Cut="0.0000000000000000e+00" cType="1" res="1.5524006448686123e-03" rms="3.1208243966102600e-01" purity="7.7689445018768311e-01" nType="-99"/>
        </Node>
      </Node>
    </BinaryTree>
    <BinaryTree type="DecisionTree" boostWeight="1.0000000000000000e+00" itree="307">
      <Node pos="s" depth="0" NCoef="0" IVar="48" Cut="9.6362447738647461e-01" cType="1" res="5.7540446519851685e-02" rms="2.8705641627311707e-01" purity="5.0394225120544434e-01" nType="0">
        <Node pos="l" depth="1" NCoef="0" IVar="13" Cut="1.2092978954315186e+00" cType="1" res="-1.0809343308210373e-01" rms="2.1860778331756592e-01" purity="1.2324839830398560e-01" nType="0">
          <Node pos="l" depth="2" NCoef="0" IVar="-1" Cut="0.0000000000000000e+00" cType="1" res="6.0616509290412068e-04" rms="1.9758780300617218e-01" purity="1.1002404242753983e-01" nType="-99"/>
          <Node pos="r" depth="2" NCoef="0" IVar="-1" Cut="0.0000000000000000e+00" cType="1" res="-3.3841298427432775e-03" rms="2.0518797636032104e-01" purity="1.2956148386001587e-01" nType="-99"/>
        </Node>
        <Node pos="r" depth="1" NCoef="0" IVar="17" Cut="1.3671132326126099e+00" cType="1" res="7.8862801194190979e-02" rms="2.8787273168563843e-01" purity="5.5294960737228394e-01" nType="0">
          <Node pos="l" depth="2" NCoef="0" IVar="-1" Cut="0.0000000000000000e+00" cType="1" res="-5.1298453472554684e-03" rms="1.3005834817886353e-01" purity="2.1202443167567253e-02" nType="-99"/>
          <Node pos="r" depth="2" NCoef="0" IVar="-1" Cut="0.0000000000000000e+00" cType="1" res="1.5406794846057892e-03" rms="3.1963947415351868e-01" purity="7.5472837686538696e-01" nType="-99"/>
        </Node>
      </Node>
    </BinaryTree>
    <BinaryTree type="DecisionTree" boostWeight="1.0000000000000000e+00" itree="308">
      <Node pos="s" depth="0" NCoef="0" IVar="17" Cut="1.4457910060882568e+00" cType="1" res="5.7877305895090103e-02" rms="2.8250747919082642e-01" purity="5.0411868095397949e-01" nType="0">
        <Node pos="l" depth="1" NCoef="0" IVar="60" Cut="-1.2136647701263428e+00" cType="1" res="-2.6081478223204613e-02" rms="1.4717757701873779e-01" purity="3.5154264420270920e-02" nType="0">
          <Node pos="l" depth="2" NCoef="0" IVar="-1" Cut="0.0000000000000000e+00" cType="1" res="-5.1842338871210814e-04" rms="1.9885350763797760e-01" purity="5.9002403169870377e-02" nType="-99"/>
          <Node pos="r" depth="2" NCoef="0" IVar="-1" Cut="0.0000000000000000e+00" cType="1" res="-1.5695998445153236e-02" rms="0.0000000000000000e+00" purity="-5.2738349884748459e-02" nType="-99"/>
        </Node>
        <Node pos="r" depth="1" NCoef="0" IVar="48" Cut="1.2400738000869751e+00" cType="1" res="1.0339418053627014e-01" rms="3.2471799850463867e-01" purity="7.5835996866226196e-01" nType="0">
          <Node pos="l" depth="2" NCoef="0" IVar="-1" Cut="0.0000000000000000e+00" cType="1" res="-1.1437768116593361e-03" rms="3.9040359854698181e-01" purity="3.6184117197990417e-01" nType="-99"/>
          <Node pos="r" depth="2" NCoef="0" IVar="-1" Cut="0.0000000000000000e+00" cType="1" res="1.6317388508468866e-03" rms="3.0437824130058289e-01" purity="8.1394362449645996e-01" nType="-99"/>
        </Node>
      </Node>
    </BinaryTree>
    <BinaryTree type="DecisionTree" boostWeight="1.0000000000000000e+00" itree="309">
      <Node pos="s" depth="0" NCoef="0" IVar="2" Cut="2.0228688716888428e+00" cType="1" res="5.0069384276866913e-02" rms="2.7773445844650269e-01" purity="5.0061380863189697e-01" nType="0">
        <Node pos="l" depth="1" NCoef="0" IVar="57" Cut="-1.2264026403427124e+00" cType="1" res="-6.1204586178064346e-02" rms="2.2905659675598145e-01" purity="2.0814849436283112e-01" nType="0">
          <Node pos="l" depth="2" NCoef="0" IVar="-1" Cut="0.0000000000000000e+00" cType="1" res="-2.3887214774731547e-04" rms="2.7989560365676880e-01" purity="3.1045290827751160e-01" nType="-99"/>
          <Node pos="r" depth="2" NCoef="0" IVar="-1" Cut="0.0000000000000000e+00" cType="1" res="-7.5220935977995396e-03" rms="0.0000000000000000e+00" purity="3.1176583841443062e-02" nType="-99"/>
        </Node>
        <Node pos="r" depth="1" NCoef="0" IVar="17" Cut="1.3669055700302124e+00" cType="1" res="8.8325947523117065e-02" rms="2.8266128897666931e-01" purity="6.0116481781005859e-01" nType="0">
          <Node pos="l" depth="2" NCoef="0" IVar="-1" Cut="0.0000000000000000e+00" cType="1" res="-6.2523516826331615e-03" rms="1.0015188157558441e-01" purity="1.4603797346353531e-02" nType="-99"/>
          <Node pos="r" depth="2" NCoef="0" IVar="-1" Cut="0.0000000000000000e+00" cType="1" res="1.5668045962229371e-03" rms="3.0967739224433899e-01" purity="7.8641873598098755e-01" nType="-99"/>
        </Node>
      </Node>
    </BinaryTree>
    <BinaryTree type="DecisionTree" boostWeight="1.0000000000000000e+00" itree="310">
      <Node pos="s" depth="0" NCoef="0" IVar="17" Cut="1.5231137275695801e+00" cType="1" res="5.1877338439226151e-02" rms="2.7500894665718079e-01" purity="5.0992423295974731e-01" nType="0">
        <Node pos="l" depth="1" NCoef="0" IVar="5" Cut="2.4520714581012726e-01" cType="1" res="-3.8152751512825489e-03" rms="2.7153399586677551e-01" purity="2.6026892662048340e-01" nType="0">
          <Node pos="l" depth="2" NCoef="0" IVar="-1" Cut="0.0000000000000000e+00" cType="1" res="1.5051115769892931e-03" rms="3.0114039778709412e-01" purity="4.2280259728431702e-01" nType="-99"/>
          <Node pos="r" depth="2" NCoef="0" IVar="-1" Cut="0.0000000000000000e+00" cType="1" res="-1.4293802669271827e-03" rms="2.3402531445026398e-01" purity="1.4542834460735321e-01" nType="-99"/>
        </Node>
        <Node pos="r" depth="1" NCoef="0" IVar="15" Cut="1.5230776071548462e+00" cType="1" res="1.3466449081897736e-01" rms="2.5882190465927124e-01" purity="8.8103723526000977e-01" nType="0">
          <Node pos="l" depth="2" NCoef="0" IVar="-1" Cut="0.0000000000000000e+00" cType="1" res="2.3318594321608543e-03" rms="2.0057378709316254e-01" purity="9.3804991245269775e-01" nType="-99"/>
          <Node pos="r" depth="2" NCoef="0" IVar="-1" Cut="0.0000000000000000e+00" cType="1" res="-1.1066067963838577e-04" rms="3.9443388581275940e-01" purity="6.3805198669433594e-01" nType="-99"/>
        </Node>
      </Node>
    </BinaryTree>
    <BinaryTree type="DecisionTree" boostWeight="1.0000000000000000e+00" itree="311">
      <Node pos="s" depth="0" NCoef="0" IVar="17" Cut="1.5220416784286499e+00" cType="1" res="4.9176644533872604e-02" rms="2.7767649292945862e-01" purity="5.0227153301239014e-01" nType="0">
        <Node pos="l" depth="1" NCoef="0" IVar="2" Cut="2.4622502326965332e+00" cType="1" res="-5.2580976625904441e-04" rms="2.7281242609024048e-01" purity="2.5534048676490784e-01" nType="0">
          <Node pos="l" depth="2" NCoef="0" IVar="-1" Cut="0.0000000000000000e+00" cType="1" res="-1.8420141423121095e-03" rms="2.2622331976890564e-01" purity="1.2293938547372818e-01" nType="-99"/>
          <Node pos="r" depth="2" NCoef="0" IVar="-1" Cut="0.0000000000000000e+00" cType="1" res="9.6001487690955400e-04" rms="3.0827459692955017e-01" purity="4.0948989987373352e-01" nType="-99"/>
        </Node>
        <Node pos="r" depth="1" NCoef="0" IVar="15" Cut="1.5230776071548462e+00" cType="1" res="1.2330612540245056e-01" rms="2.6817569136619568e-01" purity="8.7056064605712891e-01" nType="0">
          <Node pos="l" depth="2" NCoef="0" IVar="-1" Cut="0.0000000000000000e+00" cType="1" res="2.2045292425900698e-03" rms="2.0653431117534637e-01" purity="9.3135529756546021e-01" nType="-99"/>
          <Node pos="r" depth="2" NCoef="0" IVar="-1" Cut="0.0000000000000000e+00" cType="1" res="-1.9810377852991223e-04" rms="4.0597388148307800e-01" purity="6.2744158506393433e-01" nType="-99"/>
        </Node>
      </Node>
    </BinaryTree>
    <BinaryTree type="DecisionTree" boostWeight="1.0000000000000000e+00" itree="312">
      <Node pos="s" depth="0" NCoef="0" IVar="17" Cut="1.5220416784286499e+00" cType="1" res="4.6624068170785904e-02" rms="2.7978751063346863e-01" purity="4.8883670568466187e-01" nType="0">
        <Node pos="l" depth="1" NCoef="0" IVar="15" Cut="1.5199739933013916e+00" cType="1" res="-4.2952317744493484e-03" rms="2.7863341569900513e-01" purity="2.3843659460544586e-01" nType="0">
          <Node pos="l" depth="2" NCoef="0" IVar="-1" Cut="0.0000000000000000e+00" cType="1" res="2.4731448502279818e-04" rms="2.7475807070732117e-01" purity="2.5010788440704346e-01" nType="-99"/>
          <Node pos="r" depth="2" NCoef="0" IVar="-1" Cut="0.0000000000000000e+00" cType="1" res="-1.0513348504900932e-02" rms="2.1756914258003235e-01" purity="3.8335938006639481e-02" nType="-99"/>
        </Node>
        <Node pos="r" depth="1" NCoef="0" IVar="15" Cut="1.5224975347518921e+00" cType="1" res="1.2420585751533508e-01" rms="2.6323685050010681e-01" purity="8.7035202980041504e-01" nType="0">
          <Node pos="l" depth="2" NCoef="0" IVar="-1" Cut="0.0000000000000000e+00" cType="1" res="2.2680836264044046e-03" rms="1.9752696156501770e-01" purity="9.3459719419479370e-01" nType="-99"/>
          <Node pos="r" depth="2" NCoef="0" IVar="-1" Cut="0.0000000000000000e+00" cType="1" res="-4.8327093827538192e-04" rms="3.9900249242782593e-01" purity="6.0925966501235962e-01" nType="-99"/>
        </Node>
      </Node>
    </BinaryTree>
    <BinaryTree type="DecisionTree" boostWeight="1.0000000000000000e+00" itree="313">
      <Node pos="s" depth="0" NCoef="0" IVar="36" Cut="1.4067025184631348e+00" cType="1" res="5.0202839076519012e-02" rms="2.7589941024780273e-01" purity="4.9872756004333496e-01" nType="0">
        <Node pos="l" depth="1" NCoef="0" IVar="3" Cut="5.0076069831848145e+00" cType="1" res="-4.9614295363426208e-02" rms="2.0407384634017944e-01" purity="9.9872440099716187e-02" nType="0">
          <Node pos="l" depth="2" NCoef="0" IVar="-1" Cut="0.0000000000000000e+00" cType="1" res="-6.5734530799090862e-03" rms="1.5263380110263824e-01" purity="4.0560748428106308e-02" nType="-99"/>
          <Node pos="r" depth="2" NCoef="0" IVar="-1" Cut="0.0000000000000000e+00" cType="1" res="1.7029873561114073e-03" rms="2.7478143572807312e-01" purity="2.6983624696731567e-01" nType="-99"/>
        </Node>
        <Node pos="r" depth="1" NCoef="0" IVar="5" Cut="3.9747819304466248e-01" cType="1" res="8.7534621357917786e-02" rms="2.8964450955390930e-01" purity="6.4790010452270508e-01" nType="0">
          <Node pos="l" depth="2" NCoef="0" IVar="-1" Cut="0.0000000000000000e+00" cType="1" res="1.9733479712158442e-03" rms="2.5811910629272461e-01" purity="7.7570915222167969e-01" nType="-99"/>
          <Node pos="r" depth="2" NCoef="0" IVar="-1" Cut="0.0000000000000000e+00" cType="1" res="-6.9282046752050519e-04" rms="3.2459619641304016e-01" purity="3.1250923871994019e-01" nType="-99"/>
        </Node>
      </Node>
    </BinaryTree>
    <BinaryTree type="DecisionTree" boostWeight="1.0000000000000000e+00" itree="314">
      <Node pos="s" depth="0" NCoef="0" IVar="1" Cut="2.7706077098846436e+00" cType="1" res="5.5591732263565063e-02" rms="2.8325495123863220e-01" purity="5.0337439775466919e-01" nType="0">
        <Node pos="l" depth="1" NCoef="0" IVar="3" Cut="4.7431745529174805e+00" cType="1" res="-4.0117822587490082e-02" rms="2.4340498447418213e-01" purity="2.3922781646251678e-01" nType="0">
          <Node pos="l" depth="2" NCoef="0" IVar="-1" Cut="0.0000000000000000e+00" cType="1" res="-4.0530385449528694e-03" rms="1.9027264416217804e-01" purity="1.0482489317655563e-01" nType="-99"/>
          <Node pos="r" depth="2" NCoef="0" IVar="-1" Cut="0.0000000000000000e+00" cType="1" res="5.4918049136176705e-04" rms="2.6944440603256226e-01" purity="3.7289541959762573e-01" nType="-99"/>
        </Node>
        <Node pos="r" depth="1" NCoef="0" IVar="5" Cut="3.6081039905548096e-01" cType="1" res="9.8837345838546753e-02" rms="2.8932186961174011e-01" purity="6.2272691726684570e-01" nType="0">
          <Node pos="l" depth="2" NCoef="0" IVar="-1" Cut="0.0000000000000000e+00" cType="1" res="2.3383791558444500e-03" rms="2.5153040885925293e-01" purity="7.6769077777862549e-01" nType="-99"/>
          <Node pos="r" depth="2" NCoef="0" IVar="-1" Cut="0.0000000000000000e+00" cType="1" res="2.1314761397661641e-05" rms="3.3241200447082520e-01" purity="3.3150789141654968e-01" nType="-99"/>
        </Node>
      </Node>
    </BinaryTree>
    <BinaryTree type="DecisionTree" boostWeight="1.0000000000000000e+00" itree="315">
      <Node pos="s" depth="0" NCoef="0" IVar="5" Cut="3.7829512357711792e-01" cType="1" res="5.2303899079561234e-02" rms="2.7721583843231201e-01" purity="5.0143569707870483e-01" nType="0">
        <Node pos="l" depth="1" NCoef="0" IVar="36" Cut="1.4456657171249390e+00" cType="1" res="9.7340382635593414e-02" rms="2.6021453738212585e-01" purity="6.2784129381179810e-01" nType="0">
          <Node pos="l" depth="2" NCoef="0" IVar="-1" Cut="0.0000000000000000e+00" cType="1" res="-7.0202094502747059e-04" rms="2.5579214096069336e-01" purity="2.0583231747150421e-01" nType="-99"/>
          <Node pos="r" depth="2" NCoef="0" IVar="-1" Cut="0.0000000000000000e+00" cType="1" res="2.1106053609400988e-03" rms="2.4624525010585785e-01" purity="8.0076932907104492e-01" nType="-99"/>
        </Node>
        <Node pos="r" depth="1" NCoef="0" IVar="38" Cut="-1.3000067472457886e+00" cType="1" res="-4.8226278275251389e-02" rms="2.8742021322250366e-01" purity="2.1927388012409210e-01" nType="0">
          <Node pos="l" depth="2" NCoef="0" IVar="-1" Cut="0.0000000000000000e+00" cType="1" res="1.2884431052953005e-03" rms="2.9801204800605774e-01" purity="3.1346306204795837e-01" nType="-99"/>
          <Node pos="r" depth="2" NCoef="0" IVar="-1" Cut="0.0000000000000000e+00" cType="1" res="-1.6488640103489161e-03" rms="2.7570265531539917e-01" purity="1.8916700780391693e-01" nType="-99"/>
        </Node>
      </Node>
    </BinaryTree>
    <BinaryTree type="DecisionTree" boostWeight="1.0000000000000000e+00" itree="316">
      <Node pos="s" depth="0" NCoef="0" IVar="5" Cut="4.3533283472061157e-01" cType="1" res="4.5626446604728699e-02" rms="2.7321073412895203e-01" purity="4.9494379758834839e-01" nType="0">
        <Node pos="l" depth="1" NCoef="0" IVar="36" Cut="1.3296864032745361e+00" cType="1" res="8.1165634095668793e-02" rms="2.6405414938926697e-01" purity="5.9980976581573486e-01" nType="0">
          <Node pos="l" depth="2" NCoef="0" IVar="-1" Cut="0.0000000000000000e+00" cType="1" res="-3.9802249521017075e-03" rms="1.6340997815132141e-01" purity="6.3079930841922760e-02" nType="-99"/>
          <Node pos="r" depth="2" NCoef="0" IVar="-1" Cut="0.0000000000000000e+00" cType="1" res="1.7759327311068773e-03" rms="2.7155199646949768e-01" purity="7.4397337436676025e-01" nType="-99"/>
        </Node>
        <Node pos="r" depth="1" NCoef="0" IVar="52" Cut="3.3873062133789062e+00" cType="1" res="-5.8392077684402466e-02" rms="2.7299505472183228e-01" purity="1.8801498413085938e-01" nType="0">
          <Node pos="l" depth="2" NCoef="0" IVar="-1" Cut="0.0000000000000000e+00" cType="1" res="-7.8599707921966910e-04" rms="2.8530204296112061e-01" purity="2.0854891836643219e-01" nType="-99"/>
          <Node pos="r" depth="2" NCoef="0" IVar="-1" Cut="0.0000000000000000e+00" cType="1" res="-4.9767061136662960e-03" rms="1.2178893387317657e-01" purity="7.0621095597743988e-02" nType="-99"/>
        </Node>
      </Node>
    </BinaryTree>
    <BinaryTree type="DecisionTree" boostWeight="1.0000000000000000e+00" itree="317">
      <Node pos="s" depth="0" NCoef="0" IVar="5" Cut="2.8323230147361755e-01" cType="1" res="5.0403192639350891e-02" rms="2.7816307544708252e-01" purity="5.0367915630340576e-01" nType="0">
        <Node pos="l" depth="1" NCoef="0" IVar="48" Cut="1.5284292697906494e+00" cType="1" res="1.0509973019361496e-01" rms="2.6564046740531921e-01" purity="6.6575163602828979e-01" nType="0">
          <Node pos="l" depth="2" NCoef="0" IVar="-1" Cut="0.0000000000000000e+00" cType="1" res="-8.8753772433847189e-04" rms="2.8701809048652649e-01" purity="2.8264874219894409e-01" nType="-99"/>
          <Node pos="r" depth="2" NCoef="0" IVar="-1" Cut="0.0000000000000000e+00" cType="1" res="2.5803521275520325e-03" rms="2.3441861569881439e-01" purity="8.1419485807418823e-01" nType="-99"/>
        </Node>
        <Node pos="r" depth="1" NCoef="0" IVar="17" Cut="1.5199401378631592e+00" cType="1" res="-1.7824530601501465e-02" rms="2.7835652232170105e-01" purity="3.0151209235191345e-01" nType="0">
          <Node pos="l" depth="2" NCoef="0" IVar="-1" Cut="0.0000000000000000e+00" cType="1" res="-1.4821038348600268e-03" rms="2.2811588644981384e-01" purity="1.2848711013793945e-01" nType="-99"/>
          <Node pos="r" depth="2" NCoef="0" IVar="-1" Cut="0.0000000000000000e+00" cType="1" res="1.0091449366882443e-03" rms="3.6387488245964050e-01" purity="7.8153198957443237e-01" nType="-99"/>
        </Node>
      </Node>
    </BinaryTree>
    <BinaryTree type="DecisionTree" boostWeight="1.0000000000000000e+00" itree="318">
      <Node pos="s" depth="0" NCoef="0" IVar="17" Cut="1.5216873884201050e+00" cType="1" res="5.8253802359104156e-02" rms="2.7962112426757812e-01" purity="5.1368254423141479e-01" nType="0">
        <Node pos="l" depth="1" NCoef="0" IVar="15" Cut="1.5203990936279297e+00" cType="1" res="7.9032974317669868e-03" rms="2.8351271152496338e-01" purity="2.6292929053306580e-01" nType="0">
          <Node pos="l" depth="2" NCoef="0" IVar="-1" Cut="0.0000000000000000e+00" cType="1" res="5.0279899733141065e-04" rms="2.7995544672012329e-01" purity="2.7508595585823059e-01" nType="-99"/>
          <Node pos="r" depth="2" NCoef="0" IVar="-1" Cut="0.0000000000000000e+00" cType="1" res="-1.0629107244312763e-02" rms="2.2040069103240967e-01" purity="3.9142873138189316e-02" nType="-99"/>
        </Node>
        <Node pos="r" depth="1" NCoef="0" IVar="15" Cut="1.5233229398727417e+00" cType="1" res="1.3166120648384094e-01" rms="2.5672590732574463e-01" purity="8.7926262617111206e-01" nType="0">
          <Node pos="l" depth="2" NCoef="0" IVar="-1" Cut="0.0000000000000000e+00" cType="1" res="2.3270901292562485e-03" rms="1.9760037958621979e-01" purity="9.3648701906204224e-01" nType="-99"/>
          <Node pos="r" depth="2" NCoef="0" IVar="-1" Cut="0.0000000000000000e+00" cType="1" res="-2.5344701134599745e-04" rms="3.9678129553794861e-01" purity="6.2375515699386597e-01" nType="-99"/>
        </Node>
      </Node>
    </BinaryTree>
    <BinaryTree type="DecisionTree" boostWeight="1.0000000000000000e+00" itree="319">
      <Node pos="s" depth="0" NCoef="0" IVar="17" Cut="1.4071296453475952e+00" cType="1" res="5.6517433375120163e-02" rms="2.7717363834381104e-01" purity="5.0908333063125610e-01" nType="0">
        <Node pos="l" depth="1" NCoef="0" IVar="48" Cut="2.9086959362030029e+00" cType="1" res="-3.2621372491121292e-02" rms="1.0336168110370636e-01" purity="1.6059651970863342e-02" nType="0">
          <Node pos="l" depth="2" NCoef="0" IVar="-1" Cut="0.0000000000000000e+00" cType="1" res="-8.3856061100959778e-03" rms="0.0000000000000000e+00" purity="-1.4036298671271652e-04" nType="-99"/>
          <Node pos="r" depth="2" NCoef="0" IVar="-1" Cut="0.0000000000000000e+00" cType="1" res="4.3326038867235184e-03" rms="2.8335204720497131e-01" purity="1.0824246704578400e-01" nType="-99"/>
        </Node>
        <Node pos="r" depth="1" NCoef="0" IVar="36" Cut="-8.3531033992767334e-01" cType="1" res="9.7375296056270599e-02" rms="3.1910914182662964e-01" purity="7.3506677150726318e-01" nType="0">
          <Node pos="l" depth="2" NCoef="0" IVar="-1" Cut="0.0000000000000000e+00" cType="1" res="-1.6917135566473007e-02" rms="0.0000000000000000e+00" purity="-9.2790331691503525e-03" nType="-99"/>
          <Node pos="r" depth="2" NCoef="0" IVar="-1" Cut="0.0000000000000000e+00" cType="1" res="1.4163359301164746e-03" rms="3.2244175672531128e-01" purity="7.8687918186187744e-01" nType="-99"/>
        </Node>
      </Node>
    </BinaryTree>
    <BinaryTree type="DecisionTree" boostWeight="1.0000000000000000e+00" itree="320">
      <Node pos="s" depth="0" NCoef="0" IVar="5" Cut="2.8323230147361755e-01" cType="1" res="5.0410319119691849e-02" rms="2.8167712688446045e-01" purity="4.9322378635406494e-01" nType="0">
        <Node pos="l" depth="1" NCoef="0" IVar="48" Cut="9.5645338296890259e-01" cType="1" res="1.0224347561597824e-01" rms="2.6056239008903503e-01" purity="6.6129601001739502e-01" nType="0">
          <Node pos="l" depth="2" NCoef="0" IVar="-1" Cut="0.0000000000000000e+00" cType="1" res="-3.1213148031383753e-03" rms="2.0511050522327423e-01" purity="1.1647418141365051e-01" nType="-99"/>
          <Node pos="r" depth="2" NCoef="0" IVar="-1" Cut="0.0000000000000000e+00" cType="1" res="2.2935075685381889e-03" rms="2.5184005498886108e-01" purity="7.4426478147506714e-01" nType="-99"/>
        </Node>
        <Node pos="r" depth="1" NCoef="0" IVar="14" Cut="-1.3379638195037842e+00" cType="1" res="-1.1070473119616508e-02" rms="2.9318195581436157e-01" purity="2.9386851191520691e-01" nType="0">
          <Node pos="l" depth="2" NCoef="0" IVar="-1" Cut="0.0000000000000000e+00" cType="1" res="-2.5311561767011881e-03" rms="1.9368451833724976e-01" purity="9.7411066293716431e-02" nType="-99"/>
          <Node pos="r" depth="2" NCoef="0" IVar="-1" Cut="0.0000000000000000e+00" cType="1" res="5.1913398783653975e-04" rms="3.3537638187408447e-01" purity="4.2068508267402649e-01" nType="-99"/>
        </Node>
      </Node>
    </BinaryTree>
    <BinaryTree type="DecisionTree" boostWeight="1.0000000000000000e+00" itree="321">
      <Node pos="s" depth="0" NCoef="0" IVar="36" Cut="1.3683462142944336e+00" cType="1" res="5.6767821311950684e-02" rms="2.7966380119323730e-01" purity="5.0317978858947754e-01" nType="0">
        <Node pos="l" depth="1" NCoef="0" IVar="31" Cut="3.6391777992248535e+00" cType="1" res="-4.4267479330301285e-02" rms="1.9645075500011444e-01" purity="9.1582946479320526e-02" nType="0">
          <Node pos="l" depth="2" NCoef="0" IVar="-1" Cut="0.0000000000000000e+00" cType="1" res="-5.2876207046210766e-03" rms="1.3683107495307922e-01" purity="4.3435811996459961e-02" nType="-99"/>
          <Node pos="r" depth="2" NCoef="0" IVar="-1" Cut="0.0000000000000000e+00" cType="1" res="4.2165005579590797e-03" rms="3.5306695103645325e-01" purity="4.8540529608726501e-01" nType="-99"/>
        </Node>
        <Node pos="r" depth="1" NCoef="0" IVar="5" Cut="4.3496552109718323e-01" cType="1" res="9.1950275003910065e-02" rms="2.9532262682914734e-01" purity="6.4650571346282959e-01" nType="0">
          <Node pos="l" depth="2" NCoef="0" IVar="-1" Cut="0.0000000000000000e+00" cType="1" res="1.9433001289144158e-03" rms="2.7229857444763184e-01" purity="7.5777971744537354e-01" nType="-99"/>
          <Node pos="r" depth="2" NCoef="0" IVar="-1" Cut="0.0000000000000000e+00" cType="1" res="-8.1510411109775305e-04" rms="3.2655292749404907e-01" purity="2.6608946919441223e-01" nType="-99"/>
        </Node>
      </Node>
    </BinaryTree>
    <BinaryTree type="DecisionTree" boostWeight="1.0000000000000000e+00" itree="322">
      <Node pos="s" depth="0" NCoef="0" IVar="17" Cut="1.4071296453475952e+00" cType="1" res="5.1522389054298401e-02" rms="2.7633342146873474e-01" purity="5.0237244367599487e-01" nType="0">
        <Node pos="l" depth="1" NCoef="0" IVar="35" Cut="-6.3804261386394501e-02" cType="1" res="-3.6354381591081619e-02" rms="8.1766948103904724e-02" purity="1.0152198374271393e-02" nType="0">
          <Node pos="l" depth="2" NCoef="0" IVar="-1" Cut="0.0000000000000000e+00" cType="1" res="-3.3253440633416176e-03" rms="1.4907273650169373e-01" purity="2.7895258739590645e-02" nType="-99"/>
          <Node pos="r" depth="2" NCoef="0" IVar="-1" Cut="0.0000000000000000e+00" cType="1" res="-1.9572556018829346e-02" rms="0.0000000000000000e+00" purity="-5.4394748061895370e-02" nType="-99"/>
        </Node>
        <Node pos="r" depth="1" NCoef="0" IVar="1" Cut="2.4344642162322998e+00" cType="1" res="9.2749752104282379e-02" rms="3.2206401228904724e-01" purity="7.3329746723175049e-01" nType="0">
          <Node pos="l" depth="2" NCoef="0" IVar="-1" Cut="0.0000000000000000e+00" cType="1" res="-1.4184588799253106e-03" rms="3.5289740562438965e-01" purity="3.0897241830825806e-01" nType="-99"/>
          <Node pos="r" depth="2" NCoef="0" IVar="-1" Cut="0.0000000000000000e+00" cType="1" res="1.4928880846127868e-03" rms="3.0952441692352295e-01" purity="7.8995031118392944e-01" nType="-99"/>
        </Node>
      </Node>
    </BinaryTree>
    <BinaryTree type="DecisionTree" boostWeight="1.0000000000000000e+00" itree="323">
      <Node pos="s" depth="0" NCoef="0" IVar="48" Cut="1.1730381250381470e+00" cType="1" res="4.7103822231292725e-02" rms="2.7336776256561279e-01" purity="4.9862012267112732e-01" nType="0">
        <Node pos="l" depth="1" NCoef="0" IVar="13" Cut="1.4794876575469971e+00" cType="1" res="-9.2920973896980286e-02" rms="2.1130837500095367e-01" purity="1.3416789472103119e-01" nType="0">
          <Node pos="l" depth="2" NCoef="0" IVar="-1" Cut="0.0000000000000000e+00" cType="1" res="-1.7862535314634442e-03" rms="1.6878364980220795e-01" purity="6.2412600964307785e-02" nType="-99"/>
          <Node pos="r" depth="2" NCoef="0" IVar="-1" Cut="0.0000000000000000e+00" cType="1" res="-2.6129132602363825e-03" rms="2.3155669867992401e-01" purity="2.3394659161567688e-01" nType="-99"/>
        </Node>
        <Node pos="r" depth="1" NCoef="0" IVar="5" Cut="3.5632359981536865e-01" cType="1" res="7.3661372065544128e-02" rms="2.7570044994354248e-01" purity="5.6774336099624634e-01" nType="0">
          <Node pos="l" depth="2" NCoef="0" IVar="-1" Cut="0.0000000000000000e+00" cType="1" res="2.1990409586578608e-03" rms="2.4167409539222717e-01" purity="7.3737645149230957e-01" nType="-99"/>
          <Node pos="r" depth="2" NCoef="0" IVar="-1" Cut="0.0000000000000000e+00" cType="1" res="-5.5921112652868032e-04" rms="3.0143886804580688e-01" purity="2.6791968941688538e-01" nType="-99"/>
        </Node>
      </Node>
    </BinaryTree>
    <BinaryTree type="DecisionTree" boostWeight="1.0000000000000000e+00" itree="324">
      <Node pos="s" depth="0" NCoef="0" IVar="3" Cut="5.0274024009704590e+00" cType="1" res="5.9052504599094391e-02" rms="2.8968358039855957e-01" purity="5.0685530900955200e-01" nType="0">
        <Node pos="l" depth="1" NCoef="0" IVar="36" Cut="1.4453582763671875e+00" cType="1" res="3.1543105840682983e-02" rms="2.7641794085502625e-01" purity="4.8654225468635559e-01" nType="0">
          <Node pos="l" depth="2" NCoef="0" IVar="-1" Cut="0.0000000000000000e+00" cType="1" res="-3.6459919065237045e-03" rms="1.9901876151561737e-01" purity="1.0179787874221802e-01" nType="-99"/>
          <Node pos="r" depth="2" NCoef="0" IVar="-1" Cut="0.0000000000000000e+00" cType="1" res="1.0909769916906953e-03" rms="2.9143208265304565e-01" purity="6.3834559917449951e-01" nType="-99"/>
        </Node>
        <Node pos="r" depth="1" NCoef="0" IVar="17" Cut="1.0577790737152100e+00" cType="1" res="1.8818876147270203e-01" rms="3.1454789638519287e-01" purity="6.0221010446548462e-01" nType="0">
          <Node pos="l" depth="2" NCoef="0" IVar="-1" Cut="0.0000000000000000e+00" cType="1" res="-2.9161018319427967e-03" rms="1.5582096576690674e-01" purity="2.6975605636835098e-02" nType="-99"/>
          <Node pos="r" depth="2" NCoef="0" IVar="-1" Cut="0.0000000000000000e+00" cType="1" res="3.4605262335389853e-03" rms="3.2312229275703430e-01" purity="8.0472850799560547e-01" nType="-99"/>
        </Node>
      </Node>
    </BinaryTree>
    <BinaryTree type="DecisionTree" boostWeight="1.0000000000000000e+00" itree="325">
      <Node pos="s" depth="0" NCoef="0" IVar="1" Cut="2.7709431648254395e+00" cType="1" res="4.3547116219997406e-02" rms="2.7577349543571472e-01" purity="4.9170956015586853e-01" nType="0">
        <Node pos="l" depth="1" NCoef="0" IVar="3" Cut="4.8279781341552734e+00" cType="1" res="-4.8480000346899033e-02" rms="2.4585677683353424e-01" purity="2.0733407139778137e-01" nType="0">
          <Node pos="l" depth="2" NCoef="0" IVar="-1" Cut="0.0000000000000000e+00" cType="1" res="-3.3923306036740541e-03" rms="1.9705653190612793e-01" purity="1.2356603890657425e-01" nType="-99"/>
          <Node pos="r" depth="2" NCoef="0" IVar="-1" Cut="0.0000000000000000e+00" cType="1" res="7.5912073953077197e-04" rms="2.8627562522888184e-01" purity="3.3839479088783264e-01" nType="-99"/>
        </Node>
        <Node pos="r" depth="1" NCoef="0" IVar="5" Cut="2.8578403592109680e-01" cType="1" res="8.4169402718544006e-02" rms="2.7847981452941895e-01" purity="6.1723750829696655e-01" nType="0">
          <Node pos="l" depth="2" NCoef="0" IVar="-1" Cut="0.0000000000000000e+00" cType="1" res="2.3952398914843798e-03" rms="2.2962529957294464e-01" purity="8.2068133354187012e-01" nType="-99"/>
          <Node pos="r" depth="2" NCoef="0" IVar="-1" Cut="0.0000000000000000e+00" cType="1" res="1.0848919373529498e-05" rms="3.1028622388839722e-01" purity="3.6113992333412170e-01" nType="-99"/>
        </Node>
      </Node>
    </BinaryTree>
    <BinaryTree type="DecisionTree" boostWeight="1.0000000000000000e+00" itree="326">
      <Node pos="s" depth="0" NCoef="0" IVar="5" Cut="3.4026998281478882e-01" cType="1" res="4.4882643967866898e-02" rms="2.8125828504562378e-01" purity="4.8422667384147644e-01" nType="0">
        <Node pos="l" depth="1" NCoef="0" IVar="36" Cut="1.4456657171249390e+00" cType="1" res="9.1136530041694641e-02" rms="2.6248219609260559e-01" purity="6.2723785638809204e-01" nType="0">
          <Node pos="l" depth="2" NCoef="0" IVar="-1" Cut="0.0000000000000000e+00" cType="1" res="-7.3241605423390865e-04" rms="2.7787292003631592e-01" purity="1.9347220659255981e-01" nType="-99"/>
          <Node pos="r" depth="2" NCoef="0" IVar="-1" Cut="0.0000000000000000e+00" cType="1" res="2.0293963607400656e-03" rms="2.3935811221599579e-01" purity="8.1865715980529785e-01" nType="-99"/>
        </Node>
        <Node pos="r" depth="1" NCoef="0" IVar="2" Cut="2.6204631328582764e+00" cType="1" res="-3.1913582235574722e-02" rms="2.9429098963737488e-01" purity="2.4678245186805725e-01" nType="0">
          <Node pos="l" depth="2" NCoef="0" IVar="-1" Cut="0.0000000000000000e+00" cType="1" res="-2.3002519737929106e-03" rms="2.4929220974445343e-01" purity="1.2866635620594025e-01" nType="-99"/>
          <Node pos="r" depth="2" NCoef="0" IVar="-1" Cut="0.0000000000000000e+00" cType="1" res="4.6142056817188859e-04" rms="3.3445143699645996e-01" purity="4.0155905485153198e-01" nType="-99"/>
        </Node>
      </Node>
    </BinaryTree>
    <BinaryTree type="DecisionTree" boostWeight="1.0000000000000000e+00" itree="327">
      <Node pos="s" depth="0" NCoef="0" IVar="17" Cut="1.5213149785995483e+00" cType="1" res="4.1186153888702393e-02" rms="2.5940033793449402e-01" purity="4.9531033635139465e-01" nType="0">
        <Node pos="l" depth="1" NCoef="0" IVar="48" Cut="1.7985512018203735e+00" cType="1" res="-1.7439102753996849e-02" rms="2.4426676332950592e-01" purity="2.2985559701919556e-01" nType="0">
          <Node pos="l" depth="2" NCoef="0" IVar="-1" Cut="0.0000000000000000e+00" cType="1" res="-3.3544595353305340e-03" rms="1.0088025778532028e-01" purity="6.0654155910015106e-02" nType="-99"/>
          <Node pos="r" depth="2" NCoef="0" IVar="-1" Cut="0.0000000000000000e+00" cType="1" res="6.9811998400837183e-04" rms="2.8971844911575317e-01" purity="3.3572635054588318e-01" nType="-99"/>
        </Node>
        <Node pos="r" depth="1" NCoef="0" IVar="15" Cut="1.5220184326171875e+00" cType="1" res="1.2485762685537338e-01" rms="2.5741222500801086e-01" purity="8.7417423725128174e-01" nType="0">
          <Node pos="l" depth="2" NCoef="0" IVar="-1" Cut="0.0000000000000000e+00" cType="1" res="2.2813603281974792e-03" rms="1.9728752970695496e-01" purity="9.3507850170135498e-01" nType="-99"/>
          <Node pos="r" depth="2" NCoef="0" IVar="-1" Cut="0.0000000000000000e+00" cType="1" res="-6.2595165218226612e-05" rms="3.7901526689529419e-01" purity="6.5393716096878052e-01" nType="-99"/>
        </Node>
      </Node>
    </BinaryTree>
    <BinaryTree type="DecisionTree" boostWeight="1.0000000000000000e+00" itree="328">
      <Node pos="s" depth="0" NCoef="0" IVar="5" Cut="3.0068382620811462e-01" cType="1" res="5.1457379013299942e-02" rms="2.7014693617820740e-01" purity="5.0581407546997070e-01" nType="0">
        <Node pos="l" depth="1" NCoef="0" IVar="48" Cut="1.1674119234085083e+00" cType="1" res="1.0514985024929047e-01" rms="2.5030258297920227e-01" purity="6.6792190074920654e-01" nType="0">
          <Node pos="l" depth="2" NCoef="0" IVar="-1" Cut="0.0000000000000000e+00" cType="1" res="-1.6983259702101350e-03" rms="2.2694866359233856e-01" purity="2.2650037705898285e-01" nType="-99"/>
          <Node pos="r" depth="2" NCoef="0" IVar="-1" Cut="0.0000000000000000e+00" cType="1" res="2.4299167562276125e-03" rms="2.3600737750530243e-01" purity="7.7613610029220581e-01" nType="-99"/>
        </Node>
        <Node pos="r" depth="1" NCoef="0" IVar="17" Cut="1.5214687585830688e+00" cType="1" res="-2.1458910778164864e-02" rms="2.7887862920761108e-01" purity="2.8566581010818481e-01" nType="0">
          <Node pos="l" depth="2" NCoef="0" IVar="-1" Cut="0.0000000000000000e+00" cType="1" res="-1.4432804891839623e-03" rms="2.3557126522064209e-01" purity="1.3055522739887238e-01" nType="-99"/>
          <Node pos="r" depth="2" NCoef="0" IVar="-1" Cut="0.0000000000000000e+00" cType="1" res="9.9362386390566826e-04" rms="3.6739411950111389e-01" purity="7.8551322221755981e-01" nType="-99"/>
        </Node>
      </Node>
    </BinaryTree>
    <BinaryTree type="DecisionTree" boostWeight="1.0000000000000000e+00" itree="329">
      <Node pos="s" depth="0" NCoef="0" IVar="2" Cut="2.0278956890106201e+00" cType="1" res="4.9241706728935242e-02" rms="2.7190294861793518e-01" purity="5.0618231296539307e-01" nType="0">
        <Node pos="l" depth="1" NCoef="0" IVar="15" Cut="1.4817870855331421e+00" cType="1" res="-5.7535119354724884e-02" rms="2.4322351813316345e-01" purity="2.0262764394283295e-01" nType="0">
          <Node pos="l" depth="2" NCoef="0" IVar="-1" Cut="0.0000000000000000e+00" cType="1" res="-4.7682935837656260e-04" rms="2.1006458997726440e-01" purity="2.1363243460655212e-01" nType="-99"/>
          <Node pos="r" depth="2" NCoef="0" IVar="-1" Cut="0.0000000000000000e+00" cType="1" res="-5.7431841269135475e-03" rms="2.8678017854690552e-01" purity="1.6694658994674683e-01" nType="-99"/>
        </Node>
        <Node pos="r" depth="1" NCoef="0" IVar="5" Cut="4.3636345863342285e-01" cType="1" res="8.4911905229091644e-02" rms="2.7163469791412354e-01" purity="6.0758870840072632e-01" nType="0">
          <Node pos="l" depth="2" NCoef="0" IVar="-1" Cut="0.0000000000000000e+00" cType="1" res="1.9051373237743974e-03" rms="2.5182566046714783e-01" purity="7.2052747011184692e-01" nType="-99"/>
          <Node pos="r" depth="2" NCoef="0" IVar="-1" Cut="0.0000000000000000e+00" cType="1" res="-4.8966571921482682e-04" rms="2.9848647117614746e-01" purity="2.6281651854515076e-01" nType="-99"/>
        </Node>
      </Node>
    </BinaryTree>
    <BinaryTree type="DecisionTree" boostWeight="1.0000000000000000e+00" itree="330">
      <Node pos="s" depth="0" NCoef="0" IVar="5" Cut="3.3902129530906677e-01" cType="1" res="4.9688179045915604e-02" rms="2.8456938266754150e-01" purity="4.9761551618576050e-01" nType="0">
        <Node pos="l" depth="1" NCoef="0" IVar="36" Cut="1.4060653448104858e+00" cType="1" res="9.2492729425430298e-02" rms="2.5852701067924500e-01" purity="6.3789874315261841e-01" nType="0">
          <Node pos="l" depth="2" NCoef="0" IVar="-1" Cut="0.0000000000000000e+00" cType="1" res="-2.4390418548136950e-03" rms="2.1603961288928986e-01" purity="1.1750558763742447e-01" nType="-99"/>
          <Node pos="r" depth="2" NCoef="0" IVar="-1" Cut="0.0000000000000000e+00" cType="1" res="2.0921544637531042e-03" rms="2.5320282578468323e-01" purity="8.1248122453689575e-01" nType="-99"/>
        </Node>
        <Node pos="r" depth="1" NCoef="0" IVar="38" Cut="-1.2998229265213013e+00" cType="1" res="-2.3279890418052673e-02" rms="3.1087324023246765e-01" purity="2.5847756862640381e-01" nType="0">
          <Node pos="l" depth="2" NCoef="0" IVar="-1" Cut="0.0000000000000000e+00" cType="1" res="2.0048471633344889e-03" rms="3.3233678340911865e-01" purity="3.6179149150848389e-01" nType="-99"/>
          <Node pos="r" depth="2" NCoef="0" IVar="-1" Cut="0.0000000000000000e+00" cType="1" res="-1.1673782719299197e-03" rms="2.9477116465568542e-01" purity="2.2470916807651520e-01" nType="-99"/>
        </Node>
      </Node>
    </BinaryTree>
    <BinaryTree type="DecisionTree" boostWeight="1.0000000000000000e+00" itree="331">
      <Node pos="s" depth="0" NCoef="0" IVar="36" Cut="1.3294904232025146e+00" cType="1" res="4.8759318888187408e-02" rms="2.7487695217132568e-01" purity="5.0100243091583252e-01" nType="0">
        <Node pos="l" depth="1" NCoef="0" IVar="15" Cut="1.5193979740142822e+00" cType="1" res="-6.4532205462455750e-02" rms="1.4899614453315735e-01" purity="5.1119588315486908e-02" nType="0">
          <Node pos="l" depth="2" NCoef="0" IVar="-1" Cut="0.0000000000000000e+00" cType="1" res="-2.5947492104023695e-03" rms="1.5805836021900177e-01" purity="6.4932771027088165e-02" nType="-99"/>
          <Node pos="r" depth="2" NCoef="0" IVar="-1" Cut="0.0000000000000000e+00" cType="1" res="-2.5881828740239143e-02" rms="0.0000000000000000e+00" purity="-5.4718993604183197e-02" nType="-99"/>
        </Node>
        <Node pos="r" depth="1" NCoef="0" IVar="5" Cut="3.0389732122421265e-01" cType="1" res="8.2962930202484131e-02" rms="2.9431536793708801e-01" purity="6.3682562112808228e-01" nType="0">
          <Node pos="l" depth="2" NCoef="0" IVar="-1" Cut="0.0000000000000000e+00" cType="1" res="2.1495509427040815e-03" rms="2.5750410556793213e-01" purity="8.1690734624862671e-01" nType="-99"/>
          <Node pos="r" depth="2" NCoef="0" IVar="-1" Cut="0.0000000000000000e+00" cType="1" res="-7.1316506364382803e-05" rms="3.2069239020347595e-01" purity="3.7811177968978882e-01" nType="-99"/>
        </Node>
      </Node>
    </BinaryTree>
    <BinaryTree type="DecisionTree" boostWeight="1.0000000000000000e+00" itree="332">
      <Node pos="s" depth="0" NCoef="0" IVar="2" Cut="2.3304667472839355e+00" cType="1" res="5.7730451226234436e-02" rms="2.9039627313613892e-01" purity="4.9957588315010071e-01" nType="0">
        <Node pos="l" depth="1" NCoef="0" IVar="3" Cut="4.8529062271118164e+00" cType="1" res="-1.1184224858880043e-02" rms="2.6513713598251343e-01" purity="3.0843818187713623e-01" nType="0">
          <Node pos="l" depth="2" NCoef="0" IVar="-1" Cut="0.0000000000000000e+00" cType="1" res="-2.6804138906300068e-03" rms="2.2856554388999939e-01" purity="1.9218699634075165e-01" nType="-99"/>
          <Node pos="r" depth="2" NCoef="0" IVar="-1" Cut="0.0000000000000000e+00" cType="1" res="1.5561614418402314e-03" rms="2.8194999694824219e-01" purity="4.5818364620208740e-01" nType="-99"/>
        </Node>
        <Node pos="r" depth="1" NCoef="0" IVar="17" Cut="1.0956759452819824e+00" cType="1" res="1.0469149798154831e-01" rms="2.9740628600120544e-01" purity="6.2982434034347534e-01" nType="0">
          <Node pos="l" depth="2" NCoef="0" IVar="-1" Cut="0.0000000000000000e+00" cType="1" res="-9.9870581179857254e-03" rms="1.0049674659967422e-01" purity="1.1857665143907070e-02" nType="-99"/>
          <Node pos="r" depth="2" NCoef="0" IVar="-1" Cut="0.0000000000000000e+00" cType="1" res="1.7395573668181896e-03" rms="3.1733685731887817e-01" purity="7.6692646741867065e-01" nType="-99"/>
        </Node>
      </Node>
    </BinaryTree>
    <BinaryTree type="DecisionTree" boostWeight="1.0000000000000000e+00" itree="333">
      <Node pos="s" depth="0" NCoef="0" IVar="48" Cut="1.0207147598266602e+00" cType="1" res="5.5833652615547180e-02" rms="2.8041917085647583e-01" purity="5.0758308172225952e-01" nType="0">
        <Node pos="l" depth="1" NCoef="0" IVar="25" Cut="9.0007090568542480e-01" cType="1" res="-1.0715463012456894e-01" rms="2.0413839817047119e-01" purity="9.2963695526123047e-02" nType="0">
          <Node pos="l" depth="2" NCoef="0" IVar="-1" Cut="0.0000000000000000e+00" cType="1" res="-7.3272762820124626e-03" rms="0.0000000000000000e+00" purity="-1.5493969619274139e-01" nType="-99"/>
          <Node pos="r" depth="2" NCoef="0" IVar="-1" Cut="0.0000000000000000e+00" cType="1" res="-1.8078648718073964e-03" rms="2.5966972112655640e-01" purity="1.4745232462882996e-01" nType="-99"/>
        </Node>
        <Node pos="r" depth="1" NCoef="0" IVar="5" Cut="2.8769284486770630e-01" cType="1" res="7.7980831265449524e-02" rms="2.8205886483192444e-01" purity="5.6392240524291992e-01" nType="0">
          <Node pos="l" depth="2" NCoef="0" IVar="-1" Cut="0.0000000000000000e+00" cType="1" res="2.4073964450508356e-03" rms="2.4861761927604675e-01" purity="7.6121652126312256e-01" nType="-99"/>
          <Node pos="r" depth="2" NCoef="0" IVar="-1" Cut="0.0000000000000000e+00" cType="1" res="6.9344816438388079e-05" rms="2.9990229010581970e-01" purity="3.3417549729347229e-01" nType="-99"/>
        </Node>
      </Node>
    </BinaryTree>
    <BinaryTree type="DecisionTree" boostWeight="1.0000000000000000e+00" itree="334">
      <Node pos="s" depth="0" NCoef="0" IVar="48" Cut="1.0275622606277466e+00" cType="1" res="4.3723125010728836e-02" rms="2.7223724126815796e-01" purity="4.9253943562507629e-01" nType="0">
        <Node pos="l" depth="1" NCoef="0" IVar="17" Cut="1.2108439207077026e+00" cType="1" res="-1.1910571157932281e-01" rms="1.7860470712184906e-01" purity="7.6554268598556519e-02" nType="0">
          <Node pos="l" depth="2" NCoef="0" IVar="-1" Cut="0.0000000000000000e+00" cType="1" res="-6.2998677603900433e-03" rms="9.6834376454353333e-02" purity="1.1061022058129311e-02" nType="-99"/>
          <Node pos="r" depth="2" NCoef="0" IVar="-1" Cut="0.0000000000000000e+00" cType="1" res="-3.0220181215554476e-03" rms="1.9292223453521729e-01" purity="1.3314783573150635e-01" nType="-99"/>
        </Node>
        <Node pos="r" depth="1" NCoef="0" IVar="5" Cut="3.0224487185478210e-01" cType="1" res="6.6561669111251831e-02" rms="2.7530646324157715e-01" purity="5.5088591575622559e-01" nType="0">
          <Node pos="l" depth="2" NCoef="0" IVar="-1" Cut="0.0000000000000000e+00" cType="1" res="2.1334751509130001e-03" rms="2.4054801464080811e-01" purity="7.4249756336212158e-01" nType="-99"/>
          <Node pos="r" depth="2" NCoef="0" IVar="-1" Cut="0.0000000000000000e+00" cType="1" res="-1.0322678281227127e-04" rms="2.9709279537200928e-01" purity="3.1700107455253601e-01" nType="-99"/>
        </Node>
      </Node>
    </BinaryTree>
    <BinaryTree type="DecisionTree" boostWeight="1.0000000000000000e+00" itree="335">
      <Node pos="s" depth="0" NCoef="0" IVar="17" Cut="1.5220416784286499e+00" cType="1" res="4.2221471667289734e-02" rms="2.7547308802604675e-01" purity="4.8714980483055115e-01" nType="0">
        <Node pos="l" depth="1" NCoef="0" IVar="15" Cut="1.5204147100448608e+00" cType="1" res="-3.3433458302170038e-03" rms="2.7062538266181946e-01" purity="2.4061454832553864e-01" nType="0">
          <Node pos="l" depth="2" NCoef="0" IVar="-1" Cut="0.0000000000000000e+00" cType="1" res="2.2661157709080726e-04" rms="2.6656371355056763e-01" purity="2.5103986263275146e-01" nType="-99"/>
          <Node pos="r" depth="2" NCoef="0" IVar="-1" Cut="0.0000000000000000e+00" cType="1" res="-7.9781804233789444e-03" rms="2.4956330657005310e-01" purity="7.2354145348072052e-02" nType="-99"/>
        </Node>
        <Node pos="r" depth="1" NCoef="0" IVar="15" Cut="1.5230847597122192e+00" cType="1" res="1.1225496232509613e-01" rms="2.6806458830833435e-01" purity="8.6607640981674194e-01" nType="0">
          <Node pos="l" depth="2" NCoef="0" IVar="-1" Cut="0.0000000000000000e+00" cType="1" res="2.1679142955690622e-03" rms="2.0432452857494354e-01" purity="9.3078929185867310e-01" nType="-99"/>
          <Node pos="r" depth="2" NCoef="0" IVar="-1" Cut="0.0000000000000000e+00" cType="1" res="-4.8303592484444380e-04" rms="4.0372151136398315e-01" purity="6.1028367280960083e-01" nType="-99"/>
        </Node>
      </Node>
    </BinaryTree>
    <BinaryTree type="DecisionTree" boostWeight="1.0000000000000000e+00" itree="336">
      <Node pos="s" depth="0" NCoef="0" IVar="17" Cut="1.4457910060882568e+00" cType="1" res="4.6558987349271774e-02" rms="2.6989465951919556e-01" purity="5.0088191032409668e-01" nType="0">
        <Node pos="l" depth="1" NCoef="0" IVar="3" Cut="5.2426095008850098e+00" cType="1" res="-3.2958917319774628e-02" rms="1.2080302834510803e-01" purity="2.4526370689272881e-02" nType="0">
          <Node pos="l" depth="2" NCoef="0" IVar="-1" Cut="0.0000000000000000e+00" cType="1" res="-2.6975614018738270e-03" rms="1.6094247996807098e-01" purity="3.4423403441905975e-02" nType="-99"/>
          <Node pos="r" depth="2" NCoef="0" IVar="-1" Cut="0.0000000000000000e+00" cType="1" res="-8.9576253667473793e-03" rms="0.0000000000000000e+00" purity="-1.2321567535400391e-01" nType="-99"/>
        </Node>
        <Node pos="r" depth="1" NCoef="0" IVar="31" Cut="2.6329305171966553e+00" cType="1" res="8.9799635112285614e-02" rms="3.1497669219970703e-01" purity="7.5991690158843994e-01" nType="0">
          <Node pos="l" depth="2" NCoef="0" IVar="-1" Cut="0.0000000000000000e+00" cType="1" res="-3.9343391545116901e-03" rms="2.6403203606605530e-01" purity="2.9431828856468201e-01" nType="-99"/>
          <Node pos="r" depth="2" NCoef="0" IVar="-1" Cut="0.0000000000000000e+00" cType="1" res="1.3624369166791439e-03" rms="3.0968102812767029e-01" purity="8.0064707994461060e-01" nType="-99"/>
        </Node>
      </Node>
    </BinaryTree>
    <BinaryTree type="DecisionTree" boostWeight="1.0000000000000000e+00" itree="337">
      <Node pos="s" depth="0" NCoef="0" IVar="17" Cut="1.4844523668289185e+00" cType="1" res="4.1500043123960495e-02" rms="2.7155834436416626e-01" purity="4.8959961533546448e-01" nType="0">
        <Node pos="l" depth="1" NCoef="0" IVar="25" Cut="8.2013964653015137e-01" cType="1" res="-2.0585851743817329e-02" rms="2.1042589843273163e-01" purity="8.4062293171882629e-02" nType="0">
          <Node pos="l" depth="2" NCoef="0" IVar="-1" Cut="0.0000000000000000e+00" cType="1" res="4.6006026677787304e-03" rms="3.8655805587768555e-01" purity="3.1175580620765686e-01" nType="-99"/>
          <Node pos="r" depth="2" NCoef="0" IVar="-1" Cut="0.0000000000000000e+00" cType="1" res="-1.6315917018800974e-03" rms="1.9030584394931793e-01" purity="7.1594446897506714e-02" nType="-99"/>
        </Node>
        <Node pos="r" depth="1" NCoef="0" IVar="15" Cut="1.5216370820999146e+00" cType="1" res="8.8534407317638397e-02" rms="3.0155137181282043e-01" purity="7.9682230949401855e-01" nType="0">
          <Node pos="l" depth="2" NCoef="0" IVar="-1" Cut="0.0000000000000000e+00" cType="1" res="1.5798230888321996e-03" rms="2.6697596907615662e-01" purity="8.5028624534606934e-01" nType="-99"/>
          <Node pos="r" depth="2" NCoef="0" IVar="-1" Cut="0.0000000000000000e+00" cType="1" res="-1.2360814725980163e-03" rms="3.9411911368370056e-01" purity="5.2433854341506958e-01" nType="-99"/>
        </Node>
      </Node>
    </BinaryTree>
    <BinaryTree type="DecisionTree" boostWeight="1.0000000000000000e+00" itree="338">
      <Node pos="s" depth="0" NCoef="0" IVar="1" Cut="2.9625182151794434e+00" cType="1" res="4.9377191811800003e-02" rms="2.7595704793930054e-01" purity="5.0362962484359741e-01" nType="0">
        <Node pos="l" depth="1" NCoef="0" IVar="3" Cut="5.0384917259216309e+00" cType="1" res="-2.0527135580778122e-02" rms="2.6898121833801270e-01" purity="2.8893068432807922e-01" nType="0">
          <Node pos="l" depth="2" NCoef="0" IVar="-1" Cut="0.0000000000000000e+00" cType="1" res="-1.4910961035639048e-03" rms="2.3462781310081482e-01" purity="2.5294244289398193e-01" nType="-99"/>
          <Node pos="r" depth="2" NCoef="0" IVar="-1" Cut="0.0000000000000000e+00" cType="1" res="2.7982732281088829e-03" rms="3.3946594595909119e-01" purity="4.4653287529945374e-01" nType="-99"/>
        </Node>
        <Node pos="r" depth="1" NCoef="0" IVar="5" Cut="3.4222981333732605e-01" cType="1" res="9.5989726483821869e-02" rms="2.7065834403038025e-01" purity="6.4679181575775146e-01" nType="0">
          <Node pos="l" depth="2" NCoef="0" IVar="-1" Cut="0.0000000000000000e+00" cType="1" res="2.3283821064978838e-03" rms="2.3228009045124054e-01" purity="8.0387413501739502e-01" nType="-99"/>
          <Node pos="r" depth="2" NCoef="0" IVar="-1" Cut="0.0000000000000000e+00" cType="1" res="1.1006258864654228e-04" rms="3.0761358141899109e-01" purity="3.7045532464981079e-01" nType="-99"/>
        </Node>
      </Node>
    </BinaryTree>
    <BinaryTree type="DecisionTree" boostWeight="1.0000000000000000e+00" itree="339">
      <Node pos="s" depth="0" NCoef="0" IVar="5" Cut="3.5801371932029724e-01" cType="1" res="3.7348445504903793e-02" rms="2.6712834835052490e-01" purity="4.9192151427268982e-01" nType="0">
        <Node pos="l" depth="1" NCoef="0" IVar="36" Cut="9.4308871030807495e-01" cType="1" res="8.4088362753391266e-02" rms="2.5385940074920654e-01" purity="6.3141083717346191e-01" nType="0">
          <Node pos="l" depth="2" NCoef="0" IVar="-1" Cut="0.0000000000000000e+00" cType="1" res="-1.0007685981690884e-02" rms="0.0000000000000000e+00" purity="2.6413197629153728e-03" nType="-99"/>
          <Node pos="r" depth="2" NCoef="0" IVar="-1" Cut="0.0000000000000000e+00" cType="1" res="1.8636861350387335e-03" rms="2.6609924435615540e-01" purity="7.4500644207000732e-01" nType="-99"/>
        </Node>
        <Node pos="r" depth="1" NCoef="0" IVar="2" Cut="3.1819338798522949e+00" cType="1" res="-4.8800759017467499e-02" rms="2.6953846216201782e-01" purity="2.3482027649879456e-01" nType="0">
          <Node pos="l" depth="2" NCoef="0" IVar="-1" Cut="0.0000000000000000e+00" cType="1" res="-1.5620160847902298e-03" rms="2.4333362281322479e-01" purity="1.9086842238903046e-01" nType="-99"/>
          <Node pos="r" depth="2" NCoef="0" IVar="-1" Cut="0.0000000000000000e+00" cType="1" res="9.6902775112539530e-04" rms="3.6837634444236755e-01" purity="4.9609187245368958e-01" nType="-99"/>
        </Node>
      </Node>
    </BinaryTree>
    <BinaryTree type="DecisionTree" boostWeight="1.0000000000000000e+00" itree="340">
      <Node pos="s" depth="0" NCoef="0" IVar="17" Cut="1.5231137275695801e+00" cType="1" res="4.8443473875522614e-02" rms="2.7831238508224487e-01" purity="4.9357575178146362e-01" nType="0">
        <Node pos="l" depth="1" NCoef="0" IVar="3" Cut="4.9526185989379883e+00" cType="1" res="6.5028029493987560e-03" rms="2.7931630611419678e-01" purity="2.6190638542175293e-01" nType="0">
          <Node pos="l" depth="2" NCoef="0" IVar="-1" Cut="0.0000000000000000e+00" cType="1" res="-6.2260479899123311e-04" rms="2.6237630844116211e-01" purity="2.2321121394634247e-01" nType="-99"/>
          <Node pos="r" depth="2" NCoef="0" IVar="-1" Cut="0.0000000000000000e+00" cType="1" res="2.1301978267729282e-03" rms="3.0740645527839661e-01" purity="3.8681411743164062e-01" nType="-99"/>
        </Node>
        <Node pos="r" depth="1" NCoef="0" IVar="15" Cut="1.5228602886199951e+00" cType="1" res="1.1679858714342117e-01" rms="2.6269009709358215e-01" purity="8.7115156650543213e-01" nType="0">
          <Node pos="l" depth="2" NCoef="0" IVar="-1" Cut="0.0000000000000000e+00" cType="1" res="2.2437742445617914e-03" rms="2.0025455951690674e-01" purity="9.3545335531234741e-01" nType="-99"/>
          <Node pos="r" depth="2" NCoef="0" IVar="-1" Cut="0.0000000000000000e+00" cType="1" res="-3.6905260640196502e-04" rms="3.9975324273109436e-01" purity="6.1063861846923828e-01" nType="-99"/>
        </Node>
      </Node>
    </BinaryTree>
    <BinaryTree type="DecisionTree" boostWeight="1.0000000000000000e+00" itree="341">
      <Node pos="s" depth="0" NCoef="0" IVar="36" Cut="1.3686834573745728e+00" cType="1" res="4.3959423899650574e-02" rms="2.6900023221969604e-01" purity="4.9025851488113403e-01" nType="0">
        <Node pos="l" depth="1" NCoef="0" IVar="0" Cut="6.9344919919967651e-01" cType="1" res="-5.9666104614734650e-02" rms="1.4020889997482300e-01" purity="6.8204835057258606e-02" nType="0">
          <Node pos="l" depth="2" NCoef="0" IVar="-1" Cut="0.0000000000000000e+00" cType="1" res="-9.5526629593223333e-04" rms="2.1992377936840057e-01" purity="1.1970140784978867e-01" nType="-99"/>
          <Node pos="r" depth="2" NCoef="0" IVar="-1" Cut="0.0000000000000000e+00" cType="1" res="-7.7445022761821747e-03" rms="0.0000000000000000e+00" purity="-1.2306272983551025e-03" nType="-99"/>
        </Node>
        <Node pos="r" depth="1" NCoef="0" IVar="5" Cut="2.8419619798660278e-01" cType="1" res="7.9204976558685303e-02" rms="2.9221901297569275e-01" purity="6.3380920886993408e-01" nType="0">
          <Node pos="l" depth="2" NCoef="0" IVar="-1" Cut="0.0000000000000000e+00" cType="1" res="2.0967237651348114e-03" rms="2.5535145401954651e-01" purity="8.2833403348922729e-01" nType="-99"/>
          <Node pos="r" depth="2" NCoef="0" IVar="-1" Cut="0.0000000000000000e+00" cType="1" res="1.0220365948043764e-04" rms="3.1520780920982361e-01" purity="4.0479034185409546e-01" nType="-99"/>
        </Node>
      </Node>
    </BinaryTree>
    <BinaryTree type="DecisionTree" boostWeight="1.0000000000000000e+00" itree="342">
      <Node pos="s" depth="0" NCoef="0" IVar="5" Cut="4.3405058979988098e-01" cType="1" res="5.2412759512662888e-02" rms="2.7743023633956909e-01" purity="5.0692695379257202e-01" nType="0">
        <Node pos="l" depth="1" NCoef="0" IVar="36" Cut="1.3681474924087524e+00" cType="1" res="8.7380155920982361e-02" rms="2.6811304688453674e-01" purity="6.1384767293930054e-01" nType="0">
          <Node pos="l" depth="2" NCoef="0" IVar="-1" Cut="0.0000000000000000e+00" cType="1" res="-1.8236122559756041e-03" rms="2.2359631955623627e-01" purity="1.1892439424991608e-01" nType="-99"/>
          <Node pos="r" depth="2" NCoef="0" IVar="-1" Cut="0.0000000000000000e+00" cType="1" res="1.8773614428937435e-03" rms="2.6901382207870483e-01" purity="7.6394414901733398e-01" nType="-99"/>
        </Node>
        <Node pos="r" depth="1" NCoef="0" IVar="34" Cut="-1.4155299663543701e+00" cType="1" res="-5.3929049521684647e-02" rms="2.7820587158203125e-01" purity="1.8176291882991791e-01" nType="0">
          <Node pos="l" depth="2" NCoef="0" IVar="-1" Cut="0.0000000000000000e+00" cType="1" res="3.3226176165044308e-03" rms="3.8605654239654541e-01" purity="4.0758568048477173e-01" nType="-99"/>
          <Node pos="r" depth="2" NCoef="0" IVar="-1" Cut="0.0000000000000000e+00" cType="1" res="-2.0279537420719862e-03" rms="2.4214538931846619e-01" purity="1.4764203131198883e-01" nType="-99"/>
        </Node>
      </Node>
    </BinaryTree>
    <BinaryTree type="DecisionTree" boostWeight="1.0000000000000000e+00" itree="343">
      <Node pos="s" depth="0" NCoef="0" IVar="1" Cut="2.7706077098846436e+00" cType="1" res="4.4533334672451019e-02" rms="2.6955458521842957e-01" purity="4.9971264600753784e-01" nType="0">
        <Node pos="l" depth="1" NCoef="0" IVar="3" Cut="4.8279781341552734e+00" cType="1" res="-4.9491707235574722e-02" rms="2.4984471499919891e-01" purity="2.0559291541576385e-01" nType="0">
          <Node pos="l" depth="2" NCoef="0" IVar="-1" Cut="0.0000000000000000e+00" cType="1" res="-3.7410538643598557e-03" rms="1.9849494099617004e-01" purity="1.0905840247869492e-01" nType="-99"/>
          <Node pos="r" depth="2" NCoef="0" IVar="-1" Cut="0.0000000000000000e+00" cType="1" res="6.5918266773223877e-04" rms="2.9435783624649048e-01" purity="3.5274991393089294e-01" nType="-99"/>
        </Node>
        <Node pos="r" depth="1" NCoef="0" IVar="17" Cut="1.4457910060882568e+00" cType="1" res="8.5299730300903320e-02" rms="2.6758790016174316e-01" purity="6.2723398208618164e-01" nType="0">
          <Node pos="l" depth="2" NCoef="0" IVar="-1" Cut="0.0000000000000000e+00" cType="1" res="-1.6649432945996523e-03" rms="1.7865298688411713e-01" purity="4.8725474625825882e-02" nType="-99"/>
          <Node pos="r" depth="2" NCoef="0" IVar="-1" Cut="0.0000000000000000e+00" cType="1" res="1.5928132925182581e-03" rms="2.8473752737045288e-01" purity="8.4832614660263062e-01" nType="-99"/>
        </Node>
      </Node>
    </BinaryTree>
    <BinaryTree type="DecisionTree" boostWeight="1.0000000000000000e+00" itree="344">
      <Node pos="s" depth="0" NCoef="0" IVar="1" Cut="2.7308866977691650e+00" cType="1" res="5.2535939961671829e-02" rms="2.7834045886993408e-01" purity="5.0573694705963135e-01" nType="0">
        <Node pos="l" depth="1" NCoef="0" IVar="3" Cut="4.7408337593078613e+00" cType="1" res="-2.7709431946277618e-02" rms="2.5822293758392334e-01" purity="2.4244010448455811e-01" nType="0">
          <Node pos="l" depth="2" NCoef="0" IVar="-1" Cut="0.0000000000000000e+00" cType="1" res="-3.9803260006010532e-03" rms="1.8931019306182861e-01" purity="1.0192751139402390e-01" nType="-99"/>
          <Node pos="r" depth="2" NCoef="0" IVar="-1" Cut="0.0000000000000000e+00" cType="1" res="9.0092455502599478e-04" rms="2.9166266322135925e-01" purity="3.7676492333412170e-01" nType="-99"/>
        </Node>
        <Node pos="r" depth="1" NCoef="0" IVar="5" Cut="3.0429923534393311e-01" cType="1" res="8.6219817399978638e-02" rms="2.7958339452743530e-01" purity="6.1625880002975464e-01" nType="0">
          <Node pos="l" depth="2" NCoef="0" IVar="-1" Cut="0.0000000000000000e+00" cType="1" res="2.3120373953133821e-03" rms="2.3126621544361115e-01" purity="8.1025040149688721e-01" nType="-99"/>
          <Node pos="r" depth="2" NCoef="0" IVar="-1" Cut="0.0000000000000000e+00" cType="1" res="2.2977546905167401e-04" rms="3.1851804256439209e-01" purity="3.5869836807250977e-01" nType="-99"/>
        </Node>
      </Node>
    </BinaryTree>
    <BinaryTree type="DecisionTree" boostWeight="1.0000000000000000e+00" itree="345">
      <Node pos="s" depth="0" NCoef="0" IVar="17" Cut="1.5231137275695801e+00" cType="1" res="5.0245705991983414e-02" rms="2.7579873800277710e-01" purity="5.1099318265914917e-01" nType="0">
        <Node pos="l" depth="1" NCoef="0" IVar="15" Cut="1.5204147100448608e+00" cType="1" res="3.7291648332029581e-03" rms="2.7707031369209290e-01" purity="2.6939031481742859e-01" nType="0">
          <Node pos="l" depth="2" NCoef="0" IVar="-1" Cut="0.0000000000000000e+00" cType="1" res="4.1840743506327271e-04" rms="2.7229976654052734e-01" purity="2.8249913454055786e-01" nType="-99"/>
          <Node pos="r" depth="2" NCoef="0" IVar="-1" Cut="0.0000000000000000e+00" cType="1" res="-1.0300582274794579e-02" rms="2.3098953068256378e-01" purity="4.1317794471979141e-02" nType="-99"/>
        </Node>
        <Node pos="r" depth="1" NCoef="0" IVar="15" Cut="1.5230776071548462e+00" cType="1" res="1.2109661847352982e-01" rms="2.5822189450263977e-01" purity="8.7898671627044678e-01" nType="0">
          <Node pos="l" depth="2" NCoef="0" IVar="-1" Cut="0.0000000000000000e+00" cType="1" res="2.2376396227627993e-03" rms="1.9567228853702545e-01" purity="9.3631213903427124e-01" nType="-99"/>
          <Node pos="r" depth="2" NCoef="0" IVar="-1" Cut="0.0000000000000000e+00" cType="1" res="2.0031776512041688e-04" rms="3.9445814490318298e-01" purity="6.7084133625030518e-01" nType="-99"/>
        </Node>
      </Node>
    </BinaryTree>
    <BinaryTree type="DecisionTree" boostWeight="1.0000000000000000e+00" itree="346">
      <Node pos="s" depth="0" NCoef="0" IVar="48" Cut="1.0250025987625122e+00" cType="1" res="5.5286552757024765e-02" rms="2.7702778577804565e-01" purity="5.1210874319076538e-01" nType="0">
        <Node pos="l" depth="1" NCoef="0" IVar="61" Cut="6.5361815690994263e-01" cType="1" res="-9.8556987941265106e-02" rms="2.0728778839111328e-01" purity="1.2698622047901154e-01" nType="0">
          <Node pos="l" depth="2" NCoef="0" IVar="-1" Cut="0.0000000000000000e+00" cType="1" res="5.3565669804811478e-04" rms="3.1855389475822449e-01" purity="3.1116810441017151e-01" nType="-99"/>
          <Node pos="r" depth="2" NCoef="0" IVar="-1" Cut="0.0000000000000000e+00" cType="1" res="-4.9332394264638424e-03" rms="3.1298235058784485e-02" purity="3.1957078725099564e-02" nType="-99"/>
        </Node>
        <Node pos="r" depth="1" NCoef="0" IVar="17" Cut="1.0591771602630615e+00" cType="1" res="7.7450387179851532e-02" rms="2.7876412868499756e-01" purity="5.6759232282638550e-01" nType="0">
          <Node pos="l" depth="2" NCoef="0" IVar="-1" Cut="0.0000000000000000e+00" cType="1" res="-1.3255559839308262e-02" rms="0.0000000000000000e+00" purity="7.8263110481202602e-04" nType="-99"/>
          <Node pos="r" depth="2" NCoef="0" IVar="-1" Cut="0.0000000000000000e+00" cType="1" res="1.5896487748250365e-03" rms="3.0652815103530884e-01" purity="7.1949309110641479e-01" nType="-99"/>
        </Node>
      </Node>
    </BinaryTree>
    <BinaryTree type="DecisionTree" boostWeight="1.0000000000000000e+00" itree="347">
      <Node pos="s" depth="0" NCoef="0" IVar="17" Cut="1.3282647132873535e+00" cType="1" res="5.3418762981891632e-02" rms="2.8038507699966431e-01" purity="5.0873762369155884e-01" nType="0">
        <Node pos="l" depth="1" NCoef="0" IVar="10" Cut="3.5294339656829834e+00" cType="1" res="-3.3020105212926865e-02" rms="6.8982005119323730e-02" purity="6.4153606072068214e-03" nType="0">
          <Node pos="l" depth="2" NCoef="0" IVar="-1" Cut="0.0000000000000000e+00" cType="1" res="-5.3964508697390556e-03" rms="1.2688396871089935e-01" purity="1.8528029322624207e-02" nType="-99"/>
          <Node pos="r" depth="2" NCoef="0" IVar="-1" Cut="0.0000000000000000e+00" cType="1" res="-2.1986126899719238e-02" rms="0.0000000000000000e+00" purity="-1.0246197134256363e-01" nType="-99"/>
        </Node>
        <Node pos="r" depth="1" NCoef="0" IVar="15" Cut="1.5229796171188354e+00" cType="1" res="8.6903385818004608e-02" rms="3.2126465439796448e-01" purity="7.0332688093185425e-01" nType="0">
          <Node pos="l" depth="2" NCoef="0" IVar="-1" Cut="0.0000000000000000e+00" cType="1" res="1.5674551250413060e-03" rms="3.0153763294219971e-01" purity="7.3796510696411133e-01" nType="-99"/>
          <Node pos="r" depth="2" NCoef="0" IVar="-1" Cut="0.0000000000000000e+00" cType="1" res="-1.3444239739328623e-03" rms="3.8242027163505554e-01" purity="4.8037409782409668e-01" nType="-99"/>
        </Node>
      </Node>
    </BinaryTree>
    <BinaryTree type="DecisionTree" boostWeight="1.0000000000000000e+00" itree="348">
      <Node pos="s" depth="0" NCoef="0" IVar="5" Cut="2.8427755832672119e-01" cType="1" res="4.7216884791851044e-02" rms="2.7356311678886414e-01" purity="5.0146818161010742e-01" nType="0">
        <Node pos="l" depth="1" NCoef="0" IVar="36" Cut="1.4068046808242798e+00" cType="1" res="9.8918154835700989e-02" rms="2.5336292386054993e-01" purity="6.6718196868896484e-01" nType="0">
          <Node pos="l" depth="2" NCoef="0" IVar="-1" Cut="0.0000000000000000e+00" cType="1" res="-2.2861210163682699e-03" rms="2.1421714127063751e-01" purity="1.2854939699172974e-01" nType="-99"/>
          <Node pos="r" depth="2" NCoef="0" IVar="-1" Cut="0.0000000000000000e+00" cType="1" res="2.2718722466379404e-03" rms="2.4522468447685242e-01" purity="8.4942126274108887e-01" nType="-99"/>
        </Node>
        <Node pos="r" depth="1" NCoef="0" IVar="2" Cut="2.4544861316680908e+00" cType="1" res="-1.7140204086899757e-02" rms="2.8393152356147766e-01" purity="2.9518976807594299e-01" nType="0">
          <Node pos="l" depth="2" NCoef="0" IVar="-1" Cut="0.0000000000000000e+00" cType="1" res="-2.4843583814799786e-03" rms="2.2341661155223846e-01" purity="1.3914684951305389e-01" nType="-99"/>
          <Node pos="r" depth="2" NCoef="0" IVar="-1" Cut="0.0000000000000000e+00" cType="1" res="5.1827199058607221e-04" rms="3.1726691126823425e-01" purity="4.2546829581260681e-01" nType="-99"/>
        </Node>
      </Node>
    </BinaryTree>
    <BinaryTree type="DecisionTree" boostWeight="1.0000000000000000e+00" itree="349">
      <Node pos="s" depth="0" NCoef="0" IVar="1" Cut="2.9636178016662598e+00" cType="1" res="4.5538183301687241e-02" rms="2.7372884750366211e-01" purity="4.9234929680824280e-01" nType="0">
        <Node pos="l" depth="1" NCoef="0" IVar="3" Cut="4.7645630836486816e+00" cType="1" res="-2.5701180100440979e-02" rms="2.5613865256309509e-01" purity="2.7494141459465027e-01" nType="0">
          <Node pos="l" depth="2" NCoef="0" IVar="-1" Cut="0.0000000000000000e+00" cType="1" res="-3.1788579653948545e-03" rms="2.1393300592899323e-01" purity="1.5033923089504242e-01" nType="-99"/>
          <Node pos="r" depth="2" NCoef="0" IVar="-1" Cut="0.0000000000000000e+00" cType="1" res="9.7791838925331831e-04" rms="2.7862110733985901e-01" purity="4.1878810524940491e-01" nType="-99"/>
        </Node>
        <Node pos="r" depth="1" NCoef="0" IVar="17" Cut="1.6996556520462036e-01" cType="1" res="9.5032282173633575e-02" rms="2.7464044094085693e-01" purity="6.4339506626129150e-01" nType="0">
          <Node pos="l" depth="2" NCoef="0" IVar="-1" Cut="0.0000000000000000e+00" cType="1" res="-3.1602658331394196e-02" rms="0.0000000000000000e+00" purity="-2.7667375281453133e-02" nType="-99"/>
          <Node pos="r" depth="2" NCoef="0" IVar="-1" Cut="0.0000000000000000e+00" cType="1" res="1.7318195896223187e-03" rms="2.9619261622428894e-01" purity="7.6013016700744629e-01" nType="-99"/>
        </Node>
      </Node>
    </BinaryTree>
    <BinaryTree type="DecisionTree" boostWeight="1.0000000000000000e+00" itree="350">
      <Node pos="s" depth="0" NCoef="0" IVar="5" Cut="2.9942926764488220e-01" cType="1" res="4.8007205128669739e-02" rms="2.7281969785690308e-01" purity="5.0037491321563721e-01" nType="0">
        <Node pos="l" depth="1" NCoef="0" IVar="31" Cut="2.7701756954193115e+00" cType="1" res="1.0459588468074799e-01" rms="2.5612756609916687e-01" purity="6.6737484931945801e-01" nType="0">
          <Node pos="l" depth="2" NCoef="0" IVar="-1" Cut="0.0000000000000000e+00" cType="1" res="-1.1757496977224946e-03" rms="2.4011129140853882e-01" purity="2.9764100909233093e-01" nType="-99"/>
          <Node pos="r" depth="2" NCoef="0" IVar="-1" Cut="0.0000000000000000e+00" cType="1" res="2.3618552368134260e-03" rms="2.4515889585018158e-01" purity="7.7956598997116089e-01" nType="-99"/>
        </Node>
        <Node pos="r" depth="1" NCoef="0" IVar="2" Cut="2.6445405483245850e+00" cType="1" res="-2.8355855494737625e-02" rms="2.7602997422218323e-01" purity="2.7501848340034485e-01" nType="0">
          <Node pos="l" depth="2" NCoef="0" IVar="-1" Cut="0.0000000000000000e+00" cType="1" res="-2.0055223722010851e-03" rms="2.2638036310672760e-01" purity="1.5993106365203857e-01" nType="-99"/>
          <Node pos="r" depth="2" NCoef="0" IVar="-1" Cut="0.0000000000000000e+00" cType="1" res="5.0906260730698705e-04" rms="3.1955921649932861e-01" purity="4.2506045103073120e-01" nType="-99"/>
        </Node>
      </Node>
    </BinaryTree>
    <BinaryTree type="DecisionTree" boostWeight="1.0000000000000000e+00" itree="351">
      <Node pos="s" depth="0" NCoef="0" IVar="1" Cut="2.3230633735656738e+00" cType="1" res="4.2037650942802429e-02" rms="2.7735266089439392e-01" purity="4.8618087172508240e-01" nType="0">
        <Node pos="l" depth="1" NCoef="0" IVar="3" Cut="4.8112373352050781e+00" cType="1" res="-9.0857356786727905e-02" rms="1.9435709714889526e-01" purity="7.4697285890579224e-02" nType="0">
          <Node pos="l" depth="2" NCoef="0" IVar="-1" Cut="0.0000000000000000e+00" cType="1" res="-1.0346962139010429e-02" rms="0.0000000000000000e+00" purity="-1.8739666789770126e-02" nType="-99"/>
          <Node pos="r" depth="2" NCoef="0" IVar="-1" Cut="0.0000000000000000e+00" cType="1" res="-9.9498965937527828e-06" rms="2.8236639499664307e-01" purity="2.0190729200839996e-01" nType="-99"/>
        </Node>
        <Node pos="r" depth="1" NCoef="0" IVar="5" Cut="3.4026998281478882e-01" cType="1" res="6.2855884432792664e-02" rms="2.8259044885635376e-01" purity="5.5064052343368530e-01" nType="0">
          <Node pos="l" depth="2" NCoef="0" IVar="-1" Cut="0.0000000000000000e+00" cType="1" res="1.8961672903969884e-03" rms="2.4790196120738983e-01" purity="7.1279048919677734e-01" nType="-99"/>
          <Node pos="r" depth="2" NCoef="0" IVar="-1" Cut="0.0000000000000000e+00" cType="1" res="-2.2069612168706954e-04" rms="3.1595438718795776e-01" purity="2.9478901624679565e-01" nType="-99"/>
        </Node>
      </Node>
    </BinaryTree>
    <BinaryTree type="DecisionTree" boostWeight="1.0000000000000000e+00" itree="352">
      <Node pos="s" depth="0" NCoef="0" IVar="1" Cut="2.7725462913513184e+00" cType="1" res="4.6467781066894531e-02" rms="2.7495813369750977e-01" purity="4.9378868937492371e-01" nType="0">
        <Node pos="l" depth="1" NCoef="0" IVar="3" Cut="4.7651867866516113e+00" cType="1" res="-4.0275868028402328e-02" rms="2.5768932700157166e-01" purity="2.1209605038166046e-01" nType="0">
          <Node pos="l" depth="2" NCoef="0" IVar="-1" Cut="0.0000000000000000e+00" cType="1" res="-4.2259325273334980e-03" rms="1.8271464109420776e-01" purity="9.8668634891510010e-02" nType="-99"/>
          <Node pos="r" depth="2" NCoef="0" IVar="-1" Cut="0.0000000000000000e+00" cType="1" res="8.0406165216118097e-04" rms="3.0531707406044006e-01" purity="3.4466204047203064e-01" nType="-99"/>
        </Node>
        <Node pos="r" depth="1" NCoef="0" IVar="5" Cut="3.5877266526222229e-01" cType="1" res="8.5685446858406067e-02" rms="2.7353364229202271e-01" purity="6.2114471197128296e-01" nType="0">
          <Node pos="l" depth="2" NCoef="0" IVar="-1" Cut="0.0000000000000000e+00" cType="1" res="2.1907100453972816e-03" rms="2.2935514152050018e-01" purity="7.7072501182556152e-01" nType="-99"/>
          <Node pos="r" depth="2" NCoef="0" IVar="-1" Cut="0.0000000000000000e+00" cType="1" res="-6.7551438405644149e-05" rms="3.2661995291709900e-01" purity="3.2537397742271423e-01" nType="-99"/>
        </Node>
      </Node>
    </BinaryTree>
    <BinaryTree type="DecisionTree" boostWeight="1.0000000000000000e+00" itree="353">
      <Node pos="s" depth="0" NCoef="0" IVar="48" Cut="1.1827743053436279e+00" cType="1" res="4.9114830791950226e-02" rms="2.6805266737937927e-01" purity="5.0244027376174927e-01" nType="0">
        <Node pos="l" depth="1" NCoef="0" IVar="63" Cut="1.9641594588756561e-01" cType="1" res="-7.8377164900302887e-02" rms="2.0763626694679260e-01" purity="1.7445553839206696e-01" nType="0">
          <Node pos="l" depth="2" NCoef="0" IVar="-1" Cut="0.0000000000000000e+00" cType="1" res="-1.2917406857013702e-03" rms="2.3887115716934204e-01" purity="2.0893643796443939e-01" nType="-99"/>
          <Node pos="r" depth="2" NCoef="0" IVar="-1" Cut="0.0000000000000000e+00" cType="1" res="-9.1431019827723503e-03" rms="0.0000000000000000e+00" purity="-6.0135275125503540e-02" nType="-99"/>
        </Node>
        <Node pos="r" depth="1" NCoef="0" IVar="36" Cut="1.4068046808242798e+00" cType="1" res="7.5366906821727753e-02" rms="2.7153989672660828e-01" purity="5.6997615098953247e-01" nType="0">
          <Node pos="l" depth="2" NCoef="0" IVar="-1" Cut="0.0000000000000000e+00" cType="1" res="-1.3106574770063162e-03" rms="2.1704579889774323e-01" purity="1.2294495850801468e-01" nType="-99"/>
          <Node pos="r" depth="2" NCoef="0" IVar="-1" Cut="0.0000000000000000e+00" cType="1" res="1.6407700022682548e-03" rms="2.7825888991355896e-01" purity="7.0763629674911499e-01" nType="-99"/>
        </Node>
      </Node>
    </BinaryTree>
    <BinaryTree type="DecisionTree" boostWeight="1.0000000000000000e+00" itree="354">
      <Node pos="s" depth="0" NCoef="0" IVar="48" Cut="1.2378869056701660e+00" cType="1" res="4.5596845448017120e-02" rms="2.7262669801712036e-01" purity="4.9278870224952698e-01" nType="0">
        <Node pos="l" depth="1" NCoef="0" IVar="27" Cut="1.5294907093048096e+00" cType="1" res="-7.8949831426143646e-02" rms="2.1442300081253052e-01" purity="1.6701748967170715e-01" nType="0">
          <Node pos="l" depth="2" NCoef="0" IVar="-1" Cut="0.0000000000000000e+00" cType="1" res="-8.0282073467969894e-03" rms="0.0000000000000000e+00" purity="-3.2415064051747322e-03" nType="-99"/>
          <Node pos="r" depth="2" NCoef="0" IVar="-1" Cut="0.0000000000000000e+00" cType="1" res="-5.4863916011527181e-04" rms="2.7345567941665649e-01" purity="2.6535850763320923e-01" nType="-99"/>
        </Node>
        <Node pos="r" depth="1" NCoef="0" IVar="5" Cut="3.3902129530906677e-01" cType="1" res="7.3525749146938324e-02" rms="2.7644842863082886e-01" purity="5.6584107875823975e-01" nType="0">
          <Node pos="l" depth="2" NCoef="0" IVar="-1" Cut="0.0000000000000000e+00" cType="1" res="2.2054647561162710e-03" rms="2.3486137390136719e-01" purity="7.4125427007675171e-01" nType="-99"/>
          <Node pos="r" depth="2" NCoef="0" IVar="-1" Cut="0.0000000000000000e+00" cType="1" res="-1.1286856897640973e-04" rms="3.1463322043418884e-01" purity="2.9434257745742798e-01" nType="-99"/>
        </Node>
      </Node>
    </BinaryTree>
    <BinaryTree type="DecisionTree" boostWeight="1.0000000000000000e+00" itree="355">
      <Node pos="s" depth="0" NCoef="0" IVar="17" Cut="1.5216873884201050e+00" cType="1" res="3.9887171238660812e-02" rms="2.6607409119606018e-01" purity="4.9439382553100586e-01" nType="0">
        <Node pos="l" depth="1" NCoef="0" IVar="57" Cut="1.1392198801040649e+00" cType="1" res="-6.7601520568132401e-03" rms="2.6140993833541870e-01" purity="2.4524186551570892e-01" nType="0">
          <Node pos="l" depth="2" NCoef="0" IVar="-1" Cut="0.0000000000000000e+00" cType="1" res="4.4771630200557411e-04" rms="2.8180998563766479e-01" purity="2.8969562053680420e-01" nType="-99"/>
          <Node pos="r" depth="2" NCoef="0" IVar="-1" Cut="0.0000000000000000e+00" cType="1" res="-4.1235904209315777e-03" rms="8.9422650635242462e-02" purity="6.2813036143779755e-02" nType="-99"/>
        </Node>
        <Node pos="r" depth="1" NCoef="0" IVar="15" Cut="1.5224903821945190e+00" cType="1" res="1.1010811477899551e-01" rms="2.5747308135032654e-01" purity="8.6945682764053345e-01" nType="0">
          <Node pos="l" depth="2" NCoef="0" IVar="-1" Cut="0.0000000000000000e+00" cType="1" res="2.1788522135466337e-03" rms="1.9668376445770264e-01" purity="9.3363171815872192e-01" nType="-99"/>
          <Node pos="r" depth="2" NCoef="0" IVar="-1" Cut="0.0000000000000000e+00" cType="1" res="-4.5944898738525808e-04" rms="3.9054265618324280e-01" purity="6.0815155506134033e-01" nType="-99"/>
        </Node>
      </Node>
    </BinaryTree>
    <BinaryTree type="DecisionTree" boostWeight="1.0000000000000000e+00" itree="356">
      <Node pos="s" depth="0" NCoef="0" IVar="17" Cut="1.5231137275695801e+00" cType="1" res="4.1687283664941788e-02" rms="2.7145755290985107e-01" purity="4.9248272180557251e-01" nType="0">
        <Node pos="l" depth="1" NCoef="0" IVar="15" Cut="1.5199739933013916e+00" cType="1" res="-1.4635984553024173e-03" rms="2.6670339703559875e-01" purity="2.5778600573539734e-01" nType="0">
          <Node pos="l" depth="2" NCoef="0" IVar="-1" Cut="0.0000000000000000e+00" cType="1" res="2.9264041222631931e-04" rms="2.6233211159706116e-01" purity="2.6991015672683716e-01" nType="-99"/>
          <Node pos="r" depth="2" NCoef="0" IVar="-1" Cut="0.0000000000000000e+00" cType="1" res="-9.1623784974217415e-03" rms="2.3006805777549744e-01" purity="5.3491543978452682e-02" nType="-99"/>
        </Node>
        <Node pos="r" depth="1" NCoef="0" IVar="15" Cut="1.5233229398727417e+00" cType="1" res="1.1107988655567169e-01" rms="2.6456370949745178e-01" purity="8.6990755796432495e-01" nType="0">
          <Node pos="l" depth="2" NCoef="0" IVar="-1" Cut="0.0000000000000000e+00" cType="1" res="2.1691746078431606e-03" rms="2.0358267426490784e-01" purity="9.3187284469604492e-01" nType="-99"/>
          <Node pos="r" depth="2" NCoef="0" IVar="-1" Cut="0.0000000000000000e+00" cType="1" res="-8.3364844613242894e-05" rms="3.9141246676445007e-01" purity="6.5094405412673950e-01" nType="-99"/>
        </Node>
      </Node>
    </BinaryTree>
    <BinaryTree type="DecisionTree" boostWeight="1.0000000000000000e+00" itree="357">
      <Node pos="s" depth="0" NCoef="0" IVar="17" Cut="1.5220416784286499e+00" cType="1" res="3.5052783787250519e-02" rms="2.6111775636672974e-01" purity="4.9071592092514038e-01" nType="0">
        <Node pos="l" depth="1" NCoef="0" IVar="5" Cut="2.4524067342281342e-01" cType="1" res="-1.7675293609499931e-02" rms="2.5158047676086426e-01" purity="2.3033930361270905e-01" nType="0">
          <Node pos="l" depth="2" NCoef="0" IVar="-1" Cut="0.0000000000000000e+00" cType="1" res="1.0988560970872641e-03" rms="2.7344799041748047e-01" purity="3.9296290278434753e-01" nType="-99"/>
          <Node pos="r" depth="2" NCoef="0" IVar="-1" Cut="0.0000000000000000e+00" cType="1" res="-1.7955092480406165e-03" rms="2.2196649014949799e-01" purity="1.1147529631853104e-01" nType="-99"/>
        </Node>
        <Node pos="r" depth="1" NCoef="0" IVar="15" Cut="1.5221256017684937e+00" cType="1" res="1.1294376850128174e-01" rms="2.5540488958358765e-01" purity="8.7534958124160767e-01" nType="0">
          <Node pos="l" depth="2" NCoef="0" IVar="-1" Cut="0.0000000000000000e+00" cType="1" res="2.1958905272185802e-03" rms="1.9234716892242432e-01" purity="9.3674814701080322e-01" nType="-99"/>
          <Node pos="r" depth="2" NCoef="0" IVar="-1" Cut="0.0000000000000000e+00" cType="1" res="-4.8751808208180591e-05" rms="3.8550239801406860e-01" purity="6.5618318319320679e-01" nType="-99"/>
        </Node>
      </Node>
    </BinaryTree>
    <BinaryTree type="DecisionTree" boostWeight="1.0000000000000000e+00" itree="358">
      <Node pos="s" depth="0" NCoef="0" IVar="1" Cut="2.7706077098846436e+00" cType="1" res="4.5114897191524506e-02" rms="2.6635700464248657e-01" purity="5.0763988494873047e-01" nType="0">
        <Node pos="l" depth="1" NCoef="0" IVar="3" Cut="4.7874083518981934e+00" cType="1" res="-5.0630368292331696e-02" rms="2.3319539427757263e-01" purity="2.0496660470962524e-01" nType="0">
          <Node pos="l" depth="2" NCoef="0" IVar="-1" Cut="0.0000000000000000e+00" cType="1" res="-4.4509009458124638e-03" rms="1.6633945703506470e-01" purity="8.7139897048473358e-02" nType="-99"/>
          <Node pos="r" depth="2" NCoef="0" IVar="-1" Cut="0.0000000000000000e+00" cType="1" res="5.3624634165316820e-04" rms="2.7537140250205994e-01" purity="3.4745579957962036e-01" nType="-99"/>
        </Node>
        <Node pos="r" depth="1" NCoef="0" IVar="17" Cut="1.3669055700302124e+00" cType="1" res="8.4951661527156830e-02" rms="2.6914218068122864e-01" purity="6.3357329368591309e-01" nType="0">
          <Node pos="l" depth="2" NCoef="0" IVar="-1" Cut="0.0000000000000000e+00" cType="1" res="-8.8077811524271965e-03" rms="3.1133158132433891e-02" purity="4.3389783240854740e-03" nType="-99"/>
          <Node pos="r" depth="2" NCoef="0" IVar="-1" Cut="0.0000000000000000e+00" cType="1" res="1.5964305493980646e-03" rms="2.9478421807289124e-01" purity="8.1021833419799805e-01" nType="-99"/>
        </Node>
      </Node>
    </BinaryTree>
    <BinaryTree type="DecisionTree" boostWeight="1.0000000000000000e+00" itree="359">
      <Node pos="s" depth="0" NCoef="0" IVar="2" Cut="2.0178678035736084e+00" cType="1" res="4.6497963368892670e-02" rms="2.7648928761482239e-01" purity="5.0149881839752197e-01" nType="0">
        <Node pos="l" depth="1" NCoef="0" IVar="3" Cut="4.8616352081298828e+00" cType="1" res="-4.2534198611974716e-02" rms="2.7617982029914856e-01" purity="2.0316882431507111e-01" nType="0">
          <Node pos="l" depth="2" NCoef="0" IVar="-1" Cut="0.0000000000000000e+00" cType="1" res="-7.8411977738142014e-03" rms="1.7779482901096344e-01" purity="6.8335250020027161e-02" nType="-99"/>
          <Node pos="r" depth="2" NCoef="0" IVar="-1" Cut="0.0000000000000000e+00" cType="1" res="1.3656178489327431e-03" rms="3.2619515061378479e-01" purity="3.4954097867012024e-01" nType="-99"/>
        </Node>
        <Node pos="r" depth="1" NCoef="0" IVar="17" Cut="1.4444003105163574e+00" cType="1" res="7.6975122094154358e-02" rms="2.6993066072463989e-01" purity="6.0362201929092407e-01" nType="0">
          <Node pos="l" depth="2" NCoef="0" IVar="-1" Cut="0.0000000000000000e+00" cType="1" res="-3.1044194474816322e-03" rms="1.3583460450172424e-01" purity="2.6902880519628525e-02" nType="-99"/>
          <Node pos="r" depth="2" NCoef="0" IVar="-1" Cut="0.0000000000000000e+00" cType="1" res="1.4760507037863135e-03" rms="2.9614570736885071e-01" purity="8.2462948560714722e-01" nType="-99"/>
        </Node>
      </Node>
    </BinaryTree>
    <BinaryTree type="DecisionTree" boostWeight="1.0000000000000000e+00" itree="360">
      <Node pos="s" depth="0" NCoef="0" IVar="17" Cut="1.3288018703460693e+00" cType="1" res="5.3989212960004807e-02" rms="2.7783149480819702e-01" purity="5.0642275810241699e-01" nType="0">
        <Node pos="l" depth="1" NCoef="0" IVar="21" Cut="-3.9819079637527466e-01" cType="1" res="-2.9938666149973869e-02" rms="7.3246635496616364e-02" purity="7.2802044451236725e-03" nType="0">
          <Node pos="l" depth="2" NCoef="0" IVar="-1" Cut="0.0000000000000000e+00" cType="1" res="-1.8981417641043663e-02" rms="0.0000000000000000e+00" purity="-5.4853618144989014e-02" nType="-99"/>
          <Node pos="r" depth="2" NCoef="0" IVar="-1" Cut="0.0000000000000000e+00" cType="1" res="-5.5282730609178543e-03" rms="1.2442487478256226e-01" purity="1.8300488591194153e-02" nType="-99"/>
        </Node>
        <Node pos="r" depth="1" NCoef="0" IVar="15" Cut="1.5229417085647583e+00" cType="1" res="8.7343491613864899e-02" rms="3.1909716129302979e-01" purity="7.0478999614715576e-01" nType="0">
          <Node pos="l" depth="2" NCoef="0" IVar="-1" Cut="0.0000000000000000e+00" cType="1" res="1.5904444735497236e-03" rms="3.0209285020828247e-01" purity="7.3571193218231201e-01" nType="-99"/>
          <Node pos="r" depth="2" NCoef="0" IVar="-1" Cut="0.0000000000000000e+00" cType="1" res="-1.0428947862237692e-03" rms="3.7321057915687561e-01" purity="5.1298898458480835e-01" nType="-99"/>
        </Node>
      </Node>
    </BinaryTree>
    <BinaryTree type="DecisionTree" boostWeight="1.0000000000000000e+00" itree="361">
      <Node pos="s" depth="0" NCoef="0" IVar="48" Cut="9.6669495105743408e-01" cType="1" res="4.9799315631389618e-02" rms="2.7132889628410339e-01" purity="5.0542742013931274e-01" nType="0">
        <Node pos="l" depth="1" NCoef="0" IVar="67" Cut="9.5480185747146606e-01" cType="1" res="-1.0985602438449860e-01" rms="1.5623664855957031e-01" purity="9.7859457135200500e-02" nType="0">
          <Node pos="l" depth="2" NCoef="0" IVar="-1" Cut="0.0000000000000000e+00" cType="1" res="-6.2488624826073647e-03" rms="0.0000000000000000e+00" purity="-8.7197395041584969e-03" nType="-99"/>
          <Node pos="r" depth="2" NCoef="0" IVar="-1" Cut="0.0000000000000000e+00" cType="1" res="-1.3341647572815418e-03" rms="2.6139983534812927e-01" purity="1.6763062775135040e-01" nType="-99"/>
        </Node>
        <Node pos="r" depth="1" NCoef="0" IVar="5" Cut="3.4080103039741516e-01" cType="1" res="7.0677377283573151e-02" rms="2.7619791030883789e-01" purity="5.5872493982315063e-01" nType="0">
          <Node pos="l" depth="2" NCoef="0" IVar="-1" Cut="0.0000000000000000e+00" cType="1" res="2.0692350808531046e-03" rms="2.4926771223545074e-01" purity="7.1794033050537109e-01" nType="-99"/>
          <Node pos="r" depth="2" NCoef="0" IVar="-1" Cut="0.0000000000000000e+00" cType="1" res="1.9530143617885187e-05" rms="2.9988601803779602e-01" purity="3.1494545936584473e-01" nType="-99"/>
        </Node>
      </Node>
    </BinaryTree>
    <BinaryTree type="DecisionTree" boostWeight="1.0000000000000000e+00" itree="362">
      <Node pos="s" depth="0" NCoef="0" IVar="48" Cut="9.6538537740707397e-01" cType="1" res="4.3840900063514709e-02" rms="2.7223742008209229e-01" purity="4.9595445394515991e-01" nType="0">
        <Node pos="l" depth="1" NCoef="0" IVar="61" Cut="6.4654469490051270e-01" cType="1" res="-9.8448984324932098e-02" rms="1.5335819125175476e-01" purity="9.6536807715892792e-02" nType="0">
          <Node pos="l" depth="2" NCoef="0" IVar="-1" Cut="0.0000000000000000e+00" cType="1" res="4.2983755702152848e-04" rms="3.2952773571014404e-01" purity="2.4687670171260834e-01" nType="-99"/>
          <Node pos="r" depth="2" NCoef="0" IVar="-1" Cut="0.0000000000000000e+00" cType="1" res="-4.3083732016384602e-03" rms="0.0000000000000000e+00" purity="3.0738925561308861e-02" nType="-99"/>
        </Node>
        <Node pos="r" depth="1" NCoef="0" IVar="5" Cut="3.0550765991210938e-01" cType="1" res="6.2188506126403809e-02" rms="2.7872893214225769e-01" purity="5.4745739698410034e-01" nType="0">
          <Node pos="l" depth="2" NCoef="0" IVar="-1" Cut="0.0000000000000000e+00" cType="1" res="2.0584810990840197e-03" rms="2.4666346609592438e-01" purity="7.3369348049163818e-01" nType="-99"/>
          <Node pos="r" depth="2" NCoef="0" IVar="-1" Cut="0.0000000000000000e+00" cType="1" res="-6.4182917412836105e-05" rms="3.0169650912284851e-01" purity="3.1481003761291504e-01" nType="-99"/>
        </Node>
      </Node>
    </BinaryTree>
    <BinaryTree type="DecisionTree" boostWeight="1.0000000000000000e+00" itree="363">
      <Node pos="s" depth="0" NCoef="0" IVar="1" Cut="2.7307789325714111e+00" cType="1" res="4.6124987304210663e-02" rms="2.7661484479904175e-01" purity="4.9668809771537781e-01" nType="0">
        <Node pos="l" depth="1" NCoef="0" IVar="3" Cut="4.8803133964538574e+00" cType="1" res="-3.6928307265043259e-02" rms="2.5232625007629395e-01" purity="2.1626624464988708e-01" nType="0">
          <Node pos="l" depth="2" NCoef="0" IVar="-1" Cut="0.0000000000000000e+00" cType="1" res="-3.4333975054323673e-03" rms="2.0213179290294647e-01" purity="1.2719783186912537e-01" nType="-99"/>
          <Node pos="r" depth="2" NCoef="0" IVar="-1" Cut="0.0000000000000000e+00" cType="1" res="1.4721932820975780e-03" rms="2.9481932520866394e-01" purity="3.8083535432815552e-01" nType="-99"/>
        </Node>
        <Node pos="r" depth="1" NCoef="0" IVar="5" Cut="4.5141693949699402e-01" cType="1" res="8.1247791647911072e-02" rms="2.7892315387725830e-01" purity="6.1527699232101440e-01" nType="0">
          <Node pos="l" depth="2" NCoef="0" IVar="-1" Cut="0.0000000000000000e+00" cType="1" res="1.8473385134711862e-03" rms="2.5921556353569031e-01" purity="7.1743345260620117e-01" nType="-99"/>
          <Node pos="r" depth="2" NCoef="0" IVar="-1" Cut="0.0000000000000000e+00" cType="1" res="-6.2500184867531061e-04" rms="3.1874457001686096e-01" purity="2.3254874348640442e-01" nType="-99"/>
        </Node>
      </Node>
    </BinaryTree>
    <BinaryTree type="DecisionTree" boostWeight="1.0000000000000000e+00" itree="364">
      <Node pos="s" depth="0" NCoef="0" IVar="2" Cut="2.5005888938903809e+00" cType="1" res="4.4476728886365891e-02" rms="2.7664491534233093e-01" purity="4.8956230282783508e-01" nType="0">
        <Node pos="l" depth="1" NCoef="0" IVar="3" Cut="4.8152365684509277e+00" cType="1" res="-8.2042971625924110e-03" rms="2.5884148478507996e-01" purity="3.3908274769783020e-01" nType="0">
          <Node pos="l" depth="2" NCoef="0" IVar="-1" Cut="0.0000000000000000e+00" cType="1" res="-2.2892835550010204e-03" rms="2.2774387896060944e-01" purity="2.1839432418346405e-01" nType="-99"/>
          <Node pos="r" depth="2" NCoef="0" IVar="-1" Cut="0.0000000000000000e+00" cType="1" res="1.3880255864933133e-03" rms="2.7168807387351990e-01" purity="4.8481869697570801e-01" nType="-99"/>
        </Node>
        <Node pos="r" depth="1" NCoef="0" IVar="17" Cut="1.1365000009536743e+00" cType="1" res="9.7821138799190521e-02" rms="2.8377825021743774e-01" purity="6.4193677902221680e-01" nType="0">
          <Node pos="l" depth="2" NCoef="0" IVar="-1" Cut="0.0000000000000000e+00" cType="1" res="-1.2300206348299980e-02" rms="6.8217135965824127e-02" purity="5.5629732087254524e-03" nType="-99"/>
          <Node pos="r" depth="2" NCoef="0" IVar="-1" Cut="0.0000000000000000e+00" cType="1" res="1.6801457386463881e-03" rms="3.0414992570877075e-01" purity="7.8244507312774658e-01" nType="-99"/>
        </Node>
      </Node>
    </BinaryTree>
    <BinaryTree type="DecisionTree" boostWeight="1.0000000000000000e+00" itree="365">
      <Node pos="s" depth="0" NCoef="0" IVar="5" Cut="3.0581489205360413e-01" cType="1" res="4.2784750461578369e-02" rms="2.6978093385696411e-01" purity="4.9700152873992920e-01" nType="0">
        <Node pos="l" depth="1" NCoef="0" IVar="31" Cut="2.6545579433441162e+00" cType="1" res="9.2091992497444153e-02" rms="2.5019004940986633e-01" purity="6.5950995683670044e-01" nType="0">
          <Node pos="l" depth="2" NCoef="0" IVar="-1" Cut="0.0000000000000000e+00" cType="1" res="-3.0711768195033073e-03" rms="2.3282536864280701e-01" purity="1.8256925046443939e-01" nType="-99"/>
          <Node pos="r" depth="2" NCoef="0" IVar="-1" Cut="0.0000000000000000e+00" cType="1" res="2.1085345651954412e-03" rms="2.4013864994049072e-01" purity="7.5573581457138062e-01" nType="-99"/>
        </Node>
        <Node pos="r" depth="1" NCoef="0" IVar="17" Cut="1.5214687585830688e+00" cType="1" res="-2.5084115564823151e-02" rms="2.8080344200134277e-01" purity="2.7331703901290894e-01" nType="0">
          <Node pos="l" depth="2" NCoef="0" IVar="-1" Cut="0.0000000000000000e+00" cType="1" res="-1.4946484006941319e-03" rms="2.3781301081180573e-01" purity="1.1779107153415680e-01" nType="-99"/>
          <Node pos="r" depth="2" NCoef="0" IVar="-1" Cut="0.0000000000000000e+00" cType="1" res="8.4582529962062836e-04" rms="3.7124267220497131e-01" purity="7.7120143175125122e-01" nType="-99"/>
        </Node>
      </Node>
    </BinaryTree>
    <BinaryTree type="DecisionTree" boostWeight="1.0000000000000000e+00" itree="366">
      <Node pos="s" depth="0" NCoef="0" IVar="1" Cut="2.7307789325714111e+00" cType="1" res="4.9657169729471207e-02" rms="2.7445265650749207e-01" purity="5.0944328308105469e-01" nType="0">
        <Node pos="l" depth="1" NCoef="0" IVar="3" Cut="4.8279781341552734e+00" cType="1" res="-3.8662694394588470e-02" rms="2.4399566650390625e-01" purity="2.1012359857559204e-01" nType="0">
          <Node pos="l" depth="2" NCoef="0" IVar="-1" Cut="0.0000000000000000e+00" cType="1" res="-3.2407816033810377e-03" rms="1.9597917795181274e-01" purity="1.2013821303844452e-01" nType="-99"/>
          <Node pos="r" depth="2" NCoef="0" IVar="-1" Cut="0.0000000000000000e+00" cType="1" res="8.6879881564527750e-04" rms="2.8863501548767090e-01" purity="3.5874602198600769e-01" nType="-99"/>
        </Node>
        <Node pos="r" depth="1" NCoef="0" IVar="5" Cut="4.3436121940612793e-01" cType="1" res="8.4703706204891205e-02" rms="2.7796855568885803e-01" purity="6.2821739912033081e-01" nType="0">
          <Node pos="l" depth="2" NCoef="0" IVar="-1" Cut="0.0000000000000000e+00" cType="1" res="1.9761633593589067e-03" rms="2.5179210305213928e-01" purity="7.3826611042022705e-01" nType="-99"/>
          <Node pos="r" depth="2" NCoef="0" IVar="-1" Cut="0.0000000000000000e+00" cType="1" res="-3.9989961078390479e-04" rms="3.2899454236030579e-01" purity="2.6681476831436157e-01" nType="-99"/>
        </Node>
      </Node>
    </BinaryTree>
    <BinaryTree type="DecisionTree" boostWeight="1.0000000000000000e+00" itree="367">
      <Node pos="s" depth="0" NCoef="0" IVar="5" Cut="3.5849872231483459e-01" cType="1" res="3.6620140075683594e-02" rms="2.6932287216186523e-01" purity="4.9069854617118835e-01" nType="0">
        <Node pos="l" depth="1" NCoef="0" IVar="31" Cut="2.6507544517517090e+00" cType="1" res="8.1669770181179047e-02" rms="2.4921157956123352e-01" purity="6.2997478246688843e-01" nType="0">
          <Node pos="l" depth="2" NCoef="0" IVar="-1" Cut="0.0000000000000000e+00" cType="1" res="-3.8655688986182213e-03" rms="2.1247111260890961e-01" purity="1.7015567421913147e-01" nType="-99"/>
          <Node pos="r" depth="2" NCoef="0" IVar="-1" Cut="0.0000000000000000e+00" cType="1" res="1.9056138116866350e-03" rms="2.4314855039119720e-01" purity="7.1510297060012817e-01" nType="-99"/>
        </Node>
        <Node pos="r" depth="1" NCoef="0" IVar="15" Cut="1.5219346284866333e+00" cType="1" res="-5.0499517470598221e-02" rms="2.8493386507034302e-01" purity="2.2135780751705170e-01" nType="0">
          <Node pos="l" depth="2" NCoef="0" IVar="-1" Cut="0.0000000000000000e+00" cType="1" res="-5.4902257397770882e-04" rms="2.5433719158172607e-01" purity="2.1105630695819855e-01" nType="-99"/>
          <Node pos="r" depth="2" NCoef="0" IVar="-1" Cut="0.0000000000000000e+00" cType="1" res="-3.6309275310486555e-03" rms="3.9614012837409973e-01" purity="2.9409521818161011e-01" nType="-99"/>
        </Node>
      </Node>
    </BinaryTree>
    <BinaryTree type="DecisionTree" boostWeight="1.0000000000000000e+00" itree="368">
      <Node pos="s" depth="0" NCoef="0" IVar="48" Cut="1.0179938077926636e+00" cType="1" res="4.0695928037166595e-02" rms="2.5954836606979370e-01" purity="5.0222378969192505e-01" nType="0">
        <Node pos="l" depth="1" NCoef="0" IVar="35" Cut="-2.9549536108970642e-01" cType="1" res="-1.0508181899785995e-01" rms="1.5452834963798523e-01" purity="1.0537379235029221e-01" nType="0">
          <Node pos="l" depth="2" NCoef="0" IVar="-1" Cut="0.0000000000000000e+00" cType="1" res="-1.6841224860399961e-03" rms="2.2907307744026184e-01" purity="1.4733736217021942e-01" nType="-99"/>
          <Node pos="r" depth="2" NCoef="0" IVar="-1" Cut="0.0000000000000000e+00" cType="1" res="-6.9552320055663586e-03" rms="0.0000000000000000e+00" purity="-3.7988934665918350e-02" nType="-99"/>
        </Node>
        <Node pos="r" depth="1" NCoef="0" IVar="17" Cut="1.4060977697372437e+00" cType="1" res="6.1460379511117935e-02" rms="2.6476660370826721e-01" purity="5.5875074863433838e-01" nType="0">
          <Node pos="l" depth="2" NCoef="0" IVar="-1" Cut="0.0000000000000000e+00" cType="1" res="-6.0925208963453770e-03" rms="6.2550395727157593e-02" purity="9.3594100326299667e-03" nType="-99"/>
          <Node pos="r" depth="2" NCoef="0" IVar="-1" Cut="0.0000000000000000e+00" cType="1" res="1.3671420747414231e-03" rms="3.0205363035202026e-01" purity="7.7677661180496216e-01" nType="-99"/>
        </Node>
      </Node>
    </BinaryTree>
    <BinaryTree type="DecisionTree" boostWeight="1.0000000000000000e+00" itree="369">
      <Node pos="s" depth="0" NCoef="0" IVar="48" Cut="1.2216454744338989e+00" cType="1" res="5.0319377332925797e-02" rms="2.7802777290344238e-01" purity="5.0278228521347046e-01" nType="0">
        <Node pos="l" depth="1" NCoef="0" IVar="52" Cut="2.4323809146881104e+00" cType="1" res="-6.6917747259140015e-02" rms="2.3881678283214569e-01" purity="1.7407849431037903e-01" nType="0">
          <Node pos="l" depth="2" NCoef="0" IVar="-1" Cut="0.0000000000000000e+00" cType="1" res="-4.4610556215047836e-03" rms="1.1552549898624420e-01" purity="3.2233390957117081e-02" nType="-99"/>
          <Node pos="r" depth="2" NCoef="0" IVar="-1" Cut="0.0000000000000000e+00" cType="1" res="-2.6846409309655428e-04" rms="2.7800408005714417e-01" purity="2.6533234119415283e-01" nType="-99"/>
        </Node>
        <Node pos="r" depth="1" NCoef="0" IVar="5" Cut="3.5764348506927490e-01" cType="1" res="7.4359126389026642e-02" rms="2.7939000725746155e-01" purity="5.7018375396728516e-01" nType="0">
          <Node pos="l" depth="2" NCoef="0" IVar="-1" Cut="0.0000000000000000e+00" cType="1" res="2.1354402415454388e-03" rms="2.3935252428054810e-01" purity="7.2781628370285034e-01" nType="-99"/>
          <Node pos="r" depth="2" NCoef="0" IVar="-1" Cut="0.0000000000000000e+00" cType="1" res="3.2474506497237599e-06" rms="3.2279223203659058e-01" purity="3.0518835783004761e-01" nType="-99"/>
        </Node>
      </Node>
    </BinaryTree>
    <BinaryTree type="DecisionTree" boostWeight="1.0000000000000000e+00" itree="370">
      <Node pos="s" depth="0" NCoef="0" IVar="5" Cut="3.3826327323913574e-01" cType="1" res="4.8245199024677277e-02" rms="2.7006146311759949e-01" purity="5.0703442096710205e-01" nType="0">
        <Node pos="l" depth="1" NCoef="0" IVar="36" Cut="1.2908332347869873e+00" cType="1" res="9.1462761163711548e-02" rms="2.5447785854339600e-01" purity="6.5091538429260254e-01" nType="0">
          <Node pos="l" depth="2" NCoef="0" IVar="-1" Cut="0.0000000000000000e+00" cType="1" res="-2.6908167637884617e-03" rms="1.7388233542442322e-01" purity="9.2049174010753632e-02" nType="-99"/>
          <Node pos="r" depth="2" NCoef="0" IVar="-1" Cut="0.0000000000000000e+00" cType="1" res="2.0160246640443802e-03" rms="2.5935837626457214e-01" purity="7.9236733913421631e-01" nType="-99"/>
        </Node>
        <Node pos="r" depth="1" NCoef="0" IVar="2" Cut="1.9770690202713013e+00" cType="1" res="-2.2243333980441093e-02" rms="2.7973288297653198e-01" purity="2.7236235141754150e-01" nType="0">
          <Node pos="l" depth="2" NCoef="0" IVar="-1" Cut="0.0000000000000000e+00" cType="1" res="-6.8919826298952103e-03" rms="1.7350158095359802e-01" purity="3.4084144979715347e-02" nType="-99"/>
          <Node pos="r" depth="2" NCoef="0" IVar="-1" Cut="0.0000000000000000e+00" cType="1" res="1.6321956354659051e-04" rms="2.9813882708549500e-01" purity="3.4615924954414368e-01" nType="-99"/>
        </Node>
      </Node>
    </BinaryTree>
    <BinaryTree type="DecisionTree" boostWeight="1.0000000000000000e+00" itree="371">
      <Node pos="s" depth="0" NCoef="0" IVar="2" Cut="2.3738942146301270e+00" cType="1" res="4.1818931698799133e-02" rms="2.6262843608856201e-01" purity="4.9455767869949341e-01" nType="0">
        <Node pos="l" depth="1" NCoef="0" IVar="3" Cut="4.8053383827209473e+00" cType="1" res="-2.5459036231040955e-02" rms="2.3909850418567657e-01" purity="2.8191885352134705e-01" nType="0">
          <Node pos="l" depth="2" NCoef="0" IVar="-1" Cut="0.0000000000000000e+00" cType="1" res="-2.9509002342820168e-03" rms="2.0115853846073151e-01" purity="1.7441943287849426e-01" nType="-99"/>
          <Node pos="r" depth="2" NCoef="0" IVar="-1" Cut="0.0000000000000000e+00" cType="1" res="8.6760940030217171e-04" rms="2.6100936532020569e-01" purity="4.0441149473190308e-01" nType="-99"/>
        </Node>
        <Node pos="r" depth="1" NCoef="0" IVar="17" Cut="8.6419796943664551e-01" cType="1" res="8.9791320264339447e-02" rms="2.6807239651679993e-01" purity="6.4617919921875000e-01" nType="0">
          <Node pos="l" depth="2" NCoef="0" IVar="-1" Cut="0.0000000000000000e+00" cType="1" res="-2.0608181133866310e-02" rms="0.0000000000000000e+00" purity="-9.5349112525582314e-03" nType="-99"/>
          <Node pos="r" depth="2" NCoef="0" IVar="-1" Cut="0.0000000000000000e+00" cType="1" res="1.5791220357641578e-03" rms="2.8864923119544983e-01" purity="7.7270382642745972e-01" nType="-99"/>
        </Node>
      </Node>
    </BinaryTree>
    <BinaryTree type="DecisionTree" boostWeight="1.0000000000000000e+00" itree="372">
      <Node pos="s" depth="0" NCoef="0" IVar="17" Cut="1.4823552370071411e+00" cType="1" res="4.1045967489480972e-02" rms="2.6155766844749451e-01" purity="4.9907261133193970e-01" nType="0">
        <Node pos="l" depth="1" NCoef="0" IVar="2" Cut="2.4901125431060791e+00" cType="1" res="-2.6077572256326675e-02" rms="1.8036852777004242e-01" purity="7.4622981250286102e-02" nType="0">
          <Node pos="l" depth="2" NCoef="0" IVar="-1" Cut="0.0000000000000000e+00" cType="1" res="-5.1575731486082077e-03" rms="5.6664053350687027e-02" purity="1.0395275428891182e-02" nType="-99"/>
          <Node pos="r" depth="2" NCoef="0" IVar="-1" Cut="0.0000000000000000e+00" cType="1" res="7.7443843474611640e-04" rms="2.7157378196716309e-01" purity="1.7404042184352875e-01" nType="-99"/>
        </Node>
        <Node pos="r" depth="1" NCoef="0" IVar="15" Cut="1.5230511426925659e+00" cType="1" res="8.9028172194957733e-02" rms="2.9755228757858276e-01" purity="8.0248379707336426e-01" nType="0">
          <Node pos="l" depth="2" NCoef="0" IVar="-1" Cut="0.0000000000000000e+00" cType="1" res="1.5448534395545721e-03" rms="2.6638153195381165e-01" purity="8.5212641954421997e-01" nType="-99"/>
          <Node pos="r" depth="2" NCoef="0" IVar="-1" Cut="0.0000000000000000e+00" cType="1" res="-7.9359416849911213e-04" rms="3.9486828446388245e-01" purity="5.4251939058303833e-01" nType="-99"/>
        </Node>
      </Node>
    </BinaryTree>
    <BinaryTree type="DecisionTree" boostWeight="1.0000000000000000e+00" itree="373">
      <Node pos="s" depth="0" NCoef="0" IVar="5" Cut="2.8704059123992920e-01" cType="1" res="4.7046650201082230e-02" rms="2.7323806285858154e-01" purity="5.0401520729064941e-01" nType="0">
        <Node pos="l" depth="1" NCoef="0" IVar="36" Cut="1.0588903427124023e+00" cType="1" res="9.6925176680088043e-02" rms="2.5164625048637390e-01" purity="6.7339724302291870e-01" nType="0">
          <Node pos="l" depth="2" NCoef="0" IVar="-1" Cut="0.0000000000000000e+00" cType="1" res="-6.8447105586528778e-03" rms="1.0875909775495529e-01" purity="3.2866384834051132e-02" nType="-99"/>
          <Node pos="r" depth="2" NCoef="0" IVar="-1" Cut="0.0000000000000000e+00" cType="1" res="2.1127671934664249e-03" rms="2.5853961706161499e-01" purity="8.0275624990463257e-01" nType="-99"/>
        </Node>
        <Node pos="r" depth="1" NCoef="0" IVar="52" Cut="3.5807406902313232e+00" cType="1" res="-1.8412094563245773e-02" rms="2.8632587194442749e-01" purity="2.8172445297241211e-01" nType="0">
          <Node pos="l" depth="2" NCoef="0" IVar="-1" Cut="0.0000000000000000e+00" cType="1" res="-1.2929765216540545e-04" rms="2.9620483517646790e-01" purity="2.9515770077705383e-01" nType="-99"/>
          <Node pos="r" depth="2" NCoef="0" IVar="-1" Cut="0.0000000000000000e+00" cType="1" res="-8.0271949991583824e-03" rms="0.0000000000000000e+00" purity="2.0915580913424492e-02" nType="-99"/>
        </Node>
      </Node>
    </BinaryTree>
    <BinaryTree type="DecisionTree" boostWeight="1.0000000000000000e+00" itree="374">
      <Node pos="s" depth="0" NCoef="0" IVar="48" Cut="9.5737272500991821e-01" cType="1" res="4.3888173997402191e-02" rms="2.6527631282806396e-01" purity="5.0295579433441162e-01" nType="0">
        <Node pos="l" depth="1" NCoef="0" IVar="2" Cut="2.5675337314605713e+00" cType="1" res="-1.0808452963829041e-01" rms="1.6783699393272400e-01" purity="8.4989719092845917e-02" nType="0">
          <Node pos="l" depth="2" NCoef="0" IVar="-1" Cut="0.0000000000000000e+00" cType="1" res="-5.5837812833487988e-03" rms="0.0000000000000000e+00" purity="-1.7235865816473961e-02" nType="-99"/>
          <Node pos="r" depth="2" NCoef="0" IVar="-1" Cut="0.0000000000000000e+00" cType="1" res="1.2724747648462653e-03" rms="3.7049278616905212e-01" purity="4.6040216088294983e-01" nType="-99"/>
        </Node>
        <Node pos="r" depth="1" NCoef="0" IVar="5" Cut="2.8666132688522339e-01" cType="1" res="6.2152016907930374e-02" rms="2.6895010471343994e-01" purity="5.5318629741668701e-01" nType="0">
          <Node pos="l" depth="2" NCoef="0" IVar="-1" Cut="0.0000000000000000e+00" cType="1" res="2.0989617332816124e-03" rms="2.3705424368381500e-01" purity="7.4832767248153687e-01" nType="-99"/>
          <Node pos="r" depth="2" NCoef="0" IVar="-1" Cut="0.0000000000000000e+00" cType="1" res="3.5816006857203320e-05" rms="2.8904867172241211e-01" purity="3.3433702588081360e-01" nType="-99"/>
        </Node>
      </Node>
    </BinaryTree>
    <BinaryTree type="DecisionTree" boostWeight="1.0000000000000000e+00" itree="375">
      <Node pos="s" depth="0" NCoef="0" IVar="36" Cut="1.2908332347869873e+00" cType="1" res="4.9391206353902817e-02" rms="2.7400499582290649e-01" purity="5.0802391767501831e-01" nType="0">
        <Node pos="l" depth="1" NCoef="0" IVar="31" Cut="3.6389155387878418e+00" cType="1" res="-5.1673728972673416e-02" rms="1.4378999173641205e-01" purity="5.8219395577907562e-02" nType="0">
          <Node pos="l" depth="2" NCoef="0" IVar="-1" Cut="0.0000000000000000e+00" cType="1" res="-6.5558487549424171e-03" rms="8.8267274200916290e-02" purity="2.3305084556341171e-02" nType="-99"/>
          <Node pos="r" depth="2" NCoef="0" IVar="-1" Cut="0.0000000000000000e+00" cType="1" res="2.9177586548030376e-03" rms="3.0092030763626099e-01" purity="3.6401849985122681e-01" nType="-99"/>
        </Node>
        <Node pos="r" depth="1" NCoef="0" IVar="5" Cut="3.5871994495391846e-01" cType="1" res="7.8358873724937439e-02" rms="2.9479700326919556e-01" purity="6.3694882392883301e-01" nType="0">
          <Node pos="l" depth="2" NCoef="0" IVar="-1" Cut="0.0000000000000000e+00" cType="1" res="1.9470549887046218e-03" rms="2.6250335574150085e-01" purity="7.7900624275207520e-01" nType="-99"/>
          <Node pos="r" depth="2" NCoef="0" IVar="-1" Cut="0.0000000000000000e+00" cType="1" res="-9.4086884928401560e-05" rms="3.3492365479469299e-01" purity="3.5348775982856750e-01" nType="-99"/>
        </Node>
      </Node>
    </BinaryTree>
    <BinaryTree type="DecisionTree" boostWeight="1.0000000000000000e+00" itree="376">
      <Node pos="s" depth="0" NCoef="0" IVar="48" Cut="1.2245995998382568e+00" cType="1" res="4.2434390634298325e-02" rms="2.6478582620620728e-01" purity="5.0593918561935425e-01" nType="0">
        <Node pos="l" depth="1" NCoef="0" IVar="52" Cut="2.6510744094848633e+00" cType="1" res="-8.4708251059055328e-02" rms="2.1416316926479340e-01" purity="1.5422973036766052e-01" nType="0">
          <Node pos="l" depth="2" NCoef="0" IVar="-1" Cut="0.0000000000000000e+00" cType="1" res="-4.1756648570299149e-03" rms="1.1031989753246307e-01" purity="5.2941668778657913e-02" nType="-99"/>
          <Node pos="r" depth="2" NCoef="0" IVar="-1" Cut="0.0000000000000000e+00" cType="1" res="5.3375505376607180e-04" rms="2.9347273707389832e-01" purity="3.3200398087501526e-01" nType="-99"/>
        </Node>
        <Node pos="r" depth="1" NCoef="0" IVar="17" Cut="1.3281205892562866e+00" cType="1" res="6.8236008286476135e-02" rms="2.6661884784698486e-01" purity="5.7731312513351440e-01" nType="0">
          <Node pos="l" depth="2" NCoef="0" IVar="-1" Cut="0.0000000000000000e+00" cType="1" res="-1.1892039328813553e-02" rms="0.0000000000000000e+00" purity="-2.2923345677554607e-03" nType="-99"/>
          <Node pos="r" depth="2" NCoef="0" IVar="-1" Cut="0.0000000000000000e+00" cType="1" res="1.4684435445815325e-03" rms="3.0033951997756958e-01" purity="7.6260292530059814e-01" nType="-99"/>
        </Node>
      </Node>
    </BinaryTree>
    <BinaryTree type="DecisionTree" boostWeight="1.0000000000000000e+00" itree="377">
      <Node pos="s" depth="0" NCoef="0" IVar="5" Cut="3.4514853358268738e-01" cType="1" res="4.2782954871654510e-02" rms="2.6470574736595154e-01" purity="4.9689123034477234e-01" nType="0">
        <Node pos="l" depth="1" NCoef="0" IVar="31" Cut="2.6539003849029541e+00" cType="1" res="8.4116935729980469e-02" rms="2.4448810517787933e-01" purity="6.3947510719299316e-01" nType="0">
          <Node pos="l" depth="2" NCoef="0" IVar="-1" Cut="0.0000000000000000e+00" cType="1" res="-3.1769638881087303e-03" rms="2.2053813934326172e-01" purity="1.7828245460987091e-01" nType="-99"/>
          <Node pos="r" depth="2" NCoef="0" IVar="-1" Cut="0.0000000000000000e+00" cType="1" res="1.9089136039838195e-03" rms="2.3752494156360626e-01" purity="7.2753465175628662e-01" nType="-99"/>
        </Node>
        <Node pos="r" depth="1" NCoef="0" IVar="52" Cut="3.3992466926574707e+00" cType="1" res="-2.9125459492206573e-02" rms="2.8255209326744080e-01" purity="2.4883908033370972e-01" nType="0">
          <Node pos="l" depth="2" NCoef="0" IVar="-1" Cut="0.0000000000000000e+00" cType="1" res="-1.4083139831200242e-04" rms="2.9536703228950500e-01" purity="2.6732221245765686e-01" nType="-99"/>
          <Node pos="r" depth="2" NCoef="0" IVar="-1" Cut="0.0000000000000000e+00" cType="1" res="-3.5559246316552162e-03" rms="1.5134708583354950e-01" purity="1.4857095479965210e-01" nType="-99"/>
        </Node>
      </Node>
    </BinaryTree>
    <BinaryTree type="DecisionTree" boostWeight="1.0000000000000000e+00" itree="378">
      <Node pos="s" depth="0" NCoef="0" IVar="36" Cut="9.4283252954483032e-01" cType="1" res="4.5548353344202042e-02" rms="2.6727083325386047e-01" purity="5.0711870193481445e-01" nType="0">
        <Node pos="l" depth="1" NCoef="0" IVar="3" Cut="5.1298971176147461e+00" cType="1" res="-6.3823923468589783e-02" rms="5.9975951910018921e-02" purity="2.0739572122693062e-02" nType="0">
          <Node pos="l" depth="2" NCoef="0" IVar="-1" Cut="0.0000000000000000e+00" cType="1" res="-1.7252115532755852e-02" rms="0.0000000000000000e+00" purity="-1.0493809357285500e-02" nType="-99"/>
          <Node pos="r" depth="2" NCoef="0" IVar="-1" Cut="0.0000000000000000e+00" cType="1" res="1.0029210243374109e-03" rms="1.9175124168395996e-01" purity="1.7235776782035828e-01" nType="-99"/>
        </Node>
        <Node pos="r" depth="1" NCoef="0" IVar="5" Cut="4.3354943394660950e-01" cType="1" res="6.8770974874496460e-02" rms="2.8767690062522888e-01" purity="6.1038982868194580e-01" nType="0">
          <Node pos="l" depth="2" NCoef="0" IVar="-1" Cut="0.0000000000000000e+00" cType="1" res="1.6442221822217107e-03" rms="2.6852744817733765e-01" purity="7.1685194969177246e-01" nType="-99"/>
          <Node pos="r" depth="2" NCoef="0" IVar="-1" Cut="0.0000000000000000e+00" cType="1" res="-6.1786023434251547e-04" rms="3.1963592767715454e-01" purity="2.7592706680297852e-01" nType="-99"/>
        </Node>
      </Node>
    </BinaryTree>
    <BinaryTree type="DecisionTree" boostWeight="1.0000000000000000e+00" itree="379">
      <Node pos="s" depth="0" NCoef="0" IVar="48" Cut="1.0275331735610962e+00" cType="1" res="4.0319614112377167e-02" rms="2.6854911446571350e-01" purity="4.9212485551834106e-01" nType="0">
        <Node pos="l" depth="1" NCoef="0" IVar="61" Cut="6.4874899387359619e-01" cType="1" res="-1.0191457718610764e-01" rms="1.6206425428390503e-01" purity="1.0698217898607254e-01" nType="0">
          <Node pos="l" depth="2" NCoef="0" IVar="-1" Cut="0.0000000000000000e+00" cType="1" res="5.8454985264688730e-04" rms="3.3098578453063965e-01" purity="2.8466227650642395e-01" nType="-99"/>
          <Node pos="r" depth="2" NCoef="0" IVar="-1" Cut="0.0000000000000000e+00" cType="1" res="-5.0470042042434216e-03" rms="0.0000000000000000e+00" purity="2.4271966889500618e-02" nType="-99"/>
        </Node>
        <Node pos="r" depth="1" NCoef="0" IVar="5" Cut="2.8784960508346558e-01" cType="1" res="6.1582606285810471e-02" rms="2.7476716041564941e-01" purity="5.4970097541809082e-01" nType="0">
          <Node pos="l" depth="2" NCoef="0" IVar="-1" Cut="0.0000000000000000e+00" cType="1" res="2.2107998374849558e-03" rms="2.4082979559898376e-01" purity="7.6258343458175659e-01" nType="-99"/>
          <Node pos="r" depth="2" NCoef="0" IVar="-1" Cut="0.0000000000000000e+00" cType="1" res="-2.3052487813401967e-04" rms="2.9420688748359680e-01" purity="2.9617971181869507e-01" nType="-99"/>
        </Node>
      </Node>
    </BinaryTree>
    <BinaryTree type="DecisionTree" boostWeight="1.0000000000000000e+00" itree="380">
      <Node pos="s" depth="0" NCoef="0" IVar="36" Cut="1.4460117816925049e+00" cType="1" res="5.0583086907863617e-02" rms="2.6868474483489990e-01" purity="5.1513886451721191e-01" nType="0">
        <Node pos="l" depth="1" NCoef="0" IVar="3" Cut="4.9984583854675293e+00" cType="1" res="-2.3500997573137283e-02" rms="2.2822284698486328e-01" purity="1.6347569227218628e-01" nType="0">
          <Node pos="l" depth="2" NCoef="0" IVar="-1" Cut="0.0000000000000000e+00" cType="1" res="-3.2794971484690905e-03" rms="1.8354126811027527e-01" purity="1.0734988003969193e-01" nType="-99"/>
          <Node pos="r" depth="2" NCoef="0" IVar="-1" Cut="0.0000000000000000e+00" cType="1" res="2.2257338277995586e-03" rms="2.9314067959785461e-01" purity="3.2481849193572998e-01" nType="-99"/>
        </Node>
        <Node pos="r" depth="1" NCoef="0" IVar="5" Cut="2.8561460971832275e-01" cType="1" res="8.4253765642642975e-02" rms="2.7874949574470520e-01" purity="6.7496722936630249e-01" nType="0">
          <Node pos="l" depth="2" NCoef="0" IVar="-1" Cut="0.0000000000000000e+00" cType="1" res="2.1480394061654806e-03" rms="2.2205227613449097e-01" purity="8.6878061294555664e-01" nType="-99"/>
          <Node pos="r" depth="2" NCoef="0" IVar="-1" Cut="0.0000000000000000e+00" cType="1" res="2.5107231340371072e-04" rms="3.2762283086776733e-01" purity="4.1643366217613220e-01" nType="-99"/>
        </Node>
      </Node>
    </BinaryTree>
    <BinaryTree type="DecisionTree" boostWeight="1.0000000000000000e+00" itree="381">
      <Node pos="s" depth="0" NCoef="0" IVar="3" Cut="4.9586615562438965e+00" cType="1" res="4.0919408202171326e-02" rms="2.7274000644683838e-01" purity="4.9253770709037781e-01" nType="0">
        <Node pos="l" depth="1" NCoef="0" IVar="2" Cut="2.6204631328582764e+00" cType="1" res="1.3132770545780659e-02" rms="2.6397392153739929e-01" purity="4.6180620789527893e-01" nType="0">
          <Node pos="l" depth="2" NCoef="0" IVar="-1" Cut="0.0000000000000000e+00" cType="1" res="-1.0814106790348887e-03" rms="2.4877649545669556e-01" purity="3.0158740282058716e-01" nType="-99"/>
          <Node pos="r" depth="2" NCoef="0" IVar="-1" Cut="0.0000000000000000e+00" cType="1" res="1.2298460351303220e-03" rms="2.6706641912460327e-01" purity="6.4656358957290649e-01" nType="-99"/>
        </Node>
        <Node pos="r" depth="1" NCoef="0" IVar="17" Cut="-9.1290247440338135e-01" cType="1" res="1.3679043948650360e-01" rms="2.8065094351768494e-01" purity="5.9856921434402466e-01" nType="0">
          <Node pos="l" depth="2" NCoef="0" IVar="-1" Cut="0.0000000000000000e+00" cType="1" res="-1.1838940903544426e-02" rms="0.0000000000000000e+00" purity="-9.1475313529372215e-03" nType="-99"/>
          <Node pos="r" depth="2" NCoef="0" IVar="-1" Cut="0.0000000000000000e+00" cType="1" res="2.6801300700753927e-03" rms="2.9963046312332153e-01" purity="7.4062854051589966e-01" nType="-99"/>
        </Node>
      </Node>
    </BinaryTree>
    <BinaryTree type="DecisionTree" boostWeight="1.0000000000000000e+00" itree="382">
      <Node pos="s" depth="0" NCoef="0" IVar="17" Cut="1.5220416784286499e+00" cType="1" res="3.9499703794717789e-02" rms="2.6296344399452209e-01" purity="4.9760749936103821e-01" nType="0">
        <Node pos="l" depth="1" NCoef="0" IVar="2" Cut="2.6074576377868652e+00" cType="1" res="-4.3403875315561891e-04" rms="2.5682649016380310e-01" purity="2.6159775257110596e-01" nType="0">
          <Node pos="l" depth="2" NCoef="0" IVar="-1" Cut="0.0000000000000000e+00" cType="1" res="-1.4798340853303671e-03" rms="2.1943700313568115e-01" purity="1.4039801061153412e-01" nType="-99"/>
          <Node pos="r" depth="2" NCoef="0" IVar="-1" Cut="0.0000000000000000e+00" cType="1" res="1.1098689865320921e-03" rms="2.9559478163719177e-01" purity="4.5808890461921692e-01" nType="-99"/>
        </Node>
        <Node pos="r" depth="1" NCoef="0" IVar="15" Cut="1.5230847597122192e+00" cType="1" res="1.0211277753114700e-01" rms="2.6025095582008362e-01" purity="8.6765283346176147e-01" nType="0">
          <Node pos="l" depth="2" NCoef="0" IVar="-1" Cut="0.0000000000000000e+00" cType="1" res="2.0776726305484772e-03" rms="2.0317284762859344e-01" purity="9.2910522222518921e-01" nType="-99"/>
          <Node pos="r" depth="2" NCoef="0" IVar="-1" Cut="0.0000000000000000e+00" cType="1" res="-2.7965815388597548e-04" rms="3.8640496134757996e-01" purity="6.3383191823959351e-01" nType="-99"/>
        </Node>
      </Node>
    </BinaryTree>
    <BinaryTree type="DecisionTree" boostWeight="1.0000000000000000e+00" itree="383">
      <Node pos="s" depth="0" NCoef="0" IVar="5" Cut="3.6013779044151306e-01" cType="1" res="4.5173671096563339e-02" rms="2.7385193109512329e-01" purity="4.9870121479034424e-01" nType="0">
        <Node pos="l" depth="1" NCoef="0" IVar="48" Cut="1.1742743253707886e+00" cType="1" res="8.4205619990825653e-02" rms="2.6351952552795410e-01" purity="6.2387615442276001e-01" nType="0">
          <Node pos="l" depth="2" NCoef="0" IVar="-1" Cut="0.0000000000000000e+00" cType="1" res="-1.5659732744097710e-03" rms="2.6865395903587341e-01" purity="1.9724994897842407e-01" nType="-99"/>
          <Node pos="r" depth="2" NCoef="0" IVar="-1" Cut="0.0000000000000000e+00" cType="1" res="2.1798063535243273e-03" rms="2.5040119886398315e-01" purity="7.1996462345123291e-01" nType="-99"/>
        </Node>
        <Node pos="r" depth="1" NCoef="0" IVar="25" Cut="1.1151570081710815e+00" cType="1" res="-2.7496846392750740e-02" rms="2.7787563204765320e-01" purity="2.6564776897430420e-01" nType="0">
          <Node pos="l" depth="2" NCoef="0" IVar="-1" Cut="0.0000000000000000e+00" cType="1" res="-2.4507057969458401e-04" rms="2.8555262088775635e-01" purity="2.9506292939186096e-01" nType="-99"/>
          <Node pos="r" depth="2" NCoef="0" IVar="-1" Cut="0.0000000000000000e+00" cType="1" res="-1.3224653899669647e-02" rms="0.0000000000000000e+00" purity="-7.2153769433498383e-02" nType="-99"/>
        </Node>
      </Node>
    </BinaryTree>
    <BinaryTree type="DecisionTree" boostWeight="1.0000000000000000e+00" itree="384">
      <Node pos="s" depth="0" NCoef="0" IVar="48" Cut="1.0091929435729980e+00" cType="1" res="4.3121304363012314e-02" rms="2.6514589786529541e-01" purity="5.0677627325057983e-01" nType="0">
        <Node pos="l" depth="1" NCoef="0" IVar="0" Cut="5.2228224277496338e-01" cType="1" res="-9.1379746794700623e-02" rms="1.8003483116626740e-01" purity="1.1352816224098206e-01" nType="0">
          <Node pos="l" depth="2" NCoef="0" IVar="-1" Cut="0.0000000000000000e+00" cType="1" res="-3.1319994013756514e-04" rms="2.5955528020858765e-01" purity="2.6070517301559448e-01" nType="-99"/>
          <Node pos="r" depth="2" NCoef="0" IVar="-1" Cut="0.0000000000000000e+00" cType="1" res="-3.7025986239314079e-03" rms="8.2541123032569885e-02" purity="2.9643444344401360e-02" nType="-99"/>
        </Node>
        <Node pos="r" depth="1" NCoef="0" IVar="5" Cut="2.8507852554321289e-01" cType="1" res="6.2141608446836472e-02" rms="2.6970440149307251e-01" purity="5.6238698959350586e-01" nType="0">
          <Node pos="l" depth="2" NCoef="0" IVar="-1" Cut="0.0000000000000000e+00" cType="1" res="2.0706225186586380e-03" rms="2.3840007185935974e-01" purity="7.5446629524230957e-01" nType="-99"/>
          <Node pos="r" depth="2" NCoef="0" IVar="-1" Cut="0.0000000000000000e+00" cType="1" res="1.1557986726984382e-04" rms="2.9079630970954895e-01" purity="3.4732520580291748e-01" nType="-99"/>
        </Node>
      </Node>
    </BinaryTree>
    <BinaryTree type="DecisionTree" boostWeight="1.0000000000000000e+00" itree="385">
      <Node pos="s" depth="0" NCoef="0" IVar="2" Cut="2.0228688716888428e+00" cType="1" res="4.5525252819061279e-02" rms="2.6956409215927124e-01" purity="5.1060420274734497e-01" nType="0">
        <Node pos="l" depth="1" NCoef="0" IVar="3" Cut="4.9775466918945312e+00" cType="1" res="-4.6687703579664230e-02" rms="2.4333532154560089e-01" purity="2.2508844733238220e-01" nType="0">
          <Node pos="l" depth="2" NCoef="0" IVar="-1" Cut="0.0000000000000000e+00" cType="1" res="-3.9010660257190466e-03" rms="2.0088887214660645e-01" purity="1.5027013421058655e-01" nType="-99"/>
          <Node pos="r" depth="2" NCoef="0" IVar="-1" Cut="0.0000000000000000e+00" cType="1" res="1.2897660490125418e-03" rms="2.8255903720855713e-01" purity="3.6817762255668640e-01" nType="-99"/>
        </Node>
        <Node pos="r" depth="1" NCoef="0" IVar="17" Cut="8.6587035655975342e-01" cType="1" res="7.6989941298961639e-02" rms="2.7085721492767334e-01" purity="6.0802727937698364e-01" nType="0">
          <Node pos="l" depth="2" NCoef="0" IVar="-1" Cut="0.0000000000000000e+00" cType="1" res="-1.7986567690968513e-02" rms="0.0000000000000000e+00" purity="-7.1552889421582222e-03" nType="-99"/>
          <Node pos="r" depth="2" NCoef="0" IVar="-1" Cut="0.0000000000000000e+00" cType="1" res="1.4564433367922902e-03" rms="2.9461136460304260e-01" purity="7.3646050691604614e-01" nType="-99"/>
        </Node>
      </Node>
    </BinaryTree>
    <BinaryTree type="DecisionTree" boostWeight="1.0000000000000000e+00" itree="386">
      <Node pos="s" depth="0" NCoef="0" IVar="5" Cut="4.3464860320091248e-01" cType="1" res="4.4819146394729614e-02" rms="2.6873910427093506e-01" purity="5.0476360321044922e-01" nType="0">
        <Node pos="l" depth="1" NCoef="0" IVar="31" Cut="2.6507544517517090e+00" cType="1" res="7.4259616434574127e-02" rms="2.5745925307273865e-01" purity="6.0647070407867432e-01" nType="0">
          <Node pos="l" depth="2" NCoef="0" IVar="-1" Cut="0.0000000000000000e+00" cType="1" res="-3.9288895204663277e-03" rms="2.2494594752788544e-01" purity="1.4732877910137177e-01" nType="-99"/>
          <Node pos="r" depth="2" NCoef="0" IVar="-1" Cut="0.0000000000000000e+00" cType="1" res="1.7063933191820979e-03" rms="2.5381284952163696e-01" purity="6.8400412797927856e-01" nType="-99"/>
        </Node>
        <Node pos="r" depth="1" NCoef="0" IVar="34" Cut="-1.4926526546478271e+00" cType="1" res="-4.2458001524209976e-02" rms="2.8218737244606018e-01" purity="2.0324975252151489e-01" nType="0">
          <Node pos="l" depth="2" NCoef="0" IVar="-1" Cut="0.0000000000000000e+00" cType="1" res="2.9774270951747894e-03" rms="3.5371047258377075e-01" purity="4.9770569801330566e-01" nType="-99"/>
          <Node pos="r" depth="2" NCoef="0" IVar="-1" Cut="0.0000000000000000e+00" cType="1" res="-1.4179013669490814e-03" rms="2.6725420355796814e-01" purity="1.7605434358119965e-01" nType="-99"/>
        </Node>
      </Node>
    </BinaryTree>
    <BinaryTree type="DecisionTree" boostWeight="1.0000000000000000e+00" itree="387">
      <Node pos="s" depth="0" NCoef="0" IVar="5" Cut="4.3533283472061157e-01" cType="1" res="4.3785974383354187e-02" rms="2.6412677764892578e-01" purity="5.0874561071395874e-01" nType="0">
        <Node pos="l" depth="1" NCoef="0" IVar="48" Cut="1.2400738000869751e+00" cType="1" res="7.2011172771453857e-02" rms="2.4989795684814453e-01" purity="6.1209523677825928e-01" nType="0">
          <Node pos="l" depth="2" NCoef="0" IVar="-1" Cut="0.0000000000000000e+00" cType="1" res="-1.3302403967827559e-03" rms="2.6233077049255371e-01" purity="2.2649009525775909e-01" nType="-99"/>
          <Node pos="r" depth="2" NCoef="0" IVar="-1" Cut="0.0000000000000000e+00" cType="1" res="1.8456316320225596e-03" rms="2.3750376701354980e-01" purity="7.0146894454956055e-01" nType="-99"/>
        </Node>
        <Node pos="r" depth="1" NCoef="0" IVar="38" Cut="-1.4541543722152710e+00" cType="1" res="-4.1653733700513840e-02" rms="2.8669029474258423e-01" purity="1.9589897990226746e-01" nType="0">
          <Node pos="l" depth="2" NCoef="0" IVar="-1" Cut="0.0000000000000000e+00" cType="1" res="2.2245210129767656e-03" rms="3.5122865438461304e-01" purity="3.8045284152030945e-01" nType="-99"/>
          <Node pos="r" depth="2" NCoef="0" IVar="-1" Cut="0.0000000000000000e+00" cType="1" res="-1.5155379660427570e-03" rms="2.6553383469581604e-01" purity="1.6272564232349396e-01" nType="-99"/>
        </Node>
      </Node>
    </BinaryTree>
    <BinaryTree type="DecisionTree" boostWeight="1.0000000000000000e+00" itree="388">
      <Node pos="s" depth="0" NCoef="0" IVar="1" Cut="3.0621037483215332e+00" cType="1" res="4.0729079395532608e-02" rms="2.6080775260925293e-01" purity="4.9712455272674561e-01" nType="0">
        <Node pos="l" depth="1" NCoef="0" IVar="3" Cut="4.7632465362548828e+00" cType="1" res="-1.4727511443197727e-02" rms="2.4248686432838440e-01" purity="3.1952571868896484e-01" nType="0">
          <Node pos="l" depth="2" NCoef="0" IVar="-1" Cut="0.0000000000000000e+00" cType="1" res="-2.1302790846675634e-03" rms="2.0920234918594360e-01" purity="2.0332382619380951e-01" nType="-99"/>
          <Node pos="r" depth="2" NCoef="0" IVar="-1" Cut="0.0000000000000000e+00" cType="1" res="9.3830790137872100e-04" rms="2.6287695765495300e-01" purity="4.5773312449455261e-01" nType="-99"/>
        </Node>
        <Node pos="r" depth="1" NCoef="0" IVar="17" Cut="1.2138227224349976e+00" cType="1" res="9.0217612683773041e-02" rms="2.6656252145767212e-01" purity="6.5561079978942871e-01" nType="0">
          <Node pos="l" depth="2" NCoef="0" IVar="-1" Cut="0.0000000000000000e+00" cType="1" res="-1.6205511987209320e-02" rms="0.0000000000000000e+00" purity="-6.0380771756172180e-03" nType="-99"/>
          <Node pos="r" depth="2" NCoef="0" IVar="-1" Cut="0.0000000000000000e+00" cType="1" res="1.6731352079659700e-03" rms="2.8898513317108154e-01" purity="8.0427801609039307e-01" nType="-99"/>
        </Node>
      </Node>
    </BinaryTree>
    <BinaryTree type="DecisionTree" boostWeight="1.0000000000000000e+00" itree="389">
      <Node pos="s" depth="0" NCoef="0" IVar="36" Cut="1.4460117816925049e+00" cType="1" res="4.3300535529851913e-02" rms="2.6876527070999146e-01" purity="5.0243735313415527e-01" nType="0">
        <Node pos="l" depth="1" NCoef="0" IVar="3" Cut="4.8905596733093262e+00" cType="1" res="-3.2936967909336090e-02" rms="2.1990080177783966e-01" purity="1.5670600533485413e-01" nType="0">
          <Node pos="l" depth="2" NCoef="0" IVar="-1" Cut="0.0000000000000000e+00" cType="1" res="-4.7259572893381119e-03" rms="1.6778498888015747e-01" purity="8.2724638283252716e-02" nType="-99"/>
          <Node pos="r" depth="2" NCoef="0" IVar="-1" Cut="0.0000000000000000e+00" cType="1" res="1.5005053719505668e-03" rms="2.7465602755546570e-01" purity="3.0494424700737000e-01" nType="-99"/>
        </Node>
        <Node pos="r" depth="1" NCoef="0" IVar="5" Cut="4.3496552109718323e-01" cType="1" res="7.8909769654273987e-02" rms="2.8178927302360535e-01" purity="6.6392254829406738e-01" nType="0">
          <Node pos="l" depth="2" NCoef="0" IVar="-1" Cut="0.0000000000000000e+00" cType="1" res="1.8733442993834615e-03" rms="2.5751048326492310e-01" purity="7.8125149011611938e-01" nType="-99"/>
          <Node pos="r" depth="2" NCoef="0" IVar="-1" Cut="0.0000000000000000e+00" cType="1" res="-9.4574328977614641e-04" rms="3.1849721074104309e-01" purity="2.5422945618629456e-01" nType="-99"/>
        </Node>
      </Node>
    </BinaryTree>
    <BinaryTree type="DecisionTree" boostWeight="1.0000000000000000e+00" itree="390">
      <Node pos="s" depth="0" NCoef="0" IVar="48" Cut="1.1674119234085083e+00" cType="1" res="4.3503493070602417e-02" rms="2.6819610595703125e-01" purity="5.0058752298355103e-01" nType="0">
        <Node pos="l" depth="1" NCoef="0" IVar="50" Cut="-1.2604353427886963e+00" cType="1" res="-7.0679746568202972e-02" rms="2.2179633378982544e-01" purity="1.5688760578632355e-01" nType="0">
          <Node pos="l" depth="2" NCoef="0" IVar="-1" Cut="0.0000000000000000e+00" cType="1" res="-2.7224225923418999e-03" rms="1.7306961119174957e-01" purity="1.2470669299364090e-01" nType="-99"/>
          <Node pos="r" depth="2" NCoef="0" IVar="-1" Cut="0.0000000000000000e+00" cType="1" res="2.5335769169032574e-03" rms="3.7537130713462830e-01" purity="3.9384111762046814e-01" nType="-99"/>
        </Node>
        <Node pos="r" depth="1" NCoef="0" IVar="5" Cut="2.8204399347305298e-01" cType="1" res="6.6263310611248016e-02" rms="2.7082127332687378e-01" purity="5.6909626722335815e-01" nType="0">
          <Node pos="l" depth="2" NCoef="0" IVar="-1" Cut="0.0000000000000000e+00" cType="1" res="2.2624193225055933e-03" rms="2.1882738173007965e-01" purity="7.8405576944351196e-01" nType="-99"/>
          <Node pos="r" depth="2" NCoef="0" IVar="-1" Cut="0.0000000000000000e+00" cType="1" res="8.5120351286605000e-05" rms="3.0741116404533386e-01" purity="3.2888984680175781e-01" nType="-99"/>
        </Node>
      </Node>
    </BinaryTree>
    <BinaryTree type="DecisionTree" boostWeight="1.0000000000000000e+00" itree="391">
      <Node pos="s" depth="0" NCoef="0" IVar="2" Cut="2.4901125431060791e+00" cType="1" res="4.3582484126091003e-02" rms="2.6335820555686951e-01" purity="5.0977736711502075e-01" nType="0">
        <Node pos="l" depth="1" NCoef="0" IVar="15" Cut="1.5203990936279297e+00" cType="1" res="-1.1786599643528461e-02" rms="2.4463121592998505e-01" purity="3.3277121186256409e-01" nType="0">
          <Node pos="l" depth="2" NCoef="0" IVar="-1" Cut="0.0000000000000000e+00" cType="1" res="2.1140756143722683e-04" rms="2.2309771180152893e-01" purity="3.4131005406379700e-01" nType="-99"/>
          <Node pos="r" depth="2" NCoef="0" IVar="-1" Cut="0.0000000000000000e+00" cType="1" res="-3.6563000176101923e-03" rms="3.2941174507141113e-01" purity="2.7118203043937683e-01" nType="-99"/>
        </Node>
        <Node pos="r" depth="1" NCoef="0" IVar="17" Cut="3.2461106777191162e-01" cType="1" res="9.4816885888576508e-02" rms="2.6962658762931824e-01" purity="6.7356556653976440e-01" nType="0">
          <Node pos="l" depth="2" NCoef="0" IVar="-1" Cut="0.0000000000000000e+00" cType="1" res="-2.1141340956091881e-02" rms="0.0000000000000000e+00" purity="-9.1989496722817421e-03" nType="-99"/>
          <Node pos="r" depth="2" NCoef="0" IVar="-1" Cut="0.0000000000000000e+00" cType="1" res="1.6705407761037350e-03" rms="2.8676700592041016e-01" purity="7.8211760520935059e-01" nType="-99"/>
        </Node>
      </Node>
    </BinaryTree>
    <BinaryTree type="DecisionTree" boostWeight="1.0000000000000000e+00" itree="392">
      <Node pos="s" depth="0" NCoef="0" IVar="36" Cut="1.3683462142944336e+00" cType="1" res="4.1098516434431076e-02" rms="2.6134908199310303e-01" purity="5.0402748584747314e-01" nType="0">
        <Node pos="l" depth="1" NCoef="0" IVar="0" Cut="9.9859756231307983e-01" cType="1" res="-6.5681986510753632e-02" rms="9.7066141664981842e-02" purity="5.8633942157030106e-02" nType="0">
          <Node pos="l" depth="2" NCoef="0" IVar="-1" Cut="0.0000000000000000e+00" cType="1" res="-2.3803540971130133e-03" rms="1.5559963881969452e-01" purity="8.7593309581279755e-02" nType="-99"/>
          <Node pos="r" depth="2" NCoef="0" IVar="-1" Cut="0.0000000000000000e+00" cType="1" res="-2.2894937545061111e-02" rms="0.0000000000000000e+00" purity="-1.1827304959297180e-01" nType="-99"/>
        </Node>
        <Node pos="r" depth="1" NCoef="0" IVar="2" Cut="2.0435869693756104e+00" cType="1" res="7.5016736984252930e-02" rms="2.8676554560661316e-01" purity="6.4550417661666870e-01" nType="0">
          <Node pos="l" depth="2" NCoef="0" IVar="-1" Cut="0.0000000000000000e+00" cType="1" res="-8.8052486535161734e-04" rms="2.9994711279869080e-01" purity="3.3900356292724609e-01" nType="-99"/>
          <Node pos="r" depth="2" NCoef="0" IVar="-1" Cut="0.0000000000000000e+00" cType="1" res="1.5624808147549629e-03" rms="2.7679139375686646e-01" purity="7.1797424554824829e-01" nType="-99"/>
        </Node>
      </Node>
    </BinaryTree>
    <BinaryTree type="DecisionTree" boostWeight="1.0000000000000000e+00" itree="393">
      <Node pos="s" depth="0" NCoef="0" IVar="17" Cut="1.5220416784286499e+00" cType="1" res="3.9259158074855804e-02" rms="2.6187366247177124e-01" purity="5.0255173444747925e-01" nType="0">
        <Node pos="l" depth="1" NCoef="0" IVar="0" Cut="6.4754503965377808e-01" cType="1" res="-2.7808847371488810e-03" rms="2.5666013360023499e-01" purity="2.5774657726287842e-01" nType="0">
          <Node pos="l" depth="2" NCoef="0" IVar="-1" Cut="0.0000000000000000e+00" cType="1" res="9.1889605391770601e-04" rms="2.8738397359848022e-01" purity="3.3416804671287537e-01" nType="-99"/>
          <Node pos="r" depth="2" NCoef="0" IVar="-1" Cut="0.0000000000000000e+00" cType="1" res="-1.5901715960353613e-03" rms="1.9477741420269012e-01" purity="1.5631243586540222e-01" nType="-99"/>
        </Node>
        <Node pos="r" depth="1" NCoef="0" IVar="15" Cut="1.5230776071548462e+00" cType="1" res="1.0258228331804276e-01" rms="2.5686156749725342e-01" purity="8.7129127979278564e-01" nType="0">
          <Node pos="l" depth="2" NCoef="0" IVar="-1" Cut="0.0000000000000000e+00" cType="1" res="2.1260182838886976e-03" rms="2.0180138945579529e-01" purity="9.3247830867767334e-01" nType="-99"/>
          <Node pos="r" depth="2" NCoef="0" IVar="-1" Cut="0.0000000000000000e+00" cType="1" res="-1.2221815995872021e-04" rms="3.7852209806442261e-01" purity="6.4546078443527222e-01" nType="-99"/>
        </Node>
      </Node>
    </BinaryTree>
    <BinaryTree type="DecisionTree" boostWeight="1.0000000000000000e+00" itree="394">
      <Node pos="s" depth="0" NCoef="0" IVar="48" Cut="9.4372069835662842e-01" cType="1" res="4.1894529014825821e-02" rms="2.6635882258415222e-01" purity="4.9964475631713867e-01" nType="0">
        <Node pos="l" depth="1" NCoef="0" IVar="35" Cut="-9.1533678770065308e-01" cType="1" res="-1.2567208707332611e-01" rms="1.3471367955207825e-01" purity="4.3738834559917450e-02" nType="0">
          <Node pos="l" depth="2" NCoef="0" IVar="-1" Cut="0.0000000000000000e+00" cType="1" res="-1.9463722128421068e-03" rms="2.5931781530380249e-01" purity="1.0349315404891968e-01" nType="-99"/>
          <Node pos="r" depth="2" NCoef="0" IVar="-1" Cut="0.0000000000000000e+00" cType="1" res="-6.3942875713109970e-03" rms="0.0000000000000000e+00" purity="-6.8249724805355072e-02" nType="-99"/>
        </Node>
        <Node pos="r" depth="1" NCoef="0" IVar="5" Cut="3.0305361747741699e-01" cType="1" res="6.0457728803157806e-02" rms="2.7081546187400818e-01" purity="5.5015045404434204e-01" nType="0">
          <Node pos="l" depth="2" NCoef="0" IVar="-1" Cut="0.0000000000000000e+00" cType="1" res="2.0933628547936678e-03" rms="2.3840002715587616e-01" purity="7.4010819196701050e-01" nType="-99"/>
          <Node pos="r" depth="2" NCoef="0" IVar="-1" Cut="0.0000000000000000e+00" cType="1" res="-1.2306663847994059e-04" rms="2.9540041089057922e-01" purity="3.0024829506874084e-01" nType="-99"/>
        </Node>
      </Node>
    </BinaryTree>
    <BinaryTree type="DecisionTree" boostWeight="1.0000000000000000e+00" itree="395">
      <Node pos="s" depth="0" NCoef="0" IVar="48" Cut="1.0179938077926636e+00" cType="1" res="4.9060922116041183e-02" rms="2.7646696567535400e-01" purity="5.0439560413360596e-01" nType="0">
        <Node pos="l" depth="1" NCoef="0" IVar="34" Cut="1.3629548549652100e+00" cType="1" res="-8.6475580930709839e-02" rms="2.0817328989505768e-01" purity="1.0969723761081696e-01" nType="0">
          <Node pos="l" depth="2" NCoef="0" IVar="-1" Cut="0.0000000000000000e+00" cType="1" res="6.2348565552383661e-04" rms="2.4470104277133942e-01" purity="1.6248226165771484e-01" nType="-99"/>
          <Node pos="r" depth="2" NCoef="0" IVar="-1" Cut="0.0000000000000000e+00" cType="1" res="-3.7988540716469288e-03" rms="1.3734120130538940e-01" purity="7.2754316031932831e-02" nType="-99"/>
        </Node>
        <Node pos="r" depth="1" NCoef="0" IVar="5" Cut="3.0068382620811462e-01" cType="1" res="6.8346053361892700e-02" rms="2.7956685423851013e-01" purity="5.6055617332458496e-01" nType="0">
          <Node pos="l" depth="2" NCoef="0" IVar="-1" Cut="0.0000000000000000e+00" cType="1" res="2.2909482941031456e-03" rms="2.4943120777606964e-01" purity="7.5102555751800537e-01" nType="-99"/>
          <Node pos="r" depth="2" NCoef="0" IVar="-1" Cut="0.0000000000000000e+00" cType="1" res="1.0834883869392797e-04" rms="3.0062636733055115e-01" purity="3.2886585593223572e-01" nType="-99"/>
        </Node>
      </Node>
    </BinaryTree>
    <BinaryTree type="DecisionTree" boostWeight="1.0000000000000000e+00" itree="396">
      <Node pos="s" depth="0" NCoef="0" IVar="48" Cut="9.6669495105743408e-01" cType="1" res="4.2230267077684402e-02" rms="2.6629430055618286e-01" purity="5.0785398483276367e-01" nType="0">
        <Node pos="l" depth="1" NCoef="0" IVar="67" Cut="9.3941599130630493e-01" cType="1" res="-1.2561099231243134e-01" rms="1.2888744473457336e-01" purity="6.4473010599613190e-02" nType="0">
          <Node pos="l" depth="2" NCoef="0" IVar="-1" Cut="0.0000000000000000e+00" cType="1" res="-7.4827978387475014e-03" rms="0.0000000000000000e+00" purity="-8.9740224182605743e-02" nType="-99"/>
          <Node pos="r" depth="2" NCoef="0" IVar="-1" Cut="0.0000000000000000e+00" cType="1" res="-1.5537971630692482e-03" rms="2.3640085756778717e-01" purity="1.5110248327255249e-01" nType="-99"/>
        </Node>
        <Node pos="r" depth="1" NCoef="0" IVar="36" Cut="1.3686834573745728e+00" cType="1" res="6.1583463102579117e-02" rms="2.7120298147201538e-01" purity="5.5897867679595947e-01" nType="0">
          <Node pos="l" depth="2" NCoef="0" IVar="-1" Cut="0.0000000000000000e+00" cType="1" res="-2.1441287826746702e-03" rms="1.9070056080818176e-01" purity="9.4559378921985626e-02" nType="-99"/>
          <Node pos="r" depth="2" NCoef="0" IVar="-1" Cut="0.0000000000000000e+00" cType="1" res="1.4719908358529210e-03" rms="2.8305050730705261e-01" purity="6.8801343441009521e-01" nType="-99"/>
        </Node>
      </Node>
    </BinaryTree>
    <BinaryTree type="DecisionTree" boostWeight="1.0000000000000000e+00" itree="397">
      <Node pos="s" depth="0" NCoef="0" IVar="27" Cut="1.3687950372695923e+00" cType="1" res="3.6319550126791000e-02" rms="2.6386585831642151e-01" purity="4.9309483170509338e-01" nType="0">
        <Node pos="l" depth="1" NCoef="0" IVar="0" Cut="7.0143759250640869e-01" cType="1" res="-9.3132920563220978e-02" rms="1.6821722686290741e-01" purity="1.4908207952976227e-01" nType="0">
          <Node pos="l" depth="2" NCoef="0" IVar="-1" Cut="0.0000000000000000e+00" cType="1" res="-1.3820481253787875e-03" rms="2.2591072320938110e-01" purity="2.4326178431510925e-01" nType="-99"/>
          <Node pos="r" depth="2" NCoef="0" IVar="-1" Cut="0.0000000000000000e+00" cType="1" res="-8.0537283793091774e-03" rms="0.0000000000000000e+00" purity="1.9576977938413620e-02" nType="-99"/>
        </Node>
        <Node pos="r" depth="1" NCoef="0" IVar="5" Cut="3.4574308991432190e-01" cType="1" res="6.0306899249553680e-02" rms="2.7129802107810974e-01" purity="5.5683982372283936e-01" nType="0">
          <Node pos="l" depth="2" NCoef="0" IVar="-1" Cut="0.0000000000000000e+00" cType="1" res="2.0060816314071417e-03" rms="2.4294498562812805e-01" purity="7.4375844001770020e-01" nType="-99"/>
          <Node pos="r" depth="2" NCoef="0" IVar="-1" Cut="0.0000000000000000e+00" cType="1" res="-4.9900630256161094e-04" rms="2.9195961356163025e-01" purity="2.5776141881942749e-01" nType="-99"/>
        </Node>
      </Node>
    </BinaryTree>
    <BinaryTree type="DecisionTree" boostWeight="1.0000000000000000e+00" itree="398">
      <Node pos="s" depth="0" NCoef="0" IVar="1" Cut="2.7727632522583008e+00" cType="1" res="2.8568195179104805e-02" rms="2.4969232082366943e-01" purity="4.8941954970359802e-01" nType="0">
        <Node pos="l" depth="1" NCoef="0" IVar="52" Cut="2.5006883144378662e+00" cType="1" res="-5.6663032621145248e-02" rms="2.1392819285392761e-01" purity="1.8858350813388824e-01" nType="0">
          <Node pos="l" depth="2" NCoef="0" IVar="-1" Cut="0.0000000000000000e+00" cType="1" res="-7.0583065971732140e-03" rms="0.0000000000000000e+00" purity="-4.3819408863782883e-02" nType="-99"/>
          <Node pos="r" depth="2" NCoef="0" IVar="-1" Cut="0.0000000000000000e+00" cType="1" res="-5.5875541875138879e-04" rms="2.5281113386154175e-01" purity="2.5493025779724121e-01" nType="-99"/>
        </Node>
        <Node pos="r" depth="1" NCoef="0" IVar="5" Cut="2.8546217083930969e-01" cType="1" res="6.5364852547645569e-02" rms="2.5497943162918091e-01" purity="6.1929875612258911e-01" nType="0">
          <Node pos="l" depth="2" NCoef="0" IVar="-1" Cut="0.0000000000000000e+00" cType="1" res="2.0161806605756283e-03" rms="2.0779141783714294e-01" purity="8.2038182020187378e-01" nType="-99"/>
          <Node pos="r" depth="2" NCoef="0" IVar="-1" Cut="0.0000000000000000e+00" cType="1" res="4.7825098590692505e-05" rms="2.9233288764953613e-01" purity="3.6609244346618652e-01" nType="-99"/>
        </Node>
      </Node>
    </BinaryTree>
    <BinaryTree type="DecisionTree" boostWeight="1.0000000000000000e+00" itree="399">
      <Node pos="s" depth="0" NCoef="0" IVar="48" Cut="9.7178143262863159e-01" cType="1" res="3.6525242030620575e-02" rms="2.6204267144203186e-01" purity="4.9140474200248718e-01" nType="0">
        <Node pos="l" depth="1" NCoef="0" IVar="61" Cut="7.1858382225036621e-01" cType="1" res="-1.0975851863622665e-01" rms="1.5498730540275574e-01" purity="9.2606894671916962e-02" nType="0">
          <Node pos="l" depth="2" NCoef="0" IVar="-1" Cut="0.0000000000000000e+00" cType="1" res="5.8215035824105144e-04" rms="3.3456492424011230e-01" purity="2.5580108165740967e-01" nType="-99"/>
          <Node pos="r" depth="2" NCoef="0" IVar="-1" Cut="0.0000000000000000e+00" cType="1" res="-5.5132480338215828e-03" rms="0.0000000000000000e+00" purity="-1.5234082937240601e-02" nType="-99"/>
        </Node>
        <Node pos="r" depth="1" NCoef="0" IVar="5" Cut="3.4116539359092712e-01" cType="1" res="5.5123623460531235e-02" rms="2.6697564125061035e-01" purity="5.4210752248764038e-01" nType="0">
          <Node pos="l" depth="2" NCoef="0" IVar="-1" Cut="0.0000000000000000e+00" cType="1" res="1.9412159454077482e-03" rms="2.3762969672679901e-01" purity="7.1094202995300293e-01" nType="-99"/>
          <Node pos="r" depth="2" NCoef="0" IVar="-1" Cut="0.0000000000000000e+00" cType="1" res="-2.8808217030018568e-04" rms="2.9365545511245728e-01" purity="2.8120630979537964e-01" nType="-99"/>
        </Node>
      </Node>
    </BinaryTree>
    <BinaryTree type="DecisionTree" boostWeight="1.0000000000000000e+00" itree="400">
      <Node pos="s" depth="0" NCoef="0" IVar="1" Cut="2.9674475193023682e+00" cType="1" res="4.0290750563144684e-02" rms="2.6804357767105103e-01" purity="4.9327778816223145e-01" nType="0">
        <Node pos="l" depth="1" NCoef="0" IVar="3" Cut="4.9630112648010254e+00" cType="1" res="-1.4879153110086918e-02" rms="2.6166602969169617e-01" purity="2.8799924254417419e-01" nType="0">
          <Node pos="l" depth="2" NCoef="0" IVar="-1" Cut="0.0000000000000000e+00" cType="1" res="-1.6730932984501123e-03" rms="2.2948719561100006e-01" purity="2.3034892976284027e-01" nType="-99"/>
          <Node pos="r" depth="2" NCoef="0" IVar="-1" Cut="0.0000000000000000e+00" cType="1" res="2.1233148872852325e-03" rms="3.0467998981475830e-01" purity="4.5530629158020020e-01" nType="-99"/>
        </Node>
        <Node pos="r" depth="1" NCoef="0" IVar="17" Cut="1.2503999471664429e+00" cType="1" res="7.9603418707847595e-02" rms="2.6559412479400635e-01" purity="6.3955408334732056e-01" nType="0">
          <Node pos="l" depth="2" NCoef="0" IVar="-1" Cut="0.0000000000000000e+00" cType="1" res="-1.3283940963447094e-02" rms="0.0000000000000000e+00" purity="-3.6510422360152006e-03" nType="-99"/>
          <Node pos="r" depth="2" NCoef="0" IVar="-1" Cut="0.0000000000000000e+00" cType="1" res="1.5457760309800506e-03" rms="2.9131785035133362e-01" purity="7.9632592201232910e-01" nType="-99"/>
        </Node>
      </Node>
    </BinaryTree>
    <BinaryTree type="DecisionTree" boostWeight="1.0000000000000000e+00" itree="401">
      <Node pos="s" depth="0" NCoef="0" IVar="48" Cut="1.0207147598266602e+00" cType="1" res="4.6714875847101212e-02" rms="2.6954403519630432e-01" purity="5.0485730171203613e-01" nType="0">
        <Node pos="l" depth="1" NCoef="0" IVar="19" Cut="8.4072524309158325e-01" cType="1" res="-8.9436456561088562e-02" rms="2.1194021403789520e-01" purity="1.1812238395214081e-01" nType="0">
          <Node pos="l" depth="2" NCoef="0" IVar="-1" Cut="0.0000000000000000e+00" cType="1" res="-4.8017702065408230e-03" rms="0.0000000000000000e+00" purity="7.8706052154302597e-03" nType="-99"/>
          <Node pos="r" depth="2" NCoef="0" IVar="-1" Cut="0.0000000000000000e+00" cType="1" res="-6.7131404648534954e-05" rms="3.0638030171394348e-01" purity="2.3346301913261414e-01" nType="-99"/>
        </Node>
        <Node pos="r" depth="1" NCoef="0" IVar="17" Cut="1.3298068046569824e+00" cType="1" res="6.6428594291210175e-02" rms="2.7128797769546509e-01" purity="5.6085371971130371e-01" nType="0">
          <Node pos="l" depth="2" NCoef="0" IVar="-1" Cut="0.0000000000000000e+00" cType="1" res="-7.9272221773862839e-03" rms="7.2612009942531586e-02" purity="8.1053888425230980e-03" nType="-99"/>
          <Node pos="r" depth="2" NCoef="0" IVar="-1" Cut="0.0000000000000000e+00" cType="1" res="1.4192743692547083e-03" rms="3.0508330464363098e-01" purity="7.5032049417495728e-01" nType="-99"/>
        </Node>
      </Node>
    </BinaryTree>
    <BinaryTree type="DecisionTree" boostWeight="1.0000000000000000e+00" itree="402">
      <Node pos="s" depth="0" NCoef="0" IVar="36" Cut="1.4460117816925049e+00" cType="1" res="3.9570096880197525e-02" rms="2.6292935013771057e-01" purity="4.9775958061218262e-01" nType="0">
        <Node pos="l" depth="1" NCoef="0" IVar="15" Cut="1.5203990936279297e+00" cType="1" res="-3.5056114196777344e-02" rms="1.9875733554363251e-01" purity="1.4473259449005127e-01" nType="0">
          <Node pos="l" depth="2" NCoef="0" IVar="-1" Cut="0.0000000000000000e+00" cType="1" res="-7.1661104448139668e-04" rms="1.9503515958786011e-01" purity="1.5764221549034119e-01" nType="-99"/>
          <Node pos="r" depth="2" NCoef="0" IVar="-1" Cut="0.0000000000000000e+00" cType="1" res="-1.0038484819233418e-02" rms="1.7029014229774475e-01" purity="3.5563018172979355e-02" nType="-99"/>
        </Node>
        <Node pos="r" depth="1" NCoef="0" IVar="5" Cut="2.8943061828613281e-01" cType="1" res="7.3639295995235443e-02" rms="2.8098845481872559e-01" purity="6.5892744064331055e-01" nType="0">
          <Node pos="l" depth="2" NCoef="0" IVar="-1" Cut="0.0000000000000000e+00" cType="1" res="1.9891455303877592e-03" rms="2.2368228435516357e-01" purity="8.5941147804260254e-01" nType="-99"/>
          <Node pos="r" depth="2" NCoef="0" IVar="-1" Cut="0.0000000000000000e+00" cType="1" res="1.5667940897401422e-04" rms="3.3038461208343506e-01" purity="3.9937865734100342e-01" nType="-99"/>
        </Node>
      </Node>
    </BinaryTree>
    <BinaryTree type="DecisionTree" boostWeight="1.0000000000000000e+00" itree="403">
      <Node pos="s" depth="0" NCoef="0" IVar="2" Cut="2.0707499980926514e+00" cType="1" res="4.1207484900951385e-02" rms="2.6754575967788696e-01" purity="5.0032472610473633e-01" nType="0">
        <Node pos="l" depth="1" NCoef="0" IVar="15" Cut="1.4817715883255005e+00" cType="1" res="-4.1100848466157913e-02" rms="2.3721994459629059e-01" purity="2.2810573875904083e-01" nType="0">
          <Node pos="l" depth="2" NCoef="0" IVar="-1" Cut="0.0000000000000000e+00" cType="1" res="7.5470088631846011e-05" rms="2.1095092594623566e-01" purity="2.4774447083473206e-01" nType="-99"/>
          <Node pos="r" depth="2" NCoef="0" IVar="-1" Cut="0.0000000000000000e+00" cType="1" res="-5.6665972806513309e-03" rms="2.6064643263816833e-01" purity="1.5996851027011871e-01" nType="-99"/>
        </Node>
        <Node pos="r" depth="1" NCoef="0" IVar="17" Cut="1.1352519989013672e+00" cType="1" res="7.2741828858852386e-02" rms="2.7176356315612793e-01" purity="6.0461860895156860e-01" nType="0">
          <Node pos="l" depth="2" NCoef="0" IVar="-1" Cut="0.0000000000000000e+00" cType="1" res="-1.7839001491665840e-02" rms="0.0000000000000000e+00" purity="-9.4641856849193573e-03" nType="-99"/>
          <Node pos="r" depth="2" NCoef="0" IVar="-1" Cut="0.0000000000000000e+00" cType="1" res="1.4272556873038411e-03" rms="3.0047649145126343e-01" purity="7.5308221578598022e-01" nType="-99"/>
        </Node>
      </Node>
    </BinaryTree>
    <BinaryTree type="DecisionTree" boostWeight="1.0000000000000000e+00" itree="404">
      <Node pos="s" depth="0" NCoef="0" IVar="5" Cut="3.9425748586654663e-01" cType="1" res="3.6315999925136566e-02" rms="2.5974994897842407e-01" purity="5.0396078824996948e-01" nType="0">
        <Node pos="l" depth="1" NCoef="0" IVar="36" Cut="1.3681474924087524e+00" cType="1" res="7.2322279214859009e-02" rms="2.4210330843925476e-01" purity="6.2387210130691528e-01" nType="0">
          <Node pos="l" depth="2" NCoef="0" IVar="-1" Cut="0.0000000000000000e+00" cType="1" res="-3.5341766197234392e-03" rms="1.2214573472738266e-01" purity="7.7972702682018280e-02" nType="-99"/>
          <Node pos="r" depth="2" NCoef="0" IVar="-1" Cut="0.0000000000000000e+00" cType="1" res="1.8444126471877098e-03" rms="2.5273710489273071e-01" purity="7.7778464555740356e-01" nType="-99"/>
        </Node>
        <Node pos="r" depth="1" NCoef="0" IVar="34" Cut="-1.4926679134368896e+00" cType="1" res="-5.1911804825067520e-02" rms="2.7965947985649109e-01" purity="2.1013669669628143e-01" nType="0">
          <Node pos="l" depth="2" NCoef="0" IVar="-1" Cut="0.0000000000000000e+00" cType="1" res="2.0955242216587067e-03" rms="3.2207608222961426e-01" purity="4.2209988832473755e-01" nType="-99"/>
          <Node pos="r" depth="2" NCoef="0" IVar="-1" Cut="0.0000000000000000e+00" cType="1" res="-1.4580369461327791e-03" rms="2.7114865183830261e-01" purity="1.9145084917545319e-01" nType="-99"/>
        </Node>
      </Node>
    </BinaryTree>
    <BinaryTree type="DecisionTree" boostWeight="1.0000000000000000e+00" itree="405">
      <Node pos="s" depth="0" NCoef="0" IVar="5" Cut="3.0224487185478210e-01" cType="1" res="4.0134739130735397e-02" rms="2.6345679163932800e-01" purity="5.0060087442398071e-01" nType="0">
        <Node pos="l" depth="1" NCoef="0" IVar="31" Cut="2.6682198047637939e+00" cType="1" res="8.5490889847278595e-02" rms="2.4519130587577820e-01" purity="6.6675668954849243e-01" nType="0">
          <Node pos="l" depth="2" NCoef="0" IVar="-1" Cut="0.0000000000000000e+00" cType="1" res="-2.6472054887562990e-03" rms="2.4460761249065399e-01" purity="1.9797748327255249e-01" nType="-99"/>
          <Node pos="r" depth="2" NCoef="0" IVar="-1" Cut="0.0000000000000000e+00" cType="1" res="2.0805471576750278e-03" rms="2.3396398127079010e-01" purity="7.6559340953826904e-01" nType="-99"/>
        </Node>
        <Node pos="r" depth="1" NCoef="0" IVar="0" Cut="6.3401532173156738e-01" cType="1" res="-2.1996334195137024e-02" rms="2.7469629049301147e-01" purity="2.7299240231513977e-01" nType="0">
          <Node pos="l" depth="2" NCoef="0" IVar="-1" Cut="0.0000000000000000e+00" cType="1" res="3.2538551022298634e-04" rms="3.0379113554954529e-01" purity="3.4688812494277954e-01" nType="-99"/>
          <Node pos="r" depth="2" NCoef="0" IVar="-1" Cut="0.0000000000000000e+00" cType="1" res="-1.7440115334466100e-03" rms="2.1712017059326172e-01" purity="1.7025543749332428e-01" nType="-99"/>
        </Node>
      </Node>
    </BinaryTree>
    <BinaryTree type="DecisionTree" boostWeight="1.0000000000000000e+00" itree="406">
      <Node pos="s" depth="0" NCoef="0" IVar="27" Cut="1.2592899799346924e+00" cType="1" res="4.7328401356935501e-02" rms="2.6527711749076843e-01" purity="5.1275378465652466e-01" nType="0">
        <Node pos="l" depth="1" NCoef="0" IVar="0" Cut="7.2885787487030029e-01" cType="1" res="-7.4315950274467468e-02" rms="1.9701831042766571e-01" purity="1.5609741210937500e-01" nType="0">
          <Node pos="l" depth="2" NCoef="0" IVar="-1" Cut="0.0000000000000000e+00" cType="1" res="-5.0671730423346162e-04" rms="2.6384949684143066e-01" purity="2.6071965694427490e-01" nType="-99"/>
          <Node pos="r" depth="2" NCoef="0" IVar="-1" Cut="0.0000000000000000e+00" cType="1" res="-8.7781753391027451e-03" rms="0.0000000000000000e+00" purity="-1.0752508416771889e-02" nType="-99"/>
        </Node>
        <Node pos="r" depth="1" NCoef="0" IVar="5" Cut="3.4026998281478882e-01" cType="1" res="6.6130667924880981e-02" rms="2.6946005225181580e-01" purity="5.6788128614425659e-01" nType="0">
          <Node pos="l" depth="2" NCoef="0" IVar="-1" Cut="0.0000000000000000e+00" cType="1" res="1.9567660056054592e-03" rms="2.3176832497119904e-01" purity="7.4530708789825439e-01" nType="-99"/>
          <Node pos="r" depth="2" NCoef="0" IVar="-1" Cut="0.0000000000000000e+00" cType="1" res="-2.0174666133243591e-05" rms="3.0662354826927185e-01" purity="2.9672363400459290e-01" nType="-99"/>
        </Node>
      </Node>
    </BinaryTree>
    <BinaryTree type="DecisionTree" boostWeight="1.0000000000000000e+00" itree="407">
      <Node pos="s" depth="0" NCoef="0" IVar="1" Cut="2.6573128700256348e+00" cType="1" res="4.7741860151290894e-02" rms="2.7206519246101379e-01" purity="5.1213204860687256e-01" nType="0">
        <Node pos="l" depth="1" NCoef="0" IVar="3" Cut="5.2374711036682129e+00" cType="1" res="-4.2372990399599075e-02" rms="2.4334484338760376e-01" purity="1.8382671475410461e-01" nType="0">
          <Node pos="l" depth="2" NCoef="0" IVar="-1" Cut="0.0000000000000000e+00" cType="1" res="-2.1557461004704237e-03" rms="1.9852069020271301e-01" purity="1.6021633148193359e-01" nType="-99"/>
          <Node pos="r" depth="2" NCoef="0" IVar="-1" Cut="0.0000000000000000e+00" cType="1" res="5.7292291894555092e-03" rms="4.0357726812362671e-01" purity="4.1588532924652100e-01" nType="-99"/>
        </Node>
        <Node pos="r" depth="1" NCoef="0" IVar="5" Cut="3.3970877528190613e-01" cType="1" res="7.7470220625400543e-02" rms="2.7448144555091858e-01" purity="6.2043803930282593e-01" nType="0">
          <Node pos="l" depth="2" NCoef="0" IVar="-1" Cut="0.0000000000000000e+00" cType="1" res="2.0922971889376640e-03" rms="2.3085241019725800e-01" purity="7.8010016679763794e-01" nType="-99"/>
          <Node pos="r" depth="2" NCoef="0" IVar="-1" Cut="0.0000000000000000e+00" cType="1" res="2.0496048091445118e-04" rms="3.2478353381156921e-01" purity="3.5162001848220825e-01" nType="-99"/>
        </Node>
      </Node>
    </BinaryTree>
    <BinaryTree type="DecisionTree" boostWeight="1.0000000000000000e+00" itree="408">
      <Node pos="s" depth="0" NCoef="0" IVar="2" Cut="2.3943381309509277e+00" cType="1" res="3.7082515656948090e-02" rms="2.5962299108505249e-01" purity="5.0059419870376587e-01" nType="0">
        <Node pos="l" depth="1" NCoef="0" IVar="57" Cut="-1.9621528685092926e-01" cType="1" res="-2.3754471912980080e-02" rms="2.3845684528350830e-01" purity="2.9072064161300659e-01" nType="0">
          <Node pos="l" depth="2" NCoef="0" IVar="-1" Cut="0.0000000000000000e+00" cType="1" res="2.9937422368675470e-04" rms="2.7484327554702759e-01" purity="3.6046412587165833e-01" nType="-99"/>
          <Node pos="r" depth="2" NCoef="0" IVar="-1" Cut="0.0000000000000000e+00" cType="1" res="-4.2750248685479164e-03" rms="0.0000000000000000e+00" purity="1.1213363707065582e-01" nType="-99"/>
        </Node>
        <Node pos="r" depth="1" NCoef="0" IVar="17" Cut="1.3684681653976440e+00" cType="1" res="8.2182347774505615e-02" rms="2.6540857553482056e-01" purity="6.5617823600769043e-01" nType="0">
          <Node pos="l" depth="2" NCoef="0" IVar="-1" Cut="0.0000000000000000e+00" cType="1" res="-5.3147678263485432e-03" rms="1.0157902538776398e-01" purity="1.4735449105501175e-02" nType="-99"/>
          <Node pos="r" depth="2" NCoef="0" IVar="-1" Cut="0.0000000000000000e+00" cType="1" res="1.5001142164692283e-03" rms="2.8725251555442810e-01" purity="8.2382971048355103e-01" nType="-99"/>
        </Node>
      </Node>
    </BinaryTree>
    <BinaryTree type="DecisionTree" boostWeight="1.0000000000000000e+00" itree="409">
      <Node pos="s" depth="0" NCoef="0" IVar="17" Cut="1.5231137275695801e+00" cType="1" res="3.9781998842954636e-02" rms="2.6491633057594299e-01" purity="4.9635377526283264e-01" nType="0">
        <Node pos="l" depth="1" NCoef="0" IVar="2" Cut="2.3868970870971680e+00" cType="1" res="-1.2384260771796107e-03" rms="2.6779067516326904e-01" purity="2.5660291314125061e-01" nType="0">
          <Node pos="l" depth="2" NCoef="0" IVar="-1" Cut="0.0000000000000000e+00" cType="1" res="-1.9474301952868700e-03" rms="2.0834873616695404e-01" purity="1.1307159066200256e-01" nType="-99"/>
          <Node pos="r" depth="2" NCoef="0" IVar="-1" Cut="0.0000000000000000e+00" cType="1" res="8.2305748946964741e-04" rms="3.0917608737945557e-01" purity="4.0005591511726379e-01" nType="-99"/>
        </Node>
        <Node pos="r" depth="1" NCoef="0" IVar="1" Cut="2.3253934383392334e+00" cType="1" res="1.0487210750579834e-01" rms="2.4666632711887360e-01" purity="8.7678396701812744e-01" nType="0">
          <Node pos="l" depth="2" NCoef="0" IVar="-1" Cut="0.0000000000000000e+00" cType="1" res="-1.2715768534690142e-03" rms="3.4984868764877319e-01" purity="3.7875649333000183e-01" nType="-99"/>
          <Node pos="r" depth="2" NCoef="0" IVar="-1" Cut="0.0000000000000000e+00" cType="1" res="1.8106686184182763e-03" rms="2.3408435285091400e-01" purity="9.0661931037902832e-01" nType="-99"/>
        </Node>
      </Node>
    </BinaryTree>
    <BinaryTree type="DecisionTree" boostWeight="1.0000000000000000e+00" itree="410">
      <Node pos="s" depth="0" NCoef="0" IVar="48" Cut="1.2225245237350464e+00" cType="1" res="3.4384626895189285e-02" rms="2.6008558273315430e-01" purity="4.9281093478202820e-01" nType="0">
        <Node pos="l" depth="1" NCoef="0" IVar="55" Cut="-9.9342000484466553e-01" cType="1" res="-7.3334775865077972e-02" rms="1.9773416221141815e-01" purity="1.6810055077075958e-01" nType="0">
          <Node pos="l" depth="2" NCoef="0" IVar="-1" Cut="0.0000000000000000e+00" cType="1" res="-6.3427828536077868e-06" rms="2.6211625337600708e-01" purity="2.8818041086196899e-01" nType="-99"/>
          <Node pos="r" depth="2" NCoef="0" IVar="-1" Cut="0.0000000000000000e+00" cType="1" res="-4.2209215462207794e-03" rms="6.2153361737728119e-02" purity="6.1472415924072266e-02" nType="-99"/>
        </Node>
        <Node pos="r" depth="1" NCoef="0" IVar="5" Cut="2.8769284486770630e-01" cType="1" res="5.7667091488838196e-02" rms="2.6601564884185791e-01" purity="5.6299376487731934e-01" nType="0">
          <Node pos="l" depth="2" NCoef="0" IVar="-1" Cut="0.0000000000000000e+00" cType="1" res="2.1629757247865200e-03" rms="2.2824420034885406e-01" purity="7.7635759115219116e-01" nType="-99"/>
          <Node pos="r" depth="2" NCoef="0" IVar="-1" Cut="0.0000000000000000e+00" cType="1" res="-8.1367208622395992e-05" rms="2.9147803783416748e-01" purity="3.1907051801681519e-01" nType="-99"/>
        </Node>
      </Node>
    </BinaryTree>
    <BinaryTree type="DecisionTree" boostWeight="1.0000000000000000e+00" itree="411">
      <Node pos="s" depth="0" NCoef="0" IVar="48" Cut="1.0182108879089355e+00" cType="1" res="4.4952590018510818e-02" rms="2.6069924235343933e-01" purity="5.0946080684661865e-01" nType="0">
        <Node pos="l" depth="1" NCoef="0" IVar="0" Cut="5.7782441377639771e-01" cType="1" res="-9.3990512192249298e-02" rms="1.2008488178253174e-01" purity="1.2165033072233200e-01" nType="0">
          <Node pos="l" depth="2" NCoef="0" IVar="-1" Cut="0.0000000000000000e+00" cType="1" res="-2.6840312057174742e-04" rms="2.4571521580219269e-01" purity="2.5108158588409424e-01" nType="-99"/>
          <Node pos="r" depth="2" NCoef="0" IVar="-1" Cut="0.0000000000000000e+00" cType="1" res="-4.1339453309774399e-03" rms="0.0000000000000000e+00" purity="2.7048936113715172e-02" nType="-99"/>
        </Node>
        <Node pos="r" depth="1" NCoef="0" IVar="5" Cut="3.0544388294219971e-01" cType="1" res="6.4644515514373779e-02" rms="2.6912605762481689e-01" purity="5.6442379951477051e-01" nType="0">
          <Node pos="l" depth="2" NCoef="0" IVar="-1" Cut="0.0000000000000000e+00" cType="1" res="2.1173090208321810e-03" rms="2.3287397623062134e-01" purity="7.5113707780838013e-01" nType="-99"/>
          <Node pos="r" depth="2" NCoef="0" IVar="-1" Cut="0.0000000000000000e+00" cType="1" res="8.1175137893296778e-05" rms="2.9875463247299194e-01" purity="3.2499265670776367e-01" nType="-99"/>
        </Node>
      </Node>
    </BinaryTree>
    <BinaryTree type="DecisionTree" boostWeight="1.0000000000000000e+00" itree="412">
      <Node pos="s" depth="0" NCoef="0" IVar="48" Cut="1.0207147598266602e+00" cType="1" res="4.0674921125173569e-02" rms="2.6807767152786255e-01" purity="5.0658982992172241e-01" nType="0">
        <Node pos="l" depth="1" NCoef="0" IVar="17" Cut="9.7880601882934570e-01" cType="1" res="-8.1155881285667419e-02" rms="2.0557717978954315e-01" purity="1.3652370870113373e-01" nType="0">
          <Node pos="l" depth="2" NCoef="0" IVar="-1" Cut="0.0000000000000000e+00" cType="1" res="7.8513482585549355e-03" rms="2.2189351916313171e-01" purity="5.6036006659269333e-02" nType="-99"/>
          <Node pos="r" depth="2" NCoef="0" IVar="-1" Cut="0.0000000000000000e+00" cType="1" res="-2.3886740673333406e-03" rms="1.5735106170177460e-01" purity="1.8900923430919647e-01" nType="-99"/>
        </Node>
        <Node pos="r" depth="1" NCoef="0" IVar="5" Cut="2.6904693245887756e-01" cType="1" res="5.8642715215682983e-02" rms="2.7151381969451904e-01" purity="5.6116777658462524e-01" nType="0">
          <Node pos="l" depth="2" NCoef="0" IVar="-1" Cut="0.0000000000000000e+00" cType="1" res="2.1377257071435452e-03" rms="2.4310158193111420e-01" purity="7.5860017538070679e-01" nType="-99"/>
          <Node pos="r" depth="2" NCoef="0" IVar="-1" Cut="0.0000000000000000e+00" cType="1" res="8.8484477601014078e-05" rms="2.8952643275260925e-01" purity="3.4840062260627747e-01" nType="-99"/>
        </Node>
      </Node>
    </BinaryTree>
    <BinaryTree type="DecisionTree" boostWeight="1.0000000000000000e+00" itree="413">
      <Node pos="s" depth="0" NCoef="0" IVar="1" Cut="2.7377529144287109e+00" cType="1" res="3.9626426994800568e-02" rms="2.6363882422447205e-01" purity="4.9931019544601440e-01" nType="0">
        <Node pos="l" depth="1" NCoef="0" IVar="15" Cut="1.4832879304885864e+00" cType="1" res="-3.2543431967496872e-02" rms="2.4829149246215820e-01" purity="2.1524570882320404e-01" nType="0">
          <Node pos="l" depth="2" NCoef="0" IVar="-1" Cut="0.0000000000000000e+00" cType="1" res="1.0029473196482286e-04" rms="2.2612993419170380e-01" purity="2.1587719023227692e-01" nType="-99"/>
          <Node pos="r" depth="2" NCoef="0" IVar="-1" Cut="0.0000000000000000e+00" cType="1" res="-3.2569521572440863e-03" rms="2.7999410033226013e-01" purity="2.1311971545219421e-01" nType="-99"/>
        </Node>
        <Node pos="r" depth="1" NCoef="0" IVar="36" Cut="1.7009299993515015e-01" cType="1" res="7.0013336837291718e-02" rms="2.6400211453437805e-01" purity="6.1891472339630127e-01" nType="0">
          <Node pos="l" depth="2" NCoef="0" IVar="-1" Cut="0.0000000000000000e+00" cType="1" res="-1.2436512857675552e-02" rms="0.0000000000000000e+00" purity="-4.3217269703745842e-03" nType="-99"/>
          <Node pos="r" depth="2" NCoef="0" IVar="-1" Cut="0.0000000000000000e+00" cType="1" res="1.4650536468252540e-03" rms="2.7332884073257446e-01" purity="6.8608093261718750e-01" nType="-99"/>
        </Node>
      </Node>
    </BinaryTree>
    <BinaryTree type="DecisionTree" boostWeight="1.0000000000000000e+00" itree="414">
      <Node pos="s" depth="0" NCoef="0" IVar="48" Cut="1.1159363985061646e+00" cType="1" res="3.9983857423067093e-02" rms="2.6703274250030518e-01" purity="5.0061154365539551e-01" nType="0">
        <Node pos="l" depth="1" NCoef="0" IVar="52" Cut="2.7714364528656006e+00" cType="1" res="-8.0156609416007996e-02" rms="1.9596758484840393e-01" purity="1.1773866415023804e-01" nType="0">
          <Node pos="l" depth="2" NCoef="0" IVar="-1" Cut="0.0000000000000000e+00" cType="1" res="-3.5844817757606506e-03" rms="8.8717475533485413e-02" purity="5.1785789430141449e-02" nType="-99"/>
          <Node pos="r" depth="2" NCoef="0" IVar="-1" Cut="0.0000000000000000e+00" cType="1" res="1.7649874789640307e-03" rms="3.2777467370033264e-01" purity="3.2849290966987610e-01" nType="-99"/>
        </Node>
        <Node pos="r" depth="1" NCoef="0" IVar="5" Cut="2.9088425636291504e-01" cType="1" res="6.1210054904222488e-02" rms="2.7224820852279663e-01" purity="5.6825679540634155e-01" nType="0">
          <Node pos="l" depth="2" NCoef="0" IVar="-1" Cut="0.0000000000000000e+00" cType="1" res="2.1398651879280806e-03" rms="2.3565053939819336e-01" purity="7.7167552709579468e-01" nType="-99"/>
          <Node pos="r" depth="2" NCoef="0" IVar="-1" Cut="0.0000000000000000e+00" cType="1" res="9.8478594736661762e-05" rms="2.9891258478164673e-01" purity="3.3663788437843323e-01" nType="-99"/>
        </Node>
      </Node>
    </BinaryTree>
    <BinaryTree type="DecisionTree" boostWeight="1.0000000000000000e+00" itree="415">
      <Node pos="s" depth="0" NCoef="0" IVar="5" Cut="3.4241408109664917e-01" cType="1" res="3.7373494356870651e-02" rms="2.7077403664588928e-01" purity="4.8835906386375427e-01" nType="0">
        <Node pos="l" depth="1" NCoef="0" IVar="27" Cut="1.5330402851104736e+00" cType="1" res="7.5641319155693054e-02" rms="2.5248748064041138e-01" purity="6.3273090124130249e-01" nType="0">
          <Node pos="l" depth="2" NCoef="0" IVar="-1" Cut="0.0000000000000000e+00" cType="1" res="-1.9197879591956735e-03" rms="1.9934946298599243e-01" purity="2.3824413120746613e-01" nType="-99"/>
          <Node pos="r" depth="2" NCoef="0" IVar="-1" Cut="0.0000000000000000e+00" cType="1" res="2.0587071776390076e-03" rms="2.5305110216140747e-01" purity="7.5096660852432251e-01" nType="-99"/>
        </Node>
        <Node pos="r" depth="1" NCoef="0" IVar="52" Cut="3.3474242687225342e+00" cType="1" res="-2.6555815711617470e-02" rms="2.8769835829734802e-01" purity="2.4717494845390320e-01" nType="0">
          <Node pos="l" depth="2" NCoef="0" IVar="-1" Cut="0.0000000000000000e+00" cType="1" res="2.1013158402638510e-05" rms="3.0095201730728149e-01" purity="2.7222201228141785e-01" nType="-99"/>
          <Node pos="r" depth="2" NCoef="0" IVar="-1" Cut="0.0000000000000000e+00" cType="1" res="-3.4311991184949875e-03" rms="1.8996442854404449e-01" purity="1.4652451872825623e-01" nType="-99"/>
        </Node>
      </Node>
    </BinaryTree>
    <BinaryTree type="DecisionTree" boostWeight="1.0000000000000000e+00" itree="416">
      <Node pos="s" depth="0" NCoef="0" IVar="27" Cut="1.2592766284942627e+00" cType="1" res="3.5068750381469727e-02" rms="2.6258131861686707e-01" purity="4.9376866221427917e-01" nType="0">
        <Node pos="l" depth="1" NCoef="0" IVar="0" Cut="7.2884923219680786e-01" cType="1" res="-8.3614200353622437e-02" rms="1.5686914324760437e-01" purity="1.5676128864288330e-01" nType="0">
          <Node pos="l" depth="2" NCoef="0" IVar="-1" Cut="0.0000000000000000e+00" cType="1" res="-1.2626585084944963e-03" rms="2.2188358008861542e-01" purity="2.6051816344261169e-01" nType="-99"/>
          <Node pos="r" depth="2" NCoef="0" IVar="-1" Cut="0.0000000000000000e+00" cType="1" res="-8.4546208381652832e-03" rms="0.0000000000000000e+00" purity="-1.9130770117044449e-02" nType="-99"/>
        </Node>
        <Node pos="r" depth="1" NCoef="0" IVar="5" Cut="2.6688072085380554e-01" cType="1" res="5.4492834955453873e-02" rms="2.7115190029144287e-01" purity="5.4892450571060181e-01" nType="0">
          <Node pos="l" depth="2" NCoef="0" IVar="-1" Cut="0.0000000000000000e+00" cType="1" res="1.9710205961018801e-03" rms="2.3911347985267639e-01" purity="7.5821226835250854e-01" nType="-99"/>
          <Node pos="r" depth="2" NCoef="0" IVar="-1" Cut="0.0000000000000000e+00" cType="1" res="6.8371431552805007e-05" rms="2.9031831026077271e-01" purity="3.4398093819618225e-01" nType="-99"/>
        </Node>
      </Node>
    </BinaryTree>
    <BinaryTree type="DecisionTree" boostWeight="1.0000000000000000e+00" itree="417">
      <Node pos="s" depth="0" NCoef="0" IVar="48" Cut="1.1186426877975464e+00" cType="1" res="4.7496110200881958e-02" rms="2.7852356433868408e-01" purity="5.0150626897811890e-01" nType="0">
        <Node pos="l" depth="1" NCoef="0" IVar="35" Cut="-6.3804261386394501e-02" cType="1" res="-5.9795565903186798e-02" rms="2.3190087080001831e-01" purity="1.5867674350738525e-01" nType="0">
          <Node pos="l" depth="2" NCoef="0" IVar="-1" Cut="0.0000000000000000e+00" cType="1" res="-6.0065463185310364e-04" rms="2.7779006958007812e-01" purity="2.0102567970752716e-01" nType="-99"/>
          <Node pos="r" depth="2" NCoef="0" IVar="-1" Cut="0.0000000000000000e+00" cType="1" res="-5.3645712323486805e-03" rms="0.0000000000000000e+00" purity="-1.0762479156255722e-02" nType="-99"/>
        </Node>
        <Node pos="r" depth="1" NCoef="0" IVar="5" Cut="3.0224487185478210e-01" cType="1" res="6.7525908350944519e-02" rms="2.8190028667449951e-01" purity="5.6550747156143188e-01" nType="0">
          <Node pos="l" depth="2" NCoef="0" IVar="-1" Cut="0.0000000000000000e+00" cType="1" res="2.2248597815632820e-03" rms="2.4229574203491211e-01" purity="7.6158028841018677e-01" nType="-99"/>
          <Node pos="r" depth="2" NCoef="0" IVar="-1" Cut="0.0000000000000000e+00" cType="1" res="1.9643819541670382e-04" rms="3.1365522742271423e-01" purity="3.2969519495964050e-01" nType="-99"/>
        </Node>
      </Node>
    </BinaryTree>
    <BinaryTree type="DecisionTree" boostWeight="1.0000000000000000e+00" itree="418">
      <Node pos="s" depth="0" NCoef="0" IVar="2" Cut="1.8107006549835205e+00" cType="1" res="4.7092925757169724e-02" rms="2.7381777763366699e-01" purity="5.1398873329162598e-01" nType="0">
        <Node pos="l" depth="1" NCoef="0" IVar="5" Cut="8.7730146944522858e-02" cType="1" res="-5.5250074714422226e-02" rms="2.4334461987018585e-01" purity="1.7711102962493896e-01" nType="0">
          <Node pos="l" depth="2" NCoef="0" IVar="-1" Cut="0.0000000000000000e+00" cType="1" res="8.9786655735224485e-04" rms="3.1006935238838196e-01" purity="3.0143642425537109e-01" nType="-99"/>
          <Node pos="r" depth="2" NCoef="0" IVar="-1" Cut="0.0000000000000000e+00" cType="1" res="-5.5590444244444370e-03" rms="1.6584135591983795e-01" purity="9.5896668732166290e-02" nType="-99"/>
        </Node>
        <Node pos="r" depth="1" NCoef="0" IVar="17" Cut="1.1365000009536743e+00" cType="1" res="6.8849511444568634e-02" rms="2.7500262856483459e-01" purity="5.8560377359390259e-01" nType="0">
          <Node pos="l" depth="2" NCoef="0" IVar="-1" Cut="0.0000000000000000e+00" cType="1" res="-1.2720335274934769e-02" rms="0.0000000000000000e+00" purity="-2.7607893571257591e-03" nType="-99"/>
          <Node pos="r" depth="2" NCoef="0" IVar="-1" Cut="0.0000000000000000e+00" cType="1" res="1.4003207907080650e-03" rms="3.0448210239410400e-01" purity="7.3376494646072388e-01" nType="-99"/>
        </Node>
      </Node>
    </BinaryTree>
    <BinaryTree type="DecisionTree" boostWeight="1.0000000000000000e+00" itree="419">
      <Node pos="s" depth="0" NCoef="0" IVar="3" Cut="5.1870608329772949e+00" cType="1" res="3.7852279841899872e-02" rms="2.6438167691230774e-01" purity="5.0375461578369141e-01" nType="0">
        <Node pos="l" depth="1" NCoef="0" IVar="1" Cut="2.7378606796264648e+00" cType="1" res="2.4923281744122505e-02" rms="2.5087311863899231e-01" purity="5.0377762317657471e-01" nType="0">
          <Node pos="l" depth="2" NCoef="0" IVar="-1" Cut="0.0000000000000000e+00" cType="1" res="-1.9675963558256626e-03" rms="2.0272949337959290e-01" purity="1.8907143175601959e-01" nType="-99"/>
          <Node pos="r" depth="2" NCoef="0" IVar="-1" Cut="0.0000000000000000e+00" cType="1" res="1.0930829448625445e-03" rms="2.5884285569190979e-01" purity="6.2624406814575195e-01" nType="-99"/>
        </Node>
        <Node pos="r" depth="1" NCoef="0" IVar="17" Cut="1.0954785346984863e+00" cType="1" res="2.0643173158168793e-01" rms="3.6062988638877869e-01" purity="5.0345474481582642e-01" nType="0">
          <Node pos="l" depth="2" NCoef="0" IVar="-1" Cut="0.0000000000000000e+00" cType="1" res="4.3862098827958107e-03" rms="2.5708052515983582e-01" purity="7.6628379523754120e-02" nType="-99"/>
          <Node pos="r" depth="2" NCoef="0" IVar="-1" Cut="0.0000000000000000e+00" cType="1" res="4.6275625936686993e-03" rms="3.7502288818359375e-01" purity="7.6170903444290161e-01" nType="-99"/>
        </Node>
      </Node>
    </BinaryTree>
    <BinaryTree type="DecisionTree" boostWeight="1.0000000000000000e+00" itree="420">
      <Node pos="s" depth="0" NCoef="0" IVar="1" Cut="2.9469904899597168e+00" cType="1" res="3.1922902911901474e-02" rms="2.5729900598526001e-01" purity="4.8805800080299377e-01" nType="0">
        <Node pos="l" depth="1" NCoef="0" IVar="3" Cut="4.8592472076416016e+00" cType="1" res="-3.3120535314083099e-02" rms="2.4604810774326324e-01" purity="2.4475139379501343e-01" nType="0">
          <Node pos="l" depth="2" NCoef="0" IVar="-1" Cut="0.0000000000000000e+00" cType="1" res="-2.4765150155872107e-03" rms="2.1283613145351410e-01" purity="1.6837614774703979e-01" nType="-99"/>
          <Node pos="r" depth="2" NCoef="0" IVar="-1" Cut="0.0000000000000000e+00" cType="1" res="1.0126890847459435e-03" rms="2.8024262189865112e-01" purity="3.8748201727867126e-01" nType="-99"/>
        </Node>
        <Node pos="r" depth="1" NCoef="0" IVar="17" Cut="1.2505984306335449e+00" cType="1" res="7.3412284255027771e-02" rms="2.5572472810745239e-01" purity="6.4325648546218872e-01" nType="0">
          <Node pos="l" depth="2" NCoef="0" IVar="-1" Cut="0.0000000000000000e+00" cType="1" res="-1.3968874700367451e-02" rms="0.0000000000000000e+00" purity="-6.2467805109918118e-03" nType="-99"/>
          <Node pos="r" depth="2" NCoef="0" IVar="-1" Cut="0.0000000000000000e+00" cType="1" res="1.4579764101654291e-03" rms="2.8125372529029846e-01" purity="7.9660344123840332e-01" nType="-99"/>
        </Node>
      </Node>
    </BinaryTree>
    <BinaryTree type="DecisionTree" boostWeight="1.0000000000000000e+00" itree="421">
      <Node pos="s" depth="0" NCoef="0" IVar="17" Cut="1.0978386402130127e+00" cType="1" res="4.1805516928434372e-02" rms="2.6010489463806152e-01" purity="5.1126128435134888e-01" nType="0">
        <Node pos="l" depth="1" NCoef="0" IVar="35" Cut="2.0650200545787811e-01" cType="1" res="-2.0227355882525444e-02" rms="0.0000000000000000e+00" purity="-1.6873288899660110e-02" nType="-99"/>
        <Node pos="r" depth="1" NCoef="0" IVar="3" Cut="4.8592472076416016e+00" cType="1" res="6.8401992321014404e-02" rms="3.0089500546455383e-01" purity="6.7262315750122070e-01" nType="0">
          <Node pos="l" depth="2" NCoef="0" IVar="-1" Cut="0.0000000000000000e+00" cType="1" res="4.6569076948799193e-04" rms="3.0660358071327209e-01" purity="6.0613864660263062e-01" nType="-99"/>
          <Node pos="r" depth="2" NCoef="0" IVar="-1" Cut="0.0000000000000000e+00" cType="1" res="2.1635864395648241e-03" rms="2.7352315187454224e-01" purity="8.0186945199966431e-01" nType="-99"/>
        </Node>
      </Node>
    </BinaryTree>
    <BinaryTree type="DecisionTree" boostWeight="1.0000000000000000e+00" itree="422">
      <Node pos="s" depth="0" NCoef="0" IVar="5" Cut="3.4117272496223450e-01" cType="1" res="3.3815383911132812e-02" rms="2.6468124985694885e-01" purity="4.9165081977844238e-01" nType="0">
        <Node pos="l" depth="1" NCoef="0" IVar="31" Cut="2.6577706336975098e+00" cType="1" res="7.1495771408081055e-02" rms="2.4426409602165222e-01" purity="6.3444775342941284e-01" nType="0">
          <Node pos="l" depth="2" NCoef="0" IVar="-1" Cut="0.0000000000000000e+00" cType="1" res="-3.4993621520698071e-03" rms="2.2617207467556000e-01" purity="1.5992026031017303e-01" nType="-99"/>
          <Node pos="r" depth="2" NCoef="0" IVar="-1" Cut="0.0000000000000000e+00" cType="1" res="1.8295735353603959e-03" rms="2.3758125305175781e-01" purity="7.2890454530715942e-01" nType="-99"/>
        </Node>
        <Node pos="r" depth="1" NCoef="0" IVar="2" Cut="2.4767773151397705e+00" cType="1" res="-3.0268725007772446e-02" rms="2.8496897220611572e-01" purity="2.4879200756549835e-01" nType="0">
          <Node pos="l" depth="2" NCoef="0" IVar="-1" Cut="0.0000000000000000e+00" cType="1" res="-3.2715299166738987e-03" rms="1.9305241107940674e-01" purity="7.7380001544952393e-02" nType="-99"/>
          <Node pos="r" depth="2" NCoef="0" IVar="-1" Cut="0.0000000000000000e+00" cType="1" res="4.3059777817688882e-04" rms="3.3549353480339050e-01" purity="3.9932858943939209e-01" nType="-99"/>
        </Node>
      </Node>
    </BinaryTree>
    <BinaryTree type="DecisionTree" boostWeight="1.0000000000000000e+00" itree="423">
      <Node pos="s" depth="0" NCoef="0" IVar="1" Cut="2.7307789325714111e+00" cType="1" res="3.2410927116870880e-02" rms="2.5799262523651123e-01" purity="4.9061298370361328e-01" nType="0">
        <Node pos="l" depth="1" NCoef="0" IVar="3" Cut="4.9818406105041504e+00" cType="1" res="-4.3887797743082047e-02" rms="2.3598591983318329e-01" purity="1.9719286262989044e-01" nType="0">
          <Node pos="l" depth="2" NCoef="0" IVar="-1" Cut="0.0000000000000000e+00" cType="1" res="-2.7828556485474110e-03" rms="1.8525120615959167e-01" purity="1.4084510505199432e-01" nType="-99"/>
          <Node pos="r" depth="2" NCoef="0" IVar="-1" Cut="0.0000000000000000e+00" cType="1" res="1.8421654822304845e-03" rms="3.1947755813598633e-01" purity="3.7449067831039429e-01" nType="-99"/>
        </Node>
        <Node pos="r" depth="1" NCoef="0" IVar="5" Cut="2.8578403592109680e-01" cType="1" res="6.3569366931915283e-02" rms="2.6009878516197205e-01" purity="6.1043822765350342e-01" nType="0">
          <Node pos="l" depth="2" NCoef="0" IVar="-1" Cut="0.0000000000000000e+00" cType="1" res="2.2553498856723309e-03" rms="2.2372047603130341e-01" purity="8.1608831882476807e-01" nType="-99"/>
          <Node pos="r" depth="2" NCoef="0" IVar="-1" Cut="0.0000000000000000e+00" cType="1" res="-8.2223959907423705e-05" rms="2.8381228446960449e-01" purity="3.6123770475387573e-01" nType="-99"/>
        </Node>
      </Node>
    </BinaryTree>
    <BinaryTree type="DecisionTree" boostWeight="1.0000000000000000e+00" itree="424">
      <Node pos="s" depth="0" NCoef="0" IVar="15" Cut="1.5225218534469604e+00" cType="1" res="3.5104218870401382e-02" rms="2.6086601614952087e-01" purity="4.9272075295448303e-01" nType="0">
        <Node pos="l" depth="1" NCoef="0" IVar="17" Cut="1.4457910060882568e+00" cType="1" res="5.0664737820625305e-02" rms="2.4344430863857269e-01" purity="4.9543383717536926e-01" nType="0">
          <Node pos="l" depth="2" NCoef="0" IVar="-1" Cut="0.0000000000000000e+00" cType="1" res="-1.1472080368548632e-03" rms="1.5770204365253448e-01" purity="3.8225632160902023e-02" nType="-99"/>
          <Node pos="r" depth="2" NCoef="0" IVar="-1" Cut="0.0000000000000000e+00" cType="1" res="1.2708593858405948e-03" rms="2.7913933992385864e-01" purity="7.9829394817352295e-01" nType="-99"/>
        </Node>
        <Node pos="r" depth="1" NCoef="0" IVar="15" Cut="1.5416113138198853e+00" cType="1" res="-8.9103929698467255e-02" rms="3.4759518504142761e-01" purity="4.7106462717056274e-01" nType="0">
          <Node pos="l" depth="2" NCoef="0" IVar="-1" Cut="0.0000000000000000e+00" cType="1" res="-3.9110321085900068e-04" rms="3.3115616440773010e-01" purity="5.7230776548385620e-01" nType="-99"/>
          <Node pos="r" depth="2" NCoef="0" IVar="-1" Cut="0.0000000000000000e+00" cType="1" res="-2.2253701463341713e-02" rms="2.7627146244049072e-01" purity="3.0254879966378212e-02" nType="-99"/>
        </Node>
      </Node>
    </BinaryTree>
    <BinaryTree type="DecisionTree" boostWeight="1.0000000000000000e+00" itree="425">
      <Node pos="s" depth="0" NCoef="0" IVar="6" Cut="2.0701959133148193e+00" cType="1" res="3.5663489252328873e-02" rms="2.6133325695991516e-01" purity="4.9390277266502380e-01" nType="0">
        <Node pos="l" depth="1" NCoef="0" IVar="3" Cut="5.1896281242370605e+00" cType="1" res="-2.7908138930797577e-02" rms="2.4032305181026459e-01" purity="2.5735768675804138e-01" nType="0">
          <Node pos="l" depth="2" NCoef="0" IVar="-1" Cut="0.0000000000000000e+00" cType="1" res="-1.4231171226128936e-03" rms="2.1071118116378784e-01" purity="2.3826056718826294e-01" nType="-99"/>
          <Node pos="r" depth="2" NCoef="0" IVar="-1" Cut="0.0000000000000000e+00" cType="1" res="4.1376305744051933e-03" rms="3.4945645928382874e-01" purity="4.3393585085868835e-01" nType="-99"/>
        </Node>
        <Node pos="r" depth="1" NCoef="0" IVar="17" Cut="1.3288018703460693e+00" cType="1" res="7.0604830980300903e-02" rms="2.6579317450523376e-01" purity="6.2391680479049683e-01" nType="0">
          <Node pos="l" depth="2" NCoef="0" IVar="-1" Cut="0.0000000000000000e+00" cType="1" res="-1.2196191586554050e-02" rms="0.0000000000000000e+00" purity="-5.7849977165460587e-03" nType="-99"/>
          <Node pos="r" depth="2" NCoef="0" IVar="-1" Cut="0.0000000000000000e+00" cType="1" res="1.4437191421166062e-03" rms="2.9540619254112244e-01" purity="7.8995895385742188e-01" nType="-99"/>
        </Node>
      </Node>
    </BinaryTree>
    <BinaryTree type="DecisionTree" boostWeight="1.0000000000000000e+00" itree="426">
      <Node pos="s" depth="0" NCoef="0" IVar="15" Cut="1.5196932554244995e+00" cType="1" res="3.2736979424953461e-02" rms="2.5828990340232849e-01" purity="4.8890635371208191e-01" nType="0">
        <Node pos="l" depth="1" NCoef="0" IVar="17" Cut="1.4447457790374756e+00" cType="1" res="5.1474805921316147e-02" rms="2.3913525044918060e-01" purity="4.9368652701377869e-01" nType="0">
          <Node pos="l" depth="2" NCoef="0" IVar="-1" Cut="0.0000000000000000e+00" cType="1" res="-2.3475720081478357e-03" rms="1.2875711917877197e-01" purity="2.7528807520866394e-02" nType="-99"/>
          <Node pos="r" depth="2" NCoef="0" IVar="-1" Cut="0.0000000000000000e+00" cType="1" res="1.3517028419300914e-03" rms="2.8008964657783508e-01" purity="8.0141866207122803e-01" nType="-99"/>
        </Node>
        <Node pos="r" depth="1" NCoef="0" IVar="48" Cut="1.4975707530975342e+00" cType="1" res="-1.0250944644212723e-01" rms="3.3861392736434937e-01" purity="4.5440354943275452e-01" nType="0">
          <Node pos="l" depth="2" NCoef="0" IVar="-1" Cut="0.0000000000000000e+00" cType="1" res="-7.0132911205291748e-03" rms="1.3819865882396698e-01" purity="6.7402392625808716e-02" nType="-99"/>
          <Node pos="r" depth="2" NCoef="0" IVar="-1" Cut="0.0000000000000000e+00" cType="1" res="-8.1563426647335291e-04" rms="3.6013817787170410e-01" purity="5.6565755605697632e-01" nType="-99"/>
        </Node>
      </Node>
    </BinaryTree>
    <BinaryTree type="DecisionTree" boostWeight="1.0000000000000000e+00" itree="427">
      <Node pos="s" depth="0" NCoef="0" IVar="36" Cut="1.3683462142944336e+00" cType="1" res="3.9593480527400970e-02" rms="2.7093818783760071e-01" purity="5.0470644235610962e-01" nType="0">
        <Node pos="l" depth="1" NCoef="0" IVar="3" Cut="4.9666576385498047e+00" cType="1" res="-3.6975163966417313e-02" rms="1.8829698860645294e-01" purity="8.4584467113018036e-02" nType="0">
          <Node pos="l" depth="2" NCoef="0" IVar="-1" Cut="0.0000000000000000e+00" cType="1" res="-7.1421964094042778e-03" rms="1.3236744701862335e-01" purity="2.9649903997778893e-02" nType="-99"/>
          <Node pos="r" depth="2" NCoef="0" IVar="-1" Cut="0.0000000000000000e+00" cType="1" res="1.5377440722659230e-03" rms="2.6533427834510803e-01" purity="2.2782880067825317e-01" nType="-99"/>
        </Node>
        <Node pos="r" depth="1" NCoef="0" IVar="5" Cut="4.3546667695045471e-01" cType="1" res="6.5261676907539368e-02" rms="2.8897383809089661e-01" purity="6.4554435014724731e-01" nType="0">
          <Node pos="l" depth="2" NCoef="0" IVar="-1" Cut="0.0000000000000000e+00" cType="1" res="1.6132934251800179e-03" rms="2.6477783918380737e-01" purity="7.5731611251831055e-01" nType="-99"/>
          <Node pos="r" depth="2" NCoef="0" IVar="-1" Cut="0.0000000000000000e+00" cType="1" res="-5.6061212671920657e-04" rms="3.3815693855285645e-01" purity="2.8387603163719177e-01" nType="-99"/>
        </Node>
      </Node>
    </BinaryTree>
    <BinaryTree type="DecisionTree" boostWeight="1.0000000000000000e+00" itree="428">
      <Node pos="s" depth="0" NCoef="0" IVar="48" Cut="9.5645338296890259e-01" cType="1" res="3.1398665159940720e-02" rms="2.5222137570381165e-01" purity="4.8802390694618225e-01" nType="0">
        <Node pos="l" depth="1" NCoef="0" IVar="48" Cut="8.2622849941253662e-01" cType="1" res="-3.8620324339717627e-03" rms="0.0000000000000000e+00" purity="4.6707905828952789e-02" nType="-99"/>
        <Node pos="r" depth="1" NCoef="0" IVar="36" Cut="1.3686834573745728e+00" cType="1" res="5.1183536648750305e-02" rms="2.6203933358192444e-01" purity="5.4025578498840332e-01" nType="0">
          <Node pos="l" depth="2" NCoef="0" IVar="-1" Cut="0.0000000000000000e+00" cType="1" res="-2.0213422831147909e-03" rms="1.8475924432277679e-01" purity="9.1648668050765991e-02" nType="-99"/>
          <Node pos="r" depth="2" NCoef="0" IVar="-1" Cut="0.0000000000000000e+00" cType="1" res="1.2797400122508407e-03" rms="2.7549579739570618e-01" purity="6.7259228229522705e-01" nType="-99"/>
        </Node>
      </Node>
    </BinaryTree>
    <BinaryTree type="DecisionTree" boostWeight="1.0000000000000000e+00" itree="429">
      <Node pos="s" depth="0" NCoef="0" IVar="17" Cut="1.5231137275695801e+00" cType="1" res="3.2346073538064957e-02" rms="2.5727230310440063e-01" purity="4.9247828125953674e-01" nType="0">
        <Node pos="l" depth="1" NCoef="0" IVar="5" Cut="2.8615799546241760e-01" cType="1" res="-5.0029265694320202e-03" rms="2.5328138470649719e-01" purity="2.6094055175781250e-01" nType="0">
          <Node pos="l" depth="2" NCoef="0" IVar="-1" Cut="0.0000000000000000e+00" cType="1" res="1.1034714989364147e-03" rms="2.6971274614334106e-01" purity="4.1434282064437866e-01" nType="-99"/>
          <Node pos="r" depth="2" NCoef="0" IVar="-1" Cut="0.0000000000000000e+00" cType="1" res="-1.2029155623167753e-03" rms="2.3163643479347229e-01" purity="1.3878419995307922e-01" nType="-99"/>
        </Node>
        <Node pos="r" depth="1" NCoef="0" IVar="2" Cut="1.7111746072769165e+00" cType="1" res="9.2933587729930878e-02" rms="2.5211241841316223e-01" purity="8.6807847023010254e-01" nType="0">
          <Node pos="l" depth="2" NCoef="0" IVar="-1" Cut="0.0000000000000000e+00" cType="1" res="-2.6300537865608931e-03" rms="3.7086111307144165e-01" purity="4.3218272924423218e-01" nType="-99"/>
          <Node pos="r" depth="2" NCoef="0" IVar="-1" Cut="0.0000000000000000e+00" cType="1" res="1.7334086587652564e-03" rms="2.3333819210529327e-01" purity="8.9869779348373413e-01" nType="-99"/>
        </Node>
      </Node>
    </BinaryTree>
    <BinaryTree type="DecisionTree" boostWeight="1.0000000000000000e+00" itree="430">
      <Node pos="s" depth="0" NCoef="0" IVar="36" Cut="1.3300192356109619e+00" cType="1" res="3.1811922788619995e-02" rms="2.6095363497734070e-01" purity="4.9001041054725647e-01" nType="0">
        <Node pos="l" depth="1" NCoef="0" IVar="65" Cut="1.2345679104328156e-02" cType="1" res="-5.8545429259538651e-02" rms="1.1359275877475739e-01" purity="4.7824278473854065e-02" nType="0">
          <Node pos="l" depth="2" NCoef="0" IVar="-1" Cut="0.0000000000000000e+00" cType="1" res="-1.5361397527158260e-02" rms="0.0000000000000000e+00" purity="-4.1875757277011871e-02" nType="-99"/>
          <Node pos="r" depth="2" NCoef="0" IVar="-1" Cut="0.0000000000000000e+00" cType="1" res="-1.0412214323878288e-03" rms="2.0379814505577087e-01" purity="1.0012513399124146e-01" nType="-99"/>
        </Node>
        <Node pos="r" depth="1" NCoef="0" IVar="2" Cut="1.3224982023239136e+00" cType="1" res="5.9969890862703323e-02" rms="2.8628575801849365e-01" purity="6.2780845165252686e-01" nType="0">
          <Node pos="l" depth="2" NCoef="0" IVar="-1" Cut="0.0000000000000000e+00" cType="1" res="-1.0115460492670536e-02" rms="1.1903204023838043e-01" purity="6.9353200495243073e-02" nType="-99"/>
          <Node pos="r" depth="2" NCoef="0" IVar="-1" Cut="0.0000000000000000e+00" cType="1" res="1.1883549159392715e-03" rms="2.8593701124191284e-01" purity="6.5423047542572021e-01" nType="-99"/>
        </Node>
      </Node>
    </BinaryTree>
    <BinaryTree type="DecisionTree" boostWeight="1.0000000000000000e+00" itree="431">
      <Node pos="s" depth="0" NCoef="0" IVar="2" Cut="2.3411214351654053e+00" cType="1" res="3.8900271058082581e-02" rms="2.5602015852928162e-01" purity="5.0728315114974976e-01" nType="0">
        <Node pos="l" depth="1" NCoef="0" IVar="3" Cut="4.7656679153442383e+00" cType="1" res="-2.1195324137806892e-02" rms="2.3148471117019653e-01" purity="2.9353281855583191e-01" nType="0">
          <Node pos="l" depth="2" NCoef="0" IVar="-1" Cut="0.0000000000000000e+00" cType="1" res="-3.4474702551960945e-03" rms="1.7739938199520111e-01" purity="1.5161557495594025e-01" nType="-99"/>
          <Node pos="r" depth="2" NCoef="0" IVar="-1" Cut="0.0000000000000000e+00" cType="1" res="7.9105643089860678e-04" rms="2.5861212611198425e-01" purity="4.2231801152229309e-01" nType="-99"/>
        </Node>
        <Node pos="r" depth="1" NCoef="0" IVar="17" Cut="1.0960069894790649e+00" cType="1" res="7.8848339617252350e-02" rms="2.6363015174865723e-01" purity="6.4937198162078857e-01" nType="0">
          <Node pos="l" depth="2" NCoef="0" IVar="-1" Cut="0.0000000000000000e+00" cType="1" res="-2.1859133616089821e-02" rms="0.0000000000000000e+00" purity="-1.4077625237405300e-02" nType="-99"/>
          <Node pos="r" depth="2" NCoef="0" IVar="-1" Cut="0.0000000000000000e+00" cType="1" res="1.4954719226807356e-03" rms="2.8805708885192871e-01" purity="7.8428649902343750e-01" nType="-99"/>
        </Node>
      </Node>
    </BinaryTree>
    <BinaryTree type="DecisionTree" boostWeight="1.0000000000000000e+00" itree="432">
      <Node pos="s" depth="0" NCoef="0" IVar="1" Cut="2.7311036586761475e+00" cType="1" res="3.6159627139568329e-02" rms="2.6271089911460876e-01" purity="5.0034075975418091e-01" nType="0">
        <Node pos="l" depth="1" NCoef="0" IVar="3" Cut="4.8087749481201172e+00" cType="1" res="-3.7581749260425568e-02" rms="2.2792343795299530e-01" purity="2.0609526336193085e-01" nType="0">
          <Node pos="l" depth="2" NCoef="0" IVar="-1" Cut="0.0000000000000000e+00" cType="1" res="-3.8060641381889582e-03" rms="1.5606211125850677e-01" purity="1.0044073313474655e-01" nType="-99"/>
          <Node pos="r" depth="2" NCoef="0" IVar="-1" Cut="0.0000000000000000e+00" cType="1" res="9.7196613205596805e-04" rms="2.8012105822563171e-01" purity="3.5271170735359192e-01" nType="-99"/>
        </Node>
        <Node pos="r" depth="1" NCoef="0" IVar="5" Cut="3.4484282135963440e-01" cType="1" res="6.5710440278053284e-02" rms="2.6982286572456360e-01" purity="6.1825549602508545e-01" nType="0">
          <Node pos="l" depth="2" NCoef="0" IVar="-1" Cut="0.0000000000000000e+00" cType="1" res="1.9764495082199574e-03" rms="2.2857432067394257e-01" purity="7.7617633342742920e-01" nType="-99"/>
          <Node pos="r" depth="2" NCoef="0" IVar="-1" Cut="0.0000000000000000e+00" cType="1" res="-4.6555709559470415e-05" rms="3.1953853368759155e-01" purity="3.3720079064369202e-01" nType="-99"/>
        </Node>
      </Node>
    </BinaryTree>
    <BinaryTree type="DecisionTree" boostWeight="1.0000000000000000e+00" itree="433">
      <Node pos="s" depth="0" NCoef="0" IVar="5" Cut="3.4026998281478882e-01" cType="1" res="3.8416810333728790e-02" rms="2.7007895708084106e-01" purity="4.9447295069694519e-01" nType="0">
        <Node pos="l" depth="1" NCoef="0" IVar="36" Cut="1.4456657171249390e+00" cType="1" res="7.0469669997692108e-02" rms="2.4606460332870483e-01" purity="6.3372808694839478e-01" nType="0">
          <Node pos="l" depth="2" NCoef="0" IVar="-1" Cut="0.0000000000000000e+00" cType="1" res="-1.0515003232285380e-03" rms="2.4474990367889404e-01" purity="1.7322880029678345e-01" nType="-99"/>
          <Node pos="r" depth="2" NCoef="0" IVar="-1" Cut="0.0000000000000000e+00" cType="1" res="1.8740154337137938e-03" rms="2.3546829819679260e-01" purity="8.2233285903930664e-01" nType="-99"/>
        </Node>
        <Node pos="r" depth="1" NCoef="0" IVar="34" Cut="-1.4540690183639526e+00" cType="1" res="-1.3427024707198143e-02" rms="2.9772666096687317e-01" purity="2.6923492550849915e-01" nType="0">
          <Node pos="l" depth="2" NCoef="0" IVar="-1" Cut="0.0000000000000000e+00" cType="1" res="2.7378702070564032e-03" rms="3.4870329499244690e-01" purity="4.1678941249847412e-01" nType="-99"/>
          <Node pos="r" depth="2" NCoef="0" IVar="-1" Cut="0.0000000000000000e+00" cType="1" res="-6.6718750167638063e-04" rms="2.8540670871734619e-01" purity="2.5041791796684265e-01" nType="-99"/>
        </Node>
      </Node>
    </BinaryTree>
    <BinaryTree type="DecisionTree" boostWeight="1.0000000000000000e+00" itree="434">
      <Node pos="s" depth="0" NCoef="0" IVar="36" Cut="1.4073475599288940e+00" cType="1" res="4.5751374214887619e-02" rms="2.6229897141456604e-01" purity="5.1290965080261230e-01" nType="0">
        <Node pos="l" depth="1" NCoef="0" IVar="3" Cut="4.9668607711791992e+00" cType="1" res="-3.2210532575845718e-02" rms="1.9274923205375671e-01" purity="1.0864862799644470e-01" nType="0">
          <Node pos="l" depth="2" NCoef="0" IVar="-1" Cut="0.0000000000000000e+00" cType="1" res="-4.2575811967253685e-03" rms="1.5582381188869476e-01" purity="6.2941297888755798e-02" nType="-99"/>
          <Node pos="r" depth="2" NCoef="0" IVar="-1" Cut="0.0000000000000000e+00" cType="1" res="1.2750431196764112e-03" rms="2.5355154275894165e-01" purity="2.3612482845783234e-01" nType="-99"/>
        </Node>
        <Node pos="r" depth="1" NCoef="0" IVar="5" Cut="4.3762049078941345e-01" cType="1" res="7.4440389871597290e-02" rms="2.7818569540977478e-01" purity="6.6167271137237549e-01" nType="0">
          <Node pos="l" depth="2" NCoef="0" IVar="-1" Cut="0.0000000000000000e+00" cType="1" res="1.6725718742236495e-03" rms="2.5130024552345276e-01" purity="7.7220320701599121e-01" nType="-99"/>
          <Node pos="r" depth="2" NCoef="0" IVar="-1" Cut="0.0000000000000000e+00" cType="1" res="-2.6775323203764856e-04" rms="3.3924743533134460e-01" purity="2.8854835033416748e-01" nType="-99"/>
        </Node>
      </Node>
    </BinaryTree>
    <BinaryTree type="DecisionTree" boostWeight="1.0000000000000000e+00" itree="435">
      <Node pos="s" depth="0" NCoef="0" IVar="2" Cut="2.5005257129669189e+00" cType="1" res="3.9143417030572891e-02" rms="2.5905045866966248e-01" purity="4.9999484419822693e-01" nType="0">
        <Node pos="l" depth="1" NCoef="0" IVar="52" Cut="2.4648420810699463e+00" cType="1" res="-8.3447555080056190e-03" rms="2.4289472401142120e-01" purity="3.3055526018142700e-01" nType="0">
          <Node pos="l" depth="2" NCoef="0" IVar="-1" Cut="0.0000000000000000e+00" cType="1" res="-4.4741528108716011e-03" rms="0.0000000000000000e+00" purity="3.5924531519412994e-02" nType="-99"/>
          <Node pos="r" depth="2" NCoef="0" IVar="-1" Cut="0.0000000000000000e+00" cType="1" res="3.6077716504223645e-04" rms="2.5694164633750916e-01" purity="3.8250279426574707e-01" nType="-99"/>
        </Node>
        <Node pos="r" depth="1" NCoef="0" IVar="17" Cut="1.0958409309387207e+00" cType="1" res="8.5954464972019196e-02" rms="2.6586943864822388e-01" purity="6.6701841354370117e-01" nType="0">
          <Node pos="l" depth="2" NCoef="0" IVar="-1" Cut="0.0000000000000000e+00" cType="1" res="-1.5520445071160793e-02" rms="0.0000000000000000e+00" purity="-8.0201536184176803e-04" nType="-99"/>
          <Node pos="r" depth="2" NCoef="0" IVar="-1" Cut="0.0000000000000000e+00" cType="1" res="1.5489951474592090e-03" rms="2.8546100854873657e-01" purity="7.9526948928833008e-01" nType="-99"/>
        </Node>
      </Node>
    </BinaryTree>
    <BinaryTree type="DecisionTree" boostWeight="1.0000000000000000e+00" itree="436">
      <Node pos="s" depth="0" NCoef="0" IVar="1" Cut="2.7707190513610840e+00" cType="1" res="3.3296607434749603e-02" rms="2.5013384222984314e-01" purity="5.0319796800613403e-01" nType="0">
        <Node pos="l" depth="1" NCoef="0" IVar="15" Cut="1.5196299552917480e+00" cType="1" res="-3.8693390786647797e-02" rms="2.1224920451641083e-01" purity="2.1884705126285553e-01" nType="0">
          <Node pos="l" depth="2" NCoef="0" IVar="-1" Cut="0.0000000000000000e+00" cType="1" res="-5.2935990970581770e-04" rms="1.9661763310432434e-01" purity="2.3188073933124542e-01" nType="-99"/>
          <Node pos="r" depth="2" NCoef="0" IVar="-1" Cut="0.0000000000000000e+00" cType="1" res="-5.2704350091516972e-03" rms="2.5785809755325317e-01" purity="1.1608344316482544e-01" nType="-99"/>
        </Node>
        <Node pos="r" depth="1" NCoef="0" IVar="5" Cut="3.9488184452056885e-01" cType="1" res="6.5349988639354706e-02" rms="2.5890439748764038e-01" purity="6.2980461120605469e-01" nType="0">
          <Node pos="l" depth="2" NCoef="0" IVar="-1" Cut="0.0000000000000000e+00" cType="1" res="1.8314239569008350e-03" rms="2.2522251307964325e-01" purity="7.5595611333847046e-01" nType="-99"/>
          <Node pos="r" depth="2" NCoef="0" IVar="-1" Cut="0.0000000000000000e+00" cType="1" res="-4.1430041892454028e-04" rms="3.1521812081336975e-01" purity="2.9591232538223267e-01" nType="-99"/>
        </Node>
      </Node>
    </BinaryTree>
    <BinaryTree type="DecisionTree" boostWeight="1.0000000000000000e+00" itree="437">
      <Node pos="s" depth="0" NCoef="0" IVar="15" Cut="1.5225218534469604e+00" cType="1" res="4.9434304237365723e-02" rms="2.6791116595268250e-01" purity="5.1315104961395264e-01" nType="0">
        <Node pos="l" depth="1" NCoef="0" IVar="17" Cut="1.4457910060882568e+00" cType="1" res="6.5875701606273651e-02" rms="2.5202244520187378e-01" purity="5.2050578594207764e-01" nType="0">
          <Node pos="l" depth="2" NCoef="0" IVar="-1" Cut="0.0000000000000000e+00" cType="1" res="6.0724916693288833e-05" rms="1.8386334180831909e-01" purity="5.1417905837297440e-02" nType="-99"/>
          <Node pos="r" depth="2" NCoef="0" IVar="-1" Cut="0.0000000000000000e+00" cType="1" res="1.4783142833039165e-03" rms="2.7878341078758240e-01" purity="8.1290984153747559e-01" nType="-99"/>
        </Node>
        <Node pos="r" depth="1" NCoef="0" IVar="15" Cut="1.5411428213119507e+00" cType="1" res="-8.6470223963260651e-02" rms="3.4548220038414001e-01" purity="4.5235636830329895e-01" nType="0">
          <Node pos="l" depth="2" NCoef="0" IVar="-1" Cut="0.0000000000000000e+00" cType="1" res="-5.2146206144243479e-04" rms="3.3250826597213745e-01" purity="5.3924655914306641e-01" nType="-99"/>
          <Node pos="r" depth="2" NCoef="0" IVar="-1" Cut="0.0000000000000000e+00" cType="1" res="-1.3929992914199829e-02" rms="3.1971964240074158e-01" purity="1.1458645761013031e-01" nType="-99"/>
        </Node>
      </Node>
    </BinaryTree>
    <BinaryTree type="DecisionTree" boostWeight="1.0000000000000000e+00" itree="438">
      <Node pos="s" depth="0" NCoef="0" IVar="2" Cut="2.5532896518707275e+00" cType="1" res="3.9945796132087708e-02" rms="2.6465269923210144e-01" purity="5.0021684169769287e-01" nType="0">
        <Node pos="l" depth="1" NCoef="0" IVar="15" Cut="1.5203990936279297e+00" cType="1" res="-2.1193732973188162e-03" rms="2.5192782282829285e-01" purity="3.4836933016777039e-01" nType="0">
          <Node pos="l" depth="2" NCoef="0" IVar="-1" Cut="0.0000000000000000e+00" cType="1" res="5.3606409346684813e-04" rms="2.3461884260177612e-01" purity="3.6619484424591064e-01" nType="-99"/>
          <Node pos="r" depth="2" NCoef="0" IVar="-1" Cut="0.0000000000000000e+00" cType="1" res="-4.7474945895373821e-03" rms="3.0418503284454346e-01" purity="2.1035379171371460e-01" nType="-99"/>
        </Node>
        <Node pos="r" depth="1" NCoef="0" IVar="17" Cut="1.1732766628265381e+00" cType="1" res="8.7026551365852356e-02" rms="2.7055716514587402e-01" purity="6.7016983032226562e-01" nType="0">
          <Node pos="l" depth="2" NCoef="0" IVar="-1" Cut="0.0000000000000000e+00" cType="1" res="-9.4602657482028008e-03" rms="7.4152208864688873e-02" purity="7.1643940173089504e-03" nType="-99"/>
          <Node pos="r" depth="2" NCoef="0" IVar="-1" Cut="0.0000000000000000e+00" cType="1" res="1.5540774911642075e-03" rms="2.8978991508483887e-01" purity="8.0325454473495483e-01" nType="-99"/>
        </Node>
      </Node>
    </BinaryTree>
    <BinaryTree type="DecisionTree" boostWeight="1.0000000000000000e+00" itree="439">
      <Node pos="s" depth="0" NCoef="0" IVar="5" Cut="4.3599802255630493e-01" cType="1" res="4.2741745710372925e-02" rms="2.6124683022499084e-01" purity="5.1141524314880371e-01" nType="0">
        <Node pos="l" depth="1" NCoef="0" IVar="36" Cut="1.3290741443634033e+00" cType="1" res="6.8102478981018066e-02" rms="2.4801415205001831e-01" purity="6.1545473337173462e-01" nType="0">
          <Node pos="l" depth="2" NCoef="0" IVar="-1" Cut="0.0000000000000000e+00" cType="1" res="-3.1804833561182022e-03" rms="1.3649170100688934e-01" purity="6.5147481858730316e-02" nType="-99"/>
          <Node pos="r" depth="2" NCoef="0" IVar="-1" Cut="0.0000000000000000e+00" cType="1" res="1.6762750456109643e-03" rms="2.6087608933448792e-01" purity="7.5684940814971924e-01" nType="-99"/>
        </Node>
        <Node pos="r" depth="1" NCoef="0" IVar="34" Cut="-1.4540965557098389e+00" cType="1" res="-3.2757502049207687e-02" rms="2.8407186269760132e-01" purity="2.0168812572956085e-01" nType="0">
          <Node pos="l" depth="2" NCoef="0" IVar="-1" Cut="0.0000000000000000e+00" cType="1" res="2.8061494231224060e-03" rms="3.4403565526008606e-01" purity="4.4828864932060242e-01" nType="-99"/>
          <Node pos="r" depth="2" NCoef="0" IVar="-1" Cut="0.0000000000000000e+00" cType="1" res="-1.3368142535910010e-03" rms="2.6651182770729065e-01" purity="1.6995222866535187e-01" nType="-99"/>
        </Node>
      </Node>
    </BinaryTree>
    <BinaryTree type="DecisionTree" boostWeight="1.0000000000000000e+00" itree="440">
      <Node pos="s" depth="0" NCoef="0" IVar="2" Cut="1.9466699361801147e+00" cType="1" res="4.3719049543142319e-02" rms="2.6348045468330383e-01" purity="5.0949907302856445e-01" nType="0">
        <Node pos="l" depth="1" NCoef="0" IVar="3" Cut="4.7444806098937988e+00" cType="1" res="-3.5235155373811722e-02" rms="2.2769024968147278e-01" purity="2.1282543241977692e-01" nType="0">
          <Node pos="l" depth="2" NCoef="0" IVar="-1" Cut="0.0000000000000000e+00" cType="1" res="-6.6398628987371922e-03" rms="1.6453734040260315e-01" purity="7.9568289220333099e-02" nType="-99"/>
          <Node pos="r" depth="2" NCoef="0" IVar="-1" Cut="0.0000000000000000e+00" cType="1" res="1.4037686923984438e-04" rms="2.5106418132781982e-01" purity="2.9603874683380127e-01" nType="-99"/>
        </Node>
        <Node pos="r" depth="1" NCoef="0" IVar="3" Cut="4.9530544281005859e+00" cType="1" res="6.7243434488773346e-02" rms="2.6879152655601501e-01" purity="5.9789288043975830e-01" nType="0">
          <Node pos="l" depth="2" NCoef="0" IVar="-1" Cut="0.0000000000000000e+00" cType="1" res="8.6681492393836379e-04" rms="2.6507142186164856e-01" purity="5.6191045045852661e-01" nType="-99"/>
          <Node pos="r" depth="2" NCoef="0" IVar="-1" Cut="0.0000000000000000e+00" cType="1" res="2.8292057104408741e-03" rms="2.6320737600326538e-01" purity="7.6197040081024170e-01" nType="-99"/>
        </Node>
      </Node>
    </BinaryTree>
    <BinaryTree type="DecisionTree" boostWeight="1.0000000000000000e+00" itree="441">
      <Node pos="s" depth="0" NCoef="0" IVar="48" Cut="1.2378869056701660e+00" cType="1" res="3.2952442765235901e-02" rms="2.5996485352516174e-01" purity="4.9330088496208191e-01" nType="0">
        <Node pos="l" depth="1" NCoef="0" IVar="0" Cut="6.3472384214401245e-01" cType="1" res="-7.4149399995803833e-02" rms="1.9779366254806519e-01" purity="1.5649358928203583e-01" nType="0">
          <Node pos="l" depth="2" NCoef="0" IVar="-1" Cut="0.0000000000000000e+00" cType="1" res="-4.4027059630025178e-05" rms="2.6538276672363281e-01" purity="2.9954957962036133e-01" nType="-99"/>
          <Node pos="r" depth="2" NCoef="0" IVar="-1" Cut="0.0000000000000000e+00" cType="1" res="-4.0757362730801105e-03" rms="0.0000000000000000e+00" purity="2.0864699035882950e-02" nType="-99"/>
        </Node>
        <Node pos="r" depth="1" NCoef="0" IVar="5" Cut="3.0305361747741699e-01" cType="1" res="5.6099548935890198e-02" rms="2.6592770218849182e-01" purity="5.6609249114990234e-01" nType="0">
          <Node pos="l" depth="2" NCoef="0" IVar="-1" Cut="0.0000000000000000e+00" cType="1" res="2.0529269240796566e-03" rms="2.1929073333740234e-01" purity="7.7127337455749512e-01" nType="-99"/>
          <Node pos="r" depth="2" NCoef="0" IVar="-1" Cut="0.0000000000000000e+00" cType="1" res="3.4029271773761138e-05" rms="3.0476066470146179e-01" purity="3.1628710031509399e-01" nType="-99"/>
        </Node>
      </Node>
    </BinaryTree>
    <BinaryTree type="DecisionTree" boostWeight="1.0000000000000000e+00" itree="442">
      <Node pos="s" depth="0" NCoef="0" IVar="5" Cut="3.5632619261741638e-01" cType="1" res="2.6307245716452599e-02" rms="2.5053009390830994e-01" purity="4.8876839876174927e-01" nType="0">
        <Node pos="l" depth="1" NCoef="0" IVar="36" Cut="9.8090893030166626e-01" cType="1" res="6.6776081919670105e-02" rms="2.3759998381137848e-01" purity="6.2744385004043579e-01" nType="0">
          <Node pos="l" depth="2" NCoef="0" IVar="-1" Cut="0.0000000000000000e+00" cType="1" res="-1.0163023136556149e-02" rms="0.0000000000000000e+00" purity="-4.4373632408678532e-03" nType="-99"/>
          <Node pos="r" depth="2" NCoef="0" IVar="-1" Cut="0.0000000000000000e+00" cType="1" res="1.7178489360958338e-03" rms="2.5439620018005371e-01" purity="7.4576365947723389e-01" nType="-99"/>
        </Node>
        <Node pos="r" depth="1" NCoef="0" IVar="38" Cut="-1.2998229265213013e+00" cType="1" res="-5.1950357854366302e-02" rms="2.5627961754798889e-01" purity="2.2060140967369080e-01" nType="0">
          <Node pos="l" depth="2" NCoef="0" IVar="-1" Cut="0.0000000000000000e+00" cType="1" res="1.5319252852350473e-03" rms="3.0665668845176697e-01" purity="3.3098658919334412e-01" nType="-99"/>
          <Node pos="r" depth="2" NCoef="0" IVar="-1" Cut="0.0000000000000000e+00" cType="1" res="-1.8563657067716122e-03" rms="2.2462092339992523e-01" purity="1.8457938730716705e-01" nType="-99"/>
        </Node>
      </Node>
    </BinaryTree>
    <BinaryTree type="DecisionTree" boostWeight="1.0000000000000000e+00" itree="443">
      <Node pos="s" depth="0" NCoef="0" IVar="5" Cut="3.5835742950439453e-01" cType="1" res="3.8149304687976837e-02" rms="2.6143899559974670e-01" purity="5.0331336259841919e-01" nType="0">
        <Node pos="l" depth="1" NCoef="0" IVar="36" Cut="8.2694733142852783e-01" cType="1" res="7.1671627461910248e-02" rms="2.3816511034965515e-01" purity="6.3871693611145020e-01" nType="0">
          <Node pos="l" depth="2" NCoef="0" IVar="-1" Cut="0.0000000000000000e+00" cType="1" res="-9.4610834494233131e-03" rms="0.0000000000000000e+00" purity="5.0973002798855305e-03" nType="-99"/>
          <Node pos="r" depth="2" NCoef="0" IVar="-1" Cut="0.0000000000000000e+00" cType="1" res="1.7319690668955445e-03" rms="2.5058761239051819e-01" purity="7.4971169233322144e-01" nType="-99"/>
        </Node>
        <Node pos="r" depth="1" NCoef="0" IVar="15" Cut="1.5225218534469604e+00" cType="1" res="-2.5049993768334389e-02" rms="2.9010209441184998e-01" purity="2.4803839623928070e-01" nType="0">
          <Node pos="l" depth="2" NCoef="0" IVar="-1" Cut="0.0000000000000000e+00" cType="1" res="-1.0408927482785657e-04" rms="2.6263234019279480e-01" purity="2.2854700684547424e-01" nType="-99"/>
          <Node pos="r" depth="2" NCoef="0" IVar="-1" Cut="0.0000000000000000e+00" cType="1" res="-2.4806594010442495e-03" rms="4.0888178348541260e-01" purity="3.8550961017608643e-01" nType="-99"/>
        </Node>
      </Node>
    </BinaryTree>
    <BinaryTree type="DecisionTree" boostWeight="1.0000000000000000e+00" itree="444">
      <Node pos="s" depth="0" NCoef="0" IVar="3" Cut="5.2173886299133301e+00" cType="1" res="3.3400695770978928e-02" rms="2.6431626081466675e-01" purity="4.8970064520835876e-01" nType="0">
        <Node pos="l" depth="1" NCoef="0" IVar="1" Cut="3.1549184322357178e+00" cType="1" res="2.0575892180204391e-02" rms="2.5520810484886169e-01" purity="4.8681366443634033e-01" nType="0">
          <Node pos="l" depth="2" NCoef="0" IVar="-1" Cut="0.0000000000000000e+00" cType="1" res="-8.2176434807479382e-04" rms="2.3203153908252716e-01" purity="3.1001231074333191e-01" nType="-99"/>
          <Node pos="r" depth="2" NCoef="0" IVar="-1" Cut="0.0000000000000000e+00" cType="1" res="1.3515359023585916e-03" rms="2.6629522442817688e-01" purity="6.6622239351272583e-01" nType="-99"/>
        </Node>
        <Node pos="r" depth="1" NCoef="0" IVar="17" Cut="1.0568513870239258e+00" cType="1" res="2.0481321215629578e-01" rms="3.1863436102867126e-01" purity="5.2828758955001831e-01" nType="0">
          <Node pos="l" depth="2" NCoef="0" IVar="-1" Cut="0.0000000000000000e+00" cType="1" res="-7.8367190435528755e-03" rms="0.0000000000000000e+00" purity="-1.7384495586156845e-02" nType="-99"/>
          <Node pos="r" depth="2" NCoef="0" IVar="-1" Cut="0.0000000000000000e+00" cType="1" res="4.3761488050222397e-03" rms="3.3511349558830261e-01" purity="8.1658726930618286e-01" nType="-99"/>
        </Node>
      </Node>
    </BinaryTree>
    <BinaryTree type="DecisionTree" boostWeight="1.0000000000000000e+00" itree="445">
      <Node pos="s" depth="0" NCoef="0" IVar="1" Cut="2.7724385261535645e+00" cType="1" res="3.4481521695852280e-02" rms="2.5759774446487427e-01" purity="5.0609833002090454e-01" nType="0">
        <Node pos="l" depth="1" NCoef="0" IVar="3" Cut="4.8121504783630371e+00" cType="1" res="-3.6543074995279312e-02" rms="2.2962152957916260e-01" purity="2.1911147236824036e-01" nType="0">
          <Node pos="l" depth="2" NCoef="0" IVar="-1" Cut="0.0000000000000000e+00" cType="1" res="-3.1857183203101158e-03" rms="1.7754305899143219e-01" purity="1.2817004323005676e-01" nType="-99"/>
          <Node pos="r" depth="2" NCoef="0" IVar="-1" Cut="0.0000000000000000e+00" cType="1" res="7.4414897244423628e-04" rms="2.7496755123138428e-01" purity="3.5471159219741821e-01" nType="-99"/>
        </Node>
        <Node pos="r" depth="1" NCoef="0" IVar="5" Cut="3.4120529890060425e-01" cType="1" res="6.5194942057132721e-02" rms="2.6291859149932861e-01" purity="6.3020104169845581e-01" nType="0">
          <Node pos="l" depth="2" NCoef="0" IVar="-1" Cut="0.0000000000000000e+00" cType="1" res="2.0241690799593925e-03" rms="2.2277590632438660e-01" purity="7.9054397344589233e-01" nType="-99"/>
          <Node pos="r" depth="2" NCoef="0" IVar="-1" Cut="0.0000000000000000e+00" cType="1" res="-8.2253645814489573e-05" rms="3.1252822279930115e-01" purity="3.3363598585128784e-01" nType="-99"/>
        </Node>
      </Node>
    </BinaryTree>
    <BinaryTree type="DecisionTree" boostWeight="1.0000000000000000e+00" itree="446">
      <Node pos="s" depth="0" NCoef="0" IVar="3" Cut="4.9577097892761230e+00" cType="1" res="4.0722861886024475e-02" rms="2.5982293486595154e-01" purity="5.0331258773803711e-01" nType="0">
        <Node pos="l" depth="1" NCoef="0" IVar="17" Cut="1.5213149785995483e+00" cType="1" res="1.5118912793695927e-02" rms="2.4871468544006348e-01" purity="4.7231501340866089e-01" nType="0">
          <Node pos="l" depth="2" NCoef="0" IVar="-1" Cut="0.0000000000000000e+00" cType="1" res="-7.5926329009234905e-04" rms="2.3156580328941345e-01" purity="2.1240146458148956e-01" nType="-99"/>
          <Node pos="r" depth="2" NCoef="0" IVar="-1" Cut="0.0000000000000000e+00" cType="1" res="1.2374561047181487e-03" rms="2.5987702608108521e-01" purity="8.5074675083160400e-01" nType="-99"/>
        </Node>
        <Node pos="r" depth="1" NCoef="0" IVar="17" Cut="-4.8785352706909180e-01" cType="1" res="1.2698061764240265e-01" rms="2.7729040384292603e-01" purity="6.0774123668670654e-01" nType="0">
          <Node pos="l" depth="2" NCoef="0" IVar="-1" Cut="0.0000000000000000e+00" cType="1" res="-2.6912406086921692e-02" rms="0.0000000000000000e+00" purity="-4.3098099529743195e-02" nType="-99"/>
          <Node pos="r" depth="2" NCoef="0" IVar="-1" Cut="0.0000000000000000e+00" cType="1" res="2.7653700672090054e-03" rms="3.0671036243438721e-01" purity="7.6934522390365601e-01" nType="-99"/>
        </Node>
      </Node>
    </BinaryTree>
    <BinaryTree type="DecisionTree" boostWeight="1.0000000000000000e+00" itree="447">
      <Node pos="s" depth="0" NCoef="0" IVar="52" Cut="2.4094059467315674e+00" cType="1" res="4.1603930294513702e-02" rms="2.6559400558471680e-01" purity="5.0627952814102173e-01" nType="0">
        <Node pos="l" depth="1" NCoef="0" IVar="48" Cut="1.2947815656661987e+00" cType="1" res="-9.3738146126270294e-02" rms="1.6972923278808594e-01" purity="1.6890889406204224e-01" nType="0">
          <Node pos="l" depth="2" NCoef="0" IVar="-1" Cut="0.0000000000000000e+00" cType="1" res="-5.0455746240913868e-03" rms="7.5593844056129456e-02" purity="-5.4750065319240093e-03" nType="-99"/>
          <Node pos="r" depth="2" NCoef="0" IVar="-1" Cut="0.0000000000000000e+00" cType="1" res="7.2086928412318230e-04" rms="2.2724622488021851e-01" purity="5.3673732280731201e-01" nType="-99"/>
        </Node>
        <Node pos="r" depth="1" NCoef="0" IVar="14" Cut="-1.2993521690368652e+00" cType="1" res="5.5643834173679352e-02" rms="2.6976287364959717e-01" purity="5.4127717018127441e-01" nType="0">
          <Node pos="l" depth="2" NCoef="0" IVar="-1" Cut="0.0000000000000000e+00" cType="1" res="-3.5559613024815917e-04" rms="2.4220965802669525e-01" purity="2.9497343301773071e-01" nType="-99"/>
          <Node pos="r" depth="2" NCoef="0" IVar="-1" Cut="0.0000000000000000e+00" cType="1" res="1.5435599489137530e-03" rms="2.7513509988784790e-01" purity="6.3781726360321045e-01" nType="-99"/>
        </Node>
      </Node>
    </BinaryTree>
    <BinaryTree type="DecisionTree" boostWeight="1.0000000000000000e+00" itree="448">
      <Node pos="s" depth="0" NCoef="0" IVar="17" Cut="1.5208106040954590e+00" cType="1" res="3.3689308911561966e-02" rms="2.6223906874656677e-01" purity="4.9258479475975037e-01" nType="0">
        <Node pos="l" depth="1" NCoef="0" IVar="15" Cut="1.5209717750549316e+00" cType="1" res="-3.0702962540090084e-03" rms="2.6174920797348022e-01" purity="2.3722644150257111e-01" nType="0">
          <Node pos="l" depth="2" NCoef="0" IVar="-1" Cut="0.0000000000000000e+00" cType="1" res="2.3251993115991354e-04" rms="2.5889337062835693e-01" purity="2.4946694076061249e-01" nType="-99"/>
          <Node pos="r" depth="2" NCoef="0" IVar="-1" Cut="0.0000000000000000e+00" cType="1" res="-1.2581320479512215e-02" rms="2.0864720642566681e-01" purity="7.9837013036012650e-03" nType="-99"/>
        </Node>
        <Node pos="r" depth="1" NCoef="0" IVar="15" Cut="1.5230776071548462e+00" cType="1" res="8.7521046400070190e-02" rms="2.5351238250732422e-01" purity="8.6653834581375122e-01" nType="0">
          <Node pos="l" depth="2" NCoef="0" IVar="-1" Cut="0.0000000000000000e+00" cType="1" res="1.9961404614150524e-03" rms="2.0290625095367432e-01" purity="9.2566817998886108e-01" nType="-99"/>
          <Node pos="r" depth="2" NCoef="0" IVar="-1" Cut="0.0000000000000000e+00" cType="1" res="-5.5826466996222734e-04" rms="3.7582096457481384e-01" purity="6.1782908439636230e-01" nType="-99"/>
        </Node>
      </Node>
    </BinaryTree>
    <BinaryTree type="DecisionTree" boostWeight="1.0000000000000000e+00" itree="449">
      <Node pos="s" depth="0" NCoef="0" IVar="2" Cut="1.9091901779174805e+00" cType="1" res="3.3450942486524582e-02" rms="2.5460961461067200e-01" purity="4.9939247965812683e-01" nType="0">
        <Node pos="l" depth="1" NCoef="0" IVar="15" Cut="1.4413980245590210e+00" cType="1" res="-4.9875166267156601e-02" rms="2.0803040266036987e-01" purity="1.8095192313194275e-01" nType="0">
          <Node pos="l" depth="2" NCoef="0" IVar="-1" Cut="0.0000000000000000e+00" cType="1" res="-4.6887248754501343e-04" rms="1.7879997193813324e-01" purity="1.6978897154331207e-01" nType="-99"/>
          <Node pos="r" depth="2" NCoef="0" IVar="-1" Cut="0.0000000000000000e+00" cType="1" res="-4.4267280027270317e-03" rms="2.4019829928874969e-01" purity="2.0640170574188232e-01" nType="-99"/>
        </Node>
        <Node pos="r" depth="1" NCoef="0" IVar="5" Cut="4.3383288383483887e-01" cType="1" res="5.5948097258806229e-02" rms="2.6127272844314575e-01" purity="5.8536803722381592e-01" nType="0">
          <Node pos="l" depth="2" NCoef="0" IVar="-1" Cut="0.0000000000000000e+00" cType="1" res="1.6174699412658811e-03" rms="2.4825750291347504e-01" purity="7.0131611824035645e-01" nType="-99"/>
          <Node pos="r" depth="2" NCoef="0" IVar="-1" Cut="0.0000000000000000e+00" cType="1" res="-7.2068901499733329e-04" rms="2.7660870552062988e-01" purity="2.3479202389717102e-01" nType="-99"/>
        </Node>
      </Node>
    </BinaryTree>
    <BinaryTree type="DecisionTree" boostWeight="1.0000000000000000e+00" itree="450">
      <Node pos="s" depth="0" NCoef="0" IVar="5" Cut="3.3992400765419006e-01" cType="1" res="3.2963443547487259e-02" rms="2.5873526930809021e-01" purity="4.9352750182151794e-01" nType="0">
        <Node pos="l" depth="1" NCoef="0" IVar="48" Cut="1.5904436111450195e+00" cType="1" res="6.7438215017318726e-02" rms="2.3575426638126373e-01" purity="6.3889378309249878e-01" nType="0">
          <Node pos="l" depth="2" NCoef="0" IVar="-1" Cut="0.0000000000000000e+00" cType="1" res="-7.7790889190509915e-04" rms="2.5368475914001465e-01" purity="3.0656456947326660e-01" nType="-99"/>
          <Node pos="r" depth="2" NCoef="0" IVar="-1" Cut="0.0000000000000000e+00" cType="1" res="2.1363568957895041e-03" rms="2.1574391424655914e-01" purity="7.7132683992385864e-01" nType="-99"/>
        </Node>
        <Node pos="r" depth="1" NCoef="0" IVar="15" Cut="1.5219346284866333e+00" cType="1" res="-2.1117499098181725e-02" rms="2.8280982375144958e-01" purity="2.6548975706100464e-01" nType="0">
          <Node pos="l" depth="2" NCoef="0" IVar="-1" Cut="0.0000000000000000e+00" cType="1" res="-4.9816011596703902e-05" rms="2.5437888503074646e-01" purity="2.4580559134483337e-01" nType="-99"/>
          <Node pos="r" depth="2" NCoef="0" IVar="-1" Cut="0.0000000000000000e+00" cType="1" res="-2.1029592026025057e-03" rms="4.0387177467346191e-01" purity="3.9602032303810120e-01" nType="-99"/>
        </Node>
      </Node>
    </BinaryTree>
    <BinaryTree type="DecisionTree" boostWeight="1.0000000000000000e+00" itree="451">
      <Node pos="s" depth="0" NCoef="0" IVar="2" Cut="2.0230686664581299e+00" cType="1" res="3.8425784558057785e-02" rms="2.6343023777008057e-01" purity="5.0069284439086914e-01" nType="0">
        <Node pos="l" depth="1" NCoef="0" IVar="3" Cut="4.7531938552856445e+00" cType="1" res="-4.8062782734632492e-02" rms="2.2558654844760895e-01" purity="2.0823532342910767e-01" nType="0">
          <Node pos="l" depth="2" NCoef="0" IVar="-1" Cut="0.0000000000000000e+00" cType="1" res="-8.8150631636381149e-03" rms="1.4273928105831146e-01" purity="5.6714132428169250e-02" nType="-99"/>
          <Node pos="r" depth="2" NCoef="0" IVar="-1" Cut="0.0000000000000000e+00" cType="1" res="1.5026268374640495e-04" rms="2.5346818566322327e-01" purity="3.1026545166969299e-01" nType="-99"/>
        </Node>
        <Node pos="r" depth="1" NCoef="0" IVar="14" Cut="-1.3378707170486450e+00" cType="1" res="6.8227596580982208e-02" rms="2.6889890432357788e-01" purity="6.0146641731262207e-01" nType="0">
          <Node pos="l" depth="2" NCoef="0" IVar="-1" Cut="0.0000000000000000e+00" cType="1" res="-2.0883153774775565e-04" rms="2.4370653927326202e-01" purity="2.7246877551078796e-01" nType="-99"/>
          <Node pos="r" depth="2" NCoef="0" IVar="-1" Cut="0.0000000000000000e+00" cType="1" res="1.5962990000844002e-03" rms="2.7217712998390198e-01" purity="7.1890538930892944e-01" nType="-99"/>
        </Node>
      </Node>
    </BinaryTree>
    <BinaryTree type="DecisionTree" boostWeight="1.0000000000000000e+00" itree="452">
      <Node pos="s" depth="0" NCoef="0" IVar="5" Cut="4.3533283472061157e-01" cType="1" res="3.2776828855276108e-02" rms="2.5981616973876953e-01" purity="4.9604344367980957e-01" nType="0">
        <Node pos="l" depth="1" NCoef="0" IVar="36" Cut="9.4291883707046509e-01" cType="1" res="5.9921339154243469e-02" rms="2.5553023815155029e-01" purity="6.0065001249313354e-01" nType="0">
          <Node pos="l" depth="2" NCoef="0" IVar="-1" Cut="0.0000000000000000e+00" cType="1" res="-7.6219979673624039e-03" rms="6.3368096947669983e-02" purity="1.1319370009005070e-02" nType="-99"/>
          <Node pos="r" depth="2" NCoef="0" IVar="-1" Cut="0.0000000000000000e+00" cType="1" res="1.4844506513327360e-03" rms="2.7106842398643494e-01" purity="7.1137231588363647e-01" nType="-99"/>
        </Node>
        <Node pos="r" depth="1" NCoef="0" IVar="2" Cut="2.3881614208221436e+00" cType="1" res="-4.6062026172876358e-02" rms="2.5605452060699463e-01" purity="1.9222253561019897e-01" nType="0">
          <Node pos="l" depth="2" NCoef="0" IVar="-1" Cut="0.0000000000000000e+00" cType="1" res="-4.9662287347018719e-03" rms="1.4006109535694122e-01" purity="2.8035558760166168e-02" nType="-99"/>
          <Node pos="r" depth="2" NCoef="0" IVar="-1" Cut="0.0000000000000000e+00" cType="1" res="4.8601250455249101e-05" rms="3.0856731534004211e-01" purity="3.1787726283073425e-01" nType="-99"/>
        </Node>
      </Node>
    </BinaryTree>
    <BinaryTree type="DecisionTree" boostWeight="1.0000000000000000e+00" itree="453">
      <Node pos="s" depth="0" NCoef="0" IVar="2" Cut="2.0507423877716064e+00" cType="1" res="3.2826773822307587e-02" rms="2.5111907720565796e-01" purity="5.0661337375640869e-01" nType="0">
        <Node pos="l" depth="1" NCoef="0" IVar="15" Cut="1.4810121059417725e+00" cType="1" res="-5.5376391857862473e-02" rms="2.0430049300193787e-01" purity="1.9883732497692108e-01" nType="0">
          <Node pos="l" depth="2" NCoef="0" IVar="-1" Cut="0.0000000000000000e+00" cType="1" res="-7.7868049265816808e-04" rms="1.6948121786117554e-01" purity="2.0688197016716003e-01" nType="-99"/>
          <Node pos="r" depth="2" NCoef="0" IVar="-1" Cut="0.0000000000000000e+00" cType="1" res="-4.8438780941069126e-03" rms="2.6157525181770325e-01" purity="1.7231242358684540e-01" nType="-99"/>
        </Node>
        <Node pos="r" depth="1" NCoef="0" IVar="14" Cut="-1.3378707170486450e+00" cType="1" res="6.2603637576103210e-02" rms="2.5835233926773071e-01" purity="6.1051666736602783e-01" nType="0">
          <Node pos="l" depth="2" NCoef="0" IVar="-1" Cut="0.0000000000000000e+00" cType="1" res="-5.0395063590258360e-04" rms="2.2954262793064117e-01" purity="2.8432413935661316e-01" nType="-99"/>
          <Node pos="r" depth="2" NCoef="0" IVar="-1" Cut="0.0000000000000000e+00" cType="1" res="1.5632086433470249e-03" rms="2.6165926456451416e-01" purity="7.2674077749252319e-01" nType="-99"/>
        </Node>
      </Node>
    </BinaryTree>
    <BinaryTree type="DecisionTree" boostWeight="1.0000000000000000e+00" itree="454">
      <Node pos="s" depth="0" NCoef="0" IVar="17" Cut="1.5231137275695801e+00" cType="1" res="3.2428670674562454e-02" rms="2.5437691807746887e-01" purity="4.9456131458282471e-01" nType="0">
        <Node pos="l" depth="1" NCoef="0" IVar="2" Cut="2.9930245876312256e+00" cType="1" res="-2.5889519602060318e-03" rms="2.5146168470382690e-01" purity="2.6311776041984558e-01" nType="0">
          <Node pos="l" depth="2" NCoef="0" IVar="-1" Cut="0.0000000000000000e+00" cType="1" res="-7.0530996890738606e-04" rms="2.2860158979892731e-01" purity="2.0453500747680664e-01" nType="-99"/>
          <Node pos="r" depth="2" NCoef="0" IVar="-1" Cut="0.0000000000000000e+00" cType="1" res="1.4244925696402788e-03" rms="3.1537145376205444e-01" purity="5.0916326045989990e-01" nType="-99"/>
        </Node>
        <Node pos="r" depth="1" NCoef="0" IVar="15" Cut="1.5230776071548462e+00" cType="1" res="8.9467823505401611e-02" rms="2.4871420860290527e-01" purity="8.7155270576477051e-01" nType="0">
          <Node pos="l" depth="2" NCoef="0" IVar="-1" Cut="0.0000000000000000e+00" cType="1" res="2.0886496640741825e-03" rms="1.9088271260261536e-01" purity="9.3552017211914062e-01" nType="-99"/>
          <Node pos="r" depth="2" NCoef="0" IVar="-1" Cut="0.0000000000000000e+00" cType="1" res="-3.6108517087996006e-04" rms="3.8251039385795593e-01" purity="6.1731195449829102e-01" nType="-99"/>
        </Node>
      </Node>
    </BinaryTree>
    <BinaryTree type="DecisionTree" boostWeight="1.0000000000000000e+00" itree="455">
      <Node pos="s" depth="0" NCoef="0" IVar="17" Cut="1.5220416784286499e+00" cType="1" res="2.8759522363543510e-02" rms="2.4355036020278931e-01" purity="4.9492052197456360e-01" nType="0">
        <Node pos="l" depth="1" NCoef="0" IVar="5" Cut="4.3599802255630493e-01" cType="1" res="-1.2310092337429523e-02" rms="2.3515157401561737e-01" purity="2.4531006813049316e-01" nType="0">
          <Node pos="l" depth="2" NCoef="0" IVar="-1" Cut="0.0000000000000000e+00" cType="1" res="5.8529421221464872e-04" rms="2.5557255744934082e-01" purity="3.4530618786811829e-01" nType="-99"/>
          <Node pos="r" depth="2" NCoef="0" IVar="-1" Cut="0.0000000000000000e+00" cType="1" res="-2.6609138585627079e-03" rms="1.6674514114856720e-01" purity="5.0850387662649155e-02" nType="-99"/>
        </Node>
        <Node pos="r" depth="1" NCoef="0" IVar="31" Cut="2.6429023742675781e+00" cType="1" res="9.1133549809455872e-02" rms="2.4283881485462189e-01" purity="8.7401366233825684e-01" nType="0">
          <Node pos="l" depth="2" NCoef="0" IVar="-1" Cut="0.0000000000000000e+00" cType="1" res="-1.8222884973511100e-03" rms="3.0266892910003662e-01" purity="4.5185869932174683e-01" nType="-99"/>
          <Node pos="r" depth="2" NCoef="0" IVar="-1" Cut="0.0000000000000000e+00" cType="1" res="1.6702715074643493e-03" rms="2.3263737559318542e-01" purity="9.0565901994705200e-01" nType="-99"/>
        </Node>
      </Node>
    </BinaryTree>
    <BinaryTree type="DecisionTree" boostWeight="1.0000000000000000e+00" itree="456">
      <Node pos="s" depth="0" NCoef="0" IVar="5" Cut="3.3689677715301514e-01" cType="1" res="4.3761759996414185e-02" rms="2.6739814877510071e-01" purity="5.0431656837463379e-01" nType="0">
        <Node pos="l" depth="1" NCoef="0" IVar="36" Cut="3.6319217085838318e-01" cType="1" res="8.2037225365638733e-02" rms="2.4947611987590790e-01" purity="6.5145969390869141e-01" nType="0">
          <Node pos="l" depth="2" NCoef="0" IVar="-1" Cut="0.0000000000000000e+00" cType="1" res="-1.2968591414391994e-02" rms="0.0000000000000000e+00" purity="-6.9336090236902237e-03" nType="-99"/>
          <Node pos="r" depth="2" NCoef="0" IVar="-1" Cut="0.0000000000000000e+00" cType="1" res="1.9889555405825377e-03" rms="2.6328042149543762e-01" purity="7.5410163402557373e-01" nType="-99"/>
        </Node>
        <Node pos="r" depth="1" NCoef="0" IVar="15" Cut="1.5225218534469604e+00" cType="1" res="-2.0115198567509651e-02" rms="2.8361254930496216e-01" purity="2.5875306129455566e-01" nType="0">
          <Node pos="l" depth="2" NCoef="0" IVar="-1" Cut="0.0000000000000000e+00" cType="1" res="-1.1025109415641055e-04" rms="2.5510784983634949e-01" purity="2.3733107745647430e-01" nType="-99"/>
          <Node pos="r" depth="2" NCoef="0" IVar="-1" Cut="0.0000000000000000e+00" cType="1" res="-1.7460420494899154e-03" rms="4.2046526074409485e-01" purity="4.1212522983551025e-01" nType="-99"/>
        </Node>
      </Node>
    </BinaryTree>
    <BinaryTree type="DecisionTree" boostWeight="1.0000000000000000e+00" itree="457">
      <Node pos="s" depth="0" NCoef="0" IVar="17" Cut="1.4447457790374756e+00" cType="1" res="3.2915294170379639e-02" rms="2.4550631642341614e-01" purity="5.0275021791458130e-01" nType="0">
        <Node pos="l" depth="1" NCoef="0" IVar="13" Cut="1.3153648376464844e+00" cType="1" res="-2.8971048071980476e-02" rms="7.9601287841796875e-02" purity="1.6160979866981506e-02" nType="0">
          <Node pos="l" depth="2" NCoef="0" IVar="-1" Cut="0.0000000000000000e+00" cType="1" res="3.1307530589401722e-03" rms="1.9823276996612549e-01" purity="5.4397162050008774e-02" nType="-99"/>
          <Node pos="r" depth="2" NCoef="0" IVar="-1" Cut="0.0000000000000000e+00" cType="1" res="-8.3127906545996666e-03" rms="0.0000000000000000e+00" purity="-3.3649709075689316e-02" nType="-99"/>
        </Node>
        <Node pos="r" depth="1" NCoef="0" IVar="48" Cut="8.5951280593872070e-01" cType="1" res="6.6011756658554077e-02" rms="2.9321482777595520e-01" purity="7.6297533512115479e-01" nType="0">
          <Node pos="l" depth="2" NCoef="0" IVar="-1" Cut="0.0000000000000000e+00" cType="1" res="-2.8164710383862257e-03" rms="2.8139865398406982e-01" purity="1.2142513692378998e-01" nType="-99"/>
          <Node pos="r" depth="2" NCoef="0" IVar="-1" Cut="0.0000000000000000e+00" cType="1" res="1.1629824293777347e-03" rms="2.8736326098442078e-01" purity="7.9408019781112671e-01" nType="-99"/>
        </Node>
      </Node>
    </BinaryTree>
    <BinaryTree type="DecisionTree" boostWeight="1.0000000000000000e+00" itree="458">
      <Node pos="s" depth="0" NCoef="0" IVar="48" Cut="9.6362447738647461e-01" cType="1" res="3.1727485358715057e-02" rms="2.5476127862930298e-01" purity="4.9336978793144226e-01" nType="0">
        <Node pos="l" depth="1" NCoef="0" IVar="46" Cut="1.0353850126266479e+00" cType="1" res="-3.1276708468794823e-03" rms="0.0000000000000000e+00" purity="6.7325256764888763e-02" nType="-99"/>
        <Node pos="r" depth="1" NCoef="0" IVar="5" Cut="3.0068382620811462e-01" cType="1" res="4.9263127148151398e-02" rms="2.6546397805213928e-01" purity="5.4443180561065674e-01" nType="0">
          <Node pos="l" depth="2" NCoef="0" IVar="-1" Cut="0.0000000000000000e+00" cType="1" res="2.0265849307179451e-03" rms="2.3823168873786926e-01" purity="7.3878103494644165e-01" nType="-99"/>
          <Node pos="r" depth="2" NCoef="0" IVar="-1" Cut="0.0000000000000000e+00" cType="1" res="-2.0685022172983736e-04" rms="2.8434622287750244e-01" purity="3.0657708644866943e-01" nType="-99"/>
        </Node>
      </Node>
    </BinaryTree>
    <BinaryTree type="DecisionTree" boostWeight="1.0000000000000000e+00" itree="459">
      <Node pos="s" depth="0" NCoef="0" IVar="36" Cut="1.4454618692398071e+00" cType="1" res="4.2023655027151108e-02" rms="2.6151925325393677e-01" purity="5.1144570112228394e-01" nType="0">
        <Node pos="l" depth="1" NCoef="0" IVar="3" Cut="4.9422130584716797e+00" cType="1" res="-2.0184850320219994e-02" rms="2.2069844603538513e-01" purity="1.6086493432521820e-01" nType="0">
          <Node pos="l" depth="2" NCoef="0" IVar="-1" Cut="0.0000000000000000e+00" cType="1" res="-3.3842290285974741e-03" rms="1.7498043179512024e-01" purity="1.0510478913784027e-01" nType="-99"/>
          <Node pos="r" depth="2" NCoef="0" IVar="-1" Cut="0.0000000000000000e+00" cType="1" res="1.9783938769251108e-03" rms="2.8176853060722351e-01" purity="2.9757949709892273e-01" nType="-99"/>
        </Node>
        <Node pos="r" depth="1" NCoef="0" IVar="5" Cut="2.8622627258300781e-01" cType="1" res="6.9789707660675049e-02" rms="2.7327650785446167e-01" purity="6.6792345046997070e-01" nType="0">
          <Node pos="l" depth="2" NCoef="0" IVar="-1" Cut="0.0000000000000000e+00" cType="1" res="2.0704434718936682e-03" rms="2.2338546812534332e-01" purity="8.6668431758880615e-01" nType="-99"/>
          <Node pos="r" depth="2" NCoef="0" IVar="-1" Cut="0.0000000000000000e+00" cType="1" res="1.9527583208400756e-04" rms="3.1580972671508789e-01" purity="4.1874691843986511e-01" nType="-99"/>
        </Node>
      </Node>
    </BinaryTree>
    <BinaryTree type="DecisionTree" boostWeight="1.0000000000000000e+00" itree="460">
      <Node pos="s" depth="0" NCoef="0" IVar="5" Cut="2.8427755832672119e-01" cType="1" res="3.1996812671422958e-02" rms="2.5554579496383667e-01" purity="5.0032734870910645e-01" nType="0">
        <Node pos="l" depth="1" NCoef="0" IVar="31" Cut="2.6924738883972168e+00" cType="1" res="7.3117651045322418e-02" rms="2.3518051207065582e-01" purity="6.7633974552154541e-01" nType="0">
          <Node pos="l" depth="2" NCoef="0" IVar="-1" Cut="0.0000000000000000e+00" cType="1" res="-2.1297524217516184e-03" rms="2.3571915924549103e-01" purity="2.3789317905902863e-01" nType="-99"/>
          <Node pos="r" depth="2" NCoef="0" IVar="-1" Cut="0.0000000000000000e+00" cType="1" res="1.9598451908677816e-03" rms="2.2578129172325134e-01" purity="7.7750247716903687e-01" nType="-99"/>
        </Node>
        <Node pos="r" depth="1" NCoef="0" IVar="2" Cut="3.1117875576019287e+00" cType="1" res="-1.9752239808440208e-02" rms="2.7032300829887390e-01" purity="2.7882224321365356e-01" nType="0">
          <Node pos="l" depth="2" NCoef="0" IVar="-1" Cut="0.0000000000000000e+00" cType="1" res="-1.0588204022496939e-03" rms="2.4557070434093475e-01" purity="2.1879249811172485e-01" nType="-99"/>
          <Node pos="r" depth="2" NCoef="0" IVar="-1" Cut="0.0000000000000000e+00" cType="1" res="1.3651706976816058e-03" rms="3.3979824185371399e-01" purity="5.4255712032318115e-01" nType="-99"/>
        </Node>
      </Node>
    </BinaryTree>
    <BinaryTree type="DecisionTree" boostWeight="1.0000000000000000e+00" itree="461">
      <Node pos="s" depth="0" NCoef="0" IVar="2" Cut="2.3868970870971680e+00" cType="1" res="4.3883107602596283e-02" rms="2.6813471317291260e-01" purity="5.1306337118148804e-01" nType="0">
        <Node pos="l" depth="1" NCoef="0" IVar="3" Cut="5.0062551498413086e+00" cType="1" res="-7.1166446432471275e-03" rms="2.5570791959762573e-01" purity="3.1127575039863586e-01" nType="0">
          <Node pos="l" depth="2" NCoef="0" IVar="-1" Cut="0.0000000000000000e+00" cType="1" res="-1.3475120067596436e-03" rms="2.2530658543109894e-01" purity="2.6518732309341431e-01" nType="-99"/>
          <Node pos="r" depth="2" NCoef="0" IVar="-1" Cut="0.0000000000000000e+00" cType="1" res="2.2864246275275946e-03" rms="3.0460584163665771e-01" purity="4.4891944527626038e-01" nType="-99"/>
        </Node>
        <Node pos="r" depth="1" NCoef="0" IVar="60" Cut="-8.1094110012054443e-01" cType="1" res="8.0976031720638275e-02" rms="2.7085644006729126e-01" purity="6.5982675552368164e-01" nType="0">
          <Node pos="l" depth="2" NCoef="0" IVar="-1" Cut="0.0000000000000000e+00" cType="1" res="1.5642916550859809e-03" rms="2.7172985672950745e-01" purity="6.7511421442031860e-01" nType="-99"/>
          <Node pos="r" depth="2" NCoef="0" IVar="-1" Cut="0.0000000000000000e+00" cType="1" res="-3.9444933645427227e-03" rms="7.6766975224018097e-02" purity="2.6504296064376831e-01" nType="-99"/>
        </Node>
      </Node>
    </BinaryTree>
    <BinaryTree type="DecisionTree" boostWeight="1.0000000000000000e+00" itree="462">
      <Node pos="s" depth="0" NCoef="0" IVar="2" Cut="2.3159492015838623e+00" cType="1" res="3.7666760385036469e-02" rms="2.6002967357635498e-01" purity="5.0631153583526611e-01" nType="0">
        <Node pos="l" depth="1" NCoef="0" IVar="3" Cut="4.8030500411987305e+00" cType="1" res="-1.1655244976282120e-02" rms="2.5026267766952515e-01" purity="2.8902506828308105e-01" nType="0">
          <Node pos="l" depth="2" NCoef="0" IVar="-1" Cut="0.0000000000000000e+00" cType="1" res="-2.6380720082670450e-03" rms="2.1629261970520020e-01" purity="1.7095595598220825e-01" nType="-99"/>
          <Node pos="r" depth="2" NCoef="0" IVar="-1" Cut="0.0000000000000000e+00" cType="1" res="1.0386800859123468e-03" rms="2.6976415514945984e-01" purity="4.1228950023651123e-01" nType="-99"/>
        </Node>
        <Node pos="r" depth="1" NCoef="0" IVar="17" Cut="3.6327245831489563e-01" cType="1" res="6.9393217563629150e-02" rms="2.6124706864356995e-01" purity="6.4608138799667358e-01" nType="0">
          <Node pos="l" depth="2" NCoef="0" IVar="-1" Cut="0.0000000000000000e+00" cType="1" res="-1.4949543401598930e-02" rms="0.0000000000000000e+00" purity="-2.5227053556591272e-03" nType="-99"/>
          <Node pos="r" depth="2" NCoef="0" IVar="-1" Cut="0.0000000000000000e+00" cType="1" res="1.3303288724273443e-03" rms="2.8086483478546143e-01" purity="7.5969338417053223e-01" nType="-99"/>
        </Node>
      </Node>
    </BinaryTree>
    <BinaryTree type="DecisionTree" boostWeight="1.0000000000000000e+00" itree="463">
      <Node pos="s" depth="0" NCoef="0" IVar="2" Cut="2.5130107402801514e+00" cType="1" res="3.1239163130521774e-02" rms="2.4711588025093079e-01" purity="4.9979907274246216e-01" nType="0">
        <Node pos="l" depth="1" NCoef="0" IVar="17" Cut="1.5220416784286499e+00" cType="1" res="-1.6806513071060181e-02" rms="2.2314420342445374e-01" purity="3.3038085699081421e-01" nType="0">
          <Node pos="l" depth="2" NCoef="0" IVar="-1" Cut="0.0000000000000000e+00" cType="1" res="-2.2406380157917738e-03" rms="1.6113927960395813e-01" purity="1.1052305996417999e-01" nType="-99"/>
          <Node pos="r" depth="2" NCoef="0" IVar="-1" Cut="0.0000000000000000e+00" cType="1" res="1.1034159688279033e-03" rms="2.9768449068069458e-01" purity="7.8994953632354736e-01" nType="-99"/>
        </Node>
        <Node pos="r" depth="1" NCoef="0" IVar="17" Cut="8.6587035655975342e-01" cType="1" res="7.8762032091617584e-02" rms="2.6014387607574463e-01" purity="6.6737377643585205e-01" nType="0">
          <Node pos="l" depth="2" NCoef="0" IVar="-1" Cut="0.0000000000000000e+00" cType="1" res="-3.5233020782470703e-02" rms="0.0000000000000000e+00" purity="-2.2035446017980576e-02" nType="-99"/>
          <Node pos="r" depth="2" NCoef="0" IVar="-1" Cut="0.0000000000000000e+00" cType="1" res="1.5297963982447982e-03" rms="2.8278043866157532e-01" purity="7.8630632162094116e-01" nType="-99"/>
        </Node>
      </Node>
    </BinaryTree>
    <BinaryTree type="DecisionTree" boostWeight="1.0000000000000000e+00" itree="464">
      <Node pos="s" depth="0" NCoef="0" IVar="5" Cut="3.9911326766014099e-01" cType="1" res="3.5953663289546967e-02" rms="2.5634431838989258e-01" purity="5.0208485126495361e-01" nType="0">
        <Node pos="l" depth="1" NCoef="0" IVar="27" Cut="1.7548602819442749e+00" cType="1" res="6.4666651189327240e-02" rms="2.4047155678272247e-01" purity="6.1616188287734985e-01" nType="0">
          <Node pos="l" depth="2" NCoef="0" IVar="-1" Cut="0.0000000000000000e+00" cType="1" res="-4.0806503966450691e-04" rms="2.4322813749313354e-01" purity="3.2312560081481934e-01" nType="-99"/>
          <Node pos="r" depth="2" NCoef="0" IVar="-1" Cut="0.0000000000000000e+00" cType="1" res="1.8239921191707253e-03" rms="2.3196421563625336e-01" purity="7.3479145765304565e-01" nType="-99"/>
        </Node>
        <Node pos="r" depth="1" NCoef="0" IVar="6" Cut="2.5477581024169922e+00" cType="1" res="-3.0575087293982506e-02" rms="2.7865350246429443e-01" purity="2.3776543140411377e-01" nType="0">
          <Node pos="l" depth="2" NCoef="0" IVar="-1" Cut="0.0000000000000000e+00" cType="1" res="-1.6352056991308928e-03" rms="2.3385728895664215e-01" purity="1.5536008775234222e-01" nType="-99"/>
          <Node pos="r" depth="2" NCoef="0" IVar="-1" Cut="0.0000000000000000e+00" cType="1" res="6.7249342100694776e-04" rms="3.5069212317466736e-01" purity="4.3051204085350037e-01" nType="-99"/>
        </Node>
      </Node>
    </BinaryTree>
    <BinaryTree type="DecisionTree" boostWeight="1.0000000000000000e+00" itree="465">
      <Node pos="s" depth="0" NCoef="0" IVar="48" Cut="8.5951280593872070e-01" cType="1" res="3.4585088491439819e-02" rms="2.5665575265884399e-01" purity="5.0581139326095581e-01" nType="0">
        <Node pos="l" depth="1" NCoef="0" IVar="36" Cut="1.4439448118209839e+00" cType="1" res="-1.2005372345447540e-01" rms="4.3799206614494324e-02" purity="5.4531294852495193e-02" nType="0">
          <Node pos="l" depth="2" NCoef="0" IVar="-1" Cut="0.0000000000000000e+00" cType="1" res="-9.7662594635039568e-04" rms="1.9558933377265930e-01" purity="7.9122029244899750e-02" nType="-99"/>
          <Node pos="r" depth="2" NCoef="0" IVar="-1" Cut="0.0000000000000000e+00" cType="1" res="-4.5976154506206512e-03" rms="0.0000000000000000e+00" purity="1.8424505367875099e-02" nType="-99"/>
        </Node>
        <Node pos="r" depth="1" NCoef="0" IVar="5" Cut="3.0224487185478210e-01" cType="1" res="4.8225924372673035e-02" rms="2.6309335231781006e-01" purity="5.4561918973922729e-01" nType="0">
          <Node pos="l" depth="2" NCoef="0" IVar="-1" Cut="0.0000000000000000e+00" cType="1" res="1.8687710398808122e-03" rms="2.2958515584468842e-01" purity="7.2959047555923462e-01" nType="-99"/>
          <Node pos="r" depth="2" NCoef="0" IVar="-1" Cut="0.0000000000000000e+00" cType="1" res="-9.6415576990693808e-05" rms="2.9231899976730347e-01" purity="3.0919668078422546e-01" nType="-99"/>
        </Node>
      </Node>
    </BinaryTree>
    <BinaryTree type="DecisionTree" boostWeight="1.0000000000000000e+00" itree="466">
      <Node pos="s" depth="0" NCoef="0" IVar="3" Cut="4.9409580230712891e+00" cType="1" res="4.3132383376359940e-02" rms="2.7222308516502380e-01" purity="5.0791114568710327e-01" nType="0">
        <Node pos="l" depth="1" NCoef="0" IVar="48" Cut="1.4844477176666260e+00" cType="1" res="1.6718914732336998e-02" rms="2.7068048715591431e-01" purity="4.6957665681838989e-01" nType="0">
          <Node pos="l" depth="2" NCoef="0" IVar="-1" Cut="0.0000000000000000e+00" cType="1" res="-1.8321928801015019e-03" rms="2.3045507073402405e-01" purity="1.9848181307315826e-01" nType="-99"/>
          <Node pos="r" depth="2" NCoef="0" IVar="-1" Cut="0.0000000000000000e+00" cType="1" res="8.8350306032225490e-04" rms="2.7712735533714294e-01" purity="5.5620515346527100e-01" nType="-99"/>
        </Node>
        <Node pos="r" depth="1" NCoef="0" IVar="17" Cut="1.3658688068389893e+00" cType="1" res="1.2145488709211349e-01" rms="2.6150637865066528e-01" purity="6.2158244848251343e-01" nType="0">
          <Node pos="l" depth="2" NCoef="0" IVar="-1" Cut="0.0000000000000000e+00" cType="1" res="-1.9491192651912570e-03" rms="1.0339941084384918e-01" purity="2.4589739739894867e-02" nType="-99"/>
          <Node pos="r" depth="2" NCoef="0" IVar="-1" Cut="0.0000000000000000e+00" cType="1" res="2.6157267857342958e-03" rms="2.8401434421539307e-01" purity="8.6279189586639404e-01" nType="-99"/>
        </Node>
      </Node>
    </BinaryTree>
    <BinaryTree type="DecisionTree" boostWeight="1.0000000000000000e+00" itree="467">
      <Node pos="s" depth="0" NCoef="0" IVar="17" Cut="1.4441871643066406e+00" cType="1" res="3.8304831832647324e-02" rms="2.5500565767288208e-01" purity="5.0992196798324585e-01" nType="0">
        <Node pos="l" depth="1" NCoef="0" IVar="0" Cut="1.0885517597198486e+00" cType="1" res="-1.8789857625961304e-02" rms="1.1817154288291931e-01" purity="2.8905957937240601e-02" nType="0">
          <Node pos="l" depth="2" NCoef="0" IVar="-1" Cut="0.0000000000000000e+00" cType="1" res="-4.4380305334925652e-03" rms="0.0000000000000000e+00" purity="8.9789293706417084e-03" nType="-99"/>
          <Node pos="r" depth="2" NCoef="0" IVar="-1" Cut="0.0000000000000000e+00" cType="1" res="7.1498849429190159e-03" rms="3.3316603302955627e-01" purity="1.7677940428256989e-01" nType="-99"/>
        </Node>
        <Node pos="r" depth="1" NCoef="0" IVar="15" Cut="1.5224639177322388e+00" cType="1" res="6.8666920065879822e-02" rms="2.9921102523803711e-01" purity="7.6571899652481079e-01" nType="0">
          <Node pos="l" depth="2" NCoef="0" IVar="-1" Cut="0.0000000000000000e+00" cType="1" res="1.3544437242671847e-03" rms="2.7697914838790894e-01" purity="8.0853503942489624e-01" nType="-99"/>
          <Node pos="r" depth="2" NCoef="0" IVar="-1" Cut="0.0000000000000000e+00" cType="1" res="-1.0558424983173609e-03" rms="3.7422624230384827e-01" purity="5.2498698234558105e-01" nType="-99"/>
        </Node>
      </Node>
    </BinaryTree>
    <BinaryTree type="DecisionTree" boostWeight="1.0000000000000000e+00" itree="468">
      <Node pos="s" depth="0" NCoef="0" IVar="17" Cut="1.5220416784286499e+00" cType="1" res="2.8235340490937233e-02" rms="2.4790535867214203e-01" purity="4.9224150180816650e-01" nType="0">
        <Node pos="l" depth="1" NCoef="0" IVar="15" Cut="1.5209717750549316e+00" cType="1" res="-4.8843859694898129e-03" rms="2.3973256349563599e-01" purity="2.5830465555191040e-01" nType="0">
          <Node pos="l" depth="2" NCoef="0" IVar="-1" Cut="0.0000000000000000e+00" cType="1" res="1.5680803335271776e-04" rms="2.3705802857875824e-01" purity="2.7108538150787354e-01" nType="-99"/>
          <Node pos="r" depth="2" NCoef="0" IVar="-1" Cut="0.0000000000000000e+00" cType="1" res="-1.0061395354568958e-02" rms="1.9013899564743042e-01" purity="2.3050162941217422e-02" nType="-99"/>
        </Node>
        <Node pos="r" depth="1" NCoef="0" IVar="15" Cut="1.5227357149124146e+00" cType="1" res="8.0983296036720276e-02" rms="2.5154522061347961e-01" purity="8.6481982469558716e-01" nType="0">
          <Node pos="l" depth="2" NCoef="0" IVar="-1" Cut="0.0000000000000000e+00" cType="1" res="1.9003686029464006e-03" rms="2.0111900568008423e-01" purity="9.2476904392242432e-01" nType="-99"/>
          <Node pos="r" depth="2" NCoef="0" IVar="-1" Cut="0.0000000000000000e+00" cType="1" res="-3.4794837119989097e-05" rms="3.6283338069915771e-01" purity="6.6155028343200684e-01" nType="-99"/>
        </Node>
      </Node>
    </BinaryTree>
    <BinaryTree type="DecisionTree" boostWeight="1.0000000000000000e+00" itree="469">
      <Node pos="s" depth="0" NCoef="0" IVar="5" Cut="4.3533283472061157e-01" cType="1" res="3.8732629269361496e-02" rms="2.6139074563980103e-01" purity="5.0564783811569214e-01" nType="0">
        <Node pos="l" depth="1" NCoef="0" IVar="36" Cut="1.0202331542968750e+00" cType="1" res="6.5054744482040405e-02" rms="2.5243565440177917e-01" purity="6.0892808437347412e-01" nType="0">
          <Node pos="l" depth="2" NCoef="0" IVar="-1" Cut="0.0000000000000000e+00" cType="1" res="-5.7863234542310238e-03" rms="5.4490499198436737e-02" purity="2.6811398565769196e-02" nType="-99"/>
          <Node pos="r" depth="2" NCoef="0" IVar="-1" Cut="0.0000000000000000e+00" cType="1" res="1.6110570868477225e-03" rms="2.6840773224830627e-01" purity="7.2181165218353271e-01" nType="-99"/>
        </Node>
        <Node pos="r" depth="1" NCoef="0" IVar="0" Cut="6.6858899593353271e-01" cType="1" res="-3.8613729178905487e-02" rms="2.7171239256858826e-01" purity="2.0216330885887146e-01" nType="0">
          <Node pos="l" depth="2" NCoef="0" IVar="-1" Cut="0.0000000000000000e+00" cType="1" res="2.3661361774429679e-04" rms="3.2411122322082520e-01" purity="2.8273776173591614e-01" nType="-99"/>
          <Node pos="r" depth="2" NCoef="0" IVar="-1" Cut="0.0000000000000000e+00" cType="1" res="-3.3799014054238796e-03" rms="1.1260967701673508e-01" purity="7.1123272180557251e-02" nType="-99"/>
        </Node>
      </Node>
    </BinaryTree>
    <BinaryTree type="DecisionTree" boostWeight="1.0000000000000000e+00" itree="470">
      <Node pos="s" depth="0" NCoef="0" IVar="5" Cut="3.5928255319595337e-01" cType="1" res="3.4567315131425858e-02" rms="2.5995862483978271e-01" purity="4.9858185648918152e-01" nType="0">
        <Node pos="l" depth="1" NCoef="0" IVar="31" Cut="2.7921915054321289e+00" cType="1" res="7.0500776171684265e-02" rms="2.4228352308273315e-01" purity="6.3564181327819824e-01" nType="0">
          <Node pos="l" depth="2" NCoef="0" IVar="-1" Cut="0.0000000000000000e+00" cType="1" res="-8.9578412007540464e-04" rms="2.3584054410457611e-01" purity="2.9508379101753235e-01" nType="-99"/>
          <Node pos="r" depth="2" NCoef="0" IVar="-1" Cut="0.0000000000000000e+00" cType="1" res="1.9092813599854708e-03" rms="2.3661859333515167e-01" purity="7.4072360992431641e-01" nType="-99"/>
        </Node>
        <Node pos="r" depth="1" NCoef="0" IVar="15" Cut="1.5225218534469604e+00" cType="1" res="-3.5330943763256073e-02" rms="2.7829670906066895e-01" purity="2.3197098076343536e-01" nType="0">
          <Node pos="l" depth="2" NCoef="0" IVar="-1" Cut="0.0000000000000000e+00" cType="1" res="-3.2217032276093960e-04" rms="2.5164207816123962e-01" purity="2.1635007858276367e-01" nType="-99"/>
          <Node pos="r" depth="2" NCoef="0" IVar="-1" Cut="0.0000000000000000e+00" cType="1" res="-2.6742438785731792e-03" rms="3.8993397355079651e-01" purity="3.4469649195671082e-01" nType="-99"/>
        </Node>
      </Node>
    </BinaryTree>
    <BinaryTree type="DecisionTree" boostWeight="1.0000000000000000e+00" itree="471">
      <Node pos="s" depth="0" NCoef="0" IVar="15" Cut="1.5225218534469604e+00" cType="1" res="3.5515885800123215e-02" rms="2.6547840237617493e-01" purity="4.9844187498092651e-01" nType="0">
        <Node pos="l" depth="1" NCoef="0" IVar="3" Cut="4.8176188468933105e+00" cType="1" res="5.0920613110065460e-02" rms="2.4761891365051270e-01" purity="5.0667184591293335e-01" nType="0">
          <Node pos="l" depth="2" NCoef="0" IVar="-1" Cut="0.0000000000000000e+00" cType="1" res="3.8938535726629198e-04" rms="2.3551496863365173e-01" purity="4.3276083469390869e-01" nType="-99"/>
          <Node pos="r" depth="2" NCoef="0" IVar="-1" Cut="0.0000000000000000e+00" cType="1" res="2.1150894463062286e-03" rms="2.5613263249397278e-01" purity="6.2194705009460449e-01" nType="-99"/>
        </Node>
        <Node pos="r" depth="1" NCoef="0" IVar="15" Cut="1.5387482643127441e+00" cType="1" res="-9.5285713672637939e-02" rms="3.5939306020736694e-01" purity="4.2856079339981079e-01" nType="0">
          <Node pos="l" depth="2" NCoef="0" IVar="-1" Cut="0.0000000000000000e+00" cType="1" res="-3.4661893732845783e-04" rms="3.4633311629295349e-01" purity="5.5112814903259277e-01" nType="-99"/>
          <Node pos="r" depth="2" NCoef="0" IVar="-1" Cut="0.0000000000000000e+00" cType="1" res="-1.1023795232176781e-02" rms="3.2023435831069946e-01" purity="1.0292452573776245e-01" nType="-99"/>
        </Node>
      </Node>
    </BinaryTree>
    <BinaryTree type="DecisionTree" boostWeight="1.0000000000000000e+00" itree="472">
      <Node pos="s" depth="0" NCoef="0" IVar="48" Cut="1.5882942676544189e+00" cType="1" res="2.5879167020320892e-02" rms="2.4731272459030151e-01" purity="4.9898552894592285e-01" nType="0">
        <Node pos="l" depth="1" NCoef="0" IVar="61" Cut="4.7333073616027832e-01" cType="1" res="-5.3442072123289108e-02" rms="2.0243479311466217e-01" purity="2.4908971786499023e-01" nType="0">
          <Node pos="l" depth="2" NCoef="0" IVar="-1" Cut="0.0000000000000000e+00" cType="1" res="1.7878251383081079e-03" rms="3.3518061041831970e-01" purity="4.5636990666389465e-01" nType="-99"/>
          <Node pos="r" depth="2" NCoef="0" IVar="-1" Cut="0.0000000000000000e+00" cType="1" res="-2.3261781316250563e-03" rms="1.2963952124118805e-01" purity="1.9683377444744110e-01" nType="-99"/>
        </Node>
        <Node pos="r" depth="1" NCoef="0" IVar="5" Cut="2.8516024351119995e-01" cType="1" res="5.5124245584011078e-02" rms="2.5579312443733215e-01" purity="5.9112006425857544e-01" nType="0">
          <Node pos="l" depth="2" NCoef="0" IVar="-1" Cut="0.0000000000000000e+00" cType="1" res="2.3108683526515961e-03" rms="2.1573780477046967e-01" purity="8.1740784645080566e-01" nType="-99"/>
          <Node pos="r" depth="2" NCoef="0" IVar="-1" Cut="0.0000000000000000e+00" cType="1" res="-2.6806266396306455e-04" rms="2.8186014294624329e-01" purity="3.2037034630775452e-01" nType="-99"/>
        </Node>
      </Node>
    </BinaryTree>
    <BinaryTree type="DecisionTree" boostWeight="1.0000000000000000e+00" itree="473">
      <Node pos="s" depth="0" NCoef="0" IVar="17" Cut="1.5214687585830688e+00" cType="1" res="2.5537680834531784e-02" rms="2.4660916626453400e-01" purity="4.9029341340065002e-01" nType="0">
        <Node pos="l" depth="1" NCoef="0" IVar="15" Cut="1.5203990936279297e+00" cType="1" res="-7.3354919441044331e-03" rms="2.4241833388805389e-01" purity="2.4847759306430817e-01" nType="0">
          <Node pos="l" depth="2" NCoef="0" IVar="-1" Cut="0.0000000000000000e+00" cType="1" res="7.2899463702924550e-05" rms="2.3835870623588562e-01" purity="2.5973415374755859e-01" nType="-99"/>
          <Node pos="r" depth="2" NCoef="0" IVar="-1" Cut="0.0000000000000000e+00" cType="1" res="-9.4400933012366295e-03" rms="2.4280703067779541e-01" purity="4.9379300326108932e-02" nType="-99"/>
        </Node>
        <Node pos="r" depth="1" NCoef="0" IVar="15" Cut="1.5227357149124146e+00" cType="1" res="7.6839506626129150e-02" rms="2.4432782828807831e-01" purity="8.6767089366912842e-01" nType="0">
          <Node pos="l" depth="2" NCoef="0" IVar="-1" Cut="0.0000000000000000e+00" cType="1" res="1.9265671726316214e-03" rms="1.9586251676082611e-01" purity="9.3035811185836792e-01" nType="-99"/>
          <Node pos="r" depth="2" NCoef="0" IVar="-1" Cut="0.0000000000000000e+00" cType="1" res="-9.2156376922503114e-04" rms="3.6996537446975708e-01" purity="5.6699776649475098e-01" nType="-99"/>
        </Node>
      </Node>
    </BinaryTree>
    <BinaryTree type="DecisionTree" boostWeight="1.0000000000000000e+00" itree="474">
      <Node pos="s" depth="0" NCoef="0" IVar="2" Cut="1.2769236564636230e+00" cType="1" res="3.7867739796638489e-02" rms="2.5844538211822510e-01" purity="5.1088881492614746e-01" nType="0">
        <Node pos="l" depth="1" NCoef="0" IVar="61" Cut="8.3292973041534424e-01" cType="1" res="-9.0359542518854141e-03" rms="0.0000000000000000e+00" purity="3.4041233360767365e-02" nType="-99"/>
        <Node pos="r" depth="1" NCoef="0" IVar="3" Cut="4.8854780197143555e+00" cType="1" res="4.9046620726585388e-02" rms="2.6340401172637939e-01" purity="5.4143625497817993e-01" nType="0">
          <Node pos="l" depth="2" NCoef="0" IVar="-1" Cut="0.0000000000000000e+00" cType="1" res="3.9872433990240097e-04" rms="2.5222724676132202e-01" purity="4.8354694247245789e-01" nType="-99"/>
          <Node pos="r" depth="2" NCoef="0" IVar="-1" Cut="0.0000000000000000e+00" cType="1" res="2.4012462235987186e-03" rms="2.7476921677589417e-01" purity="6.9006896018981934e-01" nType="-99"/>
        </Node>
      </Node>
    </BinaryTree>
    <BinaryTree type="DecisionTree" boostWeight="1.0000000000000000e+00" itree="475">
      <Node pos="s" depth="0" NCoef="0" IVar="57" Cut="-1.0356259346008301e+00" cType="1" res="3.3682029694318771e-02" rms="2.5785753130912781e-01" purity="4.9955728650093079e-01" nType="0">
        <Node pos="l" depth="1" NCoef="0" IVar="3" Cut="4.9878020286560059e+00" cType="1" res="6.3109152019023895e-02" rms="2.7153795957565308e-01" purity="5.6787848472595215e-01" nType="0">
          <Node pos="l" depth="2" NCoef="0" IVar="-1" Cut="0.0000000000000000e+00" cType="1" res="7.7135051833465695e-04" rms="2.6557716727256775e-01" purity="5.3251022100448608e-01" nType="-99"/>
          <Node pos="r" depth="2" NCoef="0" IVar="-1" Cut="0.0000000000000000e+00" cType="1" res="2.8891034889966249e-03" rms="2.7355220913887024e-01" purity="6.9624698162078857e-01" nType="-99"/>
        </Node>
        <Node pos="r" depth="1" NCoef="0" IVar="48" Cut="9.4390964508056641e-01" cType="1" res="-3.5478841513395309e-02" rms="2.0652064681053162e-01" purity="3.3898583054542542e-01" nType="0">
          <Node pos="l" depth="2" NCoef="0" IVar="-1" Cut="0.0000000000000000e+00" cType="1" res="-7.7492147684097290e-03" rms="0.0000000000000000e+00" purity="-8.5971668362617493e-02" nType="-99"/>
          <Node pos="r" depth="2" NCoef="0" IVar="-1" Cut="0.0000000000000000e+00" cType="1" res="-1.3943202793598175e-04" rms="2.2932709753513336e-01" purity="4.1152232885360718e-01" nType="-99"/>
        </Node>
      </Node>
    </BinaryTree>
    <BinaryTree type="DecisionTree" boostWeight="1.0000000000000000e+00" itree="476">
      <Node pos="s" depth="0" NCoef="0" IVar="17" Cut="1.5220416784286499e+00" cType="1" res="2.9111441224813461e-02" rms="2.4673989415168762e-01" purity="4.9808377027511597e-01" nType="0">
        <Node pos="l" depth="1" NCoef="0" IVar="14" Cut="-7.5864851474761963e-01" cType="1" res="-7.0636710152029991e-03" rms="2.4041251838207245e-01" purity="2.4789378046989441e-01" nType="0">
          <Node pos="l" depth="2" NCoef="0" IVar="-1" Cut="0.0000000000000000e+00" cType="1" res="-1.2341769179329276e-03" rms="2.0194432139396667e-01" purity="1.7545145750045776e-01" nType="-99"/>
          <Node pos="r" depth="2" NCoef="0" IVar="-1" Cut="0.0000000000000000e+00" cType="1" res="8.2507933257147670e-04" rms="2.8268328309059143e-01" purity="3.5809361934661865e-01" nType="-99"/>
        </Node>
        <Node pos="r" depth="1" NCoef="0" IVar="17" Cut="1.5339711904525757e+00" cType="1" res="8.3343088626861572e-02" rms="2.4616786837577820e-01" purity="8.7315422296524048e-01" nType="0">
          <Node pos="l" depth="2" NCoef="0" IVar="-1" Cut="0.0000000000000000e+00" cType="1" res="1.5477038687095046e-04" rms="3.0191174149513245e-01" purity="7.7103614807128906e-01" nType="-99"/>
          <Node pos="r" depth="2" NCoef="0" IVar="-1" Cut="0.0000000000000000e+00" cType="1" res="1.9735533278435469e-03" rms="2.1108031272888184e-01" purity="9.1592139005661011e-01" nType="-99"/>
        </Node>
      </Node>
    </BinaryTree>
    <BinaryTree type="DecisionTree" boostWeight="1.0000000000000000e+00" itree="477">
      <Node pos="s" depth="0" NCoef="0" IVar="2" Cut="1.8457919359207153e+00" cType="1" res="3.5240516066551208e-02" rms="2.5986149907112122e-01" purity="4.9689978361129761e-01" nType="0">
        <Node pos="l" depth="1" NCoef="0" IVar="3" Cut="5.1851887702941895e+00" cType="1" res="-5.3449373692274094e-02" rms="2.3282556235790253e-01" purity="1.6025957465171814e-01" nType="0">
          <Node pos="l" depth="2" NCoef="0" IVar="-1" Cut="0.0000000000000000e+00" cType="1" res="-4.0923240594565868e-03" rms="1.9820298254489899e-01" purity="1.2748338282108307e-01" nType="-99"/>
          <Node pos="r" depth="2" NCoef="0" IVar="-1" Cut="0.0000000000000000e+00" cType="1" res="2.9141188133507967e-03" rms="3.0111712217330933e-01" purity="2.9461181163787842e-01" nType="-99"/>
        </Node>
        <Node pos="r" depth="1" NCoef="0" IVar="31" Cut="2.6432998180389404e+00" cType="1" res="5.6547015905380249e-02" rms="2.6150402426719666e-01" purity="5.7777285575866699e-01" nType="0">
          <Node pos="l" depth="2" NCoef="0" IVar="-1" Cut="0.0000000000000000e+00" cType="1" res="-3.3821882680058479e-03" rms="2.0618423819541931e-01" purity="1.7683860659599304e-01" nType="-99"/>
          <Node pos="r" depth="2" NCoef="0" IVar="-1" Cut="0.0000000000000000e+00" cType="1" res="1.2928005307912827e-03" rms="2.6288217306137085e-01" purity="6.2516671419143677e-01" nType="-99"/>
        </Node>
      </Node>
    </BinaryTree>
    <BinaryTree type="DecisionTree" boostWeight="1.0000000000000000e+00" itree="478">
      <Node pos="s" depth="0" NCoef="0" IVar="2" Cut="1.8708206415176392e+00" cType="1" res="3.5293571650981903e-02" rms="2.5660923123359680e-01" purity="4.9809858202934265e-01" nType="0">
        <Node pos="l" depth="1" NCoef="0" IVar="3" Cut="4.9510822296142578e+00" cType="1" res="-5.4528970271348953e-02" rms="2.0124053955078125e-01" purity="1.7098006606101990e-01" nType="0">
          <Node pos="l" depth="2" NCoef="0" IVar="-1" Cut="0.0000000000000000e+00" cType="1" res="-6.6257384605705738e-03" rms="1.3420835137367249e-01" purity="7.0800624787807465e-02" nType="-99"/>
          <Node pos="r" depth="2" NCoef="0" IVar="-1" Cut="0.0000000000000000e+00" cType="1" res="9.5354946097359061e-04" rms="2.4555157124996185e-01" purity="3.1856873631477356e-01" nType="-99"/>
        </Node>
        <Node pos="r" depth="1" NCoef="0" IVar="14" Cut="-1.3378707170486450e+00" cType="1" res="5.7851251214742661e-02" rms="2.6396912336349487e-01" purity="5.8024984598159790e-01" nType="0">
          <Node pos="l" depth="2" NCoef="0" IVar="-1" Cut="0.0000000000000000e+00" cType="1" res="-6.8229349562898278e-04" rms="2.2525712847709656e-01" purity="2.4995887279510498e-01" nType="-99"/>
          <Node pos="r" depth="2" NCoef="0" IVar="-1" Cut="0.0000000000000000e+00" cType="1" res="1.5178788453340530e-03" rms="2.7071964740753174e-01" purity="7.0231294631958008e-01" nType="-99"/>
        </Node>
      </Node>
    </BinaryTree>
    <BinaryTree type="DecisionTree" boostWeight="1.0000000000000000e+00" itree="479">
      <Node pos="s" depth="0" NCoef="0" IVar="48" Cut="1.7501909732818604e+00" cType="1" res="4.1374646127223969e-02" rms="2.6325377821922302e-01" purity="5.0851035118103027e-01" nType="0">
        <Node pos="l" depth="1" NCoef="0" IVar="3" Cut="4.7530536651611328e+00" cType="1" res="-1.8311303108930588e-02" rms="2.4966907501220703e-01" purity="2.8966432809829712e-01" nType="0">
          <Node pos="l" depth="2" NCoef="0" IVar="-1" Cut="0.0000000000000000e+00" cType="1" res="-2.0283823832869530e-03" rms="2.3015479743480682e-01" purity="1.8670557439327240e-01" nType="-99"/>
          <Node pos="r" depth="2" NCoef="0" IVar="-1" Cut="0.0000000000000000e+00" cType="1" res="8.5942522855475545e-04" rms="2.5797006487846375e-01" purity="4.0755450725555420e-01" nType="-99"/>
        </Node>
        <Node pos="r" depth="1" NCoef="0" IVar="5" Cut="2.8769284486770630e-01" cType="1" res="6.8362437188625336e-02" rms="2.6479059457778931e-01" purity="6.0746443271636963e-01" nType="0">
          <Node pos="l" depth="2" NCoef="0" IVar="-1" Cut="0.0000000000000000e+00" cType="1" res="2.2658796515315771e-03" rms="2.1429713070392609e-01" purity="8.2502651214599609e-01" nType="-99"/>
          <Node pos="r" depth="2" NCoef="0" IVar="-1" Cut="0.0000000000000000e+00" cType="1" res="4.0872412500903010e-04" rms="3.0529832839965820e-01" purity="3.6097410321235657e-01" nType="-99"/>
        </Node>
      </Node>
    </BinaryTree>
    <BinaryTree type="DecisionTree" boostWeight="1.0000000000000000e+00" itree="480">
      <Node pos="s" depth="0" NCoef="0" IVar="2" Cut="2.3411214351654053e+00" cType="1" res="3.5951379686594009e-02" rms="2.5083878636360168e-01" purity="5.1150983572006226e-01" nType="0">
        <Node pos="l" depth="1" NCoef="0" IVar="15" Cut="1.4446413516998291e+00" cType="1" res="-1.4224869199097157e-02" rms="2.3994480073451996e-01" purity="3.0556282401084900e-01" nType="0">
          <Node pos="l" depth="2" NCoef="0" IVar="-1" Cut="0.0000000000000000e+00" cType="1" res="9.0166472364217043e-04" rms="2.1209271252155304e-01" purity="2.8655391931533813e-01" nType="-99"/>
          <Node pos="r" depth="2" NCoef="0" IVar="-1" Cut="0.0000000000000000e+00" cType="1" res="-2.2791542578488588e-03" rms="2.7167227864265442e-01" purity="3.4666717052459717e-01" nType="-99"/>
        </Node>
        <Node pos="r" depth="1" NCoef="0" IVar="17" Cut="1.3662679195404053e+00" cType="1" res="7.0008583366870880e-02" rms="2.5234964489936829e-01" purity="6.5129667520523071e-01" nType="0">
          <Node pos="l" depth="2" NCoef="0" IVar="-1" Cut="0.0000000000000000e+00" cType="1" res="-5.8926180936396122e-03" rms="5.3530130535364151e-02" purity="8.2388529554009438e-03" nType="-99"/>
          <Node pos="r" depth="2" NCoef="0" IVar="-1" Cut="0.0000000000000000e+00" cType="1" res="1.3695964589715004e-03" rms="2.7721253037452698e-01" purity="8.2105296850204468e-01" nType="-99"/>
        </Node>
      </Node>
    </BinaryTree>
    <BinaryTree type="DecisionTree" boostWeight="1.0000000000000000e+00" itree="481">
      <Node pos="s" depth="0" NCoef="0" IVar="48" Cut="1.1143566370010376e+00" cType="1" res="3.1436823308467865e-02" rms="2.5506380200386047e-01" purity="4.9826475977897644e-01" nType="0">
        <Node pos="l" depth="1" NCoef="0" IVar="61" Cut="6.5715956687927246e-01" cType="1" res="-7.1196131408214569e-02" rms="1.8127998709678650e-01" purity="1.5384304523468018e-01" nType="0">
          <Node pos="l" depth="2" NCoef="0" IVar="-1" Cut="0.0000000000000000e+00" cType="1" res="1.1166291078552604e-03" rms="3.2520568370819092e-01" purity="3.0259671807289124e-01" nType="-99"/>
          <Node pos="r" depth="2" NCoef="0" IVar="-1" Cut="0.0000000000000000e+00" cType="1" res="-3.6990158259868622e-03" rms="0.0000000000000000e+00" purity="8.0053016543388367e-02" nType="-99"/>
        </Node>
        <Node pos="r" depth="1" NCoef="0" IVar="5" Cut="3.0461463332176208e-01" cType="1" res="5.0173386931419373e-02" rms="2.6203244924545288e-01" purity="5.6114202737808228e-01" nType="0">
          <Node pos="l" depth="2" NCoef="0" IVar="-1" Cut="0.0000000000000000e+00" cType="1" res="1.9085470121353865e-03" rms="2.2832541167736053e-01" purity="7.5571745634078979e-01" nType="-99"/>
          <Node pos="r" depth="2" NCoef="0" IVar="-1" Cut="0.0000000000000000e+00" cType="1" res="2.4337790819117799e-05" rms="2.9034760594367981e-01" purity="3.2547909021377563e-01" nType="-99"/>
        </Node>
      </Node>
    </BinaryTree>
    <BinaryTree type="DecisionTree" boostWeight="1.0000000000000000e+00" itree="482">
      <Node pos="s" depth="0" NCoef="0" IVar="36" Cut="-8.3517640829086304e-01" cType="1" res="3.6214876919984818e-02" rms="2.6120871305465698e-01" purity="4.9964293837547302e-01" nType="0">
        <Node pos="l" depth="1" NCoef="0" IVar="57" Cut="-1.2006702274084091e-01" cType="1" res="-1.6470501199364662e-02" rms="0.0000000000000000e+00" purity="-9.5497230067849159e-03" nType="-99"/>
        <Node pos="r" depth="1" NCoef="0" IVar="18" Cut="-1.1029973030090332e+00" cType="1" res="5.1067154854536057e-02" rms="2.7718466520309448e-01" purity="5.7137519121170044e-01" nType="0">
          <Node pos="l" depth="2" NCoef="0" IVar="-1" Cut="0.0000000000000000e+00" cType="1" res="1.2221921933814883e-03" rms="2.7758517861366272e-01" purity="6.0284960269927979e-01" nType="-99"/>
          <Node pos="r" depth="2" NCoef="0" IVar="-1" Cut="0.0000000000000000e+00" cType="1" res="-2.2789048962295055e-03" rms="2.3514051735401154e-01" purity="2.7175441384315491e-01" nType="-99"/>
        </Node>
      </Node>
    </BinaryTree>
    <BinaryTree type="DecisionTree" boostWeight="1.0000000000000000e+00" itree="483">
      <Node pos="s" depth="0" NCoef="0" IVar="48" Cut="1.2239035367965698e+00" cType="1" res="3.3224806189537048e-02" rms="2.6073843240737915e-01" purity="4.9551090598106384e-01" nType="0">
        <Node pos="l" depth="1" NCoef="0" IVar="52" Cut="2.5524375438690186e+00" cType="1" res="-5.6139502674341202e-02" rms="2.1785938739776611e-01" purity="1.7699347436428070e-01" nType="0">
          <Node pos="l" depth="2" NCoef="0" IVar="-1" Cut="0.0000000000000000e+00" cType="1" res="-3.6826811265200377e-03" rms="1.5726520121097565e-01" purity="4.7718252986669540e-02" nType="-99"/>
          <Node pos="r" depth="2" NCoef="0" IVar="-1" Cut="0.0000000000000000e+00" cType="1" res="3.8884676177985966e-04" rms="2.5262981653213501e-01" purity="3.2644382119178772e-01" nType="-99"/>
        </Node>
        <Node pos="r" depth="1" NCoef="0" IVar="5" Cut="4.5115160942077637e-01" cType="1" res="5.2990026772022247e-02" rms="2.6526680588722229e-01" purity="5.6595927476882935e-01" nType="0">
          <Node pos="l" depth="2" NCoef="0" IVar="-1" Cut="0.0000000000000000e+00" cType="1" res="1.5526695642620325e-03" rms="2.4362745881080627e-01" purity="6.8158972263336182e-01" nType="-99"/>
          <Node pos="r" depth="2" NCoef="0" IVar="-1" Cut="0.0000000000000000e+00" cType="1" res="-3.6123639438301325e-04" rms="3.1001952290534973e-01" purity="2.2865591943264008e-01" nType="-99"/>
        </Node>
      </Node>
    </BinaryTree>
    <BinaryTree type="DecisionTree" boostWeight="1.0000000000000000e+00" itree="484">
      <Node pos="s" depth="0" NCoef="0" IVar="5" Cut="4.3563032150268555e-01" cType="1" res="3.3669114112854004e-02" rms="2.5387480854988098e-01" purity="4.9732473492622375e-01" nType="0">
        <Node pos="l" depth="1" NCoef="0" IVar="36" Cut="1.3683462142944336e+00" cType="1" res="5.8706954121589661e-02" rms="2.4585984647274017e-01" purity="6.0029494762420654e-01" nType="0">
          <Node pos="l" depth="2" NCoef="0" IVar="-1" Cut="0.0000000000000000e+00" cType="1" res="-1.7461497336626053e-03" rms="1.8353544175624847e-01" purity="1.0323277115821838e-01" nType="-99"/>
          <Node pos="r" depth="2" NCoef="0" IVar="-1" Cut="0.0000000000000000e+00" cType="1" res="1.5369405737146735e-03" rms="2.5554740428924561e-01" purity="7.5056946277618408e-01" nType="-99"/>
        </Node>
        <Node pos="r" depth="1" NCoef="0" IVar="38" Cut="-1.4927017688751221e+00" cType="1" res="-3.7732463330030441e-02" rms="2.6265704631805420e-01" purity="2.0368008315563202e-01" nType="0">
          <Node pos="l" depth="2" NCoef="0" IVar="-1" Cut="0.0000000000000000e+00" cType="1" res="1.6999320359900594e-03" rms="2.8685089945793152e-01" purity="4.9420672655105591e-01" nType="-99"/>
          <Node pos="r" depth="2" NCoef="0" IVar="-1" Cut="0.0000000000000000e+00" cType="1" res="-1.2867276091128588e-03" rms="2.5488361716270447e-01" purity="1.6797648370265961e-01" nType="-99"/>
        </Node>
      </Node>
    </BinaryTree>
    <BinaryTree type="DecisionTree" boostWeight="1.0000000000000000e+00" itree="485">
      <Node pos="s" depth="0" NCoef="0" IVar="2" Cut="2.6140248775482178e+00" cType="1" res="3.9774857461452484e-02" rms="2.6402676105499268e-01" purity="5.0722002983093262e-01" nType="0">
        <Node pos="l" depth="1" NCoef="0" IVar="3" Cut="4.7568540573120117e+00" cType="1" res="2.8771227225661278e-03" rms="2.5235053896903992e-01" purity="3.6748829483985901e-01" nType="0">
          <Node pos="l" depth="2" NCoef="0" IVar="-1" Cut="0.0000000000000000e+00" cType="1" res="-1.8361251568421721e-03" rms="2.2513315081596375e-01" purity="2.3184588551521301e-01" nType="-99"/>
          <Node pos="r" depth="2" NCoef="0" IVar="-1" Cut="0.0000000000000000e+00" cType="1" res="1.3165662530809641e-03" rms="2.6364350318908691e-01" purity="5.0028693675994873e-01" nType="-99"/>
        </Node>
        <Node pos="r" depth="1" NCoef="0" IVar="14" Cut="-1.4153252840042114e+00" cType="1" res="8.6176320910453796e-02" rms="2.7097463607788086e-01" purity="6.8294250965118408e-01" nType="0">
          <Node pos="l" depth="2" NCoef="0" IVar="-1" Cut="0.0000000000000000e+00" cType="1" res="-3.4160999348387122e-04" rms="2.2776228189468384e-01" purity="2.9083508253097534e-01" nType="-99"/>
          <Node pos="r" depth="2" NCoef="0" IVar="-1" Cut="0.0000000000000000e+00" cType="1" res="1.8342684488743544e-03" rms="2.7502745389938354e-01" purity="7.7712625265121460e-01" nType="-99"/>
        </Node>
      </Node>
    </BinaryTree>
    <BinaryTree type="DecisionTree" boostWeight="1.0000000000000000e+00" itree="486">
      <Node pos="s" depth="0" NCoef="0" IVar="48" Cut="9.5059430599212646e-01" cType="1" res="4.1762430220842361e-02" rms="2.6724100112915039e-01" purity="5.0780612230300903e-01" nType="0">
        <Node pos="l" depth="1" NCoef="0" IVar="52" Cut="2.4563276767730713e+00" cType="1" res="-8.1954739987850189e-02" rms="1.7540805041790009e-01" purity="1.0139483958482742e-01" nType="0">
          <Node pos="l" depth="2" NCoef="0" IVar="-1" Cut="0.0000000000000000e+00" cType="1" res="-4.9658375792205334e-03" rms="0.0000000000000000e+00" purity="-2.2710696794092655e-03" nType="-99"/>
          <Node pos="r" depth="2" NCoef="0" IVar="-1" Cut="0.0000000000000000e+00" cType="1" res="2.1723630197811872e-04" rms="2.8923210501670837e-01" purity="2.0204120874404907e-01" nType="-99"/>
        </Node>
        <Node pos="r" depth="1" NCoef="0" IVar="3" Cut="4.9406895637512207e+00" cType="1" res="5.6522607803344727e-02" rms="2.7243998646736145e-01" purity="5.5629336833953857e-01" nType="0">
          <Node pos="l" depth="2" NCoef="0" IVar="-1" Cut="0.0000000000000000e+00" cType="1" res="6.9470820017158985e-04" rms="2.6548409461975098e-01" purity="5.2678024768829346e-01" nType="-99"/>
          <Node pos="r" depth="2" NCoef="0" IVar="-1" Cut="0.0000000000000000e+00" cType="1" res="2.6035835035145283e-03" rms="2.8018659353256226e-01" purity="6.4812171459197998e-01" nType="-99"/>
        </Node>
      </Node>
    </BinaryTree>
    <BinaryTree type="DecisionTree" boostWeight="1.0000000000000000e+00" itree="487">
      <Node pos="s" depth="0" NCoef="0" IVar="17" Cut="1.5220416784286499e+00" cType="1" res="2.1036537364125252e-02" rms="2.3771029710769653e-01" purity="4.8844650387763977e-01" nType="0">
        <Node pos="l" depth="1" NCoef="0" IVar="1" Cut="2.9545760154724121e+00" cType="1" res="-1.9083855673670769e-02" rms="2.2401465475559235e-01" purity="2.3676078021526337e-01" nType="0">
          <Node pos="l" depth="2" NCoef="0" IVar="-1" Cut="0.0000000000000000e+00" cType="1" res="-2.3059940431267023e-03" rms="1.4112070202827454e-01" purity="1.0115158557891846e-01" nType="-99"/>
          <Node pos="r" depth="2" NCoef="0" IVar="-1" Cut="0.0000000000000000e+00" cType="1" res="4.1412934660911560e-04" rms="2.7580317854881287e-01" purity="3.6715996265411377e-01" nType="-99"/>
        </Node>
        <Node pos="r" depth="1" NCoef="0" IVar="15" Cut="1.5199713706970215e+00" cType="1" res="8.2663729786872864e-02" rms="2.4484527111053467e-01" purity="8.7504988908767700e-01" nType="0">
          <Node pos="l" depth="2" NCoef="0" IVar="-1" Cut="0.0000000000000000e+00" cType="1" res="2.0893169566988945e-03" rms="1.8411210179328918e-01" purity="9.4237732887268066e-01" nType="-99"/>
          <Node pos="r" depth="2" NCoef="0" IVar="-1" Cut="0.0000000000000000e+00" cType="1" res="-4.0804862510412931e-04" rms="3.7179109454154968e-01" purity="6.3176894187927246e-01" nType="-99"/>
        </Node>
      </Node>
    </BinaryTree>
    <BinaryTree type="DecisionTree" boostWeight="1.0000000000000000e+00" itree="488">
      <Node pos="s" depth="0" NCoef="0" IVar="2" Cut="1.7676054239273071e+00" cType="1" res="3.2500881701707840e-02" rms="2.5681707262992859e-01" purity="4.9797752499580383e-01" nType="0">
        <Node pos="l" depth="1" NCoef="0" IVar="37" Cut="-1.2181518971920013e-01" cType="1" res="-6.0994021594524384e-02" rms="1.7991858720779419e-01" purity="1.7082799971103668e-01" nType="0">
          <Node pos="l" depth="2" NCoef="0" IVar="-1" Cut="0.0000000000000000e+00" cType="1" res="-6.8096164613962173e-04" rms="2.4568973481655121e-01" purity="2.3801884055137634e-01" nType="-99"/>
          <Node pos="r" depth="2" NCoef="0" IVar="-1" Cut="0.0000000000000000e+00" cType="1" res="-9.7746588289737701e-03" rms="0.0000000000000000e+00" purity="-1.8562326207756996e-02" nType="-99"/>
        </Node>
        <Node pos="r" depth="1" NCoef="0" IVar="14" Cut="-1.3379518985748291e+00" cType="1" res="5.1826462149620056e-02" rms="2.6592600345611572e-01" purity="5.6559997797012329e-01" nType="0">
          <Node pos="l" depth="2" NCoef="0" IVar="-1" Cut="0.0000000000000000e+00" cType="1" res="-5.0259620184078813e-04" rms="2.2934940457344055e-01" purity="2.7223291993141174e-01" nType="-99"/>
          <Node pos="r" depth="2" NCoef="0" IVar="-1" Cut="0.0000000000000000e+00" cType="1" res="1.3894957955926657e-03" rms="2.7383622527122498e-01" purity="6.7537635564804077e-01" nType="-99"/>
        </Node>
      </Node>
    </BinaryTree>
    <BinaryTree type="DecisionTree" boostWeight="1.0000000000000000e+00" itree="489">
      <Node pos="s" depth="0" NCoef="0" IVar="15" Cut="1.5215698480606079e+00" cType="1" res="3.4735258668661118e-02" rms="2.6167911291122437e-01" purity="5.0476312637329102e-01" nType="0">
        <Node pos="l" depth="1" NCoef="0" IVar="17" Cut="1.3684681653976440e+00" cType="1" res="4.9216490238904953e-02" rms="2.4258804321289062e-01" purity="5.1047658920288086e-01" nType="0">
          <Node pos="l" depth="2" NCoef="0" IVar="-1" Cut="0.0000000000000000e+00" cType="1" res="-5.7708695530891418e-03" rms="7.0974707603454590e-02" purity="7.8495498746633530e-03" nType="-99"/>
          <Node pos="r" depth="2" NCoef="0" IVar="-1" Cut="0.0000000000000000e+00" cType="1" res="1.2818630784749985e-03" rms="2.8474873304367065e-01" purity="7.5077551603317261e-01" nType="-99"/>
        </Node>
        <Node pos="r" depth="1" NCoef="0" IVar="15" Cut="1.5416070222854614e+00" cType="1" res="-8.0615803599357605e-02" rms="3.6081030964851379e-01" purity="4.5925259590148926e-01" nType="0">
          <Node pos="l" depth="2" NCoef="0" IVar="-1" Cut="0.0000000000000000e+00" cType="1" res="-4.1815903387032449e-04" rms="3.5310718417167664e-01" purity="5.5031198263168335e-01" nType="-99"/>
          <Node pos="r" depth="2" NCoef="0" IVar="-1" Cut="0.0000000000000000e+00" cType="1" res="-1.8180273473262787e-02" rms="2.9579892754554749e-01" purity="6.0320015996694565e-02" nType="-99"/>
        </Node>
      </Node>
    </BinaryTree>
    <BinaryTree type="DecisionTree" boostWeight="1.0000000000000000e+00" itree="490">
      <Node pos="s" depth="0" NCoef="0" IVar="48" Cut="9.6697235107421875e-01" cType="1" res="2.8151841834187508e-02" rms="2.5287500023841858e-01" purity="4.9293258786201477e-01" nType="0">
        <Node pos="l" depth="1" NCoef="0" IVar="67" Cut="9.3742775917053223e-01" cType="1" res="-7.9638682305812836e-02" rms="1.7413076758384705e-01" purity="1.0609702765941620e-01" nType="0">
          <Node pos="l" depth="2" NCoef="0" IVar="-1" Cut="0.0000000000000000e+00" cType="1" res="-6.0576042160391808e-03" rms="0.0000000000000000e+00" purity="-4.0351431816816330e-02" nType="-99"/>
          <Node pos="r" depth="2" NCoef="0" IVar="-1" Cut="0.0000000000000000e+00" cType="1" res="-4.5524298911914229e-04" rms="2.5598809123039246e-01" purity="1.8149603903293610e-01" nType="-99"/>
        </Node>
        <Node pos="r" depth="1" NCoef="0" IVar="5" Cut="2.8323230147361755e-01" cType="1" res="4.2234897613525391e-02" rms="2.5811332464218140e-01" purity="5.4347348213195801e-01" nType="0">
          <Node pos="l" depth="2" NCoef="0" IVar="-1" Cut="0.0000000000000000e+00" cType="1" res="1.8195008160546422e-03" rms="2.2241634130477905e-01" purity="7.4400657415390015e-01" nType="-99"/>
          <Node pos="r" depth="2" NCoef="0" IVar="-1" Cut="0.0000000000000000e+00" cType="1" res="-8.2700433267746121e-05" rms="2.8592893481254578e-01" purity="3.1924852728843689e-01" nType="-99"/>
        </Node>
      </Node>
    </BinaryTree>
    <BinaryTree type="DecisionTree" boostWeight="1.0000000000000000e+00" itree="491">
      <Node pos="s" depth="0" NCoef="0" IVar="3" Cut="4.8825283050537109e+00" cType="1" res="3.2286580651998520e-02" rms="2.5674140453338623e-01" purity="4.9739840626716614e-01" nType="0">
        <Node pos="l" depth="1" NCoef="0" IVar="2" Cut="2.3828487396240234e+00" cType="1" res="1.2938594445586205e-03" rms="2.4685737490653992e-01" purity="4.4634786248207092e-01" nType="0">
          <Node pos="l" depth="2" NCoef="0" IVar="-1" Cut="0.0000000000000000e+00" cType="1" res="-2.5010935496538877e-03" rms="1.9540539383888245e-01" purity="2.0291242003440857e-01" nType="-99"/>
          <Node pos="r" depth="2" NCoef="0" IVar="-1" Cut="0.0000000000000000e+00" cType="1" res="8.0196774797514081e-04" rms="2.6407262682914734e-01" purity="5.9169423580169678e-01" nType="-99"/>
        </Node>
        <Node pos="r" depth="1" NCoef="0" IVar="5" Cut="2.7890667319297791e-01" cType="1" res="1.0069365799427032e-01" rms="2.6476970314979553e-01" purity="6.1007708311080933e-01" nType="0">
          <Node pos="l" depth="2" NCoef="0" IVar="-1" Cut="0.0000000000000000e+00" cType="1" res="3.1577858608216047e-03" rms="2.7489307522773743e-01" purity="7.5231832265853882e-01" nType="-99"/>
          <Node pos="r" depth="2" NCoef="0" IVar="-1" Cut="0.0000000000000000e+00" cType="1" res="2.4235666205640882e-04" rms="2.2043541073799133e-01" purity="3.8825801014900208e-01" nType="-99"/>
        </Node>
      </Node>
    </BinaryTree>
    <BinaryTree type="DecisionTree" boostWeight="1.0000000000000000e+00" itree="492">
      <Node pos="s" depth="0" NCoef="0" IVar="31" Cut="2.6510338783264160e+00" cType="1" res="2.9150521382689476e-02" rms="2.4907556176185608e-01" purity="4.9351850152015686e-01" nType="0">
        <Node pos="l" depth="1" NCoef="0" IVar="17" Cut="1.3657898902893066e+00" cType="1" res="-8.9304246008396149e-02" rms="1.5978695452213287e-01" purity="1.2941169738769531e-01" nType="0">
          <Node pos="l" depth="2" NCoef="0" IVar="-1" Cut="0.0000000000000000e+00" cType="1" res="-2.3620195686817169e-02" rms="0.0000000000000000e+00" purity="-1.1511586606502533e-02" nType="-99"/>
          <Node pos="r" depth="2" NCoef="0" IVar="-1" Cut="0.0000000000000000e+00" cType="1" res="-4.4908984564244747e-03" rms="2.2577236592769623e-01" purity="2.4899491667747498e-01" nType="-99"/>
        </Node>
        <Node pos="r" depth="1" NCoef="0" IVar="17" Cut="1.4060977697372437e+00" cType="1" res="4.5373469591140747e-02" rms="2.5466358661651611e-01" purity="5.4338467121124268e-01" nType="0">
          <Node pos="l" depth="2" NCoef="0" IVar="-1" Cut="0.0000000000000000e+00" cType="1" res="-5.3156693466007710e-03" rms="0.0000000000000000e+00" purity="6.6091110929846764e-03" nType="-99"/>
          <Node pos="r" depth="2" NCoef="0" IVar="-1" Cut="0.0000000000000000e+00" cType="1" res="1.1121311690658331e-03" rms="2.9843074083328247e-01" purity="7.7097481489181519e-01" nType="-99"/>
        </Node>
      </Node>
    </BinaryTree>
    <BinaryTree type="DecisionTree" boostWeight="1.0000000000000000e+00" itree="493">
      <Node pos="s" depth="0" NCoef="0" IVar="1" Cut="2.3230633735656738e+00" cType="1" res="3.1122967600822449e-02" rms="2.5493913888931274e-01" purity="4.9936249852180481e-01" nType="0">
        <Node pos="l" depth="1" NCoef="0" IVar="34" Cut="1.4748269319534302e+00" cType="1" res="-7.6411753892898560e-02" rms="1.8479472398757935e-01" purity="6.3199020922183990e-02" nType="0">
          <Node pos="l" depth="2" NCoef="0" IVar="-1" Cut="0.0000000000000000e+00" cType="1" res="-4.8188481014221907e-04" rms="2.2370903193950653e-01" purity="1.2340674549341202e-01" nType="-99"/>
          <Node pos="r" depth="2" NCoef="0" IVar="-1" Cut="0.0000000000000000e+00" cType="1" res="-8.1465179100632668e-03" rms="0.0000000000000000e+00" purity="-6.9288045167922974e-02" nType="-99"/>
        </Node>
        <Node pos="r" depth="1" NCoef="0" IVar="5" Cut="2.8204399347305298e-01" cType="1" res="4.7770578414201736e-02" rms="2.6019564270973206e-01" purity="5.6688559055328369e-01" nType="0">
          <Node pos="l" depth="2" NCoef="0" IVar="-1" Cut="0.0000000000000000e+00" cType="1" res="1.8514908151701093e-03" rms="2.2573372721672058e-01" purity="7.5530964136123657e-01" nType="-99"/>
          <Node pos="r" depth="2" NCoef="0" IVar="-1" Cut="0.0000000000000000e+00" cType="1" res="-3.1513864087173715e-05" rms="2.8783136606216431e-01" purity="3.4562379121780396e-01" nType="-99"/>
        </Node>
      </Node>
    </BinaryTree>
    <BinaryTree type="DecisionTree" boostWeight="1.0000000000000000e+00" itree="494">
      <Node pos="s" depth="0" NCoef="0" IVar="5" Cut="3.0224487185478210e-01" cType="1" res="2.8446720913052559e-02" rms="2.4779123067855835e-01" purity="4.9365732073783875e-01" nType="0">
        <Node pos="l" depth="1" NCoef="0" IVar="31" Cut="2.6675739288330078e+00" cType="1" res="6.8118110299110413e-02" rms="2.2730076313018799e-01" purity="6.5805113315582275e-01" nType="0">
          <Node pos="l" depth="2" NCoef="0" IVar="-1" Cut="0.0000000000000000e+00" cType="1" res="-3.1372543890029192e-03" rms="1.8724186718463898e-01" purity="1.7940394580364227e-01" nType="-99"/>
          <Node pos="r" depth="2" NCoef="0" IVar="-1" Cut="0.0000000000000000e+00" cType="1" res="1.9145315745845437e-03" rms="2.2532832622528076e-01" purity="7.5821298360824585e-01" nType="-99"/>
        </Node>
        <Node pos="r" depth="1" NCoef="0" IVar="52" Cut="3.3374166488647461e+00" cType="1" res="-2.5343218818306923e-02" rms="2.6376613974571228e-01" purity="2.7075782418251038e-01" nType="0">
          <Node pos="l" depth="2" NCoef="0" IVar="-1" Cut="0.0000000000000000e+00" cType="1" res="6.5182807702512946e-06" rms="2.8638252615928650e-01" purity="2.9628905653953552e-01" nType="-99"/>
          <Node pos="r" depth="2" NCoef="0" IVar="-1" Cut="0.0000000000000000e+00" cType="1" res="-3.1143422238528728e-03" rms="1.0270314663648605e-01" purity="1.7411863803863525e-01" nType="-99"/>
        </Node>
      </Node>
    </BinaryTree>
    <BinaryTree type="DecisionTree" boostWeight="1.0000000000000000e+00" itree="495">
      <Node pos="s" depth="0" NCoef="0" IVar="2" Cut="2.3411214351654053e+00" cType="1" res="3.2200727611780167e-02" rms="2.5714206695556641e-01" purity="4.9427005648612976e-01" nType="0">
        <Node pos="l" depth="1" NCoef="0" IVar="3" Cut="4.8377909660339355e+00" cType="1" res="-1.9601682201027870e-02" rms="2.3827491700649261e-01" purity="2.8264462947845459e-01" nType="0">
          <Node pos="l" depth="2" NCoef="0" IVar="-1" Cut="0.0000000000000000e+00" cType="1" res="-2.7333970647305250e-03" rms="2.1532428264617920e-01" purity="1.7616532742977142e-01" nType="-99"/>
          <Node pos="r" depth="2" NCoef="0" IVar="-1" Cut="0.0000000000000000e+00" cType="1" res="9.4193452969193459e-04" rms="2.5098535418510437e-01" purity="4.1527551412582397e-01" nType="-99"/>
        </Node>
        <Node pos="r" depth="1" NCoef="0" IVar="14" Cut="-1.3765250444412231e+00" cType="1" res="6.7136660218238831e-02" rms="2.6343026757240295e-01" purity="6.3699185848236084e-01" nType="0">
          <Node pos="l" depth="2" NCoef="0" IVar="-1" Cut="0.0000000000000000e+00" cType="1" res="-2.4649448459967971e-04" rms="2.5436002016067505e-01" purity="2.6789814233779907e-01" nType="-99"/>
          <Node pos="r" depth="2" NCoef="0" IVar="-1" Cut="0.0000000000000000e+00" cType="1" res="1.5615513548254967e-03" rms="2.6172137260437012e-01" purity="7.4934679269790649e-01" nType="-99"/>
        </Node>
      </Node>
    </BinaryTree>
    <BinaryTree type="DecisionTree" boostWeight="1.0000000000000000e+00" itree="496">
      <Node pos="s" depth="0" NCoef="0" IVar="1" Cut="2.4835872650146484e+00" cType="1" res="3.0512874945998192e-02" rms="2.5082537531852722e-01" purity="4.9972075223922729e-01" nType="0">
        <Node pos="l" depth="1" NCoef="0" IVar="3" Cut="5.1576991081237793e+00" cType="1" res="-6.1664737761020660e-02" rms="1.8498332798480988e-01" purity="1.1118954420089722e-01" nType="0">
          <Node pos="l" depth="2" NCoef="0" IVar="-1" Cut="0.0000000000000000e+00" cType="1" res="-3.4527524840086699e-03" rms="1.4680755138397217e-01" purity="8.1199645996093750e-02" nType="-99"/>
          <Node pos="r" depth="2" NCoef="0" IVar="-1" Cut="0.0000000000000000e+00" cType="1" res="2.2765209432691336e-03" rms="3.0497026443481445e-01" purity="3.3450937271118164e-01" nType="-99"/>
        </Node>
        <Node pos="r" depth="1" NCoef="0" IVar="5" Cut="3.4471857547760010e-01" cType="1" res="5.1254134625196457e-02" rms="2.5889757275581360e-01" purity="5.8714568614959717e-01" nType="0">
          <Node pos="l" depth="2" NCoef="0" IVar="-1" Cut="0.0000000000000000e+00" cType="1" res="1.7871559830382466e-03" rms="2.3142965137958527e-01" purity="7.4494200944900513e-01" nType="-99"/>
          <Node pos="r" depth="2" NCoef="0" IVar="-1" Cut="0.0000000000000000e+00" cType="1" res="-1.3535420293919742e-04" rms="2.8992486000061035e-01" purity="3.2374191284179688e-01" nType="-99"/>
        </Node>
      </Node>
    </BinaryTree>
    <BinaryTree type="DecisionTree" boostWeight="1.0000000000000000e+00" itree="497">
      <Node pos="s" depth="0" NCoef="0" IVar="2" Cut="1.9167847633361816e+00" cType="1" res="3.4794993698596954e-02" rms="2.5865235924720764e-01" purity="5.0229227542877197e-01" nType="0">
        <Node pos="l" depth="1" NCoef="0" IVar="34" Cut="-1.3770914077758789e+00" cType="1" res="-4.8854604363441467e-02" rms="2.0867210626602173e-01" purity="1.7401839792728424e-01" nType="0">
          <Node pos="l" depth="2" NCoef="0" IVar="-1" Cut="0.0000000000000000e+00" cType="1" res="2.6835314929485321e-03" rms="2.9626598954200745e-01" purity="2.8355324268341064e-01" nType="-99"/>
          <Node pos="r" depth="2" NCoef="0" IVar="-1" Cut="0.0000000000000000e+00" cType="1" res="-3.3740324433892965e-03" rms="1.6441239416599274e-01" purity="1.4623729884624481e-01" nType="-99"/>
        </Node>
        <Node pos="r" depth="1" NCoef="0" IVar="10" Cut="2.9276392459869385e+00" cType="1" res="5.7437796145677567e-02" rms="2.6611408591270447e-01" purity="5.9115153551101685e-01" nType="0">
          <Node pos="l" depth="2" NCoef="0" IVar="-1" Cut="0.0000000000000000e+00" cType="1" res="-5.3528591524809599e-04" rms="2.7094295620918274e-01" purity="2.3361104726791382e-01" nType="-99"/>
          <Node pos="r" depth="2" NCoef="0" IVar="-1" Cut="0.0000000000000000e+00" cType="1" res="1.4659533044323325e-03" rms="2.6071554422378540e-01" purity="6.8498557806015015e-01" nType="-99"/>
        </Node>
      </Node>
    </BinaryTree>
    <BinaryTree type="DecisionTree" boostWeight="1.0000000000000000e+00" itree="498">
      <Node pos="s" depth="0" NCoef="0" IVar="27" Cut="1.3140293359756470e+00" cType="1" res="2.9341720044612885e-02" rms="2.5646108388900757e-01" purity="4.9523109197616577e-01" nType="0">
        <Node pos="l" depth="1" NCoef="0" IVar="1" Cut="2.6804754734039307e+00" cType="1" res="-5.7886831462383270e-02" rms="1.8887257575988770e-01" purity="1.7880296707153320e-01" nType="0">
          <Node pos="l" depth="2" NCoef="0" IVar="-1" Cut="0.0000000000000000e+00" cType="1" res="-5.8475197292864323e-03" rms="0.0000000000000000e+00" purity="4.6543881297111511e-02" nType="-99"/>
          <Node pos="r" depth="2" NCoef="0" IVar="-1" Cut="0.0000000000000000e+00" cType="1" res="6.8467110395431519e-04" rms="2.9603454470634460e-01" purity="4.0153774619102478e-01" nType="-99"/>
        </Node>
        <Node pos="r" depth="1" NCoef="0" IVar="5" Cut="3.6081039905548096e-01" cType="1" res="4.5161895453929901e-02" rms="2.6382002234458923e-01" purity="5.5261993408203125e-01" nType="0">
          <Node pos="l" depth="2" NCoef="0" IVar="-1" Cut="0.0000000000000000e+00" cType="1" res="1.5722247771918774e-03" rms="2.2589686512947083e-01" purity="7.1790087223052979e-01" nType="-99"/>
          <Node pos="r" depth="2" NCoef="0" IVar="-1" Cut="0.0000000000000000e+00" cType="1" res="-1.4914506755303591e-04" rms="3.1102651357650757e-01" purity="2.7213054895401001e-01" nType="-99"/>
        </Node>
      </Node>
    </BinaryTree>
    <BinaryTree type="DecisionTree" boostWeight="1.0000000000000000e+00" itree="499">
      <Node pos="s" depth="0" NCoef="0" IVar="3" Cut="4.9831795692443848e+00" cType="1" res="3.4217782318592072e-02" rms="2.5471463799476624e-01" purity="5.0158321857452393e-01" nType="0">
        <Node pos="l" depth="1" NCoef="0" IVar="48" Cut="1.1143566370010376e+00" cType="1" res="1.2926571071147919e-02" rms="2.4600541591644287e-01" purity="4.7778791189193726e-01" nType="0">
          <Node pos="l" depth="2" NCoef="0" IVar="-1" Cut="0.0000000000000000e+00" cType="1" res="-2.9252585954964161e-03" rms="1.7559583485126495e-01" purity="8.1308975815773010e-02" nType="-99"/>
          <Node pos="r" depth="2" NCoef="0" IVar="-1" Cut="0.0000000000000000e+00" cType="1" res="6.7416968522593379e-04" rms="2.5149428844451904e-01" purity="5.4653650522232056e-01" nType="-99"/>
        </Node>
        <Node pos="r" depth="1" NCoef="0" IVar="17" Cut="-7.1999853849411011e-01" cType="1" res="1.1718649417161942e-01" rms="2.7059742808341980e-01" purity="5.9430974721908569e-01" nType="0">
          <Node pos="l" depth="2" NCoef="0" IVar="-1" Cut="0.0000000000000000e+00" cType="1" res="-5.7502272538840771e-03" rms="8.0689832568168640e-02" purity="9.9187083542346954e-03" nType="-99"/>
          <Node pos="r" depth="2" NCoef="0" IVar="-1" Cut="0.0000000000000000e+00" cType="1" res="2.4892920628190041e-03" rms="2.9059544205665588e-01" purity="7.5042927265167236e-01" nType="-99"/>
        </Node>
      </Node>
    </BinaryTree>
    <BinaryTree type="DecisionTree" boostWeight="1.0000000000000000e+00" itree="500">
      <Node pos="s" depth="0" NCoef="0" IVar="2" Cut="1.9878678321838379e+00" cType="1" res="2.8808932751417160e-02" rms="2.4837975203990936e-01" purity="4.9706691503524780e-01" nType="0">
        <Node pos="l" depth="1" NCoef="0" IVar="3" Cut="5.0064024925231934e+00" cType="1" res="-4.1141752153635025e-02" rms="2.2015017271041870e-01" purity="1.8915706872940063e-01" nType="0">
          <Node pos="l" depth="2" NCoef="0" IVar="-1" Cut="0.0000000000000000e+00" cType="1" res="-3.5348178353160620e-03" rms="1.8087102472782135e-01" purity="1.3434579968452454e-01" nType="-99"/>
          <Node pos="r" depth="2" NCoef="0" IVar="-1" Cut="0.0000000000000000e+00" cType="1" res="1.2209560954943299e-03" rms="2.7230328321456909e-01" purity="3.1498125195503235e-01" nType="-99"/>
        </Node>
        <Node pos="r" depth="1" NCoef="0" IVar="36" Cut="9.4337713718414307e-01" cType="1" res="5.1295187324285507e-02" rms="2.5271660089492798e-01" purity="5.9604722261428833e-01" nType="0">
          <Node pos="l" depth="2" NCoef="0" IVar="-1" Cut="0.0000000000000000e+00" cType="1" res="-7.2427862323820591e-03" rms="5.7171028107404709e-02" purity="1.2965091504156590e-02" nType="-99"/>
          <Node pos="r" depth="2" NCoef="0" IVar="-1" Cut="0.0000000000000000e+00" cType="1" res="1.1716004228219390e-03" rms="2.6534029841423035e-01" purity="6.8189245462417603e-01" nType="-99"/>
        </Node>
      </Node>
    </BinaryTree>
    <BinaryTree type="DecisionTree" boostWeight="1.0000000000000000e+00" itree="501">
      <Node pos="s" depth="0" NCoef="0" IVar="5" Cut="3.0350676178932190e-01" cType="1" res="2.6799615472555161e-02" rms="2.5494238734245300e-01" purity="5.0042843818664551e-01" nType="0">
        <Node pos="l" depth="1" NCoef="0" IVar="52" Cut="2.2841312885284424e+00" cType="1" res="6.8241611123085022e-02" rms="2.4173799157142639e-01" purity="6.6546082496643066e-01" nType="0">
          <Node pos="l" depth="2" NCoef="0" IVar="-1" Cut="0.0000000000000000e+00" cType="1" res="-3.2197888940572739e-03" rms="0.0000000000000000e+00" purity="2.2306899726390839e-01" nType="-99"/>
          <Node pos="r" depth="2" NCoef="0" IVar="-1" Cut="0.0000000000000000e+00" cType="1" res="1.8343008123338223e-03" rms="2.4697673320770264e-01" purity="6.9424176216125488e-01" nType="-99"/>
        </Node>
        <Node pos="r" depth="1" NCoef="0" IVar="17" Cut="1.5207976102828979e+00" cType="1" res="-2.8745142742991447e-02" rms="2.6153144240379333e-01" purity="2.7923530340194702e-01" nType="0">
          <Node pos="l" depth="2" NCoef="0" IVar="-1" Cut="0.0000000000000000e+00" cType="1" res="-1.6569707076996565e-03" rms="2.0945350825786591e-01" purity="1.1118999123573303e-01" nType="-99"/>
          <Node pos="r" depth="2" NCoef="0" IVar="-1" Cut="0.0000000000000000e+00" cType="1" res="7.5347744859755039e-04" rms="3.5893571376800537e-01" purity="7.6733636856079102e-01" nType="-99"/>
        </Node>
      </Node>
    </BinaryTree>
    <BinaryTree type="DecisionTree" boostWeight="1.0000000000000000e+00" itree="502">
      <Node pos="s" depth="0" NCoef="0" IVar="17" Cut="1.5220416784286499e+00" cType="1" res="3.2136280089616776e-02" rms="2.5050461292266846e-01" purity="5.0760042667388916e-01" nType="0">
        <Node pos="l" depth="1" NCoef="0" IVar="2" Cut="2.9170892238616943e+00" cType="1" res="1.4684525085613132e-03" rms="2.4621318280696869e-01" purity="2.7034276723861694e-01" nType="0">
          <Node pos="l" depth="2" NCoef="0" IVar="-1" Cut="0.0000000000000000e+00" cType="1" res="-7.2779052425175905e-04" rms="2.2719456255435944e-01" purity="1.9065912067890167e-01" nType="-99"/>
          <Node pos="r" depth="2" NCoef="0" IVar="-1" Cut="0.0000000000000000e+00" cType="1" res="1.4070452889427543e-03" rms="2.8536924719810486e-01" purity="5.3497320413589478e-01" nType="-99"/>
        </Node>
        <Node pos="r" depth="1" NCoef="0" IVar="15" Cut="1.5224903821945190e+00" cType="1" res="7.9214885830879211e-02" rms="2.4972917139530182e-01" purity="8.7181788682937622e-01" nType="0">
          <Node pos="l" depth="2" NCoef="0" IVar="-1" Cut="0.0000000000000000e+00" cType="1" res="1.9655467476695776e-03" rms="1.9664607942104340e-01" purity="9.3384325504302979e-01" nType="-99"/>
          <Node pos="r" depth="2" NCoef="0" IVar="-1" Cut="0.0000000000000000e+00" cType="1" res="-2.4548638612031937e-04" rms="3.7188947200775146e-01" purity="6.4233136177062988e-01" nType="-99"/>
        </Node>
      </Node>
    </BinaryTree>
    <BinaryTree type="DecisionTree" boostWeight="1.0000000000000000e+00" itree="503">
      <Node pos="s" depth="0" NCoef="0" IVar="15" Cut="1.5219346284866333e+00" cType="1" res="3.1524796038866043e-02" rms="2.5302237272262573e-01" purity="5.0529968738555908e-01" nType="0">
        <Node pos="l" depth="1" NCoef="0" IVar="17" Cut="1.3284697532653809e+00" cType="1" res="4.5585941523313522e-02" rms="2.3736709356307983e-01" purity="5.1036942005157471e-01" nType="0">
          <Node pos="l" depth="2" NCoef="0" IVar="-1" Cut="0.0000000000000000e+00" cType="1" res="-5.6815957650542259e-03" rms="7.8225627541542053e-02" purity="8.4349447861313820e-03" nType="-99"/>
          <Node pos="r" depth="2" NCoef="0" IVar="-1" Cut="0.0000000000000000e+00" cType="1" res="1.1705629294738173e-03" rms="2.7614668011665344e-01" purity="7.3593354225158691e-01" nType="-99"/>
        </Node>
        <Node pos="r" depth="1" NCoef="0" IVar="66" Cut="1.2345679104328156e-02" cType="1" res="-8.2216337323188782e-02" rms="3.3404338359832764e-01" purity="4.6429067850112915e-01" nType="0">
          <Node pos="l" depth="2" NCoef="0" IVar="-1" Cut="0.0000000000000000e+00" cType="1" res="-4.8581752926111221e-03" rms="2.8960606455802917e-01" purity="2.3519413173198700e-01" nType="-99"/>
          <Node pos="r" depth="2" NCoef="0" IVar="-1" Cut="0.0000000000000000e+00" cType="1" res="2.8973931330256164e-04" rms="3.3026432991027832e-01" purity="6.3941472768783569e-01" nType="-99"/>
        </Node>
      </Node>
    </BinaryTree>
    <BinaryTree type="DecisionTree" boostWeight="1.0000000000000000e+00" itree="504">
      <Node pos="s" depth="0" NCoef="0" IVar="3" Cut="4.8825283050537109e+00" cType="1" res="3.0088596045970917e-02" rms="2.5633341073989868e-01" purity="4.9469399452209473e-01" nType="0">
        <Node pos="l" depth="1" NCoef="0" IVar="2" Cut="2.6999154090881348e+00" cType="1" res="-4.0638251812197268e-04" rms="2.4480848014354706e-01" purity="4.4496789574623108e-01" nType="0">
          <Node pos="l" depth="2" NCoef="0" IVar="-1" Cut="0.0000000000000000e+00" cType="1" res="-1.4051764737814665e-03" rms="2.1474376320838928e-01" purity="2.9741171002388000e-01" nType="-99"/>
          <Node pos="r" depth="2" NCoef="0" IVar="-1" Cut="0.0000000000000000e+00" cType="1" res="1.2087963987141848e-03" rms="2.6648339629173279e-01" purity="6.4655017852783203e-01" nType="-99"/>
        </Node>
        <Node pos="r" depth="1" NCoef="0" IVar="15" Cut="1.4810121059417725e+00" cType="1" res="9.8734058439731598e-02" rms="2.6814633607864380e-01" purity="6.0662961006164551e-01" nType="0">
          <Node pos="l" depth="2" NCoef="0" IVar="-1" Cut="0.0000000000000000e+00" cType="1" res="2.5227745063602924e-03" rms="2.6414939761161804e-01" purity="6.2007290124893188e-01" nType="-99"/>
          <Node pos="r" depth="2" NCoef="0" IVar="-1" Cut="0.0000000000000000e+00" cType="1" res="-6.6867662826552987e-04" rms="2.5059866905212402e-01" purity="5.3823989629745483e-01" nType="-99"/>
        </Node>
      </Node>
    </BinaryTree>
    <BinaryTree type="DecisionTree" boostWeight="1.0000000000000000e+00" itree="505">
      <Node pos="s" depth="0" NCoef="0" IVar="5" Cut="4.3398344516754150e-01" cType="1" res="2.5393521413207054e-02" rms="2.3739244043827057e-01" purity="5.0496768951416016e-01" nType="0">
        <Node pos="l" depth="1" NCoef="0" IVar="36" Cut="1.4067025184631348e+00" cType="1" res="5.0837289541959763e-02" rms="2.2499465942382812e-01" purity="6.1263209581375122e-01" nType="0">
          <Node pos="l" depth="2" NCoef="0" IVar="-1" Cut="0.0000000000000000e+00" cType="1" res="-1.7586064059287310e-03" rms="1.5407656133174896e-01" purity="1.3238818943500519e-01" nType="-99"/>
          <Node pos="r" depth="2" NCoef="0" IVar="-1" Cut="0.0000000000000000e+00" cType="1" res="1.4415603363886476e-03" rms="2.3639604449272156e-01" purity="7.7049547433853149e-01" nType="-99"/>
        </Node>
        <Node pos="r" depth="1" NCoef="0" IVar="6" Cut="2.0932250022888184e+00" cType="1" res="-5.1199540495872498e-02" rms="2.5650838017463684e-01" purity="1.8086698651313782e-01" nType="0">
          <Node pos="l" depth="2" NCoef="0" IVar="-1" Cut="0.0000000000000000e+00" cType="1" res="-4.1513843461871147e-03" rms="1.1512427777051926e-01" purity="1.6637323424220085e-02" nType="-99"/>
          <Node pos="r" depth="2" NCoef="0" IVar="-1" Cut="0.0000000000000000e+00" cType="1" res="1.3604100968223065e-04" rms="3.3051520586013794e-01" purity="3.3883053064346313e-01" nType="-99"/>
        </Node>
      </Node>
    </BinaryTree>
    <BinaryTree type="DecisionTree" boostWeight="1.0000000000000000e+00" itree="506">
      <Node pos="s" depth="0" NCoef="0" IVar="48" Cut="8.5865533351898193e-01" cType="1" res="3.4147765487432480e-02" rms="2.5107803940773010e-01" purity="5.1357728242874146e-01" nType="0">
        <Node pos="l" depth="1" NCoef="0" IVar="56" Cut="-1.4927178621292114e+00" cType="1" res="-1.1362953484058380e-01" rms="1.1403088271617889e-01" purity="4.7430921345949173e-02" nType="0">
          <Node pos="l" depth="2" NCoef="0" IVar="-1" Cut="0.0000000000000000e+00" cType="1" res="-1.1117414571344852e-02" rms="0.0000000000000000e+00" purity="-2.0706067979335785e-01" nType="-99"/>
          <Node pos="r" depth="2" NCoef="0" IVar="-1" Cut="0.0000000000000000e+00" cType="1" res="-1.5467153862118721e-03" rms="2.3588405549526215e-01" purity="1.3504287600517273e-01" nType="-99"/>
        </Node>
        <Node pos="r" depth="1" NCoef="0" IVar="17" Cut="1.4457910060882568e+00" cType="1" res="4.6800378710031509e-02" rms="2.5552785396575928e-01" purity="5.5348849296569824e-01" nType="0">
          <Node pos="l" depth="2" NCoef="0" IVar="-1" Cut="0.0000000000000000e+00" cType="1" res="-1.6511115245521069e-03" rms="1.4400540292263031e-01" purity="3.2263997942209244e-02" nType="-99"/>
          <Node pos="r" depth="2" NCoef="0" IVar="-1" Cut="0.0000000000000000e+00" cType="1" res="1.1398803908377886e-03" rms="2.8957626223564148e-01" purity="8.0064374208450317e-01" nType="-99"/>
        </Node>
      </Node>
    </BinaryTree>
    <BinaryTree type="DecisionTree" boostWeight="1.0000000000000000e+00" itree="507">
      <Node pos="s" depth="0" NCoef="0" IVar="5" Cut="4.3398344516754150e-01" cType="1" res="2.8207693248987198e-02" rms="2.5081747770309448e-01" purity="4.9434548616409302e-01" nType="0">
        <Node pos="l" depth="1" NCoef="0" IVar="48" Cut="1.0273160934448242e+00" cType="1" res="5.2326463162899017e-02" rms="2.4129967391490936e-01" purity="5.9977835416793823e-01" nType="0">
          <Node pos="l" depth="2" NCoef="0" IVar="-1" Cut="0.0000000000000000e+00" cType="1" res="-1.9318610429763794e-03" rms="1.9891241192817688e-01" purity="1.3054995238780975e-01" nType="-99"/>
          <Node pos="r" depth="2" NCoef="0" IVar="-1" Cut="0.0000000000000000e+00" cType="1" res="1.4922742266207933e-03" rms="2.4148446321487427e-01" purity="6.6959774494171143e-01" nType="-99"/>
        </Node>
        <Node pos="r" depth="1" NCoef="0" IVar="34" Cut="-1.4926255941390991e+00" cType="1" res="-4.2154200375080109e-02" rms="2.6443502306938171e-01" purity="1.8676529824733734e-01" nType="0">
          <Node pos="l" depth="2" NCoef="0" IVar="-1" Cut="0.0000000000000000e+00" cType="1" res="3.2967401202768087e-03" rms="3.8070681691169739e-01" purity="4.4951412081718445e-01" nType="-99"/>
          <Node pos="r" depth="2" NCoef="0" IVar="-1" Cut="0.0000000000000000e+00" cType="1" res="-1.4779129996895790e-03" rms="2.4257399141788483e-01" purity="1.6357088088989258e-01" nType="-99"/>
        </Node>
      </Node>
    </BinaryTree>
    <BinaryTree type="DecisionTree" boostWeight="1.0000000000000000e+00" itree="508">
      <Node pos="s" depth="0" NCoef="0" IVar="5" Cut="3.9507710933685303e-01" cType="1" res="3.3063959330320358e-02" rms="2.5390952825546265e-01" purity="5.0723326206207275e-01" nType="0">
        <Node pos="l" depth="1" NCoef="0" IVar="17" Cut="1.1365000009536743e+00" cType="1" res="6.1028819531202316e-02" rms="2.3428377509117126e-01" purity="6.2428647279739380e-01" nType="0">
          <Node pos="l" depth="2" NCoef="0" IVar="-1" Cut="0.0000000000000000e+00" cType="1" res="-1.2996096163988113e-02" rms="0.0000000000000000e+00" purity="-1.2723920866847038e-02" nType="-99"/>
          <Node pos="r" depth="2" NCoef="0" IVar="-1" Cut="0.0000000000000000e+00" cType="1" res="1.5393205685541034e-03" rms="2.6136988401412964e-01" purity="7.7289873361587524e-01" nType="-99"/>
        </Node>
        <Node pos="r" depth="1" NCoef="0" IVar="52" Cut="3.3920085430145264e+00" cType="1" res="-3.4181021153926849e-02" rms="2.8479251265525818e-01" purity="2.2576439380645752e-01" nType="0">
          <Node pos="l" depth="2" NCoef="0" IVar="-1" Cut="0.0000000000000000e+00" cType="1" res="-2.3807707475498319e-04" rms="3.0030471086502075e-01" purity="2.5006511807441711e-01" nType="-99"/>
          <Node pos="r" depth="2" NCoef="0" IVar="-1" Cut="0.0000000000000000e+00" cType="1" res="-4.3287090957164764e-03" rms="9.1266117990016937e-02" purity="8.6320795118808746e-02" nType="-99"/>
        </Node>
      </Node>
    </BinaryTree>
    <BinaryTree type="DecisionTree" boostWeight="1.0000000000000000e+00" itree="509">
      <Node pos="s" depth="0" NCoef="0" IVar="36" Cut="1.3292280435562134e+00" cType="1" res="3.1806562095880508e-02" rms="2.5827300548553467e-01" purity="4.9823829531669617e-01" nType="0">
        <Node pos="l" depth="1" NCoef="0" IVar="0" Cut="1.0619534254074097e+00" cType="1" res="-4.1088432073593140e-02" rms="1.2605074048042297e-01" purity="6.4150869846343994e-02" nType="0">
          <Node pos="l" depth="2" NCoef="0" IVar="-1" Cut="0.0000000000000000e+00" cType="1" res="-1.7979533877223730e-03" rms="1.5819984674453735e-01" purity="7.9449370503425598e-02" nType="-99"/>
          <Node pos="r" depth="2" NCoef="0" IVar="-1" Cut="0.0000000000000000e+00" cType="1" res="-1.2805274687707424e-02" rms="0.0000000000000000e+00" purity="-6.9430872797966003e-02" nType="-99"/>
        </Node>
        <Node pos="r" depth="1" NCoef="0" IVar="5" Cut="4.3125545978546143e-01" cType="1" res="5.4256368428468704e-02" rms="2.8322175145149231e-01" purity="6.3192617893218994e-01" nType="0">
          <Node pos="l" depth="2" NCoef="0" IVar="-1" Cut="0.0000000000000000e+00" cType="1" res="1.5234919264912605e-03" rms="2.6443243026733398e-01" purity="7.4587941169738770e-01" nType="-99"/>
          <Node pos="r" depth="2" NCoef="0" IVar="-1" Cut="0.0000000000000000e+00" cType="1" res="-6.5600487869232893e-04" rms="3.2053387165069580e-01" purity="2.6362299919128418e-01" nType="-99"/>
        </Node>
      </Node>
    </BinaryTree>
    <BinaryTree type="DecisionTree" boostWeight="1.0000000000000000e+00" itree="510">
      <Node pos="s" depth="0" NCoef="0" IVar="1" Cut="2.3231873512268066e+00" cType="1" res="3.5115465521812439e-02" rms="2.5644600391387939e-01" purity="5.0760120153427124e-01" nType="0">
        <Node pos="l" depth="1" NCoef="0" IVar="13" Cut="1.4747335910797119e+00" cType="1" res="-6.8984352052211761e-02" rms="1.7570698261260986e-01" purity="7.0094965398311615e-02" nType="0">
          <Node pos="l" depth="2" NCoef="0" IVar="-1" Cut="0.0000000000000000e+00" cType="1" res="9.0862689830828458e-05" rms="1.6836233437061310e-01" purity="7.8776530921459198e-02" nType="-99"/>
          <Node pos="r" depth="2" NCoef="0" IVar="-1" Cut="0.0000000000000000e+00" cType="1" res="-4.9149794504046440e-03" rms="1.0326599329710007e-01" purity="5.4571356624364853e-02" nType="-99"/>
        </Node>
        <Node pos="r" depth="1" NCoef="0" IVar="5" Cut="2.8784960508346558e-01" cType="1" res="5.0724767148494720e-02" rms="2.6292169094085693e-01" purity="5.7320320606231689e-01" nType="0">
          <Node pos="l" depth="2" NCoef="0" IVar="-1" Cut="0.0000000000000000e+00" cType="1" res="1.9093344453722239e-03" rms="2.2940357029438019e-01" purity="7.6464736461639404e-01" nType="-99"/>
          <Node pos="r" depth="2" NCoef="0" IVar="-1" Cut="0.0000000000000000e+00" cType="1" res="6.0654550907202065e-05" rms="2.9088583588600159e-01" purity="3.4490850567817688e-01" nType="-99"/>
        </Node>
      </Node>
    </BinaryTree>
    <BinaryTree type="DecisionTree" boostWeight="1.0000000000000000e+00" itree="511">
      <Node pos="s" depth="0" NCoef="0" IVar="15" Cut="1.5215698480606079e+00" cType="1" res="2.8029697015881538e-02" rms="2.5281792879104614e-01" purity="5.0014150142669678e-01" nType="0">
        <Node pos="l" depth="1" NCoef="0" IVar="2" Cut="1.3135913610458374e+00" cType="1" res="4.4716294854879379e-02" rms="2.3599019646644592e-01" purity="5.0773715972900391e-01" nType="0">
          <Node pos="l" depth="2" NCoef="0" IVar="-1" Cut="0.0000000000000000e+00" cType="1" res="-1.0563657619059086e-02" rms="0.0000000000000000e+00" purity="5.1836180500686169e-03" nType="-99"/>
          <Node pos="r" depth="2" NCoef="0" IVar="-1" Cut="0.0000000000000000e+00" cType="1" res="1.2113509001210332e-03" rms="2.4285741150379181e-01" purity="5.4070454835891724e-01" nType="-99"/>
        </Node>
        <Node pos="r" depth="1" NCoef="0" IVar="58" Cut="-7.9947263002395630e-01" cType="1" res="-1.0115689784288406e-01" rms="3.2977813482284546e-01" purity="4.4133621454238892e-01" nType="0">
          <Node pos="l" depth="2" NCoef="0" IVar="-1" Cut="0.0000000000000000e+00" cType="1" res="-4.6867094351910055e-04" rms="3.3060270547866821e-01" purity="5.5715256929397583e-01" nType="-99"/>
          <Node pos="r" depth="2" NCoef="0" IVar="-1" Cut="0.0000000000000000e+00" cType="1" res="-7.0278365164995193e-03" rms="2.5020599365234375e-01" purity="1.6150392591953278e-01" nType="-99"/>
        </Node>
      </Node>
    </BinaryTree>
    <BinaryTree type="DecisionTree" boostWeight="1.0000000000000000e+00" itree="512">
      <Node pos="s" depth="0" NCoef="0" IVar="1" Cut="2.7940342426300049e+00" cType="1" res="2.6607509702444077e-02" rms="2.4719823896884918e-01" purity="4.9354794621467590e-01" nType="0">
        <Node pos="l" depth="1" NCoef="0" IVar="3" Cut="4.8243784904479980e+00" cType="1" res="-2.8149811550974846e-02" rms="2.3176074028015137e-01" purity="2.2124683856964111e-01" nType="0">
          <Node pos="l" depth="2" NCoef="0" IVar="-1" Cut="0.0000000000000000e+00" cType="1" res="-3.1198393553495407e-03" rms="1.5701586008071899e-01" purity="1.1899843811988831e-01" nType="-99"/>
          <Node pos="r" depth="2" NCoef="0" IVar="-1" Cut="0.0000000000000000e+00" cType="1" res="1.0648409370332956e-03" rms="2.9484668374061584e-01" purity="3.7199544906616211e-01" nType="-99"/>
        </Node>
        <Node pos="r" depth="1" NCoef="0" IVar="5" Cut="3.4346985816955566e-01" cType="1" res="5.2908740937709808e-02" rms="2.5005301833152771e-01" purity="6.2434059381484985e-01" nType="0">
          <Node pos="l" depth="2" NCoef="0" IVar="-1" Cut="0.0000000000000000e+00" cType="1" res="1.8819471588358283e-03" rms="2.1997439861297607e-01" purity="7.8355878591537476e-01" nType="-99"/>
          <Node pos="r" depth="2" NCoef="0" IVar="-1" Cut="0.0000000000000000e+00" cType="1" res="-2.1718165953643620e-04" rms="2.8574699163436890e-01" purity="3.3528414368629456e-01" nType="-99"/>
        </Node>
      </Node>
    </BinaryTree>
    <BinaryTree type="DecisionTree" boostWeight="1.0000000000000000e+00" itree="513">
      <Node pos="s" depth="0" NCoef="0" IVar="3" Cut="4.9213547706604004e+00" cType="1" res="3.5135313868522644e-02" rms="2.6483833789825439e-01" purity="4.9935969710350037e-01" nType="0">
        <Node pos="l" depth="1" NCoef="0" IVar="2" Cut="2.4082691669464111e+00" cType="1" res="7.5256479904055595e-03" rms="2.5546991825103760e-01" purity="4.6227979660034180e-01" nType="0">
          <Node pos="l" depth="2" NCoef="0" IVar="-1" Cut="0.0000000000000000e+00" cType="1" res="-1.8056881381198764e-03" rms="2.1446630358695984e-01" purity="2.3731799423694611e-01" nType="-99"/>
          <Node pos="r" depth="2" NCoef="0" IVar="-1" Cut="0.0000000000000000e+00" cType="1" res="8.9100544573739171e-04" rms="2.7187198400497437e-01" purity="6.1001682281494141e-01" nType="-99"/>
        </Node>
        <Node pos="r" depth="1" NCoef="0" IVar="52" Cut="3.3961846828460693e+00" cType="1" res="1.1535323411226273e-01" rms="2.7504917979240417e-01" purity="6.0709279775619507e-01" nType="0">
          <Node pos="l" depth="2" NCoef="0" IVar="-1" Cut="0.0000000000000000e+00" cType="1" res="2.9528599698096514e-03" rms="2.9514387249946594e-01" purity="6.5014636516571045e-01" nType="-99"/>
          <Node pos="r" depth="2" NCoef="0" IVar="-1" Cut="0.0000000000000000e+00" cType="1" res="-8.1000424688681960e-04" rms="0.0000000000000000e+00" purity="4.1634428501129150e-01" nType="-99"/>
        </Node>
      </Node>
    </BinaryTree>
    <BinaryTree type="DecisionTree" boostWeight="1.0000000000000000e+00" itree="514">
      <Node pos="s" depth="0" NCoef="0" IVar="36" Cut="1.3294904232025146e+00" cType="1" res="2.9673859477043152e-02" rms="2.5179800391197205e-01" purity="5.0535833835601807e-01" nType="0">
        <Node pos="l" depth="1" NCoef="0" IVar="38" Cut="-1.4155257940292358e+00" cType="1" res="-4.2702145874500275e-02" rms="1.1959568411111832e-01" purity="6.7356444895267487e-02" nType="0">
          <Node pos="l" depth="2" NCoef="0" IVar="-1" Cut="0.0000000000000000e+00" cType="1" res="1.9589297007769346e-03" rms="2.5811517238616943e-01" purity="1.8820756673812866e-01" nType="-99"/>
          <Node pos="r" depth="2" NCoef="0" IVar="-1" Cut="0.0000000000000000e+00" cType="1" res="-6.6772378049790859e-03" rms="0.0000000000000000e+00" purity="1.8801774829626083e-02" nType="-99"/>
        </Node>
        <Node pos="r" depth="1" NCoef="0" IVar="5" Cut="4.5310068130493164e-01" cType="1" res="5.1383875310420990e-02" rms="2.7583956718444824e-01" purity="6.3674199581146240e-01" nType="0">
          <Node pos="l" depth="2" NCoef="0" IVar="-1" Cut="0.0000000000000000e+00" cType="1" res="1.4281490584835410e-03" rms="2.6391643285751343e-01" purity="7.4107688665390015e-01" nType="-99"/>
          <Node pos="r" depth="2" NCoef="0" IVar="-1" Cut="0.0000000000000000e+00" cType="1" res="-8.2395126810297370e-04" rms="2.9871910810470581e-01" purity="2.3757694661617279e-01" nType="-99"/>
        </Node>
      </Node>
    </BinaryTree>
    <BinaryTree type="DecisionTree" boostWeight="1.0000000000000000e+00" itree="515">
      <Node pos="s" depth="0" NCoef="0" IVar="2" Cut="2.4618825912475586e+00" cType="1" res="2.7315251529216766e-02" rms="2.4923509359359741e-01" purity="4.9803754687309265e-01" nType="0">
        <Node pos="l" depth="1" NCoef="0" IVar="48" Cut="9.3989658355712891e-01" cType="1" res="-1.4881917275488377e-02" rms="2.3089519143104553e-01" purity="3.2177391648292542e-01" nType="0">
          <Node pos="l" depth="2" NCoef="0" IVar="-1" Cut="0.0000000000000000e+00" cType="1" res="-4.2688967660069466e-03" rms="0.0000000000000000e+00" purity="2.9337942600250244e-02" nType="-99"/>
          <Node pos="r" depth="2" NCoef="0" IVar="-1" Cut="0.0000000000000000e+00" cType="1" res="1.8278750940226018e-04" rms="2.5587540864944458e-01" purity="3.8433882594108582e-01" nType="-99"/>
        </Node>
        <Node pos="r" depth="1" NCoef="0" IVar="5" Cut="4.3615862727165222e-01" cType="1" res="6.5164260566234589e-02" rms="2.5881779193878174e-01" purity="6.5613830089569092e-01" nType="0">
          <Node pos="l" depth="2" NCoef="0" IVar="-1" Cut="0.0000000000000000e+00" cType="1" res="1.7686384962871671e-03" rms="2.3566660284996033e-01" purity="7.7343469858169556e-01" nType="-99"/>
          <Node pos="r" depth="2" NCoef="0" IVar="-1" Cut="0.0000000000000000e+00" cType="1" res="-3.6663794890046120e-04" rms="3.0485349893569946e-01" purity="2.9042947292327881e-01" nType="-99"/>
        </Node>
      </Node>
    </BinaryTree>
    <BinaryTree type="DecisionTree" boostWeight="1.0000000000000000e+00" itree="516">
      <Node pos="s" depth="0" NCoef="0" IVar="48" Cut="9.1856032609939575e-01" cType="1" res="2.8433164581656456e-02" rms="2.4875397980213165e-01" purity="5.0043290853500366e-01" nType="0">
        <Node pos="l" depth="1" NCoef="0" IVar="36" Cut="1.4825825691223145e+00" cType="1" res="-9.8056733608245850e-02" rms="1.4545978605747223e-01" purity="5.6579101830720901e-02" nType="0">
          <Node pos="l" depth="2" NCoef="0" IVar="-1" Cut="0.0000000000000000e+00" cType="1" res="-2.1882611326873302e-03" rms="1.9111834466457367e-01" purity="5.6155923753976822e-02" nType="-99"/>
          <Node pos="r" depth="2" NCoef="0" IVar="-1" Cut="0.0000000000000000e+00" cType="1" res="-3.4811312798410654e-03" rms="0.0000000000000000e+00" purity="5.7369478046894073e-02" nType="-99"/>
        </Node>
        <Node pos="r" depth="1" NCoef="0" IVar="14" Cut="-1.2993521690368652e+00" cType="1" res="4.1712366044521332e-02" rms="2.5356933474540710e-01" purity="5.4702979326248169e-01" nType="0">
          <Node pos="l" depth="2" NCoef="0" IVar="-1" Cut="0.0000000000000000e+00" cType="1" res="-5.8920320589095354e-04" rms="2.3593498766422272e-01" purity="2.7478012442588806e-01" nType="-99"/>
          <Node pos="r" depth="2" NCoef="0" IVar="-1" Cut="0.0000000000000000e+00" cType="1" res="1.3018295867368579e-03" rms="2.5605508685112000e-01" purity="6.5390008687973022e-01" nType="-99"/>
        </Node>
      </Node>
    </BinaryTree>
    <BinaryTree type="DecisionTree" boostWeight="1.0000000000000000e+00" itree="517">
      <Node pos="s" depth="0" NCoef="0" IVar="48" Cut="9.6669495105743408e-01" cType="1" res="2.9745386913418770e-02" rms="2.5221854448318481e-01" purity="5.0261437892913818e-01" nType="0">
        <Node pos="l" depth="1" NCoef="0" IVar="4" Cut="3.6273260116577148e+00" cType="1" res="-9.1393344104290009e-02" rms="1.1535745114088058e-01" purity="7.4425704777240753e-02" nType="0">
          <Node pos="l" depth="2" NCoef="0" IVar="-1" Cut="0.0000000000000000e+00" cType="1" res="-1.6976238694041967e-03" rms="2.2426675260066986e-01" purity="1.0058590024709702e-01" nType="-99"/>
          <Node pos="r" depth="2" NCoef="0" IVar="-1" Cut="0.0000000000000000e+00" cType="1" res="-5.6030740961432457e-03" rms="0.0000000000000000e+00" purity="-2.8398139402270317e-02" nType="-99"/>
        </Node>
        <Node pos="r" depth="1" NCoef="0" IVar="18" Cut="-1.1668176651000977e+00" cType="1" res="4.4874399900436401e-02" rms="2.6045233011245728e-01" purity="5.5609083175659180e-01" nType="0">
          <Node pos="l" depth="2" NCoef="0" IVar="-1" Cut="0.0000000000000000e+00" cType="1" res="1.2751372996717691e-03" rms="2.6266846060752869e-01" purity="5.9525513648986816e-01" nType="-99"/>
          <Node pos="r" depth="2" NCoef="0" IVar="-1" Cut="0.0000000000000000e+00" cType="1" res="-3.0062352307140827e-03" rms="1.9459687173366547e-01" purity="2.4852314591407776e-01" nType="-99"/>
        </Node>
      </Node>
    </BinaryTree>
    <BinaryTree type="DecisionTree" boostWeight="1.0000000000000000e+00" itree="518">
      <Node pos="s" depth="0" NCoef="0" IVar="1" Cut="2.0795083045959473e+00" cType="1" res="2.1552074700593948e-02" rms="2.4728058278560638e-01" purity="4.9592256546020508e-01" nType="0">
        <Node pos="l" depth="1" NCoef="0" IVar="52" Cut="2.6518666744232178e+00" cType="1" res="-6.1494023539125919e-03" rms="0.0000000000000000e+00" purity="-1.2059892527759075e-02" nType="-99"/>
        <Node pos="r" depth="1" NCoef="0" IVar="5" Cut="3.4322205185890198e-01" cType="1" res="3.4065023064613342e-02" rms="2.5854888558387756e-01" purity="5.3601062297821045e-01" nType="0">
          <Node pos="l" depth="2" NCoef="0" IVar="-1" Cut="0.0000000000000000e+00" cType="1" res="1.4876226196065545e-03" rms="2.3489555716514587e-01" purity="6.9487720727920532e-01" nType="-99"/>
          <Node pos="r" depth="2" NCoef="0" IVar="-1" Cut="0.0000000000000000e+00" cType="1" res="-4.7037843614816666e-04" rms="2.8562515974044800e-01" purity="2.6449331641197205e-01" nType="-99"/>
        </Node>
      </Node>
    </BinaryTree>
    <BinaryTree type="DecisionTree" boostWeight="1.0000000000000000e+00" itree="519">
      <Node pos="s" depth="0" NCoef="0" IVar="0" Cut="6.9982576370239258e-01" cType="1" res="2.4824582040309906e-02" rms="2.4280229210853577e-01" purity="4.9789592623710632e-01" nType="0">
        <Node pos="l" depth="1" NCoef="0" IVar="2" Cut="1.9302512407302856e+00" cType="1" res="5.7030223309993744e-02" rms="2.5477614998817444e-01" purity="5.6358897686004639e-01" nType="0">
          <Node pos="l" depth="2" NCoef="0" IVar="-1" Cut="0.0000000000000000e+00" cType="1" res="-1.7104874132201076e-03" rms="1.9598589837551117e-01" purity="2.2690194845199585e-01" nType="-99"/>
          <Node pos="r" depth="2" NCoef="0" IVar="-1" Cut="0.0000000000000000e+00" cType="1" res="1.5929368091747165e-03" rms="2.6203832030296326e-01" purity="6.5522617101669312e-01" nType="-99"/>
        </Node>
        <Node pos="r" depth="1" NCoef="0" IVar="10" Cut="3.3968756198883057e+00" cType="1" res="-3.2608851790428162e-02" rms="2.0779721438884735e-01" purity="3.8074326515197754e-01" nType="0">
          <Node pos="l" depth="2" NCoef="0" IVar="-1" Cut="0.0000000000000000e+00" cType="1" res="-1.7949870089069009e-03" rms="1.8376930058002472e-01" purity="2.6371327042579651e-01" nType="-99"/>
          <Node pos="r" depth="2" NCoef="0" IVar="-1" Cut="0.0000000000000000e+00" cType="1" res="1.1670490493997931e-03" rms="2.2975301742553711e-01" purity="6.2562656402587891e-01" nType="-99"/>
        </Node>
      </Node>
    </BinaryTree>
    <BinaryTree type="DecisionTree" boostWeight="1.0000000000000000e+00" itree="520">
      <Node pos="s" depth="0" NCoef="0" IVar="48" Cut="1.1159363985061646e+00" cType="1" res="2.3209789767861366e-02" rms="2.4370998144149780e-01" purity="4.9322277307510376e-01" nType="0">
        <Node pos="l" depth="1" NCoef="0" IVar="13" Cut="1.4770994186401367e+00" cType="1" res="-9.0875305235385895e-02" rms="1.3841956853866577e-01" purity="1.0650469362735748e-01" nType="0">
          <Node pos="l" depth="2" NCoef="0" IVar="-1" Cut="0.0000000000000000e+00" cType="1" res="-1.7279122257605195e-03" rms="7.9271666705608368e-02" purity="5.5355679243803024e-02" nType="-99"/>
          <Node pos="r" depth="2" NCoef="0" IVar="-1" Cut="0.0000000000000000e+00" cType="1" res="-2.9103856068104506e-03" rms="1.5374881029129028e-01" purity="1.8233121931552887e-01" nType="-99"/>
        </Node>
        <Node pos="r" depth="1" NCoef="0" IVar="5" Cut="2.7988901734352112e-01" cType="1" res="4.2784646153450012e-02" rms="2.5235226750373840e-01" purity="5.5957627296447754e-01" nType="0">
          <Node pos="l" depth="2" NCoef="0" IVar="-1" Cut="0.0000000000000000e+00" cType="1" res="2.0040115341544151e-03" rms="2.2220775485038757e-01" purity="7.6641708612442017e-01" nType="-99"/>
          <Node pos="r" depth="2" NCoef="0" IVar="-1" Cut="0.0000000000000000e+00" cType="1" res="-1.2751034228131175e-04" rms="2.7301883697509766e-01" purity="3.3600252866744995e-01" nType="-99"/>
        </Node>
      </Node>
    </BinaryTree>
    <BinaryTree type="DecisionTree" boostWeight="1.0000000000000000e+00" itree="521">
      <Node pos="s" depth="0" NCoef="0" IVar="57" Cut="3.7611675262451172e-01" cType="1" res="2.3438762873411179e-02" rms="2.5623339414596558e-01" purity="4.8596578836441040e-01" nType="0">
        <Node pos="l" depth="1" NCoef="0" IVar="14" Cut="-1.2993111610412598e+00" cType="1" res="4.3216384947299957e-02" rms="2.6320561766624451e-01" purity="5.3670287132263184e-01" nType="0">
          <Node pos="l" depth="2" NCoef="0" IVar="-1" Cut="0.0000000000000000e+00" cType="1" res="-4.9916660645976663e-04" rms="2.2452820837497711e-01" purity="2.9014274477958679e-01" nType="-99"/>
          <Node pos="r" depth="2" NCoef="0" IVar="-1" Cut="0.0000000000000000e+00" cType="1" res="1.3302355073392391e-03" rms="2.7285468578338623e-01" purity="6.3001465797424316e-01" nType="-99"/>
        </Node>
        <Node pos="r" depth="1" NCoef="0" IVar="15" Cut="1.5187245607376099e+00" cType="1" res="-4.2734134942293167e-02" rms="2.1874763071537018e-01" purity="3.1620734930038452e-01" nType="0">
          <Node pos="l" depth="2" NCoef="0" IVar="-1" Cut="0.0000000000000000e+00" cType="1" res="-7.6630670810118318e-04" rms="1.9189305603504181e-01" purity="3.2278412580490112e-01" nType="-99"/>
          <Node pos="r" depth="2" NCoef="0" IVar="-1" Cut="0.0000000000000000e+00" cType="1" res="-3.6455327644944191e-03" rms="3.4473606944084167e-01" purity="2.6120319962501526e-01" nType="-99"/>
        </Node>
      </Node>
    </BinaryTree>
    <BinaryTree type="DecisionTree" boostWeight="1.0000000000000000e+00" itree="522">
      <Node pos="s" depth="0" NCoef="0" IVar="3" Cut="4.7960357666015625e+00" cType="1" res="2.8591804206371307e-02" rms="2.5447458028793335e-01" purity="4.9774205684661865e-01" nType="0">
        <Node pos="l" depth="1" NCoef="0" IVar="1" Cut="2.7322061061859131e+00" cType="1" res="-7.2545795701444149e-03" rms="2.4462759494781494e-01" purity="4.2188611626625061e-01" nType="0">
          <Node pos="l" depth="2" NCoef="0" IVar="-1" Cut="0.0000000000000000e+00" cType="1" res="-3.8117768708616495e-03" rms="1.6004604101181030e-01" purity="9.5486178994178772e-02" nType="-99"/>
          <Node pos="r" depth="2" NCoef="0" IVar="-1" Cut="0.0000000000000000e+00" cType="1" res="4.6505749924108386e-04" rms="2.6327097415924072e-01" purity="5.4303312301635742e-01" nType="-99"/>
        </Node>
        <Node pos="r" depth="1" NCoef="0" IVar="15" Cut="1.5225218534469604e+00" cType="1" res="8.1307850778102875e-02" rms="2.5945365428924561e-01" purity="6.0929656028747559e-01" nType="0">
          <Node pos="l" depth="2" NCoef="0" IVar="-1" Cut="0.0000000000000000e+00" cType="1" res="2.0085091236978769e-03" rms="2.4769698083400726e-01" purity="6.3298124074935913e-01" nType="-99"/>
          <Node pos="r" depth="2" NCoef="0" IVar="-1" Cut="0.0000000000000000e+00" cType="1" res="-5.4740807972848415e-03" rms="3.0266991257667542e-01" purity="1.9788022339344025e-01" nType="-99"/>
        </Node>
      </Node>
    </BinaryTree>
    <BinaryTree type="DecisionTree" boostWeight="1.0000000000000000e+00" itree="523">
      <Node pos="s" depth="0" NCoef="0" IVar="31" Cut="2.6225180625915527e+00" cType="1" res="2.5753336027264595e-02" rms="2.5484853982925415e-01" purity="4.9083474278450012e-01" nType="0">
        <Node pos="l" depth="1" NCoef="0" IVar="17" Cut="1.1704368591308594e+00" cType="1" res="-7.4033521115779877e-02" rms="1.8159753084182739e-01" purity="1.3124012947082520e-01" nType="0">
          <Node pos="l" depth="2" NCoef="0" IVar="-1" Cut="0.0000000000000000e+00" cType="1" res="6.1513548716902733e-03" rms="1.6012915968894958e-01" purity="2.8437620028853416e-02" nType="-99"/>
          <Node pos="r" depth="2" NCoef="0" IVar="-1" Cut="0.0000000000000000e+00" cType="1" res="-4.6694204211235046e-03" rms="1.7135691642761230e-01" purity="2.0718987286090851e-01" nType="-99"/>
        </Node>
        <Node pos="r" depth="1" NCoef="0" IVar="5" Cut="2.8803455829620361e-01" cType="1" res="3.8727484643459320e-02" rms="2.6007983088493347e-01" purity="5.3758871555328369e-01" nType="0">
          <Node pos="l" depth="2" NCoef="0" IVar="-1" Cut="0.0000000000000000e+00" cType="1" res="1.6987980343401432e-03" rms="2.2557447850704193e-01" purity="7.5056409835815430e-01" nType="-99"/>
          <Node pos="r" depth="2" NCoef="0" IVar="-1" Cut="0.0000000000000000e+00" cType="1" res="-1.3728364137932658e-04" rms="2.8486010432243347e-01" purity="3.1465518474578857e-01" nType="-99"/>
        </Node>
      </Node>
    </BinaryTree>
    <BinaryTree type="DecisionTree" boostWeight="1.0000000000000000e+00" itree="524">
      <Node pos="s" depth="0" NCoef="0" IVar="48" Cut="1.1868844032287598e+00" cType="1" res="2.5835370644927025e-02" rms="2.5253111124038696e-01" purity="4.9385237693786621e-01" nType="0">
        <Node pos="l" depth="1" NCoef="0" IVar="59" Cut="-1.4543349742889404e+00" cType="1" res="-6.2115672975778580e-02" rms="1.7920066416263580e-01" purity="1.7587912082672119e-01" nType="0">
          <Node pos="l" depth="2" NCoef="0" IVar="-1" Cut="0.0000000000000000e+00" cType="1" res="1.0067101102322340e-03" rms="2.9200947284698486e-01" purity="3.5057321190834045e-01" nType="-99"/>
          <Node pos="r" depth="2" NCoef="0" IVar="-1" Cut="0.0000000000000000e+00" cType="1" res="-3.7180769722908735e-03" rms="0.0000000000000000e+00" purity="8.4987670183181763e-02" nType="-99"/>
        </Node>
        <Node pos="r" depth="1" NCoef="0" IVar="5" Cut="2.8452664613723755e-01" cType="1" res="4.4357273727655411e-02" rms="2.6166212558746338e-01" purity="5.6081545352935791e-01" nType="0">
          <Node pos="l" depth="2" NCoef="0" IVar="-1" Cut="0.0000000000000000e+00" cType="1" res="1.9739386625587940e-03" rms="2.2393557429313660e-01" purity="7.7169197797775269e-01" nType="-99"/>
          <Node pos="r" depth="2" NCoef="0" IVar="-1" Cut="0.0000000000000000e+00" cType="1" res="-8.1333135312888771e-05" rms="2.9106479883193970e-01" purity="3.2320880889892578e-01" nType="-99"/>
        </Node>
      </Node>
    </BinaryTree>
    <BinaryTree type="DecisionTree" boostWeight="1.0000000000000000e+00" itree="525">
      <Node pos="s" depth="0" NCoef="0" IVar="2" Cut="2.5188403129577637e+00" cType="1" res="2.9345976188778877e-02" rms="2.5543260574340820e-01" purity="4.9742710590362549e-01" nType="0">
        <Node pos="l" depth="1" NCoef="0" IVar="3" Cut="4.7531938552856445e+00" cType="1" res="-7.5392131693661213e-03" rms="2.3149685561656952e-01" purity="3.4507909417152405e-01" nType="0">
          <Node pos="l" depth="2" NCoef="0" IVar="-1" Cut="0.0000000000000000e+00" cType="1" res="-2.1583770867437124e-03" rms="1.9670407474040985e-01" purity="2.1454407274723053e-01" nType="-99"/>
          <Node pos="r" depth="2" NCoef="0" IVar="-1" Cut="0.0000000000000000e+00" cType="1" res="9.6814142307266593e-04" rms="2.4967467784881592e-01" purity="4.6804600954055786e-01" nType="-99"/>
        </Node>
        <Node pos="r" depth="1" NCoef="0" IVar="14" Cut="-1.1832537651062012e+00" cType="1" res="6.8920277059078217e-02" rms="2.7335822582244873e-01" purity="6.6088205575942993e-01" nType="0">
          <Node pos="l" depth="2" NCoef="0" IVar="-1" Cut="0.0000000000000000e+00" cType="1" res="3.3491823705844581e-04" rms="2.6014780998229980e-01" purity="4.6672013401985168e-01" nType="-99"/>
          <Node pos="r" depth="2" NCoef="0" IVar="-1" Cut="0.0000000000000000e+00" cType="1" res="1.8085436895489693e-03" rms="2.7619433403015137e-01" purity="7.8830069303512573e-01" nType="-99"/>
        </Node>
      </Node>
    </BinaryTree>
    <BinaryTree type="DecisionTree" boostWeight="1.0000000000000000e+00" itree="526">
      <Node pos="s" depth="0" NCoef="0" IVar="5" Cut="3.5928255319595337e-01" cType="1" res="2.2603087127208710e-02" rms="2.3569111526012421e-01" purity="5.0085836648941040e-01" nType="0">
        <Node pos="l" depth="1" NCoef="0" IVar="48" Cut="1.2243670225143433e+00" cType="1" res="5.2192281931638718e-02" rms="2.1773931384086609e-01" purity="6.3753300905227661e-01" nType="0">
          <Node pos="l" depth="2" NCoef="0" IVar="-1" Cut="0.0000000000000000e+00" cType="1" res="-1.8324869452044368e-03" rms="1.7598709464073181e-01" purity="1.7328369617462158e-01" nType="-99"/>
          <Node pos="r" depth="2" NCoef="0" IVar="-1" Cut="0.0000000000000000e+00" cType="1" res="1.7510221805423498e-03" rms="2.1663275361061096e-01" purity="7.4054563045501709e-01" nType="-99"/>
        </Node>
        <Node pos="r" depth="1" NCoef="0" IVar="52" Cut="3.4196767807006836e+00" cType="1" res="-3.6016605794429779e-02" rms="2.5788682699203491e-01" purity="2.3008964955806732e-01" nType="0">
          <Node pos="l" depth="2" NCoef="0" IVar="-1" Cut="0.0000000000000000e+00" cType="1" res="-3.8294182741083205e-04" rms="2.7142071723937988e-01" purity="2.4301517009735107e-01" nType="-99"/>
          <Node pos="r" depth="2" NCoef="0" IVar="-1" Cut="0.0000000000000000e+00" cType="1" res="-3.6343610845506191e-03" rms="1.1145826429128647e-01" purity="1.5556754171848297e-01" nType="-99"/>
        </Node>
      </Node>
    </BinaryTree>
    <BinaryTree type="DecisionTree" boostWeight="1.0000000000000000e+00" itree="527">
      <Node pos="s" depth="0" NCoef="0" IVar="48" Cut="1.0805054903030396e+00" cType="1" res="2.7764594182372093e-02" rms="2.4797534942626953e-01" purity="5.0129961967468262e-01" nType="0">
        <Node pos="l" depth="1" NCoef="0" IVar="35" Cut="-4.1308835148811340e-01" cType="1" res="-8.6144812405109406e-02" rms="1.5666131675243378e-01" purity="9.3143425881862640e-02" nType="0">
          <Node pos="l" depth="2" NCoef="0" IVar="-1" Cut="0.0000000000000000e+00" cType="1" res="-1.3092323206365108e-03" rms="2.2797350585460663e-01" purity="1.3376651704311371e-01" nType="-99"/>
          <Node pos="r" depth="2" NCoef="0" IVar="-1" Cut="0.0000000000000000e+00" cType="1" res="-5.7073566131293774e-03" rms="0.0000000000000000e+00" purity="-3.4912791103124619e-02" nType="-99"/>
        </Node>
        <Node pos="r" depth="1" NCoef="0" IVar="5" Cut="3.4651541709899902e-01" cType="1" res="4.5911408960819244e-02" rms="2.5491505861282349e-01" purity="5.6632256507873535e-01" nType="0">
          <Node pos="l" depth="2" NCoef="0" IVar="-1" Cut="0.0000000000000000e+00" cType="1" res="1.7493453342467546e-03" rms="2.1857693791389465e-01" purity="7.2713917493820190e-01" nType="-99"/>
          <Node pos="r" depth="2" NCoef="0" IVar="-1" Cut="0.0000000000000000e+00" cType="1" res="-1.3532706361729652e-04" rms="2.9786810278892517e-01" purity="3.0295729637145996e-01" nType="-99"/>
        </Node>
      </Node>
    </BinaryTree>
    <BinaryTree type="DecisionTree" boostWeight="1.0000000000000000e+00" itree="528">
      <Node pos="s" depth="0" NCoef="0" IVar="60" Cut="-8.4119224548339844e-01" cType="1" res="3.1579177826642990e-02" rms="2.5169357657432556e-01" purity="4.9934524297714233e-01" nType="0">
        <Node pos="l" depth="1" NCoef="0" IVar="27" Cut="1.1936825513839722e+00" cType="1" res="4.1041105985641479e-02" rms="2.5563967227935791e-01" purity="5.2215474843978882e-01" nType="0">
          <Node pos="l" depth="2" NCoef="0" IVar="-1" Cut="0.0000000000000000e+00" cType="1" res="-2.0661430899053812e-03" rms="1.6074992716312408e-01" purity="2.0791825652122498e-01" nType="-99"/>
          <Node pos="r" depth="2" NCoef="0" IVar="-1" Cut="0.0000000000000000e+00" cType="1" res="1.1155682150274515e-03" rms="2.6381787657737732e-01" purity="5.6738436222076416e-01" nType="-99"/>
        </Node>
        <Node pos="r" depth="1" NCoef="0" IVar="67" Cut="9.7456306219100952e-01" cType="1" res="-1.1236556619405746e-01" rms="1.0397712141275406e-01" purity="1.5234360098838806e-01" nType="0">
          <Node pos="l" depth="2" NCoef="0" IVar="-1" Cut="0.0000000000000000e+00" cType="1" res="-1.0297397151589394e-02" rms="0.0000000000000000e+00" purity="-1.8688840791583061e-02" nType="-99"/>
          <Node pos="r" depth="2" NCoef="0" IVar="-1" Cut="0.0000000000000000e+00" cType="1" res="-1.5308788279071450e-03" rms="2.1164458990097046e-01" purity="2.7514371275901794e-01" nType="-99"/>
        </Node>
      </Node>
    </BinaryTree>
    <BinaryTree type="DecisionTree" boostWeight="1.0000000000000000e+00" itree="529">
      <Node pos="s" depth="0" NCoef="0" IVar="2" Cut="2.3595073223114014e+00" cType="1" res="3.0795371159911156e-02" rms="2.5227156281471252e-01" purity="5.0734692811965942e-01" nType="0">
        <Node pos="l" depth="1" NCoef="0" IVar="3" Cut="4.8236613273620605e+00" cType="1" res="-1.9964033737778664e-02" rms="2.1653459966182709e-01" purity="2.9948765039443970e-01" nType="0">
          <Node pos="l" depth="2" NCoef="0" IVar="-1" Cut="0.0000000000000000e+00" cType="1" res="-2.5631824973970652e-03" rms="1.9174586236476898e-01" purity="1.7641852796077728e-01" nType="-99"/>
          <Node pos="r" depth="2" NCoef="0" IVar="-1" Cut="0.0000000000000000e+00" cType="1" res="7.9541141167283058e-04" rms="2.3051524162292480e-01" purity="4.4258612394332886e-01" nType="-99"/>
        </Node>
        <Node pos="r" depth="1" NCoef="0" IVar="5" Cut="4.3750804662704468e-01" cType="1" res="6.5523065626621246e-02" rms="2.6857855916023254e-01" purity="6.4955657720565796e-01" nType="0">
          <Node pos="l" depth="2" NCoef="0" IVar="-1" Cut="0.0000000000000000e+00" cType="1" res="1.7790977144613862e-03" rms="2.4704720079898834e-01" purity="7.6362991333007812e-01" nType="-99"/>
          <Node pos="r" depth="2" NCoef="0" IVar="-1" Cut="0.0000000000000000e+00" cType="1" res="-1.4574467786587775e-04" rms="3.1516489386558533e-01" purity="2.9655596613883972e-01" nType="-99"/>
        </Node>
      </Node>
    </BinaryTree>
    <BinaryTree type="DecisionTree" boostWeight="1.0000000000000000e+00" itree="530">
      <Node pos="s" depth="0" NCoef="0" IVar="2" Cut="1.9167847633361816e+00" cType="1" res="3.0482206493616104e-02" rms="2.5448930263519287e-01" purity="5.0832259654998779e-01" nType="0">
        <Node pos="l" depth="1" NCoef="0" IVar="15" Cut="1.5204147100448608e+00" cType="1" res="-5.3258560597896576e-02" rms="1.8879655003547668e-01" purity="1.8580619990825653e-01" nType="0">
          <Node pos="l" depth="2" NCoef="0" IVar="-1" Cut="0.0000000000000000e+00" cType="1" res="-1.1473111808300018e-03" rms="1.7755049467086792e-01" purity="2.0894031226634979e-01" nType="-99"/>
          <Node pos="r" depth="2" NCoef="0" IVar="-1" Cut="0.0000000000000000e+00" cType="1" res="-1.5484785661101341e-02" rms="1.9119080901145935e-01" purity="2.0298492163419724e-02" nType="-99"/>
        </Node>
        <Node pos="r" depth="1" NCoef="0" IVar="3" Cut="4.9821872711181641e+00" cType="1" res="5.3223222494125366e-02" rms="2.6504987478256226e-01" purity="5.9590661525726318e-01" nType="0">
          <Node pos="l" depth="2" NCoef="0" IVar="-1" Cut="0.0000000000000000e+00" cType="1" res="7.0687592960894108e-04" rms="2.5627490878105164e-01" purity="5.6746453046798706e-01" nType="-99"/>
          <Node pos="r" depth="2" NCoef="0" IVar="-1" Cut="0.0000000000000000e+00" cType="1" res="2.8407482896000147e-03" rms="2.8794968128204346e-01" purity="7.5696194171905518e-01" nType="-99"/>
        </Node>
      </Node>
    </BinaryTree>
    <BinaryTree type="DecisionTree" boostWeight="1.0000000000000000e+00" itree="531">
      <Node pos="s" depth="0" NCoef="0" IVar="48" Cut="1.0782237052917480e+00" cType="1" res="2.0865602418780327e-02" rms="2.4286773800849915e-01" purity="4.9411144852638245e-01" nType="0">
        <Node pos="l" depth="1" NCoef="0" IVar="37" Cut="-1.1107645034790039e+00" cType="1" res="-9.2283040285110474e-02" rms="1.1169161647558212e-01" purity="1.0267786681652069e-01" nType="0">
          <Node pos="l" depth="2" NCoef="0" IVar="-1" Cut="0.0000000000000000e+00" cType="1" res="-1.1751890997402370e-04" rms="2.4395246803760529e-01" purity="2.2403769195079803e-01" nType="-99"/>
          <Node pos="r" depth="2" NCoef="0" IVar="-1" Cut="0.0000000000000000e+00" cType="1" res="-4.4971760362386703e-03" rms="0.0000000000000000e+00" purity="2.5142850354313850e-02" nType="-99"/>
        </Node>
        <Node pos="r" depth="1" NCoef="0" IVar="5" Cut="3.0103641748428345e-01" cType="1" res="3.9202895015478134e-02" rms="2.5320187211036682e-01" purity="5.5754870176315308e-01" nType="0">
          <Node pos="l" depth="2" NCoef="0" IVar="-1" Cut="0.0000000000000000e+00" cType="1" res="1.8856917740777135e-03" rms="2.1780960261821747e-01" purity="7.6213806867599487e-01" nType="-99"/>
          <Node pos="r" depth="2" NCoef="0" IVar="-1" Cut="0.0000000000000000e+00" cType="1" res="-3.3792635076679289e-04" rms="2.8312084078788757e-01" purity="2.9345694184303284e-01" nType="-99"/>
        </Node>
      </Node>
    </BinaryTree>
    <BinaryTree type="DecisionTree" boostWeight="1.0000000000000000e+00" itree="532">
      <Node pos="s" depth="0" NCoef="0" IVar="2" Cut="2.4351229667663574e+00" cType="1" res="3.6869835108518600e-02" rms="2.5641563534736633e-01" purity="5.1208239793777466e-01" nType="0">
        <Node pos="l" depth="1" NCoef="0" IVar="3" Cut="5.1925902366638184e+00" cType="1" res="-3.8879150524735451e-03" rms="2.3288299143314362e-01" purity="3.3251661062240601e-01" nType="0">
          <Node pos="l" depth="2" NCoef="0" IVar="-1" Cut="0.0000000000000000e+00" cType="1" res="-5.9757439885288477e-04" rms="2.1829470992088318e-01" purity="3.2084763050079346e-01" nType="-99"/>
          <Node pos="r" depth="2" NCoef="0" IVar="-1" Cut="0.0000000000000000e+00" cType="1" res="2.9519125819206238e-03" rms="2.9281106591224670e-01" purity="4.2587631940841675e-01" nType="-99"/>
        </Node>
        <Node pos="r" depth="1" NCoef="0" IVar="14" Cut="-1.1445994377136230e+00" cType="1" res="7.1328736841678619e-02" rms="2.6998537778854370e-01" purity="6.6389739513397217e-01" nType="0">
          <Node pos="l" depth="2" NCoef="0" IVar="-1" Cut="0.0000000000000000e+00" cType="1" res="4.8512150533497334e-04" rms="2.6130339503288269e-01" purity="4.9717336893081665e-01" nType="-99"/>
          <Node pos="r" depth="2" NCoef="0" IVar="-1" Cut="0.0000000000000000e+00" cType="1" res="1.9258339889347553e-03" rms="2.7065572142601013e-01" purity="7.8175824880599976e-01" nType="-99"/>
        </Node>
      </Node>
    </BinaryTree>
    <BinaryTree type="DecisionTree" boostWeight="1.0000000000000000e+00" itree="533">
      <Node pos="s" depth="0" NCoef="0" IVar="5" Cut="4.3533283472061157e-01" cType="1" res="2.6062613353133202e-02" rms="2.4949751794338226e-01" purity="5.0588876008987427e-01" nType="0">
        <Node pos="l" depth="1" NCoef="0" IVar="48" Cut="1.5597587823867798e+00" cType="1" res="5.3756553679704666e-02" rms="2.4212956428527832e-01" purity="6.1526113748550415e-01" nType="0">
          <Node pos="l" depth="2" NCoef="0" IVar="-1" Cut="0.0000000000000000e+00" cType="1" res="-4.9959297757595778e-04" rms="2.5144118070602417e-01" purity="3.0498495697975159e-01" nType="-99"/>
          <Node pos="r" depth="2" NCoef="0" IVar="-1" Cut="0.0000000000000000e+00" cType="1" res="1.6962543595582247e-03" rms="2.3344779014587402e-01" purity="7.2187328338623047e-01" nType="-99"/>
        </Node>
        <Node pos="r" depth="1" NCoef="0" IVar="52" Cut="3.3731417655944824e+00" cType="1" res="-5.6356731802225113e-02" rms="2.5289079546928406e-01" purity="1.8038786947727203e-01" nType="0">
          <Node pos="l" depth="2" NCoef="0" IVar="-1" Cut="0.0000000000000000e+00" cType="1" res="-7.2490639286115766e-04" rms="2.6978206634521484e-01" purity="2.0215620100498199e-01" nType="-99"/>
          <Node pos="r" depth="2" NCoef="0" IVar="-1" Cut="0.0000000000000000e+00" cType="1" res="-5.3383684717118740e-03" rms="3.9391867816448212e-02" purity="7.2442010045051575e-02" nType="-99"/>
        </Node>
      </Node>
    </BinaryTree>
    <BinaryTree type="DecisionTree" boostWeight="1.0000000000000000e+00" itree="534">
      <Node pos="s" depth="0" NCoef="0" IVar="15" Cut="1.5215698480606079e+00" cType="1" res="3.3280096948146820e-02" rms="2.5822278857231140e-01" purity="4.9826148152351379e-01" nType="0">
        <Node pos="l" depth="1" NCoef="0" IVar="36" Cut="-8.3517640829086304e-01" cType="1" res="4.6335119754076004e-02" rms="2.4330639839172363e-01" purity="5.0158935785293579e-01" nType="0">
          <Node pos="l" depth="2" NCoef="0" IVar="-1" Cut="0.0000000000000000e+00" cType="1" res="-1.4588066376745701e-02" rms="0.0000000000000000e+00" purity="-9.0206405147910118e-03" nType="-99"/>
          <Node pos="r" depth="2" NCoef="0" IVar="-1" Cut="0.0000000000000000e+00" cType="1" res="1.2767998268827796e-03" rms="2.5831657648086548e-01" purity="5.7301241159439087e-01" nType="-99"/>
        </Node>
        <Node pos="r" depth="1" NCoef="0" IVar="66" Cut="1.2345679104328156e-02" cType="1" res="-6.8803325295448303e-02" rms="3.3678296208381653e-01" purity="4.7223937511444092e-01" nType="0">
          <Node pos="l" depth="2" NCoef="0" IVar="-1" Cut="0.0000000000000000e+00" cType="1" res="-3.9946869947016239e-03" rms="3.2439604401588440e-01" purity="2.4231871962547302e-01" nType="-99"/>
          <Node pos="r" depth="2" NCoef="0" IVar="-1" Cut="0.0000000000000000e+00" cType="1" res="2.2255291696637869e-04" rms="3.1975728273391724e-01" purity="6.3038098812103271e-01" nType="-99"/>
        </Node>
      </Node>
    </BinaryTree>
    <BinaryTree type="DecisionTree" boostWeight="1.0000000000000000e+00" itree="535">
      <Node pos="s" depth="0" NCoef="0" IVar="36" Cut="1.4073475599288940e+00" cType="1" res="2.3830279707908630e-02" rms="2.4400705099105835e-01" purity="4.9616941809654236e-01" nType="0">
        <Node pos="l" depth="1" NCoef="0" IVar="3" Cut="4.9615755081176758e+00" cType="1" res="-3.9035864174365997e-02" rms="1.5457242727279663e-01" purity="9.7833938896656036e-02" nType="0">
          <Node pos="l" depth="2" NCoef="0" IVar="-1" Cut="0.0000000000000000e+00" cType="1" res="-6.1388579197227955e-03" rms="9.5807127654552460e-02" purity="3.5910192877054214e-02" nType="-99"/>
          <Node pos="r" depth="2" NCoef="0" IVar="-1" Cut="0.0000000000000000e+00" cType="1" res="1.2777959927916527e-03" rms="2.2405824065208435e-01" purity="2.5082424283027649e-01" nType="-99"/>
        </Node>
        <Node pos="r" depth="1" NCoef="0" IVar="2" Cut="1.4823198318481445e+00" cType="1" res="4.7975029796361923e-02" rms="2.6670080423355103e-01" purity="6.4915657043457031e-01" nType="0">
          <Node pos="l" depth="2" NCoef="0" IVar="-1" Cut="0.0000000000000000e+00" cType="1" res="-6.3108587637543678e-03" rms="2.2874493896961212e-01" purity="1.2222026288509369e-01" nType="-99"/>
          <Node pos="r" depth="2" NCoef="0" IVar="-1" Cut="0.0000000000000000e+00" cType="1" res="1.0524035897105932e-03" rms="2.6484858989715576e-01" purity="6.8148142099380493e-01" nType="-99"/>
        </Node>
      </Node>
    </BinaryTree>
    <BinaryTree type="DecisionTree" boostWeight="1.0000000000000000e+00" itree="536">
      <Node pos="s" depth="0" NCoef="0" IVar="5" Cut="3.5764348506927490e-01" cType="1" res="2.2891223430633545e-02" rms="2.4919690191745758e-01" purity="4.9488303065299988e-01" nType="0">
        <Node pos="l" depth="1" NCoef="0" IVar="36" Cut="9.4291883707046509e-01" cType="1" res="5.0866704434156418e-02" rms="2.2653588652610779e-01" purity="6.3222002983093262e-01" nType="0">
          <Node pos="l" depth="2" NCoef="0" IVar="-1" Cut="0.0000000000000000e+00" cType="1" res="-6.3278223387897015e-03" rms="0.0000000000000000e+00" purity="2.3055324330925941e-02" nType="-99"/>
          <Node pos="r" depth="2" NCoef="0" IVar="-1" Cut="0.0000000000000000e+00" cType="1" res="1.4680476160719991e-03" rms="2.4191695451736450e-01" purity="7.5188452005386353e-01" nType="-99"/>
        </Node>
        <Node pos="r" depth="1" NCoef="0" IVar="34" Cut="-1.4926255941390991e+00" cType="1" res="-2.8421947732567787e-02" rms="2.7893459796905518e-01" purity="2.4297682940959930e-01" nType="0">
          <Node pos="l" depth="2" NCoef="0" IVar="-1" Cut="0.0000000000000000e+00" cType="1" res="3.0288011766970158e-03" rms="3.3593145012855530e-01" purity="4.6410828828811646e-01" nType="-99"/>
          <Node pos="r" depth="2" NCoef="0" IVar="-1" Cut="0.0000000000000000e+00" cType="1" res="-9.5301470719277859e-04" rms="2.6885923743247986e-01" purity="2.2555287182331085e-01" nType="-99"/>
        </Node>
      </Node>
    </BinaryTree>
    <BinaryTree type="DecisionTree" boostWeight="1.0000000000000000e+00" itree="537">
      <Node pos="s" depth="0" NCoef="0" IVar="17" Cut="1.5220416784286499e+00" cType="1" res="2.4178786203265190e-02" rms="2.4626469612121582e-01" purity="5.0122940540313721e-01" nType="0">
        <Node pos="l" depth="1" NCoef="0" IVar="57" Cut="2.6165127754211426e-01" cType="1" res="-7.2717177681624889e-03" rms="2.4312330782413483e-01" purity="2.5648102164268494e-01" nType="0">
          <Node pos="l" depth="2" NCoef="0" IVar="-1" Cut="0.0000000000000000e+00" cType="1" res="4.5455267536453903e-04" rms="2.6772278547286987e-01" purity="3.0396991968154907e-01" nType="-99"/>
          <Node pos="r" depth="2" NCoef="0" IVar="-1" Cut="0.0000000000000000e+00" cType="1" res="-2.8179758228361607e-03" rms="1.3203011453151703e-01" purity="1.2523283064365387e-01" nType="-99"/>
        </Node>
        <Node pos="r" depth="1" NCoef="0" IVar="15" Cut="1.5221327543258667e+00" cType="1" res="7.1473017334938049e-02" rms="2.4338026344776154e-01" purity="8.6927390098571777e-01" nType="0">
          <Node pos="l" depth="2" NCoef="0" IVar="-1" Cut="0.0000000000000000e+00" cType="1" res="1.8765321001410484e-03" rms="1.9075551629066467e-01" purity="9.3194091320037842e-01" nType="-99"/>
          <Node pos="r" depth="2" NCoef="0" IVar="-1" Cut="0.0000000000000000e+00" cType="1" res="-2.4781399406492710e-04" rms="3.6668983101844788e-01" purity="6.3559854030609131e-01" nType="-99"/>
        </Node>
      </Node>
    </BinaryTree>
    <BinaryTree type="DecisionTree" boostWeight="1.0000000000000000e+00" itree="538">
      <Node pos="s" depth="0" NCoef="0" IVar="48" Cut="9.4195914268493652e-01" cType="1" res="3.0833231285214424e-02" rms="2.4863165616989136e-01" purity="5.1205527782440186e-01" nType="0">
        <Node pos="l" depth="1" NCoef="0" IVar="38" Cut="-1.2999092340469360e+00" cType="1" res="-8.2529045641422272e-02" rms="1.4338724315166473e-01" purity="8.3857677876949310e-02" nType="0">
          <Node pos="l" depth="2" NCoef="0" IVar="-1" Cut="0.0000000000000000e+00" cType="1" res="2.8428183868527412e-03" rms="3.1068184971809387e-01" purity="2.0384292304515839e-01" nType="-99"/>
          <Node pos="r" depth="2" NCoef="0" IVar="-1" Cut="0.0000000000000000e+00" cType="1" res="-3.8614389486610889e-03" rms="0.0000000000000000e+00" purity="4.3060205876827240e-02" nType="-99"/>
        </Node>
        <Node pos="r" depth="1" NCoef="0" IVar="17" Cut="1.2138227224349976e+00" cType="1" res="4.3553363531827927e-02" rms="2.5464361906051636e-01" purity="5.6010240316390991e-01" nType="0">
          <Node pos="l" depth="2" NCoef="0" IVar="-1" Cut="0.0000000000000000e+00" cType="1" res="-1.0575556196272373e-02" rms="8.6060902103781700e-03" purity="9.9054910242557526e-04" nType="-99"/>
          <Node pos="r" depth="2" NCoef="0" IVar="-1" Cut="0.0000000000000000e+00" cType="1" res="1.0817244183272123e-03" rms="2.8740376234054565e-01" purity="7.2841250896453857e-01" nType="-99"/>
        </Node>
      </Node>
    </BinaryTree>
    <BinaryTree type="DecisionTree" boostWeight="1.0000000000000000e+00" itree="539">
      <Node pos="s" depth="0" NCoef="0" IVar="3" Cut="4.9453988075256348e+00" cType="1" res="2.9392432421445847e-02" rms="2.4745921790599823e-01" purity="5.0421023368835449e-01" nType="0">
        <Node pos="l" depth="1" NCoef="0" IVar="2" Cut="2.3159492015838623e+00" cType="1" res="6.6668088547885418e-03" rms="2.3786166310310364e-01" purity="4.7235304117202759e-01" nType="0">
          <Node pos="l" depth="2" NCoef="0" IVar="-1" Cut="0.0000000000000000e+00" cType="1" res="-1.9370120717212558e-03" rms="1.9305774569511414e-01" purity="2.1227224171161652e-01" nType="-99"/>
          <Node pos="r" depth="2" NCoef="0" IVar="-1" Cut="0.0000000000000000e+00" cType="1" res="7.5135246152058244e-04" rms="2.5222167372703552e-01" purity="6.0684829950332642e-01" nType="-99"/>
        </Node>
        <Node pos="r" depth="1" NCoef="0" IVar="17" Cut="-9.9018412828445435e-01" cType="1" res="1.0188694298267365e-01" rms="2.6304328441619873e-01" purity="6.0583418607711792e-01" nType="0">
          <Node pos="l" depth="2" NCoef="0" IVar="-1" Cut="0.0000000000000000e+00" cType="1" res="-2.1145112812519073e-02" rms="0.0000000000000000e+00" purity="-3.1584739685058594e-02" nType="-99"/>
          <Node pos="r" depth="2" NCoef="0" IVar="-1" Cut="0.0000000000000000e+00" cType="1" res="2.3706981446594000e-03" rms="2.9041263461112976e-01" purity="7.4097144603729248e-01" nType="-99"/>
        </Node>
      </Node>
    </BinaryTree>
    <BinaryTree type="DecisionTree" boostWeight="1.0000000000000000e+00" itree="540">
      <Node pos="s" depth="0" NCoef="0" IVar="36" Cut="9.8204135894775391e-01" cType="1" res="2.9024384915828705e-02" rms="2.5827503204345703e-01" purity="5.0061112642288208e-01" nType="0">
        <Node pos="l" depth="1" NCoef="0" IVar="48" Cut="2.4567139148712158e+00" cType="1" res="-5.8555183932185173e-03" rms="0.0000000000000000e+00" purity="1.6679821535944939e-02" nType="-99"/>
        <Node pos="r" depth="1" NCoef="0" IVar="18" Cut="-8.4645366668701172e-01" cType="1" res="4.6952340751886368e-02" rms="2.8259849548339844e-01" purity="6.0656988620758057e-01" nType="0">
          <Node pos="l" depth="2" NCoef="0" IVar="-1" Cut="0.0000000000000000e+00" cType="1" res="1.0512231383472681e-03" rms="2.8096681833267212e-01" purity="6.2606263160705566e-01" nType="-99"/>
          <Node pos="r" depth="2" NCoef="0" IVar="-1" Cut="0.0000000000000000e+00" cType="1" res="-8.1716682761907578e-03" rms="2.2879941761493683e-01" purity="1.2579122185707092e-01" nType="-99"/>
        </Node>
      </Node>
    </BinaryTree>
    <BinaryTree type="DecisionTree" boostWeight="1.0000000000000000e+00" itree="541">
      <Node pos="s" depth="0" NCoef="0" IVar="2" Cut="1.8385244607925415e+00" cType="1" res="2.8355995193123817e-02" rms="2.5358811020851135e-01" purity="5.0068354606628418e-01" nType="0">
        <Node pos="l" depth="1" NCoef="0" IVar="17" Cut="1.2499872446060181e+00" cType="1" res="-5.5772144347429276e-02" rms="2.1596346795558929e-01" purity="1.5658625960350037e-01" nType="0">
          <Node pos="l" depth="2" NCoef="0" IVar="-1" Cut="0.0000000000000000e+00" cType="1" res="2.1671731956303120e-03" rms="1.6374719142913818e-01" purity="3.1950712203979492e-02" nType="-99"/>
          <Node pos="r" depth="2" NCoef="0" IVar="-1" Cut="0.0000000000000000e+00" cType="1" res="-2.7629637625068426e-03" rms="2.4134917557239532e-01" purity="2.7467316389083862e-01" nType="-99"/>
        </Node>
        <Node pos="r" depth="1" NCoef="0" IVar="3" Cut="5.2248659133911133e+00" cType="1" res="4.8022005707025528e-02" rms="2.5767332315444946e-01" purity="5.8112055063247681e-01" nType="0">
          <Node pos="l" depth="2" NCoef="0" IVar="-1" Cut="0.0000000000000000e+00" cType="1" res="8.4043253445997834e-04" rms="2.5279927253723145e-01" purity="5.7825773954391479e-01" nType="-99"/>
          <Node pos="r" depth="2" NCoef="0" IVar="-1" Cut="0.0000000000000000e+00" cType="1" res="3.6095953546464443e-03" rms="3.0455675721168518e-01" purity="6.6969960927963257e-01" nType="-99"/>
        </Node>
      </Node>
    </BinaryTree>
    <BinaryTree type="DecisionTree" boostWeight="1.0000000000000000e+00" itree="542">
      <Node pos="s" depth="0" NCoef="0" IVar="2" Cut="1.8374339342117310e+00" cType="1" res="2.8064915910363197e-02" rms="2.5096681714057922e-01" purity="4.8843762278556824e-01" nType="0">
        <Node pos="l" depth="1" NCoef="0" IVar="18" Cut="-2.3207840919494629e+00" cType="1" res="-5.2774939686059952e-02" rms="2.0068027079105377e-01" purity="1.5370081365108490e-01" nType="0">
          <Node pos="l" depth="2" NCoef="0" IVar="-1" Cut="0.0000000000000000e+00" cType="1" res="2.1283749956637621e-03" rms="3.0760496854782104e-01" purity="3.6595451831817627e-01" nType="-99"/>
          <Node pos="r" depth="2" NCoef="0" IVar="-1" Cut="0.0000000000000000e+00" cType="1" res="-3.2463876996189356e-03" rms="1.6732501983642578e-01" purity="1.1689645797014236e-01" nType="-99"/>
        </Node>
        <Node pos="r" depth="1" NCoef="0" IVar="3" Cut="4.8827600479125977e+00" cType="1" res="4.7177728265523911e-02" rms="2.5776666402816772e-01" purity="5.6757879257202148e-01" nType="0">
          <Node pos="l" depth="2" NCoef="0" IVar="-1" Cut="0.0000000000000000e+00" cType="1" res="4.6648969873785973e-04" rms="2.5006550550460815e-01" purity="5.1387941837310791e-01" nType="-99"/>
          <Node pos="r" depth="2" NCoef="0" IVar="-1" Cut="0.0000000000000000e+00" cType="1" res="2.3020750377327204e-03" rms="2.6545488834381104e-01" purity="7.2703862190246582e-01" nType="-99"/>
        </Node>
      </Node>
    </BinaryTree>
    <BinaryTree type="DecisionTree" boostWeight="1.0000000000000000e+00" itree="543">
      <Node pos="s" depth="0" NCoef="0" IVar="3" Cut="4.9597024917602539e+00" cType="1" res="2.7341153472661972e-02" rms="2.4675294756889343e-01" purity="5.0871038436889648e-01" nType="0">
        <Node pos="l" depth="1" NCoef="0" IVar="6" Cut="2.1327562332153320e+00" cType="1" res="6.1571383848786354e-03" rms="2.3829714953899384e-01" purity="4.8239111900329590e-01" nType="0">
          <Node pos="l" depth="2" NCoef="0" IVar="-1" Cut="0.0000000000000000e+00" cType="1" res="-1.7153581138700247e-03" rms="1.9305711984634399e-01" purity="2.1907375752925873e-01" nType="-99"/>
          <Node pos="r" depth="2" NCoef="0" IVar="-1" Cut="0.0000000000000000e+00" cType="1" res="8.3012785762548447e-04" rms="2.5304058194160461e-01" purity="6.2511730194091797e-01" nType="-99"/>
        </Node>
        <Node pos="r" depth="1" NCoef="0" IVar="36" Cut="5.9332042932510376e-01" cType="1" res="1.0049063712358475e-01" rms="2.6105406880378723e-01" purity="5.9959226846694946e-01" nType="0">
          <Node pos="l" depth="2" NCoef="0" IVar="-1" Cut="0.0000000000000000e+00" cType="1" res="-4.1377986781299114e-03" rms="0.0000000000000000e+00" purity="1.5896260738372803e-02" nType="-99"/>
          <Node pos="r" depth="2" NCoef="0" IVar="-1" Cut="0.0000000000000000e+00" cType="1" res="2.5339829735457897e-03" rms="2.7934974431991577e-01" purity="7.0470994710922241e-01" nType="-99"/>
        </Node>
      </Node>
    </BinaryTree>
    <BinaryTree type="DecisionTree" boostWeight="1.0000000000000000e+00" itree="544">
      <Node pos="s" depth="0" NCoef="0" IVar="48" Cut="9.2093729972839355e-01" cType="1" res="2.0133929327130318e-02" rms="2.4115985631942749e-01" purity="4.9066323041915894e-01" nType="0">
        <Node pos="l" depth="1" NCoef="0" IVar="17" Cut="1.4819763898849487e+00" cType="1" res="-1.1005449295043945e-01" rms="1.2713037431240082e-01" purity="1.1258169077336788e-02" nType="0">
          <Node pos="l" depth="2" NCoef="0" IVar="-1" Cut="0.0000000000000000e+00" cType="1" res="-3.2143974676728249e-03" rms="0.0000000000000000e+00" purity="6.2579479999840260e-03" nType="-99"/>
          <Node pos="r" depth="2" NCoef="0" IVar="-1" Cut="0.0000000000000000e+00" cType="1" res="-4.1542109102010727e-03" rms="1.4542531967163086e-01" purity="2.4310596287250519e-02" nType="-99"/>
        </Node>
        <Node pos="r" depth="1" NCoef="0" IVar="5" Cut="3.0340620875358582e-01" cType="1" res="3.3834826201200485e-02" rms="2.4618342518806458e-01" purity="5.4111534357070923e-01" nType="0">
          <Node pos="l" depth="2" NCoef="0" IVar="-1" Cut="0.0000000000000000e+00" cType="1" res="1.7545010196045041e-03" rms="2.2312955558300018e-01" purity="7.3009049892425537e-01" nType="-99"/>
          <Node pos="r" depth="2" NCoef="0" IVar="-1" Cut="0.0000000000000000e+00" cType="1" res="-3.9829075103625655e-04" rms="2.6326471567153931e-01" purity="3.0212640762329102e-01" nType="-99"/>
        </Node>
      </Node>
    </BinaryTree>
    <BinaryTree type="DecisionTree" boostWeight="1.0000000000000000e+00" itree="545">
      <Node pos="s" depth="0" NCoef="0" IVar="5" Cut="3.0168157815933228e-01" cType="1" res="2.8971605002880096e-02" rms="2.5198403000831604e-01" purity="5.0158840417861938e-01" nType="0">
        <Node pos="l" depth="1" NCoef="0" IVar="27" Cut="1.3320531845092773e+00" cType="1" res="5.9141881763935089e-02" rms="2.2826139628887177e-01" purity="6.6063499450683594e-01" nType="0">
          <Node pos="l" depth="2" NCoef="0" IVar="-1" Cut="0.0000000000000000e+00" cType="1" res="-1.6205962747335434e-03" rms="2.1405778825283051e-01" purity="2.4739432334899902e-01" nType="-99"/>
          <Node pos="r" depth="2" NCoef="0" IVar="-1" Cut="0.0000000000000000e+00" cType="1" res="1.8004318699240685e-03" rms="2.2416386008262634e-01" purity="7.6672810316085815e-01" nType="-99"/>
        </Node>
        <Node pos="r" depth="1" NCoef="0" IVar="0" Cut="9.1765093803405762e-01" cType="1" res="-1.1510296724736691e-02" rms="2.7554002404212952e-01" purity="2.8818273544311523e-01" nType="0">
          <Node pos="l" depth="2" NCoef="0" IVar="-1" Cut="0.0000000000000000e+00" cType="1" res="1.5979557065293193e-04" rms="2.9031115770339966e-01" purity="3.1986674666404724e-01" nType="-99"/>
          <Node pos="r" depth="2" NCoef="0" IVar="-1" Cut="0.0000000000000000e+00" cType="1" res="-2.6578851975500584e-03" rms="1.4814423024654388e-01" purity="1.2634105980396271e-01" nType="-99"/>
        </Node>
      </Node>
    </BinaryTree>
    <BinaryTree type="DecisionTree" boostWeight="1.0000000000000000e+00" itree="546">
      <Node pos="s" depth="0" NCoef="0" IVar="15" Cut="1.5219346284866333e+00" cType="1" res="3.1163962557911873e-02" rms="2.6184761524200439e-01" purity="4.9738869071006775e-01" nType="0">
        <Node pos="l" depth="1" NCoef="0" IVar="3" Cut="4.8327651023864746e+00" cType="1" res="4.3898366391658783e-02" rms="2.4717931449413300e-01" purity="5.0154918432235718e-01" nType="0">
          <Node pos="l" depth="2" NCoef="0" IVar="-1" Cut="0.0000000000000000e+00" cType="1" res="3.5967942676506937e-04" rms="2.4365556240081787e-01" purity="4.2109236121177673e-01" nType="-99"/>
          <Node pos="r" depth="2" NCoef="0" IVar="-1" Cut="0.0000000000000000e+00" cType="1" res="1.9744753371924162e-03" rms="2.4517695605754852e-01" purity="6.3333398103713989e-01" nType="-99"/>
        </Node>
        <Node pos="r" depth="1" NCoef="0" IVar="15" Cut="1.5410202741622925e+00" cType="1" res="-7.2450384497642517e-02" rms="3.4243381023406982e-01" purity="4.6353673934936523e-01" nType="0">
          <Node pos="l" depth="2" NCoef="0" IVar="-1" Cut="0.0000000000000000e+00" cType="1" res="-3.7471557152457535e-04" rms="3.4011623263359070e-01" purity="5.5456942319869995e-01" nType="-99"/>
          <Node pos="r" depth="2" NCoef="0" IVar="-1" Cut="0.0000000000000000e+00" cType="1" res="-1.2997294776141644e-02" rms="2.7809560298919678e-01" purity="1.0403221100568771e-01" nType="-99"/>
        </Node>
      </Node>
    </BinaryTree>
    <BinaryTree type="DecisionTree" boostWeight="1.0000000000000000e+00" itree="547">
      <Node pos="s" depth="0" NCoef="0" IVar="48" Cut="9.6541476249694824e-01" cType="1" res="2.2161610424518585e-02" rms="2.4621672928333282e-01" purity="4.9445411562919617e-01" nType="0">
        <Node pos="l" depth="1" NCoef="0" IVar="13" Cut="1.4794876575469971e+00" cType="1" res="-9.7660392522811890e-02" rms="1.4251542091369629e-01" purity="6.5919212996959686e-02" nType="0">
          <Node pos="l" depth="2" NCoef="0" IVar="-1" Cut="0.0000000000000000e+00" cType="1" res="-1.2488549109548330e-03" rms="1.5987583994865417e-01" purity="4.6568509191274643e-02" nType="-99"/>
          <Node pos="r" depth="2" NCoef="0" IVar="-1" Cut="0.0000000000000000e+00" cType="1" res="-3.8813569117337465e-03" rms="0.0000000000000000e+00" purity="9.5559068024158478e-02" nType="-99"/>
        </Node>
        <Node pos="r" depth="1" NCoef="0" IVar="5" Cut="2.8546217083930969e-01" cType="1" res="3.6903008818626404e-02" rms="2.5218746066093445e-01" purity="5.4717570543289185e-01" nType="0">
          <Node pos="l" depth="2" NCoef="0" IVar="-1" Cut="0.0000000000000000e+00" cType="1" res="1.7373707378283143e-03" rms="2.1379427611827850e-01" purity="7.4859344959259033e-01" nType="-99"/>
          <Node pos="r" depth="2" NCoef="0" IVar="-1" Cut="0.0000000000000000e+00" cType="1" res="-8.5201703768689185e-05" rms="2.8305146098136902e-01" purity="3.2524555921554565e-01" nType="-99"/>
        </Node>
      </Node>
    </BinaryTree>
    <BinaryTree type="DecisionTree" boostWeight="1.0000000000000000e+00" itree="548">
      <Node pos="s" depth="0" NCoef="0" IVar="5" Cut="3.0203419923782349e-01" cType="1" res="2.4065861478447914e-02" rms="2.3819349706172943e-01" purity="5.0467187166213989e-01" nType="0">
        <Node pos="l" depth="1" NCoef="0" IVar="48" Cut="1.5361665487289429e+00" cType="1" res="5.9184048324823380e-02" rms="2.1695958077907562e-01" purity="6.7120289802551270e-01" nType="0">
          <Node pos="l" depth="2" NCoef="0" IVar="-1" Cut="0.0000000000000000e+00" cType="1" res="-5.8254518080502748e-04" rms="2.1825279295444489e-01" purity="3.1556558609008789e-01" nType="-99"/>
          <Node pos="r" depth="2" NCoef="0" IVar="-1" Cut="0.0000000000000000e+00" cType="1" res="2.0825704559683800e-03" rms="2.0763134956359863e-01" purity="8.0880916118621826e-01" nType="-99"/>
        </Node>
        <Node pos="r" depth="1" NCoef="0" IVar="2" Cut="2.5700039863586426e+00" cType="1" res="-2.3855827748775482e-02" rms="2.5679758191108704e-01" purity="2.7742639183998108e-01" nType="0">
          <Node pos="l" depth="2" NCoef="0" IVar="-1" Cut="0.0000000000000000e+00" cType="1" res="-2.0431918092072010e-03" rms="1.8609127402305603e-01" purity="1.4442020654678345e-01" nType="-99"/>
          <Node pos="r" depth="2" NCoef="0" IVar="-1" Cut="0.0000000000000000e+00" cType="1" res="3.5546597791835666e-04" rms="3.1217432022094727e-01" purity="4.2744943499565125e-01" nType="-99"/>
        </Node>
      </Node>
    </BinaryTree>
    <BinaryTree type="DecisionTree" boostWeight="1.0000000000000000e+00" itree="549">
      <Node pos="s" depth="0" NCoef="0" IVar="48" Cut="9.0371370315551758e-01" cType="1" res="2.6706518605351448e-02" rms="2.4701935052871704e-01" purity="4.9517855048179626e-01" nType="0">
        <Node pos="l" depth="1" NCoef="0" IVar="38" Cut="-1.3384045362472534e+00" cType="1" res="-9.5461338758468628e-02" rms="1.0474777966737747e-01" purity="5.6838613003492355e-02" nType="0">
          <Node pos="l" depth="2" NCoef="0" IVar="-1" Cut="0.0000000000000000e+00" cType="1" res="3.0535857658833265e-03" rms="3.0728906393051147e-01" purity="1.8146011233329773e-01" nType="-99"/>
          <Node pos="r" depth="2" NCoef="0" IVar="-1" Cut="0.0000000000000000e+00" cType="1" res="-4.2730490677058697e-03" rms="0.0000000000000000e+00" purity="1.7603995278477669e-02" nType="-99"/>
        </Node>
        <Node pos="r" depth="1" NCoef="0" IVar="17" Cut="1.3298068046569824e+00" cType="1" res="3.9086118340492249e-02" rms="2.5381934642791748e-01" purity="5.3959667682647705e-01" nType="0">
          <Node pos="l" depth="2" NCoef="0" IVar="-1" Cut="0.0000000000000000e+00" cType="1" res="-7.5430199503898621e-03" rms="5.9533896856009960e-03" purity="2.9736182186752558e-03" nType="-99"/>
          <Node pos="r" depth="2" NCoef="0" IVar="-1" Cut="0.0000000000000000e+00" cType="1" res="1.0276827961206436e-03" rms="2.9312252998352051e-01" purity="7.3510897159576416e-01" nType="-99"/>
        </Node>
      </Node>
    </BinaryTree>
    <BinaryTree type="DecisionTree" boostWeight="1.0000000000000000e+00" itree="550">
      <Node pos="s" depth="0" NCoef="0" IVar="14" Cut="-1.1447700262069702e+00" cType="1" res="2.1078566089272499e-02" rms="2.5547936558723450e-01" purity="4.8837384581565857e-01" nType="0">
        <Node pos="l" depth="1" NCoef="0" IVar="17" Cut="1.5213149785995483e+00" cType="1" res="-2.5131678208708763e-02" rms="2.2800907492637634e-01" purity="3.2409241795539856e-01" nType="0">
          <Node pos="l" depth="2" NCoef="0" IVar="-1" Cut="0.0000000000000000e+00" cType="1" res="-2.1079098805785179e-03" rms="1.9819098711013794e-01" purity="1.1033343523740768e-01" nType="-99"/>
          <Node pos="r" depth="2" NCoef="0" IVar="-1" Cut="0.0000000000000000e+00" cType="1" res="7.9189037205651402e-04" rms="2.7313974499702454e-01" purity="8.1956583261489868e-01" nType="-99"/>
        </Node>
        <Node pos="r" depth="1" NCoef="0" IVar="36" Cut="1.4067025184631348e+00" cType="1" res="5.1296688616275787e-02" rms="2.6766648888587952e-01" purity="5.9580188989639282e-01" nType="0">
          <Node pos="l" depth="2" NCoef="0" IVar="-1" Cut="0.0000000000000000e+00" cType="1" res="-1.2660982320085168e-03" rms="1.9510635733604431e-01" purity="1.3430562615394592e-01" nType="-99"/>
          <Node pos="r" depth="2" NCoef="0" IVar="-1" Cut="0.0000000000000000e+00" cType="1" res="1.4225154882296920e-03" rms="2.8207811713218689e-01" purity="7.4665486812591553e-01" nType="-99"/>
        </Node>
      </Node>
    </BinaryTree>
    <BinaryTree type="DecisionTree" boostWeight="1.0000000000000000e+00" itree="551">
      <Node pos="s" depth="0" NCoef="0" IVar="5" Cut="2.8427755832672119e-01" cType="1" res="1.6386380419135094e-02" rms="2.4690431356430054e-01" purity="4.8298463225364685e-01" nType="0">
        <Node pos="l" depth="1" NCoef="0" IVar="36" Cut="1.3667931556701660e+00" cType="1" res="5.5078402161598206e-02" rms="2.3219102621078491e-01" purity="6.5806579589843750e-01" nType="0">
          <Node pos="l" depth="2" NCoef="0" IVar="-1" Cut="0.0000000000000000e+00" cType="1" res="-3.7211484741419554e-03" rms="1.5364405512809753e-01" purity="7.7536232769489288e-02" nType="-99"/>
          <Node pos="r" depth="2" NCoef="0" IVar="-1" Cut="0.0000000000000000e+00" cType="1" res="1.7808774719014764e-03" rms="2.4104276299476624e-01" purity="8.2977288961410522e-01" nType="-99"/>
        </Node>
        <Node pos="r" depth="1" NCoef="0" IVar="2" Cut="3.2279748916625977e+00" cType="1" res="-2.9665889218449593e-02" rms="2.5583013892173767e-01" purity="2.7459830045700073e-01" nType="0">
          <Node pos="l" depth="2" NCoef="0" IVar="-1" Cut="0.0000000000000000e+00" cType="1" res="-1.1507031740620732e-03" rms="2.3750509321689606e-01" purity="2.3096951842308044e-01" nType="-99"/>
          <Node pos="r" depth="2" NCoef="0" IVar="-1" Cut="0.0000000000000000e+00" cType="1" res="1.2438439298421144e-03" rms="3.2640239596366882e-01" purity="5.4315686225891113e-01" nType="-99"/>
        </Node>
      </Node>
    </BinaryTree>
    <BinaryTree type="DecisionTree" boostWeight="1.0000000000000000e+00" itree="552">
      <Node pos="s" depth="0" NCoef="0" IVar="48" Cut="1.2400738000869751e+00" cType="1" res="2.6032624766230583e-02" rms="2.4841350317001343e-01" purity="4.9695873260498047e-01" nType="0">
        <Node pos="l" depth="1" NCoef="0" IVar="0" Cut="6.2520867586135864e-01" cType="1" res="-5.9746664017438889e-02" rms="1.8023221194744110e-01" purity="1.7785975337028503e-01" nType="0">
          <Node pos="l" depth="2" NCoef="0" IVar="-1" Cut="0.0000000000000000e+00" cType="1" res="1.9707302271854132e-04" rms="2.4186535179615021e-01" purity="3.0685693025588989e-01" nType="-99"/>
          <Node pos="r" depth="2" NCoef="0" IVar="-1" Cut="0.0000000000000000e+00" cType="1" res="-3.6281330976635218e-03" rms="3.0639722943305969e-02" purity="6.1016459017992020e-02" nType="-99"/>
        </Node>
        <Node pos="r" depth="1" NCoef="0" IVar="5" Cut="2.8993555903434753e-01" cType="1" res="4.5191474258899689e-02" rms="2.5734475255012512e-01" purity="5.6822961568832397e-01" nType="0">
          <Node pos="l" depth="2" NCoef="0" IVar="-1" Cut="0.0000000000000000e+00" cType="1" res="2.0394336897879839e-03" rms="2.1807985007762909e-01" purity="7.7744656801223755e-01" nType="-99"/>
          <Node pos="r" depth="2" NCoef="0" IVar="-1" Cut="0.0000000000000000e+00" cType="1" res="-2.5035895305336453e-05" rms="2.8903108835220337e-01" purity="3.2904487848281860e-01" nType="-99"/>
        </Node>
      </Node>
    </BinaryTree>
    <BinaryTree type="DecisionTree" boostWeight="1.0000000000000000e+00" itree="553">
      <Node pos="s" depth="0" NCoef="0" IVar="17" Cut="1.4844523668289185e+00" cType="1" res="2.6578010991215706e-02" rms="2.4107490479946136e-01" purity="5.0889736413955688e-01" nType="0">
        <Node pos="l" depth="1" NCoef="0" IVar="10" Cut="3.6984744071960449e+00" cType="1" res="-1.6866175457835197e-02" rms="1.8189306557178497e-01" purity="8.7335661053657532e-02" nType="0">
          <Node pos="l" depth="2" NCoef="0" IVar="-1" Cut="0.0000000000000000e+00" cType="1" res="-1.4199441066011786e-03" rms="1.6287982463836670e-01" purity="6.9844335317611694e-02" nType="-99"/>
          <Node pos="r" depth="2" NCoef="0" IVar="-1" Cut="0.0000000000000000e+00" cType="1" res="4.4867191463708878e-03" rms="3.4197345376014709e-01" purity="4.0815794467926025e-01" nType="-99"/>
        </Node>
        <Node pos="r" depth="1" NCoef="0" IVar="31" Cut="2.6227829456329346e+00" cType="1" res="5.7593364268541336e-02" rms="2.7143764495849609e-01" purity="8.0985558032989502e-01" nType="0">
          <Node pos="l" depth="2" NCoef="0" IVar="-1" Cut="0.0000000000000000e+00" cType="1" res="-2.9864998068660498e-03" rms="2.8320547938346863e-01" purity="3.4133833646774292e-01" nType="-99"/>
          <Node pos="r" depth="2" NCoef="0" IVar="-1" Cut="0.0000000000000000e+00" cType="1" res="1.1004102416336536e-03" rms="2.6662245392799377e-01" purity="8.4498327970504761e-01" nType="-99"/>
        </Node>
      </Node>
    </BinaryTree>
    <BinaryTree type="DecisionTree" boostWeight="1.0000000000000000e+00" itree="554">
      <Node pos="s" depth="0" NCoef="0" IVar="5" Cut="4.3601316213607788e-01" cType="1" res="2.2854056209325790e-02" rms="2.4099743366241455e-01" purity="5.0035369396209717e-01" nType="0">
        <Node pos="l" depth="1" NCoef="0" IVar="36" Cut="1.4067025184631348e+00" cType="1" res="4.7265816479921341e-02" rms="2.3336564004421234e-01" purity="6.0699880123138428e-01" nType="0">
          <Node pos="l" depth="2" NCoef="0" IVar="-1" Cut="0.0000000000000000e+00" cType="1" res="-2.1819979883730412e-03" rms="1.7468628287315369e-01" purity="1.0014449805021286e-01" nType="-99"/>
          <Node pos="r" depth="2" NCoef="0" IVar="-1" Cut="0.0000000000000000e+00" cType="1" res="1.4251491520553827e-03" rms="2.4282419681549072e-01" purity="7.6905500888824463e-01" nType="-99"/>
        </Node>
        <Node pos="r" depth="1" NCoef="0" IVar="6" Cut="2.3318862915039062e+00" cType="1" res="-4.8916671425104141e-02" rms="2.4863672256469727e-01" purity="1.8681630492210388e-01" nType="0">
          <Node pos="l" depth="2" NCoef="0" IVar="-1" Cut="0.0000000000000000e+00" cType="1" res="-3.1141992658376694e-03" rms="1.5124996006488800e-01" purity="6.5954916179180145e-02" nType="-99"/>
          <Node pos="r" depth="2" NCoef="0" IVar="-1" Cut="0.0000000000000000e+00" cType="1" res="3.6557283601723611e-04" rms="3.3327031135559082e-01" purity="3.6542016267776489e-01" nType="-99"/>
        </Node>
      </Node>
    </BinaryTree>
    <BinaryTree type="DecisionTree" boostWeight="1.0000000000000000e+00" itree="555">
      <Node pos="s" depth="0" NCoef="0" IVar="5" Cut="3.0224487185478210e-01" cType="1" res="1.8796944990754128e-02" rms="2.3763035237789154e-01" purity="4.9698874354362488e-01" nType="0">
        <Node pos="l" depth="1" NCoef="0" IVar="48" Cut="1.0091929435729980e+00" cType="1" res="5.6774828583002090e-02" rms="2.2347611188888550e-01" purity="6.6008538007736206e-01" nType="0">
          <Node pos="l" depth="2" NCoef="0" IVar="-1" Cut="0.0000000000000000e+00" cType="1" res="-1.9742159638553858e-03" rms="1.8504902720451355e-01" purity="1.1075715720653534e-01" nType="-99"/>
          <Node pos="r" depth="2" NCoef="0" IVar="-1" Cut="0.0000000000000000e+00" cType="1" res="1.8645003437995911e-03" rms="2.2182458639144897e-01" purity="7.5281703472137451e-01" nType="-99"/>
        </Node>
        <Node pos="r" depth="1" NCoef="0" IVar="17" Cut="1.5207976102828979e+00" cType="1" res="-3.1643893569707870e-02" rms="2.4632635712623596e-01" purity="2.8036978840827942e-01" nType="0">
          <Node pos="l" depth="2" NCoef="0" IVar="-1" Cut="0.0000000000000000e+00" cType="1" res="-1.5367895830422640e-03" rms="1.9746679067611694e-01" purity="1.2394034862518311e-01" nType="-99"/>
          <Node pos="r" depth="2" NCoef="0" IVar="-1" Cut="0.0000000000000000e+00" cType="1" res="5.1372352754697204e-04" rms="3.4706062078475952e-01" purity="7.6012229919433594e-01" nType="-99"/>
        </Node>
      </Node>
    </BinaryTree>
    <BinaryTree type="DecisionTree" boostWeight="1.0000000000000000e+00" itree="556">
      <Node pos="s" depth="0" NCoef="0" IVar="2" Cut="2.5617034435272217e+00" cType="1" res="2.2414647042751312e-02" rms="2.5012496113777161e-01" purity="4.8921141028404236e-01" nType="0">
        <Node pos="l" depth="1" NCoef="0" IVar="57" Cut="-9.9747091531753540e-01" cType="1" res="-1.4808117412030697e-02" rms="2.2407671809196472e-01" purity="3.4744995832443237e-01" nType="0">
          <Node pos="l" depth="2" NCoef="0" IVar="-1" Cut="0.0000000000000000e+00" cType="1" res="4.3352547800168395e-04" rms="2.5386586785316467e-01" purity="4.2502385377883911e-01" nType="-99"/>
          <Node pos="r" depth="2" NCoef="0" IVar="-1" Cut="0.0000000000000000e+00" cType="1" res="-3.0732643790543079e-03" rms="1.1149649322032928e-01" purity="1.8012927472591400e-01" nType="-99"/>
        </Node>
        <Node pos="r" depth="1" NCoef="0" IVar="36" Cut="1.1748617887496948e+00" cType="1" res="6.7357622087001801e-02" rms="2.7163165807723999e-01" purity="6.6037499904632568e-01" nType="0">
          <Node pos="l" depth="2" NCoef="0" IVar="-1" Cut="0.0000000000000000e+00" cType="1" res="-3.6871330812573433e-03" rms="1.6620987653732300e-01" purity="5.7451900094747543e-02" nType="-99"/>
          <Node pos="r" depth="2" NCoef="0" IVar="-1" Cut="0.0000000000000000e+00" cType="1" res="1.4539589174091816e-03" rms="2.7838245034217834e-01" purity="7.3570573329925537e-01" nType="-99"/>
        </Node>
      </Node>
    </BinaryTree>
    <BinaryTree type="DecisionTree" boostWeight="1.0000000000000000e+00" itree="557">
      <Node pos="s" depth="0" NCoef="0" IVar="17" Cut="1.5214687585830688e+00" cType="1" res="3.2127726823091507e-02" rms="2.5388923287391663e-01" purity="5.0373625755310059e-01" nType="0">
        <Node pos="l" depth="1" NCoef="0" IVar="15" Cut="1.5204147100448608e+00" cType="1" res="5.6632454507052898e-03" rms="2.5542142987251282e-01" purity="2.6103663444519043e-01" nType="0">
          <Node pos="l" depth="2" NCoef="0" IVar="-1" Cut="0.0000000000000000e+00" cType="1" res="4.1872405563481152e-04" rms="2.5294584035873413e-01" purity="2.7211436629295349e-01" nType="-99"/>
          <Node pos="r" depth="2" NCoef="0" IVar="-1" Cut="0.0000000000000000e+00" cType="1" res="-7.9187536612153053e-03" rms="2.3606330156326294e-01" purity="6.6687598824501038e-02" nType="-99"/>
        </Node>
        <Node pos="r" depth="1" NCoef="0" IVar="15" Cut="1.5204272270202637e+00" cType="1" res="7.2016485035419464e-02" rms="2.4624535441398621e-01" purity="8.6954677104949951e-01" nType="0">
          <Node pos="l" depth="2" NCoef="0" IVar="-1" Cut="0.0000000000000000e+00" cType="1" res="1.8858441617339849e-03" rms="1.9455902278423309e-01" purity="9.3255078792572021e-01" nType="-99"/>
          <Node pos="r" depth="2" NCoef="0" IVar="-1" Cut="0.0000000000000000e+00" cType="1" res="-1.1961254813286359e-06" rms="3.5972371697425842e-01" purity="6.6068094968795776e-01" nType="-99"/>
        </Node>
      </Node>
    </BinaryTree>
    <BinaryTree type="DecisionTree" boostWeight="1.0000000000000000e+00" itree="558">
      <Node pos="s" depth="0" NCoef="0" IVar="2" Cut="1.8107006549835205e+00" cType="1" res="2.2407865151762962e-02" rms="2.4018943309783936e-01" purity="5.0007688999176025e-01" nType="0">
        <Node pos="l" depth="1" NCoef="0" IVar="13" Cut="1.4761320352554321e+00" cType="1" res="-5.3501781076192856e-02" rms="1.9122928380966187e-01" purity="1.5771257877349854e-01" nType="0">
          <Node pos="l" depth="2" NCoef="0" IVar="-1" Cut="0.0000000000000000e+00" cType="1" res="-2.3317844897974283e-04" rms="1.4714395999908447e-01" purity="1.1329465359449387e-01" nType="-99"/>
          <Node pos="r" depth="2" NCoef="0" IVar="-1" Cut="0.0000000000000000e+00" cType="1" res="-3.8213874213397503e-03" rms="2.2258020937442780e-01" purity="2.2445306181907654e-01" nType="-99"/>
        </Node>
        <Node pos="r" depth="1" NCoef="0" IVar="36" Cut="1.4073475599288940e+00" cType="1" res="3.9335027337074280e-02" rms="2.4663653969764709e-01" purity="5.7642108201980591e-01" nType="0">
          <Node pos="l" depth="2" NCoef="0" IVar="-1" Cut="0.0000000000000000e+00" cType="1" res="-1.6110764117911458e-03" rms="1.7762123048305511e-01" purity="1.2508307397365570e-01" nType="-99"/>
          <Node pos="r" depth="2" NCoef="0" IVar="-1" Cut="0.0000000000000000e+00" cType="1" res="1.0942603694275022e-03" rms="2.5864836573600769e-01" purity="7.0197254419326782e-01" nType="-99"/>
        </Node>
      </Node>
    </BinaryTree>
    <BinaryTree type="DecisionTree" boostWeight="1.0000000000000000e+00" itree="559">
      <Node pos="s" depth="0" NCoef="0" IVar="3" Cut="4.9848756790161133e+00" cType="1" res="3.3742003142833710e-02" rms="2.5684878230094910e-01" purity="5.1268547773361206e-01" nType="0">
        <Node pos="l" depth="1" NCoef="0" IVar="1" Cut="3.2359962463378906e+00" cType="1" res="1.4042190276086330e-02" rms="2.5003024935722351e-01" purity="4.8660019040107727e-01" nType="0">
          <Node pos="l" depth="2" NCoef="0" IVar="-1" Cut="0.0000000000000000e+00" cType="1" res="-8.3138031186535954e-04" rms="2.2377298772335052e-01" purity="3.3323648571968079e-01" nType="-99"/>
          <Node pos="r" depth="2" NCoef="0" IVar="-1" Cut="0.0000000000000000e+00" cType="1" res="1.3654530048370361e-03" rms="2.6914799213409424e-01" purity="6.7793214321136475e-01" nType="-99"/>
        </Node>
        <Node pos="r" depth="1" NCoef="0" IVar="2" Cut="1.4551348686218262e+00" cType="1" res="1.1073023080825806e-01" rms="2.6839229464530945e-01" purity="6.1462867259979248e-01" nType="0">
          <Node pos="l" depth="2" NCoef="0" IVar="-1" Cut="0.0000000000000000e+00" cType="1" res="-1.0568713769316673e-03" rms="2.1253299713134766e-01" purity="1.7812432348728180e-01" nType="-99"/>
          <Node pos="r" depth="2" NCoef="0" IVar="-1" Cut="0.0000000000000000e+00" cType="1" res="2.7162646874785423e-03" rms="2.6990047097206116e-01" purity="7.2588664293289185e-01" nType="-99"/>
        </Node>
      </Node>
    </BinaryTree>
    <BinaryTree type="DecisionTree" boostWeight="1.0000000000000000e+00" itree="560">
      <Node pos="s" depth="0" NCoef="0" IVar="2" Cut="2.2350370883941650e+00" cType="1" res="2.8529213741421700e-02" rms="2.4850040674209595e-01" purity="5.0272643566131592e-01" nType="0">
        <Node pos="l" depth="1" NCoef="0" IVar="24" Cut="1.2345679104328156e-02" cType="1" res="-2.1108010783791542e-02" rms="2.2197885811328888e-01" purity="2.6763457059860229e-01" nType="0">
          <Node pos="l" depth="2" NCoef="0" IVar="-1" Cut="0.0000000000000000e+00" cType="1" res="3.4007836802629754e-05" rms="2.3215964436531067e-01" purity="3.3277487754821777e-01" nType="-99"/>
          <Node pos="r" depth="2" NCoef="0" IVar="-1" Cut="0.0000000000000000e+00" cType="1" res="-7.9211462289094925e-03" rms="1.4112713932991028e-01" purity="4.8169761430472136e-04" nType="-99"/>
        </Node>
        <Node pos="r" depth="1" NCoef="0" IVar="18" Cut="-1.1027734279632568e+00" cType="1" res="5.5178873240947723e-02" rms="2.5771814584732056e-01" purity="6.2894457578659058e-01" nType="0">
          <Node pos="l" depth="2" NCoef="0" IVar="-1" Cut="0.0000000000000000e+00" cType="1" res="1.3002719497308135e-03" rms="2.5609156489372253e-01" purity="6.5886062383651733e-01" nType="-99"/>
          <Node pos="r" depth="2" NCoef="0" IVar="-1" Cut="0.0000000000000000e+00" cType="1" res="-1.9303667359054089e-03" rms="2.3941989243030548e-01" purity="3.1013751029968262e-01" nType="-99"/>
        </Node>
      </Node>
    </BinaryTree>
    <BinaryTree type="DecisionTree" boostWeight="1.0000000000000000e+00" itree="561">
      <Node pos="s" depth="0" NCoef="0" IVar="14" Cut="-1.3379518985748291e+00" cType="1" res="2.9109848663210869e-02" rms="2.5882080197334290e-01" purity="4.9379163980484009e-01" nType="0">
        <Node pos="l" depth="1" NCoef="0" IVar="16" Cut="-8.3774232864379883e-01" cType="1" res="-3.7882313132286072e-02" rms="2.1349895000457764e-01" purity="2.1698310971260071e-01" nType="0">
          <Node pos="l" depth="2" NCoef="0" IVar="-1" Cut="0.0000000000000000e+00" cType="1" res="-6.5597658976912498e-04" rms="2.3073162138462067e-01" purity="2.5301936268806458e-01" nType="-99"/>
          <Node pos="r" depth="2" NCoef="0" IVar="-1" Cut="0.0000000000000000e+00" cType="1" res="-7.1999370120465755e-03" rms="0.0000000000000000e+00" purity="-3.9948988705873489e-02" nType="-99"/>
        </Node>
        <Node pos="r" depth="1" NCoef="0" IVar="57" Cut="-2.3436577618122101e-01" cType="1" res="5.2054088562726974e-02" rms="2.6880511641502380e-01" purity="5.8859622478485107e-01" nType="0">
          <Node pos="l" depth="2" NCoef="0" IVar="-1" Cut="0.0000000000000000e+00" cType="1" res="1.4987232862040401e-03" rms="2.7679541707038879e-01" purity="6.4477252960205078e-01" nType="-99"/>
          <Node pos="r" depth="2" NCoef="0" IVar="-1" Cut="0.0000000000000000e+00" cType="1" res="-5.7335715973749757e-04" rms="2.2552496194839478e-01" purity="4.1175535321235657e-01" nType="-99"/>
        </Node>
      </Node>
    </BinaryTree>
    <BinaryTree type="DecisionTree" boostWeight="1.0000000000000000e+00" itree="562">
      <Node pos="s" depth="0" NCoef="0" IVar="48" Cut="9.5645338296890259e-01" cType="1" res="2.7755150571465492e-02" rms="2.5094386935234070e-01" purity="5.0322210788726807e-01" nType="0">
        <Node pos="l" depth="1" NCoef="0" IVar="61" Cut="6.5634864568710327e-01" cType="1" res="-8.3321981132030487e-02" rms="1.4381453394889832e-01" purity="8.3732165396213531e-02" nType="0">
          <Node pos="l" depth="2" NCoef="0" IVar="-1" Cut="0.0000000000000000e+00" cType="1" res="1.2907405616715550e-03" rms="3.2829838991165161e-01" purity="2.8336575627326965e-01" nType="-99"/>
          <Node pos="r" depth="2" NCoef="0" IVar="-1" Cut="0.0000000000000000e+00" cType="1" res="-4.7588129527866840e-03" rms="0.0000000000000000e+00" purity="-1.5717569738626480e-02" nType="-99"/>
        </Node>
        <Node pos="r" depth="1" NCoef="0" IVar="5" Cut="3.0394664406776428e-01" cType="1" res="4.1082415729761124e-02" rms="2.5766047835350037e-01" purity="5.5355340242385864e-01" nType="0">
          <Node pos="l" depth="2" NCoef="0" IVar="-1" Cut="0.0000000000000000e+00" cType="1" res="1.7997323302552104e-03" rms="2.2465114295482635e-01" purity="7.4127060174942017e-01" nType="-99"/>
          <Node pos="r" depth="2" NCoef="0" IVar="-1" Cut="0.0000000000000000e+00" cType="1" res="-5.3938820201437920e-05" rms="2.8857630491256714e-01" purity="3.1423035264015198e-01" nType="-99"/>
        </Node>
      </Node>
    </BinaryTree>
    <BinaryTree type="DecisionTree" boostWeight="1.0000000000000000e+00" itree="563">
      <Node pos="s" depth="0" NCoef="0" IVar="48" Cut="1.0147609710693359e+00" cType="1" res="2.3532869294285774e-02" rms="2.4782532453536987e-01" purity="4.9464130401611328e-01" nType="0">
        <Node pos="l" depth="1" NCoef="0" IVar="61" Cut="6.4990293979644775e-01" cType="1" res="-7.7248394489288330e-02" rms="1.5352737903594971e-01" purity="9.9943302571773529e-02" nType="0">
          <Node pos="l" depth="2" NCoef="0" IVar="-1" Cut="0.0000000000000000e+00" cType="1" res="1.0526761179789901e-03" rms="3.2904317975044250e-01" purity="2.7000579237937927e-01" nType="-99"/>
          <Node pos="r" depth="2" NCoef="0" IVar="-1" Cut="0.0000000000000000e+00" cType="1" res="-4.3462989851832390e-03" rms="0.0000000000000000e+00" purity="1.4773584902286530e-02" nType="-99"/>
        </Node>
        <Node pos="r" depth="1" NCoef="0" IVar="3" Cut="5.1929507255554199e+00" cType="1" res="3.7786990404129028e-02" rms="2.5520688295364380e-01" purity="5.5046594142913818e-01" nType="0">
          <Node pos="l" depth="2" NCoef="0" IVar="-1" Cut="0.0000000000000000e+00" cType="1" res="6.0179911088198423e-04" rms="2.4920988082885742e-01" purity="5.5012243986129761e-01" nType="-99"/>
          <Node pos="r" depth="2" NCoef="0" IVar="-1" Cut="0.0000000000000000e+00" cType="1" res="3.1692166812717915e-03" rms="2.8741899132728577e-01" purity="5.5451226234436035e-01" nType="-99"/>
        </Node>
      </Node>
    </BinaryTree>
    <BinaryTree type="DecisionTree" boostWeight="1.0000000000000000e+00" itree="564">
      <Node pos="s" depth="0" NCoef="0" IVar="5" Cut="2.8427755832672119e-01" cType="1" res="1.6245596110820770e-02" rms="2.4121849238872528e-01" purity="4.8849588632583618e-01" nType="0">
        <Node pos="l" depth="1" NCoef="0" IVar="57" Cut="-1.0356419086456299e+00" cType="1" res="5.3528919816017151e-02" rms="2.2455486655235291e-01" purity="6.6320013999938965e-01" nType="0">
          <Node pos="l" depth="2" NCoef="0" IVar="-1" Cut="0.0000000000000000e+00" cType="1" res="1.9492052961140871e-03" rms="2.3587824404239655e-01" purity="7.3418760299682617e-01" nType="-99"/>
          <Node pos="r" depth="2" NCoef="0" IVar="-1" Cut="0.0000000000000000e+00" cType="1" res="-3.6591908428817987e-04" rms="1.7953230440616608e-01" purity="5.0577706098556519e-01" nType="-99"/>
        </Node>
        <Node pos="r" depth="1" NCoef="0" IVar="40" Cut="5.5585509538650513e-01" cType="1" res="-2.8312617912888527e-02" rms="2.5261744856834412e-01" purity="2.7970260381698608e-01" nType="0">
          <Node pos="l" depth="2" NCoef="0" IVar="-1" Cut="0.0000000000000000e+00" cType="1" res="6.8478460889309645e-04" rms="2.9416987299919128e-01" purity="3.6965283751487732e-01" nType="-99"/>
          <Node pos="r" depth="2" NCoef="0" IVar="-1" Cut="0.0000000000000000e+00" cType="1" res="-1.2995157158002257e-03" rms="2.2670657932758331e-01" purity="2.3994494974613190e-01" nType="-99"/>
        </Node>
      </Node>
    </BinaryTree>
    <BinaryTree type="DecisionTree" boostWeight="1.0000000000000000e+00" itree="565">
      <Node pos="s" depth="0" NCoef="0" IVar="17" Cut="1.5231137275695801e+00" cType="1" res="2.1946595981717110e-02" rms="2.4191002547740936e-01" purity="5.0125592947006226e-01" nType="0">
        <Node pos="l" depth="1" NCoef="0" IVar="15" Cut="1.4817715883255005e+00" cType="1" res="-9.1309687122702599e-03" rms="2.3618014156818390e-01" purity="2.6908445358276367e-01" nType="0">
          <Node pos="l" depth="2" NCoef="0" IVar="-1" Cut="0.0000000000000000e+00" cType="1" res="3.6445123259909451e-04" rms="2.1164640784263611e-01" purity="2.6722988486289978e-01" nType="-99"/>
          <Node pos="r" depth="2" NCoef="0" IVar="-1" Cut="0.0000000000000000e+00" cType="1" res="-1.9240458495914936e-03" rms="3.1355065107345581e-01" purity="2.7845966815948486e-01" nType="-99"/>
        </Node>
        <Node pos="r" depth="1" NCoef="0" IVar="31" Cut="2.6001787185668945e+00" cType="1" res="7.1859590709209442e-02" rms="2.4264720082283020e-01" purity="8.7414145469665527e-01" nType="0">
          <Node pos="l" depth="2" NCoef="0" IVar="-1" Cut="0.0000000000000000e+00" cType="1" res="-2.2172639146447182e-03" rms="2.9517942667007446e-01" purity="4.1750141978263855e-01" nType="-99"/>
          <Node pos="r" depth="2" NCoef="0" IVar="-1" Cut="0.0000000000000000e+00" cType="1" res="1.5016568358987570e-03" rms="2.3553425073623657e-01" purity="9.0150791406631470e-01" nType="-99"/>
        </Node>
      </Node>
    </BinaryTree>
    <BinaryTree type="DecisionTree" boostWeight="1.0000000000000000e+00" itree="566">
      <Node pos="s" depth="0" NCoef="0" IVar="27" Cut="1.5877929925918579e+00" cType="1" res="2.3264234885573387e-02" rms="2.5380048155784607e-01" purity="4.9568817019462585e-01" nType="0">
        <Node pos="l" depth="1" NCoef="0" IVar="3" Cut="4.8279781341552734e+00" cType="1" res="-4.5413162559270859e-02" rms="2.0311576128005981e-01" purity="2.4230878055095673e-01" nType="0">
          <Node pos="l" depth="2" NCoef="0" IVar="-1" Cut="0.0000000000000000e+00" cType="1" res="-4.0746596641838551e-03" rms="1.6694238781929016e-01" purity="1.6770404577255249e-01" nType="-99"/>
          <Node pos="r" depth="2" NCoef="0" IVar="-1" Cut="0.0000000000000000e+00" cType="1" res="6.4473837846890092e-04" rms="2.3954436182975769e-01" purity="3.7573561072349548e-01" nType="-99"/>
        </Node>
        <Node pos="r" depth="1" NCoef="0" IVar="5" Cut="3.4026998281478882e-01" cType="1" res="4.2661372572183609e-02" rms="2.6314857602119446e-01" purity="5.6725221872329712e-01" nType="0">
          <Node pos="l" depth="2" NCoef="0" IVar="-1" Cut="0.0000000000000000e+00" cType="1" res="1.7316248267889023e-03" rms="2.3022972047328949e-01" purity="7.5238090753555298e-01" nType="-99"/>
          <Node pos="r" depth="2" NCoef="0" IVar="-1" Cut="0.0000000000000000e+00" cType="1" res="-1.9731925567612052e-04" rms="2.9586860537528992e-01" purity="3.0532896518707275e-01" nType="-99"/>
        </Node>
      </Node>
    </BinaryTree>
    <BinaryTree type="DecisionTree" boostWeight="1.0000000000000000e+00" itree="567">
      <Node pos="s" depth="0" NCoef="0" IVar="1" Cut="2.9546763896942139e+00" cType="1" res="2.0532242953777313e-02" rms="2.4148099124431610e-01" purity="4.9814462661743164e-01" nType="0">
        <Node pos="l" depth="1" NCoef="0" IVar="3" Cut="4.7573895454406738e+00" cType="1" res="-2.7840705588459969e-02" rms="2.1367636322975159e-01" purity="2.6709294319152832e-01" nType="0">
          <Node pos="l" depth="2" NCoef="0" IVar="-1" Cut="0.0000000000000000e+00" cType="1" res="-3.0785857234150171e-03" rms="1.5085244178771973e-01" purity="1.5094910562038422e-01" nType="-99"/>
          <Node pos="r" depth="2" NCoef="0" IVar="-1" Cut="0.0000000000000000e+00" cType="1" res="7.0113869151100516e-04" rms="2.5390550494194031e-01" purity="3.9710852503776550e-01" nType="-99"/>
        </Node>
        <Node pos="r" depth="1" NCoef="0" IVar="5" Cut="3.5683950781822205e-01" cType="1" res="5.2138235419988632e-02" rms="2.5308912992477417e-01" purity="6.4910948276519775e-01" nType="0">
          <Node pos="l" depth="2" NCoef="0" IVar="-1" Cut="0.0000000000000000e+00" cType="1" res="1.7729344544932246e-03" rms="2.0944593846797943e-01" purity="7.8945231437683105e-01" nType="-99"/>
          <Node pos="r" depth="2" NCoef="0" IVar="-1" Cut="0.0000000000000000e+00" cType="1" res="-7.3141109169228002e-06" rms="3.2017016410827637e-01" purity="3.5343730449676514e-01" nType="-99"/>
        </Node>
      </Node>
    </BinaryTree>
    <BinaryTree type="DecisionTree" boostWeight="1.0000000000000000e+00" itree="568">
      <Node pos="s" depth="0" NCoef="0" IVar="2" Cut="1.3414045572280884e+00" cType="1" res="2.5623939931392670e-02" rms="2.4939958751201630e-01" purity="5.0668221712112427e-01" nType="0">
        <Node pos="l" depth="1" NCoef="0" IVar="17" Cut="3.2072374224662781e-01" cType="1" res="-1.2228020280599594e-01" rms="2.3982770740985870e-02" purity="2.7320222929120064e-02" nType="0">
          <Node pos="l" depth="2" NCoef="0" IVar="-1" Cut="0.0000000000000000e+00" cType="1" res="-1.0802031494677067e-02" rms="6.7153133451938629e-02" purity="4.5680692419409752e-03" nType="-99"/>
          <Node pos="r" depth="2" NCoef="0" IVar="-1" Cut="0.0000000000000000e+00" cType="1" res="-9.0277101844549179e-03" rms="0.0000000000000000e+00" purity="4.8087831586599350e-02" nType="-99"/>
        </Node>
        <Node pos="r" depth="1" NCoef="0" IVar="3" Cut="4.9394011497497559e+00" cType="1" res="3.6452699452638626e-02" rms="2.5493749976158142e-01" purity="5.4177850484848022e-01" nType="0">
          <Node pos="l" depth="2" NCoef="0" IVar="-1" Cut="0.0000000000000000e+00" cType="1" res="2.7058200794272125e-04" rms="2.5197345018386841e-01" purity="4.9304762482643127e-01" nType="-99"/>
          <Node pos="r" depth="2" NCoef="0" IVar="-1" Cut="0.0000000000000000e+00" cType="1" res="2.3294724524021149e-03" rms="2.4728825688362122e-01" purity="7.0578259229660034e-01" nType="-99"/>
        </Node>
      </Node>
    </BinaryTree>
    <BinaryTree type="DecisionTree" boostWeight="1.0000000000000000e+00" itree="569">
      <Node pos="s" depth="0" NCoef="0" IVar="5" Cut="2.8427755832672119e-01" cType="1" res="1.7759542912244797e-02" rms="2.4250702559947968e-01" purity="4.9343416094779968e-01" nType="0">
        <Node pos="l" depth="1" NCoef="0" IVar="36" Cut="1.4450289011001587e+00" cType="1" res="5.1239907741546631e-02" rms="2.1551270782947540e-01" purity="6.6988080739974976e-01" nType="0">
          <Node pos="l" depth="2" NCoef="0" IVar="-1" Cut="0.0000000000000000e+00" cType="1" res="-1.1757075553759933e-03" rms="2.1495607495307922e-01" purity="1.9655235111713409e-01" nType="-99"/>
          <Node pos="r" depth="2" NCoef="0" IVar="-1" Cut="0.0000000000000000e+00" cType="1" res="1.7454825574532151e-03" rms="2.0692677795886993e-01" purity="8.6516773700714111e-01" nType="-99"/>
        </Node>
        <Node pos="r" depth="1" NCoef="0" IVar="2" Cut="2.3928956985473633e+00" cType="1" res="-2.3013303056359291e-02" rms="2.6615616679191589e-01" purity="2.7855494618415833e-01" nType="0">
          <Node pos="l" depth="2" NCoef="0" IVar="-1" Cut="0.0000000000000000e+00" cType="1" res="-2.2803386673331261e-03" rms="2.0420962572097778e-01" purity="1.2884004414081573e-01" nType="-99"/>
          <Node pos="r" depth="2" NCoef="0" IVar="-1" Cut="0.0000000000000000e+00" cType="1" res="1.6995340411085635e-04" rms="3.0150538682937622e-01" purity="3.9416885375976562e-01" nType="-99"/>
        </Node>
      </Node>
    </BinaryTree>
    <BinaryTree type="DecisionTree" boostWeight="1.0000000000000000e+00" itree="570">
      <Node pos="s" depth="0" NCoef="0" IVar="18" Cut="-1.1668176651000977e+00" cType="1" res="2.3400180041790009e-02" rms="2.5098493695259094e-01" purity="4.9360004067420959e-01" nType="0">
        <Node pos="l" depth="1" NCoef="0" IVar="36" Cut="1.2910265922546387e+00" cType="1" res="3.7279490381479263e-02" rms="2.4936476349830627e-01" purity="5.3486174345016479e-01" nType="0">
          <Node pos="l" depth="2" NCoef="0" IVar="-1" Cut="0.0000000000000000e+00" cType="1" res="-2.6427751872688532e-03" rms="1.2722255289554596e-01" purity="5.4376844316720963e-02" nType="-99"/>
          <Node pos="r" depth="2" NCoef="0" IVar="-1" Cut="0.0000000000000000e+00" cType="1" res="1.0785383637994528e-03" rms="2.6879638433456421e-01" purity="6.5913301706314087e-01" nType="-99"/>
        </Node>
        <Node pos="r" depth="1" NCoef="0" IVar="15" Cut="1.4780305624008179e+00" cType="1" res="-8.0645799636840820e-02" rms="2.3832927644252777e-01" purity="1.8428215384483337e-01" nType="0">
          <Node pos="l" depth="2" NCoef="0" IVar="-1" Cut="0.0000000000000000e+00" cType="1" res="-1.9376291893422604e-03" rms="2.0504944026470184e-01" purity="1.7076510190963745e-01" nType="-99"/>
          <Node pos="r" depth="2" NCoef="0" IVar="-1" Cut="0.0000000000000000e+00" cType="1" res="-4.2227851226925850e-03" rms="2.8813019394874573e-01" purity="2.3491278290748596e-01" nType="-99"/>
        </Node>
      </Node>
    </BinaryTree>
    <BinaryTree type="DecisionTree" boostWeight="1.0000000000000000e+00" itree="571">
      <Node pos="s" depth="0" NCoef="0" IVar="3" Cut="4.9661574363708496e+00" cType="1" res="1.8760213628411293e-02" rms="2.3183099925518036e-01" purity="4.9911636114120483e-01" nType="0">
        <Node pos="l" depth="1" NCoef="0" IVar="1" Cut="3.0905907154083252e+00" cType="1" res="-1.5910202637314796e-03" rms="2.2274330258369446e-01" purity="4.7305890917778015e-01" nType="0">
          <Node pos="l" depth="2" NCoef="0" IVar="-1" Cut="0.0000000000000000e+00" cType="1" res="-1.7640080768615007e-03" rms="1.7947243154048920e-01" purity="2.4836383759975433e-01" nType="-99"/>
          <Node pos="r" depth="2" NCoef="0" IVar="-1" Cut="0.0000000000000000e+00" cType="1" res="9.2184997629374266e-04" rms="2.4225318431854248e-01" purity="6.5433990955352783e-01" nType="-99"/>
        </Node>
        <Node pos="r" depth="1" NCoef="0" IVar="57" Cut="2.9980009794235229e-01" cType="1" res="9.2653356492519379e-02" rms="2.4855771660804749e-01" purity="5.9372806549072266e-01" nType="0">
          <Node pos="l" depth="2" NCoef="0" IVar="-1" Cut="0.0000000000000000e+00" cType="1" res="2.6248765643686056e-03" rms="2.7066504955291748e-01" purity="6.5290695428848267e-01" nType="-99"/>
          <Node pos="r" depth="2" NCoef="0" IVar="-1" Cut="0.0000000000000000e+00" cType="1" res="-1.4557371614500880e-03" rms="0.0000000000000000e+00" purity="2.9755133390426636e-01" nType="-99"/>
        </Node>
      </Node>
    </BinaryTree>
    <BinaryTree type="DecisionTree" boostWeight="1.0000000000000000e+00" itree="572">
      <Node pos="s" depth="0" NCoef="0" IVar="48" Cut="1.2908140420913696e+00" cType="1" res="2.3944986984133720e-02" rms="2.4109789729118347e-01" purity="5.0173068046569824e-01" nType="0">
        <Node pos="l" depth="1" NCoef="0" IVar="59" Cut="-8.7602919340133667e-01" cType="1" res="-5.5897366255521774e-02" rms="2.0630133152008057e-01" purity="1.6997715830802917e-01" nType="0">
          <Node pos="l" depth="2" NCoef="0" IVar="-1" Cut="0.0000000000000000e+00" cType="1" res="3.5827583633363247e-04" rms="2.7590981125831604e-01" purity="2.9745927453041077e-01" nType="-99"/>
          <Node pos="r" depth="2" NCoef="0" IVar="-1" Cut="0.0000000000000000e+00" cType="1" res="-5.2737654186785221e-03" rms="0.0000000000000000e+00" purity="8.3036888390779495e-03" nType="-99"/>
        </Node>
        <Node pos="r" depth="1" NCoef="0" IVar="14" Cut="-1.3379518985748291e+00" cType="1" res="4.2439848184585571e-02" rms="2.4477674067020416e-01" purity="5.7857882976531982e-01" nType="0">
          <Node pos="l" depth="2" NCoef="0" IVar="-1" Cut="0.0000000000000000e+00" cType="1" res="-6.3667242648079991e-04" rms="2.2143107652664185e-01" purity="2.7092069387435913e-01" nType="-99"/>
          <Node pos="r" depth="2" NCoef="0" IVar="-1" Cut="0.0000000000000000e+00" cType="1" res="1.3000784674659371e-03" rms="2.4846814572811127e-01" purity="6.7952424287796021e-01" nType="-99"/>
        </Node>
      </Node>
    </BinaryTree>
    <BinaryTree type="DecisionTree" boostWeight="1.0000000000000000e+00" itree="573">
      <Node pos="s" depth="0" NCoef="0" IVar="18" Cut="-9.1102206707000732e-01" cType="1" res="3.1790062785148621e-02" rms="2.6304790377616882e-01" purity="5.0304090976715088e-01" nType="0">
        <Node pos="l" depth="1" NCoef="0" IVar="52" Cut="3.5556457042694092e+00" cType="1" res="3.9867345243692398e-02" rms="2.6268357038497925e-01" purity="5.2643108367919922e-01" nType="0">
          <Node pos="l" depth="2" NCoef="0" IVar="-1" Cut="0.0000000000000000e+00" cType="1" res="1.0511623695492744e-03" rms="2.6690301299095154e-01" purity="5.3680574893951416e-01" nType="-99"/>
          <Node pos="r" depth="2" NCoef="0" IVar="-1" Cut="0.0000000000000000e+00" cType="1" res="-3.5770852118730545e-03" rms="0.0000000000000000e+00" purity="2.7755922079086304e-01" nType="-99"/>
        </Node>
        <Node pos="r" depth="1" NCoef="0" IVar="10" Cut="3.0786826610565186e+00" cType="1" res="-9.6428036689758301e-02" rms="2.3400716483592987e-01" purity="1.3174740970134735e-01" nType="0">
          <Node pos="l" depth="2" NCoef="0" IVar="-1" Cut="0.0000000000000000e+00" cType="1" res="-1.4180474681779742e-03" rms="2.5697562098503113e-01" purity="1.6490824520587921e-01" nType="-99"/>
          <Node pos="r" depth="2" NCoef="0" IVar="-1" Cut="0.0000000000000000e+00" cType="1" res="-1.0386804118752480e-02" rms="1.5630398690700531e-01" purity="8.1688150763511658e-02" nType="-99"/>
        </Node>
      </Node>
    </BinaryTree>
    <BinaryTree type="DecisionTree" boostWeight="1.0000000000000000e+00" itree="574">
      <Node pos="s" depth="0" NCoef="0" IVar="2" Cut="1.9485350847244263e+00" cType="1" res="2.7992175891995430e-02" rms="2.5197869539260864e-01" purity="5.0324642658233643e-01" nType="0">
        <Node pos="l" depth="1" NCoef="0" IVar="15" Cut="1.5193979740142822e+00" cType="1" res="-4.3301023542881012e-02" rms="2.0175155997276306e-01" purity="1.8084505200386047e-01" nType="0">
          <Node pos="l" depth="2" NCoef="0" IVar="-1" Cut="0.0000000000000000e+00" cType="1" res="-6.4599979668855667e-04" rms="1.9432644546031952e-01" purity="2.0578117668628693e-01" nType="-99"/>
          <Node pos="r" depth="2" NCoef="0" IVar="-1" Cut="0.0000000000000000e+00" cType="1" res="-1.5205488540232182e-02" rms="1.5422093868255615e-01" purity="1.5062200836837292e-03" nType="-99"/>
        </Node>
        <Node pos="r" depth="1" NCoef="0" IVar="3" Cut="4.9600148200988770e+00" cType="1" res="4.8369340598583221e-02" rms="2.6103457808494568e-01" purity="5.9539586305618286e-01" nType="0">
          <Node pos="l" depth="2" NCoef="0" IVar="-1" Cut="0.0000000000000000e+00" cType="1" res="6.2010961119085550e-04" rms="2.6256296038627625e-01" purity="5.5471020936965942e-01" nType="-99"/>
          <Node pos="r" depth="2" NCoef="0" IVar="-1" Cut="0.0000000000000000e+00" cType="1" res="2.3887110874056816e-03" rms="2.3672874271869659e-01" purity="7.7126741409301758e-01" nType="-99"/>
        </Node>
      </Node>
    </BinaryTree>
    <BinaryTree type="DecisionTree" boostWeight="1.0000000000000000e+00" itree="575">
      <Node pos="s" depth="0" NCoef="0" IVar="3" Cut="5.1129884719848633e+00" cType="1" res="2.9321314767003059e-02" rms="2.5371107459068298e-01" purity="5.1201426982879639e-01" nType="0">
        <Node pos="l" depth="1" NCoef="0" IVar="1" Cut="2.1941926479339600e+00" cType="1" res="1.5895683318376541e-02" rms="2.4709026515483856e-01" purity="5.0541383028030396e-01" nType="0">
          <Node pos="l" depth="2" NCoef="0" IVar="-1" Cut="0.0000000000000000e+00" cType="1" res="-5.0470419228076935e-03" rms="0.0000000000000000e+00" purity="1.7374237999320030e-02" nType="-99"/>
          <Node pos="r" depth="2" NCoef="0" IVar="-1" Cut="0.0000000000000000e+00" cType="1" res="6.3377612968906760e-04" rms="2.5712800025939941e-01" purity="5.5796825885772705e-01" nType="-99"/>
        </Node>
        <Node pos="r" depth="1" NCoef="0" IVar="17" Cut="-7.2011882066726685e-01" cType="1" res="1.3236182928085327e-01" rms="2.7895596623420715e-01" purity="5.6267189979553223e-01" nType="0">
          <Node pos="l" depth="2" NCoef="0" IVar="-1" Cut="0.0000000000000000e+00" cType="1" res="-9.2054773122072220e-03" rms="0.0000000000000000e+00" purity="-1.4519286341965199e-03" nType="-99"/>
          <Node pos="r" depth="2" NCoef="0" IVar="-1" Cut="0.0000000000000000e+00" cType="1" res="2.9671837110072374e-03" rms="3.0284836888313293e-01" purity="7.3044413328170776e-01" nType="-99"/>
        </Node>
      </Node>
    </BinaryTree>
    <BinaryTree type="DecisionTree" boostWeight="1.0000000000000000e+00" itree="576">
      <Node pos="s" depth="0" NCoef="0" IVar="10" Cut="2.9227631092071533e+00" cType="1" res="1.3359228149056435e-02" rms="2.3906837403774261e-01" purity="4.7925132513046265e-01" nType="0">
        <Node pos="l" depth="1" NCoef="0" IVar="14" Cut="8.2556635141372681e-01" cType="1" res="-6.2081269919872284e-02" rms="2.2683985531330109e-01" purity="1.3286879658699036e-01" nType="0">
          <Node pos="l" depth="2" NCoef="0" IVar="-1" Cut="0.0000000000000000e+00" cType="1" res="-1.0486082173883915e-03" rms="2.4800474941730499e-01" purity="1.4968965947628021e-01" nType="-99"/>
          <Node pos="r" depth="2" NCoef="0" IVar="-1" Cut="0.0000000000000000e+00" cType="1" res="-5.3503271192312241e-03" rms="0.0000000000000000e+00" purity="3.1094199046492577e-02" nType="-99"/>
        </Node>
        <Node pos="r" depth="1" NCoef="0" IVar="48" Cut="9.4233071804046631e-01" cType="1" res="3.0916081741452217e-02" rms="2.3842580616474152e-01" purity="5.5986303091049194e-01" nType="0">
          <Node pos="l" depth="2" NCoef="0" IVar="-1" Cut="0.0000000000000000e+00" cType="1" res="-2.5370167568325996e-03" rms="1.4210493862628937e-01" purity="6.5997011959552765e-02" nType="-99"/>
          <Node pos="r" depth="2" NCoef="0" IVar="-1" Cut="0.0000000000000000e+00" cType="1" res="9.7538949921727180e-04" rms="2.4328055977821350e-01" purity="6.1501961946487427e-01" nType="-99"/>
        </Node>
      </Node>
    </BinaryTree>
    <BinaryTree type="DecisionTree" boostWeight="1.0000000000000000e+00" itree="577">
      <Node pos="s" depth="0" NCoef="0" IVar="27" Cut="1.1261360645294189e+00" cType="1" res="2.5799881666898727e-02" rms="2.4472206830978394e-01" purity="4.9992027878761292e-01" nType="0">
        <Node pos="l" depth="1" NCoef="0" IVar="62" Cut="2.6500638574361801e-02" cType="1" res="-7.4646674096584320e-02" rms="1.1563002318143845e-01" purity="1.4809644222259521e-01" nType="0">
          <Node pos="l" depth="2" NCoef="0" IVar="-1" Cut="0.0000000000000000e+00" cType="1" res="-2.7968655922450125e-04" rms="2.3988671600818634e-01" purity="2.2305500507354736e-01" nType="-99"/>
          <Node pos="r" depth="2" NCoef="0" IVar="-1" Cut="0.0000000000000000e+00" cType="1" res="-5.8341259136795998e-03" rms="0.0000000000000000e+00" purity="9.8546922206878662e-02" nType="-99"/>
        </Node>
        <Node pos="r" depth="1" NCoef="0" IVar="5" Cut="2.8582024574279785e-01" cType="1" res="3.8509808480739594e-02" rms="2.5364714860916138e-01" purity="5.4443800449371338e-01" nType="0">
          <Node pos="l" depth="2" NCoef="0" IVar="-1" Cut="0.0000000000000000e+00" cType="1" res="1.6930302372202277e-03" rms="2.2576047480106354e-01" purity="7.5285434722900391e-01" nType="-99"/>
          <Node pos="r" depth="2" NCoef="0" IVar="-1" Cut="0.0000000000000000e+00" cType="1" res="-4.3486452341312543e-05" rms="2.7527472376823425e-01" purity="3.1699556112289429e-01" nType="-99"/>
        </Node>
      </Node>
    </BinaryTree>
    <BinaryTree type="DecisionTree" boostWeight="1.0000000000000000e+00" itree="578">
      <Node pos="s" depth="0" NCoef="0" IVar="48" Cut="9.0371370315551758e-01" cType="1" res="2.3489652201533318e-02" rms="2.4867747724056244e-01" purity="4.9209377169609070e-01" nType="0">
        <Node pos="l" depth="1" NCoef="0" IVar="36" Cut="1.4057414531707764e+00" cType="1" res="-9.9032804369926453e-02" rms="1.1795599758625031e-01" purity="4.2852889746427536e-02" nType="0">
          <Node pos="l" depth="2" NCoef="0" IVar="-1" Cut="0.0000000000000000e+00" cType="1" res="-9.8050560336560011e-04" rms="1.6719616949558258e-01" purity="4.4349558651447296e-02" nType="-99"/>
          <Node pos="r" depth="2" NCoef="0" IVar="-1" Cut="0.0000000000000000e+00" cType="1" res="-3.7084994837641716e-03" rms="0.0000000000000000e+00" purity="4.1100684553384781e-02" nType="-99"/>
        </Node>
        <Node pos="r" depth="1" NCoef="0" IVar="5" Cut="3.2002887129783630e-01" cType="1" res="3.5556655377149582e-02" rms="2.5482666492462158e-01" purity="5.3633868694305420e-01" nType="0">
          <Node pos="l" depth="2" NCoef="0" IVar="-1" Cut="0.0000000000000000e+00" cType="1" res="1.7116515664383769e-03" rms="2.3393368721008301e-01" purity="7.0768988132476807e-01" nType="-99"/>
          <Node pos="r" depth="2" NCoef="0" IVar="-1" Cut="0.0000000000000000e+00" cType="1" res="-3.2216531690210104e-04" rms="2.7423018217086792e-01" purity="2.9010584950447083e-01" nType="-99"/>
        </Node>
      </Node>
    </BinaryTree>
    <BinaryTree type="DecisionTree" boostWeight="1.0000000000000000e+00" itree="579">
      <Node pos="s" depth="0" NCoef="0" IVar="48" Cut="1.2216454744338989e+00" cType="1" res="1.3823537155985832e-02" rms="2.3354180157184601e-01" purity="4.8740193247795105e-01" nType="0">
        <Node pos="l" depth="1" NCoef="0" IVar="19" Cut="9.7151064872741699e-01" cType="1" res="-7.0971623063087463e-02" rms="1.7815400660037994e-01" purity="1.5157784521579742e-01" nType="0">
          <Node pos="l" depth="2" NCoef="0" IVar="-1" Cut="0.0000000000000000e+00" cType="1" res="-2.9466093983501196e-03" rms="3.6566630005836487e-02" purity="1.2302266061306000e-01" nType="-99"/>
          <Node pos="r" depth="2" NCoef="0" IVar="-1" Cut="0.0000000000000000e+00" cType="1" res="6.3154980307444930e-04" rms="3.0797910690307617e-01" purity="2.2204397618770599e-01" nType="-99"/>
        </Node>
        <Node pos="r" depth="1" NCoef="0" IVar="5" Cut="4.3757814168930054e-01" cType="1" res="3.1762588769197464e-02" rms="2.3983941972255707e-01" purity="5.5844807624816895e-01" nType="0">
          <Node pos="l" depth="2" NCoef="0" IVar="-1" Cut="0.0000000000000000e+00" cType="1" res="1.3327480992302299e-03" rms="2.2755600512027740e-01" purity="6.8027257919311523e-01" nType="-99"/>
          <Node pos="r" depth="2" NCoef="0" IVar="-1" Cut="0.0000000000000000e+00" cType="1" res="-1.0507999686524272e-03" rms="2.5697073340415955e-01" purity="2.0204333961009979e-01" nType="-99"/>
        </Node>
      </Node>
    </BinaryTree>
    <BinaryTree type="DecisionTree" boostWeight="1.0000000000000000e+00" itree="580">
      <Node pos="s" depth="0" NCoef="0" IVar="48" Cut="9.6655547618865967e-01" cType="1" res="2.8666615486145020e-02" rms="2.4438931047916412e-01" purity="5.0833463668823242e-01" nType="0">
        <Node pos="l" depth="1" NCoef="0" IVar="61" Cut="6.4497721195220947e-01" cType="1" res="-7.9167589545249939e-02" rms="1.3099916279315948e-01" purity="9.7597241401672363e-02" nType="0">
          <Node pos="l" depth="2" NCoef="0" IVar="-1" Cut="0.0000000000000000e+00" cType="1" res="1.4121754793450236e-03" rms="3.2136946916580200e-01" purity="2.9132735729217529e-01" nType="-99"/>
          <Node pos="r" depth="2" NCoef="0" IVar="-1" Cut="0.0000000000000000e+00" cType="1" res="-4.3358444236218929e-03" rms="0.0000000000000000e+00" purity="3.8538675289601088e-03" nType="-99"/>
        </Node>
        <Node pos="r" depth="1" NCoef="0" IVar="3" Cut="4.9409580230712891e+00" cType="1" res="4.2138386517763138e-02" rms="2.5181269645690918e-01" purity="5.5964821577072144e-01" nType="0">
          <Node pos="l" depth="2" NCoef="0" IVar="-1" Cut="0.0000000000000000e+00" cType="1" res="4.7367342631332576e-04" rms="2.4805527925491333e-01" purity="5.2225005626678467e-01" nType="-99"/>
          <Node pos="r" depth="2" NCoef="0" IVar="-1" Cut="0.0000000000000000e+00" cType="1" res="2.2140883374959230e-03" rms="2.5222244858741760e-01" purity="6.6719722747802734e-01" nType="-99"/>
        </Node>
      </Node>
    </BinaryTree>
    <BinaryTree type="DecisionTree" boostWeight="1.0000000000000000e+00" itree="581">
      <Node pos="s" depth="0" NCoef="0" IVar="1" Cut="2.3238873481750488e+00" cType="1" res="2.2922530770301819e-02" rms="2.4573113024234772e-01" purity="4.8957991600036621e-01" nType="0">
        <Node pos="l" depth="1" NCoef="0" IVar="13" Cut="1.4761320352554321e+00" cType="1" res="-7.1199297904968262e-02" rms="1.4479836821556091e-01" purity="7.2229564189910889e-02" nType="0">
          <Node pos="l" depth="2" NCoef="0" IVar="-1" Cut="0.0000000000000000e+00" cType="1" res="-2.7902639703825116e-04" rms="1.5633578598499298e-01" purity="7.7922061085700989e-02" nType="-99"/>
          <Node pos="r" depth="2" NCoef="0" IVar="-1" Cut="0.0000000000000000e+00" cType="1" res="-4.4352654367685318e-03" rms="0.0000000000000000e+00" purity="6.2633559107780457e-02" nType="-99"/>
        </Node>
        <Node pos="r" depth="1" NCoef="0" IVar="18" Cut="-9.7459387779235840e-01" cType="1" res="3.7952374666929245e-02" rms="2.5502470135688782e-01" purity="5.5622446537017822e-01" nType="0">
          <Node pos="l" depth="2" NCoef="0" IVar="-1" Cut="0.0000000000000000e+00" cType="1" res="1.0001985356211662e-03" rms="2.5535359978675842e-01" purity="5.8067554235458374e-01" nType="-99"/>
          <Node pos="r" depth="2" NCoef="0" IVar="-1" Cut="0.0000000000000000e+00" cType="1" res="-4.0487316437065601e-03" rms="2.0443862676620483e-01" purity="1.9352573156356812e-01" nType="-99"/>
        </Node>
      </Node>
    </BinaryTree>
    <BinaryTree type="DecisionTree" boostWeight="1.0000000000000000e+00" itree="582">
      <Node pos="s" depth="0" NCoef="0" IVar="2" Cut="1.5227016210556030e+00" cType="1" res="2.1993910893797874e-02" rms="2.4362787604331970e-01" purity="4.9351179599761963e-01" nType="0">
        <Node pos="l" depth="1" NCoef="0" IVar="13" Cut="1.4366730451583862e+00" cType="1" res="-8.4042474627494812e-02" rms="1.7416001856327057e-01" purity="8.4718942642211914e-02" nType="0">
          <Node pos="l" depth="2" NCoef="0" IVar="-1" Cut="0.0000000000000000e+00" cType="1" res="2.0655809203162789e-04" rms="1.6764071583747864e-01" purity="1.0248372703790665e-01" nType="-99"/>
          <Node pos="r" depth="2" NCoef="0" IVar="-1" Cut="0.0000000000000000e+00" cType="1" res="-8.7663391605019569e-03" rms="1.0310763865709305e-01" purity="6.1538066715002060e-02" nType="-99"/>
        </Node>
        <Node pos="r" depth="1" NCoef="0" IVar="48" Cut="8.5865533351898193e-01" cType="1" res="3.4116815775632858e-02" rms="2.4746762216091156e-01" purity="5.4024815559387207e-01" nType="0">
          <Node pos="l" depth="2" NCoef="0" IVar="-1" Cut="0.0000000000000000e+00" cType="1" res="-3.4146409016102552e-03" rms="0.0000000000000000e+00" purity="4.9253042787313461e-02" nType="-99"/>
          <Node pos="r" depth="2" NCoef="0" IVar="-1" Cut="0.0000000000000000e+00" cType="1" res="9.7580422880128026e-04" rms="2.5330296158790588e-01" purity="5.7838636636734009e-01" nType="-99"/>
        </Node>
      </Node>
    </BinaryTree>
    <BinaryTree type="DecisionTree" boostWeight="1.0000000000000000e+00" itree="583">
      <Node pos="s" depth="0" NCoef="0" IVar="48" Cut="1.1827743053436279e+00" cType="1" res="2.1151222288608551e-02" rms="2.3646301031112671e-01" purity="4.9788925051689148e-01" nType="0">
        <Node pos="l" depth="1" NCoef="0" IVar="61" Cut="6.4294737577438354e-01" cType="1" res="-7.4687346816062927e-02" rms="1.3355052471160889e-01" purity="1.3427674770355225e-01" nType="0">
          <Node pos="l" depth="2" NCoef="0" IVar="-1" Cut="0.0000000000000000e+00" cType="1" res="1.2329035671427846e-03" rms="3.1876185536384583e-01" purity="3.1407943367958069e-01" nType="-99"/>
          <Node pos="r" depth="2" NCoef="0" IVar="-1" Cut="0.0000000000000000e+00" cType="1" res="-4.3358844704926014e-03" rms="0.0000000000000000e+00" purity="4.4429939240217209e-02" nType="-99"/>
        </Node>
        <Node pos="r" depth="1" NCoef="0" IVar="6" Cut="1.1487928628921509e+00" cType="1" res="3.9676651358604431e-02" rms="2.4729883670806885e-01" purity="5.6817489862442017e-01" nType="0">
          <Node pos="l" depth="2" NCoef="0" IVar="-1" Cut="0.0000000000000000e+00" cType="1" res="-3.9358674548566341e-03" rms="1.3854736089706421e-01" purity="6.2837183475494385e-02" nType="-99"/>
          <Node pos="r" depth="2" NCoef="0" IVar="-1" Cut="0.0000000000000000e+00" cType="1" res="1.1005215346813202e-03" rms="2.5055232644081116e-01" purity="6.0779362916946411e-01" nType="-99"/>
        </Node>
      </Node>
    </BinaryTree>
    <BinaryTree type="DecisionTree" boostWeight="1.0000000000000000e+00" itree="584">
      <Node pos="s" depth="0" NCoef="0" IVar="5" Cut="2.8615799546241760e-01" cType="1" res="2.8364960104227066e-02" rms="2.4938938021659851e-01" purity="5.0558799505233765e-01" nType="0">
        <Node pos="l" depth="1" NCoef="0" IVar="31" Cut="2.5738544464111328e+00" cType="1" res="6.1309341341257095e-02" rms="2.2739973664283752e-01" purity="6.7961883544921875e-01" nType="0">
          <Node pos="l" depth="2" NCoef="0" IVar="-1" Cut="0.0000000000000000e+00" cType="1" res="-4.6806409955024719e-03" rms="2.5400915741920471e-01" purity="1.0041983425617218e-01" nType="-99"/>
          <Node pos="r" depth="2" NCoef="0" IVar="-1" Cut="0.0000000000000000e+00" cType="1" res="1.7875274643301964e-03" rms="2.1747259795665741e-01" purity="7.6356124877929688e-01" nType="-99"/>
        </Node>
        <Node pos="r" depth="1" NCoef="0" IVar="52" Cut="3.3734359741210938e+00" cType="1" res="-1.3823189772665501e-02" rms="2.6916828751564026e-01" purity="2.8272634744644165e-01" nType="0">
          <Node pos="l" depth="2" NCoef="0" IVar="-1" Cut="0.0000000000000000e+00" cType="1" res="1.4478935918305069e-04" rms="2.8375965356826782e-01" purity="3.0194723606109619e-01" nType="-99"/>
          <Node pos="r" depth="2" NCoef="0" IVar="-1" Cut="0.0000000000000000e+00" cType="1" res="-2.8138533234596252e-03" rms="1.6756446659564972e-01" purity="2.0022147893905640e-01" nType="-99"/>
        </Node>
      </Node>
    </BinaryTree>
    <BinaryTree type="DecisionTree" boostWeight="1.0000000000000000e+00" itree="585">
      <Node pos="s" depth="0" NCoef="0" IVar="5" Cut="3.4026998281478882e-01" cType="1" res="2.1339073777198792e-02" rms="2.4399578571319580e-01" purity="5.0190454721450806e-01" nType="0">
        <Node pos="l" depth="1" NCoef="0" IVar="27" Cut="1.6425577402114868e+00" cType="1" res="4.9874477088451385e-02" rms="2.2614516317844391e-01" purity="6.4356064796447754e-01" nType="0">
          <Node pos="l" depth="2" NCoef="0" IVar="-1" Cut="0.0000000000000000e+00" cType="1" res="-8.8929134653881192e-04" rms="2.1395455300807953e-01" purity="2.9116249084472656e-01" nType="-99"/>
          <Node pos="r" depth="2" NCoef="0" IVar="-1" Cut="0.0000000000000000e+00" cType="1" res="1.6914815641939640e-03" rms="2.2432599961757660e-01" purity="7.6624983549118042e-01" nType="-99"/>
        </Node>
        <Node pos="r" depth="1" NCoef="0" IVar="15" Cut="1.5225218534469604e+00" cType="1" res="-2.7459360659122467e-02" rms="2.6478648185729980e-01" purity="2.5965824723243713e-01" nType="0">
          <Node pos="l" depth="2" NCoef="0" IVar="-1" Cut="0.0000000000000000e+00" cType="1" res="-2.5565054966136813e-04" rms="2.4023999273777008e-01" purity="2.4305415153503418e-01" nType="-99"/>
          <Node pos="r" depth="2" NCoef="0" IVar="-1" Cut="0.0000000000000000e+00" cType="1" res="-2.0648706704378128e-03" rms="3.8100820779800415e-01" purity="3.8268762826919556e-01" nType="-99"/>
        </Node>
      </Node>
    </BinaryTree>
    <BinaryTree type="DecisionTree" boostWeight="1.0000000000000000e+00" itree="586">
      <Node pos="s" depth="0" NCoef="0" IVar="18" Cut="-1.2949820756912231e+00" cType="1" res="2.6209719479084015e-02" rms="2.4731379747390747e-01" purity="5.1246833801269531e-01" nType="0">
        <Node pos="l" depth="1" NCoef="0" IVar="36" Cut="1.3294904232025146e+00" cType="1" res="4.1571024805307388e-02" rms="2.4828805029392242e-01" purity="5.5840331315994263e-01" nType="0">
          <Node pos="l" depth="2" NCoef="0" IVar="-1" Cut="0.0000000000000000e+00" cType="1" res="-1.7926772125065327e-03" rms="1.4276181161403656e-01" purity="7.8173354268074036e-02" nType="-99"/>
          <Node pos="r" depth="2" NCoef="0" IVar="-1" Cut="0.0000000000000000e+00" cType="1" res="1.1291560949757695e-03" rms="2.6678073406219482e-01" purity="6.8881165981292725e-01" nType="-99"/>
        </Node>
        <Node pos="r" depth="1" NCoef="0" IVar="0" Cut="8.4388190507888794e-01" cType="1" res="-5.4592195898294449e-02" rms="2.2550861537456512e-01" purity="2.7084621787071228e-01" nType="0">
          <Node pos="l" depth="2" NCoef="0" IVar="-1" Cut="0.0000000000000000e+00" cType="1" res="-6.4064649632200599e-04" rms="2.5283059477806091e-01" purity="3.3319079875946045e-01" nType="-99"/>
          <Node pos="r" depth="2" NCoef="0" IVar="-1" Cut="0.0000000000000000e+00" cType="1" res="-5.6623355485498905e-03" rms="0.0000000000000000e+00" purity="8.2557462155818939e-02" nType="-99"/>
        </Node>
      </Node>
    </BinaryTree>
    <BinaryTree type="DecisionTree" boostWeight="1.0000000000000000e+00" itree="587">
      <Node pos="s" depth="0" NCoef="0" IVar="3" Cut="5.0036849975585938e+00" cType="1" res="3.3601909875869751e-02" rms="2.6517707109451294e-01" purity="5.0412559509277344e-01" nType="0">
        <Node pos="l" depth="1" NCoef="0" IVar="2" Cut="2.3861737251281738e+00" cType="1" res="1.3035163283348083e-02" rms="2.5501832365989685e-01" purity="4.8406532406806946e-01" nType="0">
          <Node pos="l" depth="2" NCoef="0" IVar="-1" Cut="0.0000000000000000e+00" cType="1" res="-1.0562546085566282e-03" rms="2.1805357933044434e-01" purity="2.8166040778160095e-01" nType="-99"/>
          <Node pos="r" depth="2" NCoef="0" IVar="-1" Cut="0.0000000000000000e+00" cType="1" res="9.0676685795187950e-04" rms="2.7278921008110046e-01" purity="6.2060928344726562e-01" nType="-99"/>
        </Node>
        <Node pos="r" depth="1" NCoef="0" IVar="17" Cut="1.0568513870239258e+00" cType="1" res="1.2450110912322998e-01" rms="2.8903767466545105e-01" purity="5.9278661012649536e-01" nType="0">
          <Node pos="l" depth="2" NCoef="0" IVar="-1" Cut="0.0000000000000000e+00" cType="1" res="-2.5888599921017885e-03" rms="1.1863388866186142e-01" purity="1.8519386649131775e-02" nType="-99"/>
          <Node pos="r" depth="2" NCoef="0" IVar="-1" Cut="0.0000000000000000e+00" cType="1" res="2.8669873718172312e-03" rms="3.1579205393791199e-01" purity="8.0579143762588501e-01" nType="-99"/>
        </Node>
      </Node>
    </BinaryTree>
    <BinaryTree type="DecisionTree" boostWeight="1.0000000000000000e+00" itree="588">
      <Node pos="s" depth="0" NCoef="0" IVar="36" Cut="1.3296864032745361e+00" cType="1" res="2.1142290905117989e-02" rms="2.3919595777988434e-01" purity="5.0199717283248901e-01" nType="0">
        <Node pos="l" depth="1" NCoef="0" IVar="36" Cut="1.1864801645278931e+00" cType="1" res="-4.3054379522800446e-02" rms="1.1539246141910553e-01" purity="5.5435519665479660e-02" nType="0">
          <Node pos="l" depth="2" NCoef="0" IVar="-1" Cut="0.0000000000000000e+00" cType="1" res="-2.1805202122777700e-03" rms="1.4017659425735474e-01" purity="5.9164781123399734e-02" nType="-99"/>
          <Node pos="r" depth="2" NCoef="0" IVar="-1" Cut="0.0000000000000000e+00" cType="1" res="-5.7216426357626915e-03" rms="0.0000000000000000e+00" purity="2.4985928088426590e-02" nType="-99"/>
        </Node>
        <Node pos="r" depth="1" NCoef="0" IVar="60" Cut="-8.1090158224105835e-01" cType="1" res="4.0239483118057251e-02" rms="2.6207473874092102e-01" purity="6.3484007120132446e-01" nType="0">
          <Node pos="l" depth="2" NCoef="0" IVar="-1" Cut="0.0000000000000000e+00" cType="1" res="9.2819641577079892e-04" rms="2.6295393705368042e-01" purity="6.5263617038726807e-01" nType="-99"/>
          <Node pos="r" depth="2" NCoef="0" IVar="-1" Cut="0.0000000000000000e+00" cType="1" res="-3.7704524584114552e-03" rms="1.3898858428001404e-01" purity="2.1561646461486816e-01" nType="-99"/>
        </Node>
      </Node>
    </BinaryTree>
    <BinaryTree type="DecisionTree" boostWeight="1.0000000000000000e+00" itree="589">
      <Node pos="s" depth="0" NCoef="0" IVar="1" Cut="2.0623769760131836e+00" cType="1" res="2.0667519420385361e-02" rms="2.4474212527275085e-01" purity="4.9662271142005920e-01" nType="0">
        <Node pos="l" depth="1" NCoef="0" IVar="38" Cut="-7.9923933744430542e-01" cType="1" res="-4.2286482639610767e-03" rms="0.0000000000000000e+00" purity="3.7202846258878708e-02" nType="-99"/>
        <Node pos="r" depth="1" NCoef="0" IVar="15" Cut="1.5225218534469604e+00" cType="1" res="3.0308684334158897e-02" rms="2.5651881098747253e-01" purity="5.3422713279724121e-01" nType="0">
          <Node pos="l" depth="2" NCoef="0" IVar="-1" Cut="0.0000000000000000e+00" cType="1" res="1.0217378148809075e-03" rms="2.4076482653617859e-01" purity="5.3666853904724121e-01" nType="-99"/>
          <Node pos="r" depth="2" NCoef="0" IVar="-1" Cut="0.0000000000000000e+00" cType="1" res="-1.1654734844341874e-03" rms="3.3961239457130432e-01" purity="5.1539963483810425e-01" nType="-99"/>
        </Node>
      </Node>
    </BinaryTree>
    <BinaryTree type="DecisionTree" boostWeight="1.0000000000000000e+00" itree="590">
      <Node pos="s" depth="0" NCoef="0" IVar="1" Cut="2.9463400840759277e+00" cType="1" res="2.0686525851488113e-02" rms="2.4224279820919037e-01" purity="4.9246835708618164e-01" nType="0">
        <Node pos="l" depth="1" NCoef="0" IVar="3" Cut="4.7781219482421875e+00" cType="1" res="-2.6503201574087143e-02" rms="2.1430487930774689e-01" purity="2.6417547464370728e-01" nType="0">
          <Node pos="l" depth="2" NCoef="0" IVar="-1" Cut="0.0000000000000000e+00" cType="1" res="-2.6589303743094206e-03" rms="1.6132518649101257e-01" purity="1.4923165738582611e-01" nType="-99"/>
          <Node pos="r" depth="2" NCoef="0" IVar="-1" Cut="0.0000000000000000e+00" cType="1" res="7.1756594115868211e-04" rms="2.5269630551338196e-01" purity="4.0295210480690002e-01" nType="-99"/>
        </Node>
        <Node pos="r" depth="1" NCoef="0" IVar="5" Cut="2.8679844737052917e-01" cType="1" res="5.1604934036731720e-02" rms="2.5421169400215149e-01" purity="6.4204442501068115e-01" nType="0">
          <Node pos="l" depth="2" NCoef="0" IVar="-1" Cut="0.0000000000000000e+00" cType="1" res="1.9885923247784376e-03" rms="2.1344695985317230e-01" purity="8.4016448259353638e-01" nType="-99"/>
          <Node pos="r" depth="2" NCoef="0" IVar="-1" Cut="0.0000000000000000e+00" cType="1" res="1.9371000234968960e-04" rms="2.9161688685417175e-01" purity="3.9837363362312317e-01" nType="-99"/>
        </Node>
      </Node>
    </BinaryTree>
    <BinaryTree type="DecisionTree" boostWeight="1.0000000000000000e+00" itree="591">
      <Node pos="s" depth="0" NCoef="0" IVar="17" Cut="1.5231137275695801e+00" cType="1" res="1.8830129876732826e-02" rms="2.4401067197322845e-01" purity="4.9595415592193604e-01" nType="0">
        <Node pos="l" depth="1" NCoef="0" IVar="15" Cut="1.5196932554244995e+00" cType="1" res="-9.3568488955497742e-03" rms="2.4292720854282379e-01" purity="2.6395270228385925e-01" nType="0">
          <Node pos="l" depth="2" NCoef="0" IVar="-1" Cut="0.0000000000000000e+00" cType="1" res="2.7887730539077893e-05" rms="2.3935206234455109e-01" purity="2.7377468347549438e-01" nType="-99"/>
          <Node pos="r" depth="2" NCoef="0" IVar="-1" Cut="0.0000000000000000e+00" cType="1" res="-6.1283609829843044e-03" rms="2.4228847026824951e-01" purity="1.1507167667150497e-01" nType="-99"/>
        </Node>
        <Node pos="r" depth="1" NCoef="0" IVar="17" Cut="1.5340982675552368e+00" cType="1" res="6.4453877508640289e-02" rms="2.3880460858345032e-01" purity="8.7147426605224609e-01" nType="0">
          <Node pos="l" depth="2" NCoef="0" IVar="-1" Cut="0.0000000000000000e+00" cType="1" res="-9.1326019173720852e-06" rms="2.9030382633209229e-01" purity="7.8265273571014404e-01" nType="-99"/>
          <Node pos="r" depth="2" NCoef="0" IVar="-1" Cut="0.0000000000000000e+00" cType="1" res="1.8180073238909245e-03" rms="2.0715877413749695e-01" purity="9.0916109085083008e-01" nType="-99"/>
        </Node>
      </Node>
    </BinaryTree>
    <BinaryTree type="DecisionTree" boostWeight="1.0000000000000000e+00" itree="592">
      <Node pos="s" depth="0" NCoef="0" IVar="60" Cut="-8.1075644493103027e-01" cType="1" res="2.1062854677438736e-02" rms="2.4406401813030243e-01" purity="4.9240273237228394e-01" nType="0">
        <Node pos="l" depth="1" NCoef="0" IVar="3" Cut="4.9853472709655762e+00" cType="1" res="2.9127635061740875e-02" rms="2.4687248468399048e-01" purity="5.1251894235610962e-01" nType="0">
          <Node pos="l" depth="2" NCoef="0" IVar="-1" Cut="0.0000000000000000e+00" cType="1" res="2.7901955763809383e-04" rms="2.4511623382568359e-01" purity="4.8692145943641663e-01" nType="-99"/>
          <Node pos="r" depth="2" NCoef="0" IVar="-1" Cut="0.0000000000000000e+00" cType="1" res="2.0615702960640192e-03" rms="2.4221140146255493e-01" purity="6.1004137992858887e-01" nType="-99"/>
        </Node>
        <Node pos="r" depth="1" NCoef="0" IVar="42" Cut="1.5935217961668968e-02" cType="1" res="-1.2411525845527649e-01" rms="1.1180216819047928e-01" purity="1.3028106093406677e-01" nType="0">
          <Node pos="l" depth="2" NCoef="0" IVar="-1" Cut="0.0000000000000000e+00" cType="1" res="-7.0326309651136398e-03" rms="0.0000000000000000e+00" purity="4.1318204253911972e-02" nType="-99"/>
          <Node pos="r" depth="2" NCoef="0" IVar="-1" Cut="0.0000000000000000e+00" cType="1" res="-1.2231939472258091e-03" rms="2.7555179595947266e-01" purity="2.5129330158233643e-01" nType="-99"/>
        </Node>
      </Node>
    </BinaryTree>
    <BinaryTree type="DecisionTree" boostWeight="1.0000000000000000e+00" itree="593">
      <Node pos="s" depth="0" NCoef="0" IVar="48" Cut="1.0176523923873901e+00" cType="1" res="2.8503477573394775e-02" rms="2.5214514136314392e-01" purity="5.0760847330093384e-01" nType="0">
        <Node pos="l" depth="1" NCoef="0" IVar="60" Cut="-1.4785971641540527e+00" cType="1" res="-7.6866179704666138e-02" rms="1.4661897718906403e-01" purity="9.0004369616508484e-02" nType="0">
          <Node pos="l" depth="2" NCoef="0" IVar="-1" Cut="0.0000000000000000e+00" cType="1" res="-1.9996119954157621e-04" rms="2.4621537327766418e-01" purity="2.1189886331558228e-01" nType="-99"/>
          <Node pos="r" depth="2" NCoef="0" IVar="-1" Cut="0.0000000000000000e+00" cType="1" res="-6.9315889850258827e-03" rms="0.0000000000000000e+00" purity="-7.7907353639602661e-02" nType="-99"/>
        </Node>
        <Node pos="r" depth="1" NCoef="0" IVar="2" Cut="1.4850707054138184e+00" cType="1" res="4.2829323559999466e-02" rms="2.5996837019920349e-01" purity="5.6438505649566650e-01" nType="0">
          <Node pos="l" depth="2" NCoef="0" IVar="-1" Cut="0.0000000000000000e+00" cType="1" res="-3.4891052637249231e-03" rms="2.5086417794227600e-01" purity="1.3706958293914795e-01" nType="-99"/>
          <Node pos="r" depth="2" NCoef="0" IVar="-1" Cut="0.0000000000000000e+00" cType="1" res="1.1269429232925177e-03" rms="2.5865927338600159e-01" purity="6.0413563251495361e-01" nType="-99"/>
        </Node>
      </Node>
    </BinaryTree>
    <BinaryTree type="DecisionTree" boostWeight="1.0000000000000000e+00" itree="594">
      <Node pos="s" depth="0" NCoef="0" IVar="17" Cut="1.5231137275695801e+00" cType="1" res="2.5355912744998932e-02" rms="2.4829238653182983e-01" purity="5.0271266698837280e-01" nType="0">
        <Node pos="l" depth="1" NCoef="0" IVar="3" Cut="4.8778343200683594e+00" cType="1" res="-4.1475072503089905e-03" rms="2.5327900052070618e-01" purity="2.6240247488021851e-01" nType="0">
          <Node pos="l" depth="2" NCoef="0" IVar="-1" Cut="0.0000000000000000e+00" cType="1" res="-9.6479785861447453e-04" rms="2.3575013875961304e-01" purity="2.1402707695960999e-01" nType="-99"/>
          <Node pos="r" depth="2" NCoef="0" IVar="-1" Cut="0.0000000000000000e+00" cType="1" res="1.5357525553554296e-03" rms="2.7876698970794678e-01" purity="3.7539303302764893e-01" nType="-99"/>
        </Node>
        <Node pos="r" depth="1" NCoef="0" IVar="31" Cut="2.5895466804504395e+00" cType="1" res="7.1519091725349426e-02" rms="2.3290048539638519e-01" purity="8.7871921062469482e-01" nType="0">
          <Node pos="l" depth="2" NCoef="0" IVar="-1" Cut="0.0000000000000000e+00" cType="1" res="-2.5949943810701370e-03" rms="2.8048110008239746e-01" purity="3.9393958449363708e-01" nType="-99"/>
          <Node pos="r" depth="2" NCoef="0" IVar="-1" Cut="0.0000000000000000e+00" cType="1" res="1.5315470518544316e-03" rms="2.2592683136463165e-01" purity="9.0517956018447876e-01" nType="-99"/>
        </Node>
      </Node>
    </BinaryTree>
    <BinaryTree type="DecisionTree" boostWeight="1.0000000000000000e+00" itree="595">
      <Node pos="s" depth="0" NCoef="0" IVar="2" Cut="1.5375628471374512e+00" cType="1" res="2.2879004478454590e-02" rms="2.4603877961635590e-01" purity="4.9939155578613281e-01" nType="0">
        <Node pos="l" depth="1" NCoef="0" IVar="5" Cut="1.7130655050277710e-01" cType="1" res="-8.4312573075294495e-02" rms="1.2669120728969574e-01" purity="1.1126431822776794e-01" nType="0">
          <Node pos="l" depth="2" NCoef="0" IVar="-1" Cut="0.0000000000000000e+00" cType="1" res="-1.4199833094608039e-04" rms="2.4290928244590759e-01" purity="2.6138776540756226e-01" nType="-99"/>
          <Node pos="r" depth="2" NCoef="0" IVar="-1" Cut="0.0000000000000000e+00" cType="1" res="-1.1475694365799427e-02" rms="0.0000000000000000e+00" purity="-5.5743036791682243e-03" nType="-99"/>
        </Node>
        <Node pos="r" depth="1" NCoef="0" IVar="3" Cut="5.1316065788269043e+00" cType="1" res="3.6164075136184692e-02" rms="2.5386577844619751e-01" purity="5.4749512672424316e-01" nType="0">
          <Node pos="l" depth="2" NCoef="0" IVar="-1" Cut="0.0000000000000000e+00" cType="1" res="5.4706016089767218e-04" rms="2.5064718723297119e-01" purity="5.3163784742355347e-01" nType="-99"/>
          <Node pos="r" depth="2" NCoef="0" IVar="-1" Cut="0.0000000000000000e+00" cType="1" res="2.8961952775716782e-03" rms="2.5136971473693848e-01" purity="7.2843420505523682e-01" nType="-99"/>
        </Node>
      </Node>
    </BinaryTree>
    <BinaryTree type="DecisionTree" boostWeight="1.0000000000000000e+00" itree="596">
      <Node pos="s" depth="0" NCoef="0" IVar="48" Cut="8.0463546514511108e-01" cType="1" res="2.0279861986637115e-02" rms="2.4149310588836670e-01" purity="5.0344634056091309e-01" nType="0">
        <Node pos="l" depth="1" NCoef="0" IVar="3" Cut="4.7321171760559082e+00" cType="1" res="-3.6432337947189808e-03" rms="0.0000000000000000e+00" purity="3.2269325107336044e-02" nType="-99"/>
        <Node pos="r" depth="1" NCoef="0" IVar="31" Cut="2.7921915054321289e+00" cType="1" res="3.0037524178624153e-02" rms="2.5055772066116333e-01" purity="5.3451782464981079e-01" nType="0">
          <Node pos="l" depth="2" NCoef="0" IVar="-1" Cut="0.0000000000000000e+00" cType="1" res="-1.8482570303604007e-03" rms="1.9036278128623962e-01" purity="2.7949568629264832e-01" nType="-99"/>
          <Node pos="r" depth="2" NCoef="0" IVar="-1" Cut="0.0000000000000000e+00" cType="1" res="9.7829953301697969e-04" rms="2.5860807299613953e-01" purity="5.8847916126251221e-01" nType="-99"/>
        </Node>
      </Node>
    </BinaryTree>
    <BinaryTree type="DecisionTree" boostWeight="1.0000000000000000e+00" itree="597">
      <Node pos="s" depth="0" NCoef="0" IVar="48" Cut="1.0207147598266602e+00" cType="1" res="1.8705351278185844e-02" rms="2.3732045292854309e-01" purity="5.0428026914596558e-01" nType="0">
        <Node pos="l" depth="1" NCoef="0" IVar="60" Cut="-1.7349860668182373e+00" cType="1" res="-9.0328305959701538e-02" rms="1.1720335483551025e-01" purity="5.9574615210294724e-02" nType="0">
          <Node pos="l" depth="2" NCoef="0" IVar="-1" Cut="0.0000000000000000e+00" cType="1" res="2.8683251002803445e-04" rms="2.9257899522781372e-01" purity="1.9770412147045135e-01" nType="-99"/>
          <Node pos="r" depth="2" NCoef="0" IVar="-1" Cut="0.0000000000000000e+00" cType="1" res="-5.7920361869037151e-03" rms="0.0000000000000000e+00" purity="-4.0395978838205338e-02" nType="-99"/>
        </Node>
        <Node pos="r" depth="1" NCoef="0" IVar="5" Cut="3.3865693211555481e-01" cType="1" res="3.2564796507358551e-02" rms="2.4501170217990875e-01" purity="5.6080740690231323e-01" nType="0">
          <Node pos="l" depth="2" NCoef="0" IVar="-1" Cut="0.0000000000000000e+00" cType="1" res="1.5113315312191844e-03" rms="2.1782639622688293e-01" purity="7.2634458541870117e-01" nType="-99"/>
          <Node pos="r" depth="2" NCoef="0" IVar="-1" Cut="0.0000000000000000e+00" cType="1" res="-3.2565207220613956e-04" rms="2.7619218826293945e-01" purity="2.9761344194412231e-01" nType="-99"/>
        </Node>
      </Node>
    </BinaryTree>
    <BinaryTree type="DecisionTree" boostWeight="1.0000000000000000e+00" itree="598">
      <Node pos="s" depth="0" NCoef="0" IVar="3" Cut="5.1851282119750977e+00" cType="1" res="2.7106439694762230e-02" rms="2.5027534365653992e-01" purity="5.0423043966293335e-01" nType="0">
        <Node pos="l" depth="1" NCoef="0" IVar="1" Cut="2.2833070755004883e+00" cType="1" res="1.6977570950984955e-02" rms="2.4263466894626617e-01" purity="5.0459402799606323e-01" nType="0">
          <Node pos="l" depth="2" NCoef="0" IVar="-1" Cut="0.0000000000000000e+00" cType="1" res="-3.7359581328928471e-03" rms="4.3212078511714935e-02" purity="4.4867742806673050e-02" nType="-99"/>
          <Node pos="r" depth="2" NCoef="0" IVar="-1" Cut="0.0000000000000000e+00" cType="1" res="7.0101779419928789e-04" rms="2.5491282343864441e-01" purity="5.6687921285629272e-01" nType="-99"/>
        </Node>
        <Node pos="r" depth="1" NCoef="0" IVar="6" Cut="2.1730530261993408e+00" cType="1" res="1.4844767749309540e-01" rms="3.0298966169357300e-01" purity="4.9987459182739258e-01" nType="0">
          <Node pos="l" depth="2" NCoef="0" IVar="-1" Cut="0.0000000000000000e+00" cType="1" res="4.9810810014605522e-03" rms="3.7488144636154175e-01" purity="4.9917206168174744e-01" nType="-99"/>
          <Node pos="r" depth="2" NCoef="0" IVar="-1" Cut="0.0000000000000000e+00" cType="1" res="8.2435447257012129e-04" rms="0.0000000000000000e+00" purity="5.0096154212951660e-01" nType="-99"/>
        </Node>
      </Node>
    </BinaryTree>
    <BinaryTree type="DecisionTree" boostWeight="1.0000000000000000e+00" itree="599">
      <Node pos="s" depth="0" NCoef="0" IVar="5" Cut="2.6681518554687500e-01" cType="1" res="1.2887276709079742e-02" rms="2.3248147964477539e-01" purity="4.9191966652870178e-01" nType="0">
        <Node pos="l" depth="1" NCoef="0" IVar="1" Cut="2.1098377704620361e+00" cType="1" res="5.1119439303874969e-02" rms="2.1499432623386383e-01" purity="6.6987347602844238e-01" nType="0">
          <Node pos="l" depth="2" NCoef="0" IVar="-1" Cut="0.0000000000000000e+00" cType="1" res="-5.5971238762140274e-03" rms="0.0000000000000000e+00" purity="6.3102901913225651e-03" nType="-99"/>
          <Node pos="r" depth="2" NCoef="0" IVar="-1" Cut="0.0000000000000000e+00" cType="1" res="1.6199738020077348e-03" rms="2.2048938274383545e-01" purity="7.3471868038177490e-01" nType="-99"/>
        </Node>
        <Node pos="r" depth="1" NCoef="0" IVar="52" Cut="3.5283389091491699e+00" cType="1" res="-3.2064471393823624e-02" rms="2.4394418299198151e-01" purity="2.8268915414810181e-01" nType="0">
          <Node pos="l" depth="2" NCoef="0" IVar="-1" Cut="0.0000000000000000e+00" cType="1" res="-4.5098864939063787e-04" rms="2.5777003169059753e-01" purity="2.9695689678192139e-01" nType="-99"/>
          <Node pos="r" depth="2" NCoef="0" IVar="-1" Cut="0.0000000000000000e+00" cType="1" res="-5.4720137268304825e-03" rms="0.0000000000000000e+00" purity="1.1388111859560013e-01" nType="-99"/>
        </Node>
      </Node>
    </BinaryTree>
    <BinaryTree type="DecisionTree" boostWeight="1.0000000000000000e+00" itree="600">
      <Node pos="s" depth="0" NCoef="0" IVar="2" Cut="2.0228688716888428e+00" cType="1" res="2.5446070358157158e-02" rms="2.4719002842903137e-01" purity="5.0940203666687012e-01" nType="0">
        <Node pos="l" depth="1" NCoef="0" IVar="3" Cut="4.9606046676635742e+00" cType="1" res="-3.5485573112964630e-02" rms="2.1229326725006104e-01" purity="2.2702211141586304e-01" nType="0">
          <Node pos="l" depth="2" NCoef="0" IVar="-1" Cut="0.0000000000000000e+00" cType="1" res="-3.6331398878246546e-03" rms="1.6499984264373779e-01" purity="1.4672794938087463e-01" nType="-99"/>
          <Node pos="r" depth="2" NCoef="0" IVar="-1" Cut="0.0000000000000000e+00" cType="1" res="1.0921008652076125e-03" rms="2.5893715023994446e-01" purity="3.6654138565063477e-01" nType="-99"/>
        </Node>
        <Node pos="r" depth="1" NCoef="0" IVar="31" Cut="2.6793632507324219e+00" cType="1" res="4.6594318002462387e-02" rms="2.5481823086738586e-01" purity="6.0741096735000610e-01" nType="0">
          <Node pos="l" depth="2" NCoef="0" IVar="-1" Cut="0.0000000000000000e+00" cType="1" res="-2.4189411196857691e-03" rms="2.3441103100776672e-01" purity="2.0870037376880646e-01" nType="-99"/>
          <Node pos="r" depth="2" NCoef="0" IVar="-1" Cut="0.0000000000000000e+00" cType="1" res="1.1657582363113761e-03" rms="2.5432592630386353e-01" purity="6.5708172321319580e-01" nType="-99"/>
        </Node>
      </Node>
    </BinaryTree>
    <BinaryTree type="DecisionTree" boostWeight="1.0000000000000000e+00" itree="601">
      <Node pos="s" depth="0" NCoef="0" IVar="3" Cut="4.7645630836486816e+00" cType="1" res="2.5913681834936142e-02" rms="2.4987939000129700e-01" purity="5.0370061397552490e-01" nType="0">
        <Node pos="l" depth="1" NCoef="0" IVar="36" Cut="1.4456657171249390e+00" cType="1" res="-4.7165490686893463e-03" rms="2.3793102800846100e-01" purity="4.2864665389060974e-01" nType="0">
          <Node pos="l" depth="2" NCoef="0" IVar="-1" Cut="0.0000000000000000e+00" cType="1" res="-5.0238845869898796e-03" rms="1.6006375849246979e-01" purity="7.5044937431812286e-02" nType="-99"/>
          <Node pos="r" depth="2" NCoef="0" IVar="-1" Cut="0.0000000000000000e+00" cType="1" res="4.2244783253408968e-04" rms="2.6123201847076416e-01" purity="5.8846575021743774e-01" nType="-99"/>
        </Node>
        <Node pos="r" depth="1" NCoef="0" IVar="15" Cut="1.5215698480606079e+00" cType="1" res="6.5601617097854614e-02" rms="2.5923162698745728e-01" purity="6.0094887018203735e-01" nType="0">
          <Node pos="l" depth="2" NCoef="0" IVar="-1" Cut="0.0000000000000000e+00" cType="1" res="1.8054663669317961e-03" rms="2.4626161158084869e-01" purity="6.2372487783432007e-01" nType="-99"/>
          <Node pos="r" depth="2" NCoef="0" IVar="-1" Cut="0.0000000000000000e+00" cType="1" res="-2.4127471260726452e-03" rms="3.3793348073959351e-01" purity="3.3574277162551880e-01" nType="-99"/>
        </Node>
      </Node>
    </BinaryTree>
    <BinaryTree type="DecisionTree" boostWeight="1.0000000000000000e+00" itree="602">
      <Node pos="s" depth="0" NCoef="0" IVar="48" Cut="8.5097408294677734e-01" cType="1" res="2.5072352960705757e-02" rms="2.4471461772918701e-01" purity="5.0442582368850708e-01" nType="0">
        <Node pos="l" depth="1" NCoef="0" IVar="16" Cut="-2.9039449989795685e-02" cType="1" res="-4.8946440219879150e-03" rms="0.0000000000000000e+00" purity="-3.8778394460678101e-02" nType="-99"/>
        <Node pos="r" depth="1" NCoef="0" IVar="17" Cut="1.2524840831756592e+00" cType="1" res="3.8357060402631760e-02" rms="2.5412562489509583e-01" purity="5.4360783100128174e-01" nType="0">
          <Node pos="l" depth="2" NCoef="0" IVar="-1" Cut="0.0000000000000000e+00" cType="1" res="-8.0486610531806946e-03" rms="0.0000000000000000e+00" purity="2.4989719968289137e-03" nType="-99"/>
          <Node pos="r" depth="2" NCoef="0" IVar="-1" Cut="0.0000000000000000e+00" cType="1" res="1.0298136621713638e-03" rms="2.9048559069633484e-01" purity="7.1921461820602417e-01" nType="-99"/>
        </Node>
      </Node>
    </BinaryTree>
    <BinaryTree type="DecisionTree" boostWeight="1.0000000000000000e+00" itree="603">
      <Node pos="s" depth="0" NCoef="0" IVar="52" Cut="2.4173030853271484e+00" cType="1" res="1.7819691449403763e-02" rms="2.3899757862091064e-01" purity="4.9892818927764893e-01" nType="0">
        <Node pos="l" depth="1" NCoef="0" IVar="67" Cut="9.2971748113632202e-01" cType="1" res="-8.1925153732299805e-02" rms="9.9401779472827911e-02" purity="2.2346526384353638e-01" nType="0">
          <Node pos="l" depth="2" NCoef="0" IVar="-1" Cut="0.0000000000000000e+00" cType="1" res="-5.0883973017334938e-03" rms="0.0000000000000000e+00" purity="1.1727285385131836e-01" nType="-99"/>
          <Node pos="r" depth="2" NCoef="0" IVar="-1" Cut="0.0000000000000000e+00" cType="1" res="-6.4695294713601470e-04" rms="2.2188223898410797e-01" purity="2.7487182617187500e-01" nType="-99"/>
        </Node>
        <Node pos="r" depth="1" NCoef="0" IVar="5" Cut="2.9435467720031738e-01" cType="1" res="2.9851304367184639e-02" rms="2.4793781340122223e-01" purity="5.3215563297271729e-01" nType="0">
          <Node pos="l" depth="2" NCoef="0" IVar="-1" Cut="0.0000000000000000e+00" cType="1" res="1.7232922837138176e-03" rms="2.2849196195602417e-01" purity="7.1781247854232788e-01" nType="-99"/>
          <Node pos="r" depth="2" NCoef="0" IVar="-1" Cut="0.0000000000000000e+00" cType="1" res="-3.9398999069817364e-04" rms="2.6217550039291382e-01" purity="3.0318745970726013e-01" nType="-99"/>
        </Node>
      </Node>
    </BinaryTree>
    <BinaryTree type="DecisionTree" boostWeight="1.0000000000000000e+00" itree="604">
      <Node pos="s" depth="0" NCoef="0" IVar="3" Cut="5.2035140991210938e+00" cType="1" res="2.7742825448513031e-02" rms="2.5522777438163757e-01" purity="4.9742838740348816e-01" nType="0">
        <Node pos="l" depth="1" NCoef="0" IVar="27" Cut="1.6179274320602417e+00" cType="1" res="1.4567601494491100e-02" rms="2.4531801044940948e-01" purity="4.9336260557174683e-01" nType="0">
          <Node pos="l" depth="2" NCoef="0" IVar="-1" Cut="0.0000000000000000e+00" cType="1" res="-1.9728764891624451e-03" rms="1.8261294066905975e-01" purity="2.1474403142929077e-01" nType="-99"/>
          <Node pos="r" depth="2" NCoef="0" IVar="-1" Cut="0.0000000000000000e+00" cType="1" res="7.3692336445674300e-04" rms="2.5768679380416870e-01" purity="5.7436752319335938e-01" nType="-99"/>
        </Node>
        <Node pos="r" depth="1" NCoef="0" IVar="17" Cut="1.0528879165649414e+00" cType="1" res="1.9221889972686768e-01" rms="3.1280145049095154e-01" purity="5.4818451404571533e-01" nType="0">
          <Node pos="l" depth="2" NCoef="0" IVar="-1" Cut="0.0000000000000000e+00" cType="1" res="3.8208663463592529e-03" rms="2.2614681720733643e-01" purity="6.4387746155261993e-02" nType="-99"/>
          <Node pos="r" depth="2" NCoef="0" IVar="-1" Cut="0.0000000000000000e+00" cType="1" res="3.6871279589831829e-03" rms="3.1771051883697510e-01" purity="8.1443130970001221e-01" nType="-99"/>
        </Node>
      </Node>
    </BinaryTree>
    <BinaryTree type="DecisionTree" boostWeight="1.0000000000000000e+00" itree="605">
      <Node pos="s" depth="0" NCoef="0" IVar="3" Cut="4.8778343200683594e+00" cType="1" res="2.0065620541572571e-02" rms="2.4815715849399567e-01" purity="4.9516084790229797e-01" nType="0">
        <Node pos="l" depth="1" NCoef="0" IVar="1" Cut="3.1328868865966797e+00" cType="1" res="-6.4739156514406204e-03" rms="2.3818570375442505e-01" purity="4.4699159264564514e-01" nType="0">
          <Node pos="l" depth="2" NCoef="0" IVar="-1" Cut="0.0000000000000000e+00" cType="1" res="-1.5300477389246225e-03" rms="2.0187279582023621e-01" purity="2.5790414214134216e-01" nType="-99"/>
          <Node pos="r" depth="2" NCoef="0" IVar="-1" Cut="0.0000000000000000e+00" cType="1" res="7.2265573544427752e-04" rms="2.6136165857315063e-01" purity="6.2616264820098877e-01" nType="-99"/>
        </Node>
        <Node pos="r" depth="1" NCoef="0" IVar="36" Cut="1.6858731210231781e-01" cType="1" res="7.9526603221893311e-02" rms="2.5948709249496460e-01" purity="6.0308253765106201e-01" nType="0">
          <Node pos="l" depth="2" NCoef="0" IVar="-1" Cut="0.0000000000000000e+00" cType="1" res="-4.2450632899999619e-03" rms="0.0000000000000000e+00" purity="1.0764056816697121e-02" nType="-99"/>
          <Node pos="r" depth="2" NCoef="0" IVar="-1" Cut="0.0000000000000000e+00" cType="1" res="2.0041943062096834e-03" rms="2.7479946613311768e-01" purity="6.9530004262924194e-01" nType="-99"/>
        </Node>
      </Node>
    </BinaryTree>
    <BinaryTree type="DecisionTree" boostWeight="1.0000000000000000e+00" itree="606">
      <Node pos="s" depth="0" NCoef="0" IVar="0" Cut="7.0012432336807251e-01" cType="1" res="1.7819644883275032e-02" rms="2.3868378996849060e-01" purity="5.0114136934280396e-01" nType="0">
        <Node pos="l" depth="1" NCoef="0" IVar="8" Cut="-1.4155658483505249e+00" cType="1" res="4.4433753937482834e-02" rms="2.5351762771606445e-01" purity="5.5800193548202515e-01" nType="0">
          <Node pos="l" depth="2" NCoef="0" IVar="-1" Cut="0.0000000000000000e+00" cType="1" res="1.1768649565055966e-03" rms="2.5561144948005676e-01" purity="5.7961004972457886e-01" nType="-99"/>
          <Node pos="r" depth="2" NCoef="0" IVar="-1" Cut="0.0000000000000000e+00" cType="1" res="-6.2714540399610996e-03" rms="0.0000000000000000e+00" purity="1.3590122573077679e-02" nType="-99"/>
        </Node>
        <Node pos="r" depth="1" NCoef="0" IVar="27" Cut="1.2263159751892090e+00" cType="1" res="-2.7370376512408257e-02" rms="2.0329242944717407e-01" purity="4.0459364652633667e-01" nType="0">
          <Node pos="l" depth="2" NCoef="0" IVar="-1" Cut="0.0000000000000000e+00" cType="1" res="-5.9456010349094868e-03" rms="0.0000000000000000e+00" purity="6.8736851215362549e-02" nType="-99"/>
          <Node pos="r" depth="2" NCoef="0" IVar="-1" Cut="0.0000000000000000e+00" cType="1" res="-2.0152251818217337e-04" rms="2.2651216387748718e-01" purity="4.6811026334762573e-01" nType="-99"/>
        </Node>
      </Node>
    </BinaryTree>
    <BinaryTree type="DecisionTree" boostWeight="1.0000000000000000e+00" itree="607">
      <Node pos="s" depth="0" NCoef="0" IVar="36" Cut="1.2907350063323975e+00" cType="1" res="2.4511292576789856e-02" rms="2.4411882460117340e-01" purity="5.0774139165878296e-01" nType="0">
        <Node pos="l" depth="1" NCoef="0" IVar="15" Cut="1.4431442022323608e+00" cType="1" res="-3.8518104702234268e-02" rms="1.2709529697895050e-01" purity="5.1176123321056366e-02" nType="0">
          <Node pos="l" depth="2" NCoef="0" IVar="-1" Cut="0.0000000000000000e+00" cType="1" res="-8.3933869609609246e-04" rms="1.3492660224437714e-01" purity="6.7332230508327484e-02" nType="-99"/>
          <Node pos="r" depth="2" NCoef="0" IVar="-1" Cut="0.0000000000000000e+00" cType="1" res="-8.9109297841787338e-03" rms="4.3725263327360153e-02" purity="5.7414262555539608e-03" nType="-99"/>
        </Node>
        <Node pos="r" depth="1" NCoef="0" IVar="1" Cut="2.1966128349304199e+00" cType="1" res="4.2177062481641769e-02" rms="2.6522436738014221e-01" purity="6.3570666313171387e-01" nType="0">
          <Node pos="l" depth="2" NCoef="0" IVar="-1" Cut="0.0000000000000000e+00" cType="1" res="-2.7082846499979496e-03" rms="0.0000000000000000e+00" purity="1.2872558832168579e-01" nType="-99"/>
          <Node pos="r" depth="2" NCoef="0" IVar="-1" Cut="0.0000000000000000e+00" cType="1" res="1.0498045012354851e-03" rms="2.7074366807937622e-01" purity="6.7008674144744873e-01" nType="-99"/>
        </Node>
      </Node>
    </BinaryTree>
    <BinaryTree type="DecisionTree" boostWeight="1.0000000000000000e+00" itree="608">
      <Node pos="s" depth="0" NCoef="0" IVar="17" Cut="1.5231137275695801e+00" cType="1" res="1.6991127282381058e-02" rms="2.4002183973789215e-01" purity="4.9112391471862793e-01" nType="0">
        <Node pos="l" depth="1" NCoef="0" IVar="15" Cut="1.5196932554244995e+00" cType="1" res="-1.3451691716909409e-02" rms="2.3738107085227966e-01" purity="2.5291737914085388e-01" nType="0">
          <Node pos="l" depth="2" NCoef="0" IVar="-1" Cut="0.0000000000000000e+00" cType="1" res="-7.2830189310479909e-05" rms="2.3514819145202637e-01" purity="2.6322722434997559e-01" nType="-99"/>
          <Node pos="r" depth="2" NCoef="0" IVar="-1" Cut="0.0000000000000000e+00" cType="1" res="-6.3274903222918510e-03" rms="2.1385751664638519e-01" purity="1.0416577011346817e-01" nType="-99"/>
        </Node>
        <Node pos="r" depth="1" NCoef="0" IVar="27" Cut="1.2618877887725830e+00" cType="1" res="6.5733157098293304e-02" rms="2.3615542054176331e-01" purity="8.7251669168472290e-01" nType="0">
          <Node pos="l" depth="2" NCoef="0" IVar="-1" Cut="0.0000000000000000e+00" cType="1" res="-1.6569035360589623e-03" rms="2.6432645320892334e-01" purity="4.9395060539245605e-01" nType="-99"/>
          <Node pos="r" depth="2" NCoef="0" IVar="-1" Cut="0.0000000000000000e+00" cType="1" res="1.5229599084705114e-03" rms="2.2929479181766510e-01" purity="9.0734434127807617e-01" nType="-99"/>
        </Node>
      </Node>
    </BinaryTree>
    <BinaryTree type="DecisionTree" boostWeight="1.0000000000000000e+00" itree="609">
      <Node pos="s" depth="0" NCoef="0" IVar="5" Cut="3.7910285592079163e-01" cType="1" res="1.2327696196734905e-02" rms="2.2703345119953156e-01" purity="4.9852010607719421e-01" nType="0">
        <Node pos="l" depth="1" NCoef="0" IVar="36" Cut="1.4454618692398071e+00" cType="1" res="3.7588447332382202e-02" rms="2.1211093664169312e-01" purity="6.2409430742263794e-01" nType="0">
          <Node pos="l" depth="2" NCoef="0" IVar="-1" Cut="0.0000000000000000e+00" cType="1" res="-1.4568631304427981e-03" rms="1.8705613911151886e-01" purity="1.8361136317253113e-01" nType="-99"/>
          <Node pos="r" depth="2" NCoef="0" IVar="-1" Cut="0.0000000000000000e+00" cType="1" res="1.3884204672649503e-03" rms="2.1461395919322968e-01" purity="7.9709982872009277e-01" nType="-99"/>
        </Node>
        <Node pos="r" depth="1" NCoef="0" IVar="52" Cut="3.2265717983245850e+00" cType="1" res="-4.3243739753961563e-02" rms="2.4792854487895966e-01" purity="2.2226788103580475e-01" nType="0">
          <Node pos="l" depth="2" NCoef="0" IVar="-1" Cut="0.0000000000000000e+00" cType="1" res="-1.4882996038068086e-04" rms="2.6970010995864868e-01" purity="2.5418525934219360e-01" nType="-99"/>
          <Node pos="r" depth="2" NCoef="0" IVar="-1" Cut="0.0000000000000000e+00" cType="1" res="-2.8302478604018688e-03" rms="1.7278571426868439e-01" purity="1.5635563433170319e-01" nType="-99"/>
        </Node>
      </Node>
    </BinaryTree>
    <BinaryTree type="DecisionTree" boostWeight="1.0000000000000000e+00" itree="610">
      <Node pos="s" depth="0" NCoef="0" IVar="1" Cut="3.0757331848144531e+00" cType="1" res="1.5412285923957825e-02" rms="2.3242962360382080e-01" purity="4.9946928024291992e-01" nType="0">
        <Node pos="l" depth="1" NCoef="0" IVar="3" Cut="4.8571505546569824e+00" cType="1" res="-2.8626713901758194e-02" rms="2.0800411701202393e-01" purity="3.0302283167839050e-01" nType="0">
          <Node pos="l" depth="2" NCoef="0" IVar="-1" Cut="0.0000000000000000e+00" cType="1" res="-2.1759150549769402e-03" rms="1.7942503094673157e-01" purity="2.1970239281654358e-01" nType="-99"/>
          <Node pos="r" depth="2" NCoef="0" IVar="-1" Cut="0.0000000000000000e+00" cType="1" res="9.0749346418306231e-04" rms="2.3605896532535553e-01" purity="4.5542144775390625e-01" nType="-99"/>
        </Node>
        <Node pos="r" depth="1" NCoef="0" IVar="3" Cut="4.4201784133911133e+00" cType="1" res="5.3209934383630753e-02" rms="2.4528247117996216e-01" purity="6.6807466745376587e-01" nType="0">
          <Node pos="l" depth="2" NCoef="0" IVar="-1" Cut="0.0000000000000000e+00" cType="1" res="-1.1453079059720039e-03" rms="2.2832021117210388e-01" purity="3.2684639096260071e-01" nType="-99"/>
          <Node pos="r" depth="2" NCoef="0" IVar="-1" Cut="0.0000000000000000e+00" cType="1" res="1.4141934225335717e-03" rms="2.4404770135879517e-01" purity="7.1154981851577759e-01" nType="-99"/>
        </Node>
      </Node>
    </BinaryTree>
    <BinaryTree type="DecisionTree" boostWeight="1.0000000000000000e+00" itree="611">
      <Node pos="s" depth="0" NCoef="0" IVar="5" Cut="3.9730769395828247e-01" cType="1" res="2.1202130243182182e-02" rms="2.4833025038242340e-01" purity="4.8559001088142395e-01" nType="0">
        <Node pos="l" depth="1" NCoef="0" IVar="36" Cut="1.3677257299423218e+00" cType="1" res="4.5798026025295258e-02" rms="2.3482799530029297e-01" purity="6.0225111246109009e-01" nType="0">
          <Node pos="l" depth="2" NCoef="0" IVar="-1" Cut="0.0000000000000000e+00" cType="1" res="-1.9927278626710176e-03" rms="1.3793861865997314e-01" purity="1.0433047264814377e-01" nType="-99"/>
          <Node pos="r" depth="2" NCoef="0" IVar="-1" Cut="0.0000000000000000e+00" cType="1" res="1.4762207865715027e-03" rms="2.5242513418197632e-01" purity="7.5807398557662964e-01" nType="-99"/>
        </Node>
        <Node pos="r" depth="1" NCoef="0" IVar="15" Cut="1.5219346284866333e+00" cType="1" res="-3.7815351039171219e-02" rms="2.6904803514480591e-01" purity="2.0566363632678986e-01" nType="0">
          <Node pos="l" depth="2" NCoef="0" IVar="-1" Cut="0.0000000000000000e+00" cType="1" res="-4.8353604506701231e-04" rms="2.5018665194511414e-01" purity="1.9215385615825653e-01" nType="-99"/>
          <Node pos="r" depth="2" NCoef="0" IVar="-1" Cut="0.0000000000000000e+00" cType="1" res="-2.5345734320580959e-03" rms="3.5416755080223083e-01" purity="3.1237959861755371e-01" nType="-99"/>
        </Node>
      </Node>
    </BinaryTree>
    <BinaryTree type="DecisionTree" boostWeight="1.0000000000000000e+00" itree="612">
      <Node pos="s" depth="0" NCoef="0" IVar="36" Cut="1.4067025184631348e+00" cType="1" res="2.2294633090496063e-02" rms="2.3875276744365692e-01" purity="5.0326800346374512e-01" nType="0">
        <Node pos="l" depth="1" NCoef="0" IVar="15" Cut="1.4431442022323608e+00" cType="1" res="-4.0194600820541382e-02" rms="1.3577526807785034e-01" purity="9.2331454157829285e-02" nType="0">
          <Node pos="l" depth="2" NCoef="0" IVar="-1" Cut="0.0000000000000000e+00" cType="1" res="-5.6624168064445257e-04" rms="1.3157163560390472e-01" purity="1.0120701789855957e-01" nType="-99"/>
          <Node pos="r" depth="2" NCoef="0" IVar="-1" Cut="0.0000000000000000e+00" cType="1" res="-5.5663175880908966e-03" rms="1.0825632512569427e-01" purity="6.7436538636684418e-02" nType="-99"/>
        </Node>
        <Node pos="r" depth="1" NCoef="0" IVar="48" Cut="8.5951280593872070e-01" cType="1" res="4.5357868075370789e-02" rms="2.6318103075027466e-01" purity="6.5493452548980713e-01" nType="0">
          <Node pos="l" depth="2" NCoef="0" IVar="-1" Cut="0.0000000000000000e+00" cType="1" res="-2.0216489210724831e-03" rms="2.0549921691417694e-01" purity="1.3026277720928192e-01" nType="-99"/>
          <Node pos="r" depth="2" NCoef="0" IVar="-1" Cut="0.0000000000000000e+00" cType="1" res="1.0631333570927382e-03" rms="2.6353639364242554e-01" purity="6.8581682443618774e-01" nType="-99"/>
        </Node>
      </Node>
    </BinaryTree>
    <BinaryTree type="DecisionTree" boostWeight="1.0000000000000000e+00" itree="613">
      <Node pos="s" depth="0" NCoef="0" IVar="18" Cut="-9.1071522235870361e-01" cType="1" res="2.1997965872287750e-02" rms="2.3959471285343170e-01" purity="5.0691717863082886e-01" nType="0">
        <Node pos="l" depth="1" NCoef="0" IVar="36" Cut="8.2738453149795532e-01" cType="1" res="3.0907591804862022e-02" rms="2.4046462774276733e-01" purity="5.3090709447860718e-01" nType="0">
          <Node pos="l" depth="2" NCoef="0" IVar="-1" Cut="0.0000000000000000e+00" cType="1" res="-4.8535186797380447e-03" rms="0.0000000000000000e+00" purity="1.7225157469511032e-02" nType="-99"/>
          <Node pos="r" depth="2" NCoef="0" IVar="-1" Cut="0.0000000000000000e+00" cType="1" res="8.9603487867861986e-04" rms="2.6101806759834290e-01" purity="6.2769144773483276e-01" nType="-99"/>
        </Node>
        <Node pos="r" depth="1" NCoef="0" IVar="17" Cut="1.3992515802383423e+00" cType="1" res="-1.2215869873762131e-01" rms="1.6906565427780151e-01" purity="1.1876335740089417e-01" nType="0">
          <Node pos="l" depth="2" NCoef="0" IVar="-1" Cut="0.0000000000000000e+00" cType="1" res="-2.7239898219704628e-02" rms="0.0000000000000000e+00" purity="-2.1111460402607918e-02" nType="-99"/>
          <Node pos="r" depth="2" NCoef="0" IVar="-1" Cut="0.0000000000000000e+00" cType="1" res="-4.9343551509082317e-03" rms="2.5308641791343689e-01" purity="2.4816475808620453e-01" nType="-99"/>
        </Node>
      </Node>
    </BinaryTree>
    <BinaryTree type="DecisionTree" boostWeight="1.0000000000000000e+00" itree="614">
      <Node pos="s" depth="0" NCoef="0" IVar="48" Cut="9.6669495105743408e-01" cType="1" res="2.3164715617895126e-02" rms="2.4846205115318298e-01" purity="5.0316286087036133e-01" nType="0">
        <Node pos="l" depth="1" NCoef="0" IVar="17" Cut="1.2876468896865845e+00" cType="1" res="-9.8688170313835144e-02" rms="8.6911365389823914e-02" purity="3.9690904319286346e-02" nType="0">
          <Node pos="l" depth="2" NCoef="0" IVar="-1" Cut="0.0000000000000000e+00" cType="1" res="-5.7965167798101902e-03" rms="5.1999550312757492e-02" purity="2.5658179074525833e-03" nType="-99"/>
          <Node pos="r" depth="2" NCoef="0" IVar="-1" Cut="0.0000000000000000e+00" cType="1" res="-2.9272749088704586e-03" rms="0.0000000000000000e+00" purity="7.6775185763835907e-02" nType="-99"/>
        </Node>
        <Node pos="r" depth="1" NCoef="0" IVar="3" Cut="5.1425518989562988e+00" cType="1" res="3.6911871284246445e-02" rms="2.5686904788017273e-01" purity="5.5545073747634888e-01" nType="0">
          <Node pos="l" depth="2" NCoef="0" IVar="-1" Cut="0.0000000000000000e+00" cType="1" res="6.0113047948107123e-04" rms="2.5105839967727661e-01" purity="5.5238777399063110e-01" nType="-99"/>
          <Node pos="r" depth="2" NCoef="0" IVar="-1" Cut="0.0000000000000000e+00" cType="1" res="3.1330725178122520e-03" rms="2.8285127878189087e-01" purity="5.8351838588714600e-01" nType="-99"/>
        </Node>
      </Node>
    </BinaryTree>
    <BinaryTree type="DecisionTree" boostWeight="1.0000000000000000e+00" itree="615">
      <Node pos="s" depth="0" NCoef="0" IVar="17" Cut="1.5220416784286499e+00" cType="1" res="2.0437972620129585e-02" rms="2.3690149188041687e-01" purity="5.0273764133453369e-01" nType="0">
        <Node pos="l" depth="1" NCoef="0" IVar="14" Cut="-7.9671114683151245e-01" cType="1" res="-7.3371562175452709e-03" rms="2.3019193112850189e-01" purity="2.6742094755172729e-01" nType="0">
          <Node pos="l" depth="2" NCoef="0" IVar="-1" Cut="0.0000000000000000e+00" cType="1" res="-1.2478117132559419e-03" rms="1.8430009484291077e-01" purity="1.9596619904041290e-01" nType="-99"/>
          <Node pos="r" depth="2" NCoef="0" IVar="-1" Cut="0.0000000000000000e+00" cType="1" res="8.0327340401709080e-04" rms="2.7645277976989746e-01" purity="3.6782386898994446e-01" nType="-99"/>
        </Node>
        <Node pos="r" depth="1" NCoef="0" IVar="15" Cut="1.5217730998992920e+00" cType="1" res="6.3830778002738953e-02" rms="2.4068723618984222e-01" purity="8.7037056684494019e-01" nType="0">
          <Node pos="l" depth="2" NCoef="0" IVar="-1" Cut="0.0000000000000000e+00" cType="1" res="1.9035082077607512e-03" rms="1.9126616418361664e-01" purity="9.3291878700256348e-01" nType="-99"/>
          <Node pos="r" depth="2" NCoef="0" IVar="-1" Cut="0.0000000000000000e+00" cType="1" res="-4.4140857062302530e-04" rms="3.5440599918365479e-01" purity="6.3988816738128662e-01" nType="-99"/>
        </Node>
      </Node>
    </BinaryTree>
    <BinaryTree type="DecisionTree" boostWeight="1.0000000000000000e+00" itree="616">
      <Node pos="s" depth="0" NCoef="0" IVar="15" Cut="1.5225218534469604e+00" cType="1" res="1.9811376929283142e-02" rms="2.4800615012645721e-01" purity="4.9003428220748901e-01" nType="0">
        <Node pos="l" depth="1" NCoef="0" IVar="17" Cut="1.1365000009536743e+00" cType="1" res="3.3389776945114136e-02" rms="2.3210029304027557e-01" purity="4.9393728375434875e-01" nType="0">
          <Node pos="l" depth="2" NCoef="0" IVar="-1" Cut="0.0000000000000000e+00" cType="1" res="-8.9634163305163383e-03" rms="0.0000000000000000e+00" purity="8.5497269174084067e-04" nType="-99"/>
          <Node pos="r" depth="2" NCoef="0" IVar="-1" Cut="0.0000000000000000e+00" cType="1" res="1.0009413817897439e-03" rms="2.7117741107940674e-01" purity="6.8556845188140869e-01" nType="-99"/>
        </Node>
        <Node pos="r" depth="1" NCoef="0" IVar="15" Cut="1.5387517213821411e+00" cType="1" res="-8.9506156742572784e-02" rms="3.3098739385604858e-01" purity="4.5861181616783142e-01" nType="0">
          <Node pos="l" depth="2" NCoef="0" IVar="-1" Cut="0.0000000000000000e+00" cType="1" res="-4.0346235618926585e-04" rms="3.1467369198799133e-01" purity="5.8220285177230835e-01" nType="-99"/>
          <Node pos="r" depth="2" NCoef="0" IVar="-1" Cut="0.0000000000000000e+00" cType="1" res="-1.0257272981107235e-02" rms="3.1426912546157837e-01" purity="1.4360676705837250e-01" nType="-99"/>
        </Node>
      </Node>
    </BinaryTree>
    <BinaryTree type="DecisionTree" boostWeight="1.0000000000000000e+00" itree="617">
      <Node pos="s" depth="0" NCoef="0" IVar="14" Cut="-1.2992165088653564e+00" cType="1" res="2.6972096413373947e-02" rms="2.4727082252502441e-01" purity="4.9769419431686401e-01" nType="0">
        <Node pos="l" depth="1" NCoef="0" IVar="2" Cut="1.9982255697250366e+00" cType="1" res="-2.2097108885645866e-02" rms="2.1719713509082794e-01" purity="2.7402326464653015e-01" nType="0">
          <Node pos="l" depth="2" NCoef="0" IVar="-1" Cut="0.0000000000000000e+00" cType="1" res="-1.2149427086114883e-02" rms="0.0000000000000000e+00" purity="2.3432632442563772e-03" nType="-99"/>
          <Node pos="r" depth="2" NCoef="0" IVar="-1" Cut="0.0000000000000000e+00" cType="1" res="-2.5301800633314997e-05" rms="2.4943806231021881e-01" purity="3.4028622508049011e-01" nType="-99"/>
        </Node>
        <Node pos="r" depth="1" NCoef="0" IVar="2" Cut="1.0039068460464478e+00" cType="1" res="4.8033852130174637e-02" rms="2.5624462962150574e-01" purity="5.9369939565658569e-01" nType="0">
          <Node pos="l" depth="2" NCoef="0" IVar="-1" Cut="0.0000000000000000e+00" cType="1" res="-1.4619546942412853e-02" rms="0.0000000000000000e+00" purity="-1.3833520002663136e-02" nType="-99"/>
          <Node pos="r" depth="2" NCoef="0" IVar="-1" Cut="0.0000000000000000e+00" cType="1" res="1.1489734752103686e-03" rms="2.5935924053192139e-01" purity="6.2097847461700439e-01" nType="-99"/>
        </Node>
      </Node>
    </BinaryTree>
    <BinaryTree type="DecisionTree" boostWeight="1.0000000000000000e+00" itree="618">
      <Node pos="s" depth="0" NCoef="0" IVar="52" Cut="2.3824841976165771e+00" cType="1" res="2.6713903993368149e-02" rms="2.4966333806514740e-01" purity="5.0110357999801636e-01" nType="0">
        <Node pos="l" depth="1" NCoef="0" IVar="19" Cut="7.6251268386840820e-01" cType="1" res="-9.6939533948898315e-02" rms="1.1840481311082840e-01" purity="1.6158573329448700e-01" nType="0">
          <Node pos="l" depth="2" NCoef="0" IVar="-1" Cut="0.0000000000000000e+00" cType="1" res="-7.1942540816962719e-03" rms="0.0000000000000000e+00" purity="-2.9515870846807957e-03" nType="-99"/>
          <Node pos="r" depth="2" NCoef="0" IVar="-1" Cut="0.0000000000000000e+00" cType="1" res="-3.2139371614903212e-04" rms="2.7432689070701599e-01" purity="2.6872864365577698e-01" nType="-99"/>
        </Node>
        <Node pos="r" depth="1" NCoef="0" IVar="5" Cut="2.9218301177024841e-01" cType="1" res="3.8246776908636093e-02" rms="2.5549688935279846e-01" purity="5.3276956081390381e-01" nType="0">
          <Node pos="l" depth="2" NCoef="0" IVar="-1" Cut="0.0000000000000000e+00" cType="1" res="1.8040593713521957e-03" rms="2.3135328292846680e-01" purity="7.1109157800674438e-01" nType="-99"/>
          <Node pos="r" depth="2" NCoef="0" IVar="-1" Cut="0.0000000000000000e+00" cType="1" res="-1.1514523066580296e-05" rms="2.7663737535476685e-01" purity="3.2015874981880188e-01" nType="-99"/>
        </Node>
      </Node>
    </BinaryTree>
    <BinaryTree type="DecisionTree" boostWeight="1.0000000000000000e+00" itree="619">
      <Node pos="s" depth="0" NCoef="0" IVar="60" Cut="-1.1637938022613525e+00" cType="1" res="2.7872266247868538e-02" rms="2.4941968917846680e-01" purity="5.0063055753707886e-01" nType="0">
        <Node pos="l" depth="1" NCoef="0" IVar="1" Cut="2.2830445766448975e+00" cType="1" res="4.3009392917156219e-02" rms="2.5778645277023315e-01" purity="5.3584915399551392e-01" nType="0">
          <Node pos="l" depth="2" NCoef="0" IVar="-1" Cut="0.0000000000000000e+00" cType="1" res="-2.2884632926434278e-03" rms="1.5033395588397980e-01" purity="7.6647713780403137e-02" nType="-99"/>
          <Node pos="r" depth="2" NCoef="0" IVar="-1" Cut="0.0000000000000000e+00" cType="1" res="1.2097884900867939e-03" rms="2.6503905653953552e-01" purity="5.9008473157882690e-01" nType="-99"/>
        </Node>
        <Node pos="r" depth="1" NCoef="0" IVar="48" Cut="2.2689960002899170e+00" cType="1" res="-5.7176936417818069e-02" rms="1.7275995016098022e-01" purity="3.0275204777717590e-01" nType="0">
          <Node pos="l" depth="2" NCoef="0" IVar="-1" Cut="0.0000000000000000e+00" cType="1" res="-3.1705184374004602e-03" rms="9.1918215155601501e-02" purity="1.9173705577850342e-01" nType="-99"/>
          <Node pos="r" depth="2" NCoef="0" IVar="-1" Cut="0.0000000000000000e+00" cType="1" res="6.8971241125836968e-04" rms="2.6143431663513184e-01" purity="5.6103920936584473e-01" nType="-99"/>
        </Node>
      </Node>
    </BinaryTree>
    <BinaryTree type="DecisionTree" boostWeight="1.0000000000000000e+00" itree="620">
      <Node pos="s" depth="0" NCoef="0" IVar="57" Cut="-9.5931380987167358e-01" cType="1" res="1.5975750982761383e-02" rms="2.4067316949367523e-01" purity="4.9157512187957764e-01" nType="0">
        <Node pos="l" depth="1" NCoef="0" IVar="3" Cut="5.1552710533142090e+00" cType="1" res="3.7745960056781769e-02" rms="2.5177472829818726e-01" purity="5.5368602275848389e-01" nType="0">
          <Node pos="l" depth="2" NCoef="0" IVar="-1" Cut="0.0000000000000000e+00" cType="1" res="5.8617390459403396e-04" rms="2.4611625075340271e-01" purity="5.4807776212692261e-01" nType="-99"/>
          <Node pos="r" depth="2" NCoef="0" IVar="-1" Cut="0.0000000000000000e+00" cType="1" res="3.1630522571504116e-03" rms="2.7227726578712463e-01" purity="6.1347967386245728e-01" nType="-99"/>
        </Node>
        <Node pos="r" depth="1" NCoef="0" IVar="17" Cut="1.5208106040954590e+00" cType="1" res="-3.5761937499046326e-02" rms="2.0280057191848755e-01" purity="3.4396612644195557e-01" nType="0">
          <Node pos="l" depth="2" NCoef="0" IVar="-1" Cut="0.0000000000000000e+00" cType="1" res="-2.0895802881568670e-03" rms="1.6723196208477020e-01" purity="1.3946513831615448e-01" nType="-99"/>
          <Node pos="r" depth="2" NCoef="0" IVar="-1" Cut="0.0000000000000000e+00" cType="1" res="3.3621455077081919e-04" rms="2.5760743021965027e-01" purity="7.9884648323059082e-01" nType="-99"/>
        </Node>
      </Node>
    </BinaryTree>
    <BinaryTree type="DecisionTree" boostWeight="1.0000000000000000e+00" itree="621">
      <Node pos="s" depth="0" NCoef="0" IVar="5" Cut="2.9970130324363708e-01" cType="1" res="1.1555876582860947e-02" rms="2.3566193878650665e-01" purity="4.8394122719764709e-01" nType="0">
        <Node pos="l" depth="1" NCoef="0" IVar="48" Cut="8.0260533094406128e-01" cType="1" res="4.4448159635066986e-02" rms="2.2292184829711914e-01" purity="6.5260297060012817e-01" nType="0">
          <Node pos="l" depth="2" NCoef="0" IVar="-1" Cut="0.0000000000000000e+00" cType="1" res="-4.9597108736634254e-03" rms="0.0000000000000000e+00" purity="-1.8254430964589119e-02" nType="-99"/>
          <Node pos="r" depth="2" NCoef="0" IVar="-1" Cut="0.0000000000000000e+00" cType="1" res="1.5067972708493471e-03" rms="2.2725674510002136e-01" purity="7.0372194051742554e-01" nType="-99"/>
        </Node>
        <Node pos="r" depth="1" NCoef="0" IVar="15" Cut="1.5225218534469604e+00" cType="1" res="-3.1447738409042358e-02" rms="2.4476754665374756e-01" purity="2.6343157887458801e-01" nType="0">
          <Node pos="l" depth="2" NCoef="0" IVar="-1" Cut="0.0000000000000000e+00" cType="1" res="-4.0277378866448998e-04" rms="2.1559844911098480e-01" purity="2.4965775012969971e-01" nType="-99"/>
          <Node pos="r" depth="2" NCoef="0" IVar="-1" Cut="0.0000000000000000e+00" cType="1" res="-2.1110959351062775e-03" rms="3.8390663266181946e-01" purity="3.6735183000564575e-01" nType="-99"/>
        </Node>
      </Node>
    </BinaryTree>
    <BinaryTree type="DecisionTree" boostWeight="1.0000000000000000e+00" itree="622">
      <Node pos="s" depth="0" NCoef="0" IVar="15" Cut="1.5225218534469604e+00" cType="1" res="2.0778326317667961e-02" rms="2.4870185554027557e-01" purity="4.9675810337066650e-01" nType="0">
        <Node pos="l" depth="1" NCoef="0" IVar="14" Cut="-1.2994023561477661e+00" cType="1" res="3.4387730062007904e-02" rms="2.3261977732181549e-01" purity="5.0325912237167358e-01" nType="0">
          <Node pos="l" depth="2" NCoef="0" IVar="-1" Cut="0.0000000000000000e+00" cType="1" res="-1.0730974609032273e-03" rms="1.8590103089809418e-01" purity="2.2699344158172607e-01" nType="-99"/>
          <Node pos="r" depth="2" NCoef="0" IVar="-1" Cut="0.0000000000000000e+00" cType="1" res="1.3409034581854939e-03" rms="2.4402154982089996e-01" purity="6.1429882049560547e-01" nType="-99"/>
        </Node>
        <Node pos="r" depth="1" NCoef="0" IVar="17" Cut="1.5226964950561523e+00" cType="1" res="-9.3821249902248383e-02" rms="3.3517310023307800e-01" purity="4.4201549887657166e-01" nType="0">
          <Node pos="l" depth="2" NCoef="0" IVar="-1" Cut="0.0000000000000000e+00" cType="1" res="-2.0233152434229851e-02" rms="0.0000000000000000e+00" purity="-8.1316128373146057e-02" nType="-99"/>
          <Node pos="r" depth="2" NCoef="0" IVar="-1" Cut="0.0000000000000000e+00" cType="1" res="-4.9305742140859365e-04" rms="3.6764124035835266e-01" purity="6.0808742046356201e-01" nType="-99"/>
        </Node>
      </Node>
    </BinaryTree>
    <BinaryTree type="DecisionTree" boostWeight="1.0000000000000000e+00" itree="623">
      <Node pos="s" depth="0" NCoef="0" IVar="0" Cut="5.7861882448196411e-01" cType="1" res="2.1567007526755333e-02" rms="2.4643178284168243e-01" purity="4.9146023392677307e-01" nType="0">
        <Node pos="l" depth="1" NCoef="0" IVar="2" Cut="1.5193620920181274e+00" cType="1" res="5.5994965136051178e-02" rms="2.6815047860145569e-01" purity="5.6065887212753296e-01" nType="0">
          <Node pos="l" depth="2" NCoef="0" IVar="-1" Cut="0.0000000000000000e+00" cType="1" res="-4.6902815811336040e-03" rms="2.0334447920322418e-01" purity="1.1148807406425476e-01" nType="-99"/>
          <Node pos="r" depth="2" NCoef="0" IVar="-1" Cut="0.0000000000000000e+00" cType="1" res="1.4689476229250431e-03" rms="2.7066951990127563e-01" purity="6.0948115587234497e-01" nType="-99"/>
        </Node>
        <Node pos="r" depth="1" NCoef="0" IVar="5" Cut="4.4857197999954224e-01" cType="1" res="-1.5081048011779785e-02" rms="2.1500484645366669e-01" purity="4.1779932379722595e-01" nType="0">
          <Node pos="l" depth="2" NCoef="0" IVar="-1" Cut="0.0000000000000000e+00" cType="1" res="2.2936971799936146e-04" rms="2.2424033284187317e-01" purity="5.1982653141021729e-01" nType="-99"/>
          <Node pos="r" depth="2" NCoef="0" IVar="-1" Cut="0.0000000000000000e+00" cType="1" res="-2.4002394638955593e-03" rms="1.5795561671257019e-01" purity="8.9374974370002747e-02" nType="-99"/>
        </Node>
      </Node>
    </BinaryTree>
    <BinaryTree type="DecisionTree" boostWeight="1.0000000000000000e+00" itree="624">
      <Node pos="s" depth="0" NCoef="0" IVar="31" Cut="2.6472218036651611e+00" cType="1" res="2.1539621055126190e-02" rms="2.4141542613506317e-01" purity="5.0156605243682861e-01" nType="0">
        <Node pos="l" depth="1" NCoef="0" IVar="17" Cut="1.3633929491043091e+00" cType="1" res="-6.7681215703487396e-02" rms="1.9409012794494629e-01" purity="1.3614973425865173e-01" nType="0">
          <Node pos="l" depth="2" NCoef="0" IVar="-1" Cut="0.0000000000000000e+00" cType="1" res="-9.5235684420913458e-04" rms="1.1741295456886292e-01" purity="1.6552302986383438e-02" nType="-99"/>
          <Node pos="r" depth="2" NCoef="0" IVar="-1" Cut="0.0000000000000000e+00" cType="1" res="-4.0957224555313587e-03" rms="2.2733858227729797e-01" purity="2.4289305508136749e-01" nType="-99"/>
        </Node>
        <Node pos="r" depth="1" NCoef="0" IVar="5" Cut="2.8910326957702637e-01" cType="1" res="3.3731617033481598e-02" rms="2.4466587603092194e-01" purity="5.5150008201599121e-01" nType="0">
          <Node pos="l" depth="2" NCoef="0" IVar="-1" Cut="0.0000000000000000e+00" cType="1" res="1.5995304565876722e-03" rms="2.1176254749298096e-01" purity="7.5868743658065796e-01" nType="-99"/>
          <Node pos="r" depth="2" NCoef="0" IVar="-1" Cut="0.0000000000000000e+00" cType="1" res="-1.0661149281077087e-04" rms="2.7142840623855591e-01" purity="3.2167768478393555e-01" nType="-99"/>
        </Node>
      </Node>
    </BinaryTree>
    <BinaryTree type="DecisionTree" boostWeight="1.0000000000000000e+00" itree="625">
      <Node pos="s" depth="0" NCoef="0" IVar="60" Cut="-8.6926019191741943e-01" cType="1" res="2.0847912877798080e-02" rms="2.4422891438007355e-01" purity="4.9174517393112183e-01" nType="0">
        <Node pos="l" depth="1" NCoef="0" IVar="3" Cut="4.9876976013183594e+00" cType="1" res="2.9843157157301903e-02" rms="2.4784030020236969e-01" purity="5.1472198963165283e-01" nType="0">
          <Node pos="l" depth="2" NCoef="0" IVar="-1" Cut="0.0000000000000000e+00" cType="1" res="3.1046624644659460e-04" rms="2.4404588341712952e-01" purity="4.9385160207748413e-01" nType="-99"/>
          <Node pos="r" depth="2" NCoef="0" IVar="-1" Cut="0.0000000000000000e+00" cType="1" res="2.1599375177174807e-03" rms="2.5143957138061523e-01" purity="5.9950077533721924e-01" nType="-99"/>
        </Node>
        <Node pos="r" depth="1" NCoef="0" IVar="16" Cut="-1.8585641682147980e-01" cType="1" res="-9.9402539432048798e-02" rms="1.4265275001525879e-01" purity="1.8458677828311920e-01" nType="0">
          <Node pos="l" depth="2" NCoef="0" IVar="-1" Cut="0.0000000000000000e+00" cType="1" res="-1.9066303502768278e-03" rms="2.1981672942638397e-01" purity="2.5079473853111267e-01" nType="-99"/>
          <Node pos="r" depth="2" NCoef="0" IVar="-1" Cut="0.0000000000000000e+00" cType="1" res="-7.3033771477639675e-03" rms="0.0000000000000000e+00" purity="4.2612843215465546e-02" nType="-99"/>
        </Node>
      </Node>
    </BinaryTree>
    <BinaryTree type="DecisionTree" boostWeight="1.0000000000000000e+00" itree="626">
      <Node pos="s" depth="0" NCoef="0" IVar="48" Cut="1.5594226121902466e+00" cType="1" res="2.2621622309088707e-02" rms="2.4387840926647186e-01" purity="4.9824079871177673e-01" nType="0">
        <Node pos="l" depth="1" NCoef="0" IVar="61" Cut="3.8348042964935303e-01" cType="1" res="-4.5263964682817459e-02" rms="1.8692542612552643e-01" purity="2.3681056499481201e-01" nType="0">
          <Node pos="l" depth="2" NCoef="0" IVar="-1" Cut="0.0000000000000000e+00" cType="1" res="2.4407370947301388e-03" rms="3.4881350398063660e-01" purity="4.1139280796051025e-01" nType="-99"/>
          <Node pos="r" depth="2" NCoef="0" IVar="-1" Cut="0.0000000000000000e+00" cType="1" res="-1.8412538338452578e-03" rms="1.2820757925510406e-01" purity="2.0828047394752502e-01" nType="-99"/>
        </Node>
        <Node pos="r" depth="1" NCoef="0" IVar="2" Cut="1.5253424644470215e+00" cType="1" res="4.6649865806102753e-02" rms="2.5681230425834656e-01" purity="5.9077453613281250e-01" nType="0">
          <Node pos="l" depth="2" NCoef="0" IVar="-1" Cut="0.0000000000000000e+00" cType="1" res="-5.1217968575656414e-03" rms="1.8988552689552307e-01" purity="1.2510482966899872e-01" nType="-99"/>
          <Node pos="r" depth="2" NCoef="0" IVar="-1" Cut="0.0000000000000000e+00" cType="1" res="1.2359056854620576e-03" rms="2.5868362188339233e-01" purity="6.2947875261306763e-01" nType="-99"/>
        </Node>
      </Node>
    </BinaryTree>
    <BinaryTree type="DecisionTree" boostWeight="1.0000000000000000e+00" itree="627">
      <Node pos="s" depth="0" NCoef="0" IVar="17" Cut="1.4437762498855591e+00" cType="1" res="2.0288990810513496e-02" rms="2.3699474334716797e-01" purity="5.0488978624343872e-01" nType="0">
        <Node pos="l" depth="1" NCoef="0" IVar="13" Cut="1.4687985181808472e+00" cType="1" res="-3.0798757448792458e-02" rms="3.8984548300504684e-02" purity="1.1619896627962589e-02" nType="0">
          <Node pos="l" depth="2" NCoef="0" IVar="-1" Cut="0.0000000000000000e+00" cType="1" res="-1.5831749187782407e-03" rms="1.1287444829940796e-01" purity="2.7531413361430168e-02" nType="-99"/>
          <Node pos="r" depth="2" NCoef="0" IVar="-1" Cut="0.0000000000000000e+00" cType="1" res="-1.0437665507197380e-02" rms="0.0000000000000000e+00" purity="-7.8185327351093292e-02" nType="-99"/>
        </Node>
        <Node pos="r" depth="1" NCoef="0" IVar="48" Cut="1.0782237052917480e+00" cType="1" res="4.6860888600349426e-02" rms="2.8727328777313232e-01" purity="7.6145064830780029e-01" nType="0">
          <Node pos="l" depth="2" NCoef="0" IVar="-1" Cut="0.0000000000000000e+00" cType="1" res="-1.3776276027783751e-03" rms="2.7508729696273804e-01" purity="3.0324754118919373e-01" nType="-99"/>
          <Node pos="r" depth="2" NCoef="0" IVar="-1" Cut="0.0000000000000000e+00" cType="1" res="1.0402505286037922e-03" rms="2.8432020545005798e-01" purity="8.0818259716033936e-01" nType="-99"/>
        </Node>
      </Node>
    </BinaryTree>
    <BinaryTree type="DecisionTree" boostWeight="1.0000000000000000e+00" itree="628">
      <Node pos="s" depth="0" NCoef="0" IVar="18" Cut="-1.4233578443527222e+00" cType="1" res="2.2710490971803665e-02" rms="2.4231648445129395e-01" purity="5.0220215320587158e-01" nType="0">
        <Node pos="l" depth="1" NCoef="0" IVar="5" Cut="4.5261862874031067e-01" cType="1" res="4.0989521890878677e-02" rms="2.4501612782478333e-01" purity="5.5700963735580444e-01" nType="0">
          <Node pos="l" depth="2" NCoef="0" IVar="-1" Cut="0.0000000000000000e+00" cType="1" res="1.3763280585408211e-03" rms="2.3892854154109955e-01" purity="6.4456224441528320e-01" nType="-99"/>
          <Node pos="r" depth="2" NCoef="0" IVar="-1" Cut="0.0000000000000000e+00" cType="1" res="-6.4094393746927381e-04" rms="2.5627833604812622e-01" purity="2.0759826898574829e-01" nType="-99"/>
        </Node>
        <Node pos="r" depth="1" NCoef="0" IVar="17" Cut="1.5184223651885986e+00" cType="1" res="-4.4900134205818176e-02" rms="2.1918940544128418e-01" purity="2.9947963356971741e-01" nType="0">
          <Node pos="l" depth="2" NCoef="0" IVar="-1" Cut="0.0000000000000000e+00" cType="1" res="-3.7606013938784599e-03" rms="1.5040352940559387e-01" purity="7.3123238980770111e-02" nType="-99"/>
          <Node pos="r" depth="2" NCoef="0" IVar="-1" Cut="0.0000000000000000e+00" cType="1" res="6.2842218903824687e-04" rms="3.0368754267692566e-01" purity="7.7808016538619995e-01" nType="-99"/>
        </Node>
      </Node>
    </BinaryTree>
    <BinaryTree type="DecisionTree" boostWeight="1.0000000000000000e+00" itree="629">
      <Node pos="s" depth="0" NCoef="0" IVar="5" Cut="3.0324262380599976e-01" cType="1" res="2.4062819778919220e-02" rms="2.4549305438995361e-01" purity="5.0503045320510864e-01" nType="0">
        <Node pos="l" depth="1" NCoef="0" IVar="48" Cut="9.6823453903198242e-01" cType="1" res="5.4925158619880676e-02" rms="2.1969670057296753e-01" purity="6.7138510942459106e-01" nType="0">
          <Node pos="l" depth="2" NCoef="0" IVar="-1" Cut="0.0000000000000000e+00" cType="1" res="-2.0315109286457300e-03" rms="1.2047638744115829e-01" purity="1.2460161745548248e-01" nType="-99"/>
          <Node pos="r" depth="2" NCoef="0" IVar="-1" Cut="0.0000000000000000e+00" cType="1" res="1.8654776504263282e-03" rms="2.2484429180622101e-01" purity="7.5348049402236938e-01" nType="-99"/>
        </Node>
        <Node pos="r" depth="1" NCoef="0" IVar="52" Cut="3.2511560916900635e+00" cType="1" res="-1.8799357116222382e-02" rms="2.7161175012588501e-01" purity="2.7399411797523499e-01" nType="0">
          <Node pos="l" depth="2" NCoef="0" IVar="-1" Cut="0.0000000000000000e+00" cType="1" res="1.8846565217245370e-04" rms="2.9710745811462402e-01" purity="3.0196270346641541e-01" nType="-99"/>
          <Node pos="r" depth="2" NCoef="0" IVar="-1" Cut="0.0000000000000000e+00" cType="1" res="-2.0182454027235508e-03" rms="1.8496900796890259e-01" purity="2.0895899832248688e-01" nType="-99"/>
        </Node>
      </Node>
    </BinaryTree>
    <BinaryTree type="DecisionTree" boostWeight="1.0000000000000000e+00" itree="630">
      <Node pos="s" depth="0" NCoef="0" IVar="5" Cut="2.8323230147361755e-01" cType="1" res="1.6678206622600555e-02" rms="2.3964416980743408e-01" purity="4.9501758813858032e-01" nType="0">
        <Node pos="l" depth="1" NCoef="0" IVar="36" Cut="1.3681474924087524e+00" cType="1" res="4.7614876180887222e-02" rms="2.2091099619865417e-01" purity="6.5894919633865356e-01" nType="0">
          <Node pos="l" depth="2" NCoef="0" IVar="-1" Cut="0.0000000000000000e+00" cType="1" res="-3.4374454990029335e-03" rms="1.5177828073501587e-01" purity="7.3590241372585297e-02" nType="-99"/>
          <Node pos="r" depth="2" NCoef="0" IVar="-1" Cut="0.0000000000000000e+00" cType="1" res="1.7062140395864844e-03" rms="2.3000150918960571e-01" purity="8.3386534452438354e-01" nType="-99"/>
        </Node>
        <Node pos="r" depth="1" NCoef="0" IVar="0" Cut="7.0012432336807251e-01" cType="1" res="-2.0905101671814919e-02" rms="2.5560790300369263e-01" purity="2.9586583375930786e-01" nType="0">
          <Node pos="l" depth="2" NCoef="0" IVar="-1" Cut="0.0000000000000000e+00" cType="1" res="2.3448270803783089e-04" rms="2.7977210283279419e-01" purity="3.5569521784782410e-01" nType="-99"/>
          <Node pos="r" depth="2" NCoef="0" IVar="-1" Cut="0.0000000000000000e+00" cType="1" res="-1.8720193766057491e-03" rms="1.9262421131134033e-01" purity="1.8859770894050598e-01" nType="-99"/>
        </Node>
      </Node>
    </BinaryTree>
    <BinaryTree type="DecisionTree" boostWeight="1.0000000000000000e+00" itree="631">
      <Node pos="s" depth="0" NCoef="0" IVar="18" Cut="-8.4666270017623901e-01" cType="1" res="2.1244922652840614e-02" rms="2.4141684174537659e-01" purity="4.9768915772438049e-01" nType="0">
        <Node pos="l" depth="1" NCoef="0" IVar="27" Cut="1.4356648921966553e+00" cType="1" res="2.9394131153821945e-02" rms="2.4194838106632233e-01" purity="5.1690131425857544e-01" nType="0">
          <Node pos="l" depth="2" NCoef="0" IVar="-1" Cut="0.0000000000000000e+00" cType="1" res="-1.8839883850887418e-03" rms="1.7770959436893463e-01" purity="1.9798836112022400e-01" nType="-99"/>
          <Node pos="r" depth="2" NCoef="0" IVar="-1" Cut="0.0000000000000000e+00" cType="1" res="9.6135115018114448e-04" rms="2.5020205974578857e-01" purity="5.8126485347747803e-01" nType="-99"/>
        </Node>
        <Node pos="r" depth="1" NCoef="0" IVar="17" Cut="1.3988376855850220e+00" cType="1" res="-1.3268561661243439e-01" rms="1.6876010596752167e-01" purity="1.3479064404964447e-01" nType="0">
          <Node pos="l" depth="2" NCoef="0" IVar="-1" Cut="0.0000000000000000e+00" cType="1" res="-3.2292462885379791e-02" rms="0.0000000000000000e+00" purity="-1.4923082664608955e-02" nType="-99"/>
          <Node pos="r" depth="2" NCoef="0" IVar="-1" Cut="0.0000000000000000e+00" cType="1" res="-7.3942467570304871e-03" rms="2.2223238646984100e-01" purity="2.5949066877365112e-01" nType="-99"/>
        </Node>
      </Node>
    </BinaryTree>
    <BinaryTree type="DecisionTree" boostWeight="1.0000000000000000e+00" itree="632">
      <Node pos="s" depth="0" NCoef="0" IVar="48" Cut="9.0371370315551758e-01" cType="1" res="2.2752188146114349e-02" rms="2.4530136585235596e-01" purity="4.9548003077507019e-01" nType="0">
        <Node pos="l" depth="1" NCoef="0" IVar="46" Cut="1.0144149065017700e+00" cType="1" res="-8.7050735950469971e-02" rms="8.5135541856288910e-02" purity="5.0116878002882004e-02" nType="0">
          <Node pos="l" depth="2" NCoef="0" IVar="-1" Cut="0.0000000000000000e+00" cType="1" res="-1.2891014339402318e-03" rms="2.1721041202545166e-01" purity="1.0133911669254303e-01" nType="-99"/>
          <Node pos="r" depth="2" NCoef="0" IVar="-1" Cut="0.0000000000000000e+00" cType="1" res="-7.8025124967098236e-03" rms="0.0000000000000000e+00" purity="-9.2387959361076355e-02" nType="-99"/>
        </Node>
        <Node pos="r" depth="1" NCoef="0" IVar="31" Cut="2.5657482147216797e+00" cType="1" res="3.3878780901432037e-02" rms="2.5335788726806641e-01" purity="5.4060971736907959e-01" nType="0">
          <Node pos="l" depth="2" NCoef="0" IVar="-1" Cut="0.0000000000000000e+00" cType="1" res="-5.9371530078351498e-03" rms="1.6301861405372620e-01" purity="1.0128480195999146e-01" nType="-99"/>
          <Node pos="r" depth="2" NCoef="0" IVar="-1" Cut="0.0000000000000000e+00" cType="1" res="9.8505918867886066e-04" rms="2.5706237554550171e-01" purity="5.7834762334823608e-01" nType="-99"/>
        </Node>
      </Node>
    </BinaryTree>
    <BinaryTree type="DecisionTree" boostWeight="1.0000000000000000e+00" itree="633">
      <Node pos="s" depth="0" NCoef="0" IVar="52" Cut="3.6069364547729492e+00" cType="1" res="2.0738570019602776e-02" rms="2.5111469626426697e-01" purity="4.7978392243385315e-01" nType="0">
        <Node pos="l" depth="1" NCoef="0" IVar="3" Cut="4.9954400062561035e+00" cType="1" res="2.6124821975827217e-02" rms="2.5460690259933472e-01" purity="4.8963546752929688e-01" nType="0">
          <Node pos="l" depth="2" NCoef="0" IVar="-1" Cut="0.0000000000000000e+00" cType="1" res="2.4087673227768391e-04" rms="2.4941478669643402e-01" purity="4.6713364124298096e-01" nType="-99"/>
          <Node pos="r" depth="2" NCoef="0" IVar="-1" Cut="0.0000000000000000e+00" cType="1" res="2.2784324828535318e-03" rms="2.6472532749176025e-01" purity="5.9138756990432739e-01" nType="-99"/>
        </Node>
        <Node pos="r" depth="1" NCoef="0" IVar="-1" Cut="0.0000000000000000e+00" cType="1" res="-7.3794210329651833e-03" rms="0.0000000000000000e+00" purity="7.9916477203369141e-02" nType="-99"/>
      </Node>
    </BinaryTree>
    <BinaryTree type="DecisionTree" boostWeight="1.0000000000000000e+00" itree="634">
      <Node pos="s" depth="0" NCoef="0" IVar="48" Cut="1.0207147598266602e+00" cType="1" res="1.8390962854027748e-02" rms="2.3859819769859314e-01" purity="5.0549817085266113e-01" nType="0">
        <Node pos="l" depth="1" NCoef="0" IVar="13" Cut="-5.6702047586441040e-01" cType="1" res="-8.6873047053813934e-02" rms="5.9033468365669250e-02" purity="8.4159001708030701e-02" nType="0">
          <Node pos="l" depth="2" NCoef="0" IVar="-1" Cut="0.0000000000000000e+00" cType="1" res="1.8419115804135799e-03" rms="1.5984842181205750e-01" purity="1.5193276107311249e-01" nType="-99"/>
          <Node pos="r" depth="2" NCoef="0" IVar="-1" Cut="0.0000000000000000e+00" cType="1" res="-3.3794599585235119e-03" rms="0.0000000000000000e+00" purity="6.1396267265081406e-02" nType="-99"/>
        </Node>
        <Node pos="r" depth="1" NCoef="0" IVar="18" Cut="-8.4645366668701172e-01" cType="1" res="3.2488338649272919e-02" rms="2.4980767071247101e-01" purity="5.6192553043365479e-01" nType="0">
          <Node pos="l" depth="2" NCoef="0" IVar="-1" Cut="0.0000000000000000e+00" cType="1" res="9.1692688874900341e-04" rms="2.4898234009742737e-01" purity="5.8032929897308350e-01" nType="-99"/>
          <Node pos="r" depth="2" NCoef="0" IVar="-1" Cut="0.0000000000000000e+00" cType="1" res="-6.9655450060963631e-03" rms="2.0925121009349823e-01" purity="1.7148727178573608e-01" nType="-99"/>
        </Node>
      </Node>
    </BinaryTree>
    <BinaryTree type="DecisionTree" boostWeight="1.0000000000000000e+00" itree="635">
      <Node pos="s" depth="0" NCoef="0" IVar="2" Cut="1.8089659214019775e+00" cType="1" res="2.6995752006769180e-02" rms="2.4271671473979950e-01" purity="5.1554876565933228e-01" nType="0">
        <Node pos="l" depth="1" NCoef="0" IVar="13" Cut="1.3981174230575562e+00" cType="1" res="-5.9062220156192780e-02" rms="1.5456883609294891e-01" purity="1.4686207473278046e-01" nType="0">
          <Node pos="l" depth="2" NCoef="0" IVar="-1" Cut="0.0000000000000000e+00" cType="1" res="-1.0140864469576627e-04" rms="1.1339144408702850e-01" purity="1.1271314322948456e-01" nType="-99"/>
          <Node pos="r" depth="2" NCoef="0" IVar="-1" Cut="0.0000000000000000e+00" cType="1" res="-3.8269856013357639e-03" rms="1.6774663329124451e-01" purity="1.7767907679080963e-01" nType="-99"/>
        </Node>
        <Node pos="r" depth="1" NCoef="0" IVar="3" Cut="4.4142103195190430e+00" cType="1" res="4.5012209564447403e-02" rms="2.5370821356773376e-01" purity="5.9273433685302734e-01" nType="0">
          <Node pos="l" depth="2" NCoef="0" IVar="-1" Cut="0.0000000000000000e+00" cType="1" res="-1.6880242619663477e-03" rms="2.3405458033084869e-01" purity="2.2103919088840485e-01" nType="-99"/>
          <Node pos="r" depth="2" NCoef="0" IVar="-1" Cut="0.0000000000000000e+00" cType="1" res="1.2440206483006477e-03" rms="2.5303405523300171e-01" purity="6.4544361829757690e-01" nType="-99"/>
        </Node>
      </Node>
    </BinaryTree>
    <BinaryTree type="DecisionTree" boostWeight="1.0000000000000000e+00" itree="636">
      <Node pos="s" depth="0" NCoef="0" IVar="0" Cut="6.9092816114425659e-01" cType="1" res="1.7677964642643929e-02" rms="2.3925654590129852e-01" purity="4.9453040957450867e-01" nType="0">
        <Node pos="l" depth="1" NCoef="0" IVar="17" Cut="1.3284697532653809e+00" cType="1" res="4.3525766581296921e-02" rms="2.5221422314643860e-01" purity="5.5745017528533936e-01" nType="0">
          <Node pos="l" depth="2" NCoef="0" IVar="-1" Cut="0.0000000000000000e+00" cType="1" res="-5.2758869715034962e-03" rms="3.8372464478015900e-02" purity="6.8504554219543934e-03" nType="-99"/>
          <Node pos="r" depth="2" NCoef="0" IVar="-1" Cut="0.0000000000000000e+00" cType="1" res="1.1480747489258647e-03" rms="2.8728806972503662e-01" purity="7.4037009477615356e-01" nType="-99"/>
        </Node>
        <Node pos="r" depth="1" NCoef="0" IVar="4" Cut="3.4669578075408936e+00" cType="1" res="-2.5915594771504402e-02" rms="2.0850907266139984e-01" purity="3.8841325044631958e-01" nType="0">
          <Node pos="l" depth="2" NCoef="0" IVar="-1" Cut="0.0000000000000000e+00" cType="1" res="-3.0929679051041603e-03" rms="1.0200972110033035e-01" purity="1.6773608326911926e-01" nType="-99"/>
          <Node pos="r" depth="2" NCoef="0" IVar="-1" Cut="0.0000000000000000e+00" cType="1" res="1.2567847443278879e-04" rms="2.3621501028537750e-01" purity="4.9115756154060364e-01" nType="-99"/>
        </Node>
      </Node>
    </BinaryTree>
    <BinaryTree type="DecisionTree" boostWeight="1.0000000000000000e+00" itree="637">
      <Node pos="s" depth="0" NCoef="0" IVar="57" Cut="-9.9746990203857422e-01" cType="1" res="2.6730945333838463e-02" rms="2.4482443928718567e-01" purity="5.0325834751129150e-01" nType="0">
        <Node pos="l" depth="1" NCoef="0" IVar="5" Cut="2.8447723388671875e-01" cType="1" res="4.8347398638725281e-02" rms="2.5513139367103577e-01" purity="5.6492751836776733e-01" nType="0">
          <Node pos="l" depth="2" NCoef="0" IVar="-1" Cut="0.0000000000000000e+00" cType="1" res="1.9898193422704935e-03" rms="2.2873537242412567e-01" purity="7.3400449752807617e-01" nType="-99"/>
          <Node pos="r" depth="2" NCoef="0" IVar="-1" Cut="0.0000000000000000e+00" cType="1" res="1.6879278700798750e-04" rms="2.7851435542106628e-01" purity="3.6079198122024536e-01" nType="-99"/>
        </Node>
        <Node pos="r" depth="1" NCoef="0" IVar="16" Cut="-1.8234117329120636e-01" cType="1" res="-2.3177918046712875e-02" rms="2.1088334918022156e-01" purity="3.6087441444396973e-01" nType="0">
          <Node pos="l" depth="2" NCoef="0" IVar="-1" Cut="0.0000000000000000e+00" cType="1" res="1.8430399359203875e-04" rms="2.4450510740280151e-01" purity="3.9717674255371094e-01" nType="-99"/>
          <Node pos="r" depth="2" NCoef="0" IVar="-1" Cut="0.0000000000000000e+00" cType="1" res="-2.1958281286060810e-03" rms="7.9005703330039978e-02" purity="2.8387489914894104e-01" nType="-99"/>
        </Node>
      </Node>
    </BinaryTree>
    <BinaryTree type="DecisionTree" boostWeight="1.0000000000000000e+00" itree="638">
      <Node pos="s" depth="0" NCoef="0" IVar="15" Cut="1.5225218534469604e+00" cType="1" res="2.5827961042523384e-02" rms="2.4931421875953674e-01" purity="5.0572520494461060e-01" nType="0">
        <Node pos="l" depth="1" NCoef="0" IVar="17" Cut="8.6445385217666626e-01" cType="1" res="3.7457738071680069e-02" rms="2.3507528007030487e-01" purity="5.0840532779693604e-01" nType="0">
          <Node pos="l" depth="2" NCoef="0" IVar="-1" Cut="0.0000000000000000e+00" cType="1" res="-1.3395989313721657e-02" rms="0.0000000000000000e+00" purity="-2.9164475854486227e-03" nType="-99"/>
          <Node pos="r" depth="2" NCoef="0" IVar="-1" Cut="0.0000000000000000e+00" cType="1" res="1.0850169928744435e-03" rms="2.7035728096961975e-01" purity="6.7819684743881226e-01" nType="-99"/>
        </Node>
        <Node pos="r" depth="1" NCoef="0" IVar="56" Cut="-1.3772121667861938e+00" cType="1" res="-6.6042847931385040e-02" rms="3.2731339335441589e-01" purity="4.8455309867858887e-01" nType="0">
          <Node pos="l" depth="2" NCoef="0" IVar="-1" Cut="0.0000000000000000e+00" cType="1" res="-1.1130583152407780e-04" rms="3.2783538103103638e-01" purity="5.9845501184463501e-01" nType="-99"/>
          <Node pos="r" depth="2" NCoef="0" IVar="-1" Cut="0.0000000000000000e+00" cType="1" res="-5.1705981604754925e-03" rms="2.8546041250228882e-01" purity="2.3309913277626038e-01" nType="-99"/>
        </Node>
      </Node>
    </BinaryTree>
    <BinaryTree type="DecisionTree" boostWeight="1.0000000000000000e+00" itree="639">
      <Node pos="s" depth="0" NCoef="0" IVar="52" Cut="2.4693610668182373e+00" cType="1" res="1.4105290174484253e-02" rms="2.3906967043876648e-01" purity="4.8839741945266724e-01" nType="0">
        <Node pos="l" depth="1" NCoef="0" IVar="17" Cut="4.7831165790557861e-01" cType="1" res="-8.5812710225582123e-02" rms="1.3930468261241913e-01" purity="1.9260317087173462e-01" nType="0">
          <Node pos="l" depth="2" NCoef="0" IVar="-1" Cut="0.0000000000000000e+00" cType="1" res="3.5525218117982149e-03" rms="1.5094843506813049e-01" purity="2.4401795119047165e-02" nType="-99"/>
          <Node pos="r" depth="2" NCoef="0" IVar="-1" Cut="0.0000000000000000e+00" cType="1" res="-2.4656984023749828e-03" rms="1.0012830793857574e-01" purity="2.8688240051269531e-01" nType="-99"/>
        </Node>
        <Node pos="r" depth="1" NCoef="0" IVar="5" Cut="2.9656997323036194e-01" cType="1" res="2.8611758723855019e-02" rms="2.4693092703819275e-01" purity="5.3134191036224365e-01" nType="0">
          <Node pos="l" depth="2" NCoef="0" IVar="-1" Cut="0.0000000000000000e+00" cType="1" res="1.6533406451344490e-03" rms="2.1507191658020020e-01" purity="7.2488802671432495e-01" nType="-99"/>
          <Node pos="r" depth="2" NCoef="0" IVar="-1" Cut="0.0000000000000000e+00" cType="1" res="-2.7641333872452378e-04" rms="2.7469593286514282e-01" purity="3.0050924420356750e-01" nType="-99"/>
        </Node>
      </Node>
    </BinaryTree>
    <BinaryTree type="DecisionTree" boostWeight="1.0000000000000000e+00" itree="640">
      <Node pos="s" depth="0" NCoef="0" IVar="17" Cut="1.5210473537445068e+00" cType="1" res="2.0403146743774414e-02" rms="2.3872135579586029e-01" purity="5.1051342487335205e-01" nType="0">
        <Node pos="l" depth="1" NCoef="0" IVar="5" Cut="2.8046363592147827e-01" cType="1" res="-1.0083328001201153e-02" rms="2.3451764881610870e-01" purity="2.5034955143928528e-01" nType="0">
          <Node pos="l" depth="2" NCoef="0" IVar="-1" Cut="0.0000000000000000e+00" cType="1" res="9.9778536241501570e-04" rms="2.4837251007556915e-01" purity="4.1194078326225281e-01" nType="-99"/>
          <Node pos="r" depth="2" NCoef="0" IVar="-1" Cut="0.0000000000000000e+00" cType="1" res="-1.3260131236165762e-03" rms="2.1660934388637543e-01" purity="1.2583994865417480e-01" nType="-99"/>
        </Node>
        <Node pos="r" depth="1" NCoef="0" IVar="60" Cut="-1.0542727708816528e+00" cType="1" res="6.3149154186248779e-02" rms="2.3800593614578247e-01" purity="8.7529718875885010e-01" nType="0">
          <Node pos="l" depth="2" NCoef="0" IVar="-1" Cut="0.0000000000000000e+00" cType="1" res="1.4713148120790720e-03" rms="2.2860807180404663e-01" purity="8.9106959104537964e-01" nType="-99"/>
          <Node pos="r" depth="2" NCoef="0" IVar="-1" Cut="0.0000000000000000e+00" cType="1" res="-1.0250317864120007e-03" rms="3.0458572506904602e-01" purity="6.9551461935043335e-01" nType="-99"/>
        </Node>
      </Node>
    </BinaryTree>
    <BinaryTree type="DecisionTree" boostWeight="1.0000000000000000e+00" itree="641">
      <Node pos="s" depth="0" NCoef="0" IVar="60" Cut="-8.4168058633804321e-01" cType="1" res="1.3105129823088646e-02" rms="2.3197625577449799e-01" purity="4.9304494261741638e-01" nType="0">
        <Node pos="l" depth="1" NCoef="0" IVar="20" Cut="3.2290121912956238e-01" cType="1" res="2.2075220942497253e-02" rms="2.3753578960895538e-01" purity="5.1374876499176025e-01" nType="0">
          <Node pos="l" depth="2" NCoef="0" IVar="-1" Cut="0.0000000000000000e+00" cType="1" res="6.7294522887095809e-04" rms="2.3977665603160858e-01" purity="5.2803045511245728e-01" nType="-99"/>
          <Node pos="r" depth="2" NCoef="0" IVar="-1" Cut="0.0000000000000000e+00" cType="1" res="-6.6152717918157578e-03" rms="0.0000000000000000e+00" purity="9.1535754501819611e-02" nType="-99"/>
        </Node>
        <Node pos="r" depth="1" NCoef="0" IVar="15" Cut="6.3030940294265747e-01" cType="1" res="-4.4920672662556171e-03" rms="0.0000000000000000e+00" purity="1.7656180262565613e-01" nType="-99"/>
      </Node>
    </BinaryTree>
    <BinaryTree type="DecisionTree" boostWeight="1.0000000000000000e+00" itree="642">
      <Node pos="s" depth="0" NCoef="0" IVar="18" Cut="-1.1671301126480103e+00" cType="1" res="1.7720418050885201e-02" rms="2.3369789123535156e-01" purity="4.9824705719947815e-01" nType="0">
        <Node pos="l" depth="1" NCoef="0" IVar="36" Cut="1.3686834573745728e+00" cType="1" res="3.0565239489078522e-02" rms="2.3608528077602386e-01" purity="5.3648000955581665e-01" nType="0">
          <Node pos="l" depth="2" NCoef="0" IVar="-1" Cut="0.0000000000000000e+00" cType="1" res="-2.5610474403947592e-03" rms="1.1762185394763947e-01" purity="7.4275217950344086e-02" nType="-99"/>
          <Node pos="r" depth="2" NCoef="0" IVar="-1" Cut="0.0000000000000000e+00" cType="1" res="1.0296748951077461e-03" rms="2.5723403692245483e-01" purity="6.7473524808883667e-01" nType="-99"/>
        </Node>
        <Node pos="r" depth="1" NCoef="0" IVar="18" Cut="-8.7272459268569946e-01" cType="1" res="-7.9251259565353394e-02" rms="1.8841034173965454e-01" purity="2.0960795879364014e-01" nType="0">
          <Node pos="l" depth="2" NCoef="0" IVar="-1" Cut="0.0000000000000000e+00" cType="1" res="-9.0804538922384381e-04" rms="1.9214749336242676e-01" purity="3.0785992741584778e-01" nType="-99"/>
          <Node pos="r" depth="2" NCoef="0" IVar="-1" Cut="0.0000000000000000e+00" cType="1" res="-9.6296928822994232e-03" rms="1.6681586205959320e-01" purity="7.5285404920578003e-02" nType="-99"/>
        </Node>
      </Node>
    </BinaryTree>
    <BinaryTree type="DecisionTree" boostWeight="1.0000000000000000e+00" itree="643">
      <Node pos="s" depth="0" NCoef="0" IVar="36" Cut="1.4456657171249390e+00" cType="1" res="1.4632443897426128e-02" rms="2.3523813486099243e-01" purity="4.9434235692024231e-01" nType="0">
        <Node pos="l" depth="1" NCoef="0" IVar="0" Cut="9.6940356492996216e-01" cType="1" res="-4.1917465627193451e-02" rms="1.5523096919059753e-01" purity="1.2143768370151520e-01" nType="0">
          <Node pos="l" depth="2" NCoef="0" IVar="-1" Cut="0.0000000000000000e+00" cType="1" res="-1.0611944599077106e-03" rms="1.9566658139228821e-01" purity="1.4761349558830261e-01" nType="-99"/>
          <Node pos="r" depth="2" NCoef="0" IVar="-1" Cut="0.0000000000000000e+00" cType="1" res="-8.7400022894144058e-03" rms="0.0000000000000000e+00" purity="-1.0796312242746353e-02" nType="-99"/>
        </Node>
        <Node pos="r" depth="1" NCoef="0" IVar="48" Cut="8.0966663360595703e-01" cType="1" res="4.0135055780410767e-02" rms="2.5948610901832581e-01" purity="6.6251313686370850e-01" nType="0">
          <Node pos="l" depth="2" NCoef="0" IVar="-1" Cut="0.0000000000000000e+00" cType="1" res="-4.9456316046416759e-03" rms="0.0000000000000000e+00" purity="-9.6889354288578033e-02" nType="-99"/>
          <Node pos="r" depth="2" NCoef="0" IVar="-1" Cut="0.0000000000000000e+00" cType="1" res="1.0302569717168808e-03" rms="2.6432618498802185e-01" purity="6.8815612792968750e-01" nType="-99"/>
        </Node>
      </Node>
    </BinaryTree>
    <BinaryTree type="DecisionTree" boostWeight="1.0000000000000000e+00" itree="644">
      <Node pos="s" depth="0" NCoef="0" IVar="48" Cut="1.1146723031997681e+00" cType="1" res="1.9994033500552177e-02" rms="2.4211102724075317e-01" purity="4.9050205945968628e-01" nType="0">
        <Node pos="l" depth="1" NCoef="0" IVar="67" Cut="9.8990845680236816e-01" cType="1" res="-7.0526234805583954e-02" rms="1.3219676911830902e-01" purity="1.1151922494173050e-01" nType="0">
          <Node pos="l" depth="2" NCoef="0" IVar="-1" Cut="0.0000000000000000e+00" cType="1" res="-4.4993716292083263e-03" rms="0.0000000000000000e+00" purity="2.3359395563602448e-02" nType="-99"/>
          <Node pos="r" depth="2" NCoef="0" IVar="-1" Cut="0.0000000000000000e+00" cType="1" res="4.7520417138002813e-04" rms="2.8549665212631226e-01" purity="2.1531467139720917e-01" nType="-99"/>
        </Node>
        <Node pos="r" depth="1" NCoef="0" IVar="15" Cut="1.5215698480606079e+00" cType="1" res="3.5832900553941727e-02" rms="2.5324288010597229e-01" purity="5.5681496858596802e-01" nType="0">
          <Node pos="l" depth="2" NCoef="0" IVar="-1" Cut="0.0000000000000000e+00" cType="1" res="1.1913460912182927e-03" rms="2.3664781451225281e-01" purity="5.6022465229034424e-01" nType="-99"/>
          <Node pos="r" depth="2" NCoef="0" IVar="-1" Cut="0.0000000000000000e+00" cType="1" res="-1.2726094573736191e-03" rms="3.4262740612030029e-01" purity="5.2919381856918335e-01" nType="-99"/>
        </Node>
      </Node>
    </BinaryTree>
    <BinaryTree type="DecisionTree" boostWeight="1.0000000000000000e+00" itree="645">
      <Node pos="s" depth="0" NCoef="0" IVar="2" Cut="2.5532896518707275e+00" cType="1" res="1.4559866860508919e-02" rms="2.3338110744953156e-01" purity="4.9783140420913696e-01" nType="0">
        <Node pos="l" depth="1" NCoef="0" IVar="15" Cut="1.5219346284866333e+00" cType="1" res="-2.1412994712591171e-02" rms="2.0951795578002930e-01" purity="3.3551669120788574e-01" nType="0">
          <Node pos="l" depth="2" NCoef="0" IVar="-1" Cut="0.0000000000000000e+00" cType="1" res="-2.0788190886378288e-04" rms="1.9628198444843292e-01" purity="3.4800505638122559e-01" nType="-99"/>
          <Node pos="r" depth="2" NCoef="0" IVar="-1" Cut="0.0000000000000000e+00" cType="1" res="-3.5928224679082632e-03" rms="2.6948156952857971e-01" purity="2.2808493673801422e-01" nType="-99"/>
        </Node>
        <Node pos="r" depth="1" NCoef="0" IVar="36" Cut="-8.3537679910659790e-01" cType="1" res="5.2671197801828384e-02" rms="2.5068017840385437e-01" purity="6.6979521512985229e-01" nType="0">
          <Node pos="l" depth="2" NCoef="0" IVar="-1" Cut="0.0000000000000000e+00" cType="1" res="-1.6266090795397758e-02" rms="0.0000000000000000e+00" purity="-8.4259761497378349e-03" nType="-99"/>
          <Node pos="r" depth="2" NCoef="0" IVar="-1" Cut="0.0000000000000000e+00" cType="1" res="1.2185600353404880e-03" rms="2.5719055533409119e-01" purity="7.1487540006637573e-01" nType="-99"/>
        </Node>
      </Node>
    </BinaryTree>
    <BinaryTree type="DecisionTree" boostWeight="1.0000000000000000e+00" itree="646">
      <Node pos="s" depth="0" NCoef="0" IVar="57" Cut="-9.5931380987167358e-01" cType="1" res="2.6841241866350174e-02" rms="2.5578302145004272e-01" purity="5.0257003307342529e-01" nType="0">
        <Node pos="l" depth="1" NCoef="0" IVar="3" Cut="4.9418859481811523e+00" cType="1" res="5.4079774767160416e-02" rms="2.7366515994071960e-01" purity="5.6957674026489258e-01" nType="0">
          <Node pos="l" depth="2" NCoef="0" IVar="-1" Cut="0.0000000000000000e+00" cType="1" res="6.1624619411304593e-04" rms="2.6570960879325867e-01" purity="5.2523672580718994e-01" nType="-99"/>
          <Node pos="r" depth="2" NCoef="0" IVar="-1" Cut="0.0000000000000000e+00" cType="1" res="2.8355822432786226e-03" rms="2.8007930517196655e-01" purity="6.9365763664245605e-01" nType="-99"/>
        </Node>
        <Node pos="r" depth="1" NCoef="0" IVar="0" Cut="1.0105308294296265e+00" cType="1" res="-4.0288858115673065e-02" rms="1.8909423053264618e-01" purity="3.3743000030517578e-01" nType="0">
          <Node pos="l" depth="2" NCoef="0" IVar="-1" Cut="0.0000000000000000e+00" cType="1" res="-6.5137521596625447e-04" rms="2.0191782712936401e-01" purity="3.6936503648757935e-01" nType="-99"/>
          <Node pos="r" depth="2" NCoef="0" IVar="-1" Cut="0.0000000000000000e+00" cType="1" res="-5.1457211375236511e-03" rms="0.0000000000000000e+00" purity="9.0421631932258606e-02" nType="-99"/>
        </Node>
      </Node>
    </BinaryTree>
    <BinaryTree type="DecisionTree" boostWeight="1.0000000000000000e+00" itree="647">
      <Node pos="s" depth="0" NCoef="0" IVar="48" Cut="8.1211817264556885e-01" cType="1" res="1.9461976364254951e-02" rms="2.3527666926383972e-01" purity="5.0296491384506226e-01" nType="0">
        <Node pos="l" depth="1" NCoef="0" IVar="15" Cut="-9.9057239294052124e-01" cType="1" res="-3.6640407051891088e-03" rms="0.0000000000000000e+00" purity="1.1535719968378544e-02" nType="-99"/>
        <Node pos="r" depth="1" NCoef="0" IVar="55" Cut="1.4727100133895874e+00" cType="1" res="2.8658468276262283e-02" rms="2.4210833013057709e-01" purity="5.3719955682754517e-01" nType="0">
          <Node pos="l" depth="2" NCoef="0" IVar="-1" Cut="0.0000000000000000e+00" cType="1" res="9.5734978094696999e-04" rms="2.4608474969863892e-01" purity="5.6633216142654419e-01" nType="-99"/>
          <Node pos="r" depth="2" NCoef="0" IVar="-1" Cut="0.0000000000000000e+00" cType="1" res="-2.0157166291028261e-03" rms="1.8758147954940796e-01" purity="3.3716171979904175e-01" nType="-99"/>
        </Node>
      </Node>
    </BinaryTree>
    <BinaryTree type="DecisionTree" boostWeight="1.0000000000000000e+00" itree="648">
      <Node pos="s" depth="0" NCoef="0" IVar="18" Cut="-1.4234675168991089e+00" cType="1" res="2.1120902150869370e-02" rms="2.4387079477310181e-01" purity="5.0291764736175537e-01" nType="0">
        <Node pos="l" depth="1" NCoef="0" IVar="22" Cut="1.2345679104328156e-02" cType="1" res="4.0389180183410645e-02" rms="2.5026455521583557e-01" purity="5.5363816022872925e-01" nType="0">
          <Node pos="l" depth="2" NCoef="0" IVar="-1" Cut="0.0000000000000000e+00" cType="1" res="4.9182446673512459e-03" rms="3.7806218862533569e-01" purity="4.5281714200973511e-01" nType="-99"/>
          <Node pos="r" depth="2" NCoef="0" IVar="-1" Cut="0.0000000000000000e+00" cType="1" res="7.7639543451368809e-04" rms="2.4006105959415436e-01" purity="5.5825382471084595e-01" nType="-99"/>
        </Node>
        <Node pos="r" depth="1" NCoef="0" IVar="27" Cut="1.6425457000732422e+00" cType="1" res="-4.6744886785745621e-02" rms="2.0598959922790527e-01" purity="3.2427245378494263e-01" nType="0">
          <Node pos="l" depth="2" NCoef="0" IVar="-1" Cut="0.0000000000000000e+00" cType="1" res="-7.8309420496225357e-03" rms="0.0000000000000000e+00" purity="5.3063057363033295e-02" nType="-99"/>
          <Node pos="r" depth="2" NCoef="0" IVar="-1" Cut="0.0000000000000000e+00" cType="1" res="-5.4157513659447432e-04" rms="2.3770098388195038e-01" purity="4.1086152195930481e-01" nType="-99"/>
        </Node>
      </Node>
    </BinaryTree>
    <BinaryTree type="DecisionTree" boostWeight="1.0000000000000000e+00" itree="649">
      <Node pos="s" depth="0" NCoef="0" IVar="2" Cut="1.4579595327377319e+00" cType="1" res="2.2343972697854042e-02" rms="2.4695770442485809e-01" purity="4.9735429883003235e-01" nType="0">
        <Node pos="l" depth="1" NCoef="0" IVar="17" Cut="1.2083911895751953e+00" cType="1" res="-8.1303529441356659e-02" rms="1.2757067382335663e-01" purity="9.1048873960971832e-02" nType="0">
          <Node pos="l" depth="2" NCoef="0" IVar="-1" Cut="0.0000000000000000e+00" cType="1" res="-3.9277489122468978e-05" rms="1.4379337430000305e-01" purity="2.2484697401523590e-02" nType="-99"/>
          <Node pos="r" depth="2" NCoef="0" IVar="-1" Cut="0.0000000000000000e+00" cType="1" res="-5.2018752321600914e-03" rms="0.0000000000000000e+00" purity="1.6541044414043427e-01" nType="-99"/>
        </Node>
        <Node pos="r" depth="1" NCoef="0" IVar="3" Cut="4.9831795692443848e+00" cType="1" res="3.2768167555332184e-02" rms="2.5356662273406982e-01" purity="5.3821790218353271e-01" nType="0">
          <Node pos="l" depth="2" NCoef="0" IVar="-1" Cut="0.0000000000000000e+00" cType="1" res="4.0843756869435310e-04" rms="2.4950844049453735e-01" purity="5.1009452342987061e-01" nType="-99"/>
          <Node pos="r" depth="2" NCoef="0" IVar="-1" Cut="0.0000000000000000e+00" cType="1" res="2.2941329516470432e-03" rms="2.5929263234138489e-01" purity="6.8278580904006958e-01" nType="-99"/>
        </Node>
      </Node>
    </BinaryTree>
    <BinaryTree type="DecisionTree" boostWeight="1.0000000000000000e+00" itree="650">
      <Node pos="s" depth="0" NCoef="0" IVar="48" Cut="9.6516531705856323e-01" cType="1" res="2.4818759411573410e-02" rms="2.4711126089096069e-01" purity="4.9690559506416321e-01" nType="0">
        <Node pos="l" depth="1" NCoef="0" IVar="61" Cut="7.2301840782165527e-01" cType="1" res="-7.7956773340702057e-02" rms="9.3236394226551056e-02" purity="7.8331761062145233e-02" nType="0">
          <Node pos="l" depth="2" NCoef="0" IVar="-1" Cut="0.0000000000000000e+00" cType="1" res="6.7152827978134155e-04" rms="2.5961208343505859e-01" purity="2.3789086937904358e-01" nType="-99"/>
          <Node pos="r" depth="2" NCoef="0" IVar="-1" Cut="0.0000000000000000e+00" cType="1" res="-5.5581694468855858e-03" rms="0.0000000000000000e+00" purity="-2.8884822502732277e-02" nType="-99"/>
        </Node>
        <Node pos="r" depth="1" NCoef="0" IVar="3" Cut="5.1616830825805664e+00" cType="1" res="3.7924874573945999e-02" rms="2.5733956694602966e-01" purity="5.5028289556503296e-01" nType="0">
          <Node pos="l" depth="2" NCoef="0" IVar="-1" Cut="0.0000000000000000e+00" cType="1" res="6.3009408768266439e-04" rms="2.5086164474487305e-01" purity="5.4857891798019409e-01" nType="-99"/>
          <Node pos="r" depth="2" NCoef="0" IVar="-1" Cut="0.0000000000000000e+00" cType="1" res="3.1649097800254822e-03" rms="2.9217806458473206e-01" purity="5.6795161962509155e-01" nType="-99"/>
        </Node>
      </Node>
    </BinaryTree>
    <BinaryTree type="DecisionTree" boostWeight="1.0000000000000000e+00" itree="651">
      <Node pos="s" depth="0" NCoef="0" IVar="48" Cut="7.5061565637588501e-01" cType="1" res="1.2763393111526966e-02" rms="2.3138949275016785e-01" purity="4.8758691549301147e-01" nType="0">
        <Node pos="l" depth="1" NCoef="0" IVar="57" Cut="-5.0155073404312134e-01" cType="1" res="-5.0983992405235767e-03" rms="0.0000000000000000e+00" purity="-3.4357499331235886e-02" nType="-99"/>
        <Node pos="r" depth="1" NCoef="0" IVar="5" Cut="4.3383288383483887e-01" cType="1" res="2.1163653582334518e-02" rms="2.4001336097717285e-01" purity="5.1292484998703003e-01" nType="0">
          <Node pos="l" depth="2" NCoef="0" IVar="-1" Cut="0.0000000000000000e+00" cType="1" res="1.0240033734589815e-03" rms="2.2787816822528839e-01" purity="6.2445634603500366e-01" nType="-99"/>
          <Node pos="r" depth="2" NCoef="0" IVar="-1" Cut="0.0000000000000000e+00" cType="1" res="-9.3564722919836640e-04" rms="2.6274973154067993e-01" purity="1.8997001647949219e-01" nType="-99"/>
        </Node>
      </Node>
    </BinaryTree>
    <BinaryTree type="DecisionTree" boostWeight="1.0000000000000000e+00" itree="652">
      <Node pos="s" depth="0" NCoef="0" IVar="48" Cut="9.5622384548187256e-01" cType="1" res="2.1660344675183296e-02" rms="2.3792412877082825e-01" purity="5.0507348775863647e-01" nType="0">
        <Node pos="l" depth="1" NCoef="0" IVar="55" Cut="4.3373230844736099e-02" cType="1" res="-3.2152854837477207e-03" rms="0.0000000000000000e+00" purity="4.0236003696918488e-02" nType="-99"/>
        <Node pos="r" depth="1" NCoef="0" IVar="2" Cut="1.9466699361801147e+00" cType="1" res="3.5866137593984604e-02" rms="2.4871779978275299e-01" purity="5.5665403604507446e-01" nType="0">
          <Node pos="l" depth="2" NCoef="0" IVar="-1" Cut="0.0000000000000000e+00" cType="1" res="-1.7030977178364992e-03" rms="2.1284911036491394e-01" purity="2.2986985743045807e-01" nType="-99"/>
          <Node pos="r" depth="2" NCoef="0" IVar="-1" Cut="0.0000000000000000e+00" cType="1" res="1.1426025303080678e-03" rms="2.5321075320243835e-01" purity="6.3438957929611206e-01" nType="-99"/>
        </Node>
      </Node>
    </BinaryTree>
    <BinaryTree type="DecisionTree" boostWeight="1.0000000000000000e+00" itree="653">
      <Node pos="s" depth="0" NCoef="0" IVar="17" Cut="1.5231137275695801e+00" cType="1" res="1.0232051834464073e-02" rms="2.3241449892520905e-01" purity="4.9640873074531555e-01" nType="0">
        <Node pos="l" depth="1" NCoef="0" IVar="52" Cut="3.3918836116790771e+00" cType="1" res="-2.3456092923879623e-02" rms="2.2320027649402618e-01" purity="2.4738885462284088e-01" nType="0">
          <Node pos="l" depth="2" NCoef="0" IVar="-1" Cut="0.0000000000000000e+00" cType="1" res="-2.7087310445494950e-04" rms="2.3892137408256531e-01" purity="2.7198895812034607e-01" nType="-99"/>
          <Node pos="r" depth="2" NCoef="0" IVar="-1" Cut="0.0000000000000000e+00" cType="1" res="-5.2476804703474045e-03" rms="0.0000000000000000e+00" purity="4.8862077295780182e-02" nType="-99"/>
        </Node>
        <Node pos="r" depth="1" NCoef="0" IVar="15" Cut="1.5230847597122192e+00" cType="1" res="6.1068575829267502e-02" rms="2.3675869405269623e-01" purity="8.7218797206878662e-01" nType="0">
          <Node pos="l" depth="2" NCoef="0" IVar="-1" Cut="0.0000000000000000e+00" cType="1" res="1.8248299602419138e-03" rms="1.8904811143875122e-01" purity="9.3066620826721191e-01" nType="-99"/>
          <Node pos="r" depth="2" NCoef="0" IVar="-1" Cut="0.0000000000000000e+00" cType="1" res="-2.7492889785207808e-04" rms="3.6026263236999512e-01" purity="6.3729119300842285e-01" nType="-99"/>
        </Node>
      </Node>
    </BinaryTree>
    <BinaryTree type="DecisionTree" boostWeight="1.0000000000000000e+00" itree="654">
      <Node pos="s" depth="0" NCoef="0" IVar="48" Cut="1.5882942676544189e+00" cType="1" res="2.3603513836860657e-02" rms="2.4284523725509644e-01" purity="5.0121480226516724e-01" nType="0">
        <Node pos="l" depth="1" NCoef="0" IVar="3" Cut="4.8461632728576660e+00" cType="1" res="-3.3670552074909210e-02" rms="2.1620206534862518e-01" purity="2.3910783231258392e-01" nType="0">
          <Node pos="l" depth="2" NCoef="0" IVar="-1" Cut="0.0000000000000000e+00" cType="1" res="-2.2616439964622259e-03" rms="1.7237126827239990e-01" purity="1.7802757024765015e-01" nType="-99"/>
          <Node pos="r" depth="2" NCoef="0" IVar="-1" Cut="0.0000000000000000e+00" cType="1" res="1.0623689740896225e-03" rms="2.6536053419113159e-01" purity="3.5880166292190552e-01" nType="-99"/>
        </Node>
        <Node pos="r" depth="1" NCoef="0" IVar="6" Cut="1.1463922262191772e+00" cType="1" res="4.4417630881071091e-02" rms="2.4858233332633972e-01" purity="5.9646785259246826e-01" nType="0">
          <Node pos="l" depth="2" NCoef="0" IVar="-1" Cut="0.0000000000000000e+00" cType="1" res="-2.6427686680108309e-03" rms="1.2831027805805206e-01" purity="1.1116337776184082e-01" nType="-99"/>
          <Node pos="r" depth="2" NCoef="0" IVar="-1" Cut="0.0000000000000000e+00" cType="1" res="1.2249248102307320e-03" rms="2.5261378288269043e-01" purity="6.3023626804351807e-01" nType="-99"/>
        </Node>
      </Node>
    </BinaryTree>
    <BinaryTree type="DecisionTree" boostWeight="1.0000000000000000e+00" itree="655">
      <Node pos="s" depth="0" NCoef="0" IVar="18" Cut="-8.4663558006286621e-01" cType="1" res="2.4456638842821121e-02" rms="2.4665194749832153e-01" purity="5.0232845544815063e-01" nType="0">
        <Node pos="l" depth="1" NCoef="0" IVar="31" Cut="2.6432998180389404e+00" cType="1" res="3.1775739043951035e-02" rms="2.4740642309188843e-01" purity="5.2305668592453003e-01" nType="0">
          <Node pos="l" depth="2" NCoef="0" IVar="-1" Cut="0.0000000000000000e+00" cType="1" res="-2.9437935445457697e-03" rms="1.9447596371173859e-01" purity="1.4354611933231354e-01" nType="-99"/>
          <Node pos="r" depth="2" NCoef="0" IVar="-1" Cut="0.0000000000000000e+00" cType="1" res="9.3177007511258125e-04" rms="2.5136405229568481e-01" purity="5.7216817140579224e-01" nType="-99"/>
        </Node>
        <Node pos="r" depth="1" NCoef="0" IVar="17" Cut="1.4007586240768433e+00" cType="1" res="-1.1436117440462112e-01" rms="1.8297818303108215e-01" purity="1.0918503254652023e-01" nType="0">
          <Node pos="l" depth="2" NCoef="0" IVar="-1" Cut="0.0000000000000000e+00" cType="1" res="-7.4339043349027634e-03" rms="3.2931961119174957e-02" purity="5.9930025599896908e-03" nType="-99"/>
          <Node pos="r" depth="2" NCoef="0" IVar="-1" Cut="0.0000000000000000e+00" cType="1" res="-8.0461949110031128e-03" rms="2.1612675487995148e-01" purity="2.0404310524463654e-01" nType="-99"/>
        </Node>
      </Node>
    </BinaryTree>
    <BinaryTree type="DecisionTree" boostWeight="1.0000000000000000e+00" itree="656">
      <Node pos="s" depth="0" NCoef="0" IVar="48" Cut="9.0371370315551758e-01" cType="1" res="1.5503199771046638e-02" rms="2.2925040125846863e-01" purity="4.9490526318550110e-01" nType="0">
        <Node pos="l" depth="1" NCoef="0" IVar="5" Cut="-1.5360811352729797e-01" cType="1" res="-3.5259143915027380e-03" rms="0.0000000000000000e+00" purity="2.4275043979287148e-02" nType="-99"/>
        <Node pos="r" depth="1" NCoef="0" IVar="31" Cut="2.6753218173980713e+00" cType="1" res="2.7913058176636696e-02" rms="2.3910239338874817e-01" purity="5.4158276319503784e-01" nType="0">
          <Node pos="l" depth="2" NCoef="0" IVar="-1" Cut="0.0000000000000000e+00" cType="1" res="-2.7903206646442413e-03" rms="1.8100565671920776e-01" purity="1.9679017364978790e-01" nType="-99"/>
          <Node pos="r" depth="2" NCoef="0" IVar="-1" Cut="0.0000000000000000e+00" cType="1" res="8.6967967217788100e-04" rms="2.4344585835933685e-01" purity="5.8690941333770752e-01" nType="-99"/>
        </Node>
      </Node>
    </BinaryTree>
    <BinaryTree type="DecisionTree" boostWeight="1.0000000000000000e+00" itree="657">
      <Node pos="s" depth="0" NCoef="0" IVar="18" Cut="-1.2952795028686523e+00" cType="1" res="1.8607266247272491e-02" rms="2.3508790135383606e-01" purity="5.0413328409194946e-01" nType="0">
        <Node pos="l" depth="1" NCoef="0" IVar="15" Cut="1.5225218534469604e+00" cType="1" res="3.4134089946746826e-02" rms="2.3567861318588257e-01" purity="5.5047863721847534e-01" nType="0">
          <Node pos="l" depth="2" NCoef="0" IVar="-1" Cut="0.0000000000000000e+00" cType="1" res="1.1369521962478757e-03" rms="2.1764995157718658e-01" purity="5.6352066993713379e-01" nType="-99"/>
          <Node pos="r" depth="2" NCoef="0" IVar="-1" Cut="0.0000000000000000e+00" cType="1" res="-1.3506079558283091e-03" rms="3.3046415448188782e-01" purity="4.4495084881782532e-01" nType="-99"/>
        </Node>
        <Node pos="r" depth="1" NCoef="0" IVar="61" Cut="1.0201990604400635e+00" cType="1" res="-6.2913365662097931e-02" rms="2.1423090994358063e-01" purity="2.6080548763275146e-01" nType="0">
          <Node pos="l" depth="2" NCoef="0" IVar="-1" Cut="0.0000000000000000e+00" cType="1" res="-1.0995658813044429e-03" rms="2.3321510851383209e-01" purity="3.0855473875999451e-01" nType="-99"/>
          <Node pos="r" depth="2" NCoef="0" IVar="-1" Cut="0.0000000000000000e+00" cType="1" res="-5.7957437820732594e-03" rms="1.0967576503753662e-01" purity="1.1636555939912796e-01" nType="-99"/>
        </Node>
      </Node>
    </BinaryTree>
    <BinaryTree type="DecisionTree" boostWeight="1.0000000000000000e+00" itree="658">
      <Node pos="s" depth="0" NCoef="0" IVar="57" Cut="2.6164504885673523e-01" cType="1" res="2.3428337648510933e-02" rms="2.4796622991561890e-01" purity="5.0336050987243652e-01" nType="0">
        <Node pos="l" depth="1" NCoef="0" IVar="15" Cut="1.5219346284866333e+00" cType="1" res="4.4221833348274231e-02" rms="2.6281362771987915e-01" purity="5.5190974473953247e-01" nType="0">
          <Node pos="l" depth="2" NCoef="0" IVar="-1" Cut="0.0000000000000000e+00" cType="1" res="1.3846175279468298e-03" rms="2.4968416988849640e-01" purity="5.5979162454605103e-01" nType="-99"/>
          <Node pos="r" depth="2" NCoef="0" IVar="-1" Cut="0.0000000000000000e+00" cType="1" res="-1.2308149598538876e-03" rms="3.3056533336639404e-01" purity="4.8930737376213074e-01" nType="-99"/>
        </Node>
        <Node pos="r" depth="1" NCoef="0" IVar="17" Cut="1.5216873884201050e+00" cType="1" res="-4.4848356395959854e-02" rms="1.7465433478355408e-01" purity="3.4394615888595581e-01" nType="0">
          <Node pos="l" depth="2" NCoef="0" IVar="-1" Cut="0.0000000000000000e+00" cType="1" res="-2.9990035109221935e-03" rms="7.9936280846595764e-02" purity="1.1938560754060745e-01" nType="-99"/>
          <Node pos="r" depth="2" NCoef="0" IVar="-1" Cut="0.0000000000000000e+00" cType="1" res="6.3902628608047962e-04" rms="2.6732122898101807e-01" purity="8.0968391895294189e-01" nType="-99"/>
        </Node>
      </Node>
    </BinaryTree>
    <BinaryTree type="DecisionTree" boostWeight="1.0000000000000000e+00" itree="659">
      <Node pos="s" depth="0" NCoef="0" IVar="14" Cut="-1.2993251085281372e+00" cType="1" res="2.4776684120297432e-02" rms="2.3791131377220154e-01" purity="5.1255834102630615e-01" nType="0">
        <Node pos="l" depth="1" NCoef="0" IVar="17" Cut="1.5202944278717041e+00" cType="1" res="-3.6205731332302094e-02" rms="1.8110273778438568e-01" purity="2.6072931289672852e-01" nType="0">
          <Node pos="l" depth="2" NCoef="0" IVar="-1" Cut="0.0000000000000000e+00" cType="1" res="-2.6165514718741179e-03" rms="1.2338481843471527e-01" purity="9.7388915717601776e-02" nType="-99"/>
          <Node pos="r" depth="2" NCoef="0" IVar="-1" Cut="0.0000000000000000e+00" cType="1" res="7.5354013824835420e-04" rms="2.8684243559837341e-01" purity="7.9981017112731934e-01" nType="-99"/>
        </Node>
        <Node pos="r" depth="1" NCoef="0" IVar="15" Cut="1.5207232236862183e+00" cType="1" res="4.8279058188199997e-02" rms="2.5256684422492981e-01" purity="6.0961222648620605e-01" nType="0">
          <Node pos="l" depth="2" NCoef="0" IVar="-1" Cut="0.0000000000000000e+00" cType="1" res="1.4399081701412797e-03" rms="2.3676203191280365e-01" purity="6.2778669595718384e-01" nType="-99"/>
          <Node pos="r" depth="2" NCoef="0" IVar="-1" Cut="0.0000000000000000e+00" cType="1" res="-1.2914835242554545e-03" rms="3.2876244187355042e-01" purity="4.7077625989913940e-01" nType="-99"/>
        </Node>
      </Node>
    </BinaryTree>
    <BinaryTree type="DecisionTree" boostWeight="1.0000000000000000e+00" itree="660">
      <Node pos="s" depth="0" NCoef="0" IVar="5" Cut="3.9561659097671509e-01" cType="1" res="1.5649352222681046e-02" rms="2.3709422349929810e-01" purity="4.9231144785881042e-01" nType="0">
        <Node pos="l" depth="1" NCoef="0" IVar="36" Cut="1.3681474924087524e+00" cType="1" res="3.7799619138240814e-02" rms="2.2612862288951874e-01" purity="6.0118597745895386e-01" nType="0">
          <Node pos="l" depth="2" NCoef="0" IVar="-1" Cut="0.0000000000000000e+00" cType="1" res="-2.8991873841732740e-03" rms="1.2215603888034821e-01" purity="7.6528117060661316e-02" nType="-99"/>
          <Node pos="r" depth="2" NCoef="0" IVar="-1" Cut="0.0000000000000000e+00" cType="1" res="1.3330281944945455e-03" rms="2.4351744353771210e-01" purity="7.5521236658096313e-01" nType="-99"/>
        </Node>
        <Node pos="r" depth="1" NCoef="0" IVar="8" Cut="-9.1139173507690430e-01" cType="1" res="-3.4700483083724976e-02" rms="2.5319865345954895e-01" purity="2.4482844769954681e-01" nType="0">
          <Node pos="l" depth="2" NCoef="0" IVar="-1" Cut="0.0000000000000000e+00" cType="1" res="-4.9800041597336531e-04" rms="2.5770446658134460e-01" purity="2.6937994360923767e-01" nType="-99"/>
          <Node pos="r" depth="2" NCoef="0" IVar="-1" Cut="0.0000000000000000e+00" cType="1" res="-9.1595556586980820e-03" rms="6.3922934234142303e-02" purity="-9.5094516873359680e-02" nType="-99"/>
        </Node>
      </Node>
    </BinaryTree>
    <BinaryTree type="DecisionTree" boostWeight="1.0000000000000000e+00" itree="661">
      <Node pos="s" depth="0" NCoef="0" IVar="5" Cut="4.3691271543502808e-01" cType="1" res="2.3731112480163574e-02" rms="2.4416545033454895e-01" purity="5.0611096620559692e-01" nType="0">
        <Node pos="l" depth="1" NCoef="0" IVar="36" Cut="1.0204082727432251e+00" cType="1" res="4.2766250669956207e-02" rms="2.3531576991081238e-01" purity="6.0902440547943115e-01" nType="0">
          <Node pos="l" depth="2" NCoef="0" IVar="-1" Cut="0.0000000000000000e+00" cType="1" res="-6.2951697036623955e-03" rms="0.0000000000000000e+00" purity="1.5945762395858765e-02" nType="-99"/>
          <Node pos="r" depth="2" NCoef="0" IVar="-1" Cut="0.0000000000000000e+00" cType="1" res="1.3273786753416061e-03" rms="2.5439330935478210e-01" purity="7.2162193059921265e-01" nType="-99"/>
        </Node>
        <Node pos="r" depth="1" NCoef="0" IVar="2" Cut="3.0312471389770508e+00" cType="1" res="-3.4659426659345627e-02" rms="2.6098290085792542e-01" purity="1.9042281806468964e-01" nType="0">
          <Node pos="l" depth="2" NCoef="0" IVar="-1" Cut="0.0000000000000000e+00" cType="1" res="-1.7858907813206315e-03" rms="2.0853497087955475e-01" purity="1.2812379002571106e-01" nType="-99"/>
          <Node pos="r" depth="2" NCoef="0" IVar="-1" Cut="0.0000000000000000e+00" cType="1" res="1.3830346288159490e-03" rms="3.8230356574058533e-01" purity="4.3337163329124451e-01" nType="-99"/>
        </Node>
      </Node>
    </BinaryTree>
    <BinaryTree type="DecisionTree" boostWeight="1.0000000000000000e+00" itree="662">
      <Node pos="s" depth="0" NCoef="0" IVar="18" Cut="-1.1027340888977051e+00" cType="1" res="1.9232995808124542e-02" rms="2.4155779182910919e-01" purity="4.9558985233306885e-01" nType="0">
        <Node pos="l" depth="1" NCoef="0" IVar="17" Cut="1.0960563421249390e+00" cType="1" res="3.0207842588424683e-02" rms="2.4165721237659454e-01" purity="5.3148120641708374e-01" nType="0">
          <Node pos="l" depth="2" NCoef="0" IVar="-1" Cut="0.0000000000000000e+00" cType="1" res="-1.5695923939347267e-02" rms="0.0000000000000000e+00" purity="-1.2372358702123165e-02" nType="-99"/>
          <Node pos="r" depth="2" NCoef="0" IVar="-1" Cut="0.0000000000000000e+00" cType="1" res="8.9353526709601283e-04" rms="2.7945005893707275e-01" purity="6.9303202629089355e-01" nType="-99"/>
        </Node>
        <Node pos="r" depth="1" NCoef="0" IVar="0" Cut="8.9375978708267212e-01" cType="1" res="-7.1714602410793304e-02" rms="2.2064101696014404e-01" purity="1.9816099107265472e-01" nType="0">
          <Node pos="l" depth="2" NCoef="0" IVar="-1" Cut="0.0000000000000000e+00" cType="1" res="-1.4442192623391747e-03" rms="2.4354428052902222e-01" purity="2.5873363018035889e-01" nType="-99"/>
          <Node pos="r" depth="2" NCoef="0" IVar="-1" Cut="0.0000000000000000e+00" cType="1" res="-1.1124757118523121e-02" rms="0.0000000000000000e+00" purity="-1.6103338450193405e-02" nType="-99"/>
        </Node>
      </Node>
    </BinaryTree>
    <BinaryTree type="DecisionTree" boostWeight="1.0000000000000000e+00" itree="663">
      <Node pos="s" depth="0" NCoef="0" IVar="57" Cut="2.6165127754211426e-01" cType="1" res="1.9543005153536797e-02" rms="2.4016641080379486e-01" purity="4.9656572937965393e-01" nType="0">
        <Node pos="l" depth="1" NCoef="0" IVar="48" Cut="1.1870925426483154e+00" cType="1" res="3.7498559802770615e-02" rms="2.5010925531387329e-01" purity="5.4907232522964478e-01" nType="0">
          <Node pos="l" depth="2" NCoef="0" IVar="-1" Cut="0.0000000000000000e+00" cType="1" res="-1.1926714796572924e-03" rms="2.0751342177391052e-01" purity="1.8500003218650818e-01" nType="-99"/>
          <Node pos="r" depth="2" NCoef="0" IVar="-1" Cut="0.0000000000000000e+00" cType="1" res="1.1485089780762792e-03" rms="2.5398695468902588e-01" purity="6.0953974723815918e-01" nType="-99"/>
        </Node>
        <Node pos="r" depth="1" NCoef="0" IVar="60" Cut="-8.9667654037475586e-01" cType="1" res="-4.1060332208871841e-02" rms="1.9096025824546814e-01" purity="3.1934636831283569e-01" nType="0">
          <Node pos="l" depth="2" NCoef="0" IVar="-1" Cut="0.0000000000000000e+00" cType="1" res="-6.4059247961267829e-04" rms="2.0551335811614990e-01" purity="3.6256068944931030e-01" nType="-99"/>
          <Node pos="r" depth="2" NCoef="0" IVar="-1" Cut="0.0000000000000000e+00" cType="1" res="-9.8612634465098381e-03" rms="0.0000000000000000e+00" purity="1.7491459846496582e-02" nType="-99"/>
        </Node>
      </Node>
    </BinaryTree>
    <BinaryTree type="DecisionTree" boostWeight="1.0000000000000000e+00" itree="664">
      <Node pos="s" depth="0" NCoef="0" IVar="36" Cut="1.4070059061050415e+00" cType="1" res="1.7274796962738037e-02" rms="2.3494109511375427e-01" purity="5.0891208648681641e-01" nType="0">
        <Node pos="l" depth="1" NCoef="0" IVar="34" Cut="-1.4929064512252808e+00" cType="1" res="-3.4639734774827957e-02" rms="1.3488452136516571e-01" purity="1.0817879438400269e-01" nType="0">
          <Node pos="l" depth="2" NCoef="0" IVar="-1" Cut="0.0000000000000000e+00" cType="1" res="2.4926895275712013e-03" rms="2.5560742616653442e-01" purity="3.3697459101676941e-01" nType="-99"/>
          <Node pos="r" depth="2" NCoef="0" IVar="-1" Cut="0.0000000000000000e+00" cType="1" res="-3.4963742364197969e-03" rms="9.0927965939044952e-02" purity="7.5109019875526428e-02" nType="-99"/>
        </Node>
        <Node pos="r" depth="1" NCoef="0" IVar="5" Cut="2.8897303342819214e-01" cType="1" res="3.6475259810686111e-02" rms="2.5984135270118713e-01" purity="6.5712231397628784e-01" nType="0">
          <Node pos="l" depth="2" NCoef="0" IVar="-1" Cut="0.0000000000000000e+00" cType="1" res="1.6307045007124543e-03" rms="2.2250753641128540e-01" purity="8.5251796245574951e-01" nType="-99"/>
          <Node pos="r" depth="2" NCoef="0" IVar="-1" Cut="0.0000000000000000e+00" cType="1" res="-1.7044003470800817e-04" rms="2.9633471369743347e-01" purity="3.9682134985923767e-01" nType="-99"/>
        </Node>
      </Node>
    </BinaryTree>
    <BinaryTree type="DecisionTree" boostWeight="1.0000000000000000e+00" itree="665">
      <Node pos="s" depth="0" NCoef="0" IVar="48" Cut="1.1197918653488159e+00" cType="1" res="1.7203986644744873e-02" rms="2.3796944320201874e-01" purity="4.9816745519638062e-01" nType="0">
        <Node pos="l" depth="1" NCoef="0" IVar="67" Cut="9.2955559492111206e-01" cType="1" res="-6.1692174524068832e-02" rms="1.6384884715080261e-01" purity="1.2355457991361618e-01" nType="0">
          <Node pos="l" depth="2" NCoef="0" IVar="-1" Cut="0.0000000000000000e+00" cType="1" res="-5.8768894523382187e-03" rms="0.0000000000000000e+00" purity="-7.6474793255329132e-02" nType="-99"/>
          <Node pos="r" depth="2" NCoef="0" IVar="-1" Cut="0.0000000000000000e+00" cType="1" res="-3.4423850593157113e-05" rms="2.6252037286758423e-01" purity="2.0520120859146118e-01" nType="-99"/>
        </Node>
        <Node pos="r" depth="1" NCoef="0" IVar="5" Cut="3.0068382620811462e-01" cType="1" res="3.1043708324432373e-02" rms="2.4611067771911621e-01" purity="5.6388092041015625e-01" nType="0">
          <Node pos="l" depth="2" NCoef="0" IVar="-1" Cut="0.0000000000000000e+00" cType="1" res="1.7152158543467522e-03" rms="2.2169461846351624e-01" purity="7.6202613115310669e-01" nType="-99"/>
          <Node pos="r" depth="2" NCoef="0" IVar="-1" Cut="0.0000000000000000e+00" cType="1" res="-1.8587727390695363e-04" rms="2.6657733321189880e-01" purity="3.3117479085922241e-01" nType="-99"/>
        </Node>
      </Node>
    </BinaryTree>
    <BinaryTree type="DecisionTree" boostWeight="1.0000000000000000e+00" itree="666">
      <Node pos="s" depth="0" NCoef="0" IVar="5" Cut="4.3599802255630493e-01" cType="1" res="1.6587471589446068e-02" rms="2.3465411365032196e-01" purity="4.9745532870292664e-01" nType="0">
        <Node pos="l" depth="1" NCoef="0" IVar="36" Cut="1.4450289011001587e+00" cType="1" res="3.5546660423278809e-02" rms="2.2316074371337891e-01" purity="6.0296291112899780e-01" nType="0">
          <Node pos="l" depth="2" NCoef="0" IVar="-1" Cut="0.0000000000000000e+00" cType="1" res="-1.2730784947052598e-03" rms="1.8265210092067719e-01" purity="1.8685154616832733e-01" nType="-99"/>
          <Node pos="r" depth="2" NCoef="0" IVar="-1" Cut="0.0000000000000000e+00" cType="1" res="1.3244763249531388e-03" rms="2.3250706493854523e-01" purity="7.7427047491073608e-01" nType="-99"/>
        </Node>
        <Node pos="r" depth="1" NCoef="0" IVar="52" Cut="3.4252660274505615e+00" cType="1" res="-4.0504973381757736e-02" rms="2.5800335407257080e-01" purity="1.7973683774471283e-01" nType="0">
          <Node pos="l" depth="2" NCoef="0" IVar="-1" Cut="0.0000000000000000e+00" cType="1" res="-4.0918693412095308e-04" rms="2.7276891469955444e-01" purity="2.0633131265640259e-01" nType="-99"/>
          <Node pos="r" depth="2" NCoef="0" IVar="-1" Cut="0.0000000000000000e+00" cType="1" res="-6.4632375724613667e-03" rms="0.0000000000000000e+00" purity="-2.4210205301642418e-03" nType="-99"/>
        </Node>
      </Node>
    </BinaryTree>
    <BinaryTree type="DecisionTree" boostWeight="1.0000000000000000e+00" itree="667">
      <Node pos="s" depth="0" NCoef="0" IVar="2" Cut="1.4924482107162476e+00" cType="1" res="1.7378645017743111e-02" rms="2.3293115198612213e-01" purity="5.0261074304580688e-01" nType="0">
        <Node pos="l" depth="1" NCoef="0" IVar="17" Cut="-6.0526365041732788e-01" cType="1" res="-9.8322875797748566e-02" rms="5.0689660012722015e-02" purity="6.9949567317962646e-02" nType="0">
          <Node pos="l" depth="2" NCoef="0" IVar="-1" Cut="0.0000000000000000e+00" cType="1" res="-1.5020140446722507e-02" rms="6.1544056981801987e-02" purity="2.2251722402870655e-03" nType="-99"/>
          <Node pos="r" depth="2" NCoef="0" IVar="-1" Cut="0.0000000000000000e+00" cType="1" res="-5.6617250666022301e-03" rms="0.0000000000000000e+00" purity="1.1182094365358353e-01" nType="-99"/>
        </Node>
        <Node pos="r" depth="1" NCoef="0" IVar="57" Cut="-8.1745147705078125e-02" cType="1" res="2.9562287032604218e-02" rms="2.4112574756145477e-01" purity="5.4817104339599609e-01" nType="0">
          <Node pos="l" depth="2" NCoef="0" IVar="-1" Cut="0.0000000000000000e+00" cType="1" res="1.0563724208623171e-03" rms="2.4970372021198273e-01" purity="6.0425066947937012e-01" nType="-99"/>
          <Node pos="r" depth="2" NCoef="0" IVar="-1" Cut="0.0000000000000000e+00" cType="1" res="-8.7005249224603176e-04" rms="2.0093679428100586e-01" purity="3.7658280134201050e-01" nType="-99"/>
        </Node>
      </Node>
    </BinaryTree>
    <BinaryTree type="DecisionTree" boostWeight="1.0000000000000000e+00" itree="668">
      <Node pos="s" depth="0" NCoef="0" IVar="36" Cut="1.4070059061050415e+00" cType="1" res="1.5783382579684258e-02" rms="2.3772452771663666e-01" purity="5.0105202198028564e-01" nType="0">
        <Node pos="l" depth="1" NCoef="0" IVar="18" Cut="-2.5085928440093994e+00" cType="1" res="-4.0922567248344421e-02" rms="1.2584185600280762e-01" purity="9.5104955136775970e-02" nType="0">
          <Node pos="l" depth="2" NCoef="0" IVar="-1" Cut="0.0000000000000000e+00" cType="1" res="3.3191512338817120e-03" rms="3.1277072429656982e-01" purity="2.6468223333358765e-01" nType="-99"/>
          <Node pos="r" depth="2" NCoef="0" IVar="-1" Cut="0.0000000000000000e+00" cType="1" res="-3.0025555752217770e-03" rms="8.4040395915508270e-02" purity="8.0809384584426880e-02" nType="-99"/>
        </Node>
        <Node pos="r" depth="1" NCoef="0" IVar="5" Cut="3.4180912375450134e-01" cType="1" res="3.6557983607053757e-02" rms="2.6420736312866211e-01" purity="6.4977341890335083e-01" nType="0">
          <Node pos="l" depth="2" NCoef="0" IVar="-1" Cut="0.0000000000000000e+00" cType="1" res="1.5224847011268139e-03" rms="2.3056989908218384e-01" purity="8.1325697898864746e-01" nType="-99"/>
          <Node pos="r" depth="2" NCoef="0" IVar="-1" Cut="0.0000000000000000e+00" cType="1" res="-2.9639250715263188e-04" rms="3.0770897865295410e-01" purity="3.6039865016937256e-01" nType="-99"/>
        </Node>
      </Node>
    </BinaryTree>
    <BinaryTree type="DecisionTree" boostWeight="1.0000000000000000e+00" itree="669">
      <Node pos="s" depth="0" NCoef="0" IVar="57" Cut="1.1009767055511475e+00" cType="1" res="1.9368676468729973e-02" rms="2.3763301968574524e-01" purity="5.0573951005935669e-01" nType="0">
        <Node pos="l" depth="1" NCoef="0" IVar="31" Cut="2.6194093227386475e+00" cType="1" res="3.6261241883039474e-02" rms="2.4396827816963196e-01" purity="5.5017578601837158e-01" nType="0">
          <Node pos="l" depth="2" NCoef="0" IVar="-1" Cut="0.0000000000000000e+00" cType="1" res="-4.8858481459319592e-03" rms="1.2375933676958084e-01" purity="1.2475892156362534e-01" nType="-99"/>
          <Node pos="r" depth="2" NCoef="0" IVar="-1" Cut="0.0000000000000000e+00" cType="1" res="1.0690473718568683e-03" rms="2.5003319978713989e-01" purity="5.9414941072463989e-01" nType="-99"/>
        </Node>
        <Node pos="r" depth="1" NCoef="0" IVar="60" Cut="-1.1079401969909668e+00" cType="1" res="-6.3825055956840515e-02" rms="1.8198007345199585e-01" purity="2.8689658641815186e-01" nType="0">
          <Node pos="l" depth="2" NCoef="0" IVar="-1" Cut="0.0000000000000000e+00" cType="1" res="-9.2943024355918169e-04" rms="2.1849475800991058e-01" purity="3.4216153621673584e-01" nType="-99"/>
          <Node pos="r" depth="2" NCoef="0" IVar="-1" Cut="0.0000000000000000e+00" cType="1" res="-8.7453247979283333e-03" rms="0.0000000000000000e+00" purity="5.1091447472572327e-02" nType="-99"/>
        </Node>
      </Node>
    </BinaryTree>
    <BinaryTree type="DecisionTree" boostWeight="1.0000000000000000e+00" itree="670">
      <Node pos="s" depth="0" NCoef="0" IVar="3" Cut="4.8867363929748535e+00" cType="1" res="1.9287707284092903e-02" rms="2.4653029441833496e-01" purity="4.9681377410888672e-01" nType="0">
        <Node pos="l" depth="1" NCoef="0" IVar="36" Cut="1.4460117816925049e+00" cType="1" res="-8.4952581673860550e-03" rms="2.3454470932483673e-01" purity="4.4603353738784790e-01" nType="0">
          <Node pos="l" depth="2" NCoef="0" IVar="-1" Cut="0.0000000000000000e+00" cType="1" res="-3.8091831374913454e-03" rms="1.4668551087379456e-01" purity="8.4521755576133728e-02" nType="-99"/>
          <Node pos="r" depth="2" NCoef="0" IVar="-1" Cut="0.0000000000000000e+00" cType="1" res="2.6437512133270502e-04" rms="2.5992345809936523e-01" purity="5.9868705272674561e-01" nType="-99"/>
        </Node>
        <Node pos="r" depth="1" NCoef="0" IVar="57" Cut="2.6164504885673523e-01" cType="1" res="8.1750139594078064e-02" rms="2.6096636056900024e-01" purity="6.1097937822341919e-01" nType="0">
          <Node pos="l" depth="2" NCoef="0" IVar="-1" Cut="0.0000000000000000e+00" cType="1" res="2.4632294662296772e-03" rms="2.8024020791053772e-01" purity="6.6449844837188721e-01" nType="-99"/>
          <Node pos="r" depth="2" NCoef="0" IVar="-1" Cut="0.0000000000000000e+00" cType="1" res="-7.5811834540218115e-04" rms="7.1898579597473145e-02" purity="3.6370342969894409e-01" nType="-99"/>
        </Node>
      </Node>
    </BinaryTree>
    <BinaryTree type="DecisionTree" boostWeight="1.0000000000000000e+00" itree="671">
      <Node pos="s" depth="0" NCoef="0" IVar="57" Cut="9.8659926652908325e-01" cType="1" res="2.4607961997389793e-02" rms="2.4180395901203156e-01" purity="5.1333165168762207e-01" nType="0">
        <Node pos="l" depth="1" NCoef="0" IVar="17" Cut="-3.7170907855033875e-01" cType="1" res="4.0129803121089935e-02" rms="2.4908424913883209e-01" purity="5.5876207351684570e-01" nType="0">
          <Node pos="l" depth="2" NCoef="0" IVar="-1" Cut="0.0000000000000000e+00" cType="1" res="-2.4375475943088531e-02" rms="0.0000000000000000e+00" purity="-1.3551483862102032e-02" nType="-99"/>
          <Node pos="r" depth="2" NCoef="0" IVar="-1" Cut="0.0000000000000000e+00" cType="1" res="1.0650418698787689e-03" rms="2.7574431896209717e-01" purity="6.7456954717636108e-01" nType="-99"/>
        </Node>
        <Node pos="r" depth="1" NCoef="0" IVar="60" Cut="-9.5205557346343994e-01" cType="1" res="-4.1924167424440384e-02" rms="1.9414244592189789e-01" purity="3.1860053539276123e-01" nType="0">
          <Node pos="l" depth="2" NCoef="0" IVar="-1" Cut="0.0000000000000000e+00" cType="1" res="-5.7801237562671304e-04" rms="2.2441445291042328e-01" purity="3.6148518323898315e-01" nType="-99"/>
          <Node pos="r" depth="2" NCoef="0" IVar="-1" Cut="0.0000000000000000e+00" cType="1" res="-8.2444092258810997e-03" rms="0.0000000000000000e+00" purity="8.3391994237899780e-02" nType="-99"/>
        </Node>
      </Node>
    </BinaryTree>
    <BinaryTree type="DecisionTree" boostWeight="1.0000000000000000e+00" itree="672">
      <Node pos="s" depth="0" NCoef="0" IVar="5" Cut="4.3599802255630493e-01" cType="1" res="1.5663046389818192e-02" rms="2.3702484369277954e-01" purity="4.9436664581298828e-01" nType="0">
        <Node pos="l" depth="1" NCoef="0" IVar="18" Cut="-1.1027340888977051e+00" cType="1" res="3.8375888019800186e-02" rms="2.2994333505630493e-01" purity="6.0312563180923462e-01" nType="0">
          <Node pos="l" depth="2" NCoef="0" IVar="-1" Cut="0.0000000000000000e+00" cType="1" res="1.1692839907482266e-03" rms="2.3042239248752594e-01" purity="6.2927114963531494e-01" nType="-99"/>
          <Node pos="r" depth="2" NCoef="0" IVar="-1" Cut="0.0000000000000000e+00" cType="1" res="-2.5514655280858278e-03" rms="1.9211451709270477e-01" purity="3.1736609339714050e-01" nType="-99"/>
        </Node>
        <Node pos="r" depth="1" NCoef="0" IVar="34" Cut="1.2855215072631836e+00" cType="1" res="-5.4355658590793610e-02" rms="2.4470816552639008e-01" purity="1.5908661484718323e-01" nType="0">
          <Node pos="l" depth="2" NCoef="0" IVar="-1" Cut="0.0000000000000000e+00" cType="1" res="1.7850823933258653e-03" rms="3.0358314514160156e-01" purity="2.5312629342079163e-01" nType="-99"/>
          <Node pos="r" depth="2" NCoef="0" IVar="-1" Cut="0.0000000000000000e+00" cType="1" res="-2.2706901654601097e-03" rms="1.9781689345836639e-01" purity="1.2033420056104660e-01" nType="-99"/>
        </Node>
      </Node>
    </BinaryTree>
    <BinaryTree type="DecisionTree" boostWeight="1.0000000000000000e+00" itree="673">
      <Node pos="s" depth="0" NCoef="0" IVar="48" Cut="2.1551313400268555e+00" cType="1" res="1.5034952200949192e-02" rms="2.3450990021228790e-01" purity="4.9559643864631653e-01" nType="0">
        <Node pos="l" depth="1" NCoef="0" IVar="17" Cut="1.5216873884201050e+00" cType="1" res="-2.2302880883216858e-02" rms="2.0433603227138519e-01" purity="3.5123729705810547e-01" nType="0">
          <Node pos="l" depth="2" NCoef="0" IVar="-1" Cut="0.0000000000000000e+00" cType="1" res="-1.8062820890918374e-03" rms="1.5959981083869934e-01" purity="1.2328621745109558e-01" nType="-99"/>
          <Node pos="r" depth="2" NCoef="0" IVar="-1" Cut="0.0000000000000000e+00" cType="1" res="5.8314541820436716e-04" rms="2.6260650157928467e-01" purity="7.9349827766418457e-01" nType="-99"/>
        </Node>
        <Node pos="r" depth="1" NCoef="0" IVar="36" Cut="1.4073475599288940e+00" cType="1" res="4.8345286399126053e-02" rms="2.5387975573539734e-01" purity="6.2438404560089111e-01" nType="0">
          <Node pos="l" depth="2" NCoef="0" IVar="-1" Cut="0.0000000000000000e+00" cType="1" res="-7.8619742998853326e-04" rms="2.1560749411582947e-01" purity="1.7577180266380310e-01" nType="-99"/>
          <Node pos="r" depth="2" NCoef="0" IVar="-1" Cut="0.0000000000000000e+00" cType="1" res="1.3190200552344322e-03" rms="2.6010558009147644e-01" purity="7.4254083633422852e-01" nType="-99"/>
        </Node>
      </Node>
    </BinaryTree>
    <BinaryTree type="DecisionTree" boostWeight="1.0000000000000000e+00" itree="674">
      <Node pos="s" depth="0" NCoef="0" IVar="3" Cut="5.1868309974670410e+00" cType="1" res="1.9759487360715866e-02" rms="2.4303887784481049e-01" purity="4.9927368760108948e-01" nType="0">
        <Node pos="l" depth="1" NCoef="0" IVar="36" Cut="1.4841190576553345e+00" cType="1" res="6.2516774050891399e-03" rms="2.3147726058959961e-01" purity="4.9459698796272278e-01" nType="0">
          <Node pos="l" depth="2" NCoef="0" IVar="-1" Cut="0.0000000000000000e+00" cType="1" res="-1.8433887744322419e-03" rms="1.8475392460823059e-01" purity="2.1218228340148926e-01" nType="-99"/>
          <Node pos="r" depth="2" NCoef="0" IVar="-1" Cut="0.0000000000000000e+00" cType="1" res="7.4076134478673339e-04" rms="2.5036421418190002e-01" purity="6.6305750608444214e-01" nType="-99"/>
        </Node>
        <Node pos="r" depth="1" NCoef="0" IVar="17" Cut="1.3272416591644287e+00" cType="1" res="1.7254555225372314e-01" rms="3.0937728285789490e-01" purity="5.5217188596725464e-01" nType="0">
          <Node pos="l" depth="2" NCoef="0" IVar="-1" Cut="0.0000000000000000e+00" cType="1" res="3.0133887776173651e-04" rms="1.5868987143039703e-01" purity="4.2713701725006104e-02" nType="-99"/>
          <Node pos="r" depth="2" NCoef="0" IVar="-1" Cut="0.0000000000000000e+00" cType="1" res="3.9392272010445595e-03" rms="3.3244544267654419e-01" purity="8.5841155052185059e-01" nType="-99"/>
        </Node>
      </Node>
    </BinaryTree>
    <BinaryTree type="DecisionTree" boostWeight="1.0000000000000000e+00" itree="675">
      <Node pos="s" depth="0" NCoef="0" IVar="2" Cut="2.3857674598693848e+00" cType="1" res="1.4764954335987568e-02" rms="2.3532412946224213e-01" purity="4.9873155355453491e-01" nType="0">
        <Node pos="l" depth="1" NCoef="0" IVar="3" Cut="4.8889517784118652e+00" cType="1" res="-2.6595054194331169e-02" rms="1.9512069225311279e-01" purity="2.9491317272186279e-01" nType="0">
          <Node pos="l" depth="2" NCoef="0" IVar="-1" Cut="0.0000000000000000e+00" cType="1" res="-2.2303035948425531e-03" rms="1.7824871838092804e-01" purity="2.0826442539691925e-01" nType="-99"/>
          <Node pos="r" depth="2" NCoef="0" IVar="-1" Cut="0.0000000000000000e+00" cType="1" res="7.4631406459957361e-04" rms="2.0845396816730499e-01" purity="4.3947082757949829e-01" nType="-99"/>
        </Node>
        <Node pos="r" depth="1" NCoef="0" IVar="8" Cut="-1.2604353427886963e+00" cType="1" res="4.5546591281890869e-02" rms="2.5697487592697144e-01" purity="6.5042072534561157e-01" nType="0">
          <Node pos="l" depth="2" NCoef="0" IVar="-1" Cut="0.0000000000000000e+00" cType="1" res="1.1345680104568601e-03" rms="2.5548225641250610e-01" purity="6.7214041948318481e-01" nType="-99"/>
          <Node pos="r" depth="2" NCoef="0" IVar="-1" Cut="0.0000000000000000e+00" cType="1" res="-3.2009996939450502e-03" rms="2.3150484263896942e-01" purity="1.8251872062683105e-01" nType="-99"/>
        </Node>
      </Node>
    </BinaryTree>
    <BinaryTree type="DecisionTree" boostWeight="1.0000000000000000e+00" itree="676">
      <Node pos="s" depth="0" NCoef="0" IVar="2" Cut="1.4844802618026733e+00" cType="1" res="2.5821547955274582e-02" rms="2.4659679830074310e-01" purity="5.0840693712234497e-01" nType="0">
        <Node pos="l" depth="1" NCoef="0" IVar="17" Cut="1.4009642601013184e+00" cType="1" res="-7.8912898898124695e-02" rms="1.3775873184204102e-01" purity="1.0463300347328186e-01" nType="0">
          <Node pos="l" depth="2" NCoef="0" IVar="-1" Cut="0.0000000000000000e+00" cType="1" res="-1.6692655626684427e-03" rms="8.9922457933425903e-02" purity="2.0919771865010262e-02" nType="-99"/>
          <Node pos="r" depth="2" NCoef="0" IVar="-1" Cut="0.0000000000000000e+00" cType="1" res="-5.5534155108034611e-03" rms="1.3062790036201477e-01" purity="2.3042215406894684e-01" nType="-99"/>
        </Node>
        <Node pos="r" depth="1" NCoef="0" IVar="3" Cut="5.0477585792541504e+00" cType="1" res="3.6690533161163330e-02" rms="2.5277405977249146e-01" purity="5.5030924081802368e-01" nType="0">
          <Node pos="l" depth="2" NCoef="0" IVar="-1" Cut="0.0000000000000000e+00" cType="1" res="5.6743953609839082e-04" rms="2.5050634145736694e-01" purity="5.2997809648513794e-01" nType="-99"/>
          <Node pos="r" depth="2" NCoef="0" IVar="-1" Cut="0.0000000000000000e+00" cType="1" res="2.5397185236215591e-03" rms="2.5105467438697815e-01" purity="6.9525694847106934e-01" nType="-99"/>
        </Node>
      </Node>
    </BinaryTree>
    <BinaryTree type="DecisionTree" boostWeight="1.0000000000000000e+00" itree="677">
      <Node pos="s" depth="0" NCoef="0" IVar="17" Cut="1.3281205892562866e+00" cType="1" res="2.1237568929791451e-02" rms="2.3726135492324829e-01" purity="5.1326948404312134e-01" nType="0">
        <Node pos="l" depth="1" NCoef="0" IVar="8" Cut="-1.1053048372268677e+00" cType="1" res="-1.2473900802433491e-02" rms="0.0000000000000000e+00" purity="-1.4761676080524921e-02" nType="-99"/>
        <Node pos="r" depth="1" NCoef="0" IVar="3" Cut="5.1957769393920898e+00" cType="1" res="4.2692974209785461e-02" rms="2.8602728247642517e-01" purity="7.0849007368087769e-01" nType="0">
          <Node pos="l" depth="2" NCoef="0" IVar="-1" Cut="0.0000000000000000e+00" cType="1" res="5.3391401888802648e-04" rms="2.7599358558654785e-01" purity="7.0038753747940063e-01" nType="-99"/>
          <Node pos="r" depth="2" NCoef="0" IVar="-1" Cut="0.0000000000000000e+00" cType="1" res="3.6883892025798559e-03" rms="3.4435713291168213e-01" purity="8.3440166711807251e-01" nType="-99"/>
        </Node>
      </Node>
    </BinaryTree>
    <BinaryTree type="DecisionTree" boostWeight="1.0000000000000000e+00" itree="678">
      <Node pos="s" depth="0" NCoef="0" IVar="57" Cut="-2.3436795175075531e-01" cType="1" res="1.6829367727041245e-02" rms="2.2926381230354309e-01" purity="5.0343465805053711e-01" nType="0">
        <Node pos="l" depth="1" NCoef="0" IVar="5" Cut="4.2935565114021301e-01" cType="1" res="3.7348937243223190e-02" rms="2.4046798050403595e-01" purity="5.6230986118316650e-01" nType="0">
          <Node pos="l" depth="2" NCoef="0" IVar="-1" Cut="0.0000000000000000e+00" cType="1" res="1.4362601796165109e-03" rms="2.3258931934833527e-01" purity="6.6680568456649780e-01" nType="-99"/>
          <Node pos="r" depth="2" NCoef="0" IVar="-1" Cut="0.0000000000000000e+00" cType="1" res="-6.1117048608139157e-04" rms="2.5161305069923401e-01" purity="2.4604444205760956e-01" nType="-99"/>
        </Node>
        <Node pos="r" depth="1" NCoef="0" IVar="48" Cut="8.0725318193435669e-01" cType="1" res="-4.2414356023073196e-02" rms="1.8066909909248352e-01" purity="3.3345115184783936e-01" nType="0">
          <Node pos="l" depth="2" NCoef="0" IVar="-1" Cut="0.0000000000000000e+00" cType="1" res="-8.0366656184196472e-03" rms="0.0000000000000000e+00" purity="-7.8791595995426178e-02" nType="-99"/>
          <Node pos="r" depth="2" NCoef="0" IVar="-1" Cut="0.0000000000000000e+00" cType="1" res="-7.3713879100978374e-04" rms="2.1104489266872406e-01" purity="3.7838330864906311e-01" nType="-99"/>
        </Node>
      </Node>
    </BinaryTree>
    <BinaryTree type="DecisionTree" boostWeight="1.0000000000000000e+00" itree="679">
      <Node pos="s" depth="0" NCoef="0" IVar="48" Cut="1.1066160202026367e+00" cType="1" res="2.0117534324526787e-02" rms="2.3457776010036469e-01" purity="5.1027190685272217e-01" nType="0">
        <Node pos="l" depth="1" NCoef="0" IVar="61" Cut="6.3504183292388916e-01" cType="1" res="-6.1546124517917633e-02" rms="1.7245727777481079e-01" purity="1.3481153547763824e-01" nType="0">
          <Node pos="l" depth="2" NCoef="0" IVar="-1" Cut="0.0000000000000000e+00" cType="1" res="1.7190829385071993e-03" rms="3.3977675437927246e-01" purity="3.1428167223930359e-01" nType="-99"/>
          <Node pos="r" depth="2" NCoef="0" IVar="-1" Cut="0.0000000000000000e+00" cType="1" res="-3.6936905235052109e-03" rms="0.0000000000000000e+00" purity="4.8470616340637207e-02" nType="-99"/>
        </Node>
        <Node pos="r" depth="1" NCoef="0" IVar="5" Cut="4.3578073382377625e-01" cType="1" res="3.3736791461706161e-02" rms="2.4071960151195526e-01" purity="5.7288843393325806e-01" nType="0">
          <Node pos="l" depth="2" NCoef="0" IVar="-1" Cut="0.0000000000000000e+00" cType="1" res="1.3371921377256513e-03" rms="2.1968398988246918e-01" purity="6.9108909368515015e-01" nType="-99"/>
          <Node pos="r" depth="2" NCoef="0" IVar="-1" Cut="0.0000000000000000e+00" cType="1" res="-5.2781082922592759e-04" rms="2.8599682450294495e-01" purity="2.2811672091484070e-01" nType="-99"/>
        </Node>
      </Node>
    </BinaryTree>
    <BinaryTree type="DecisionTree" boostWeight="1.0000000000000000e+00" itree="680">
      <Node pos="s" depth="0" NCoef="0" IVar="3" Cut="5.1578092575073242e+00" cType="1" res="2.1271536126732826e-02" rms="2.4537417292594910e-01" purity="4.9472251534461975e-01" nType="0">
        <Node pos="l" depth="1" NCoef="0" IVar="2" Cut="2.0389897823333740e+00" cType="1" res="9.6447616815567017e-03" rms="2.4013103544712067e-01" purity="4.9049913883209229e-01" nType="0">
          <Node pos="l" depth="2" NCoef="0" IVar="-1" Cut="0.0000000000000000e+00" cType="1" res="-1.9978254567831755e-03" rms="1.8561731278896332e-01" purity="1.8504369258880615e-01" nType="-99"/>
          <Node pos="r" depth="2" NCoef="0" IVar="-1" Cut="0.0000000000000000e+00" cType="1" res="6.2119046924635768e-04" rms="2.5210884213447571e-01" purity="5.8640897274017334e-01" nType="-99"/>
        </Node>
        <Node pos="r" depth="1" NCoef="0" IVar="17" Cut="1.3613176345825195e+00" cType="1" res="1.3473097980022430e-01" rms="2.6618996262550354e-01" purity="5.3593564033508301e-01" nType="0">
          <Node pos="l" depth="2" NCoef="0" IVar="-1" Cut="0.0000000000000000e+00" cType="1" res="-4.5909537002444267e-03" rms="0.0000000000000000e+00" purity="-1.4486518688499928e-02" nType="-99"/>
          <Node pos="r" depth="2" NCoef="0" IVar="-1" Cut="0.0000000000000000e+00" cType="1" res="3.6431057378649712e-03" rms="3.2020485401153564e-01" purity="8.6129212379455566e-01" nType="-99"/>
        </Node>
      </Node>
    </BinaryTree>
    <BinaryTree type="DecisionTree" boostWeight="1.0000000000000000e+00" itree="681">
      <Node pos="s" depth="0" NCoef="0" IVar="59" Cut="1.3643331527709961e+00" cType="1" res="2.5064822286367416e-02" rms="2.3993958532810211e-01" purity="5.0694692134857178e-01" nType="0">
        <Node pos="l" depth="1" NCoef="0" IVar="17" Cut="1.2509831190109253e+00" cType="1" res="4.0588058531284332e-02" rms="2.4586024880409241e-01" purity="5.4698973894119263e-01" nType="0">
          <Node pos="l" depth="2" NCoef="0" IVar="-1" Cut="0.0000000000000000e+00" cType="1" res="-1.1394697241485119e-02" rms="0.0000000000000000e+00" purity="-6.7619639448821545e-03" nType="-99"/>
          <Node pos="r" depth="2" NCoef="0" IVar="-1" Cut="0.0000000000000000e+00" cType="1" res="1.0940688662230968e-03" rms="2.8354454040527344e-01" purity="7.2236877679824829e-01" nType="-99"/>
        </Node>
        <Node pos="r" depth="1" NCoef="0" IVar="0" Cut="9.9180227518081665e-01" cType="1" res="-4.2837861925363541e-02" rms="1.9830447435379028e-01" purity="3.3178901672363281e-01" nType="0">
          <Node pos="l" depth="2" NCoef="0" IVar="-1" Cut="0.0000000000000000e+00" cType="1" res="-6.8603042745962739e-04" rms="2.1152289211750031e-01" purity="3.7082448601722717e-01" nType="-99"/>
          <Node pos="r" depth="2" NCoef="0" IVar="-1" Cut="0.0000000000000000e+00" cType="1" res="-6.3860737718641758e-03" rms="0.0000000000000000e+00" purity="3.8341566920280457e-02" nType="-99"/>
        </Node>
      </Node>
    </BinaryTree>
    <BinaryTree type="DecisionTree" boostWeight="1.0000000000000000e+00" itree="682">
      <Node pos="s" depth="0" NCoef="0" IVar="5" Cut="3.0340620875358582e-01" cType="1" res="1.3580389320850372e-02" rms="2.3861391842365265e-01" purity="4.9279955029487610e-01" nType="0">
        <Node pos="l" depth="1" NCoef="0" IVar="31" Cut="2.5876233577728271e+00" cType="1" res="4.2433265596628189e-02" rms="2.2189885377883911e-01" purity="6.5551495552062988e-01" nType="0">
          <Node pos="l" depth="2" NCoef="0" IVar="-1" Cut="0.0000000000000000e+00" cType="1" res="-6.0563990846276283e-03" rms="1.6582152247428894e-01" purity="9.6104487776756287e-02" nType="-99"/>
          <Node pos="r" depth="2" NCoef="0" IVar="-1" Cut="0.0000000000000000e+00" cType="1" res="1.5724635450169444e-03" rms="2.2307072579860687e-01" purity="7.4375170469284058e-01" nType="-99"/>
        </Node>
        <Node pos="r" depth="1" NCoef="0" IVar="38" Cut="-1.2228715419769287e+00" cType="1" res="-2.5014929473400116e-02" rms="2.5422438979148865e-01" purity="2.7514177560806274e-01" nType="0">
          <Node pos="l" depth="2" NCoef="0" IVar="-1" Cut="0.0000000000000000e+00" cType="1" res="2.2006616927683353e-03" rms="3.0695649981498718e-01" purity="3.4055840969085693e-01" nType="-99"/>
          <Node pos="r" depth="2" NCoef="0" IVar="-1" Cut="0.0000000000000000e+00" cType="1" res="-1.2472507078200579e-03" rms="2.2542837262153625e-01" purity="2.5490361452102661e-01" nType="-99"/>
        </Node>
      </Node>
    </BinaryTree>
    <BinaryTree type="DecisionTree" boostWeight="1.0000000000000000e+00" itree="683">
      <Node pos="s" depth="0" NCoef="0" IVar="31" Cut="2.6472218036651611e+00" cType="1" res="2.3485640063881874e-02" rms="2.4489168822765350e-01" purity="5.0419288873672485e-01" nType="0">
        <Node pos="l" depth="1" NCoef="0" IVar="35" Cut="1.1288843154907227e+00" cType="1" res="-6.0505002737045288e-02" rms="1.7326785624027252e-01" purity="1.4816561341285706e-01" nType="0">
          <Node pos="l" depth="2" NCoef="0" IVar="-1" Cut="0.0000000000000000e+00" cType="1" res="-5.8672884479165077e-03" rms="1.4968021214008331e-01" purity="9.4594649970531464e-02" nType="-99"/>
          <Node pos="r" depth="2" NCoef="0" IVar="-1" Cut="0.0000000000000000e+00" cType="1" res="4.4598826207220554e-04" rms="2.2620174288749695e-01" purity="3.4553378820419312e-01" nType="-99"/>
        </Node>
        <Node pos="r" depth="1" NCoef="0" IVar="5" Cut="2.8910326957702637e-01" cType="1" res="3.4682169556617737e-02" rms="2.5079619884490967e-01" purity="5.5165374279022217e-01" nType="0">
          <Node pos="l" depth="2" NCoef="0" IVar="-1" Cut="0.0000000000000000e+00" cType="1" res="1.6256199451163411e-03" rms="2.1901452541351318e-01" purity="7.6105004549026489e-01" nType="-99"/>
          <Node pos="r" depth="2" NCoef="0" IVar="-1" Cut="0.0000000000000000e+00" cType="1" res="1.8616165107232518e-05" rms="2.7695551514625549e-01" purity="3.2707399129867554e-01" nType="-99"/>
        </Node>
      </Node>
    </BinaryTree>
    <BinaryTree type="DecisionTree" boostWeight="1.0000000000000000e+00" itree="684">
      <Node pos="s" depth="0" NCoef="0" IVar="5" Cut="2.8615799546241760e-01" cType="1" res="1.5297552570700645e-02" rms="2.2999659180641174e-01" purity="5.0185376405715942e-01" nType="0">
        <Node pos="l" depth="1" NCoef="0" IVar="3" Cut="4.7971673011779785e+00" cType="1" res="5.2133642137050629e-02" rms="2.1923355758190155e-01" purity="6.7418098449707031e-01" nType="0">
          <Node pos="l" depth="2" NCoef="0" IVar="-1" Cut="0.0000000000000000e+00" cType="1" res="2.5665952125564218e-04" rms="1.9339002668857574e-01" purity="6.0764521360397339e-01" nType="-99"/>
          <Node pos="r" depth="2" NCoef="0" IVar="-1" Cut="0.0000000000000000e+00" cType="1" res="2.5040840264409781e-03" rms="2.3675000667572021e-01" purity="7.5623679161071777e-01" nType="-99"/>
        </Node>
        <Node pos="r" depth="1" NCoef="0" IVar="52" Cut="3.1854460239410400e+00" cType="1" res="-3.3268202096223831e-02" rms="2.3478826880455017e-01" purity="2.7465263009071350e-01" nType="0">
          <Node pos="l" depth="2" NCoef="0" IVar="-1" Cut="0.0000000000000000e+00" cType="1" res="2.1264271708787419e-05" rms="2.5809970498085022e-01" purity="3.1562957167625427e-01" nType="-99"/>
          <Node pos="r" depth="2" NCoef="0" IVar="-1" Cut="0.0000000000000000e+00" cType="1" res="-2.4067710619419813e-03" rms="1.7194151878356934e-01" purity="2.0341850817203522e-01" nType="-99"/>
        </Node>
      </Node>
    </BinaryTree>
    <BinaryTree type="DecisionTree" boostWeight="1.0000000000000000e+00" itree="685">
      <Node pos="s" depth="0" NCoef="0" IVar="3" Cut="5.1129884719848633e+00" cType="1" res="2.1788729354739189e-02" rms="2.3944556713104248e-01" purity="5.0511479377746582e-01" nType="0">
        <Node pos="l" depth="1" NCoef="0" IVar="1" Cut="2.3607575893402100e+00" cType="1" res="1.1012608185410500e-02" rms="2.3358954489231110e-01" purity="5.0114828348159790e-01" nType="0">
          <Node pos="l" depth="2" NCoef="0" IVar="-1" Cut="0.0000000000000000e+00" cType="1" res="-3.7777007091790438e-03" rms="9.5786117017269135e-02" purity="4.5028999447822571e-02" nType="-99"/>
          <Node pos="r" depth="2" NCoef="0" IVar="-1" Cut="0.0000000000000000e+00" cType="1" res="5.9968774439767003e-04" rms="2.4514631927013397e-01" purity="5.7300329208374023e-01" nType="-99"/>
        </Node>
        <Node pos="r" depth="1" NCoef="0" IVar="57" Cut="1.4717997610569000e-01" cType="1" res="1.1052446812391281e-01" rms="2.6704740524291992e-01" purity="5.3777700662612915e-01" nType="0">
          <Node pos="l" depth="2" NCoef="0" IVar="-1" Cut="0.0000000000000000e+00" cType="1" res="3.1894864514470100e-03" rms="2.9223468899726868e-01" purity="6.2042808532714844e-01" nType="-99"/>
          <Node pos="r" depth="2" NCoef="0" IVar="-1" Cut="0.0000000000000000e+00" cType="1" res="-1.8358138622716069e-03" rms="0.0000000000000000e+00" purity="2.0295110344886780e-01" nType="-99"/>
        </Node>
      </Node>
    </BinaryTree>
    <BinaryTree type="DecisionTree" boostWeight="1.0000000000000000e+00" itree="686">
      <Node pos="s" depth="0" NCoef="0" IVar="3" Cut="5.1845335960388184e+00" cType="1" res="2.2716511040925980e-02" rms="2.4004709720611572e-01" purity="5.0244587659835815e-01" nType="0">
        <Node pos="l" depth="1" NCoef="0" IVar="36" Cut="1.4843255281448364e+00" cType="1" res="1.3894221745431423e-02" rms="2.3356410861015320e-01" purity="5.0293713808059692e-01" nType="0">
          <Node pos="l" depth="2" NCoef="0" IVar="-1" Cut="0.0000000000000000e+00" cType="1" res="-1.2111505493521690e-03" rms="1.9607746601104736e-01" purity="2.1795554459095001e-01" nType="-99"/>
          <Node pos="r" depth="2" NCoef="0" IVar="-1" Cut="0.0000000000000000e+00" cType="1" res="7.9422834096476436e-04" rms="2.4921950697898865e-01" purity="6.6814702749252319e-01" nType="-99"/>
        </Node>
        <Node pos="r" depth="1" NCoef="0" IVar="17" Cut="8.8417224586009979e-02" cType="1" res="1.3943830132484436e-01" rms="2.8912195563316345e-01" purity="4.9594613909721375e-01" nType="0">
          <Node pos="l" depth="2" NCoef="0" IVar="-1" Cut="0.0000000000000000e+00" cType="1" res="-8.1038912758231163e-03" rms="0.0000000000000000e+00" purity="-1.1556451208889484e-02" nType="-99"/>
          <Node pos="r" depth="2" NCoef="0" IVar="-1" Cut="0.0000000000000000e+00" cType="1" res="3.2402535434812307e-03" rms="3.2800197601318359e-01" purity="7.1414357423782349e-01" nType="-99"/>
        </Node>
      </Node>
    </BinaryTree>
    <BinaryTree type="DecisionTree" boostWeight="1.0000000000000000e+00" itree="687">
      <Node pos="s" depth="0" NCoef="0" IVar="18" Cut="-9.1056472063064575e-01" cType="1" res="2.8455235064029694e-02" rms="2.4714618921279907e-01" purity="5.1170521974563599e-01" nType="0">
        <Node pos="l" depth="1" NCoef="0" IVar="25" Cut="7.9846525192260742e-01" cType="1" res="3.6896951496601105e-02" rms="2.4742424488067627e-01" purity="5.3718459606170654e-01" nType="0">
          <Node pos="l" depth="2" NCoef="0" IVar="-1" Cut="0.0000000000000000e+00" cType="1" res="3.8374157156795263e-03" rms="3.2444784045219421e-01" purity="7.3298466205596924e-01" nType="-99"/>
          <Node pos="r" depth="2" NCoef="0" IVar="-1" Cut="0.0000000000000000e+00" cType="1" res="7.3111348319798708e-04" rms="2.4175713956356049e-01" purity="5.2983939647674561e-01" nType="-99"/>
        </Node>
        <Node pos="r" depth="1" NCoef="0" IVar="17" Cut="1.3609285354614258e+00" cType="1" res="-1.0288408398628235e-01" rms="2.0145212113857269e-01" purity="1.1528802663087845e-01" nType="0">
          <Node pos="l" depth="2" NCoef="0" IVar="-1" Cut="0.0000000000000000e+00" cType="1" res="-2.5235505308955908e-03" rms="1.2072760611772537e-01" purity="1.3871782459318638e-02" nType="-99"/>
          <Node pos="r" depth="2" NCoef="0" IVar="-1" Cut="0.0000000000000000e+00" cType="1" res="-5.9527247212827206e-03" rms="2.1717344224452972e-01" purity="2.0570813119411469e-01" nType="-99"/>
        </Node>
      </Node>
    </BinaryTree>
    <BinaryTree type="DecisionTree" boostWeight="1.0000000000000000e+00" itree="688">
      <Node pos="s" depth="0" NCoef="0" IVar="60" Cut="-7.5200223922729492e-01" cType="1" res="1.8718969076871872e-02" rms="2.3147109150886536e-01" purity="5.0492888689041138e-01" nType="0">
        <Node pos="l" depth="1" NCoef="0" IVar="3" Cut="4.8854126930236816e+00" cType="1" res="2.5752712041139603e-02" rms="2.3592898249626160e-01" purity="5.2452760934829712e-01" nType="0">
          <Node pos="l" depth="2" NCoef="0" IVar="-1" Cut="0.0000000000000000e+00" cType="1" res="8.8092470832634717e-05" rms="2.3150664567947388e-01" purity="4.7981986403465271e-01" nType="-99"/>
          <Node pos="r" depth="2" NCoef="0" IVar="-1" Cut="0.0000000000000000e+00" cType="1" res="1.7658295109868050e-03" rms="2.3807764053344727e-01" purity="6.2758392095565796e-01" nType="-99"/>
        </Node>
        <Node pos="r" depth="1" NCoef="0" IVar="58" Cut="-8.8082361221313477e-01" cType="1" res="-7.9414444044232368e-03" rms="0.0000000000000000e+00" purity="4.7565784305334091e-02" nType="-99"/>
      </Node>
    </BinaryTree>
    <BinaryTree type="DecisionTree" boostWeight="1.0000000000000000e+00" itree="689">
      <Node pos="s" depth="0" NCoef="0" IVar="60" Cut="-9.8746025562286377e-01" cType="1" res="1.5739887952804565e-02" rms="2.3846241831779480e-01" purity="4.9201688170433044e-01" nType="0">
        <Node pos="l" depth="1" NCoef="0" IVar="5" Cut="2.8452664613723755e-01" cType="1" res="2.6248436421155930e-02" rms="2.4602048099040985e-01" purity="5.2045333385467529e-01" nType="0">
          <Node pos="l" depth="2" NCoef="0" IVar="-1" Cut="0.0000000000000000e+00" cType="1" res="1.4797085896134377e-03" rms="2.2380378842353821e-01" purity="6.9563204050064087e-01" nType="-99"/>
          <Node pos="r" depth="2" NCoef="0" IVar="-1" Cut="0.0000000000000000e+00" cType="1" res="-2.2426589566748589e-04" rms="2.6564767956733704e-01" purity="3.1100821495056152e-01" nType="-99"/>
        </Node>
        <Node pos="r" depth="1" NCoef="0" IVar="37" Cut="-2.0150679349899292e-01" cType="1" res="-8.1197939813137054e-02" rms="1.1256209015846252e-01" purity="2.2970049083232880e-01" nType="0">
          <Node pos="l" depth="2" NCoef="0" IVar="-1" Cut="0.0000000000000000e+00" cType="1" res="-1.4043179107829928e-03" rms="1.7666289210319519e-01" purity="3.0762881040573120e-01" nType="-99"/>
          <Node pos="r" depth="2" NCoef="0" IVar="-1" Cut="0.0000000000000000e+00" cType="1" res="-8.3275251090526581e-03" rms="0.0000000000000000e+00" purity="1.9590280950069427e-02" nType="-99"/>
        </Node>
      </Node>
    </BinaryTree>
    <BinaryTree type="DecisionTree" boostWeight="1.0000000000000000e+00" itree="690">
      <Node pos="s" depth="0" NCoef="0" IVar="2" Cut="1.7333521842956543e+00" cType="1" res="1.1206975206732750e-02" rms="2.2775116562843323e-01" purity="4.9509054422378540e-01" nType="0">
        <Node pos="l" depth="1" NCoef="0" IVar="13" Cut="1.4755548238754272e+00" cType="1" res="-6.3871137797832489e-02" rms="1.4142256975173950e-01" purity="1.3997370004653931e-01" nType="0">
          <Node pos="l" depth="2" NCoef="0" IVar="-1" Cut="0.0000000000000000e+00" cType="1" res="-1.3583664549514651e-03" rms="1.1533477902412415e-01" purity="8.3198137581348419e-02" nType="-99"/>
          <Node pos="r" depth="2" NCoef="0" IVar="-1" Cut="0.0000000000000000e+00" cType="1" res="-4.1318899020552635e-03" rms="1.4804765582084656e-01" purity="2.2638304531574249e-01" nType="-99"/>
        </Node>
        <Node pos="r" depth="1" NCoef="0" IVar="36" Cut="1.6989332437515259e-01" cType="1" res="2.5491343811154366e-02" rms="2.3802886903285980e-01" purity="5.6265515089035034e-01" nType="0">
          <Node pos="l" depth="2" NCoef="0" IVar="-1" Cut="0.0000000000000000e+00" cType="1" res="-1.0780443437397480e-02" rms="0.0000000000000000e+00" purity="-7.0868460461497307e-03" nType="-99"/>
          <Node pos="r" depth="2" NCoef="0" IVar="-1" Cut="0.0000000000000000e+00" cType="1" res="7.5810146518051624e-04" rms="2.5429275631904602e-01" purity="6.4227592945098877e-01" nType="-99"/>
        </Node>
      </Node>
    </BinaryTree>
    <BinaryTree type="DecisionTree" boostWeight="1.0000000000000000e+00" itree="691">
      <Node pos="s" depth="0" NCoef="0" IVar="48" Cut="9.2093729972839355e-01" cType="1" res="1.0236254893243313e-02" rms="2.2478158771991730e-01" purity="5.0319057703018188e-01" nType="0">
        <Node pos="l" depth="1" NCoef="0" IVar="27" Cut="1.3306928873062134e+00" cType="1" res="-3.0617653392255306e-03" rms="0.0000000000000000e+00" purity="5.4911784827709198e-02" nType="-99"/>
        <Node pos="r" depth="1" NCoef="0" IVar="5" Cut="2.8665047883987427e-01" cType="1" res="2.1972352638840675e-02" rms="2.3592151701450348e-01" purity="5.5181479454040527e-01" nType="0">
          <Node pos="l" depth="2" NCoef="0" IVar="-1" Cut="0.0000000000000000e+00" cType="1" res="1.4126669848337770e-03" rms="2.1052904427051544e-01" purity="7.4452984333038330e-01" nType="-99"/>
          <Node pos="r" depth="2" NCoef="0" IVar="-1" Cut="0.0000000000000000e+00" cType="1" res="-2.9766434454359114e-04" rms="2.5890314579010010e-01" purity="3.1923612952232361e-01" nType="-99"/>
        </Node>
      </Node>
    </BinaryTree>
    <BinaryTree type="DecisionTree" boostWeight="1.0000000000000000e+00" itree="692">
      <Node pos="s" depth="0" NCoef="0" IVar="36" Cut="1.3686834573745728e+00" cType="1" res="1.6322830691933632e-02" rms="2.3332345485687256e-01" purity="4.9534761905670166e-01" nType="0">
        <Node pos="l" depth="1" NCoef="0" IVar="20" Cut="-2.4341212585568428e-02" cType="1" res="-4.3256141245365143e-02" rms="9.3297973275184631e-02" purity="6.0047186911106110e-02" nType="0">
          <Node pos="l" depth="2" NCoef="0" IVar="-1" Cut="0.0000000000000000e+00" cType="1" res="-7.3626255616545677e-03" rms="0.0000000000000000e+00" purity="-4.5220056199468672e-04" nType="-99"/>
          <Node pos="r" depth="2" NCoef="0" IVar="-1" Cut="0.0000000000000000e+00" cType="1" res="-1.3253388460725546e-03" rms="1.6530807316303253e-01" purity="8.5166268050670624e-02" nType="-99"/>
        </Node>
        <Node pos="r" depth="1" NCoef="0" IVar="5" Cut="3.9789423346519470e-01" cType="1" res="3.5826168954372406e-02" rms="2.6051688194274902e-01" purity="6.3784438371658325e-01" nType="0">
          <Node pos="l" depth="2" NCoef="0" IVar="-1" Cut="0.0000000000000000e+00" cType="1" res="1.2937486171722412e-03" rms="2.3429617285728455e-01" purity="7.6231586933135986e-01" nType="-99"/>
          <Node pos="r" depth="2" NCoef="0" IVar="-1" Cut="0.0000000000000000e+00" cType="1" res="-4.3468378135003150e-04" rms="3.1035268306732178e-01" purity="3.1598907709121704e-01" nType="-99"/>
        </Node>
      </Node>
    </BinaryTree>
    <BinaryTree type="DecisionTree" boostWeight="1.0000000000000000e+00" itree="693">
      <Node pos="s" depth="0" NCoef="0" IVar="0" Cut="6.2237471342086792e-01" cType="1" res="2.2425437346100807e-02" rms="2.4286143481731415e-01" purity="5.0133401155471802e-01" nType="0">
        <Node pos="l" depth="1" NCoef="0" IVar="15" Cut="1.5215698480606079e+00" cType="1" res="4.8639047890901566e-02" rms="2.5806307792663574e-01" purity="5.6978070735931396e-01" nType="0">
          <Node pos="l" depth="2" NCoef="0" IVar="-1" Cut="0.0000000000000000e+00" cType="1" res="1.5236899489536881e-03" rms="2.4212737381458282e-01" purity="5.7843703031539917e-01" nType="-99"/>
          <Node pos="r" depth="2" NCoef="0" IVar="-1" Cut="0.0000000000000000e+00" cType="1" res="-9.9115946795791388e-04" rms="3.4015679359436035e-01" purity="5.0442516803741455e-01" nType="-99"/>
        </Node>
        <Node pos="r" depth="1" NCoef="0" IVar="6" Cut="2.2917649745941162e+00" cType="1" res="-1.0673881508409977e-02" rms="2.1772307157516479e-01" purity="4.1490796208381653e-01" nType="0">
          <Node pos="l" depth="2" NCoef="0" IVar="-1" Cut="0.0000000000000000e+00" cType="1" res="-1.5256750630214810e-03" rms="1.8006476759910583e-01" purity="2.2320659458637238e-01" nType="-99"/>
          <Node pos="r" depth="2" NCoef="0" IVar="-1" Cut="0.0000000000000000e+00" cType="1" res="6.2840065220370889e-04" rms="2.4154779314994812e-01" purity="5.9223198890686035e-01" nType="-99"/>
        </Node>
      </Node>
    </BinaryTree>
    <BinaryTree type="DecisionTree" boostWeight="1.0000000000000000e+00" itree="694">
      <Node pos="s" depth="0" NCoef="0" IVar="3" Cut="4.9559869766235352e+00" cType="1" res="2.2159261628985405e-02" rms="2.4276858568191528e-01" purity="5.0920760631561279e-01" nType="0">
        <Node pos="l" depth="1" NCoef="0" IVar="2" Cut="2.3742859363555908e+00" cType="1" res="3.2198796980082989e-03" rms="2.3980280756950378e-01" purity="4.7485235333442688e-01" nType="0">
          <Node pos="l" depth="2" NCoef="0" IVar="-1" Cut="0.0000000000000000e+00" cType="1" res="-1.7232645768672228e-03" rms="1.9709289073944092e-01" purity="2.4823167920112610e-01" nType="-99"/>
          <Node pos="r" depth="2" NCoef="0" IVar="-1" Cut="0.0000000000000000e+00" cType="1" res="7.2458892827853560e-04" rms="2.5830671191215515e-01" purity="6.1671268939971924e-01" nType="-99"/>
        </Node>
        <Node pos="r" depth="1" NCoef="0" IVar="52" Cut="3.5010919570922852e+00" cType="1" res="8.2936599850654602e-02" rms="2.4224863946437836e-01" purity="6.1945509910583496e-01" nType="0">
          <Node pos="l" depth="2" NCoef="0" IVar="-1" Cut="0.0000000000000000e+00" cType="1" res="2.4155811406672001e-03" rms="2.6189970970153809e-01" purity="6.4679872989654541e-01" nType="-99"/>
          <Node pos="r" depth="2" NCoef="0" IVar="-1" Cut="0.0000000000000000e+00" cType="1" res="-1.2720904778689146e-03" rms="0.0000000000000000e+00" purity="4.5990991592407227e-01" nType="-99"/>
        </Node>
      </Node>
    </BinaryTree>
    <BinaryTree type="DecisionTree" boostWeight="1.0000000000000000e+00" itree="695">
      <Node pos="s" depth="0" NCoef="0" IVar="17" Cut="1.5231137275695801e+00" cType="1" res="1.9945416599512100e-02" rms="2.3517577350139618e-01" purity="5.0820642709732056e-01" nType="0">
        <Node pos="l" depth="1" NCoef="0" IVar="15" Cut="1.5184402465820312e+00" cType="1" res="-4.3163257651031017e-03" rms="2.3396372795104980e-01" purity="2.6761251688003540e-01" nType="0">
          <Node pos="l" depth="2" NCoef="0" IVar="-1" Cut="0.0000000000000000e+00" cType="1" res="1.6090135613922030e-04" rms="2.3097561299800873e-01" purity="2.7911087870597839e-01" nType="-99"/>
          <Node pos="r" depth="2" NCoef="0" IVar="-1" Cut="0.0000000000000000e+00" cType="1" res="-5.8260438963770866e-03" rms="2.2840596735477448e-01" purity="1.0660506039857864e-01" nType="-99"/>
        </Node>
        <Node pos="r" depth="1" NCoef="0" IVar="31" Cut="2.6459510326385498e+00" cType="1" res="5.7075314223766327e-02" rms="2.3216025531291962e-01" purity="8.7640875577926636e-01" nType="0">
          <Node pos="l" depth="2" NCoef="0" IVar="-1" Cut="0.0000000000000000e+00" cType="1" res="-2.3386743851006031e-03" rms="2.9495078325271606e-01" purity="4.2751297354698181e-01" nType="-99"/>
          <Node pos="r" depth="2" NCoef="0" IVar="-1" Cut="0.0000000000000000e+00" cType="1" res="1.4069358585402369e-03" rms="2.2397129237651825e-01" purity="9.0725857019424438e-01" nType="-99"/>
        </Node>
      </Node>
    </BinaryTree>
    <BinaryTree type="DecisionTree" boostWeight="1.0000000000000000e+00" itree="696">
      <Node pos="s" depth="0" NCoef="0" IVar="6" Cut="1.1463922262191772e+00" cType="1" res="1.5417084097862244e-02" rms="2.3391608893871307e-01" purity="5.0394505262374878e-01" nType="0">
        <Node pos="l" depth="1" NCoef="0" IVar="16" Cut="-1.1609570682048798e-01" cType="1" res="-9.4696797430515289e-02" rms="7.3522858321666718e-02" purity="6.8938292562961578e-02" nType="0">
          <Node pos="l" depth="2" NCoef="0" IVar="-1" Cut="0.0000000000000000e+00" cType="1" res="-1.4780636411160231e-03" rms="2.1494108438491821e-01" purity="1.2563686072826385e-01" nType="-99"/>
          <Node pos="r" depth="2" NCoef="0" IVar="-1" Cut="0.0000000000000000e+00" cType="1" res="-8.8579440489411354e-03" rms="0.0000000000000000e+00" purity="-6.4177073538303375e-02" nType="-99"/>
        </Node>
        <Node pos="r" depth="1" NCoef="0" IVar="3" Cut="5.0358543395996094e+00" cType="1" res="2.5806978344917297e-02" rms="2.4107573926448822e-01" purity="5.4499059915542603e-01" nType="0">
          <Node pos="l" depth="2" NCoef="0" IVar="-1" Cut="0.0000000000000000e+00" cType="1" res="2.8427763027139008e-04" rms="2.3517559468746185e-01" purity="5.3384888172149658e-01" nType="-99"/>
          <Node pos="r" depth="2" NCoef="0" IVar="-1" Cut="0.0000000000000000e+00" cType="1" res="2.4509350769221783e-03" rms="2.5757214426994324e-01" purity="6.0641908645629883e-01" nType="-99"/>
        </Node>
      </Node>
    </BinaryTree>
    <BinaryTree type="DecisionTree" boostWeight="1.0000000000000000e+00" itree="697">
      <Node pos="s" depth="0" NCoef="0" IVar="15" Cut="1.5209717750549316e+00" cType="1" res="2.1984416991472244e-02" rms="2.3744083940982819e-01" purity="5.0782185792922974e-01" nType="0">
        <Node pos="l" depth="1" NCoef="0" IVar="48" Cut="9.1333675384521484e-01" cType="1" res="3.4571375697851181e-02" rms="2.2326907515525818e-01" purity="5.1411062479019165e-01" nType="0">
          <Node pos="l" depth="2" NCoef="0" IVar="-1" Cut="0.0000000000000000e+00" cType="1" res="-2.2793989628553391e-03" rms="0.0000000000000000e+00" purity="7.5654469430446625e-02" nType="-99"/>
          <Node pos="r" depth="2" NCoef="0" IVar="-1" Cut="0.0000000000000000e+00" cType="1" res="1.1740763438865542e-03" rms="2.3410615324974060e-01" purity="5.5943632125854492e-01" nType="-99"/>
        </Node>
        <Node pos="r" depth="1" NCoef="0" IVar="56" Cut="-1.4542717933654785e+00" cType="1" res="-7.7337868511676788e-02" rms="3.1110009551048279e-01" purity="4.5819741487503052e-01" nType="0">
          <Node pos="l" depth="2" NCoef="0" IVar="-1" Cut="0.0000000000000000e+00" cType="1" res="-1.0277085675625131e-04" rms="3.0956882238388062e-01" purity="5.9613734483718872e-01" nType="-99"/>
          <Node pos="r" depth="2" NCoef="0" IVar="-1" Cut="0.0000000000000000e+00" cType="1" res="-4.0800450369715691e-03" rms="2.8729963302612305e-01" purity="2.7754801511764526e-01" nType="-99"/>
        </Node>
      </Node>
    </BinaryTree>
    <BinaryTree type="DecisionTree" boostWeight="1.0000000000000000e+00" itree="698">
      <Node pos="s" depth="0" NCoef="0" IVar="27" Cut="1.6425577402114868e+00" cType="1" res="2.1604264155030251e-02" rms="2.3488353192806244e-01" purity="5.1613008975982666e-01" nType="0">
        <Node pos="l" depth="1" NCoef="0" IVar="0" Cut="7.7694129943847656e-01" cType="1" res="-3.7135176360607147e-02" rms="1.8204692006111145e-01" purity="2.3588322103023529e-01" nType="0">
          <Node pos="l" depth="2" NCoef="0" IVar="-1" Cut="0.0000000000000000e+00" cType="1" res="1.3866221706848592e-04" rms="2.4180479347705841e-01" purity="3.0261328816413879e-01" nType="-99"/>
          <Node pos="r" depth="2" NCoef="0" IVar="-1" Cut="0.0000000000000000e+00" cType="1" res="-5.4797772318124771e-03" rms="0.0000000000000000e+00" purity="9.9977567791938782e-02" nType="-99"/>
        </Node>
        <Node pos="r" depth="1" NCoef="0" IVar="17" Cut="1.0205157995223999e+00" cType="1" res="3.8469992578029633e-02" rms="2.4539831280708313e-01" purity="5.9659683704376221e-01" nType="0">
          <Node pos="l" depth="2" NCoef="0" IVar="-1" Cut="0.0000000000000000e+00" cType="1" res="-1.7534527927637100e-02" rms="0.0000000000000000e+00" purity="-8.2128550857305527e-03" nType="-99"/>
          <Node pos="r" depth="2" NCoef="0" IVar="-1" Cut="0.0000000000000000e+00" cType="1" res="9.8360539413988590e-04" rms="2.7426999807357788e-01" purity="7.4123811721801758e-01" nType="-99"/>
        </Node>
      </Node>
    </BinaryTree>
    <BinaryTree type="DecisionTree" boostWeight="1.0000000000000000e+00" itree="699">
      <Node pos="s" depth="0" NCoef="0" IVar="5" Cut="2.8323230147361755e-01" cType="1" res="2.0119134336709976e-02" rms="2.3945721983909607e-01" purity="4.9587351083755493e-01" nType="0">
        <Node pos="l" depth="1" NCoef="0" IVar="3" Cut="4.8995919227600098e+00" cType="1" res="4.8837848007678986e-02" rms="2.2234362363815308e-01" purity="6.6405016183853149e-01" nType="0">
          <Node pos="l" depth="2" NCoef="0" IVar="-1" Cut="0.0000000000000000e+00" cType="1" res="5.6702183792367578e-04" rms="1.9667491316795349e-01" purity="6.2115687131881714e-01" nType="-99"/>
          <Node pos="r" depth="2" NCoef="0" IVar="-1" Cut="0.0000000000000000e+00" cType="1" res="2.7772216126322746e-03" rms="2.5753787159919739e-01" purity="7.5168782472610474e-01" nType="-99"/>
        </Node>
        <Node pos="r" depth="1" NCoef="0" IVar="58" Cut="1.0886034965515137e+00" cType="1" res="-1.3751481659710407e-02" rms="2.5404849648475647e-01" purity="2.9752722382545471e-01" nType="0">
          <Node pos="l" depth="2" NCoef="0" IVar="-1" Cut="0.0000000000000000e+00" cType="1" res="-8.3655540947802365e-05" rms="2.5799182057380676e-01" purity="3.1769230961799622e-01" nType="-99"/>
          <Node pos="r" depth="2" NCoef="0" IVar="-1" Cut="0.0000000000000000e+00" cType="1" res="-5.5246162228286266e-03" rms="1.2628079950809479e-01" purity="1.7989357933402061e-02" nType="-99"/>
        </Node>
      </Node>
    </BinaryTree>
    <BinaryTree type="DecisionTree" boostWeight="1.0000000000000000e+00" itree="700">
      <Node pos="s" depth="0" NCoef="0" IVar="2" Cut="1.9724442958831787e+00" cType="1" res="4.4502587988972664e-03" rms="2.1704019606113434e-01" purity="4.8628392815589905e-01" nType="0">
        <Node pos="l" depth="1" NCoef="0" IVar="37" Cut="-4.9437752366065979e-01" cType="1" res="-6.5668165683746338e-02" rms="9.0514443814754486e-02" purity="1.6783547401428223e-01" nType="0">
          <Node pos="l" depth="2" NCoef="0" IVar="-1" Cut="0.0000000000000000e+00" cType="1" res="-1.2479464057832956e-03" rms="1.8302789330482483e-01" purity="2.3737449944019318e-01" nType="-99"/>
          <Node pos="r" depth="2" NCoef="0" IVar="-1" Cut="0.0000000000000000e+00" cType="1" res="-5.4222973994910717e-03" rms="0.0000000000000000e+00" purity="6.2928706407546997e-02" nType="-99"/>
        </Node>
        <Node pos="r" depth="1" NCoef="0" IVar="48" Cut="9.5065563917160034e-01" cType="1" res="2.5856813415884972e-02" rms="2.3880366981029510e-01" purity="5.8350348472595215e-01" nType="0">
          <Node pos="l" depth="2" NCoef="0" IVar="-1" Cut="0.0000000000000000e+00" cType="1" res="-2.5942136999219656e-03" rms="6.5313369035720825e-02" purity="7.5544230639934540e-02" nType="-99"/>
          <Node pos="r" depth="2" NCoef="0" IVar="-1" Cut="0.0000000000000000e+00" cType="1" res="7.9289037967100739e-04" rms="2.4380694329738617e-01" purity="6.1943054199218750e-01" nType="-99"/>
        </Node>
      </Node>
    </BinaryTree>
    <BinaryTree type="DecisionTree" boostWeight="1.0000000000000000e+00" itree="701">
      <Node pos="s" depth="0" NCoef="0" IVar="17" Cut="1.4440371990203857e+00" cType="1" res="2.4653205648064613e-02" rms="2.3988081514835358e-01" purity="5.1520156860351562e-01" nType="0">
        <Node pos="l" depth="1" NCoef="0" IVar="60" Cut="-1.7839405536651611e+00" cType="1" res="-1.7062699422240257e-02" rms="9.1335363686084747e-02" purity="2.7764158323407173e-02" nType="0">
          <Node pos="l" depth="2" NCoef="0" IVar="-1" Cut="0.0000000000000000e+00" cType="1" res="2.2503142245113850e-03" rms="2.0782320201396942e-01" purity="7.7170230448246002e-02" nType="-99"/>
          <Node pos="r" depth="2" NCoef="0" IVar="-1" Cut="0.0000000000000000e+00" cType="1" res="-7.2654322721064091e-03" rms="0.0000000000000000e+00" purity="-1.4433799311518669e-02" nType="-99"/>
        </Node>
        <Node pos="r" depth="1" NCoef="0" IVar="15" Cut="1.5229417085647583e+00" cType="1" res="4.6229474246501923e-02" rms="2.8570041060447693e-01" purity="7.6731359958648682e-01" nType="0">
          <Node pos="l" depth="2" NCoef="0" IVar="-1" Cut="0.0000000000000000e+00" cType="1" res="1.1430581798776984e-03" rms="2.6930367946624756e-01" purity="8.1114262342453003e-01" nType="-99"/>
          <Node pos="r" depth="2" NCoef="0" IVar="-1" Cut="0.0000000000000000e+00" cType="1" res="-1.1555075179785490e-03" rms="3.4420207142829895e-01" purity="5.1832979917526245e-01" nType="-99"/>
        </Node>
      </Node>
    </BinaryTree>
    <BinaryTree type="DecisionTree" boostWeight="1.0000000000000000e+00" itree="702">
      <Node pos="s" depth="0" NCoef="0" IVar="27" Cut="1.0402656793594360e+00" cType="1" res="1.4001486822962761e-02" rms="2.3035076260566711e-01" purity="4.9632978439331055e-01" nType="0">
        <Node pos="l" depth="1" NCoef="0" IVar="59" Cut="3.5830900073051453e-01" cType="1" res="-5.3942161612212658e-03" rms="0.0000000000000000e+00" purity="7.6454438269138336e-02" nType="-99"/>
        <Node pos="r" depth="1" NCoef="0" IVar="17" Cut="1.4447457790374756e+00" cType="1" res="2.4540927261114120e-02" rms="2.3950727283954620e-01" purity="5.3949278593063354e-01" nType="0">
          <Node pos="l" depth="2" NCoef="0" IVar="-1" Cut="0.0000000000000000e+00" cType="1" res="-2.5455423165112734e-03" rms="8.0324806272983551e-02" purity="2.4009481072425842e-02" nType="-99"/>
          <Node pos="r" depth="2" NCoef="0" IVar="-1" Cut="0.0000000000000000e+00" cType="1" res="8.2337175263091922e-04" rms="2.8404903411865234e-01" purity="7.9245316982269287e-01" nType="-99"/>
        </Node>
      </Node>
    </BinaryTree>
    <BinaryTree type="DecisionTree" boostWeight="1.0000000000000000e+00" itree="703">
      <Node pos="s" depth="0" NCoef="0" IVar="64" Cut="1.2345679104328156e-02" cType="1" res="1.6567682847380638e-02" rms="2.2998528182506561e-01" purity="5.0748324394226074e-01" nType="0">
        <Node pos="l" depth="1" NCoef="0" IVar="-1" Cut="0.0000000000000000e+00" cType="1" res="-5.5296043865382671e-03" rms="0.0000000000000000e+00" purity="1.3163252174854279e-01" nType="-99"/>
        <Node pos="r" depth="1" NCoef="0" IVar="18" Cut="-1.2309124469757080e+00" cType="1" res="2.4838708341121674e-02" rms="2.4198856949806213e-01" purity="5.2085393667221069e-01" nType="0">
          <Node pos="l" depth="2" NCoef="0" IVar="-1" Cut="0.0000000000000000e+00" cType="1" res="9.2451123055070639e-04" rms="2.4421033263206482e-01" purity="5.6512171030044556e-01" nType="-99"/>
          <Node pos="r" depth="2" NCoef="0" IVar="-1" Cut="0.0000000000000000e+00" cType="1" res="-2.5882883928716183e-03" rms="2.0070135593414307e-01" purity="2.2425493597984314e-01" nType="-99"/>
        </Node>
      </Node>
    </BinaryTree>
    <BinaryTree type="DecisionTree" boostWeight="1.0000000000000000e+00" itree="704">
      <Node pos="s" depth="0" NCoef="0" IVar="3" Cut="4.8825283050537109e+00" cType="1" res="1.5359447337687016e-02" rms="2.4180366098880768e-01" purity="4.9350631237030029e-01" nType="0">
        <Node pos="l" depth="1" NCoef="0" IVar="27" Cut="2.7528884410858154e+00" cType="1" res="-4.2015369981527328e-03" rms="2.4051678180694580e-01" purity="4.4893085956573486e-01" nType="0">
          <Node pos="l" depth="2" NCoef="0" IVar="-1" Cut="0.0000000000000000e+00" cType="1" res="-9.5658755162730813e-04" rms="2.1876433491706848e-01" purity="3.4244218468666077e-01" nType="-99"/>
          <Node pos="r" depth="2" NCoef="0" IVar="-1" Cut="0.0000000000000000e+00" cType="1" res="9.8535034339874983e-04" rms="2.7002227306365967e-01" purity="6.5431129932403564e-01" nType="-99"/>
        </Node>
        <Node pos="r" depth="1" NCoef="0" IVar="1" Cut="2.0791709423065186e+00" cType="1" res="6.0410209000110626e-02" rms="2.3872095346450806e-01" purity="5.9616762399673462e-01" nType="0">
          <Node pos="l" depth="2" NCoef="0" IVar="-1" Cut="0.0000000000000000e+00" cType="1" res="-3.3294961322098970e-03" rms="0.0000000000000000e+00" purity="-2.6067558210343122e-03" nType="-99"/>
          <Node pos="r" depth="2" NCoef="0" IVar="-1" Cut="0.0000000000000000e+00" cType="1" res="1.8521880265325308e-03" rms="2.4761518836021423e-01" purity="6.4676779508590698e-01" nType="-99"/>
        </Node>
      </Node>
    </BinaryTree>
    <BinaryTree type="DecisionTree" boostWeight="1.0000000000000000e+00" itree="705">
      <Node pos="s" depth="0" NCoef="0" IVar="0" Cut="6.6858899593353271e-01" cType="1" res="2.3792838677763939e-02" rms="2.4472072720527649e-01" purity="5.0873124599456787e-01" nType="0">
        <Node pos="l" depth="1" NCoef="0" IVar="22" Cut="1.2345679104328156e-02" cType="1" res="5.1331724971532822e-02" rms="2.5689452886581421e-01" purity="5.6857705116271973e-01" nType="0">
          <Node pos="l" depth="2" NCoef="0" IVar="-1" Cut="0.0000000000000000e+00" cType="1" res="5.5280933156609535e-03" rms="3.7515491247177124e-01" purity="4.9943661689758301e-01" nType="-99"/>
          <Node pos="r" depth="2" NCoef="0" IVar="-1" Cut="0.0000000000000000e+00" cType="1" res="1.0045614326372743e-03" rms="2.4467493593692780e-01" purity="5.7261019945144653e-01" nType="-99"/>
        </Node>
        <Node pos="r" depth="1" NCoef="0" IVar="39" Cut="-2.3147528171539307e+00" cType="1" res="-1.8273079767823219e-02" rms="2.1824850142002106e-01" purity="4.1731616854667664e-01" nType="0">
          <Node pos="l" depth="2" NCoef="0" IVar="-1" Cut="0.0000000000000000e+00" cType="1" res="-3.9051710627973080e-03" rms="0.0000000000000000e+00" purity="2.3888660967350006e-01" nType="-99"/>
          <Node pos="r" depth="2" NCoef="0" IVar="-1" Cut="0.0000000000000000e+00" cType="1" res="-1.6736816905904561e-04" rms="2.3286606371402740e-01" purity="4.3503209948539734e-01" nType="-99"/>
        </Node>
      </Node>
    </BinaryTree>
    <BinaryTree type="DecisionTree" boostWeight="1.0000000000000000e+00" itree="706">
      <Node pos="s" depth="0" NCoef="0" IVar="1" Cut="2.4248402118682861e+00" cType="1" res="1.8672842532396317e-02" rms="2.4370820820331573e-01" purity="5.0158935785293579e-01" nType="0">
        <Node pos="l" depth="1" NCoef="0" IVar="13" Cut="1.4770994186401367e+00" cType="1" res="-4.7650963068008423e-02" rms="1.5645383298397064e-01" purity="1.0299554467201233e-01" nType="0">
          <Node pos="l" depth="2" NCoef="0" IVar="-1" Cut="0.0000000000000000e+00" cType="1" res="3.0610751127824187e-04" rms="1.6207882761955261e-01" purity="7.6013624668121338e-02" nType="-99"/>
          <Node pos="r" depth="2" NCoef="0" IVar="-1" Cut="0.0000000000000000e+00" cType="1" res="-3.1339265406131744e-03" rms="1.0212741047143936e-01" purity="1.4545993506908417e-01" nType="-99"/>
        </Node>
        <Node pos="r" depth="1" NCoef="0" IVar="52" Cut="3.3920054435729980e+00" cType="1" res="3.1640272587537766e-02" rms="2.5532752275466919e-01" purity="5.7952117919921875e-01" nType="0">
          <Node pos="l" depth="2" NCoef="0" IVar="-1" Cut="0.0000000000000000e+00" cType="1" res="9.8276918288320303e-04" rms="2.6319244503974915e-01" purity="6.0019272565841675e-01" nType="-99"/>
          <Node pos="r" depth="2" NCoef="0" IVar="-1" Cut="0.0000000000000000e+00" cType="1" res="-1.2276677880436182e-03" rms="1.6969792544841766e-01" purity="4.2864683270454407e-01" nType="-99"/>
        </Node>
      </Node>
    </BinaryTree>
    <BinaryTree type="DecisionTree" boostWeight="1.0000000000000000e+00" itree="707">
      <Node pos="s" depth="0" NCoef="0" IVar="2" Cut="1.5175226926803589e+00" cType="1" res="1.8140681087970734e-02" rms="2.3974405229091644e-01" purity="4.9530702829360962e-01" nType="0">
        <Node pos="l" depth="1" NCoef="0" IVar="13" Cut="1.2824951410293579e+00" cType="1" res="-7.5130850076675415e-02" rms="1.0857229679822922e-01" purity="8.0735549330711365e-02" nType="0">
          <Node pos="l" depth="2" NCoef="0" IVar="-1" Cut="0.0000000000000000e+00" cType="1" res="-8.6999090854078531e-04" rms="1.3133506476879120e-01" purity="6.2098789960145950e-02" nType="-99"/>
          <Node pos="r" depth="2" NCoef="0" IVar="-1" Cut="0.0000000000000000e+00" cType="1" res="-5.3756250999867916e-03" rms="5.4063860327005386e-02" purity="9.3380682170391083e-02" nType="-99"/>
        </Node>
        <Node pos="r" depth="1" NCoef="0" IVar="3" Cut="4.9831795692443848e+00" cType="1" res="2.8536150231957436e-02" rms="2.4797536432743073e-01" purity="5.4151260852813721e-01" nType="0">
          <Node pos="l" depth="2" NCoef="0" IVar="-1" Cut="0.0000000000000000e+00" cType="1" res="3.3395946957170963e-04" rms="2.4431797862052917e-01" purity="5.1388788223266602e-01" nType="-99"/>
          <Node pos="r" depth="2" NCoef="0" IVar="-1" Cut="0.0000000000000000e+00" cType="1" res="2.2002176847308874e-03" rms="2.5296455621719360e-01" purity="6.8408054113388062e-01" nType="-99"/>
        </Node>
      </Node>
    </BinaryTree>
    <BinaryTree type="DecisionTree" boostWeight="1.0000000000000000e+00" itree="708">
      <Node pos="s" depth="0" NCoef="0" IVar="0" Cut="6.4754503965377808e-01" cType="1" res="1.2675737030804157e-02" rms="2.3017674684524536e-01" purity="4.9949496984481812e-01" nType="0">
        <Node pos="l" depth="1" NCoef="0" IVar="17" Cut="1.0187852382659912e+00" cType="1" res="3.8657356053590775e-02" rms="2.4133078753948212e-01" purity="5.6799215078353882e-01" nType="0">
          <Node pos="l" depth="2" NCoef="0" IVar="-1" Cut="0.0000000000000000e+00" cType="1" res="-1.3289546594023705e-02" rms="0.0000000000000000e+00" purity="-5.7805245742201805e-03" nType="-99"/>
          <Node pos="r" depth="2" NCoef="0" IVar="-1" Cut="0.0000000000000000e+00" cType="1" res="1.0675484081730247e-03" rms="2.7154347300529480e-01" purity="7.1409636735916138e-01" nType="-99"/>
        </Node>
        <Node pos="r" depth="1" NCoef="0" IVar="52" Cut="2.4639880657196045e+00" cType="1" res="-2.5682894513010979e-02" rms="2.0675769448280334e-01" purity="3.9836740493774414e-01" nType="0">
          <Node pos="l" depth="2" NCoef="0" IVar="-1" Cut="0.0000000000000000e+00" cType="1" res="-5.2195345051586628e-03" rms="0.0000000000000000e+00" purity="4.6156574040651321e-02" nType="-99"/>
          <Node pos="r" depth="2" NCoef="0" IVar="-1" Cut="0.0000000000000000e+00" cType="1" res="-1.0393113188911229e-04" rms="2.2903640568256378e-01" purity="4.5432513952255249e-01" nType="-99"/>
        </Node>
      </Node>
    </BinaryTree>
    <BinaryTree type="DecisionTree" boostWeight="1.0000000000000000e+00" itree="709">
      <Node pos="s" depth="0" NCoef="0" IVar="60" Cut="-8.1075644493103027e-01" cType="1" res="2.3651320487260818e-02" rms="2.4306577444076538e-01" purity="5.0733566284179688e-01" nType="0">
        <Node pos="l" depth="1" NCoef="0" IVar="31" Cut="2.6446204185485840e+00" cType="1" res="3.1882081180810928e-02" rms="2.4820142984390259e-01" purity="5.2838742733001709e-01" nType="0">
          <Node pos="l" depth="2" NCoef="0" IVar="-1" Cut="0.0000000000000000e+00" cType="1" res="-3.5293414257466793e-03" rms="1.8047517538070679e-01" purity="1.4534297585487366e-01" nType="-99"/>
          <Node pos="r" depth="2" NCoef="0" IVar="-1" Cut="0.0000000000000000e+00" cType="1" res="9.9740584846585989e-04" rms="2.5294312834739685e-01" purity="5.7511973381042480e-01" nType="-99"/>
        </Node>
        <Node pos="r" depth="1" NCoef="0" IVar="59" Cut="-6.0792040824890137e-01" cType="1" res="-5.2858660928905010e-03" rms="0.0000000000000000e+00" purity="1.1436907947063446e-01" nType="-99"/>
      </Node>
    </BinaryTree>
    <BinaryTree type="DecisionTree" boostWeight="1.0000000000000000e+00" itree="710">
      <Node pos="s" depth="0" NCoef="0" IVar="36" Cut="1.2913550138473511e+00" cType="1" res="2.3177491500973701e-02" rms="2.3867887258529663e-01" purity="5.1717495918273926e-01" nType="0">
        <Node pos="l" depth="1" NCoef="0" IVar="34" Cut="-1.2236036062240601e+00" cType="1" res="-3.7838496267795563e-02" rms="9.3286298215389252e-02" purity="4.5289155095815659e-02" nType="0">
          <Node pos="l" depth="2" NCoef="0" IVar="-1" Cut="0.0000000000000000e+00" cType="1" res="1.5195121522992849e-03" rms="2.1368193626403809e-01" purity="1.3606984913349152e-01" nType="-99"/>
          <Node pos="r" depth="2" NCoef="0" IVar="-1" Cut="0.0000000000000000e+00" cType="1" res="-8.6410269141197205e-03" rms="0.0000000000000000e+00" purity="6.8158213980495930e-03" nType="-99"/>
        </Node>
        <Node pos="r" depth="1" NCoef="0" IVar="18" Cut="-8.4593105316162109e-01" cType="1" res="3.9957039058208466e-02" rms="2.6255533099174500e-01" purity="6.4694470167160034e-01" nType="0">
          <Node pos="l" depth="2" NCoef="0" IVar="-1" Cut="0.0000000000000000e+00" cType="1" res="9.7886740695685148e-04" rms="2.6049980521202087e-01" purity="6.6410225629806519e-01" nType="-99"/>
          <Node pos="r" depth="2" NCoef="0" IVar="-1" Cut="0.0000000000000000e+00" cType="1" res="-4.8393132165074348e-03" rms="2.5779724121093750e-01" purity="2.2855873405933380e-01" nType="-99"/>
        </Node>
      </Node>
    </BinaryTree>
    <BinaryTree type="DecisionTree" boostWeight="1.0000000000000000e+00" itree="711">
      <Node pos="s" depth="0" NCoef="0" IVar="5" Cut="3.9599856734275818e-01" cType="1" res="2.0141677930951118e-02" rms="2.3527988791465759e-01" purity="5.1478528976440430e-01" nType="0">
        <Node pos="l" depth="1" NCoef="0" IVar="52" Cut="2.4185099601745605e+00" cType="1" res="4.1384045034646988e-02" rms="2.1323004364967346e-01" purity="6.3342863321304321e-01" nType="0">
          <Node pos="l" depth="2" NCoef="0" IVar="-1" Cut="0.0000000000000000e+00" cType="1" res="-1.7091921763494611e-03" rms="1.5966843068599701e-01" purity="2.6537573337554932e-01" nType="-99"/>
          <Node pos="r" depth="2" NCoef="0" IVar="-1" Cut="0.0000000000000000e+00" cType="1" res="1.4289160026237369e-03" rms="2.1510866284370422e-01" purity="6.7814368009567261e-01" nType="-99"/>
        </Node>
        <Node pos="r" depth="1" NCoef="0" IVar="34" Cut="-1.4540807008743286e+00" cType="1" res="-3.3335134387016296e-02" rms="2.7614760398864746e-01" purity="2.1610549092292786e-01" nType="0">
          <Node pos="l" depth="2" NCoef="0" IVar="-1" Cut="0.0000000000000000e+00" cType="1" res="2.9401879291981459e-03" rms="3.4130930900573730e-01" purity="3.9735150337219238e-01" nType="-99"/>
          <Node pos="r" depth="2" NCoef="0" IVar="-1" Cut="0.0000000000000000e+00" cType="1" res="-1.1755172163248062e-03" rms="2.6294505596160889e-01" purity="1.9700500369071960e-01" nType="-99"/>
        </Node>
      </Node>
    </BinaryTree>
    <BinaryTree type="DecisionTree" boostWeight="1.0000000000000000e+00" itree="712">
      <Node pos="s" depth="0" NCoef="0" IVar="5" Cut="4.3464860320091248e-01" cType="1" res="1.5166928991675377e-02" rms="2.3609380424022675e-01" purity="4.9954155087471008e-01" nType="0">
        <Node pos="l" depth="1" NCoef="0" IVar="31" Cut="2.5723276138305664e+00" cType="1" res="3.5248301923274994e-02" rms="2.2969622910022736e-01" purity="6.0518074035644531e-01" nType="0">
          <Node pos="l" depth="2" NCoef="0" IVar="-1" Cut="0.0000000000000000e+00" cType="1" res="-4.3410980142652988e-03" rms="2.2775079309940338e-01" purity="1.0035844147205353e-01" nType="-99"/>
          <Node pos="r" depth="2" NCoef="0" IVar="-1" Cut="0.0000000000000000e+00" cType="1" res="1.1185696348547935e-03" rms="2.2737506031990051e-01" purity="6.6907107830047607e-01" nType="-99"/>
        </Node>
        <Node pos="r" depth="1" NCoef="0" IVar="27" Cut="2.9928929805755615e+00" cType="1" res="-4.5483089983463287e-02" rms="2.4463021755218506e-01" purity="1.8048898875713348e-01" nType="0">
          <Node pos="l" depth="2" NCoef="0" IVar="-1" Cut="0.0000000000000000e+00" cType="1" res="-2.1012173965573311e-03" rms="1.8514108657836914e-01" purity="1.1982563883066177e-01" nType="-99"/>
          <Node pos="r" depth="2" NCoef="0" IVar="-1" Cut="0.0000000000000000e+00" cType="1" res="1.0834432905539870e-03" rms="3.7813377380371094e-01" purity="4.1385915875434875e-01" nType="-99"/>
        </Node>
      </Node>
    </BinaryTree>
    <BinaryTree type="DecisionTree" boostWeight="1.0000000000000000e+00" itree="713">
      <Node pos="s" depth="0" NCoef="0" IVar="15" Cut="1.5215698480606079e+00" cType="1" res="1.8983665853738785e-02" rms="2.3779730498790741e-01" purity="5.0234127044677734e-01" nType="0">
        <Node pos="l" depth="1" NCoef="0" IVar="14" Cut="-1.1063419580459595e+00" cType="1" res="3.0755732208490372e-02" rms="2.2215421497821808e-01" purity="5.0661832094192505e-01" nType="0">
          <Node pos="l" depth="2" NCoef="0" IVar="-1" Cut="0.0000000000000000e+00" cType="1" res="-2.0599621348083019e-04" rms="1.9330342113971710e-01" purity="3.5326904058456421e-01" nType="-99"/>
          <Node pos="r" depth="2" NCoef="0" IVar="-1" Cut="0.0000000000000000e+00" cType="1" res="1.3468947727233171e-03" rms="2.3697261512279510e-01" purity="6.1483502388000488e-01" nType="-99"/>
        </Node>
        <Node pos="r" depth="1" NCoef="0" IVar="3" Cut="4.5638275146484375e+00" cType="1" res="-7.5995251536369324e-02" rms="3.2320174574851990e-01" purity="4.6783351898193359e-01" nType="0">
          <Node pos="l" depth="2" NCoef="0" IVar="-1" Cut="0.0000000000000000e+00" cType="1" res="1.9956419419031590e-04" rms="3.1857776641845703e-01" purity="6.5279936790466309e-01" nType="-99"/>
          <Node pos="r" depth="2" NCoef="0" IVar="-1" Cut="0.0000000000000000e+00" cType="1" res="-3.2921656966209412e-03" rms="3.0909889936447144e-01" purity="3.1870481371879578e-01" nType="-99"/>
        </Node>
      </Node>
    </BinaryTree>
    <BinaryTree type="DecisionTree" boostWeight="1.0000000000000000e+00" itree="714">
      <Node pos="s" depth="0" NCoef="0" IVar="3" Cut="5.0306720733642578e+00" cType="1" res="2.0933037623763084e-02" rms="2.4466356635093689e-01" purity="5.0544375181198120e-01" nType="0">
        <Node pos="l" depth="1" NCoef="0" IVar="2" Cut="2.4621155261993408e+00" cType="1" res="3.7399912253022194e-03" rms="2.3503564298152924e-01" purity="4.8717486858367920e-01" nType="0">
          <Node pos="l" depth="2" NCoef="0" IVar="-1" Cut="0.0000000000000000e+00" cType="1" res="-1.3257702812552452e-03" rms="1.8626151978969574e-01" purity="2.7631631493568420e-01" nType="-99"/>
          <Node pos="r" depth="2" NCoef="0" IVar="-1" Cut="0.0000000000000000e+00" cType="1" res="7.9451006604358554e-04" rms="2.6119038462638855e-01" purity="6.4565700292587280e-01" nType="-99"/>
        </Node>
        <Node pos="r" depth="1" NCoef="0" IVar="4" Cut="3.7932724952697754e+00" cType="1" res="1.0939401388168335e-01" rms="2.7253800630569458e-01" purity="5.9944003820419312e-01" nType="0">
          <Node pos="l" depth="2" NCoef="0" IVar="-1" Cut="0.0000000000000000e+00" cType="1" res="3.6003985442221165e-03" rms="3.4169846773147583e-01" purity="6.2524235248565674e-01" nType="-99"/>
          <Node pos="r" depth="2" NCoef="0" IVar="-1" Cut="0.0000000000000000e+00" cType="1" res="1.5527479117736220e-03" rms="1.9727811217308044e-01" purity="5.8160257339477539e-01" nType="-99"/>
        </Node>
      </Node>
    </BinaryTree>
    <BinaryTree type="DecisionTree" boostWeight="1.0000000000000000e+00" itree="715">
      <Node pos="s" depth="0" NCoef="0" IVar="3" Cut="4.9597024917602539e+00" cType="1" res="1.3698187656700611e-02" rms="2.4401113390922546e-01" purity="4.8482307791709900e-01" nType="0">
        <Node pos="l" depth="1" NCoef="0" IVar="2" Cut="2.7775485515594482e+00" cType="1" res="-3.1484947539865971e-03" rms="2.4243208765983582e-01" purity="4.5521652698516846e-01" nType="0">
          <Node pos="l" depth="2" NCoef="0" IVar="-1" Cut="0.0000000000000000e+00" cType="1" res="-8.2577235298231244e-04" rms="2.2290650010108948e-01" purity="3.4196460247039795e-01" nType="-99"/>
          <Node pos="r" depth="2" NCoef="0" IVar="-1" Cut="0.0000000000000000e+00" cType="1" res="8.5204927017912269e-04" rms="2.6836264133453369e-01" purity="6.5778034925460815e-01" nType="-99"/>
        </Node>
        <Node pos="r" depth="1" NCoef="0" IVar="57" Cut="-1.2264010906219482e+00" cType="1" res="7.1610584855079651e-02" rms="2.4052536487579346e-01" purity="5.8659905195236206e-01" nType="0">
          <Node pos="l" depth="2" NCoef="0" IVar="-1" Cut="0.0000000000000000e+00" cType="1" res="2.5584653485566378e-03" rms="2.7236992120742798e-01" purity="6.7811036109924316e-01" nType="-99"/>
          <Node pos="r" depth="2" NCoef="0" IVar="-1" Cut="0.0000000000000000e+00" cType="1" res="-9.4145030016079545e-04" rms="0.0000000000000000e+00" purity="3.3168223500251770e-01" nType="-99"/>
        </Node>
      </Node>
    </BinaryTree>
    <BinaryTree type="DecisionTree" boostWeight="1.0000000000000000e+00" itree="716">
      <Node pos="s" depth="0" NCoef="0" IVar="52" Cut="2.3823242187500000e+00" cType="1" res="1.6344860196113586e-02" rms="2.3190122842788696e-01" purity="5.0123459100723267e-01" nType="0">
        <Node pos="l" depth="1" NCoef="0" IVar="60" Cut="-1.4507884979248047e+00" cType="1" res="-3.2061028759926558e-03" rms="0.0000000000000000e+00" purity="1.4347401261329651e-01" nType="-99"/>
        <Node pos="r" depth="1" NCoef="0" IVar="5" Cut="2.9114469885826111e-01" cType="1" res="2.7578903362154961e-02" rms="2.3981693387031555e-01" purity="5.3339272737503052e-01" nType="0">
          <Node pos="l" depth="2" NCoef="0" IVar="-1" Cut="0.0000000000000000e+00" cType="1" res="1.7780252965167165e-03" rms="2.2572658956050873e-01" purity="7.1895372867584229e-01" nType="-99"/>
          <Node pos="r" depth="2" NCoef="0" IVar="-1" Cut="0.0000000000000000e+00" cType="1" res="-4.5320120989345014e-04" rms="2.4857227504253387e-01" purity="2.9924884438514709e-01" nType="-99"/>
        </Node>
      </Node>
    </BinaryTree>
    <BinaryTree type="DecisionTree" boostWeight="1.0000000000000000e+00" itree="717">
      <Node pos="s" depth="0" NCoef="0" IVar="57" Cut="1.1392198801040649e+00" cType="1" res="1.8324898555874825e-02" rms="2.3523828387260437e-01" purity="5.0114101171493530e-01" nType="0">
        <Node pos="l" depth="1" NCoef="0" IVar="0" Cut="7.3354756832122803e-01" cType="1" res="3.3233225345611572e-02" rms="2.4361734092235565e-01" purity="5.4269856214523315e-01" nType="0">
          <Node pos="l" depth="2" NCoef="0" IVar="-1" Cut="0.0000000000000000e+00" cType="1" res="1.3253384968265891e-03" rms="2.5426328182220459e-01" purity="5.9250533580780029e-01" nType="-99"/>
          <Node pos="r" depth="2" NCoef="0" IVar="-1" Cut="0.0000000000000000e+00" cType="1" res="-3.3267459366470575e-04" rms="2.1315735578536987e-01" purity="4.4208326935768127e-01" nType="-99"/>
        </Node>
        <Node pos="r" depth="1" NCoef="0" IVar="52" Cut="2.4149413108825684e+00" cType="1" res="-5.3119920194149017e-02" rms="1.7302964627742767e-01" purity="3.0198571085929871e-01" nType="0">
          <Node pos="l" depth="2" NCoef="0" IVar="-1" Cut="0.0000000000000000e+00" cType="1" res="-5.7470090687274933e-03" rms="0.0000000000000000e+00" purity="1.2137058377265930e-01" nType="-99"/>
          <Node pos="r" depth="2" NCoef="0" IVar="-1" Cut="0.0000000000000000e+00" cType="1" res="-8.9340191334486008e-04" rms="2.1064290404319763e-01" purity="3.3632454276084900e-01" nType="-99"/>
        </Node>
      </Node>
    </BinaryTree>
    <BinaryTree type="DecisionTree" boostWeight="1.0000000000000000e+00" itree="718">
      <Node pos="s" depth="0" NCoef="0" IVar="17" Cut="1.5231137275695801e+00" cType="1" res="3.7239657249301672e-03" rms="2.2076052427291870e-01" purity="4.8365250229835510e-01" nType="0">
        <Node pos="l" depth="1" NCoef="0" IVar="15" Cut="1.5209717750549316e+00" cType="1" res="-2.2768788039684296e-02" rms="2.1175460517406464e-01" purity="2.4249300360679626e-01" nType="0">
          <Node pos="l" depth="2" NCoef="0" IVar="-1" Cut="0.0000000000000000e+00" cType="1" res="-3.9226459921337664e-04" rms="2.0972387492656708e-01" purity="2.5199645757675171e-01" nType="-99"/>
          <Node pos="r" depth="2" NCoef="0" IVar="-1" Cut="0.0000000000000000e+00" cType="1" res="-8.3252983167767525e-03" rms="1.8127921223640442e-01" purity="7.4241466820240021e-02" nType="-99"/>
        </Node>
        <Node pos="r" depth="1" NCoef="0" IVar="15" Cut="1.5230776071548462e+00" cType="1" res="4.6297412365674973e-02" rms="2.2815421223640442e-01" purity="8.7119209766387939e-01" nType="0">
          <Node pos="l" depth="2" NCoef="0" IVar="-1" Cut="0.0000000000000000e+00" cType="1" res="1.6426822403445840e-03" rms="1.7310076951980591e-01" purity="9.3608182668685913e-01" nType="-99"/>
          <Node pos="r" depth="2" NCoef="0" IVar="-1" Cut="0.0000000000000000e+00" cType="1" res="-5.5331294424831867e-04" rms="3.5519781708717346e-01" purity="6.2885278463363647e-01" nType="-99"/>
        </Node>
      </Node>
    </BinaryTree>
    <BinaryTree type="DecisionTree" boostWeight="1.0000000000000000e+00" itree="719">
      <Node pos="s" depth="0" NCoef="0" IVar="17" Cut="1.5231137275695801e+00" cType="1" res="2.3089686408638954e-02" rms="2.3813198506832123e-01" purity="5.1134687662124634e-01" nType="0">
        <Node pos="l" depth="1" NCoef="0" IVar="2" Cut="2.5005888938903809e+00" cType="1" res="-2.9390295967459679e-03" rms="2.3722124099731445e-01" purity="2.6996654272079468e-01" nType="0">
          <Node pos="l" depth="2" NCoef="0" IVar="-1" Cut="0.0000000000000000e+00" cType="1" res="-1.5802425332367420e-03" rms="1.7744252085685730e-01" purity="1.2671765685081482e-01" nType="-99"/>
          <Node pos="r" depth="2" NCoef="0" IVar="-1" Cut="0.0000000000000000e+00" cType="1" res="7.8763772035017610e-04" rms="2.8834083676338196e-01" purity="4.4367617368698120e-01" nType="-99"/>
        </Node>
        <Node pos="r" depth="1" NCoef="0" IVar="2" Cut="1.6619808673858643e+00" cType="1" res="6.2774807214736938e-02" rms="2.3400652408599854e-01" purity="8.7937146425247192e-01" nType="0">
          <Node pos="l" depth="2" NCoef="0" IVar="-1" Cut="0.0000000000000000e+00" cType="1" res="-1.8525142222642899e-03" rms="3.1378188729286194e-01" purity="4.6489146351814270e-01" nType="-99"/>
          <Node pos="r" depth="2" NCoef="0" IVar="-1" Cut="0.0000000000000000e+00" cType="1" res="1.5085027553141117e-03" rms="2.2557342052459717e-01" purity="9.0401047468185425e-01" nType="-99"/>
        </Node>
      </Node>
    </BinaryTree>
    <BinaryTree type="DecisionTree" boostWeight="1.0000000000000000e+00" itree="720">
      <Node pos="s" depth="0" NCoef="0" IVar="3" Cut="4.9774656295776367e+00" cType="1" res="1.6898654401302338e-02" rms="2.3964655399322510e-01" purity="5.0403511524200439e-01" nType="0">
        <Node pos="l" depth="1" NCoef="0" IVar="5" Cut="4.3697974085807800e-01" cType="1" res="1.9238279492128640e-04" rms="2.3463876545429230e-01" purity="4.8100164532661438e-01" nType="0">
          <Node pos="l" depth="2" NCoef="0" IVar="-1" Cut="0.0000000000000000e+00" cType="1" res="5.6004757061600685e-04" rms="2.2358155250549316e-01" purity="5.9725713729858398e-01" nType="-99"/>
          <Node pos="r" depth="2" NCoef="0" IVar="-1" Cut="0.0000000000000000e+00" cType="1" res="-1.6352685634046793e-03" rms="2.5445520877838135e-01" purity="1.3428616523742676e-01" nType="-99"/>
        </Node>
        <Node pos="r" depth="1" NCoef="0" IVar="17" Cut="-4.8876079916954041e-01" cType="1" res="7.9817160964012146e-02" rms="2.4772100150585175e-01" purity="5.9078288078308105e-01" nType="0">
          <Node pos="l" depth="2" NCoef="0" IVar="-1" Cut="0.0000000000000000e+00" cType="1" res="-2.5278152897953987e-02" rms="0.0000000000000000e+00" purity="-2.9173566028475761e-02" nType="-99"/>
          <Node pos="r" depth="2" NCoef="0" IVar="-1" Cut="0.0000000000000000e+00" cType="1" res="2.2028214298188686e-03" rms="2.8185531497001648e-01" purity="7.5027012825012207e-01" nType="-99"/>
        </Node>
      </Node>
    </BinaryTree>
    <BinaryTree type="DecisionTree" boostWeight="1.0000000000000000e+00" itree="721">
      <Node pos="s" depth="0" NCoef="0" IVar="60" Cut="-1.1809853315353394e+00" cType="1" res="1.5241309069097042e-02" rms="2.2707498073577881e-01" purity="5.0603544712066650e-01" nType="0">
        <Node pos="l" depth="1" NCoef="0" IVar="36" Cut="1.0590679645538330e+00" cType="1" res="2.8636954724788666e-02" rms="2.3496934771537781e-01" purity="5.4238772392272949e-01" nType="0">
          <Node pos="l" depth="2" NCoef="0" IVar="-1" Cut="0.0000000000000000e+00" cType="1" res="-4.1079274378716946e-03" rms="5.8877862989902496e-02" purity="3.1495008617639542e-02" nType="-99"/>
          <Node pos="r" depth="2" NCoef="0" IVar="-1" Cut="0.0000000000000000e+00" cType="1" res="9.2753564240410924e-04" rms="2.5429290533065796e-01" purity="6.4742195606231689e-01" nType="-99"/>
        </Node>
        <Node pos="r" depth="1" NCoef="0" IVar="16" Cut="-1.0384526103734970e-01" cType="1" res="-5.5040903389453888e-02" rms="1.6292504966259003e-01" purity="3.1530797481536865e-01" nType="0">
          <Node pos="l" depth="2" NCoef="0" IVar="-1" Cut="0.0000000000000000e+00" cType="1" res="-5.9634150238707662e-04" rms="2.1507948637008667e-01" purity="3.7734961509704590e-01" nType="-99"/>
          <Node pos="r" depth="2" NCoef="0" IVar="-1" Cut="0.0000000000000000e+00" cType="1" res="-5.0696833059191704e-03" rms="0.0000000000000000e+00" purity="1.3954457640647888e-01" nType="-99"/>
        </Node>
      </Node>
    </BinaryTree>
    <BinaryTree type="DecisionTree" boostWeight="1.0000000000000000e+00" itree="722">
      <Node pos="s" depth="0" NCoef="0" IVar="15" Cut="1.5225218534469604e+00" cType="1" res="1.0655567049980164e-02" rms="2.3558494448661804e-01" purity="4.8651686310768127e-01" nType="0">
        <Node pos="l" depth="1" NCoef="0" IVar="64" Cut="1.2345679104328156e-02" cType="1" res="2.3929953575134277e-02" rms="2.1802812814712524e-01" purity="4.9302089214324951e-01" nType="0">
          <Node pos="l" depth="2" NCoef="0" IVar="-1" Cut="0.0000000000000000e+00" cType="1" res="-4.1586984880268574e-03" rms="0.0000000000000000e+00" purity="1.6103316843509674e-01" nType="-99"/>
          <Node pos="r" depth="2" NCoef="0" IVar="-1" Cut="0.0000000000000000e+00" cType="1" res="8.2512455992400646e-04" rms="2.2889670729637146e-01" purity="5.0639152526855469e-01" nType="-99"/>
        </Node>
        <Node pos="r" depth="1" NCoef="0" IVar="62" Cut="-1.4342646114528179e-02" cType="1" res="-9.6860624849796295e-02" rms="3.2713592052459717e-01" purity="4.3383738398551941e-01" nType="0">
          <Node pos="l" depth="2" NCoef="0" IVar="-1" Cut="0.0000000000000000e+00" cType="1" res="-5.7918578386306763e-03" rms="2.6016113162040710e-01" purity="2.2956740856170654e-01" nType="-99"/>
          <Node pos="r" depth="2" NCoef="0" IVar="-1" Cut="0.0000000000000000e+00" cType="1" res="-1.0325167095288634e-03" rms="3.3094197511672974e-01" purity="4.9204364418983459e-01" nType="-99"/>
        </Node>
      </Node>
    </BinaryTree>
    <BinaryTree type="DecisionTree" boostWeight="1.0000000000000000e+00" itree="723">
      <Node pos="s" depth="0" NCoef="0" IVar="15" Cut="1.5225218534469604e+00" cType="1" res="1.5284854918718338e-02" rms="2.3615954816341400e-01" purity="4.9292901158332825e-01" nType="0">
        <Node pos="l" depth="1" NCoef="0" IVar="3" Cut="5.0639963150024414e+00" cType="1" res="2.7207180857658386e-02" rms="2.2159409523010254e-01" purity="4.9915078282356262e-01" nType="0">
          <Node pos="l" depth="2" NCoef="0" IVar="-1" Cut="0.0000000000000000e+00" cType="1" res="3.5832845605909824e-04" rms="2.0610901713371277e-01" purity="4.8893955349922180e-01" nType="-99"/>
          <Node pos="r" depth="2" NCoef="0" IVar="-1" Cut="0.0000000000000000e+00" cType="1" res="2.5261908303946257e-03" rms="2.8275150060653687e-01" purity="5.5885696411132812e-01" nType="-99"/>
        </Node>
        <Node pos="r" depth="1" NCoef="0" IVar="15" Cut="1.5382710695266724e+00" cType="1" res="-8.5292115807533264e-02" rms="3.1733697652816772e-01" purity="4.4044184684753418e-01" nType="0">
          <Node pos="l" depth="2" NCoef="0" IVar="-1" Cut="0.0000000000000000e+00" cType="1" res="-4.9658236093819141e-04" rms="3.0622041225433350e-01" purity="5.5888468027114868e-01" nType="-99"/>
          <Node pos="r" depth="2" NCoef="0" IVar="-1" Cut="0.0000000000000000e+00" cType="1" res="-8.3039505407214165e-03" rms="3.0277657508850098e-01" purity="1.5074573457241058e-01" nType="-99"/>
        </Node>
      </Node>
    </BinaryTree>
    <BinaryTree type="DecisionTree" boostWeight="1.0000000000000000e+00" itree="724">
      <Node pos="s" depth="0" NCoef="0" IVar="10" Cut="2.9247174263000488e+00" cType="1" res="1.0321996174752712e-02" rms="2.2242815792560577e-01" purity="4.9935892224311829e-01" nType="0">
        <Node pos="l" depth="1" NCoef="0" IVar="17" Cut="1.2822905778884888e+00" cType="1" res="-7.2718098759651184e-02" rms="1.8066874146461487e-01" purity="1.4156365394592285e-01" nType="0">
          <Node pos="l" depth="2" NCoef="0" IVar="-1" Cut="0.0000000000000000e+00" cType="1" res="-9.7624724730849266e-03" rms="5.2981797605752945e-02" purity="3.6469278857111931e-03" nType="-99"/>
          <Node pos="r" depth="2" NCoef="0" IVar="-1" Cut="0.0000000000000000e+00" cType="1" res="-2.0629013888537884e-03" rms="2.3122921586036682e-01" purity="2.6988896727561951e-01" nType="-99"/>
        </Node>
        <Node pos="r" depth="1" NCoef="0" IVar="52" Cut="2.3823242187500000e+00" cType="1" res="2.8935698792338371e-02" rms="2.2661714255809784e-01" purity="5.7955992221832275e-01" nType="0">
          <Node pos="l" depth="2" NCoef="0" IVar="-1" Cut="0.0000000000000000e+00" cType="1" res="-2.6707490906119347e-03" rms="0.0000000000000000e+00" purity="2.3464046418666840e-01" nType="-99"/>
          <Node pos="r" depth="2" NCoef="0" IVar="-1" Cut="0.0000000000000000e+00" cType="1" res="9.8937889561057091e-04" rms="2.3677185177803040e-01" purity="6.0918486118316650e-01" nType="-99"/>
        </Node>
      </Node>
    </BinaryTree>
    <BinaryTree type="DecisionTree" boostWeight="1.0000000000000000e+00" itree="725">
      <Node pos="s" depth="0" NCoef="0" IVar="0" Cut="6.9999265670776367e-01" cType="1" res="1.4043768867850304e-02" rms="2.3080357909202576e-01" purity="4.8543462157249451e-01" nType="0">
        <Node pos="l" depth="1" NCoef="0" IVar="17" Cut="1.3284697532653809e+00" cType="1" res="3.6673631519079208e-02" rms="2.4045535922050476e-01" purity="5.4196363687515259e-01" nType="0">
          <Node pos="l" depth="2" NCoef="0" IVar="-1" Cut="0.0000000000000000e+00" cType="1" res="-1.1040444485843182e-02" rms="0.0000000000000000e+00" purity="-7.2611626237630844e-03" nType="-99"/>
          <Node pos="r" depth="2" NCoef="0" IVar="-1" Cut="0.0000000000000000e+00" cType="1" res="1.1042486876249313e-03" rms="2.8328752517700195e-01" purity="7.3855882883071899e-01" nType="-99"/>
        </Node>
        <Node pos="r" depth="1" NCoef="0" IVar="21" Cut="-5.3908371925354004e-01" cType="1" res="-2.4887047708034515e-02" rms="2.0748201012611389e-01" purity="3.8818603754043579e-01" nType="0">
          <Node pos="l" depth="2" NCoef="0" IVar="-1" Cut="0.0000000000000000e+00" cType="1" res="-4.9652913585305214e-03" rms="0.0000000000000000e+00" purity="1.0798645019531250e-01" nType="-99"/>
          <Node pos="r" depth="2" NCoef="0" IVar="-1" Cut="0.0000000000000000e+00" cType="1" res="-3.7112605059519410e-04" rms="2.2546342015266418e-01" purity="4.0569972991943359e-01" nType="-99"/>
        </Node>
      </Node>
    </BinaryTree>
    <BinaryTree type="DecisionTree" boostWeight="1.0000000000000000e+00" itree="726">
      <Node pos="s" depth="0" NCoef="0" IVar="59" Cut="-1.0255047678947449e-01" cType="1" res="1.8760727718472481e-02" rms="2.3678123950958252e-01" purity="5.0769555568695068e-01" nType="0">
        <Node pos="l" depth="1" NCoef="0" IVar="3" Cut="5.2241826057434082e+00" cType="1" res="4.0007933974266052e-02" rms="2.5288927555084229e-01" purity="5.6635618209838867e-01" nType="0">
          <Node pos="l" depth="2" NCoef="0" IVar="-1" Cut="0.0000000000000000e+00" cType="1" res="7.1073515573516488e-04" rms="2.4527098238468170e-01" purity="5.6601417064666748e-01" nType="-99"/>
          <Node pos="r" depth="2" NCoef="0" IVar="-1" Cut="0.0000000000000000e+00" cType="1" res="3.7632025778293610e-03" rms="3.0109122395515442e-01" purity="5.7065606117248535e-01" nType="-99"/>
        </Node>
        <Node pos="r" depth="1" NCoef="0" IVar="48" Cut="8.0742782354354858e-01" cType="1" res="-2.4243803694844246e-02" rms="1.9322943687438965e-01" purity="3.8896608352661133e-01" nType="0">
          <Node pos="l" depth="2" NCoef="0" IVar="-1" Cut="0.0000000000000000e+00" cType="1" res="-6.5008881501853466e-03" rms="0.0000000000000000e+00" purity="-5.5142175406217575e-02" nType="-99"/>
          <Node pos="r" depth="2" NCoef="0" IVar="-1" Cut="0.0000000000000000e+00" cType="1" res="-2.9707612702623010e-04" rms="2.1390289068222046e-01" purity="4.3296599388122559e-01" nType="-99"/>
        </Node>
      </Node>
    </BinaryTree>
    <BinaryTree type="DecisionTree" boostWeight="1.0000000000000000e+00" itree="727">
      <Node pos="s" depth="0" NCoef="0" IVar="31" Cut="2.6472218036651611e+00" cType="1" res="2.7346966788172722e-02" rms="2.4548543989658356e-01" purity="5.1290881633758545e-01" nType="0">
        <Node pos="l" depth="1" NCoef="0" IVar="17" Cut="1.2888709306716919e+00" cType="1" res="-6.7332044243812561e-02" rms="1.6239179670810699e-01" purity="1.3049237430095673e-01" nType="0">
          <Node pos="l" depth="2" NCoef="0" IVar="-1" Cut="0.0000000000000000e+00" cType="1" res="-8.6624762043356895e-03" rms="7.4737370014190674e-02" purity="5.4226284846663475e-03" nType="-99"/>
          <Node pos="r" depth="2" NCoef="0" IVar="-1" Cut="0.0000000000000000e+00" cType="1" res="-3.8169648032635450e-03" rms="1.9456414878368378e-01" purity="2.3076289892196655e-01" nType="-99"/>
        </Node>
        <Node pos="r" depth="1" NCoef="0" IVar="14" Cut="-1.2993521690368652e+00" cType="1" res="3.9963666349649429e-02" rms="2.5184470415115356e-01" purity="5.6386876106262207e-01" nType="0">
          <Node pos="l" depth="2" NCoef="0" IVar="-1" Cut="0.0000000000000000e+00" cType="1" res="-3.2445872784592211e-04" rms="2.1960525214672089e-01" purity="3.0630984902381897e-01" nType="-99"/>
          <Node pos="r" depth="2" NCoef="0" IVar="-1" Cut="0.0000000000000000e+00" cType="1" res="1.2817784445360303e-03" rms="2.6039323210716248e-01" purity="6.6119319200515747e-01" nType="-99"/>
        </Node>
      </Node>
    </BinaryTree>
    <BinaryTree type="DecisionTree" boostWeight="1.0000000000000000e+00" itree="728">
      <Node pos="s" depth="0" NCoef="0" IVar="60" Cut="-9.0174204111099243e-01" cType="1" res="1.8273001536726952e-02" rms="2.3860739171504974e-01" purity="4.9950852990150452e-01" nType="0">
        <Node pos="l" depth="1" NCoef="0" IVar="3" Cut="4.9848756790161133e+00" cType="1" res="2.7476172894239426e-02" rms="2.4405927956104279e-01" purity="5.2394407987594604e-01" nType="0">
          <Node pos="l" depth="2" NCoef="0" IVar="-1" Cut="0.0000000000000000e+00" cType="1" res="3.1020698952488601e-04" rms="2.4155877530574799e-01" purity="4.9841713905334473e-01" nType="-99"/>
          <Node pos="r" depth="2" NCoef="0" IVar="-1" Cut="0.0000000000000000e+00" cType="1" res="2.0331835839897394e-03" rms="2.4473050236701965e-01" purity="6.2498432397842407e-01" nType="-99"/>
        </Node>
        <Node pos="r" depth="1" NCoef="0" IVar="16" Cut="-1.0384526103734970e-01" cType="1" res="-9.2286951839923859e-02" rms="1.0991026461124420e-01" purity="2.0595879852771759e-01" nType="0">
          <Node pos="l" depth="2" NCoef="0" IVar="-1" Cut="0.0000000000000000e+00" cType="1" res="-2.1842720452696085e-03" rms="1.7267797887325287e-01" purity="2.6296979188919067e-01" nType="-99"/>
          <Node pos="r" depth="2" NCoef="0" IVar="-1" Cut="0.0000000000000000e+00" cType="1" res="-5.9100026264786720e-03" rms="0.0000000000000000e+00" purity="6.8853348493576050e-02" nType="-99"/>
        </Node>
      </Node>
    </BinaryTree>
    <BinaryTree type="DecisionTree" boostWeight="1.0000000000000000e+00" itree="729">
      <Node pos="s" depth="0" NCoef="0" IVar="3" Cut="4.9394011497497559e+00" cType="1" res="2.5029929354786873e-02" rms="2.5054347515106201e-01" purity="5.0624942779541016e-01" nType="0">
        <Node pos="l" depth="1" NCoef="0" IVar="2" Cut="1.8895508050918579e+00" cType="1" res="3.6522874142974615e-03" rms="2.4021896719932556e-01" purity="4.7213491797447205e-01" nType="0">
          <Node pos="l" depth="2" NCoef="0" IVar="-1" Cut="0.0000000000000000e+00" cType="1" res="-4.7250590287148952e-03" rms="1.1818923801183701e-01" purity="9.4425737857818604e-02" nType="-99"/>
          <Node pos="r" depth="2" NCoef="0" IVar="-1" Cut="0.0000000000000000e+00" cType="1" res="4.6498695155605674e-04" rms="2.5386983156204224e-01" purity="5.4504591226577759e-01" nType="-99"/>
        </Node>
        <Node pos="r" depth="1" NCoef="0" IVar="10" Cut="2.9509544372558594e+00" cType="1" res="8.8793806731700897e-02" rms="2.6917701959609985e-01" purity="6.0800403356552124e-01" nType="0">
          <Node pos="l" depth="2" NCoef="0" IVar="-1" Cut="0.0000000000000000e+00" cType="1" res="6.9224075414240360e-03" rms="4.3756684660911560e-01" purity="5.2602720260620117e-01" nType="-99"/>
          <Node pos="r" depth="2" NCoef="0" IVar="-1" Cut="0.0000000000000000e+00" cType="1" res="1.6697373939678073e-03" rms="2.3527137935161591e-01" purity="6.1555755138397217e-01" nType="-99"/>
        </Node>
      </Node>
    </BinaryTree>
    <BinaryTree type="DecisionTree" boostWeight="1.0000000000000000e+00" itree="730">
      <Node pos="s" depth="0" NCoef="0" IVar="52" Cut="2.4096806049346924e+00" cType="1" res="1.6672212630510330e-02" rms="2.3713558912277222e-01" purity="5.0516742467880249e-01" nType="0">
        <Node pos="l" depth="1" NCoef="0" IVar="0" Cut="8.6910581588745117e-01" cType="1" res="-8.2461200654506683e-02" rms="2.0426711067557335e-02" purity="2.1004743874073029e-01" nType="0">
          <Node pos="l" depth="2" NCoef="0" IVar="-1" Cut="0.0000000000000000e+00" cType="1" res="-8.5522938752546906e-04" rms="1.6912874579429626e-01" purity="2.9119640588760376e-01" nType="-99"/>
          <Node pos="r" depth="2" NCoef="0" IVar="-1" Cut="0.0000000000000000e+00" cType="1" res="-5.9553678147494793e-03" rms="0.0000000000000000e+00" purity="-4.7390226274728775e-02" nType="-99"/>
        </Node>
        <Node pos="r" depth="1" NCoef="0" IVar="5" Cut="2.9656997323036194e-01" cType="1" res="2.7900556102395058e-02" rms="2.4762089550495148e-01" purity="5.3859418630599976e-01" nType="0">
          <Node pos="l" depth="2" NCoef="0" IVar="-1" Cut="0.0000000000000000e+00" cType="1" res="1.6737006371840835e-03" rms="2.2212395071983337e-01" purity="7.2066593170166016e-01" nType="-99"/>
          <Node pos="r" depth="2" NCoef="0" IVar="-1" Cut="0.0000000000000000e+00" cType="1" res="-2.4262706574518234e-04" rms="2.7117103338241577e-01" purity="3.1169855594635010e-01" nType="-99"/>
        </Node>
      </Node>
    </BinaryTree>
    <BinaryTree type="DecisionTree" boostWeight="1.0000000000000000e+00" itree="731">
      <Node pos="s" depth="0" NCoef="0" IVar="26" Cut="1.2345679104328156e-02" cType="1" res="1.5818797051906586e-02" rms="2.3101134598255157e-01" purity="5.0216126441955566e-01" nType="0">
        <Node pos="l" depth="1" NCoef="0" IVar="6" Cut="1.4745336771011353e+00" cType="1" res="2.2332172840833664e-02" rms="2.3331709206104279e-01" purity="5.2258789539337158e-01" nType="0">
          <Node pos="l" depth="2" NCoef="0" IVar="-1" Cut="0.0000000000000000e+00" cType="1" res="-2.1383117418736219e-03" rms="1.4092633128166199e-01" purity="1.4178304374217987e-01" nType="-99"/>
          <Node pos="r" depth="2" NCoef="0" IVar="-1" Cut="0.0000000000000000e+00" cType="1" res="8.6671498138457537e-04" rms="2.4287435412406921e-01" purity="5.8745431900024414e-01" nType="-99"/>
        </Node>
        <Node pos="r" depth="1" NCoef="0" IVar="-1" Cut="0.0000000000000000e+00" cType="1" res="-1.2829878367483616e-02" rms="0.0000000000000000e+00" purity="-7.6337806880474091e-02" nType="-99"/>
      </Node>
    </BinaryTree>
    <BinaryTree type="DecisionTree" boostWeight="1.0000000000000000e+00" itree="732">
      <Node pos="s" depth="0" NCoef="0" IVar="60" Cut="-8.6328119039535522e-01" cType="1" res="1.1508379131555557e-02" rms="2.3091654479503632e-01" purity="4.9372190237045288e-01" nType="0">
        <Node pos="l" depth="1" NCoef="0" IVar="3" Cut="5.0523304939270020e+00" cType="1" res="2.0219169557094574e-02" rms="2.3667310178279877e-01" purity="5.1736998558044434e-01" nType="0">
          <Node pos="l" depth="2" NCoef="0" IVar="-1" Cut="0.0000000000000000e+00" cType="1" res="2.1135898714419454e-04" rms="2.3016695678234100e-01" purity="5.0746965408325195e-01" nType="-99"/>
          <Node pos="r" depth="2" NCoef="0" IVar="-1" Cut="0.0000000000000000e+00" cType="1" res="2.1618744358420372e-03" rms="2.6084387302398682e-01" purity="5.7576090097427368e-01" nType="-99"/>
        </Node>
        <Node pos="r" depth="1" NCoef="0" IVar="0" Cut="7.7751851081848145e-01" cType="1" res="-4.9438411369919777e-03" rms="0.0000000000000000e+00" purity="1.4396351575851440e-01" nType="-99"/>
      </Node>
    </BinaryTree>
    <BinaryTree type="DecisionTree" boostWeight="1.0000000000000000e+00" itree="733">
      <Node pos="s" depth="0" NCoef="0" IVar="5" Cut="2.8323230147361755e-01" cType="1" res="1.9047474488615990e-02" rms="2.3700258135795593e-01" purity="5.0600838661193848e-01" nType="0">
        <Node pos="l" depth="1" NCoef="0" IVar="27" Cut="1.2594306468963623e+00" cType="1" res="5.0213154405355453e-02" rms="2.1733513474464417e-01" purity="6.7071467638015747e-01" nType="0">
          <Node pos="l" depth="2" NCoef="0" IVar="-1" Cut="0.0000000000000000e+00" cType="1" res="-1.7135564703494310e-03" rms="1.3788440823554993e-01" purity="2.3448784649372101e-01" nType="-99"/>
          <Node pos="r" depth="2" NCoef="0" IVar="-1" Cut="0.0000000000000000e+00" cType="1" res="1.7901249229907990e-03" rms="2.2639793157577515e-01" purity="7.6733040809631348e-01" nType="-99"/>
        </Node>
        <Node pos="r" depth="1" NCoef="0" IVar="38" Cut="-1.2226876020431519e+00" cType="1" res="-1.9709479063749313e-02" rms="2.5411105155944824e-01" purity="3.0118331313133240e-01" nType="0">
          <Node pos="l" depth="2" NCoef="0" IVar="-1" Cut="0.0000000000000000e+00" cType="1" res="1.1681978357955813e-03" rms="2.4710801243782043e-01" purity="3.5984110832214355e-01" nType="-99"/>
          <Node pos="r" depth="2" NCoef="0" IVar="-1" Cut="0.0000000000000000e+00" cType="1" res="-8.6890294915065169e-04" rms="2.5297415256500244e-01" purity="2.8252965211868286e-01" nType="-99"/>
        </Node>
      </Node>
    </BinaryTree>
    <BinaryTree type="DecisionTree" boostWeight="1.0000000000000000e+00" itree="734">
      <Node pos="s" depth="0" NCoef="0" IVar="48" Cut="8.1455850601196289e-01" cType="1" res="1.9353322684764862e-02" rms="2.3900206387042999e-01" purity="5.0352549552917480e-01" nType="0">
        <Node pos="l" depth="1" NCoef="0" IVar="35" Cut="-1.1466785669326782e+00" cType="1" res="-3.7132657598704100e-03" rms="0.0000000000000000e+00" purity="-9.2207584530115128e-03" nType="-99"/>
        <Node pos="r" depth="1" NCoef="0" IVar="5" Cut="2.8784960508346558e-01" cType="1" res="2.8241686522960663e-02" rms="2.4623256921768188e-01" purity="5.3928130865097046e-01" nType="0">
          <Node pos="l" depth="2" NCoef="0" IVar="-1" Cut="0.0000000000000000e+00" cType="1" res="1.6160150989890099e-03" rms="2.2362001240253448e-01" purity="7.2535020112991333e-01" nType="-99"/>
          <Node pos="r" depth="2" NCoef="0" IVar="-1" Cut="0.0000000000000000e+00" cType="1" res="-1.4967343304306269e-04" rms="2.6606506109237671e-01" purity="3.2139095664024353e-01" nType="-99"/>
        </Node>
      </Node>
    </BinaryTree>
    <BinaryTree type="DecisionTree" boostWeight="1.0000000000000000e+00" itree="735">
      <Node pos="s" depth="0" NCoef="0" IVar="3" Cut="4.7709717750549316e+00" cType="1" res="1.2303608469665051e-02" rms="2.3057523369789124e-01" purity="4.9150499701499939e-01" nType="0">
        <Node pos="l" depth="1" NCoef="0" IVar="2" Cut="2.6528394222259521e+00" cType="1" res="-1.6183786094188690e-02" rms="2.2797802090644836e-01" purity="4.1066163778305054e-01" nType="0">
          <Node pos="l" depth="2" NCoef="0" IVar="-1" Cut="0.0000000000000000e+00" cType="1" res="-2.2934135049581528e-03" rms="1.6162955760955811e-01" purity="2.2874470055103302e-01" nType="-99"/>
          <Node pos="r" depth="2" NCoef="0" IVar="-1" Cut="0.0000000000000000e+00" cType="1" res="7.7433575643226504e-04" rms="2.7564570307731628e-01" purity="6.1817950010299683e-01" nType="-99"/>
        </Node>
        <Node pos="r" depth="1" NCoef="0" IVar="2" Cut="1.2908401489257812e+00" cType="1" res="4.9755439162254333e-02" rms="2.2860693931579590e-01" purity="5.9778821468353271e-01" nType="0">
          <Node pos="l" depth="2" NCoef="0" IVar="-1" Cut="0.0000000000000000e+00" cType="1" res="-7.4179614894092083e-03" rms="0.0000000000000000e+00" purity="2.5762204080820084e-02" nType="-99"/>
          <Node pos="r" depth="2" NCoef="0" IVar="-1" Cut="0.0000000000000000e+00" cType="1" res="1.5099355950951576e-03" rms="2.3761086165904999e-01" purity="6.6589468717575073e-01" nType="-99"/>
        </Node>
      </Node>
    </BinaryTree>
    <BinaryTree type="DecisionTree" boostWeight="1.0000000000000000e+00" itree="736">
      <Node pos="s" depth="0" NCoef="0" IVar="52" Cut="2.4742026329040527e+00" cType="1" res="2.2103505209088326e-02" rms="2.3679766058921814e-01" purity="5.0826853513717651e-01" nType="0">
        <Node pos="l" depth="1" NCoef="0" IVar="48" Cut="1.2013405561447144e+00" cType="1" res="-6.2314014881849289e-02" rms="1.0564067959785461e-01" purity="2.6271253824234009e-01" nType="0">
          <Node pos="l" depth="2" NCoef="0" IVar="-1" Cut="0.0000000000000000e+00" cType="1" res="-3.3498320262879133e-03" rms="0.0000000000000000e+00" purity="4.5054908841848373e-02" nType="-99"/>
          <Node pos="r" depth="2" NCoef="0" IVar="-1" Cut="0.0000000000000000e+00" cType="1" res="1.7020956147462130e-04" rms="1.9199624657630920e-01" purity="5.5688315629959106e-01" nType="-99"/>
        </Node>
        <Node pos="r" depth="1" NCoef="0" IVar="18" Cut="-8.4649515151977539e-01" cType="1" res="3.5295188426971436e-02" rms="2.4860401451587677e-01" purity="5.4664081335067749e-01" nType="0">
          <Node pos="l" depth="2" NCoef="0" IVar="-1" Cut="0.0000000000000000e+00" cType="1" res="1.0361302411183715e-03" rms="2.4772438406944275e-01" purity="5.6655102968215942e-01" nType="-99"/>
          <Node pos="r" depth="2" NCoef="0" IVar="-1" Cut="0.0000000000000000e+00" cType="1" res="-5.5682044476270676e-03" rms="2.2034235298633575e-01" purity="1.3640272617340088e-01" nType="-99"/>
        </Node>
      </Node>
    </BinaryTree>
    <BinaryTree type="DecisionTree" boostWeight="1.0000000000000000e+00" itree="737">
      <Node pos="s" depth="0" NCoef="0" IVar="14" Cut="-1.3379638195037842e+00" cType="1" res="1.7673382535576820e-02" rms="2.3338165879249573e-01" purity="4.9832165241241455e-01" nType="0">
        <Node pos="l" depth="1" NCoef="0" IVar="2" Cut="3.1814823150634766e+00" cType="1" res="-3.6183159798383713e-02" rms="1.9541200995445251e-01" purity="2.1195687353610992e-01" nType="0">
          <Node pos="l" depth="2" NCoef="0" IVar="-1" Cut="0.0000000000000000e+00" cType="1" res="-2.0965880248695612e-03" rms="1.7524059116840363e-01" purity="1.5517944097518921e-01" nType="-99"/>
          <Node pos="r" depth="2" NCoef="0" IVar="-1" Cut="0.0000000000000000e+00" cType="1" res="1.0469793342053890e-03" rms="2.6164659857749939e-01" purity="5.1087462902069092e-01" nType="-99"/>
        </Node>
        <Node pos="r" depth="1" NCoef="0" IVar="36" Cut="-1.1445388793945312e+00" cType="1" res="3.5556018352508545e-02" rms="2.4205400049686432e-01" purity="5.9340679645538330e-01" nType="0">
          <Node pos="l" depth="2" NCoef="0" IVar="-1" Cut="0.0000000000000000e+00" cType="1" res="-2.1725235506892204e-02" rms="0.0000000000000000e+00" purity="-2.9403392225503922e-02" nType="-99"/>
          <Node pos="r" depth="2" NCoef="0" IVar="-1" Cut="0.0000000000000000e+00" cType="1" res="1.0269957128912210e-03" rms="2.5511690974235535e-01" purity="6.5250957012176514e-01" nType="-99"/>
        </Node>
      </Node>
    </BinaryTree>
    <BinaryTree type="DecisionTree" boostWeight="1.0000000000000000e+00" itree="738">
      <Node pos="s" depth="0" NCoef="0" IVar="9" Cut="-6.1728394031524658e-01" cType="1" res="9.4152363017201424e-03" rms="2.3078076541423798e-01" purity="4.9243059754371643e-01" nType="0">
        <Node pos="l" depth="1" NCoef="0" IVar="-1" Cut="0.0000000000000000e+00" cType="1" res="-4.2261327616870403e-03" rms="0.0000000000000000e+00" purity="1.2596179544925690e-01" nType="-99"/>
        <Node pos="r" depth="1" NCoef="0" IVar="3" Cut="4.9526185989379883e+00" cType="1" res="1.6468299552798271e-02" rms="2.3675818741321564e-01" purity="5.0755101442337036e-01" nType="0">
          <Node pos="l" depth="2" NCoef="0" IVar="-1" Cut="0.0000000000000000e+00" cType="1" res="5.1702634664252400e-05" rms="2.3526240885257721e-01" purity="4.8066303133964539e-01" nType="-99"/>
          <Node pos="r" depth="2" NCoef="0" IVar="-1" Cut="0.0000000000000000e+00" cType="1" res="1.7130339983850718e-03" rms="2.3492895066738129e-01" purity="6.0224986076354980e-01" nType="-99"/>
        </Node>
      </Node>
    </BinaryTree>
    <BinaryTree type="DecisionTree" boostWeight="1.0000000000000000e+00" itree="739">
      <Node pos="s" depth="0" NCoef="0" IVar="18" Cut="-9.1072940826416016e-01" cType="1" res="1.4500964432954788e-02" rms="2.3688524961471558e-01" purity="4.9451184272766113e-01" nType="0">
        <Node pos="l" depth="1" NCoef="0" IVar="60" Cut="-8.4132272005081177e-01" cType="1" res="2.2623866796493530e-02" rms="2.4051710963249207e-01" purity="5.1880645751953125e-01" nType="0">
          <Node pos="l" depth="2" NCoef="0" IVar="-1" Cut="0.0000000000000000e+00" cType="1" res="7.4394780676811934e-04" rms="2.4538753926753998e-01" purity="5.4047870635986328e-01" nType="-99"/>
          <Node pos="r" depth="2" NCoef="0" IVar="-1" Cut="0.0000000000000000e+00" cType="1" res="-3.3636395819485188e-03" rms="2.8076888993382454e-02" purity="1.6018708050251007e-01" nType="-99"/>
        </Node>
        <Node pos="r" depth="1" NCoef="0" IVar="17" Cut="1.4393372535705566e+00" cType="1" res="-1.1285794526338577e-01" rms="1.0804951936006546e-01" purity="1.1359691619873047e-01" nType="0">
          <Node pos="l" depth="2" NCoef="0" IVar="-1" Cut="0.0000000000000000e+00" cType="1" res="-1.1221728287637234e-02" rms="0.0000000000000000e+00" purity="-1.4660725137218833e-03" nType="-99"/>
          <Node pos="r" depth="2" NCoef="0" IVar="-1" Cut="0.0000000000000000e+00" cType="1" res="-5.4693431593477726e-03" rms="1.2607753276824951e-01" purity="2.6816782355308533e-01" nType="-99"/>
        </Node>
      </Node>
    </BinaryTree>
    <BinaryTree type="DecisionTree" boostWeight="1.0000000000000000e+00" itree="740">
      <Node pos="s" depth="0" NCoef="0" IVar="2" Cut="1.3927508592605591e+00" cType="1" res="1.3179598376154900e-02" rms="2.1966099739074707e-01" purity="5.0952386856079102e-01" nType="0">
        <Node pos="l" depth="1" NCoef="0" IVar="4" Cut="3.8038823604583740e+00" cType="1" res="-9.2955008149147034e-03" rms="0.0000000000000000e+00" purity="1.6935074701905251e-02" nType="-99"/>
        <Node pos="r" depth="1" NCoef="0" IVar="0" Cut="6.8552935123443604e-01" cType="1" res="2.3395305499434471e-02" rms="2.2617889940738678e-01" purity="5.4926747083663940e-01" nType="0">
          <Node pos="l" depth="2" NCoef="0" IVar="-1" Cut="0.0000000000000000e+00" cType="1" res="1.0976598132401705e-03" rms="2.3540608584880829e-01" purity="6.1634635925292969e-01" nType="-99"/>
          <Node pos="r" depth="2" NCoef="0" IVar="-1" Cut="0.0000000000000000e+00" cType="1" res="-4.1315585258416831e-04" rms="2.0365814864635468e-01" purity="4.3663468956947327e-01" nType="-99"/>
        </Node>
      </Node>
    </BinaryTree>
    <BinaryTree type="DecisionTree" boostWeight="1.0000000000000000e+00" itree="741">
      <Node pos="s" depth="0" NCoef="0" IVar="3" Cut="4.3253355026245117e+00" cType="1" res="1.4600799418985844e-02" rms="2.3668411374092102e-01" purity="4.9466091394424438e-01" nType="0">
        <Node pos="l" depth="1" NCoef="0" IVar="17" Cut="1.4317095279693604e+00" cType="1" res="-1.2377963960170746e-01" rms="2.1275289356708527e-01" purity="5.2954580634832382e-02" nType="0">
          <Node pos="l" depth="2" NCoef="0" IVar="-1" Cut="0.0000000000000000e+00" cType="1" res="-1.2247581034898758e-02" rms="0.0000000000000000e+00" purity="-5.9255049563944340e-03" nType="-99"/>
          <Node pos="r" depth="2" NCoef="0" IVar="-1" Cut="0.0000000000000000e+00" cType="1" res="-4.3696714565157890e-03" rms="3.0289876461029053e-01" purity="1.2485358864068985e-01" nType="-99"/>
        </Node>
        <Node pos="r" depth="1" NCoef="0" IVar="52" Cut="2.4742026329040527e+00" cType="1" res="2.1873917430639267e-02" rms="2.3563809692859650e-01" purity="5.1787644624710083e-01" nType="0">
          <Node pos="l" depth="2" NCoef="0" IVar="-1" Cut="0.0000000000000000e+00" cType="1" res="-1.6259178519248962e-03" rms="1.2993964552879333e-01" purity="2.6453158259391785e-01" nType="-99"/>
          <Node pos="r" depth="2" NCoef="0" IVar="-1" Cut="0.0000000000000000e+00" cType="1" res="8.6746976012364030e-04" rms="2.4514836072921753e-01" purity="5.5554854869842529e-01" nType="-99"/>
        </Node>
      </Node>
    </BinaryTree>
    <BinaryTree type="DecisionTree" boostWeight="1.0000000000000000e+00" itree="742">
      <Node pos="s" depth="0" NCoef="0" IVar="25" Cut="9.5322132110595703e-01" cType="1" res="1.8205666914582253e-02" rms="2.4394555389881134e-01" purity="4.9897542595863342e-01" nType="0">
        <Node pos="l" depth="1" NCoef="0" IVar="17" Cut="1.3278695344924927e+00" cType="1" res="5.0877846777439117e-02" rms="2.5933453440666199e-01" purity="5.6723862886428833e-01" nType="0">
          <Node pos="l" depth="2" NCoef="0" IVar="-1" Cut="0.0000000000000000e+00" cType="1" res="-5.4058842360973358e-03" rms="0.0000000000000000e+00" purity="1.6673647332936525e-03" nType="-99"/>
          <Node pos="r" depth="2" NCoef="0" IVar="-1" Cut="0.0000000000000000e+00" cType="1" res="1.2922650203108788e-03" rms="2.9668486118316650e-01" purity="7.5001847743988037e-01" nType="-99"/>
        </Node>
        <Node pos="r" depth="1" NCoef="0" IVar="5" Cut="3.0471518635749817e-01" cType="1" res="-1.2705823406577110e-02" rms="2.2409009933471680e-01" purity="4.3439087271690369e-01" nType="0">
          <Node pos="l" depth="2" NCoef="0" IVar="-1" Cut="0.0000000000000000e+00" cType="1" res="5.1711371634155512e-04" rms="1.9629821181297302e-01" purity="6.1332470178604126e-01" nType="-99"/>
          <Node pos="r" depth="2" NCoef="0" IVar="-1" Cut="0.0000000000000000e+00" cType="1" res="-1.5551861142739654e-03" rms="2.5229123234748840e-01" purity="1.8531328439712524e-01" nType="-99"/>
        </Node>
      </Node>
    </BinaryTree>
    <BinaryTree type="DecisionTree" boostWeight="1.0000000000000000e+00" itree="743">
      <Node pos="s" depth="0" NCoef="0" IVar="3" Cut="4.9840393066406250e+00" cType="1" res="2.0151801407337189e-02" rms="2.3490718007087708e-01" purity="5.1396864652633667e-01" nType="0">
        <Node pos="l" depth="1" NCoef="0" IVar="2" Cut="2.6125419139862061e+00" cType="1" res="2.1374912466853857e-03" rms="2.2944597899913788e-01" purity="4.8596793413162231e-01" nType="0">
          <Node pos="l" depth="2" NCoef="0" IVar="-1" Cut="0.0000000000000000e+00" cType="1" res="-1.1380159994587302e-03" rms="1.8373684585094452e-01" purity="3.2165548205375671e-01" nType="-99"/>
          <Node pos="r" depth="2" NCoef="0" IVar="-1" Cut="0.0000000000000000e+00" cType="1" res="9.3720376025885344e-04" rms="2.6349401473999023e-01" purity="6.6075968742370605e-01" nType="-99"/>
        </Node>
        <Node pos="r" depth="1" NCoef="0" IVar="17" Cut="-1.2220289707183838e+00" cType="1" res="8.7451621890068054e-02" rms="2.4272151291370392e-01" purity="6.1857694387435913e-01" nType="0">
          <Node pos="l" depth="2" NCoef="0" IVar="-1" Cut="0.0000000000000000e+00" cType="1" res="-3.9856851100921631e-02" rms="0.0000000000000000e+00" purity="-5.0691742449998856e-02" nType="-99"/>
          <Node pos="r" depth="2" NCoef="0" IVar="-1" Cut="0.0000000000000000e+00" cType="1" res="2.3563907016068697e-03" rms="2.7034604549407959e-01" purity="7.3327416181564331e-01" nType="-99"/>
        </Node>
      </Node>
    </BinaryTree>
    <BinaryTree type="DecisionTree" boostWeight="1.0000000000000000e+00" itree="744">
      <Node pos="s" depth="0" NCoef="0" IVar="52" Cut="2.4215178489685059e+00" cType="1" res="1.2769131921231747e-02" rms="2.3656627535820007e-01" purity="4.9589651823043823e-01" nType="0">
        <Node pos="l" depth="1" NCoef="0" IVar="48" Cut="1.2597160339355469e+00" cType="1" res="-9.2223919928073883e-02" rms="5.3547598421573639e-02" purity="1.9926510751247406e-01" nType="0">
          <Node pos="l" depth="2" NCoef="0" IVar="-1" Cut="0.0000000000000000e+00" cType="1" res="-5.8050146326422691e-03" rms="0.0000000000000000e+00" purity="-2.1414745599031448e-02" nType="-99"/>
          <Node pos="r" depth="2" NCoef="0" IVar="-1" Cut="0.0000000000000000e+00" cType="1" res="4.8417330253869295e-04" rms="2.3519147932529449e-01" purity="5.6843906641006470e-01" nType="-99"/>
        </Node>
        <Node pos="r" depth="1" NCoef="0" IVar="68" Cut="1.2345679104328156e-02" cType="1" res="2.4775031954050064e-02" rms="2.4623252451419830e-01" purity="5.2981615066528320e-01" nType="0">
          <Node pos="l" depth="2" NCoef="0" IVar="-1" Cut="0.0000000000000000e+00" cType="1" res="8.2348345313221216e-04" rms="2.4587233364582062e-01" purity="5.4615116119384766e-01" nType="-99"/>
          <Node pos="r" depth="2" NCoef="0" IVar="-1" Cut="0.0000000000000000e+00" cType="1" res="-4.4710226356983185e-03" rms="1.8146605789661407e-01" purity="1.7282892763614655e-01" nType="-99"/>
        </Node>
      </Node>
    </BinaryTree>
    <BinaryTree type="DecisionTree" boostWeight="1.0000000000000000e+00" itree="745">
      <Node pos="s" depth="0" NCoef="0" IVar="0" Cut="5.7834547758102417e-01" cType="1" res="1.3900623656809330e-02" rms="2.2956700623035431e-01" purity="5.0525742769241333e-01" nType="0">
        <Node pos="l" depth="1" NCoef="0" IVar="3" Cut="5.2775888442993164e+00" cType="1" res="4.3800640851259232e-02" rms="2.4917231500148773e-01" purity="5.7201200723648071e-01" nType="0">
          <Node pos="l" depth="2" NCoef="0" IVar="-1" Cut="0.0000000000000000e+00" cType="1" res="8.8971632067114115e-04" rms="2.4164265394210815e-01" purity="5.7489114999771118e-01" nType="-99"/>
          <Node pos="r" depth="2" NCoef="0" IVar="-1" Cut="0.0000000000000000e+00" cType="1" res="4.5954175293445587e-03" rms="3.3448970317840576e-01" purity="5.1218342781066895e-01" nType="-99"/>
        </Node>
        <Node pos="r" depth="1" NCoef="0" IVar="48" Cut="9.5622384548187256e-01" cType="1" res="-1.8017221242189407e-02" rms="2.0176388323307037e-01" purity="4.3399795889854431e-01" nType="0">
          <Node pos="l" depth="2" NCoef="0" IVar="-1" Cut="0.0000000000000000e+00" cType="1" res="-3.9520771242678165e-03" rms="0.0000000000000000e+00" purity="-5.8604096993803978e-03" nType="-99"/>
          <Node pos="r" depth="2" NCoef="0" IVar="-1" Cut="0.0000000000000000e+00" cType="1" res="-3.3648673706920817e-05" rms="2.2392675280570984e-01" purity="5.0022864341735840e-01" nType="-99"/>
        </Node>
      </Node>
    </BinaryTree>
    <BinaryTree type="DecisionTree" boostWeight="1.0000000000000000e+00" itree="746">
      <Node pos="s" depth="0" NCoef="0" IVar="60" Cut="-9.2855894565582275e-01" cType="1" res="2.3540101945400238e-02" rms="2.4217012524604797e-01" purity="5.1160627603530884e-01" nType="0">
        <Node pos="l" depth="1" NCoef="0" IVar="8" Cut="-1.1634787321090698e+00" cType="1" res="3.4605089575052261e-02" rms="2.5001022219657898e-01" purity="5.4002630710601807e-01" nType="0">
          <Node pos="l" depth="2" NCoef="0" IVar="-1" Cut="0.0000000000000000e+00" cType="1" res="1.0047807591035962e-03" rms="2.5091284513473511e-01" purity="5.6338739395141602e-01" nType="-99"/>
          <Node pos="r" depth="2" NCoef="0" IVar="-1" Cut="0.0000000000000000e+00" cType="1" res="-5.3432313725352287e-03" rms="1.6700094938278198e-01" purity="2.1400723606348038e-02" nType="-99"/>
        </Node>
        <Node pos="r" depth="1" NCoef="0" IVar="67" Cut="9.0172004699707031e-01" cType="1" res="-4.1265119798481464e-03" rms="0.0000000000000000e+00" purity="1.7981415987014771e-01" nType="-99"/>
      </Node>
    </BinaryTree>
    <BinaryTree type="DecisionTree" boostWeight="1.0000000000000000e+00" itree="747">
      <Node pos="s" depth="0" NCoef="0" IVar="15" Cut="1.5219346284866333e+00" cType="1" res="2.7369383722543716e-02" rms="2.4454556405544281e-01" purity="5.1171368360519409e-01" nType="0">
        <Node pos="l" depth="1" NCoef="0" IVar="18" Cut="-9.4939154386520386e-01" cType="1" res="3.8824539631605148e-02" rms="2.2953434288501740e-01" purity="5.1296991109848022e-01" nType="0">
          <Node pos="l" depth="2" NCoef="0" IVar="-1" Cut="0.0000000000000000e+00" cType="1" res="1.2189906556159258e-03" rms="2.3033145070075989e-01" purity="5.4106813669204712e-01" nType="-99"/>
          <Node pos="r" depth="2" NCoef="0" IVar="-1" Cut="0.0000000000000000e+00" cType="1" res="-3.8219299167394638e-03" rms="1.8590793013572693e-01" purity="1.3287234306335449e-01" nType="-99"/>
        </Node>
        <Node pos="r" depth="1" NCoef="0" IVar="5" Cut="3.8499310612678528e-01" cType="1" res="-5.9258151799440384e-02" rms="3.2422718405723572e-01" purity="5.0221395492553711e-01" nType="0">
          <Node pos="l" depth="2" NCoef="0" IVar="-1" Cut="0.0000000000000000e+00" cType="1" res="1.6768998466432095e-04" rms="2.6943919062614441e-01" purity="5.9591180086135864e-01" nType="-99"/>
          <Node pos="r" depth="2" NCoef="0" IVar="-1" Cut="0.0000000000000000e+00" cType="1" res="-3.2509479206055403e-03" rms="3.7978965044021606e-01" purity="3.0577802658081055e-01" nType="-99"/>
        </Node>
      </Node>
    </BinaryTree>
    <BinaryTree type="DecisionTree" boostWeight="1.0000000000000000e+00" itree="748">
      <Node pos="s" depth="0" NCoef="0" IVar="52" Cut="2.3089005947113037e+00" cType="1" res="1.9574357196688652e-02" rms="2.4008050560951233e-01" purity="5.0244742631912231e-01" nType="0">
        <Node pos="l" depth="1" NCoef="0" IVar="5" Cut="2.9401329159736633e-01" cType="1" res="-3.5652930382639170e-03" rms="0.0000000000000000e+00" purity="1.3851436972618103e-01" nType="-99"/>
        <Node pos="r" depth="1" NCoef="0" IVar="2" Cut="2.3688724040985107e+00" cType="1" res="2.8270307928323746e-02" rms="2.4714808166027069e-01" purity="5.2582633495330811e-01" nType="0">
          <Node pos="l" depth="2" NCoef="0" IVar="-1" Cut="0.0000000000000000e+00" cType="1" res="-3.4064051578752697e-04" rms="2.3439064621925354e-01" purity="3.1684219837188721e-01" nType="-99"/>
          <Node pos="r" depth="2" NCoef="0" IVar="-1" Cut="0.0000000000000000e+00" cType="1" res="1.1710386024788022e-03" rms="2.5220957398414612e-01" purity="6.7074567079544067e-01" nType="-99"/>
        </Node>
      </Node>
    </BinaryTree>
    <BinaryTree type="DecisionTree" boostWeight="1.0000000000000000e+00" itree="749">
      <Node pos="s" depth="0" NCoef="0" IVar="52" Cut="2.4367394447326660e+00" cType="1" res="1.5426532365381718e-02" rms="2.2844949364662170e-01" purity="4.9978330731391907e-01" nType="0">
        <Node pos="l" depth="1" NCoef="0" IVar="67" Cut="8.9247816801071167e-01" cType="1" res="-8.2242503762245178e-02" rms="9.6409656107425690e-02" purity="1.8697248399257660e-01" nType="0">
          <Node pos="l" depth="2" NCoef="0" IVar="-1" Cut="0.0000000000000000e+00" cType="1" res="-4.9677044153213501e-03" rms="0.0000000000000000e+00" purity="3.8532838225364685e-02" nType="-99"/>
          <Node pos="r" depth="2" NCoef="0" IVar="-1" Cut="0.0000000000000000e+00" cType="1" res="-1.4485304709523916e-03" rms="1.9138225913047791e-01" purity="2.2445411980152130e-01" nType="-99"/>
        </Node>
        <Node pos="r" depth="1" NCoef="0" IVar="18" Cut="-1.1027734279632568e+00" cType="1" res="2.7592590078711510e-02" rms="2.3705697059631348e-01" purity="5.3874832391738892e-01" nType="0">
          <Node pos="l" depth="2" NCoef="0" IVar="-1" Cut="0.0000000000000000e+00" cType="1" res="9.4073655782267451e-04" rms="2.3839768767356873e-01" purity="5.7259333133697510e-01" nType="-99"/>
          <Node pos="r" depth="2" NCoef="0" IVar="-1" Cut="0.0000000000000000e+00" cType="1" res="-2.5263668503612280e-03" rms="2.0230922102928162e-01" purity="2.4479864537715912e-01" nType="-99"/>
        </Node>
      </Node>
    </BinaryTree>
    <BinaryTree type="DecisionTree" boostWeight="1.0000000000000000e+00" itree="750">
      <Node pos="s" depth="0" NCoef="0" IVar="6" Cut="1.1487928628921509e+00" cType="1" res="2.1677454933524132e-02" rms="2.3052358627319336e-01" purity="5.0878012180328369e-01" nType="0">
        <Node pos="l" depth="1" NCoef="0" IVar="3" Cut="4.7940397262573242e+00" cType="1" res="-3.3957543782889843e-03" rms="0.0000000000000000e+00" purity="1.0304357111454010e-01" nType="-99"/>
        <Node pos="r" depth="1" NCoef="0" IVar="17" Cut="1.0978386402130127e+00" cType="1" res="3.2832644879817963e-02" rms="2.4192376434803009e-01" purity="5.4925274848937988e-01" nType="0">
          <Node pos="l" depth="2" NCoef="0" IVar="-1" Cut="0.0000000000000000e+00" cType="1" res="-1.3332566246390343e-02" rms="0.0000000000000000e+00" purity="-4.2913742363452911e-03" nType="-99"/>
          <Node pos="r" depth="2" NCoef="0" IVar="-1" Cut="0.0000000000000000e+00" cType="1" res="9.1553304810076952e-04" rms="2.7471223473548889e-01" purity="7.0470923185348511e-01" nType="-99"/>
        </Node>
      </Node>
    </BinaryTree>
    <BinaryTree type="DecisionTree" boostWeight="1.0000000000000000e+00" itree="751">
      <Node pos="s" depth="0" NCoef="0" IVar="18" Cut="-9.7459387779235840e-01" cType="1" res="1.7208686098456383e-02" rms="2.3991473019123077e-01" purity="4.9835944175720215e-01" nType="0">
        <Node pos="l" depth="1" NCoef="0" IVar="3" Cut="4.7605395317077637e+00" cType="1" res="2.6014812290668488e-02" rms="2.4144507944583893e-01" purity="5.2654027938842773e-01" nType="0">
          <Node pos="l" depth="2" NCoef="0" IVar="-1" Cut="0.0000000000000000e+00" cType="1" res="-6.5717867983039469e-05" rms="2.3850396275520325e-01" purity="4.4196999073028564e-01" nType="-99"/>
          <Node pos="r" depth="2" NCoef="0" IVar="-1" Cut="0.0000000000000000e+00" cType="1" res="1.4603370800614357e-03" rms="2.4046599864959717e-01" purity="6.2821120023727417e-01" nType="-99"/>
        </Node>
        <Node pos="r" depth="1" NCoef="0" IVar="17" Cut="1.4393372535705566e+00" cType="1" res="-9.4328582286834717e-02" rms="1.8656368553638458e-01" purity="1.4142429828643799e-01" nType="0">
          <Node pos="l" depth="2" NCoef="0" IVar="-1" Cut="0.0000000000000000e+00" cType="1" res="-1.1360758915543556e-02" rms="0.0000000000000000e+00" purity="-3.3296793699264526e-03" nType="-99"/>
          <Node pos="r" depth="2" NCoef="0" IVar="-1" Cut="0.0000000000000000e+00" cType="1" res="-4.1159423999488354e-03" rms="2.7488178014755249e-01" purity="3.1737777590751648e-01" nType="-99"/>
        </Node>
      </Node>
    </BinaryTree>
    <BinaryTree type="DecisionTree" boostWeight="1.0000000000000000e+00" itree="752">
      <Node pos="s" depth="0" NCoef="0" IVar="17" Cut="1.5220416784286499e+00" cType="1" res="1.4614998362958431e-02" rms="2.2626037895679474e-01" purity="4.9694654345512390e-01" nType="0">
        <Node pos="l" depth="1" NCoef="0" IVar="48" Cut="1.7792396545410156e+00" cType="1" res="-1.2626812793314457e-02" rms="2.2485738992691040e-01" purity="2.5416222214698792e-01" nType="0">
          <Node pos="l" depth="2" NCoef="0" IVar="-1" Cut="0.0000000000000000e+00" cType="1" res="-2.1928246133029461e-03" rms="1.3097852468490601e-01" purity="8.5824988782405853e-02" nType="-99"/>
          <Node pos="r" depth="2" NCoef="0" IVar="-1" Cut="0.0000000000000000e+00" cType="1" res="3.4178569330833852e-04" rms="2.6139092445373535e-01" purity="3.5299971699714661e-01" nType="-99"/>
        </Node>
        <Node pos="r" depth="1" NCoef="0" IVar="2" Cut="1.6166206598281860e+00" cType="1" res="5.7374216616153717e-02" rms="2.2179722785949707e-01" purity="8.7802499532699585e-01" nType="0">
          <Node pos="l" depth="2" NCoef="0" IVar="-1" Cut="0.0000000000000000e+00" cType="1" res="-2.0441242959350348e-03" rms="2.7447202801704407e-01" purity="4.6636271476745605e-01" nType="-99"/>
          <Node pos="r" depth="2" NCoef="0" IVar="-1" Cut="0.0000000000000000e+00" cType="1" res="1.4341729693114758e-03" rms="2.1526587009429932e-01" purity="9.0126174688339233e-01" nType="-99"/>
        </Node>
      </Node>
    </BinaryTree>
    <BinaryTree type="DecisionTree" boostWeight="1.0000000000000000e+00" itree="753">
      <Node pos="s" depth="0" NCoef="0" IVar="5" Cut="4.3599802255630493e-01" cType="1" res="1.2244291603565216e-02" rms="2.3504546284675598e-01" purity="4.8836621642112732e-01" nType="0">
        <Node pos="l" depth="1" NCoef="0" IVar="31" Cut="2.6300613880157471e+00" cType="1" res="3.2687354832887650e-02" rms="2.2514565289020538e-01" purity="5.9643363952636719e-01" nType="0">
          <Node pos="l" depth="2" NCoef="0" IVar="-1" Cut="0.0000000000000000e+00" cType="1" res="-2.5935221929103136e-03" rms="1.8687523901462555e-01" purity="1.6011397540569305e-01" nType="-99"/>
          <Node pos="r" depth="2" NCoef="0" IVar="-1" Cut="0.0000000000000000e+00" cType="1" res="1.0967411799356341e-03" rms="2.2820526361465454e-01" purity="6.6894227266311646e-01" nType="-99"/>
        </Node>
        <Node pos="r" depth="1" NCoef="0" IVar="17" Cut="1.3654532432556152e+00" cType="1" res="-4.8342835158109665e-02" rms="2.5266388058662415e-01" purity="1.6808661818504333e-01" nType="0">
          <Node pos="l" depth="2" NCoef="0" IVar="-1" Cut="0.0000000000000000e+00" cType="1" res="3.0328794382512569e-03" rms="1.2568676471710205e-01" purity="1.8417930230498314e-02" nType="-99"/>
          <Node pos="r" depth="2" NCoef="0" IVar="-1" Cut="0.0000000000000000e+00" cType="1" res="-1.3725330354645848e-03" rms="3.2876920700073242e-01" purity="3.2461103796958923e-01" nType="-99"/>
        </Node>
      </Node>
    </BinaryTree>
    <BinaryTree type="DecisionTree" boostWeight="1.0000000000000000e+00" itree="754">
      <Node pos="s" depth="0" NCoef="0" IVar="57" Cut="-1.2263998985290527e+00" cType="1" res="1.5598172321915627e-02" rms="2.4033048748970032e-01" purity="4.9090594053268433e-01" nType="0">
        <Node pos="l" depth="1" NCoef="0" IVar="3" Cut="5.2005720138549805e+00" cType="1" res="3.7471655756235123e-02" rms="2.5825461745262146e-01" purity="5.6039589643478394e-01" nType="0">
          <Node pos="l" depth="2" NCoef="0" IVar="-1" Cut="0.0000000000000000e+00" cType="1" res="7.2733755223453045e-04" rms="2.5436151027679443e-01" purity="5.5770695209503174e-01" nType="-99"/>
          <Node pos="r" depth="2" NCoef="0" IVar="-1" Cut="0.0000000000000000e+00" cType="1" res="3.3068994525820017e-03" rms="2.8426846861839294e-01" purity="6.0012871026992798e-01" nType="-99"/>
        </Node>
        <Node pos="r" depth="1" NCoef="0" IVar="6" Cut="1.3788435459136963e+00" cType="1" res="-2.7947770431637764e-02" rms="1.9266219437122345e-01" purity="3.5256466269493103e-01" nType="0">
          <Node pos="l" depth="2" NCoef="0" IVar="-1" Cut="0.0000000000000000e+00" cType="1" res="-7.7751148492097855e-03" rms="0.0000000000000000e+00" purity="-2.6975512504577637e-02" nType="-99"/>
          <Node pos="r" depth="2" NCoef="0" IVar="-1" Cut="0.0000000000000000e+00" cType="1" res="-2.0970500190742314e-04" rms="2.1246671676635742e-01" purity="4.2078980803489685e-01" nType="-99"/>
        </Node>
      </Node>
    </BinaryTree>
    <BinaryTree type="DecisionTree" boostWeight="1.0000000000000000e+00" itree="755">
      <Node pos="s" depth="0" NCoef="0" IVar="3" Cut="5.1563444137573242e+00" cType="1" res="1.6235241666436195e-02" rms="2.3491166532039642e-01" purity="5.0029563903808594e-01" nType="0">
        <Node pos="l" depth="1" NCoef="0" IVar="2" Cut="2.3159492015838623e+00" cType="1" res="6.1653992161154747e-03" rms="2.2821484506130219e-01" purity="4.9998942017555237e-01" nType="0">
          <Node pos="l" depth="2" NCoef="0" IVar="-1" Cut="0.0000000000000000e+00" cType="1" res="-1.3227905146777630e-03" rms="1.8930812180042267e-01" purity="2.6280218362808228e-01" nType="-99"/>
          <Node pos="r" depth="2" NCoef="0" IVar="-1" Cut="0.0000000000000000e+00" cType="1" res="6.8532099248841405e-04" rms="2.4422293901443481e-01" purity="6.3402813673019409e-01" nType="-99"/>
        </Node>
        <Node pos="r" depth="1" NCoef="0" IVar="17" Cut="1.0527793169021606e+00" cType="1" res="1.2626188993453979e-01" rms="2.7542233467102051e-01" purity="5.0364184379577637e-01" nType="0">
          <Node pos="l" depth="2" NCoef="0" IVar="-1" Cut="0.0000000000000000e+00" cType="1" res="-2.1541273221373558e-02" rms="0.0000000000000000e+00" purity="-5.5017203092575073e-02" nType="-99"/>
          <Node pos="r" depth="2" NCoef="0" IVar="-1" Cut="0.0000000000000000e+00" cType="1" res="3.4526430536061525e-03" rms="3.3224961161613464e-01" purity="7.8701168298721313e-01" nType="-99"/>
        </Node>
      </Node>
    </BinaryTree>
    <BinaryTree type="DecisionTree" boostWeight="1.0000000000000000e+00" itree="756">
      <Node pos="s" depth="0" NCoef="0" IVar="17" Cut="1.5216873884201050e+00" cType="1" res="1.5301843173801899e-02" rms="2.4331371486186981e-01" purity="4.9554061889648438e-01" nType="0">
        <Node pos="l" depth="1" NCoef="0" IVar="15" Cut="1.4813518524169922e+00" cType="1" res="-9.3449242413043976e-03" rms="2.3997062444686890e-01" purity="2.4863891303539276e-01" nType="0">
          <Node pos="l" depth="2" NCoef="0" IVar="-1" Cut="0.0000000000000000e+00" cType="1" res="2.1100483718328178e-04" rms="2.1338847279548645e-01" purity="2.4071682989597321e-01" nType="-99"/>
          <Node pos="r" depth="2" NCoef="0" IVar="-1" Cut="0.0000000000000000e+00" cType="1" res="-1.5086871571838856e-03" rms="3.3158785104751587e-01" purity="2.8771990537643433e-01" nType="-99"/>
        </Node>
        <Node pos="r" depth="1" NCoef="0" IVar="38" Cut="-1.1455781459808350e+00" cType="1" res="5.2412915974855423e-02" rms="2.4360296130180359e-01" purity="8.6730486154556274e-01" nType="0">
          <Node pos="l" depth="2" NCoef="0" IVar="-1" Cut="0.0000000000000000e+00" cType="1" res="2.4069680366665125e-03" rms="2.7152374386787415e-01" purity="8.4060800075531006e-01" nType="-99"/>
          <Node pos="r" depth="2" NCoef="0" IVar="-1" Cut="0.0000000000000000e+00" cType="1" res="8.1447436241433024e-04" rms="2.3462864756584167e-01" purity="8.7264794111251831e-01" nType="-99"/>
        </Node>
      </Node>
    </BinaryTree>
    <BinaryTree type="DecisionTree" boostWeight="1.0000000000000000e+00" itree="757">
      <Node pos="s" depth="0" NCoef="0" IVar="15" Cut="1.5225218534469604e+00" cType="1" res="1.8115548416972160e-02" rms="2.3567228019237518e-01" purity="5.0392007827758789e-01" nType="0">
        <Node pos="l" depth="1" NCoef="0" IVar="10" Cut="2.9335160255432129e+00" cType="1" res="2.9533745720982552e-02" rms="2.2158268094062805e-01" purity="5.1100713014602661e-01" nType="0">
          <Node pos="l" depth="2" NCoef="0" IVar="-1" Cut="0.0000000000000000e+00" cType="1" res="-1.3903398066759109e-03" rms="1.9858010113239288e-01" purity="1.5996995568275452e-01" nType="-99"/>
          <Node pos="r" depth="2" NCoef="0" IVar="-1" Cut="0.0000000000000000e+00" cType="1" res="1.2274329783394933e-03" rms="2.2338967025279999e-01" purity="6.0077589750289917e-01" nType="-99"/>
        </Node>
        <Node pos="r" depth="1" NCoef="0" IVar="58" Cut="-7.6095646619796753e-01" cType="1" res="-7.8400649130344391e-02" rms="3.1556576490402222e-01" purity="4.4401407241821289e-01" nType="0">
          <Node pos="l" depth="2" NCoef="0" IVar="-1" Cut="0.0000000000000000e+00" cType="1" res="-2.8995505999773741e-04" rms="3.1008851528167725e-01" purity="5.5636775493621826e-01" nType="-99"/>
          <Node pos="r" depth="2" NCoef="0" IVar="-1" Cut="0.0000000000000000e+00" cType="1" res="-5.5644381791353226e-03" rms="2.7599203586578369e-01" purity="1.7704048752784729e-01" nType="-99"/>
        </Node>
      </Node>
    </BinaryTree>
    <BinaryTree type="DecisionTree" boostWeight="1.0000000000000000e+00" itree="758">
      <Node pos="s" depth="0" NCoef="0" IVar="5" Cut="3.3902129530906677e-01" cType="1" res="1.0945239104330540e-02" rms="2.2331249713897705e-01" purity="4.9832996726036072e-01" nType="0">
        <Node pos="l" depth="1" NCoef="0" IVar="27" Cut="1.7520627975463867e+00" cType="1" res="3.4758836030960083e-02" rms="1.9823446869850159e-01" purity="6.4788097143173218e-01" nType="0">
          <Node pos="l" depth="2" NCoef="0" IVar="-1" Cut="0.0000000000000000e+00" cType="1" res="-8.6984218796715140e-04" rms="1.8693110346794128e-01" purity="3.1348350644111633e-01" nType="-99"/>
          <Node pos="r" depth="2" NCoef="0" IVar="-1" Cut="0.0000000000000000e+00" cType="1" res="1.5173802385106683e-03" rms="1.9764065742492676e-01" purity="7.8660631179809570e-01" nType="-99"/>
        </Node>
        <Node pos="r" depth="1" NCoef="0" IVar="34" Cut="-1.4540729522705078e+00" cType="1" res="-2.9596593230962753e-02" rms="2.5545474886894226e-01" purity="2.4372458457946777e-01" nType="0">
          <Node pos="l" depth="2" NCoef="0" IVar="-1" Cut="0.0000000000000000e+00" cType="1" res="2.3887981660664082e-03" rms="2.8967332839965820e-01" purity="4.6564814448356628e-01" nType="-99"/>
          <Node pos="r" depth="2" NCoef="0" IVar="-1" Cut="0.0000000000000000e+00" cType="1" res="-1.1208110954612494e-03" rms="2.4483847618103027e-01" purity="2.1505455672740936e-01" nType="-99"/>
        </Node>
      </Node>
    </BinaryTree>
    <BinaryTree type="DecisionTree" boostWeight="1.0000000000000000e+00" itree="759">
      <Node pos="s" depth="0" NCoef="0" IVar="44" Cut="1.2345679104328156e-02" cType="1" res="2.0740950480103493e-02" rms="2.3958934843540192e-01" purity="5.0498878955841064e-01" nType="0">
        <Node pos="l" depth="1" NCoef="0" IVar="27" Cut="3.0113711357116699e+00" cType="1" res="-2.9071534052491188e-02" rms="2.1063894033432007e-01" purity="3.6895433068275452e-01" nType="0">
          <Node pos="l" depth="2" NCoef="0" IVar="-1" Cut="0.0000000000000000e+00" cType="1" res="-2.1660195197910070e-03" rms="1.9330804049968719e-01" purity="2.6151773333549500e-01" nType="-99"/>
          <Node pos="r" depth="2" NCoef="0" IVar="-1" Cut="0.0000000000000000e+00" cType="1" res="1.2266600970178843e-03" rms="2.3785910010337830e-01" purity="7.2244930267333984e-01" nType="-99"/>
        </Node>
        <Node pos="r" depth="1" NCoef="0" IVar="15" Cut="1.5225218534469604e+00" cType="1" res="3.9810337126255035e-02" rms="2.4714237451553345e-01" purity="5.5706590414047241e-01" nType="0">
          <Node pos="l" depth="2" NCoef="0" IVar="-1" Cut="0.0000000000000000e+00" cType="1" res="1.2812734348699450e-03" rms="2.3636202514171600e-01" purity="5.6569731235504150e-01" nType="-99"/>
          <Node pos="r" depth="2" NCoef="0" IVar="-1" Cut="0.0000000000000000e+00" cType="1" res="-1.3488292461261153e-03" rms="3.1576886773109436e-01" purity="4.6967002749443054e-01" nType="-99"/>
        </Node>
      </Node>
    </BinaryTree>
    <BinaryTree type="DecisionTree" boostWeight="1.0000000000000000e+00" itree="760">
      <Node pos="s" depth="0" NCoef="0" IVar="5" Cut="2.8308928012847900e-01" cType="1" res="1.7050065100193024e-02" rms="2.4249917268753052e-01" purity="4.8841276764869690e-01" nType="0">
        <Node pos="l" depth="1" NCoef="0" IVar="3" Cut="4.8958067893981934e+00" cType="1" res="4.6707589179277420e-02" rms="2.2112686932086945e-01" purity="6.5704786777496338e-01" nType="0">
          <Node pos="l" depth="2" NCoef="0" IVar="-1" Cut="0.0000000000000000e+00" cType="1" res="6.0189113719388843e-04" rms="2.0552350580692291e-01" purity="6.1987262964248657e-01" nType="-99"/>
          <Node pos="r" depth="2" NCoef="0" IVar="-1" Cut="0.0000000000000000e+00" cType="1" res="2.5728100445121527e-03" rms="2.4148839712142944e-01" purity="7.3533898591995239e-01" nType="-99"/>
        </Node>
        <Node pos="r" depth="1" NCoef="0" IVar="56" Cut="-1.2225580215454102e+00" cType="1" res="-2.0182782784104347e-02" rms="2.6221185922622681e-01" purity="2.7670374512672424e-01" nType="0">
          <Node pos="l" depth="2" NCoef="0" IVar="-1" Cut="0.0000000000000000e+00" cType="1" res="4.9174891319125891e-04" rms="3.0299687385559082e-01" purity="3.5275855660438538e-01" nType="-99"/>
          <Node pos="r" depth="2" NCoef="0" IVar="-1" Cut="0.0000000000000000e+00" cType="1" res="-3.1274459324777126e-03" rms="1.2396042048931122e-01" purity="1.3394044339656830e-01" nType="-99"/>
        </Node>
      </Node>
    </BinaryTree>
    <BinaryTree type="DecisionTree" boostWeight="1.0000000000000000e+00" itree="761">
      <Node pos="s" depth="0" NCoef="0" IVar="3" Cut="4.7556395530700684e+00" cType="1" res="2.2680243477225304e-02" rms="2.4853008985519409e-01" purity="5.0272864103317261e-01" nType="0">
        <Node pos="l" depth="1" NCoef="0" IVar="2" Cut="2.7289292812347412e+00" cType="1" res="-7.7586425468325615e-03" rms="2.4082691967487335e-01" purity="4.0873432159423828e-01" nType="0">
          <Node pos="l" depth="2" NCoef="0" IVar="-1" Cut="0.0000000000000000e+00" cType="1" res="-1.4415141195058823e-03" rms="2.0443083345890045e-01" purity="2.6666381955146790e-01" nType="-99"/>
          <Node pos="r" depth="2" NCoef="0" IVar="-1" Cut="0.0000000000000000e+00" cType="1" res="8.8727258844301105e-04" rms="2.7687180042266846e-01" purity="6.1108279228210449e-01" nType="-99"/>
        </Node>
        <Node pos="r" depth="1" NCoef="0" IVar="52" Cut="3.1729111671447754e+00" cType="1" res="5.7489663362503052e-02" rms="2.5260007381439209e-01" purity="6.1021900177001953e-01" nType="0">
          <Node pos="l" depth="2" NCoef="0" IVar="-1" Cut="0.0000000000000000e+00" cType="1" res="2.1316623315215111e-03" rms="2.6815339922904968e-01" purity="6.5524601936340332e-01" nType="-99"/>
          <Node pos="r" depth="2" NCoef="0" IVar="-1" Cut="0.0000000000000000e+00" cType="1" res="-9.9896606116089970e-05" rms="2.0887929201126099e-01" purity="5.3031271696090698e-01" nType="-99"/>
        </Node>
      </Node>
    </BinaryTree>
    <BinaryTree type="DecisionTree" boostWeight="1.0000000000000000e+00" itree="762">
      <Node pos="s" depth="0" NCoef="0" IVar="3" Cut="4.9848756790161133e+00" cType="1" res="1.7718924209475517e-02" rms="2.4256286025047302e-01" purity="4.9364024400711060e-01" nType="0">
        <Node pos="l" depth="1" NCoef="0" IVar="2" Cut="2.0236055850982666e+00" cType="1" res="2.7878209948539734e-03" rms="2.3981074988842010e-01" purity="4.6864095330238342e-01" nType="0">
          <Node pos="l" depth="2" NCoef="0" IVar="-1" Cut="0.0000000000000000e+00" cType="1" res="-3.2659699209034443e-03" rms="1.5672509372234344e-01" purity="1.2088955938816071e-01" nType="-99"/>
          <Node pos="r" depth="2" NCoef="0" IVar="-1" Cut="0.0000000000000000e+00" cType="1" res="4.7909552813507617e-04" rms="2.5459176301956177e-01" purity="5.6127727031707764e-01" nType="-99"/>
        </Node>
        <Node pos="r" depth="1" NCoef="0" IVar="57" Cut="6.0423952341079712e-01" cType="1" res="7.6969221234321594e-02" rms="2.4435527622699738e-01" purity="5.9284353256225586e-01" nType="0">
          <Node pos="l" depth="2" NCoef="0" IVar="-1" Cut="0.0000000000000000e+00" cType="1" res="2.5696617085486650e-03" rms="2.7620434761047363e-01" purity="6.4852488040924072e-01" nType="-99"/>
          <Node pos="r" depth="2" NCoef="0" IVar="-1" Cut="0.0000000000000000e+00" cType="1" res="-1.7917316872626543e-03" rms="0.0000000000000000e+00" purity="3.2710775732994080e-01" nType="-99"/>
        </Node>
      </Node>
    </BinaryTree>
    <BinaryTree type="DecisionTree" boostWeight="1.0000000000000000e+00" itree="763">
      <Node pos="s" depth="0" NCoef="0" IVar="5" Cut="2.8150889277458191e-01" cType="1" res="9.7401756793260574e-03" rms="2.2257736325263977e-01" purity="5.0214242935180664e-01" nType="0">
        <Node pos="l" depth="1" NCoef="0" IVar="48" Cut="1.0170744657516479e+00" cType="1" res="3.8564156740903854e-02" rms="2.0436815917491913e-01" purity="6.7305487394332886e-01" nType="0">
          <Node pos="l" depth="2" NCoef="0" IVar="-1" Cut="0.0000000000000000e+00" cType="1" res="-1.9848207011818886e-03" rms="0.0000000000000000e+00" purity="1.6337475180625916e-01" nType="-99"/>
          <Node pos="r" depth="2" NCoef="0" IVar="-1" Cut="0.0000000000000000e+00" cType="1" res="1.7038988880813122e-03" rms="2.1646599471569061e-01" purity="7.6465433835983276e-01" nType="-99"/>
        </Node>
        <Node pos="r" depth="1" NCoef="0" IVar="58" Cut="-1.2620035409927368e+00" cType="1" res="-2.6421312242746353e-02" rms="2.3862963914871216e-01" purity="2.8772214055061340e-01" nType="0">
          <Node pos="l" depth="2" NCoef="0" IVar="-1" Cut="0.0000000000000000e+00" cType="1" res="6.2339100986719131e-04" rms="2.9761305451393127e-01" purity="3.5994383692741394e-01" nType="-99"/>
          <Node pos="r" depth="2" NCoef="0" IVar="-1" Cut="0.0000000000000000e+00" cType="1" res="-1.4709071256220341e-03" rms="1.9101524353027344e-01" purity="2.4743562936782837e-01" nType="-99"/>
        </Node>
      </Node>
    </BinaryTree>
    <BinaryTree type="DecisionTree" boostWeight="1.0000000000000000e+00" itree="764">
      <Node pos="s" depth="0" NCoef="0" IVar="25" Cut="1.1109377145767212e+00" cType="1" res="1.2636097148060799e-02" rms="2.2938223183155060e-01" purity="4.9633857607841492e-01" nType="0">
        <Node pos="l" depth="1" NCoef="0" IVar="60" Cut="-8.4186345338821411e-01" cType="1" res="2.1459164097905159e-02" rms="2.3559440672397614e-01" purity="5.1928591728210449e-01" nType="0">
          <Node pos="l" depth="2" NCoef="0" IVar="-1" Cut="0.0000000000000000e+00" cType="1" res="7.1074714651331306e-04" rms="2.3909732699394226e-01" purity="5.4031002521514893e-01" nType="-99"/>
          <Node pos="r" depth="2" NCoef="0" IVar="-1" Cut="0.0000000000000000e+00" cType="1" res="-3.3062796574085951e-03" rms="1.2346843630075455e-01" purity="2.0037308335304260e-01" nType="-99"/>
        </Node>
        <Node pos="r" depth="1" NCoef="0" IVar="5" Cut="3.3710402250289917e-01" cType="1" res="-8.5618816316127777e-02" rms="9.9641121923923492e-02" purity="2.4079412221908569e-01" nType="0">
          <Node pos="l" depth="2" NCoef="0" IVar="-1" Cut="0.0000000000000000e+00" cType="1" res="-1.5197552274912596e-03" rms="1.3967785239219666e-01" purity="4.3746551871299744e-01" nType="-99"/>
          <Node pos="r" depth="2" NCoef="0" IVar="-1" Cut="0.0000000000000000e+00" cType="1" res="-1.1646759696304798e-02" rms="0.0000000000000000e+00" purity="-4.0751323103904724e-02" nType="-99"/>
        </Node>
      </Node>
    </BinaryTree>
    <BinaryTree type="DecisionTree" boostWeight="1.0000000000000000e+00" itree="765">
      <Node pos="s" depth="0" NCoef="0" IVar="59" Cut="3.9915901422500610e-01" cType="1" res="2.1009936928749084e-02" rms="2.4305047094821930e-01" purity="5.0369578599929810e-01" nType="0">
        <Node pos="l" depth="1" NCoef="0" IVar="18" Cut="-9.1053795814514160e-01" cType="1" res="4.1352886706590652e-02" rms="2.5553488731384277e-01" purity="5.5554288625717163e-01" nType="0">
          <Node pos="l" depth="2" NCoef="0" IVar="-1" Cut="0.0000000000000000e+00" cType="1" res="1.1871088063344359e-03" rms="2.5786826014518738e-01" purity="5.7760357856750488e-01" nType="-99"/>
          <Node pos="r" depth="2" NCoef="0" IVar="-1" Cut="0.0000000000000000e+00" cType="1" res="-4.7258995473384857e-03" rms="1.4205317199230194e-01" purity="1.5060389041900635e-01" nType="-99"/>
        </Node>
        <Node pos="r" depth="1" NCoef="0" IVar="60" Cut="-1.2126020193099976e+00" cType="1" res="-2.4822821840643883e-02" rms="2.0497946441173553e-01" purity="3.8688379526138306e-01" nType="0">
          <Node pos="l" depth="2" NCoef="0" IVar="-1" Cut="0.0000000000000000e+00" cType="1" res="-6.5365922637283802e-05" rms="2.2346863150596619e-01" purity="4.3944570422172546e-01" nType="-99"/>
          <Node pos="r" depth="2" NCoef="0" IVar="-1" Cut="0.0000000000000000e+00" cType="1" res="-3.5363500937819481e-03" rms="1.0358492285013199e-01" purity="2.2263766825199127e-01" nType="-99"/>
        </Node>
      </Node>
    </BinaryTree>
    <BinaryTree type="DecisionTree" boostWeight="1.0000000000000000e+00" itree="766">
      <Node pos="s" depth="0" NCoef="0" IVar="5" Cut="4.3398344516754150e-01" cType="1" res="1.3293963856995106e-02" rms="2.2498393058776855e-01" purity="5.0273263454437256e-01" nType="0">
        <Node pos="l" depth="1" NCoef="0" IVar="1" Cut="2.5789196491241455e+00" cType="1" res="3.1862825155258179e-02" rms="2.1558108925819397e-01" purity="6.0980933904647827e-01" nType="0">
          <Node pos="l" depth="2" NCoef="0" IVar="-1" Cut="0.0000000000000000e+00" cType="1" res="-1.4084205031394958e-03" rms="1.5459428727626801e-01" purity="1.7805425822734833e-01" nType="-99"/>
          <Node pos="r" depth="2" NCoef="0" IVar="-1" Cut="0.0000000000000000e+00" cType="1" res="1.2548260856419802e-03" rms="2.2444450855255127e-01" purity="7.1835327148437500e-01" nType="-99"/>
        </Node>
        <Node pos="r" depth="1" NCoef="0" IVar="21" Cut="-4.6845018863677979e-01" cType="1" res="-4.0388915687799454e-02" rms="2.4231244623661041e-01" purity="1.9317215681076050e-01" nType="0">
          <Node pos="l" depth="2" NCoef="0" IVar="-1" Cut="0.0000000000000000e+00" cType="1" res="1.9738131668418646e-03" rms="3.6012300848960876e-01" purity="3.3888652920722961e-01" nType="-99"/>
          <Node pos="r" depth="2" NCoef="0" IVar="-1" Cut="0.0000000000000000e+00" cType="1" res="-1.4417467173188925e-03" rms="2.1459829807281494e-01" purity="1.7305633425712585e-01" nType="-99"/>
        </Node>
      </Node>
    </BinaryTree>
    <BinaryTree type="DecisionTree" boostWeight="1.0000000000000000e+00" itree="767">
      <Node pos="s" depth="0" NCoef="0" IVar="3" Cut="4.4117736816406250e+00" cType="1" res="1.3985172845423222e-02" rms="2.2974142432212830e-01" purity="5.0659203529357910e-01" nType="0">
        <Node pos="l" depth="1" NCoef="0" IVar="16" Cut="-7.2069793939590454e-01" cType="1" res="-7.0183262228965759e-02" rms="2.0953072607517242e-01" purity="1.7810644209384918e-01" nType="0">
          <Node pos="l" depth="2" NCoef="0" IVar="-1" Cut="0.0000000000000000e+00" cType="1" res="-8.9692528126761317e-04" rms="2.1882481873035431e-01" purity="2.1429587900638580e-01" nType="-99"/>
          <Node pos="r" depth="2" NCoef="0" IVar="-1" Cut="0.0000000000000000e+00" cType="1" res="-4.9361414276063442e-03" rms="1.3857319951057434e-01" purity="9.2107832431793213e-02" nType="-99"/>
        </Node>
        <Node pos="r" depth="1" NCoef="0" IVar="2" Cut="1.8020327091217041e+00" cType="1" res="2.4054504930973053e-02" rms="2.2998763620853424e-01" purity="5.4588985443115234e-01" nType="0">
          <Node pos="l" depth="2" NCoef="0" IVar="-1" Cut="0.0000000000000000e+00" cType="1" res="-2.3074331693351269e-03" rms="1.7547734081745148e-01" purity="1.5190584957599640e-01" nType="-99"/>
          <Node pos="r" depth="2" NCoef="0" IVar="-1" Cut="0.0000000000000000e+00" cType="1" res="9.2426809715107083e-04" rms="2.3749990761280060e-01" purity="6.3418769836425781e-01" nType="-99"/>
        </Node>
      </Node>
    </BinaryTree>
    <BinaryTree type="DecisionTree" boostWeight="1.0000000000000000e+00" itree="768">
      <Node pos="s" depth="0" NCoef="0" IVar="5" Cut="3.0068382620811462e-01" cType="1" res="1.5335725620388985e-02" rms="2.3141689598560333e-01" purity="5.0066226720809937e-01" nType="0">
        <Node pos="l" depth="1" NCoef="0" IVar="3" Cut="5.1912727355957031e+00" cType="1" res="4.6986412256956100e-02" rms="2.0831303298473358e-01" purity="6.7212659120559692e-01" nType="0">
          <Node pos="l" depth="2" NCoef="0" IVar="-1" Cut="0.0000000000000000e+00" cType="1" res="9.9085480906069279e-04" rms="1.9110344350337982e-01" purity="6.7480760812759399e-01" nType="-99"/>
          <Node pos="r" depth="2" NCoef="0" IVar="-1" Cut="0.0000000000000000e+00" cType="1" res="4.0912013500928879e-03" rms="3.1378313899040222e-01" purity="6.4078116416931152e-01" nType="-99"/>
        </Node>
        <Node pos="r" depth="1" NCoef="0" IVar="52" Cut="3.3437566757202148e+00" cType="1" res="-2.8719373047351837e-02" rms="2.5369206070899963e-01" purity="2.6199826598167419e-01" nType="0">
          <Node pos="l" depth="2" NCoef="0" IVar="-1" Cut="0.0000000000000000e+00" cType="1" res="-1.8842676945496351e-04" rms="2.7433362603187561e-01" purity="2.8055861592292786e-01" nType="-99"/>
          <Node pos="r" depth="2" NCoef="0" IVar="-1" Cut="0.0000000000000000e+00" cType="1" res="-2.8399806469678879e-03" rms="1.3628216087818146e-01" purity="1.9580830633640289e-01" nType="-99"/>
        </Node>
      </Node>
    </BinaryTree>
    <BinaryTree type="DecisionTree" boostWeight="1.0000000000000000e+00" itree="769">
      <Node pos="s" depth="0" NCoef="0" IVar="1" Cut="2.2313446998596191e+00" cType="1" res="1.0414366610348225e-02" rms="2.2033283114433289e-01" purity="5.0116592645645142e-01" nType="0">
        <Node pos="l" depth="1" NCoef="0" IVar="2" Cut="1.4781471490859985e+00" cType="1" res="-3.3516678959131241e-03" rms="0.0000000000000000e+00" purity="5.1004733890295029e-02" nType="-99"/>
        <Node pos="r" depth="1" NCoef="0" IVar="6" Cut="1.1165486574172974e+00" cType="1" res="2.1295147016644478e-02" rms="2.3414689302444458e-01" purity="5.5862969160079956e-01" nType="0">
          <Node pos="l" depth="2" NCoef="0" IVar="-1" Cut="0.0000000000000000e+00" cType="1" res="-4.0368186309933662e-03" rms="1.0213186591863632e-01" purity="1.1402036249637604e-01" nType="-99"/>
          <Node pos="r" depth="2" NCoef="0" IVar="-1" Cut="0.0000000000000000e+00" cType="1" res="6.9770234404131770e-04" rms="2.3766438663005829e-01" purity="5.8504807949066162e-01" nType="-99"/>
        </Node>
      </Node>
    </BinaryTree>
    <BinaryTree type="DecisionTree" boostWeight="1.0000000000000000e+00" itree="770">
      <Node pos="s" depth="0" NCoef="0" IVar="3" Cut="4.9526185989379883e+00" cType="1" res="1.7787842079997063e-02" rms="2.3099322617053986e-01" purity="5.1081287860870361e-01" nType="0">
        <Node pos="l" depth="1" NCoef="0" IVar="17" Cut="1.5231137275695801e+00" cType="1" res="2.1520434529520571e-04" rms="2.3015598952770233e-01" purity="4.7614723443984985e-01" nType="0">
          <Node pos="l" depth="2" NCoef="0" IVar="-1" Cut="0.0000000000000000e+00" cType="1" res="-9.1012415941804647e-04" rms="2.2361883521080017e-01" purity="2.2167067229747772e-01" nType="-99"/>
          <Node pos="r" depth="2" NCoef="0" IVar="-1" Cut="0.0000000000000000e+00" cType="1" res="9.7399123478680849e-04" rms="2.3260873556137085e-01" purity="8.5852390527725220e-01" nType="-99"/>
        </Node>
        <Node pos="r" depth="1" NCoef="0" IVar="18" Cut="-1.6172834634780884e+00" cType="1" res="7.3936410248279572e-02" rms="2.2461563348770142e-01" purity="6.2157756090164185e-01" nType="0">
          <Node pos="l" depth="2" NCoef="0" IVar="-1" Cut="0.0000000000000000e+00" cType="1" res="2.5779574643820524e-03" rms="2.4689249694347382e-01" purity="6.9818919897079468e-01" nType="-99"/>
          <Node pos="r" depth="2" NCoef="0" IVar="-1" Cut="0.0000000000000000e+00" cType="1" res="-2.7084953035227954e-04" rms="1.1418956518173218e-01" purity="4.2126905918121338e-01" nType="-99"/>
        </Node>
      </Node>
    </BinaryTree>
    <BinaryTree type="DecisionTree" boostWeight="1.0000000000000000e+00" itree="771">
      <Node pos="s" depth="0" NCoef="0" IVar="5" Cut="4.3563032150268555e-01" cType="1" res="1.3669779524207115e-02" rms="2.3360656201839447e-01" purity="4.9995124340057373e-01" nType="0">
        <Node pos="l" depth="1" NCoef="0" IVar="18" Cut="-1.1670913696289062e+00" cType="1" res="3.5207848995923996e-02" rms="2.3024871945381165e-01" purity="6.0785669088363647e-01" nType="0">
          <Node pos="l" depth="2" NCoef="0" IVar="-1" Cut="0.0000000000000000e+00" cType="1" res="1.2128879316151142e-03" rms="2.3258988559246063e-01" purity="6.3821893930435181e-01" nType="-99"/>
          <Node pos="r" depth="2" NCoef="0" IVar="-1" Cut="0.0000000000000000e+00" cType="1" res="-2.6435614563524723e-03" rms="1.6765698790550232e-01" purity="2.9992133378982544e-01" nType="-99"/>
        </Node>
        <Node pos="r" depth="1" NCoef="0" IVar="58" Cut="7.0332819223403931e-01" cType="1" res="-5.3204677999019623e-02" rms="2.3129115998744965e-01" purity="1.6491128504276276e-01" nType="0">
          <Node pos="l" depth="2" NCoef="0" IVar="-1" Cut="0.0000000000000000e+00" cType="1" res="-7.4199191294610500e-04" rms="2.5213497877120972e-01" purity="2.0145188271999359e-01" nType="-99"/>
          <Node pos="r" depth="2" NCoef="0" IVar="-1" Cut="0.0000000000000000e+00" cType="1" res="-7.9375617206096649e-03" rms="0.0000000000000000e+00" purity="-9.7063526511192322e-02" nType="-99"/>
        </Node>
      </Node>
    </BinaryTree>
    <BinaryTree type="DecisionTree" boostWeight="1.0000000000000000e+00" itree="772">
      <Node pos="s" depth="0" NCoef="0" IVar="17" Cut="1.5220416784286499e+00" cType="1" res="1.0556527413427830e-02" rms="2.2515234351158142e-01" purity="4.9890440702438354e-01" nType="0">
        <Node pos="l" depth="1" NCoef="0" IVar="15" Cut="1.5209717750549316e+00" cType="1" res="-1.5069035813212395e-02" rms="2.1288745105266571e-01" purity="2.5474989414215088e-01" nType="0">
          <Node pos="l" depth="2" NCoef="0" IVar="-1" Cut="0.0000000000000000e+00" cType="1" res="-1.8052438099402934e-04" rms="2.0972007513046265e-01" purity="2.6822409033775330e-01" nType="-99"/>
          <Node pos="r" depth="2" NCoef="0" IVar="-1" Cut="0.0000000000000000e+00" cType="1" res="-1.0619617067277431e-02" rms="2.0374432206153870e-01" purity="2.2257606033235788e-03" nType="-99"/>
        </Node>
        <Node pos="r" depth="1" NCoef="0" IVar="15" Cut="1.5224903821945190e+00" cType="1" res="4.9621328711509705e-02" rms="2.3739539086818695e-01" purity="8.7110489606857300e-01" nType="0">
          <Node pos="l" depth="2" NCoef="0" IVar="-1" Cut="0.0000000000000000e+00" cType="1" res="1.7310170223936439e-03" rms="1.9003455340862274e-01" purity="9.3327289819717407e-01" nType="-99"/>
          <Node pos="r" depth="2" NCoef="0" IVar="-1" Cut="0.0000000000000000e+00" cType="1" res="-5.6173995835706592e-04" rms="3.6513507366180420e-01" purity="6.0567641258239746e-01" nType="-99"/>
        </Node>
      </Node>
    </BinaryTree>
    <BinaryTree type="DecisionTree" boostWeight="1.0000000000000000e+00" itree="773">
      <Node pos="s" depth="0" NCoef="0" IVar="52" Cut="3.5117447376251221e+00" cType="1" res="1.1076414957642555e-02" rms="2.2815999388694763e-01" purity="4.9217236042022705e-01" nType="0">
        <Node pos="l" depth="1" NCoef="0" IVar="31" Cut="2.6472218036651611e+00" cType="1" res="1.8193800002336502e-02" rms="2.3446540534496307e-01" purity="5.0410079956054688e-01" nType="0">
          <Node pos="l" depth="2" NCoef="0" IVar="-1" Cut="0.0000000000000000e+00" cType="1" res="-4.2418725788593292e-03" rms="1.4847511053085327e-01" purity="1.2880942225456238e-01" nType="-99"/>
          <Node pos="r" depth="2" NCoef="0" IVar="-1" Cut="0.0000000000000000e+00" cType="1" res="7.1139517240226269e-04" rms="2.4212713539600372e-01" purity="5.5825906991958618e-01" nType="-99"/>
        </Node>
        <Node pos="r" depth="1" NCoef="0" IVar="3" Cut="4.9109721183776855e+00" cType="1" res="-3.6004539579153061e-03" rms="0.0000000000000000e+00" purity="2.9603058099746704e-01" nType="-99"/>
      </Node>
    </BinaryTree>
    <BinaryTree type="DecisionTree" boostWeight="1.0000000000000000e+00" itree="774">
      <Node pos="s" depth="0" NCoef="0" IVar="17" Cut="1.5220416784286499e+00" cType="1" res="9.2178629711270332e-03" rms="2.2267535328865051e-01" purity="4.9884048104286194e-01" nType="0">
        <Node pos="l" depth="1" NCoef="0" IVar="22" Cut="1.2345679104328156e-02" cType="1" res="-1.9014583900570869e-02" rms="2.1189837157726288e-01" purity="2.4526196718215942e-01" nType="0">
          <Node pos="l" depth="2" NCoef="0" IVar="-1" Cut="0.0000000000000000e+00" cType="1" res="3.2212033402174711e-03" rms="3.2359081506729126e-01" purity="3.1460553407669067e-01" nType="-99"/>
          <Node pos="r" depth="2" NCoef="0" IVar="-1" Cut="0.0000000000000000e+00" cType="1" res="-9.5203524688258767e-04" rms="1.9262251257896423e-01" purity="2.3822455108165741e-01" nType="-99"/>
        </Node>
        <Node pos="r" depth="1" NCoef="0" IVar="31" Cut="2.5918233394622803e+00" cType="1" res="5.0531063228845596e-02" rms="2.3143999278545380e-01" purity="8.6990785598754883e-01" nType="0">
          <Node pos="l" depth="2" NCoef="0" IVar="-1" Cut="0.0000000000000000e+00" cType="1" res="-2.1200729534029961e-03" rms="2.9955819249153137e-01" purity="4.0105524659156799e-01" nType="-99"/>
          <Node pos="r" depth="2" NCoef="0" IVar="-1" Cut="0.0000000000000000e+00" cType="1" res="1.2488836655393243e-03" rms="2.2403846681118011e-01" purity="8.9942657947540283e-01" nType="-99"/>
        </Node>
      </Node>
    </BinaryTree>
    <BinaryTree type="DecisionTree" boostWeight="1.0000000000000000e+00" itree="775">
      <Node pos="s" depth="0" NCoef="0" IVar="6" Cut="1.1653965711593628e+00" cType="1" res="1.6765356063842773e-02" rms="2.3963923752307892e-01" purity="4.9684023857116699e-01" nType="0">
        <Node pos="l" depth="1" NCoef="0" IVar="10" Cut="2.9739859104156494e+00" cType="1" res="-3.1875343993306160e-03" rms="0.0000000000000000e+00" purity="1.0577896237373352e-01" nType="-99"/>
        <Node pos="r" depth="1" NCoef="0" IVar="31" Cut="2.6673493385314941e+00" cType="1" res="2.6814850047230721e-02" rms="2.4981746077537537e-01" purity="5.3778636455535889e-01" nType="0">
          <Node pos="l" depth="2" NCoef="0" IVar="-1" Cut="0.0000000000000000e+00" cType="1" res="-2.8530701529234648e-03" rms="1.8628761172294617e-01" purity="1.9077008962631226e-01" nType="-99"/>
          <Node pos="r" depth="2" NCoef="0" IVar="-1" Cut="0.0000000000000000e+00" cType="1" res="9.0087729040533304e-04" rms="2.5591555237770081e-01" purity="5.8977568149566650e-01" nType="-99"/>
        </Node>
      </Node>
    </BinaryTree>
    <BinaryTree type="DecisionTree" boostWeight="1.0000000000000000e+00" itree="776">
      <Node pos="s" depth="0" NCoef="0" IVar="3" Cut="4.9965462684631348e+00" cType="1" res="1.4677889645099640e-02" rms="2.4328508973121643e-01" purity="4.9272745847702026e-01" nType="0">
        <Node pos="l" depth="1" NCoef="0" IVar="2" Cut="2.3038182258605957e+00" cType="1" res="-1.6144216060638428e-03" rms="2.3623342812061310e-01" purity="4.7308787703514099e-01" nType="0">
          <Node pos="l" depth="2" NCoef="0" IVar="-1" Cut="0.0000000000000000e+00" cType="1" res="-2.0300254691392183e-03" rms="1.7842745780944824e-01" purity="2.1859185397624969e-01" nType="-99"/>
          <Node pos="r" depth="2" NCoef="0" IVar="-1" Cut="0.0000000000000000e+00" cType="1" res="5.4335256572812796e-04" rms="2.5746998190879822e-01" purity="6.0529953241348267e-01" nType="-99"/>
        </Node>
        <Node pos="r" depth="1" NCoef="0" IVar="39" Cut="-1.5756936073303223e+00" cType="1" res="8.5665620863437653e-02" rms="2.6024034619331360e-01" purity="5.7829988002777100e-01" nType="0">
          <Node pos="l" depth="2" NCoef="0" IVar="-1" Cut="0.0000000000000000e+00" cType="1" res="1.0565280681475997e-03" rms="1.5855664014816284e-01" purity="5.8904165029525757e-01" nType="-99"/>
          <Node pos="r" depth="2" NCoef="0" IVar="-1" Cut="0.0000000000000000e+00" cType="1" res="5.1307128742337227e-03" rms="3.7646606564521790e-01" purity="5.5673617124557495e-01" nType="-99"/>
        </Node>
      </Node>
    </BinaryTree>
    <BinaryTree type="DecisionTree" boostWeight="1.0000000000000000e+00" itree="777">
      <Node pos="s" depth="0" NCoef="0" IVar="57" Cut="-8.1750199198722839e-02" cType="1" res="1.5889219939708710e-02" rms="2.3064917325973511e-01" purity="5.0703293085098267e-01" nType="0">
        <Node pos="l" depth="1" NCoef="0" IVar="36" Cut="1.2907350063323975e+00" cType="1" res="3.4386977553367615e-02" rms="2.4406529963016510e-01" purity="5.6407213211059570e-01" nType="0">
          <Node pos="l" depth="2" NCoef="0" IVar="-1" Cut="0.0000000000000000e+00" cType="1" res="-1.9106930121779442e-03" rms="1.2094955891370773e-01" purity="7.8336656093597412e-02" nType="-99"/>
          <Node pos="r" depth="2" NCoef="0" IVar="-1" Cut="0.0000000000000000e+00" cType="1" res="1.0558252688497305e-03" rms="2.6360228657722473e-01" purity="6.8452674150466919e-01" nType="-99"/>
        </Node>
        <Node pos="r" depth="1" NCoef="0" IVar="1" Cut="2.2883141040802002e+00" cType="1" res="-4.0975097566843033e-02" rms="1.7127494513988495e-01" purity="3.3168759942054749e-01" nType="0">
          <Node pos="l" depth="2" NCoef="0" IVar="-1" Cut="0.0000000000000000e+00" cType="1" res="-9.6280192956328392e-03" rms="0.0000000000000000e+00" purity="-3.4480642527341843e-02" nType="-99"/>
          <Node pos="r" depth="2" NCoef="0" IVar="-1" Cut="0.0000000000000000e+00" cType="1" res="-5.8047025231644511e-04" rms="2.1595363318920135e-01" purity="4.0953171253204346e-01" nType="-99"/>
        </Node>
      </Node>
    </BinaryTree>
    <BinaryTree type="DecisionTree" boostWeight="1.0000000000000000e+00" itree="778">
      <Node pos="s" depth="0" NCoef="0" IVar="3" Cut="5.1333975791931152e+00" cType="1" res="1.0355922393500805e-02" rms="2.3237971961498260e-01" purity="4.9425339698791504e-01" nType="0">
        <Node pos="l" depth="1" NCoef="0" IVar="17" Cut="1.5231137275695801e+00" cType="1" res="-1.0342486202716827e-03" rms="2.2642247378826141e-01" purity="4.9013927578926086e-01" nType="0">
          <Node pos="l" depth="2" NCoef="0" IVar="-1" Cut="0.0000000000000000e+00" cType="1" res="-7.8929058508947492e-04" rms="2.1674637496471405e-01" purity="2.4798299372196198e-01" nType="-99"/>
          <Node pos="r" depth="2" NCoef="0" IVar="-1" Cut="0.0000000000000000e+00" cType="1" res="9.0441427892073989e-04" rms="2.3462375998497009e-01" purity="8.6130088567733765e-01" nType="-99"/>
        </Node>
        <Node pos="r" depth="1" NCoef="0" IVar="17" Cut="1.3255720138549805e+00" cType="1" res="1.1473394930362701e-01" rms="2.5877276062965393e-01" purity="5.3195488452911377e-01" nType="0">
          <Node pos="l" depth="2" NCoef="0" IVar="-1" Cut="0.0000000000000000e+00" cType="1" res="-4.6992380521260202e-04" rms="9.3352280557155609e-02" purity="3.2090831547975540e-02" nType="-99"/>
          <Node pos="r" depth="2" NCoef="0" IVar="-1" Cut="0.0000000000000000e+00" cType="1" res="2.8797215782105923e-03" rms="2.9738280177116394e-01" purity="8.3606523275375366e-01" nType="-99"/>
        </Node>
      </Node>
    </BinaryTree>
    <BinaryTree type="DecisionTree" boostWeight="1.0000000000000000e+00" itree="779">
      <Node pos="s" depth="0" NCoef="0" IVar="17" Cut="1.5220416784286499e+00" cType="1" res="9.5372758805751801e-03" rms="2.3050926625728607e-01" purity="4.9367764592170715e-01" nType="0">
        <Node pos="l" depth="1" NCoef="0" IVar="25" Cut="1.0160279273986816e+00" cType="1" res="-1.4709988608956337e-02" rms="2.2386682033538818e-01" purity="2.4817393720149994e-01" nType="0">
          <Node pos="l" depth="2" NCoef="0" IVar="-1" Cut="0.0000000000000000e+00" cType="1" res="2.0801050413865596e-04" rms="2.4720112979412079e-01" purity="3.0053490400314331e-01" nType="-99"/>
          <Node pos="r" depth="2" NCoef="0" IVar="-1" Cut="0.0000000000000000e+00" cType="1" res="-3.2745446078479290e-03" rms="1.3694311678409576e-01" purity="1.1963445693254471e-01" nType="-99"/>
        </Node>
        <Node pos="r" depth="1" NCoef="0" IVar="2" Cut="1.7047399282455444e+00" cType="1" res="4.6461008489131927e-02" rms="2.3552477359771729e-01" purity="8.6753064393997192e-01" nType="0">
          <Node pos="l" depth="2" NCoef="0" IVar="-1" Cut="0.0000000000000000e+00" cType="1" res="-1.8078923458233476e-03" rms="3.1036373972892761e-01" purity="4.7474545240402222e-01" nType="-99"/>
          <Node pos="r" depth="2" NCoef="0" IVar="-1" Cut="0.0000000000000000e+00" cType="1" res="1.2398468097671866e-03" rms="2.2593715786933899e-01" purity="8.9689201116561890e-01" nType="-99"/>
        </Node>
      </Node>
    </BinaryTree>
    <BinaryTree type="DecisionTree" boostWeight="1.0000000000000000e+00" itree="780">
      <Node pos="s" depth="0" NCoef="0" IVar="5" Cut="2.7988901734352112e-01" cType="1" res="1.0844671167433262e-02" rms="2.2318549454212189e-01" purity="5.0061309337615967e-01" nType="0">
        <Node pos="l" depth="1" NCoef="0" IVar="36" Cut="1.4068046808242798e+00" cType="1" res="4.0254227817058563e-02" rms="2.0776976644992828e-01" purity="6.7156165838241577e-01" nType="0">
          <Node pos="l" depth="2" NCoef="0" IVar="-1" Cut="0.0000000000000000e+00" cType="1" res="-1.5998210292309523e-03" rms="1.7855764925479889e-01" purity="1.2112073600292206e-01" nType="-99"/>
          <Node pos="r" depth="2" NCoef="0" IVar="-1" Cut="0.0000000000000000e+00" cType="1" res="1.5851089265197515e-03" rms="2.1169014275074005e-01" purity="8.5275602340698242e-01" nType="-99"/>
        </Node>
        <Node pos="r" depth="1" NCoef="0" IVar="17" Cut="1.5214687585830688e+00" cType="1" res="-2.5662718340754509e-02" rms="2.3590710759162903e-01" purity="2.8840702772140503e-01" nType="0">
          <Node pos="l" depth="2" NCoef="0" IVar="-1" Cut="0.0000000000000000e+00" cType="1" res="-1.4131839852780104e-03" rms="1.9790570437908173e-01" purity="1.2232884764671326e-01" nType="-99"/>
          <Node pos="r" depth="2" NCoef="0" IVar="-1" Cut="0.0000000000000000e+00" cType="1" res="6.3014455372467637e-04" rms="3.1310388445854187e-01" purity="7.8159391880035400e-01" nType="-99"/>
        </Node>
      </Node>
    </BinaryTree>
    <BinaryTree type="DecisionTree" boostWeight="1.0000000000000000e+00" itree="781">
      <Node pos="s" depth="0" NCoef="0" IVar="17" Cut="1.5216873884201050e+00" cType="1" res="5.8015780523419380e-03" rms="2.2698004543781281e-01" purity="4.9012929201126099e-01" nType="0">
        <Node pos="l" depth="1" NCoef="0" IVar="10" Cut="3.7457022666931152e+00" cType="1" res="-1.8645860254764557e-02" rms="2.1974526345729828e-01" purity="2.4486343562602997e-01" nType="0">
          <Node pos="l" depth="2" NCoef="0" IVar="-1" Cut="0.0000000000000000e+00" cType="1" res="-8.0732657806947827e-04" rms="2.1182252466678619e-01" purity="2.2632351517677307e-01" nType="-99"/>
          <Node pos="r" depth="2" NCoef="0" IVar="-1" Cut="0.0000000000000000e+00" cType="1" res="3.6085685715079308e-03" rms="2.9964518547058105e-01" purity="6.1893576383590698e-01" nType="-99"/>
        </Node>
        <Node pos="r" depth="1" NCoef="0" IVar="15" Cut="1.5227357149124146e+00" cType="1" res="4.3220754712820053e-02" rms="2.3270530998706818e-01" purity="8.6553251743316650e-01" nType="0">
          <Node pos="l" depth="2" NCoef="0" IVar="-1" Cut="0.0000000000000000e+00" cType="1" res="1.6356499399989843e-03" rms="1.9276401400566101e-01" purity="9.2880439758300781e-01" nType="-99"/>
          <Node pos="r" depth="2" NCoef="0" IVar="-1" Cut="0.0000000000000000e+00" cType="1" res="-8.7401573546230793e-04" rms="3.3630666136741638e-01" purity="6.0106801986694336e-01" nType="-99"/>
        </Node>
      </Node>
    </BinaryTree>
    <BinaryTree type="DecisionTree" boostWeight="1.0000000000000000e+00" itree="782">
      <Node pos="s" depth="0" NCoef="0" IVar="3" Cut="4.2725205421447754e+00" cType="1" res="1.2918306514620781e-02" rms="2.2832998633384705e-01" purity="4.9820208549499512e-01" nType="0">
        <Node pos="l" depth="1" NCoef="0" IVar="-1" Cut="0.0000000000000000e+00" cType="1" res="-7.9478556290268898e-03" rms="6.7630326375365257e-03" purity="-5.3813111037015915e-02" nType="-99"/>
        <Node pos="r" depth="1" NCoef="0" IVar="52" Cut="3.4192237854003906e+00" cType="1" res="1.7672289162874222e-02" rms="2.2915501892566681e-01" purity="5.1201397180557251e-01" nType="0">
          <Node pos="l" depth="2" NCoef="0" IVar="-1" Cut="0.0000000000000000e+00" cType="1" res="7.0064235478639603e-04" rms="2.3814362287521362e-01" purity="5.2853661775588989e-01" nType="-99"/>
          <Node pos="r" depth="2" NCoef="0" IVar="-1" Cut="0.0000000000000000e+00" cType="1" res="-2.0781513303518295e-03" rms="7.5814493000507355e-02" purity="3.6118188500404358e-01" nType="-99"/>
        </Node>
      </Node>
    </BinaryTree>
    <BinaryTree type="DecisionTree" boostWeight="1.0000000000000000e+00" itree="783">
      <Node pos="s" depth="0" NCoef="0" IVar="15" Cut="1.5225218534469604e+00" cType="1" res="1.6420528292655945e-02" rms="2.3315064609050751e-01" purity="5.1263862848281860e-01" nType="0">
        <Node pos="l" depth="1" NCoef="0" IVar="5" Cut="2.8323230147361755e-01" cType="1" res="2.8921775519847870e-02" rms="2.1827316284179688e-01" purity="5.2109962701797485e-01" nType="0">
          <Node pos="l" depth="2" NCoef="0" IVar="-1" Cut="0.0000000000000000e+00" cType="1" res="1.5797815285623074e-03" rms="2.0049646496772766e-01" purity="7.0402497053146362e-01" nType="-99"/>
          <Node pos="r" depth="2" NCoef="0" IVar="-1" Cut="0.0000000000000000e+00" cType="1" res="-1.2569065438583493e-04" rms="2.3453964293003082e-01" purity="2.8940790891647339e-01" nType="-99"/>
        </Node>
        <Node pos="r" depth="1" NCoef="0" IVar="66" Cut="1.2345679104328156e-02" cType="1" res="-8.8697634637355804e-02" rms="3.1379604339599609e-01" purity="4.4149336218833923e-01" nType="0">
          <Node pos="l" depth="2" NCoef="0" IVar="-1" Cut="0.0000000000000000e+00" cType="1" res="-4.7228885814547539e-03" rms="2.8322237730026245e-01" purity="2.3074544966220856e-01" nType="-99"/>
          <Node pos="r" depth="2" NCoef="0" IVar="-1" Cut="0.0000000000000000e+00" cType="1" res="-2.8128633857704699e-04" rms="3.1513246893882751e-01" purity="5.9630352258682251e-01" nType="-99"/>
        </Node>
      </Node>
    </BinaryTree>
    <BinaryTree type="DecisionTree" boostWeight="1.0000000000000000e+00" itree="784">
      <Node pos="s" depth="0" NCoef="0" IVar="60" Cut="-8.1075644493103027e-01" cType="1" res="8.1995921209454536e-03" rms="2.2471864521503448e-01" purity="4.9039280414581299e-01" nType="0">
        <Node pos="l" depth="1" NCoef="0" IVar="1" Cut="2.3098721504211426e+00" cType="1" res="1.5985641628503799e-02" rms="2.3120647668838501e-01" purity="5.1247763633728027e-01" nType="0">
          <Node pos="l" depth="2" NCoef="0" IVar="-1" Cut="0.0000000000000000e+00" cType="1" res="-2.8400146402418613e-03" rms="1.3025875389575958e-01" purity="5.4206278175115585e-02" nType="-99"/>
          <Node pos="r" depth="2" NCoef="0" IVar="-1" Cut="0.0000000000000000e+00" cType="1" res="6.5316847758367658e-04" rms="2.3994895815849304e-01" purity="5.7660824060440063e-01" nType="-99"/>
        </Node>
        <Node pos="r" depth="1" NCoef="0" IVar="19" Cut="8.0327165126800537e-01" cType="1" res="-5.7780258357524872e-03" rms="0.0000000000000000e+00" purity="8.6451105773448944e-02" nType="-99"/>
      </Node>
    </BinaryTree>
    <BinaryTree type="DecisionTree" boostWeight="1.0000000000000000e+00" itree="785">
      <Node pos="s" depth="0" NCoef="0" IVar="5" Cut="4.3425488471984863e-01" cType="1" res="1.4157342724502087e-02" rms="2.2562846541404724e-01" purity="5.0024032592773438e-01" nType="0">
        <Node pos="l" depth="1" NCoef="0" IVar="36" Cut="7.8744792938232422e-01" cType="1" res="3.3912081271409988e-02" rms="2.2268590331077576e-01" purity="6.0623294115066528e-01" nType="0">
          <Node pos="l" depth="2" NCoef="0" IVar="-1" Cut="0.0000000000000000e+00" cType="1" res="-5.0625195726752281e-03" rms="0.0000000000000000e+00" purity="2.3433305323123932e-02" nType="-99"/>
          <Node pos="r" depth="2" NCoef="0" IVar="-1" Cut="0.0000000000000000e+00" cType="1" res="1.1237214785069227e-03" rms="2.4007287621498108e-01" purity="7.1209317445755005e-01" nType="-99"/>
        </Node>
        <Node pos="r" depth="1" NCoef="0" IVar="55" Cut="-1.5312836170196533e+00" cType="1" res="-4.5048486441373825e-02" rms="2.2402450442314148e-01" purity="1.8257568776607513e-01" nType="0">
          <Node pos="l" depth="2" NCoef="0" IVar="-1" Cut="0.0000000000000000e+00" cType="1" res="1.0490100830793381e-03" rms="3.3244058489799500e-01" purity="4.2740008234977722e-01" nType="-99"/>
          <Node pos="r" depth="2" NCoef="0" IVar="-1" Cut="0.0000000000000000e+00" cType="1" res="-1.8447123002260923e-03" rms="1.8243293464183807e-01" purity="1.2742160260677338e-01" nType="-99"/>
        </Node>
      </Node>
    </BinaryTree>
    <BinaryTree type="DecisionTree" boostWeight="1.0000000000000000e+00" itree="786">
      <Node pos="s" depth="0" NCoef="0" IVar="5" Cut="4.3533283472061157e-01" cType="1" res="4.4274106621742249e-03" rms="2.2349353134632111e-01" purity="4.9056592583656311e-01" nType="0">
        <Node pos="l" depth="1" NCoef="0" IVar="2" Cut="1.8416525125503540e+00" cType="1" res="2.5699647143483162e-02" rms="2.1535848081111908e-01" purity="6.0174781084060669e-01" nType="0">
          <Node pos="l" depth="2" NCoef="0" IVar="-1" Cut="0.0000000000000000e+00" cType="1" res="-2.2070892155170441e-03" rms="1.5453803539276123e-01" purity="1.8570330739021301e-01" nType="-99"/>
          <Node pos="r" depth="2" NCoef="0" IVar="-1" Cut="0.0000000000000000e+00" cType="1" res="1.0579712688922882e-03" rms="2.2301807999610901e-01" purity="6.9292104244232178e-01" nType="-99"/>
        </Node>
        <Node pos="r" depth="1" NCoef="0" IVar="17" Cut="1.3654532432556152e+00" cType="1" res="-6.0551170259714127e-02" rms="2.3505347967147827e-01" purity="1.5094751119613647e-01" nType="0">
          <Node pos="l" depth="2" NCoef="0" IVar="-1" Cut="0.0000000000000000e+00" cType="1" res="4.8132413066923618e-03" rms="1.3245126605033875e-01" purity="1.8701560795307159e-02" nType="-99"/>
          <Node pos="r" depth="2" NCoef="0" IVar="-1" Cut="0.0000000000000000e+00" cType="1" res="-1.6435496509075165e-03" rms="2.9409804940223694e-01" purity="2.9605677723884583e-01" nType="-99"/>
        </Node>
      </Node>
    </BinaryTree>
    <BinaryTree type="DecisionTree" boostWeight="1.0000000000000000e+00" itree="787">
      <Node pos="s" depth="0" NCoef="0" IVar="48" Cut="8.1478744745254517e-01" cType="1" res="6.3055660575628281e-03" rms="2.1949738264083862e-01" purity="4.9750897288322449e-01" nType="0">
        <Node pos="l" depth="1" NCoef="0" IVar="20" Cut="1.1073439382016659e-03" cType="1" res="-4.4025531969964504e-03" rms="0.0000000000000000e+00" purity="1.5311411581933498e-02" nType="-99"/>
        <Node pos="r" depth="1" NCoef="0" IVar="2" Cut="1.4701985120773315e+00" cType="1" res="1.5432529151439667e-02" rms="2.3055548965930939e-01" purity="5.3127151727676392e-01" nType="0">
          <Node pos="l" depth="2" NCoef="0" IVar="-1" Cut="0.0000000000000000e+00" cType="1" res="-6.2089092098176479e-03" rms="1.2928289175033569e-01" purity="9.4607047736644745e-02" nType="-99"/>
          <Node pos="r" depth="2" NCoef="0" IVar="-1" Cut="0.0000000000000000e+00" cType="1" res="6.1663932865485549e-04" rms="2.3559860885143280e-01" purity="5.7302308082580566e-01" nType="-99"/>
        </Node>
      </Node>
    </BinaryTree>
    <BinaryTree type="DecisionTree" boostWeight="1.0000000000000000e+00" itree="788">
      <Node pos="s" depth="0" NCoef="0" IVar="5" Cut="2.6149797439575195e-01" cType="1" res="1.0750330984592438e-02" rms="2.3217745125293732e-01" purity="4.9870064854621887e-01" nType="0">
        <Node pos="l" depth="1" NCoef="0" IVar="57" Cut="-1.2264113426208496e+00" cType="1" res="4.1996147483587265e-02" rms="2.1977296471595764e-01" purity="6.6961920261383057e-01" nType="0">
          <Node pos="l" depth="2" NCoef="0" IVar="-1" Cut="0.0000000000000000e+00" cType="1" res="2.0910799503326416e-03" rms="2.3157289624214172e-01" purity="7.4698436260223389e-01" nType="-99"/>
          <Node pos="r" depth="2" NCoef="0" IVar="-1" Cut="0.0000000000000000e+00" cType="1" res="-6.6572939977049828e-04" rms="1.7731744050979614e-01" purity="5.1165431737899780e-01" nType="-99"/>
        </Node>
        <Node pos="r" depth="1" NCoef="0" IVar="2" Cut="2.5593318939208984e+00" cType="1" res="-2.4136602878570557e-02" rms="2.4053838849067688e-01" purity="3.0786478519439697e-01" nType="0">
          <Node pos="l" depth="2" NCoef="0" IVar="-1" Cut="0.0000000000000000e+00" cType="1" res="-2.2170601878315210e-03" rms="1.3550433516502380e-01" purity="1.6206848621368408e-01" nType="-99"/>
          <Node pos="r" depth="2" NCoef="0" IVar="-1" Cut="0.0000000000000000e+00" cType="1" res="4.0388415800407529e-04" rms="3.0874782800674438e-01" purity="4.6133512258529663e-01" nType="-99"/>
        </Node>
      </Node>
    </BinaryTree>
    <BinaryTree type="DecisionTree" boostWeight="1.0000000000000000e+00" itree="789">
      <Node pos="s" depth="0" NCoef="0" IVar="0" Cut="5.7856988906860352e-01" cType="1" res="6.1263218522071838e-03" rms="2.2174349427223206e-01" purity="4.9032336473464966e-01" nType="0">
        <Node pos="l" depth="1" NCoef="0" IVar="31" Cut="2.5888752937316895e+00" cType="1" res="3.8030579686164856e-02" rms="2.4092882871627808e-01" purity="5.6577807664871216e-01" nType="0">
          <Node pos="l" depth="2" NCoef="0" IVar="-1" Cut="0.0000000000000000e+00" cType="1" res="-4.8643937334418297e-03" rms="1.4453791081905365e-01" purity="1.1161910742521286e-01" nType="-99"/>
          <Node pos="r" depth="2" NCoef="0" IVar="-1" Cut="0.0000000000000000e+00" cType="1" res="1.1650921078398824e-03" rms="2.4485135078430176e-01" purity="6.0226577520370483e-01" nType="-99"/>
        </Node>
        <Node pos="r" depth="1" NCoef="0" IVar="48" Cut="9.6282005310058594e-01" cType="1" res="-2.8581848368048668e-02" rms="1.9287702441215515e-01" purity="4.0823733806610107e-01" nType="0">
          <Node pos="l" depth="2" NCoef="0" IVar="-1" Cut="0.0000000000000000e+00" cType="1" res="-3.7850488442927599e-03" rms="0.0000000000000000e+00" purity="-1.9924473017454147e-02" nType="-99"/>
          <Node pos="r" depth="2" NCoef="0" IVar="-1" Cut="0.0000000000000000e+00" cType="1" res="-4.1323542245663702e-04" rms="2.0920972526073456e-01" purity="4.7495573759078979e-01" nType="-99"/>
        </Node>
      </Node>
    </BinaryTree>
    <BinaryTree type="DecisionTree" boostWeight="1.0000000000000000e+00" itree="790">
      <Node pos="s" depth="0" NCoef="0" IVar="52" Cut="2.4369304180145264e+00" cType="1" res="1.6741940751671791e-02" rms="2.3071253299713135e-01" purity="5.0423991680145264e-01" nType="0">
        <Node pos="l" depth="1" NCoef="0" IVar="35" Cut="-1.0241944342851639e-01" cType="1" res="-6.8874619901180267e-02" rms="1.1119255423545837e-01" purity="2.5948879122734070e-01" nType="0">
          <Node pos="l" depth="2" NCoef="0" IVar="-1" Cut="0.0000000000000000e+00" cType="1" res="-9.1716425959020853e-04" rms="1.8885463476181030e-01" purity="3.0034726858139038e-01" nType="-99"/>
          <Node pos="r" depth="2" NCoef="0" IVar="-1" Cut="0.0000000000000000e+00" cType="1" res="-6.7122145555913448e-03" rms="0.0000000000000000e+00" purity="9.5148488879203796e-02" nType="-99"/>
        </Node>
        <Node pos="r" depth="1" NCoef="0" IVar="55" Cut="1.4341973066329956e+00" cType="1" res="2.8145693242549896e-02" rms="2.3992675542831421e-01" purity="5.3683966398239136e-01" nType="0">
          <Node pos="l" depth="2" NCoef="0" IVar="-1" Cut="0.0000000000000000e+00" cType="1" res="1.0968430433422327e-03" rms="2.4375484883785248e-01" purity="5.7467639446258545e-01" nType="-99"/>
          <Node pos="r" depth="2" NCoef="0" IVar="-1" Cut="0.0000000000000000e+00" cType="1" res="-7.9957453999668360e-04" rms="2.1750546991825104e-01" purity="4.0349140763282776e-01" nType="-99"/>
        </Node>
      </Node>
    </BinaryTree>
    <BinaryTree type="DecisionTree" boostWeight="1.0000000000000000e+00" itree="791">
      <Node pos="s" depth="0" NCoef="0" IVar="57" Cut="-1.9621528685092926e-01" cType="1" res="1.3279226608574390e-02" rms="2.2909843921661377e-01" purity="4.9955558776855469e-01" nType="0">
        <Node pos="l" depth="1" NCoef="0" IVar="5" Cut="2.8561219573020935e-01" cType="1" res="3.1656485050916672e-02" rms="2.4213202297687531e-01" purity="5.5273199081420898e-01" nType="0">
          <Node pos="l" depth="2" NCoef="0" IVar="-1" Cut="0.0000000000000000e+00" cType="1" res="1.7999570118263364e-03" rms="2.1790361404418945e-01" purity="7.2504186630249023e-01" nType="-99"/>
          <Node pos="r" depth="2" NCoef="0" IVar="-1" Cut="0.0000000000000000e+00" cType="1" res="-1.8544672639109194e-04" rms="2.6396876573562622e-01" purity="3.3668673038482666e-01" nType="-99"/>
        </Node>
        <Node pos="r" depth="1" NCoef="0" IVar="48" Cut="9.5349448919296265e-01" cType="1" res="-3.9616633206605911e-02" rms="1.7617560923099518e-01" purity="3.4649628400802612e-01" nType="0">
          <Node pos="l" depth="2" NCoef="0" IVar="-1" Cut="0.0000000000000000e+00" cType="1" res="-7.6015498489141464e-03" rms="0.0000000000000000e+00" purity="-5.5891033262014389e-02" nType="-99"/>
          <Node pos="r" depth="2" NCoef="0" IVar="-1" Cut="0.0000000000000000e+00" cType="1" res="-4.4485568650998175e-04" rms="2.2049553692340851e-01" purity="4.1986384987831116e-01" nType="-99"/>
        </Node>
      </Node>
    </BinaryTree>
    <BinaryTree type="DecisionTree" boostWeight="1.0000000000000000e+00" itree="792">
      <Node pos="s" depth="0" NCoef="0" IVar="15" Cut="1.5215698480606079e+00" cType="1" res="1.5377438627183437e-02" rms="2.3637089133262634e-01" purity="4.9878519773483276e-01" nType="0">
        <Node pos="l" depth="1" NCoef="0" IVar="14" Cut="-1.2994023561477661e+00" cType="1" res="2.5842715054750443e-02" rms="2.2068497538566589e-01" purity="5.0320118665695190e-01" nType="0">
          <Node pos="l" depth="2" NCoef="0" IVar="-1" Cut="0.0000000000000000e+00" cType="1" res="-9.5168920233845711e-04" rms="1.8642693758010864e-01" purity="2.2481252253055573e-01" nType="-99"/>
          <Node pos="r" depth="2" NCoef="0" IVar="-1" Cut="0.0000000000000000e+00" cType="1" res="1.1349304113537073e-03" rms="2.3001337051391602e-01" purity="6.1674797534942627e-01" nType="-99"/>
        </Node>
        <Node pos="r" depth="1" NCoef="0" IVar="15" Cut="1.5335022211074829e+00" cType="1" res="-6.8812102079391479e-02" rms="3.2492631673812866e-01" purity="4.6326032280921936e-01" nType="0">
          <Node pos="l" depth="2" NCoef="0" IVar="-1" Cut="0.0000000000000000e+00" cType="1" res="2.6532702031545341e-04" rms="3.0242875218391418e-01" purity="6.3409703969955444e-01" nType="-99"/>
          <Node pos="r" depth="2" NCoef="0" IVar="-1" Cut="0.0000000000000000e+00" cType="1" res="-5.4124500602483749e-03" rms="3.2001918554306030e-01" purity="2.3620589077472687e-01" nType="-99"/>
        </Node>
      </Node>
    </BinaryTree>
    <BinaryTree type="DecisionTree" boostWeight="1.0000000000000000e+00" itree="793">
      <Node pos="s" depth="0" NCoef="0" IVar="60" Cut="-8.1035345792770386e-01" cType="1" res="9.0776924043893814e-03" rms="2.1541616320610046e-01" purity="5.0566184520721436e-01" nType="0">
        <Node pos="l" depth="1" NCoef="0" IVar="5" Cut="3.5928255319595337e-01" cType="1" res="1.6677197068929672e-02" rms="2.2131299972534180e-01" purity="5.2777242660522461e-01" nType="0">
          <Node pos="l" depth="2" NCoef="0" IVar="-1" Cut="0.0000000000000000e+00" cType="1" res="1.1443089460954070e-03" rms="2.0239014923572540e-01" purity="6.6451108455657959e-01" nType="-99"/>
          <Node pos="r" depth="2" NCoef="0" IVar="-1" Cut="0.0000000000000000e+00" cType="1" res="-6.7280943039804697e-04" rms="2.4736309051513672e-01" purity="2.6086553931236267e-01" nType="-99"/>
        </Node>
        <Node pos="r" depth="1" NCoef="0" IVar="27" Cut="2.1279220581054688e+00" cType="1" res="-5.7735871523618698e-03" rms="0.0000000000000000e+00" purity="9.5732517540454865e-02" nType="-99"/>
      </Node>
    </BinaryTree>
    <BinaryTree type="DecisionTree" boostWeight="1.0000000000000000e+00" itree="794">
      <Node pos="s" depth="0" NCoef="0" IVar="0" Cut="7.0124703645706177e-01" cType="1" res="1.2802430428564548e-02" rms="2.3162776231765747e-01" purity="4.9363350868225098e-01" nType="0">
        <Node pos="l" depth="1" NCoef="0" IVar="14" Cut="-1.1059452295303345e+00" cType="1" res="3.6142673343420029e-02" rms="2.5032544136047363e-01" purity="5.4809087514877319e-01" nType="0">
          <Node pos="l" depth="2" NCoef="0" IVar="-1" Cut="0.0000000000000000e+00" cType="1" res="-9.3264628958422691e-05" rms="2.2131994366645813e-01" purity="4.0783044695854187e-01" nType="-99"/>
          <Node pos="r" depth="2" NCoef="0" IVar="-1" Cut="0.0000000000000000e+00" cType="1" res="1.4671016251668334e-03" rms="2.6536044478416443e-01" purity="6.4631927013397217e-01" nType="-99"/>
        </Node>
        <Node pos="r" depth="1" NCoef="0" IVar="52" Cut="2.3548238277435303e+00" cType="1" res="-2.6199560612440109e-02" rms="1.9016236066818237e-01" purity="4.0263417363166809e-01" nType="0">
          <Node pos="l" depth="2" NCoef="0" IVar="-1" Cut="0.0000000000000000e+00" cType="1" res="-4.7639003023505211e-03" rms="0.0000000000000000e+00" purity="-8.4517626091837883e-03" nType="-99"/>
          <Node pos="r" depth="2" NCoef="0" IVar="-1" Cut="0.0000000000000000e+00" cType="1" res="-3.8078072248026729e-04" rms="2.0368950068950653e-01" purity="4.4150426983833313e-01" nType="-99"/>
        </Node>
      </Node>
    </BinaryTree>
    <BinaryTree type="DecisionTree" boostWeight="1.0000000000000000e+00" itree="795">
      <Node pos="s" depth="0" NCoef="0" IVar="48" Cut="9.5065563917160034e-01" cType="1" res="9.5751266926527023e-03" rms="2.2717446088790894e-01" purity="4.9013090133666992e-01" nType="0">
        <Node pos="l" depth="1" NCoef="0" IVar="15" Cut="2.4510535597801208e-01" cType="1" res="-3.3325010444968939e-03" rms="0.0000000000000000e+00" purity="3.8924153894186020e-02" nType="-99"/>
        <Node pos="r" depth="1" NCoef="0" IVar="0" Cut="9.3315941095352173e-01" cType="1" res="2.2157004103064537e-02" rms="2.4068544805049896e-01" purity="5.4209750890731812e-01" nType="0">
          <Node pos="l" depth="2" NCoef="0" IVar="-1" Cut="0.0000000000000000e+00" cType="1" res="8.9104374637827277e-04" rms="2.4582031369209290e-01" purity="5.7025253772735596e-01" nType="-99"/>
          <Node pos="r" depth="2" NCoef="0" IVar="-1" Cut="0.0000000000000000e+00" cType="1" res="-1.4179951976984739e-03" rms="1.9297903776168823e-01" purity="3.8149809837341309e-01" nType="-99"/>
        </Node>
      </Node>
    </BinaryTree>
    <BinaryTree type="DecisionTree" boostWeight="1.0000000000000000e+00" itree="796">
      <Node pos="s" depth="0" NCoef="0" IVar="60" Cut="-8.4639251232147217e-01" cType="1" res="1.6978235915303230e-02" rms="2.4076500535011292e-01" purity="4.9699750542640686e-01" nType="0">
        <Node pos="l" depth="1" NCoef="0" IVar="3" Cut="4.9775466918945312e+00" cType="1" res="2.4936053901910782e-02" rms="2.4798935651779175e-01" purity="5.1817679405212402e-01" nType="0">
          <Node pos="l" depth="2" NCoef="0" IVar="-1" Cut="0.0000000000000000e+00" cType="1" res="2.3742456687614322e-04" rms="2.4370455741882324e-01" purity="4.9415245652198792e-01" nType="-99"/>
          <Node pos="r" depth="2" NCoef="0" IVar="-1" Cut="0.0000000000000000e+00" cType="1" res="2.1264457609504461e-03" rms="2.5481188297271729e-01" purity="6.0859662294387817e-01" nType="-99"/>
        </Node>
        <Node pos="r" depth="1" NCoef="0" IVar="5" Cut="5.8409918099641800e-02" cType="1" res="-3.7036414723843336e-03" rms="0.0000000000000000e+00" purity="1.8282333016395569e-01" nType="-99"/>
      </Node>
    </BinaryTree>
    <BinaryTree type="DecisionTree" boostWeight="1.0000000000000000e+00" itree="797">
      <Node pos="s" depth="0" NCoef="0" IVar="6" Cut="1.1488695144653320e+00" cType="1" res="7.8175207599997520e-03" rms="2.1683739125728607e-01" purity="4.9924826622009277e-01" nType="0">
        <Node pos="l" depth="1" NCoef="0" IVar="58" Cut="-3.7709933519363403e-01" cType="1" res="-4.1476758196949959e-03" rms="0.0000000000000000e+00" purity="5.8474190533161163e-02" nType="-99"/>
        <Node pos="r" depth="1" NCoef="0" IVar="27" Cut="1.3015823364257812e+00" cType="1" res="1.7943469807505608e-02" rms="2.2726716101169586e-01" purity="5.4030942916870117e-01" nType="0">
          <Node pos="l" depth="2" NCoef="0" IVar="-1" Cut="0.0000000000000000e+00" cType="1" res="-2.3990254849195480e-03" rms="1.6046577692031860e-01" purity="1.5994879603385925e-01" nType="-99"/>
          <Node pos="r" depth="2" NCoef="0" IVar="-1" Cut="0.0000000000000000e+00" cType="1" res="6.8873300915583968e-04" rms="2.3436620831489563e-01" purity="6.0149985551834106e-01" nType="-99"/>
        </Node>
      </Node>
    </BinaryTree>
    <BinaryTree type="DecisionTree" boostWeight="1.0000000000000000e+00" itree="798">
      <Node pos="s" depth="0" NCoef="0" IVar="5" Cut="2.8427755832672119e-01" cType="1" res="1.4450506307184696e-02" rms="2.2932368516921997e-01" purity="5.0150150060653687e-01" nType="0">
        <Node pos="l" depth="1" NCoef="0" IVar="36" Cut="1.3293907642364502e+00" cType="1" res="3.8623794913291931e-02" rms="2.0375937223434448e-01" purity="6.6738206148147583e-01" nType="0">
          <Node pos="l" depth="2" NCoef="0" IVar="-1" Cut="0.0000000000000000e+00" cType="1" res="-2.4277402553707361e-03" rms="9.5769710838794708e-02" purity="9.7838908433914185e-02" nType="-99"/>
          <Node pos="r" depth="2" NCoef="0" IVar="-1" Cut="0.0000000000000000e+00" cType="1" res="1.5143688069656491e-03" rms="2.1970915794372559e-01" purity="8.2522261142730713e-01" nType="-99"/>
        </Node>
        <Node pos="r" depth="1" NCoef="0" IVar="58" Cut="-1.2615904808044434e+00" cType="1" res="-1.5890318900346756e-02" rms="2.5462046265602112e-01" purity="2.9329848289489746e-01" nType="0">
          <Node pos="l" depth="2" NCoef="0" IVar="-1" Cut="0.0000000000000000e+00" cType="1" res="8.6507934611290693e-04" rms="3.0826869606971741e-01" purity="3.8258633017539978e-01" nType="-99"/>
          <Node pos="r" depth="2" NCoef="0" IVar="-1" Cut="0.0000000000000000e+00" cType="1" res="-1.2997089652344584e-03" rms="2.0835882425308228e-01" purity="2.3952187597751617e-01" nType="-99"/>
        </Node>
      </Node>
    </BinaryTree>
    <BinaryTree type="DecisionTree" boostWeight="1.0000000000000000e+00" itree="799">
      <Node pos="s" depth="0" NCoef="0" IVar="6" Cut="1.3651531934738159e+00" cType="1" res="1.9303387030959129e-02" rms="2.3800280690193176e-01" purity="5.0626128911972046e-01" nType="0">
        <Node pos="l" depth="1" NCoef="0" IVar="0" Cut="3.9097666740417480e-01" cType="1" res="-6.3339687883853912e-02" rms="1.1418540775775909e-01" purity="1.4183925092220306e-01" nType="0">
          <Node pos="l" depth="2" NCoef="0" IVar="-1" Cut="0.0000000000000000e+00" cType="1" res="6.1126047512516379e-04" rms="2.3625746369361877e-01" purity="3.2245898246765137e-01" nType="-99"/>
          <Node pos="r" depth="2" NCoef="0" IVar="-1" Cut="0.0000000000000000e+00" cType="1" res="-4.4590462930500507e-03" rms="0.0000000000000000e+00" purity="5.8872606605291367e-02" nType="-99"/>
        </Node>
        <Node pos="r" depth="1" NCoef="0" IVar="15" Cut="1.5212173461914062e+00" cType="1" res="3.1475197523832321e-02" rms="2.4882480502128601e-01" purity="5.5993402004241943e-01" nType="0">
          <Node pos="l" depth="2" NCoef="0" IVar="-1" Cut="0.0000000000000000e+00" cType="1" res="1.1187118943780661e-03" rms="2.3342992365360260e-01" purity="5.6881219148635864e-01" nType="-99"/>
          <Node pos="r" depth="2" NCoef="0" IVar="-1" Cut="0.0000000000000000e+00" cType="1" res="-1.0476864408701658e-03" rms="3.3056715130805969e-01" purity="4.9334281682968140e-01" nType="-99"/>
        </Node>
      </Node>
    </BinaryTree>
    <BinaryTree type="DecisionTree" boostWeight="1.0000000000000000e+00" itree="800">
      <Node pos="s" depth="0" NCoef="0" IVar="26" Cut="1.2345679104328156e-02" cType="1" res="2.0453808829188347e-02" rms="2.3553235828876495e-01" purity="5.0425124168395996e-01" nType="0">
        <Node pos="l" depth="1" NCoef="0" IVar="52" Cut="3.4225270748138428e+00" cType="1" res="2.6471633464097977e-02" rms="2.3768539726734161e-01" purity="5.2362984418869019e-01" nType="0">
          <Node pos="l" depth="2" NCoef="0" IVar="-1" Cut="0.0000000000000000e+00" cType="1" res="9.1470842016860843e-04" rms="2.4426627159118652e-01" purity="5.4085576534271240e-01" nType="-99"/>
          <Node pos="r" depth="2" NCoef="0" IVar="-1" Cut="0.0000000000000000e+00" cType="1" res="-2.0818547345697880e-03" rms="1.2530282139778137e-01" purity="3.5552069544792175e-01" nType="-99"/>
        </Node>
        <Node pos="r" depth="1" NCoef="0" IVar="-1" Cut="0.0000000000000000e+00" cType="1" res="-8.7894629687070847e-03" rms="0.0000000000000000e+00" purity="-4.6976976096630096e-02" nType="-99"/>
      </Node>
    </BinaryTree>
    <BinaryTree type="DecisionTree" boostWeight="1.0000000000000000e+00" itree="801">
      <Node pos="s" depth="0" NCoef="0" IVar="9" Cut="-6.1728394031524658e-01" cType="1" res="4.2391382157802582e-03" rms="2.1369297802448273e-01" purity="4.9859881401062012e-01" nType="0">
        <Node pos="l" depth="1" NCoef="0" IVar="-1" Cut="0.0000000000000000e+00" cType="1" res="-4.0000891312956810e-03" rms="0.0000000000000000e+00" purity="1.4617288112640381e-01" nType="-99"/>
        <Node pos="r" depth="1" NCoef="0" IVar="5" Cut="3.3984884619712830e-01" cType="1" res="1.0651940479874611e-02" rms="2.2008877992630005e-01" purity="5.1318401098251343e-01" nType="0">
          <Node pos="l" depth="2" NCoef="0" IVar="-1" Cut="0.0000000000000000e+00" cType="1" res="9.5049367519095540e-04" rms="2.0125903189182281e-01" purity="6.5586394071578979e-01" nType="-99"/>
          <Node pos="r" depth="2" NCoef="0" IVar="-1" Cut="0.0000000000000000e+00" cType="1" res="-6.4761441899463534e-04" rms="2.4531595408916473e-01" purity="2.6066604256629944e-01" nType="-99"/>
        </Node>
      </Node>
    </BinaryTree>
    <BinaryTree type="DecisionTree" boostWeight="1.0000000000000000e+00" itree="802">
      <Node pos="s" depth="0" NCoef="0" IVar="36" Cut="1.4460117816925049e+00" cType="1" res="1.5615203417837620e-02" rms="2.3199930787086487e-01" purity="4.9561259150505066e-01" nType="0">
        <Node pos="l" depth="1" NCoef="0" IVar="34" Cut="-9.9302822351455688e-01" cType="1" res="-2.8992360457777977e-02" rms="1.6535575687885284e-01" purity="1.3684913516044617e-01" nType="0">
          <Node pos="l" depth="2" NCoef="0" IVar="-1" Cut="0.0000000000000000e+00" cType="1" res="1.6737985424697399e-03" rms="2.2232352197170258e-01" purity="2.1195964515209198e-01" nType="-99"/>
          <Node pos="r" depth="2" NCoef="0" IVar="-1" Cut="0.0000000000000000e+00" cType="1" res="-3.5065368283540010e-03" rms="1.2429198622703552e-01" purity="1.0645636171102524e-01" nType="-99"/>
        </Node>
        <Node pos="r" depth="1" NCoef="0" IVar="2" Cut="1.5909271240234375e+00" cType="1" res="3.6046039313077927e-02" rms="2.5421172380447388e-01" purity="6.5993082523345947e-01" nType="0">
          <Node pos="l" depth="2" NCoef="0" IVar="-1" Cut="0.0000000000000000e+00" cType="1" res="-3.5478377249091864e-03" rms="2.1116453409194946e-01" purity="1.7197999358177185e-01" nType="-99"/>
          <Node pos="r" depth="2" NCoef="0" IVar="-1" Cut="0.0000000000000000e+00" cType="1" res="9.6521375235170126e-04" rms="2.5441378355026245e-01" purity="6.9750726222991943e-01" nType="-99"/>
        </Node>
      </Node>
    </BinaryTree>
    <BinaryTree type="DecisionTree" boostWeight="1.0000000000000000e+00" itree="803">
      <Node pos="s" depth="0" NCoef="0" IVar="52" Cut="2.4117941856384277e+00" cType="1" res="1.5695407986640930e-02" rms="2.3075810074806213e-01" purity="5.0134855508804321e-01" nType="0">
        <Node pos="l" depth="1" NCoef="0" IVar="55" Cut="1.1761711835861206e+00" cType="1" res="-2.3947258014231920e-03" rms="0.0000000000000000e+00" purity="2.1107149124145508e-01" nType="-99"/>
        <Node pos="r" depth="1" NCoef="0" IVar="39" Cut="-1.2394527196884155e+00" cType="1" res="2.7097897604107857e-02" rms="2.4258162081241608e-01" purity="5.3450471162796021e-01" nType="0">
          <Node pos="l" depth="2" NCoef="0" IVar="-1" Cut="0.0000000000000000e+00" cType="1" res="9.8640413489192724e-04" rms="2.4909198284149170e-01" purity="5.7258367538452148e-01" nType="-99"/>
          <Node pos="r" depth="2" NCoef="0" IVar="-1" Cut="0.0000000000000000e+00" cType="1" res="-2.0668520592153072e-03" rms="1.8269951641559601e-01" purity="3.2050636410713196e-01" nType="-99"/>
        </Node>
      </Node>
    </BinaryTree>
    <BinaryTree type="DecisionTree" boostWeight="1.0000000000000000e+00" itree="804">
      <Node pos="s" depth="0" NCoef="0" IVar="3" Cut="4.9840393066406250e+00" cType="1" res="1.3168796896934509e-02" rms="2.3604784905910492e-01" purity="4.9723467230796814e-01" nType="0">
        <Node pos="l" depth="1" NCoef="0" IVar="2" Cut="1.9816427230834961e+00" cType="1" res="1.7028614820446819e-05" rms="2.3344941437244415e-01" purity="4.7978687286376953e-01" nType="0">
          <Node pos="l" depth="2" NCoef="0" IVar="-1" Cut="0.0000000000000000e+00" cType="1" res="-4.1526989080011845e-03" rms="1.2375280261039734e-01" purity="1.0257081687450409e-01" nType="-99"/>
          <Node pos="r" depth="2" NCoef="0" IVar="-1" Cut="0.0000000000000000e+00" cType="1" res="4.2031120392493904e-04" rms="2.4950453639030457e-01" purity="5.7048255205154419e-01" nType="-99"/>
        </Node>
        <Node pos="r" depth="1" NCoef="0" IVar="36" Cut="9.8094224929809570e-01" cType="1" res="6.8852379918098450e-02" rms="2.3885305225849152e-01" purity="5.7110720872879028e-01" nType="0">
          <Node pos="l" depth="2" NCoef="0" IVar="-1" Cut="0.0000000000000000e+00" cType="1" res="-2.4054185487329960e-03" rms="0.0000000000000000e+00" purity="5.8134082704782486e-02" nType="-99"/>
          <Node pos="r" depth="2" NCoef="0" IVar="-1" Cut="0.0000000000000000e+00" cType="1" res="2.4665750097483397e-03" rms="2.7752467989921570e-01" purity="7.1362864971160889e-01" nType="-99"/>
        </Node>
      </Node>
    </BinaryTree>
    <BinaryTree type="DecisionTree" boostWeight="1.0000000000000000e+00" itree="805">
      <Node pos="s" depth="0" NCoef="0" IVar="48" Cut="9.6669495105743408e-01" cType="1" res="1.3559200800955296e-02" rms="2.2983984649181366e-01" purity="4.9508208036422729e-01" nType="0">
        <Node pos="l" depth="1" NCoef="0" IVar="67" Cut="9.8189759254455566e-01" cType="1" res="-6.1486285179853439e-02" rms="1.0714473575353622e-01" purity="8.3873577415943146e-02" nType="0">
          <Node pos="l" depth="2" NCoef="0" IVar="-1" Cut="0.0000000000000000e+00" cType="1" res="-3.8235504180192947e-03" rms="0.0000000000000000e+00" purity="-3.8249171338975430e-03" nType="-99"/>
          <Node pos="r" depth="2" NCoef="0" IVar="-1" Cut="0.0000000000000000e+00" cType="1" res="3.5715296689886600e-05" rms="2.4495604634284973e-01" purity="1.7187765240669250e-01" nType="-99"/>
        </Node>
        <Node pos="r" depth="1" NCoef="0" IVar="25" Cut="8.0857259035110474e-01" cType="1" res="2.3101326078176498e-02" rms="2.3932498693466187e-01" purity="5.4736781120300293e-01" nType="0">
          <Node pos="l" depth="2" NCoef="0" IVar="-1" Cut="0.0000000000000000e+00" cType="1" res="3.0772453173995018e-03" rms="3.2398006319999695e-01" purity="6.9502043724060059e-01" nType="-99"/>
          <Node pos="r" depth="2" NCoef="0" IVar="-1" Cut="0.0000000000000000e+00" cType="1" res="4.4748169602826238e-04" rms="2.3248459398746490e-01" purity="5.3982609510421753e-01" nType="-99"/>
        </Node>
      </Node>
    </BinaryTree>
    <BinaryTree type="DecisionTree" boostWeight="1.0000000000000000e+00" itree="806">
      <Node pos="s" depth="0" NCoef="0" IVar="0" Cut="6.9999265670776367e-01" cType="1" res="1.3005823828279972e-02" rms="2.3567992448806763e-01" purity="4.9453255534172058e-01" nType="0">
        <Node pos="l" depth="1" NCoef="0" IVar="3" Cut="5.1541304588317871e+00" cType="1" res="3.5498376935720444e-02" rms="2.5056445598602295e-01" purity="5.4684221744537354e-01" nType="0">
          <Node pos="l" depth="2" NCoef="0" IVar="-1" Cut="0.0000000000000000e+00" cType="1" res="6.4795656362548470e-04" rms="2.4420239031314850e-01" purity="5.4707884788513184e-01" nType="-99"/>
          <Node pos="r" depth="2" NCoef="0" IVar="-1" Cut="0.0000000000000000e+00" cType="1" res="3.1498165335506201e-03" rms="2.8714710474014282e-01" purity="5.4454785585403442e-01" nType="-99"/>
        </Node>
        <Node pos="r" depth="1" NCoef="0" IVar="1" Cut="2.7642827033996582e+00" cType="1" res="-2.3857714608311653e-02" rms="2.0370376110076904e-01" purity="4.0880119800567627e-01" nType="0">
          <Node pos="l" depth="2" NCoef="0" IVar="-1" Cut="0.0000000000000000e+00" cType="1" res="-3.4420364536345005e-03" rms="0.0000000000000000e+00" purity="7.5574070215225220e-02" nType="-99"/>
          <Node pos="r" depth="2" NCoef="0" IVar="-1" Cut="0.0000000000000000e+00" cType="1" res="2.6902154786512256e-04" rms="2.4682836234569550e-01" purity="5.7326328754425049e-01" nType="-99"/>
        </Node>
      </Node>
    </BinaryTree>
    <BinaryTree type="DecisionTree" boostWeight="1.0000000000000000e+00" itree="807">
      <Node pos="s" depth="0" NCoef="0" IVar="1" Cut="2.7731549739837646e+00" cType="1" res="9.0517774224281311e-03" rms="2.2924099862575531e-01" purity="4.9034601449966431e-01" nType="0">
        <Node pos="l" depth="1" NCoef="0" IVar="3" Cut="4.8529062271118164e+00" cType="1" res="-3.7268090993165970e-02" rms="1.7488771677017212e-01" purity="1.9582645595073700e-01" nType="0">
          <Node pos="l" depth="2" NCoef="0" IVar="-1" Cut="0.0000000000000000e+00" cType="1" res="-3.7883387412875891e-03" rms="1.0583632439374924e-01" purity="7.9169243574142456e-02" nType="-99"/>
          <Node pos="r" depth="2" NCoef="0" IVar="-1" Cut="0.0000000000000000e+00" cType="1" res="8.4761093603447080e-04" rms="2.3116202652454376e-01" purity="3.8568040728569031e-01" nType="-99"/>
        </Node>
        <Node pos="r" depth="1" NCoef="0" IVar="2" Cut="1.5611747503280640e+00" cType="1" res="2.9835522174835205e-02" rms="2.4700768291950226e-01" purity="6.2249708175659180e-01" nType="0">
          <Node pos="l" depth="2" NCoef="0" IVar="-1" Cut="0.0000000000000000e+00" cType="1" res="-1.0787477716803551e-02" rms="4.2722288519144058e-02" purity="7.3123894631862640e-02" nType="-99"/>
          <Node pos="r" depth="2" NCoef="0" IVar="-1" Cut="0.0000000000000000e+00" cType="1" res="8.6473673582077026e-04" rms="2.5111567974090576e-01" purity="6.5219342708587646e-01" nType="-99"/>
        </Node>
      </Node>
    </BinaryTree>
    <BinaryTree type="DecisionTree" boostWeight="1.0000000000000000e+00" itree="808">
      <Node pos="s" depth="0" NCoef="0" IVar="36" Cut="9.8204135894775391e-01" cType="1" res="2.6891859248280525e-02" rms="2.3847505450248718e-01" purity="5.1211178302764893e-01" nType="0">
        <Node pos="l" depth="1" NCoef="0" IVar="58" Cut="-4.2679086327552795e-01" cType="1" res="-3.1302798539400101e-02" rms="6.8237319588661194e-02" purity="3.2169982790946960e-02" nType="0">
          <Node pos="l" depth="2" NCoef="0" IVar="-1" Cut="0.0000000000000000e+00" cType="1" res="4.3344040750525892e-04" rms="1.8749603629112244e-01" purity="7.7123135328292847e-02" nType="-99"/>
          <Node pos="r" depth="2" NCoef="0" IVar="-1" Cut="0.0000000000000000e+00" cType="1" res="-1.3452585786581039e-02" rms="0.0000000000000000e+00" purity="-5.4624531418085098e-02" nType="-99"/>
        </Node>
        <Node pos="r" depth="1" NCoef="0" IVar="38" Cut="-1.4396666288375854e+00" cType="1" res="3.9774689823389053e-02" rms="2.5983369350433350e-01" purity="6.1835885047912598e-01" nType="0">
          <Node pos="l" depth="2" NCoef="0" IVar="-1" Cut="0.0000000000000000e+00" cType="1" res="2.6872595772147179e-03" rms="2.9174706339836121e-01" purity="7.3169511556625366e-01" nType="-99"/>
          <Node pos="r" depth="2" NCoef="0" IVar="-1" Cut="0.0000000000000000e+00" cType="1" res="6.3869648147374392e-04" rms="2.5386995077133179e-01" purity="6.0635173320770264e-01" nType="-99"/>
        </Node>
      </Node>
    </BinaryTree>
    <BinaryTree type="DecisionTree" boostWeight="1.0000000000000000e+00" itree="809">
      <Node pos="s" depth="0" NCoef="0" IVar="3" Cut="5.1425518989562988e+00" cType="1" res="1.4551123604178429e-02" rms="2.2882297635078430e-01" purity="4.9875760078430176e-01" nType="0">
        <Node pos="l" depth="1" NCoef="0" IVar="2" Cut="2.2554228305816650e+00" cType="1" res="5.0101242959499359e-03" rms="2.2395165264606476e-01" purity="4.9432879686355591e-01" nType="0">
          <Node pos="l" depth="2" NCoef="0" IVar="-1" Cut="0.0000000000000000e+00" cType="1" res="-1.5246373368427157e-03" rms="1.8407142162322998e-01" purity="2.3794975876808167e-01" nType="-99"/>
          <Node pos="r" depth="2" NCoef="0" IVar="-1" Cut="0.0000000000000000e+00" cType="1" res="6.1617122264578938e-04" rms="2.3824587464332581e-01" purity="6.2076961994171143e-01" nType="-99"/>
        </Node>
        <Node pos="r" depth="1" NCoef="0" IVar="17" Cut="-2.4928113445639610e-02" cType="1" res="1.0463023930788040e-01" rms="2.5339692831039429e-01" purity="5.4057115316390991e-01" nType="0">
          <Node pos="l" depth="2" NCoef="0" IVar="-1" Cut="0.0000000000000000e+00" cType="1" res="-2.3082748055458069e-02" rms="0.0000000000000000e+00" purity="-6.1432603746652603e-02" nType="-99"/>
          <Node pos="r" depth="2" NCoef="0" IVar="-1" Cut="0.0000000000000000e+00" cType="1" res="2.8924269136041403e-03" rms="3.0493950843811035e-01" purity="7.4031960964202881e-01" nType="-99"/>
        </Node>
      </Node>
    </BinaryTree>
    <BinaryTree type="DecisionTree" boostWeight="1.0000000000000000e+00" itree="810">
      <Node pos="s" depth="0" NCoef="0" IVar="0" Cut="6.2229758501052856e-01" cType="1" res="1.0657736100256443e-02" rms="2.3461516201496124e-01" purity="4.9224534630775452e-01" nType="0">
        <Node pos="l" depth="1" NCoef="0" IVar="2" Cut="1.4364973306655884e+00" cType="1" res="3.5563535988330841e-02" rms="2.4585641920566559e-01" purity="5.5805313587188721e-01" nType="0">
          <Node pos="l" depth="2" NCoef="0" IVar="-1" Cut="0.0000000000000000e+00" cType="1" res="-4.8325471580028534e-03" rms="1.7207667231559753e-01" purity="8.8093012571334839e-02" nType="-99"/>
          <Node pos="r" depth="2" NCoef="0" IVar="-1" Cut="0.0000000000000000e+00" cType="1" res="1.0705075692385435e-03" rms="2.4919138848781586e-01" purity="6.0112166404724121e-01" nType="-99"/>
        </Node>
        <Node pos="r" depth="1" NCoef="0" IVar="27" Cut="1.2594306468963623e+00" cType="1" res="-1.9981199875473976e-02" rms="2.1609731018543243e-01" purity="4.1128912568092346e-01" nType="0">
          <Node pos="l" depth="2" NCoef="0" IVar="-1" Cut="0.0000000000000000e+00" cType="1" res="-5.2319788374006748e-03" rms="0.0000000000000000e+00" purity="7.8721962869167328e-02" nType="-99"/>
          <Node pos="r" depth="2" NCoef="0" IVar="-1" Cut="0.0000000000000000e+00" cType="1" res="-9.7066564194392413e-05" rms="2.4197851121425629e-01" purity="4.7518819570541382e-01" nType="-99"/>
        </Node>
      </Node>
    </BinaryTree>
    <BinaryTree type="DecisionTree" boostWeight="1.0000000000000000e+00" itree="811">
      <Node pos="s" depth="0" NCoef="0" IVar="5" Cut="2.8204399347305298e-01" cType="1" res="1.1253997683525085e-02" rms="2.2749452292919159e-01" purity="5.0495630502700806e-01" nType="0">
        <Node pos="l" depth="1" NCoef="0" IVar="60" Cut="-8.9712935686111450e-01" cType="1" res="3.8230199366807938e-02" rms="2.0457077026367188e-01" purity="6.7536211013793945e-01" nType="0">
          <Node pos="l" depth="2" NCoef="0" IVar="-1" Cut="0.0000000000000000e+00" cType="1" res="1.4061667025089264e-03" rms="2.0933198928833008e-01" purity="7.0797675848007202e-01" nType="-99"/>
          <Node pos="r" depth="2" NCoef="0" IVar="-1" Cut="0.0000000000000000e+00" cType="1" res="-3.0095558613538742e-03" rms="6.0683209449052811e-02" purity="3.1246313452720642e-01" nType="-99"/>
        </Node>
        <Node pos="r" depth="1" NCoef="0" IVar="17" Cut="1.5214687585830688e+00" cType="1" res="-2.2220682352781296e-02" rms="2.4903957545757294e-01" purity="2.9350030422210693e-01" nType="0">
          <Node pos="l" depth="2" NCoef="0" IVar="-1" Cut="0.0000000000000000e+00" cType="1" res="-1.2478429125621915e-03" rms="2.0664575695991516e-01" purity="1.3662022352218628e-01" nType="-99"/>
          <Node pos="r" depth="2" NCoef="0" IVar="-1" Cut="0.0000000000000000e+00" cType="1" res="6.0208502691239119e-04" rms="3.4033194184303284e-01" purity="7.7464890480041504e-01" nType="-99"/>
        </Node>
      </Node>
    </BinaryTree>
    <BinaryTree type="DecisionTree" boostWeight="1.0000000000000000e+00" itree="812">
      <Node pos="s" depth="0" NCoef="0" IVar="60" Cut="-1.3405139446258545e+00" cType="1" res="8.7200701236724854e-03" rms="2.3408576846122742e-01" purity="4.9231693148612976e-01" nType="0">
        <Node pos="l" depth="1" NCoef="0" IVar="5" Cut="2.8417992591857910e-01" cType="1" res="2.6871960610151291e-02" rms="2.4597419798374176e-01" purity="5.4182684421539307e-01" nType="0">
          <Node pos="l" depth="2" NCoef="0" IVar="-1" Cut="0.0000000000000000e+00" cType="1" res="1.5832744538784027e-03" rms="2.2276808321475983e-01" purity="7.2325187921524048e-01" nType="-99"/>
          <Node pos="r" depth="2" NCoef="0" IVar="-1" Cut="0.0000000000000000e+00" cType="1" res="-2.0640391448978335e-04" rms="2.6793041825294495e-01" purity="3.1440120935440063e-01" nType="-99"/>
        </Node>
        <Node pos="r" depth="1" NCoef="0" IVar="5" Cut="3.0306446552276611e-01" cType="1" res="-5.7926680892705917e-02" rms="1.6789910197257996e-01" purity="3.1053566932678223e-01" nType="0">
          <Node pos="l" depth="2" NCoef="0" IVar="-1" Cut="0.0000000000000000e+00" cType="1" res="-5.5076857097446918e-04" rms="2.0590540766716003e-01" purity="4.6393072605133057e-01" nType="-99"/>
          <Node pos="r" depth="2" NCoef="0" IVar="-1" Cut="0.0000000000000000e+00" cType="1" res="-4.1490816511213779e-03" rms="0.0000000000000000e+00" purity="4.6602994203567505e-02" nType="-99"/>
        </Node>
      </Node>
    </BinaryTree>
    <BinaryTree type="DecisionTree" boostWeight="1.0000000000000000e+00" itree="813">
      <Node pos="s" depth="0" NCoef="0" IVar="15" Cut="1.5225218534469604e+00" cType="1" res="8.7606683373451233e-03" rms="2.3213876783847809e-01" purity="4.9355673789978027e-01" nType="0">
        <Node pos="l" depth="1" NCoef="0" IVar="60" Cut="-8.4582042694091797e-01" cType="1" res="2.0364329218864441e-02" rms="2.1642036736011505e-01" purity="5.0040596723556519e-01" nType="0">
          <Node pos="l" depth="2" NCoef="0" IVar="-1" Cut="0.0000000000000000e+00" cType="1" res="7.6674408046528697e-04" rms="2.2403421998023987e-01" purity="5.2439194917678833e-01" nType="-99"/>
          <Node pos="r" depth="2" NCoef="0" IVar="-1" Cut="0.0000000000000000e+00" cType="1" res="-4.2367298156023026e-03" rms="0.0000000000000000e+00" purity="1.4237311482429504e-01" nType="-99"/>
        </Node>
        <Node pos="r" depth="1" NCoef="0" IVar="15" Cut="1.5363622903823853e+00" cType="1" res="-8.9575938880443573e-02" rms="3.2066905498504639e-01" purity="4.3551206588745117e-01" nType="0">
          <Node pos="l" depth="2" NCoef="0" IVar="-1" Cut="0.0000000000000000e+00" cType="1" res="-2.5750318309292197e-04" rms="3.0078688263893127e-01" purity="5.7978969812393188e-01" nType="-99"/>
          <Node pos="r" depth="2" NCoef="0" IVar="-1" Cut="0.0000000000000000e+00" cType="1" res="-7.7956146560609341e-03" rms="3.1531181931495667e-01" purity="1.9589073956012726e-01" nType="-99"/>
        </Node>
      </Node>
    </BinaryTree>
    <BinaryTree type="DecisionTree" boostWeight="1.0000000000000000e+00" itree="814">
      <Node pos="s" depth="0" NCoef="0" IVar="48" Cut="1.0207147598266602e+00" cType="1" res="1.2609427794814110e-02" rms="2.3586457967758179e-01" purity="4.9909877777099609e-01" nType="0">
        <Node pos="l" depth="1" NCoef="0" IVar="67" Cut="1.0887484550476074e+00" cType="1" res="-8.0130144953727722e-02" rms="6.8929612636566162e-02" purity="6.4576707780361176e-02" nType="0">
          <Node pos="l" depth="2" NCoef="0" IVar="-1" Cut="0.0000000000000000e+00" cType="1" res="-3.8405382074415684e-03" rms="0.0000000000000000e+00" purity="2.1452756598591805e-02" nType="-99"/>
          <Node pos="r" depth="2" NCoef="0" IVar="-1" Cut="0.0000000000000000e+00" cType="1" res="2.7530854567885399e-03" rms="3.5505816340446472e-01" purity="2.5844356417655945e-01" nType="-99"/>
        </Node>
        <Node pos="r" depth="1" NCoef="0" IVar="31" Cut="2.5869278907775879e+00" cType="1" res="2.5203250348567963e-02" rms="2.4741674959659576e-01" purity="5.5810582637786865e-01" nType="0">
          <Node pos="l" depth="2" NCoef="0" IVar="-1" Cut="0.0000000000000000e+00" cType="1" res="-6.2745865434408188e-03" rms="1.5948043763637543e-01" purity="1.0564857721328735e-01" nType="-99"/>
          <Node pos="r" depth="2" NCoef="0" IVar="-1" Cut="0.0000000000000000e+00" cType="1" res="8.6488149827346206e-04" rms="2.5098505616188049e-01" purity="5.9661561250686646e-01" nType="-99"/>
        </Node>
      </Node>
    </BinaryTree>
    <BinaryTree type="DecisionTree" boostWeight="1.0000000000000000e+00" itree="815">
      <Node pos="s" depth="0" NCoef="0" IVar="25" Cut="1.1111268997192383e+00" cType="1" res="1.1843496933579445e-02" rms="2.3027820885181427e-01" purity="4.9847608804702759e-01" nType="0">
        <Node pos="l" depth="1" NCoef="0" IVar="8" Cut="-9.1139173507690430e-01" cType="1" res="1.9482096657156944e-02" rms="2.3468634486198425e-01" purity="5.1988905668258667e-01" nType="0">
          <Node pos="l" depth="2" NCoef="0" IVar="-1" Cut="0.0000000000000000e+00" cType="1" res="6.3438824145123363e-04" rms="2.3546403646469116e-01" purity="5.4076647758483887e-01" nType="-99"/>
          <Node pos="r" depth="2" NCoef="0" IVar="-1" Cut="0.0000000000000000e+00" cType="1" res="-4.1983393020927906e-03" rms="1.7834024131298065e-01" purity="7.4655085802078247e-02" nType="-99"/>
        </Node>
        <Node pos="r" depth="1" NCoef="0" IVar="16" Cut="-7.3189370334148407e-02" cType="1" res="-7.5385920703411102e-02" rms="1.4610575139522552e-01" purity="2.5394937396049500e-01" nType="0">
          <Node pos="l" depth="2" NCoef="0" IVar="-1" Cut="0.0000000000000000e+00" cType="1" res="-1.5097743598744273e-03" rms="1.9957298040390015e-01" purity="3.2951727509498596e-01" nType="-99"/>
          <Node pos="r" depth="2" NCoef="0" IVar="-1" Cut="0.0000000000000000e+00" cType="1" res="-9.5326108857989311e-03" rms="0.0000000000000000e+00" purity="8.2969605922698975e-02" nType="-99"/>
        </Node>
      </Node>
    </BinaryTree>
    <BinaryTree type="DecisionTree" boostWeight="1.0000000000000000e+00" itree="816">
      <Node pos="s" depth="0" NCoef="0" IVar="8" Cut="-1.2410440444946289e+00" cType="1" res="1.0219614021480083e-02" rms="2.2713692486286163e-01" purity="4.9106219410896301e-01" nType="0">
        <Node pos="l" depth="1" NCoef="0" IVar="15" Cut="1.5225218534469604e+00" cType="1" res="1.7475942149758339e-02" rms="2.3011140525341034e-01" purity="5.1515489816665649e-01" nType="0">
          <Node pos="l" depth="2" NCoef="0" IVar="-1" Cut="0.0000000000000000e+00" cType="1" res="7.9047289909794927e-04" rms="2.1738569438457489e-01" purity="5.2280986309051514e-01" nType="-99"/>
          <Node pos="r" depth="2" NCoef="0" IVar="-1" Cut="0.0000000000000000e+00" cType="1" res="-1.6385877970606089e-03" rms="2.9783377051353455e-01" purity="4.5251926779747009e-01" nType="-99"/>
        </Node>
        <Node pos="r" depth="1" NCoef="0" IVar="37" Cut="-6.8807828426361084e-01" cType="1" res="-7.0844348520040512e-03" rms="0.0000000000000000e+00" purity="-1.1456969194114208e-02" nType="-99"/>
      </Node>
    </BinaryTree>
    <BinaryTree type="DecisionTree" boostWeight="1.0000000000000000e+00" itree="817">
      <Node pos="s" depth="0" NCoef="0" IVar="26" Cut="1.2345679104328156e-02" cType="1" res="1.6875220462679863e-02" rms="2.3996947705745697e-01" purity="5.0250905752182007e-01" nType="0">
        <Node pos="l" depth="1" NCoef="0" IVar="2" Cut="1.4834146499633789e+00" cType="1" res="2.2545583546161652e-02" rms="2.4301278591156006e-01" purity="5.2135688066482544e-01" nType="0">
          <Node pos="l" depth="2" NCoef="0" IVar="-1" Cut="0.0000000000000000e+00" cType="1" res="-3.3532804809510708e-03" rms="1.7346988618373871e-01" purity="1.0326628386974335e-01" nType="-99"/>
          <Node pos="r" depth="2" NCoef="0" IVar="-1" Cut="0.0000000000000000e+00" cType="1" res="7.6504319440573454e-04" rms="2.4773514270782471e-01" purity="5.6598436832427979e-01" nType="-99"/>
        </Node>
        <Node pos="r" depth="1" NCoef="0" IVar="-1" Cut="0.0000000000000000e+00" cType="1" res="-7.6082842424511909e-03" rms="0.0000000000000000e+00" purity="-2.9538711532950401e-02" nType="-99"/>
      </Node>
    </BinaryTree>
    <BinaryTree type="DecisionTree" boostWeight="1.0000000000000000e+00" itree="818">
      <Node pos="s" depth="0" NCoef="0" IVar="25" Cut="9.8186290264129639e-01" cType="1" res="1.6453092917799950e-02" rms="2.3927955329418182e-01" purity="4.9339580535888672e-01" nType="0">
        <Node pos="l" depth="1" NCoef="0" IVar="31" Cut="2.5765049457550049e+00" cType="1" res="4.0474496781826019e-02" rms="2.4777142703533173e-01" purity="5.5637443065643311e-01" nType="0">
          <Node pos="l" depth="2" NCoef="0" IVar="-1" Cut="0.0000000000000000e+00" cType="1" res="-5.9790695086121559e-03" rms="1.3206702470779419e-01" purity="7.7069938182830811e-02" nType="-99"/>
          <Node pos="r" depth="2" NCoef="0" IVar="-1" Cut="0.0000000000000000e+00" cType="1" res="1.1267306981608272e-03" rms="2.5286802649497986e-01" purity="6.0083937644958496e-01" nType="-99"/>
        </Node>
        <Node pos="r" depth="1" NCoef="0" IVar="3" Cut="5.2623047828674316e+00" cType="1" res="-2.1058261394500732e-02" rms="2.2019962966442108e-01" purity="3.9504957199096680e-01" nType="0">
          <Node pos="l" depth="2" NCoef="0" IVar="-1" Cut="0.0000000000000000e+00" cType="1" res="-1.1355326278135180e-03" rms="2.0174750685691833e-01" purity="3.9306363463401794e-01" nType="-99"/>
          <Node pos="r" depth="2" NCoef="0" IVar="-1" Cut="0.0000000000000000e+00" cType="1" res="5.5199619382619858e-03" rms="3.6075106263160706e-01" purity="4.2725306749343872e-01" nType="-99"/>
        </Node>
      </Node>
    </BinaryTree>
    <BinaryTree type="DecisionTree" boostWeight="1.0000000000000000e+00" itree="819">
      <Node pos="s" depth="0" NCoef="0" IVar="15" Cut="1.5203990936279297e+00" cType="1" res="1.3940755277872086e-02" rms="2.3390568792819977e-01" purity="5.0676155090332031e-01" nType="0">
        <Node pos="l" depth="1" NCoef="0" IVar="10" Cut="2.9639048576354980e+00" cType="1" res="2.4065816774964333e-02" rms="2.1857458353042603e-01" purity="5.0629031658172607e-01" nType="0">
          <Node pos="l" depth="2" NCoef="0" IVar="-1" Cut="0.0000000000000000e+00" cType="1" res="-9.1557612176984549e-04" rms="2.2113589942455292e-01" purity="1.6811951994895935e-01" nType="-99"/>
          <Node pos="r" depth="2" NCoef="0" IVar="-1" Cut="0.0000000000000000e+00" cType="1" res="1.0828741360455751e-03" rms="2.1531443297863007e-01" purity="6.0679763555526733e-01" nType="-99"/>
        </Node>
        <Node pos="r" depth="1" NCoef="0" IVar="15" Cut="1.5356606245040894e+00" cType="1" res="-5.3292457014322281e-02" rms="3.0915138125419617e-01" purity="5.0989061594009399e-01" nType="0">
          <Node pos="l" depth="2" NCoef="0" IVar="-1" Cut="0.0000000000000000e+00" cType="1" res="6.1570804973598570e-05" rms="2.8657090663909912e-01" purity="6.3694638013839722e-01" nType="-99"/>
          <Node pos="r" depth="2" NCoef="0" IVar="-1" Cut="0.0000000000000000e+00" cType="1" res="-5.1799048669636250e-03" rms="3.2034891843795776e-01" purity="2.3832571506500244e-01" nType="-99"/>
        </Node>
      </Node>
    </BinaryTree>
    <BinaryTree type="DecisionTree" boostWeight="1.0000000000000000e+00" itree="820">
      <Node pos="s" depth="0" NCoef="0" IVar="3" Cut="4.9661574363708496e+00" cType="1" res="9.8592052236199379e-03" rms="2.2757203876972198e-01" purity="4.8514223098754883e-01" nType="0">
        <Node pos="l" depth="1" NCoef="0" IVar="5" Cut="4.3691271543502808e-01" cType="1" res="-7.4596521444618702e-03" rms="2.2328335046768188e-01" purity="4.5331174135208130e-01" nType="0">
          <Node pos="l" depth="2" NCoef="0" IVar="-1" Cut="0.0000000000000000e+00" cType="1" res="3.6262971116229892e-04" rms="2.1689565479755402e-01" purity="5.6946861743927002e-01" nType="-99"/>
          <Node pos="r" depth="2" NCoef="0" IVar="-1" Cut="0.0000000000000000e+00" cType="1" res="-1.6577829374000430e-03" rms="2.3088350892066956e-01" purity="1.2312556803226471e-01" nType="-99"/>
        </Node>
        <Node pos="r" depth="1" NCoef="0" IVar="17" Cut="2.0728163421154022e-01" cType="1" res="6.9573312997817993e-02" rms="2.3206877708435059e-01" purity="5.9489136934280396e-01" nType="0">
          <Node pos="l" depth="2" NCoef="0" IVar="-1" Cut="0.0000000000000000e+00" cType="1" res="-5.6081139482557774e-03" rms="2.8286356478929520e-02" purity="4.2377011850476265e-03" nType="-99"/>
          <Node pos="r" depth="2" NCoef="0" IVar="-1" Cut="0.0000000000000000e+00" cType="1" res="1.8395911902189255e-03" rms="2.5776147842407227e-01" purity="7.6710599660873413e-01" nType="-99"/>
        </Node>
      </Node>
    </BinaryTree>
    <BinaryTree type="DecisionTree" boostWeight="1.0000000000000000e+00" itree="821">
      <Node pos="s" depth="0" NCoef="0" IVar="52" Cut="2.4215178489685059e+00" cType="1" res="8.7383128702640533e-03" rms="2.2617247700691223e-01" purity="4.9732252955436707e-01" nType="0">
        <Node pos="l" depth="1" NCoef="0" IVar="13" Cut="1.3994591236114502e+00" cType="1" res="-8.2988873124122620e-02" rms="2.4519976228475571e-02" purity="2.0326338708400726e-01" nType="0">
          <Node pos="l" depth="2" NCoef="0" IVar="-1" Cut="0.0000000000000000e+00" cType="1" res="-6.9321402406785637e-05" rms="9.4924703240394592e-02" purity="1.2234422564506531e-01" nType="-99"/>
          <Node pos="r" depth="2" NCoef="0" IVar="-1" Cut="0.0000000000000000e+00" cType="1" res="-2.8598126955330372e-03" rms="0.0000000000000000e+00" purity="2.6431572437286377e-01" nType="-99"/>
        </Node>
        <Node pos="r" depth="1" NCoef="0" IVar="27" Cut="1.2592766284942627e+00" cType="1" res="1.9755944609642029e-02" rms="2.3684178292751312e-01" purity="5.3264284133911133e-01" nType="0">
          <Node pos="l" depth="2" NCoef="0" IVar="-1" Cut="0.0000000000000000e+00" cType="1" res="-3.1133880838751793e-03" rms="1.2325462698936462e-01" purity="1.5724664926528931e-01" nType="-99"/>
          <Node pos="r" depth="2" NCoef="0" IVar="-1" Cut="0.0000000000000000e+00" cType="1" res="7.7956885797902942e-04" rms="2.4657246470451355e-01" purity="5.8583503961563110e-01" nType="-99"/>
        </Node>
      </Node>
    </BinaryTree>
    <BinaryTree type="DecisionTree" boostWeight="1.0000000000000000e+00" itree="822">
      <Node pos="s" depth="0" NCoef="0" IVar="52" Cut="2.3888270854949951e+00" cType="1" res="1.6106652095913887e-02" rms="2.2860865294933319e-01" purity="5.0751298666000366e-01" nType="0">
        <Node pos="l" depth="1" NCoef="0" IVar="17" Cut="1.4057568311691284e+00" cType="1" res="-8.3143331110477448e-02" rms="1.0280770808458328e-01" purity="2.0408755540847778e-01" nType="0">
          <Node pos="l" depth="2" NCoef="0" IVar="-1" Cut="0.0000000000000000e+00" cType="1" res="-7.6657586032524705e-04" rms="8.4693014621734619e-02" purity="2.2821340709924698e-02" nType="-99"/>
          <Node pos="r" depth="2" NCoef="0" IVar="-1" Cut="0.0000000000000000e+00" cType="1" res="-2.7534672990441322e-03" rms="3.6478757858276367e-02" purity="3.8785508275032043e-01" nType="-99"/>
        </Node>
        <Node pos="r" depth="1" NCoef="0" IVar="18" Cut="-9.7463428974151611e-01" cType="1" res="2.6257913559675217e-02" rms="2.3540528118610382e-01" purity="5.3854721784591675e-01" nType="0">
          <Node pos="l" depth="2" NCoef="0" IVar="-1" Cut="0.0000000000000000e+00" cType="1" res="8.8574312394484878e-04" rms="2.3457348346710205e-01" purity="5.6516820192337036e-01" nType="-99"/>
          <Node pos="r" depth="2" NCoef="0" IVar="-1" Cut="0.0000000000000000e+00" cType="1" res="-3.8915588520467281e-03" rms="2.1779701113700867e-01" purity="1.9426761567592621e-01" nType="-99"/>
        </Node>
      </Node>
    </BinaryTree>
    <BinaryTree type="DecisionTree" boostWeight="1.0000000000000000e+00" itree="823">
      <Node pos="s" depth="0" NCoef="0" IVar="34" Cut="-1.4926186800003052e+00" cType="1" res="1.7659677192568779e-02" rms="2.2873763740062714e-01" purity="5.0415450334548950e-01" nType="0">
        <Node pos="l" depth="1" NCoef="0" IVar="17" Cut="1.4055463075637817e+00" cType="1" res="1.2714032828807831e-01" rms="2.6369205117225647e-01" purity="5.7734328508377075e-01" nType="0">
          <Node pos="l" depth="2" NCoef="0" IVar="-1" Cut="0.0000000000000000e+00" cType="1" res="7.1739639679435641e-05" rms="1.1534401029348373e-01" purity="3.7776660174131393e-02" nType="-99"/>
          <Node pos="r" depth="2" NCoef="0" IVar="-1" Cut="0.0000000000000000e+00" cType="1" res="2.9195598326623440e-03" rms="2.9153257608413696e-01" purity="8.3286005258560181e-01" nType="-99"/>
        </Node>
        <Node pos="r" depth="1" NCoef="0" IVar="17" Cut="1.4830439090728760e+00" cType="1" res="1.0074689984321594e-02" rms="2.2414381802082062e-01" purity="4.9908393621444702e-01" nType="0">
          <Node pos="l" depth="2" NCoef="0" IVar="-1" Cut="0.0000000000000000e+00" cType="1" res="-1.2627438409253955e-03" rms="1.5140502154827118e-01" purity="7.5883291661739349e-02" nType="-99"/>
          <Node pos="r" depth="2" NCoef="0" IVar="-1" Cut="0.0000000000000000e+00" cType="1" res="6.5499194897711277e-04" rms="2.6169577240943909e-01" purity="8.0210000276565552e-01" nType="-99"/>
        </Node>
      </Node>
    </BinaryTree>
    <BinaryTree type="DecisionTree" boostWeight="1.0000000000000000e+00" itree="824">
      <Node pos="s" depth="0" NCoef="0" IVar="3" Cut="4.8842287063598633e+00" cType="1" res="1.1322897858917713e-02" rms="2.2880096733570099e-01" purity="5.0458949804306030e-01" nType="0">
        <Node pos="l" depth="1" NCoef="0" IVar="56" Cut="-1.3767052888870239e+00" cType="1" res="-7.5652389787137508e-03" rms="2.3079739511013031e-01" purity="4.5696640014648438e-01" nType="0">
          <Node pos="l" depth="2" NCoef="0" IVar="-1" Cut="0.0000000000000000e+00" cType="1" res="3.9315118920058012e-04" rms="2.3965002596378326e-01" purity="5.3304666280746460e-01" nType="-99"/>
          <Node pos="r" depth="2" NCoef="0" IVar="-1" Cut="0.0000000000000000e+00" cType="1" res="-1.8237557960674167e-03" rms="2.0189699530601501e-01" purity="2.9533734917640686e-01" nType="-99"/>
        </Node>
        <Node pos="r" depth="1" NCoef="0" IVar="17" Cut="1.0191382169723511e+00" cType="1" res="5.3304538130760193e-02" rms="2.1852935850620270e-01" purity="6.1043882369995117e-01" nType="0">
          <Node pos="l" depth="2" NCoef="0" IVar="-1" Cut="0.0000000000000000e+00" cType="1" res="-9.4053726643323898e-03" rms="0.0000000000000000e+00" purity="-8.9244171977043152e-03" nType="-99"/>
          <Node pos="r" depth="2" NCoef="0" IVar="-1" Cut="0.0000000000000000e+00" cType="1" res="1.6640670364722610e-03" rms="2.5074344873428345e-01" purity="7.9412078857421875e-01" nType="-99"/>
        </Node>
      </Node>
    </BinaryTree>
    <BinaryTree type="DecisionTree" boostWeight="1.0000000000000000e+00" itree="825">
      <Node pos="s" depth="0" NCoef="0" IVar="57" Cut="9.8658478260040283e-01" cType="1" res="1.4689554460346699e-02" rms="2.2729368507862091e-01" purity="5.0311940908432007e-01" nType="0">
        <Node pos="l" depth="1" NCoef="0" IVar="0" Cut="6.2732666730880737e-01" cType="1" res="3.1062865629792213e-02" rms="2.3932571709156036e-01" purity="5.5148822069168091e-01" nType="0">
          <Node pos="l" depth="2" NCoef="0" IVar="-1" Cut="0.0000000000000000e+00" cType="1" res="1.4292292762547731e-03" rms="2.5807243585586548e-01" purity="6.1100131273269653e-01" nType="-99"/>
          <Node pos="r" depth="2" NCoef="0" IVar="-1" Cut="0.0000000000000000e+00" cType="1" res="-1.1412736785132438e-04" rms="2.0709127187728882e-01" purity="4.7372075915336609e-01" nType="-99"/>
        </Node>
        <Node pos="r" depth="1" NCoef="0" IVar="3" Cut="4.9940848350524902e+00" cType="1" res="-5.7231567800045013e-02" rms="1.4370296895503998e-01" purity="2.9065540432929993e-01" nType="0">
          <Node pos="l" depth="2" NCoef="0" IVar="-1" Cut="0.0000000000000000e+00" cType="1" res="-1.3555614277720451e-03" rms="1.9563682377338409e-01" purity="3.1669801473617554e-01" nType="-99"/>
          <Node pos="r" depth="2" NCoef="0" IVar="-1" Cut="0.0000000000000000e+00" cType="1" res="-5.9736920520663261e-03" rms="0.0000000000000000e+00" purity="8.0759093165397644e-02" nType="-99"/>
        </Node>
      </Node>
    </BinaryTree>
    <BinaryTree type="DecisionTree" boostWeight="1.0000000000000000e+00" itree="826">
      <Node pos="s" depth="0" NCoef="0" IVar="2" Cut="1.3428223133087158e+00" cType="1" res="1.1860403232276440e-02" rms="2.2597631812095642e-01" purity="4.9987563490867615e-01" nType="0">
        <Node pos="l" depth="1" NCoef="0" IVar="17" Cut="-4.5080411434173584e-01" cType="1" res="-9.2972829937934875e-02" rms="5.9689383953809738e-02" purity="3.4486927092075348e-02" nType="0">
          <Node pos="l" depth="2" NCoef="0" IVar="-1" Cut="0.0000000000000000e+00" cType="1" res="2.2698955610394478e-02" rms="1.9218809902667999e-01" purity="3.7858232855796814e-02" nType="-99"/>
          <Node pos="r" depth="2" NCoef="0" IVar="-1" Cut="0.0000000000000000e+00" cType="1" res="-1.0368363000452518e-02" rms="0.0000000000000000e+00" purity="3.1806547194719315e-02" nType="-99"/>
        </Node>
        <Node pos="r" depth="1" NCoef="0" IVar="3" Cut="4.4142103195190430e+00" cType="1" res="1.9631570205092430e-02" rms="2.3175747692584991e-01" purity="5.3437441587448120e-01" nType="0">
          <Node pos="l" depth="2" NCoef="0" IVar="-1" Cut="0.0000000000000000e+00" cType="1" res="-2.0122618880122900e-03" rms="1.9290921092033386e-01" purity="1.9851756095886230e-01" nType="-99"/>
          <Node pos="r" depth="2" NCoef="0" IVar="-1" Cut="0.0000000000000000e+00" cType="1" res="7.6771882595494390e-04" rms="2.3435913026332855e-01" purity="5.8015650510787964e-01" nType="-99"/>
        </Node>
      </Node>
    </BinaryTree>
    <BinaryTree type="DecisionTree" boostWeight="1.0000000000000000e+00" itree="827">
      <Node pos="s" depth="0" NCoef="0" IVar="8" Cut="-9.1139173507690430e-01" cType="1" res="1.2470732443034649e-02" rms="2.3098061978816986e-01" purity="4.9059072136878967e-01" nType="0">
        <Node pos="l" depth="1" NCoef="0" IVar="52" Cut="3.6069574356079102e+00" cType="1" res="1.8772138282656670e-02" rms="2.3366016149520874e-01" purity="5.1144176721572876e-01" nType="0">
          <Node pos="l" depth="2" NCoef="0" IVar="-1" Cut="0.0000000000000000e+00" cType="1" res="6.1361398547887802e-04" rms="2.3960715532302856e-01" purity="5.2059137821197510e-01" nType="-99"/>
          <Node pos="r" depth="2" NCoef="0" IVar="-1" Cut="0.0000000000000000e+00" cType="1" res="-5.3865350782871246e-03" rms="0.0000000000000000e+00" purity="2.0600038766860962e-01" nType="-99"/>
        </Node>
        <Node pos="r" depth="1" NCoef="0" IVar="15" Cut="-6.4256590604782104e-01" cType="1" res="-1.2166107445955276e-01" rms="8.9520409703254700e-02" purity="4.6753965318202972e-02" nType="0">
          <Node pos="l" depth="2" NCoef="0" IVar="-1" Cut="0.0000000000000000e+00" cType="1" res="2.8674150817096233e-03" rms="2.1551223099231720e-01" purity="8.8756866753101349e-02" nType="-99"/>
          <Node pos="r" depth="2" NCoef="0" IVar="-1" Cut="0.0000000000000000e+00" cType="1" res="-6.6715371794998646e-03" rms="0.0000000000000000e+00" purity="-4.8844004049897194e-04" nType="-99"/>
        </Node>
      </Node>
    </BinaryTree>
    <BinaryTree type="DecisionTree" boostWeight="1.0000000000000000e+00" itree="828">
      <Node pos="s" depth="0" NCoef="0" IVar="38" Cut="-1.4540168046951294e+00" cType="1" res="3.3692980650812387e-03" rms="2.2611497342586517e-01" purity="4.8642289638519287e-01" nType="0">
        <Node pos="l" depth="1" NCoef="0" IVar="36" Cut="-1.2222986221313477e+00" cType="1" res="8.5700727999210358e-02" rms="2.6536238193511963e-01" purity="5.1702475547790527e-01" nType="0">
          <Node pos="l" depth="2" NCoef="0" IVar="-1" Cut="0.0000000000000000e+00" cType="1" res="-8.9510772377252579e-03" rms="0.0000000000000000e+00" purity="-1.0710652917623520e-02" nType="-99"/>
          <Node pos="r" depth="2" NCoef="0" IVar="-1" Cut="0.0000000000000000e+00" cType="1" res="2.7720562648028135e-03" rms="3.0171051621437073e-01" purity="6.8407785892486572e-01" nType="-99"/>
        </Node>
        <Node pos="r" depth="1" NCoef="0" IVar="5" Cut="2.4405914545059204e-01" cType="1" res="-7.0394305512309074e-03" rms="2.1845832467079163e-01" purity="4.8255404829978943e-01" nType="0">
          <Node pos="l" depth="2" NCoef="0" IVar="-1" Cut="0.0000000000000000e+00" cType="1" res="6.7078962456434965e-04" rms="1.9612614810466766e-01" purity="6.5998995304107666e-01" nType="-99"/>
          <Node pos="r" depth="2" NCoef="0" IVar="-1" Cut="0.0000000000000000e+00" cType="1" res="-9.4609567895531654e-04" rms="2.3747883737087250e-01" purity="2.7889552712440491e-01" nType="-99"/>
        </Node>
      </Node>
    </BinaryTree>
    <BinaryTree type="DecisionTree" boostWeight="1.0000000000000000e+00" itree="829">
      <Node pos="s" depth="0" NCoef="0" IVar="15" Cut="1.5225218534469604e+00" cType="1" res="8.5779298096895218e-03" rms="2.2818015515804291e-01" purity="4.9324500560760498e-01" nType="0">
        <Node pos="l" depth="1" NCoef="0" IVar="17" Cut="1.5210473537445068e+00" cType="1" res="1.8802119418978691e-02" rms="2.1143507957458496e-01" purity="4.9830415844917297e-01" nType="0">
          <Node pos="l" depth="2" NCoef="0" IVar="-1" Cut="0.0000000000000000e+00" cType="1" res="-1.4368515985552222e-04" rms="2.2211842238903046e-01" purity="2.6105150580406189e-01" nType="-99"/>
          <Node pos="r" depth="2" NCoef="0" IVar="-1" Cut="0.0000000000000000e+00" cType="1" res="1.5798774547874928e-03" rms="1.8317802250385284e-01" purity="9.2446184158325195e-01" nType="-99"/>
        </Node>
        <Node pos="r" depth="1" NCoef="0" IVar="15" Cut="1.5416172742843628e+00" cType="1" res="-7.4798941612243652e-02" rms="3.2294452190399170e-01" purity="4.5198878645896912e-01" nType="0">
          <Node pos="l" depth="2" NCoef="0" IVar="-1" Cut="0.0000000000000000e+00" cType="1" res="-5.7725165970623493e-04" rms="3.1298390030860901e-01" purity="5.3933870792388916e-01" nType="-99"/>
          <Node pos="r" depth="2" NCoef="0" IVar="-1" Cut="0.0000000000000000e+00" cType="1" res="-1.2582387775182724e-02" rms="3.1233704090118408e-01" purity="1.1402662098407745e-01" nType="-99"/>
        </Node>
      </Node>
    </BinaryTree>
    <BinaryTree type="DecisionTree" boostWeight="1.0000000000000000e+00" itree="830">
      <Node pos="s" depth="0" NCoef="0" IVar="27" Cut="1.1497849225997925e+00" cType="1" res="1.3201149180531502e-02" rms="2.2454658150672913e-01" purity="5.0485867261886597e-01" nType="0">
        <Node pos="l" depth="1" NCoef="0" IVar="17" Cut="1.2113959789276123e+00" cType="1" res="-6.7790277302265167e-02" rms="9.8009169101715088e-02" purity="1.1548247933387756e-01" nType="0">
          <Node pos="l" depth="2" NCoef="0" IVar="-1" Cut="0.0000000000000000e+00" cType="1" res="-1.7397784395143390e-03" rms="8.8169790804386139e-02" purity="9.3231899663805962e-03" nType="-99"/>
          <Node pos="r" depth="2" NCoef="0" IVar="-1" Cut="0.0000000000000000e+00" cType="1" res="-4.1336580179631710e-03" rms="7.3053285479545593e-02" purity="1.9528065621852875e-01" nType="-99"/>
        </Node>
        <Node pos="r" depth="1" NCoef="0" IVar="5" Cut="4.3750804662704468e-01" cType="1" res="2.3798467591404915e-02" rms="2.3407490551471710e-01" purity="5.5580663681030273e-01" nType="0">
          <Node pos="l" depth="2" NCoef="0" IVar="-1" Cut="0.0000000000000000e+00" cType="1" res="1.0826523648574948e-03" rms="2.1994853019714355e-01" purity="6.8107801675796509e-01" nType="-99"/>
          <Node pos="r" depth="2" NCoef="0" IVar="-1" Cut="0.0000000000000000e+00" cType="1" res="-7.1930338162928820e-04" rms="2.6268708705902100e-01" purity="2.0008851587772369e-01" nType="-99"/>
        </Node>
      </Node>
    </BinaryTree>
    <BinaryTree type="DecisionTree" boostWeight="1.0000000000000000e+00" itree="831">
      <Node pos="s" depth="0" NCoef="0" IVar="48" Cut="7.9809099435806274e-01" cType="1" res="1.2172642163932323e-02" rms="2.2498442232608795e-01" purity="4.9571505188941956e-01" nType="0">
        <Node pos="l" depth="1" NCoef="0" IVar="48" Cut="6.9069254398345947e-01" cType="1" res="-3.0289925634860992e-03" rms="0.0000000000000000e+00" purity="1.9000910222530365e-02" nType="-99"/>
        <Node pos="r" depth="1" NCoef="0" IVar="14" Cut="-1.1448125839233398e+00" cType="1" res="1.9392283633351326e-02" rms="2.3297752439975739e-01" purity="5.2649849653244019e-01" nType="0">
          <Node pos="l" depth="2" NCoef="0" IVar="-1" Cut="0.0000000000000000e+00" cType="1" res="-5.5636052275076509e-04" rms="2.1071216464042664e-01" purity="3.5265657305717468e-01" nType="-99"/>
          <Node pos="r" depth="2" NCoef="0" IVar="-1" Cut="0.0000000000000000e+00" cType="1" res="1.0399726452305913e-03" rms="2.4322102963924408e-01" purity="6.3813257217407227e-01" nType="-99"/>
        </Node>
      </Node>
    </BinaryTree>
    <BinaryTree type="DecisionTree" boostWeight="1.0000000000000000e+00" itree="832">
      <Node pos="s" depth="0" NCoef="0" IVar="3" Cut="5.2181496620178223e+00" cType="1" res="2.4660365656018257e-02" rms="2.4149700999259949e-01" purity="5.2176082134246826e-01" nType="0">
        <Node pos="l" depth="1" NCoef="0" IVar="35" Cut="-1.4541255235671997e+00" cType="1" res="1.5706123784184456e-02" rms="2.3399747908115387e-01" purity="5.2088618278503418e-01" nType="0">
          <Node pos="l" depth="2" NCoef="0" IVar="-1" Cut="0.0000000000000000e+00" cType="1" res="-2.3330508265644312e-03" rms="1.6220718622207642e-01" purity="2.7813646197319031e-01" nType="-99"/>
          <Node pos="r" depth="2" NCoef="0" IVar="-1" Cut="0.0000000000000000e+00" cType="1" res="6.7514495458453894e-04" rms="2.4339531362056732e-01" purity="5.6653457880020142e-01" nType="-99"/>
        </Node>
        <Node pos="r" depth="1" NCoef="0" IVar="17" Cut="1.0568513870239258e+00" cType="1" res="1.5324893593788147e-01" rms="3.0305808782577515e-01" purity="5.3432142734527588e-01" nType="0">
          <Node pos="l" depth="2" NCoef="0" IVar="-1" Cut="0.0000000000000000e+00" cType="1" res="1.6082418151199818e-03" rms="1.6024312376976013e-01" purity="2.8589375317096710e-02" nType="-99"/>
          <Node pos="r" depth="2" NCoef="0" IVar="-1" Cut="0.0000000000000000e+00" cType="1" res="3.6887968890368938e-03" rms="3.3089891076087952e-01" purity="7.9966580867767334e-01" nType="-99"/>
        </Node>
      </Node>
    </BinaryTree>
    <BinaryTree type="DecisionTree" boostWeight="1.0000000000000000e+00" itree="833">
      <Node pos="s" depth="0" NCoef="0" IVar="48" Cut="8.0463546514511108e-01" cType="1" res="1.6038935631513596e-02" rms="2.2737057507038116e-01" purity="5.0488948822021484e-01" nType="0">
        <Node pos="l" depth="1" NCoef="0" IVar="53" Cut="1.2345679104328156e-02" cType="1" res="-3.3580393064767122e-03" rms="0.0000000000000000e+00" purity="3.4160412847995758e-02" nType="-99"/>
        <Node pos="r" depth="1" NCoef="0" IVar="36" Cut="1.4460117816925049e+00" cType="1" res="2.3444768041372299e-02" rms="2.3471158742904663e-01" purity="5.3676170110702515e-01" nType="0">
          <Node pos="l" depth="2" NCoef="0" IVar="-1" Cut="0.0000000000000000e+00" cType="1" res="-1.1524717556312680e-03" rms="1.7363359034061432e-01" purity="1.7707768082618713e-01" nType="-99"/>
          <Node pos="r" depth="2" NCoef="0" IVar="-1" Cut="0.0000000000000000e+00" cType="1" res="9.7353901946917176e-04" rms="2.5326448678970337e-01" purity="6.8833243846893311e-01" nType="-99"/>
        </Node>
      </Node>
    </BinaryTree>
    <BinaryTree type="DecisionTree" boostWeight="1.0000000000000000e+00" itree="834">
      <Node pos="s" depth="0" NCoef="0" IVar="0" Cut="5.2219504117965698e-01" cType="1" res="9.5709059387445450e-03" rms="2.3017615079879761e-01" purity="4.9530640244483948e-01" nType="0">
        <Node pos="l" depth="1" NCoef="0" IVar="48" Cut="2.1886687278747559e+00" cType="1" res="3.9642609655857086e-02" rms="2.4960532784461975e-01" purity="5.7217013835906982e-01" nType="0">
          <Node pos="l" depth="2" NCoef="0" IVar="-1" Cut="0.0000000000000000e+00" cType="1" res="7.8065197158139199e-05" rms="2.3000071942806244e-01" purity="4.2643570899963379e-01" nType="-99"/>
          <Node pos="r" depth="2" NCoef="0" IVar="-1" Cut="0.0000000000000000e+00" cType="1" res="1.6367549542337656e-03" rms="2.6000040769577026e-01" purity="6.8262666463851929e-01" nType="-99"/>
        </Node>
        <Node pos="r" depth="1" NCoef="0" IVar="64" Cut="1.2345679104328156e-02" cType="1" res="-1.6714818775653839e-02" rms="2.0821022987365723e-01" purity="4.2811959981918335e-01" nType="0">
          <Node pos="l" depth="2" NCoef="0" IVar="-1" Cut="0.0000000000000000e+00" cType="1" res="-6.5749441273510456e-03" rms="0.0000000000000000e+00" purity="3.0379891395568848e-02" nType="-99"/>
          <Node pos="r" depth="2" NCoef="0" IVar="-1" Cut="0.0000000000000000e+00" cType="1" res="-2.4670048151165247e-04" rms="2.2022841870784760e-01" purity="4.4489309191703796e-01" nType="-99"/>
        </Node>
      </Node>
    </BinaryTree>
    <BinaryTree type="DecisionTree" boostWeight="1.0000000000000000e+00" itree="835">
      <Node pos="s" depth="0" NCoef="0" IVar="36" Cut="1.4846760034561157e+00" cType="1" res="5.3542456589639187e-03" rms="2.1827185153961182e-01" purity="4.8838061094284058e-01" nType="0">
        <Node pos="l" depth="1" NCoef="0" IVar="31" Cut="3.6389155387878418e+00" cType="1" res="-3.9355240762233734e-02" rms="1.6730983555316925e-01" purity="2.0515260100364685e-01" nType="0">
          <Node pos="l" depth="2" NCoef="0" IVar="-1" Cut="0.0000000000000000e+00" cType="1" res="-2.5223996490240097e-03" rms="1.4838097989559174e-01" purity="1.7981167137622833e-01" nType="-99"/>
          <Node pos="r" depth="2" NCoef="0" IVar="-1" Cut="0.0000000000000000e+00" cType="1" res="2.3198721464723349e-03" rms="2.5392344594001770e-01" purity="4.4757255911827087e-01" nType="-99"/>
        </Node>
        <Node pos="r" depth="1" NCoef="0" IVar="48" Cut="8.6217767000198364e-01" cType="1" res="3.4011766314506531e-02" rms="2.4111239612102509e-01" purity="6.6992181539535522e-01" nType="0">
          <Node pos="l" depth="2" NCoef="0" IVar="-1" Cut="0.0000000000000000e+00" cType="1" res="-2.9891876038163900e-03" rms="0.0000000000000000e+00" purity="4.0815908461809158e-02" nType="-99"/>
          <Node pos="r" depth="2" NCoef="0" IVar="-1" Cut="0.0000000000000000e+00" cType="1" res="9.4881129916757345e-04" rms="2.4641740322113037e-01" purity="7.0295584201812744e-01" nType="-99"/>
        </Node>
      </Node>
    </BinaryTree>
    <BinaryTree type="DecisionTree" boostWeight="1.0000000000000000e+00" itree="836">
      <Node pos="s" depth="0" NCoef="0" IVar="5" Cut="2.8093427419662476e-01" cType="1" res="1.1088335886597633e-02" rms="2.2968581318855286e-01" purity="4.9528232216835022e-01" nType="0">
        <Node pos="l" depth="1" NCoef="0" IVar="36" Cut="9.4283252954483032e-01" cType="1" res="3.8460116833448410e-02" rms="2.0920228958129883e-01" purity="6.6743701696395874e-01" nType="0">
          <Node pos="l" depth="2" NCoef="0" IVar="-1" Cut="0.0000000000000000e+00" cType="1" res="-7.4795600958168507e-03" rms="0.0000000000000000e+00" purity="1.0376773774623871e-02" nType="-99"/>
          <Node pos="r" depth="2" NCoef="0" IVar="-1" Cut="0.0000000000000000e+00" cType="1" res="1.4928207965567708e-03" rms="2.2997362911701202e-01" purity="7.9123371839523315e-01" nType="-99"/>
        </Node>
        <Node pos="r" depth="1" NCoef="0" IVar="56" Cut="-1.0287787914276123e+00" cType="1" res="-2.2046286612749100e-02" rms="2.4826079607009888e-01" purity="2.8688222169876099e-01" nType="0">
          <Node pos="l" depth="2" NCoef="0" IVar="-1" Cut="0.0000000000000000e+00" cType="1" res="1.4184358587954193e-04" rms="2.8005173802375793e-01" purity="3.3563983440399170e-01" nType="-99"/>
          <Node pos="r" depth="2" NCoef="0" IVar="-1" Cut="0.0000000000000000e+00" cType="1" res="-2.7991465758532286e-03" rms="1.0411548614501953e-01" purity="1.6108170151710510e-01" nType="-99"/>
        </Node>
      </Node>
    </BinaryTree>
    <BinaryTree type="DecisionTree" boostWeight="1.0000000000000000e+00" itree="837">
      <Node pos="s" depth="0" NCoef="0" IVar="1" Cut="2.7378606796264648e+00" cType="1" res="1.3612166978418827e-02" rms="2.2898000478744507e-01" purity="5.0210446119308472e-01" nType="0">
        <Node pos="l" depth="1" NCoef="0" IVar="59" Cut="-1.0293371677398682e+00" cType="1" res="-3.1402241438627243e-02" rms="1.7404556274414062e-01" purity="2.1397972106933594e-01" nType="0">
          <Node pos="l" depth="2" NCoef="0" IVar="-1" Cut="0.0000000000000000e+00" cType="1" res="1.3318507990334183e-04" rms="2.2362379729747772e-01" purity="3.0316805839538574e-01" nType="-99"/>
          <Node pos="r" depth="2" NCoef="0" IVar="-1" Cut="0.0000000000000000e+00" cType="1" res="-3.4354580566287041e-03" rms="1.3501787558197975e-02" purity="9.5933772623538971e-02" nType="-99"/>
        </Node>
        <Node pos="r" depth="1" NCoef="0" IVar="52" Cut="3.5377931594848633e+00" cType="1" res="3.1738981604576111e-02" rms="2.4536265432834625e-01" purity="6.1812919378280640e-01" nType="0">
          <Node pos="l" depth="2" NCoef="0" IVar="-1" Cut="0.0000000000000000e+00" cType="1" res="9.3930505681782961e-04" rms="2.5049054622650146e-01" purity="6.3383519649505615e-01" nType="-99"/>
          <Node pos="r" depth="2" NCoef="0" IVar="-1" Cut="0.0000000000000000e+00" cType="1" res="-5.4515367373824120e-03" rms="0.0000000000000000e+00" purity="2.5328928232192993e-01" nType="-99"/>
        </Node>
      </Node>
    </BinaryTree>
    <BinaryTree type="DecisionTree" boostWeight="1.0000000000000000e+00" itree="838">
      <Node pos="s" depth="0" NCoef="0" IVar="57" Cut="2.6164829730987549e-01" cType="1" res="1.7045047134160995e-02" rms="2.3615956306457520e-01" purity="5.0706130266189575e-01" nType="0">
        <Node pos="l" depth="1" NCoef="0" IVar="3" Cut="4.3609876632690430e+00" cType="1" res="3.4735500812530518e-02" rms="2.4975396692752838e-01" purity="5.6107056140899658e-01" nType="0">
          <Node pos="l" depth="2" NCoef="0" IVar="-1" Cut="0.0000000000000000e+00" cType="1" res="-3.5650185309350491e-03" rms="1.7659747600555420e-01" purity="1.6489459574222565e-01" nType="-99"/>
          <Node pos="r" depth="2" NCoef="0" IVar="-1" Cut="0.0000000000000000e+00" cType="1" res="1.0506425751373172e-03" rms="2.5161159038543701e-01" purity="5.8523786067962646e-01" nType="-99"/>
        </Node>
        <Node pos="r" depth="1" NCoef="0" IVar="4" Cut="3.8687937259674072e+00" cType="1" res="-4.4880859553813934e-02" rms="1.6648592054843903e-01" purity="3.1800049543380737e-01" nType="0">
          <Node pos="l" depth="2" NCoef="0" IVar="-1" Cut="0.0000000000000000e+00" cType="1" res="-7.2368269320577383e-04" rms="2.1408197283744812e-01" purity="3.3795803785324097e-01" nType="-99"/>
          <Node pos="r" depth="2" NCoef="0" IVar="-1" Cut="0.0000000000000000e+00" cType="1" res="-9.5918653532862663e-03" rms="0.0000000000000000e+00" purity="1.2518794834613800e-01" nType="-99"/>
        </Node>
      </Node>
    </BinaryTree>
    <BinaryTree type="DecisionTree" boostWeight="1.0000000000000000e+00" itree="839">
      <Node pos="s" depth="0" NCoef="0" IVar="3" Cut="4.8825283050537109e+00" cType="1" res="1.4368486590683460e-02" rms="2.3743046820163727e-01" purity="5.0020015239715576e-01" nType="0">
        <Node pos="l" depth="1" NCoef="0" IVar="6" Cut="2.0779948234558105e+00" cType="1" res="-5.3076231852173805e-03" rms="2.3370726406574249e-01" purity="4.5423328876495361e-01" nType="0">
          <Node pos="l" depth="2" NCoef="0" IVar="-1" Cut="0.0000000000000000e+00" cType="1" res="-1.8684113165363669e-03" rms="1.8858474493026733e-01" purity="1.8957133591175079e-01" nType="-99"/>
          <Node pos="r" depth="2" NCoef="0" IVar="-1" Cut="0.0000000000000000e+00" cType="1" res="4.2652309639379382e-04" rms="2.5020590424537659e-01" purity="5.8822596073150635e-01" nType="-99"/>
        </Node>
        <Node pos="r" depth="1" NCoef="0" IVar="52" Cut="3.3962030410766602e+00" cType="1" res="5.9063900262117386e-02" rms="2.3975141346454620e-01" purity="6.0461652278900146e-01" nType="0">
          <Node pos="l" depth="2" NCoef="0" IVar="-1" Cut="0.0000000000000000e+00" cType="1" res="2.0789981354027987e-03" rms="2.5617533922195435e-01" purity="6.4461576938629150e-01" nType="-99"/>
          <Node pos="r" depth="2" NCoef="0" IVar="-1" Cut="0.0000000000000000e+00" cType="1" res="-1.3518319465219975e-03" rms="1.1125683039426804e-01" purity="4.4187828898429871e-01" nType="-99"/>
        </Node>
      </Node>
    </BinaryTree>
    <BinaryTree type="DecisionTree" boostWeight="1.0000000000000000e+00" itree="840">
      <Node pos="s" depth="0" NCoef="0" IVar="30" Cut="-6.7901235818862915e-01" cType="1" res="1.2713373638689518e-02" rms="2.3129038512706757e-01" purity="4.9499511718750000e-01" nType="0">
        <Node pos="l" depth="1" NCoef="0" IVar="42" Cut="-8.9098915457725525e-02" cType="1" res="-3.8024468813091516e-03" rms="0.0000000000000000e+00" purity="2.3689061403274536e-01" nType="-99"/>
        <Node pos="r" depth="1" NCoef="0" IVar="5" Cut="2.8546217083930969e-01" cType="1" res="2.0878521725535393e-02" rms="2.3807691037654877e-01" purity="5.1341944932937622e-01" nType="0">
          <Node pos="l" depth="2" NCoef="0" IVar="-1" Cut="0.0000000000000000e+00" cType="1" res="1.4000996015965939e-03" rms="2.1808537840843201e-01" purity="6.8700790405273438e-01" nType="-99"/>
          <Node pos="r" depth="2" NCoef="0" IVar="-1" Cut="0.0000000000000000e+00" cType="1" res="-2.6915714261122048e-04" rms="2.5508540868759155e-01" purity="3.1575378775596619e-01" nType="-99"/>
        </Node>
      </Node>
    </BinaryTree>
    <BinaryTree type="DecisionTree" boostWeight="1.0000000000000000e+00" itree="841">
      <Node pos="s" depth="0" NCoef="0" IVar="14" Cut="-1.1447483301162720e+00" cType="1" res="1.6431048512458801e-02" rms="2.3871818184852600e-01" purity="5.0751137733459473e-01" nType="0">
        <Node pos="l" depth="1" NCoef="0" IVar="56" Cut="-1.4538639783859253e+00" cType="1" res="-2.1516794338822365e-02" rms="2.0143637061119080e-01" purity="3.5536649823188782e-01" nType="0">
          <Node pos="l" depth="2" NCoef="0" IVar="-1" Cut="0.0000000000000000e+00" cType="1" res="4.4298451393842697e-04" rms="2.3000827431678772e-01" purity="4.5508119463920593e-01" nType="-99"/>
          <Node pos="r" depth="2" NCoef="0" IVar="-1" Cut="0.0000000000000000e+00" cType="1" res="-2.3262181784957647e-03" rms="1.5088938176631927e-01" purity="2.4020382761955261e-01" nType="-99"/>
        </Node>
        <Node pos="r" depth="1" NCoef="0" IVar="44" Cut="1.2345679104328156e-02" cType="1" res="4.1851438581943512e-02" rms="2.5761994719505310e-01" purity="6.0942977666854858e-01" nType="0">
          <Node pos="l" depth="2" NCoef="0" IVar="-1" Cut="0.0000000000000000e+00" cType="1" res="-8.7193050421774387e-04" rms="2.2501708567142487e-01" purity="4.6479731798171997e-01" nType="-99"/>
          <Node pos="r" depth="2" NCoef="0" IVar="-1" Cut="0.0000000000000000e+00" cType="1" res="1.4304412761703134e-03" rms="2.6270037889480591e-01" purity="6.5018725395202637e-01" nType="-99"/>
        </Node>
      </Node>
    </BinaryTree>
    <BinaryTree type="DecisionTree" boostWeight="1.0000000000000000e+00" itree="842">
      <Node pos="s" depth="0" NCoef="0" IVar="18" Cut="-1.0389032363891602e+00" cType="1" res="1.8579946830868721e-02" rms="2.3622909188270569e-01" purity="5.1033914089202881e-01" nType="0">
        <Node pos="l" depth="1" NCoef="0" IVar="3" Cut="4.8871383666992188e+00" cType="1" res="2.7553522959351540e-02" rms="2.3796394467353821e-01" purity="5.4161328077316284e-01" nType="0">
          <Node pos="l" depth="2" NCoef="0" IVar="-1" Cut="0.0000000000000000e+00" cType="1" res="2.0888700964860618e-04" rms="2.3543241620063782e-01" purity="4.9699717760086060e-01" nType="-99"/>
          <Node pos="r" depth="2" NCoef="0" IVar="-1" Cut="0.0000000000000000e+00" cType="1" res="1.8551918910816312e-03" rms="2.3775081336498260e-01" purity="6.4564150571823120e-01" nType="-99"/>
        </Node>
        <Node pos="r" depth="1" NCoef="0" IVar="42" Cut="-2.3281446099281311e-01" cType="1" res="-7.4567750096321106e-02" rms="1.9429990649223328e-01" purity="1.8570643663406372e-01" nType="0">
          <Node pos="l" depth="2" NCoef="0" IVar="-1" Cut="0.0000000000000000e+00" cType="1" res="-9.8473457910586149e-05" rms="2.6296079158782959e-01" purity="2.6481720805168152e-01" nType="-99"/>
          <Node pos="r" depth="2" NCoef="0" IVar="-1" Cut="0.0000000000000000e+00" cType="1" res="-5.2570984698832035e-03" rms="1.3566476106643677e-01" purity="1.4651639759540558e-01" nType="-99"/>
        </Node>
      </Node>
    </BinaryTree>
    <BinaryTree type="DecisionTree" boostWeight="1.0000000000000000e+00" itree="843">
      <Node pos="s" depth="0" NCoef="0" IVar="57" Cut="3.7610572576522827e-01" cType="1" res="1.8243547528982162e-02" rms="2.3515756428241730e-01" purity="5.1152098178863525e-01" nType="0">
        <Node pos="l" depth="1" NCoef="0" IVar="18" Cut="-9.1053795814514160e-01" cType="1" res="3.5058718174695969e-02" rms="2.4653503298759460e-01" purity="5.6285178661346436e-01" nType="0">
          <Node pos="l" depth="2" NCoef="0" IVar="-1" Cut="0.0000000000000000e+00" cType="1" res="1.0465069208294153e-03" rms="2.4879458546638489e-01" purity="5.8580201864242554e-01" nType="-99"/>
          <Node pos="r" depth="2" NCoef="0" IVar="-1" Cut="0.0000000000000000e+00" cType="1" res="-5.7043987326323986e-03" rms="1.4568722248077393e-01" purity="1.5332084894180298e-01" nType="-99"/>
        </Node>
        <Node pos="r" depth="1" NCoef="0" IVar="5" Cut="7.5206458568572998e-02" cType="1" res="-3.7812657654285431e-02" rms="1.8150536715984344e-01" purity="3.4040111303329468e-01" nType="0">
          <Node pos="l" depth="2" NCoef="0" IVar="-1" Cut="0.0000000000000000e+00" cType="1" res="4.7747849021106958e-04" rms="2.0766933262348175e-01" purity="5.4209887981414795e-01" nType="-99"/>
          <Node pos="r" depth="2" NCoef="0" IVar="-1" Cut="0.0000000000000000e+00" cType="1" res="-2.3872291203588247e-03" rms="1.4757789671421051e-01" purity="1.9020593166351318e-01" nType="-99"/>
        </Node>
      </Node>
    </BinaryTree>
    <BinaryTree type="DecisionTree" boostWeight="1.0000000000000000e+00" itree="844">
      <Node pos="s" depth="0" NCoef="0" IVar="3" Cut="4.9760408401489258e+00" cType="1" res="1.4434536918997765e-02" rms="2.3605123162269592e-01" purity="4.9940383434295654e-01" nType="0">
        <Node pos="l" depth="1" NCoef="0" IVar="36" Cut="1.4460117816925049e+00" cType="1" res="-1.4537448296323419e-03" rms="2.2637572884559631e-01" purity="4.7863766551017761e-01" nType="0">
          <Node pos="l" depth="2" NCoef="0" IVar="-1" Cut="0.0000000000000000e+00" cType="1" res="-4.0614008903503418e-03" rms="1.0735242813825607e-01" purity="8.4525562822818756e-02" nType="-99"/>
          <Node pos="r" depth="2" NCoef="0" IVar="-1" Cut="0.0000000000000000e+00" cType="1" res="4.8154545947909355e-04" rms="2.5531870126724243e-01" purity="6.3624072074890137e-01" nType="-99"/>
        </Node>
        <Node pos="r" depth="1" NCoef="0" IVar="10" Cut="3.0710308551788330e+00" cType="1" res="7.7320024371147156e-02" rms="2.6167789101600647e-01" purity="5.8159595727920532e-01" nType="0">
          <Node pos="l" depth="2" NCoef="0" IVar="-1" Cut="0.0000000000000000e+00" cType="1" res="5.4299770854413509e-03" rms="4.2960017919540405e-01" purity="4.3610909581184387e-01" nType="-99"/>
          <Node pos="r" depth="2" NCoef="0" IVar="-1" Cut="0.0000000000000000e+00" cType="1" res="1.5587595989927649e-03" rms="2.1912507712841034e-01" purity="6.0276770591735840e-01" nType="-99"/>
        </Node>
      </Node>
    </BinaryTree>
    <BinaryTree type="DecisionTree" boostWeight="1.0000000000000000e+00" itree="845">
      <Node pos="s" depth="0" NCoef="0" IVar="0" Cut="6.2242734432220459e-01" cType="1" res="1.4523571357131004e-02" rms="2.2896060347557068e-01" purity="5.0934636592864990e-01" nType="0">
        <Node pos="l" depth="1" NCoef="0" IVar="68" Cut="1.2345679104328156e-02" cType="1" res="3.7179034203290939e-02" rms="2.4250149726867676e-01" purity="5.7555854320526123e-01" nType="0">
          <Node pos="l" depth="2" NCoef="0" IVar="-1" Cut="0.0000000000000000e+00" cType="1" res="1.1300705373287201e-03" rms="2.4500371515750885e-01" purity="5.8894860744476318e-01" nType="-99"/>
          <Node pos="r" depth="2" NCoef="0" IVar="-1" Cut="0.0000000000000000e+00" cType="1" res="-2.9042200185358524e-03" rms="9.5971614122390747e-02" purity="2.8466862440109253e-01" nType="-99"/>
        </Node>
        <Node pos="r" depth="1" NCoef="0" IVar="48" Cut="1.6941770315170288e+00" cType="1" res="-1.4671589247882366e-02" rms="2.0659708976745605e-01" purity="4.2402139306068420e-01" nType="0">
          <Node pos="l" depth="2" NCoef="0" IVar="-1" Cut="0.0000000000000000e+00" cType="1" res="-1.9200247479602695e-03" rms="1.2973599135875702e-01" purity="1.6789752244949341e-01" nType="-99"/>
          <Node pos="r" depth="2" NCoef="0" IVar="-1" Cut="0.0000000000000000e+00" cType="1" res="3.0761561356484890e-04" rms="2.3201785981655121e-01" purity="5.5464679002761841e-01" nType="-99"/>
        </Node>
      </Node>
    </BinaryTree>
    <BinaryTree type="DecisionTree" boostWeight="1.0000000000000000e+00" itree="846">
      <Node pos="s" depth="0" NCoef="0" IVar="2" Cut="2.3411214351654053e+00" cType="1" res="5.6133163161575794e-03" rms="2.1992629766464233e-01" purity="4.9232214689254761e-01" nType="0">
        <Node pos="l" depth="1" NCoef="0" IVar="52" Cut="2.3142526149749756e+00" cType="1" res="-2.9758181422948837e-02" rms="1.6797053813934326e-01" purity="2.9489386081695557e-01" nType="0">
          <Node pos="l" depth="2" NCoef="0" IVar="-1" Cut="0.0000000000000000e+00" cType="1" res="-9.4878375530242920e-03" rms="0.0000000000000000e+00" purity="-1.1415724456310272e-01" nType="-99"/>
          <Node pos="r" depth="2" NCoef="0" IVar="-1" Cut="0.0000000000000000e+00" cType="1" res="-5.5226427502930164e-04" rms="1.9554109871387482e-01" purity="3.2652401924133301e-01" nType="-99"/>
        </Node>
        <Node pos="r" depth="1" NCoef="0" IVar="36" Cut="9.0442895889282227e-01" cType="1" res="3.0349083244800568e-02" rms="2.4692989885807037e-01" purity="6.3038647174835205e-01" nType="0">
          <Node pos="l" depth="2" NCoef="0" IVar="-1" Cut="0.0000000000000000e+00" cType="1" res="-6.6626863554120064e-03" rms="5.6107442826032639e-02" purity="1.8162555992603302e-02" nType="-99"/>
          <Node pos="r" depth="2" NCoef="0" IVar="-1" Cut="0.0000000000000000e+00" cType="1" res="8.7079079821705818e-04" rms="2.5859361886978149e-01" purity="7.0593672990798950e-01" nType="-99"/>
        </Node>
      </Node>
    </BinaryTree>
    <BinaryTree type="DecisionTree" boostWeight="1.0000000000000000e+00" itree="847">
      <Node pos="s" depth="0" NCoef="0" IVar="36" Cut="9.4308871030807495e-01" cType="1" res="1.2620822526514530e-02" rms="2.3215222358703613e-01" purity="4.9054589867591858e-01" nType="0">
        <Node pos="l" depth="1" NCoef="0" IVar="63" Cut="1.2557767331600189e-01" cType="1" res="-7.7921627089381218e-03" rms="0.0000000000000000e+00" purity="2.4075321853160858e-03" nType="-99"/>
        <Node pos="r" depth="1" NCoef="0" IVar="26" Cut="1.2345679104328156e-02" cType="1" res="2.6094684377312660e-02" rms="2.5847357511520386e-01" purity="5.9797161817550659e-01" nType="0">
          <Node pos="l" depth="2" NCoef="0" IVar="-1" Cut="0.0000000000000000e+00" cType="1" res="7.1689044125378132e-04" rms="2.6097577810287476e-01" purity="6.1576539278030396e-01" nType="-99"/>
          <Node pos="r" depth="2" NCoef="0" IVar="-1" Cut="0.0000000000000000e+00" cType="1" res="-6.4458143897354603e-03" rms="0.0000000000000000e+00" purity="5.7789660058915615e-03" nType="-99"/>
        </Node>
      </Node>
    </BinaryTree>
    <BinaryTree type="DecisionTree" boostWeight="1.0000000000000000e+00" itree="848">
      <Node pos="s" depth="0" NCoef="0" IVar="0" Cut="6.9992250204086304e-01" cType="1" res="9.6418885514140129e-03" rms="2.3006629943847656e-01" purity="4.8673561215400696e-01" nType="0">
        <Node pos="l" depth="1" NCoef="0" IVar="57" Cut="1.3297275304794312e+00" cType="1" res="3.6361966282129288e-02" rms="2.5110673904418945e-01" purity="5.5178534984588623e-01" nType="0">
          <Node pos="l" depth="2" NCoef="0" IVar="-1" Cut="0.0000000000000000e+00" cType="1" res="1.2154767755419016e-03" rms="2.5804638862609863e-01" purity="5.8458882570266724e-01" nType="-99"/>
          <Node pos="r" depth="2" NCoef="0" IVar="-1" Cut="0.0000000000000000e+00" cType="1" res="-1.7855875194072723e-03" rms="1.6710691154003143e-01" purity="3.1368601322174072e-01" nType="-99"/>
        </Node>
        <Node pos="r" depth="1" NCoef="0" IVar="61" Cut="4.1625589132308960e-01" cType="1" res="-3.7414159625768661e-02" rms="1.7784711718559265e-01" purity="3.7217804789543152e-01" nType="0">
          <Node pos="l" depth="2" NCoef="0" IVar="-1" Cut="0.0000000000000000e+00" cType="1" res="1.8473962554708123e-03" rms="3.1018200516700745e-01" purity="5.1067304611206055e-01" nType="-99"/>
          <Node pos="r" depth="2" NCoef="0" IVar="-1" Cut="0.0000000000000000e+00" cType="1" res="-1.6556279733777046e-03" rms="1.2644538283348083e-01" purity="3.4449255466461182e-01" nType="-99"/>
        </Node>
      </Node>
    </BinaryTree>
    <BinaryTree type="DecisionTree" boostWeight="1.0000000000000000e+00" itree="849">
      <Node pos="s" depth="0" NCoef="0" IVar="48" Cut="7.5540119409561157e-01" cType="1" res="5.4664188064634800e-03" rms="2.2923137247562408e-01" purity="4.7642827033996582e-01" nType="0">
        <Node pos="l" depth="1" NCoef="0" IVar="57" Cut="-9.5941346883773804e-01" cType="1" res="-5.0666639581322670e-03" rms="0.0000000000000000e+00" purity="-3.5453096032142639e-02" nType="-99"/>
        <Node pos="r" depth="1" NCoef="0" IVar="14" Cut="-1.1834474802017212e+00" cType="1" res="1.3284864835441113e-02" rms="2.4106466770172119e-01" purity="5.0254672765731812e-01" nType="0">
          <Node pos="l" depth="2" NCoef="0" IVar="-1" Cut="0.0000000000000000e+00" cType="1" res="-6.8028637906536460e-04" rms="2.2495600581169128e-01" purity="3.3958470821380615e-01" nType="-99"/>
          <Node pos="r" depth="2" NCoef="0" IVar="-1" Cut="0.0000000000000000e+00" cType="1" res="8.6235173512250185e-04" rms="2.4822211265563965e-01" purity="6.0519176721572876e-01" nType="-99"/>
        </Node>
      </Node>
    </BinaryTree>
    <BinaryTree type="DecisionTree" boostWeight="1.0000000000000000e+00" itree="850">
      <Node pos="s" depth="0" NCoef="0" IVar="15" Cut="1.5219346284866333e+00" cType="1" res="1.4391284435987473e-02" rms="2.2947841882705688e-01" purity="5.0302308797836304e-01" nType="0">
        <Node pos="l" depth="1" NCoef="0" IVar="18" Cut="-1.2949575185775757e+00" cType="1" res="2.5250915437936783e-02" rms="2.1871595084667206e-01" purity="5.0609201192855835e-01" nType="0">
          <Node pos="l" depth="2" NCoef="0" IVar="-1" Cut="0.0000000000000000e+00" cType="1" res="1.0210250038653612e-03" rms="2.1985755860805511e-01" purity="5.5507612228393555e-01" nType="-99"/>
          <Node pos="r" depth="2" NCoef="0" IVar="-1" Cut="0.0000000000000000e+00" cType="1" res="-1.4359666965901852e-03" rms="2.0008265972137451e-01" purity="2.5371330976486206e-01" nType="-99"/>
        </Node>
        <Node pos="r" depth="1" NCoef="0" IVar="5" Cut="3.9039462804794312e-01" cType="1" res="-7.3608145117759705e-02" rms="2.8818178176879883e-01" purity="4.7815459966659546e-01" nType="0">
          <Node pos="l" depth="2" NCoef="0" IVar="-1" Cut="0.0000000000000000e+00" cType="1" res="-4.2042773566208780e-04" rms="2.4311359226703644e-01" purity="5.6077003479003906e-01" nType="-99"/>
          <Node pos="r" depth="2" NCoef="0" IVar="-1" Cut="0.0000000000000000e+00" cType="1" res="-2.9056831263005733e-03" rms="3.3757054805755615e-01" purity="2.9819035530090332e-01" nType="-99"/>
        </Node>
      </Node>
    </BinaryTree>
    <BinaryTree type="DecisionTree" boostWeight="1.0000000000000000e+00" itree="851">
      <Node pos="s" depth="0" NCoef="0" IVar="60" Cut="-8.0512183904647827e-01" cType="1" res="1.8521323800086975e-02" rms="2.3033408820629120e-01" purity="5.1212626695632935e-01" nType="0">
        <Node pos="l" depth="1" NCoef="0" IVar="3" Cut="5.1750979423522949e+00" cType="1" res="2.6827372610569000e-02" rms="2.3724894225597382e-01" purity="5.3477829694747925e-01" nType="0">
          <Node pos="l" depth="2" NCoef="0" IVar="-1" Cut="0.0000000000000000e+00" cType="1" res="4.7794665442779660e-04" rms="2.3074887692928314e-01" purity="5.3440040349960327e-01" nType="-99"/>
          <Node pos="r" depth="2" NCoef="0" IVar="-1" Cut="0.0000000000000000e+00" cType="1" res="3.1391342636197805e-03" rms="2.8498297929763794e-01" purity="5.3939080238342285e-01" nType="-99"/>
        </Node>
        <Node pos="r" depth="1" NCoef="0" IVar="52" Cut="2.5689845085144043e+00" cType="1" res="-5.9386976063251495e-03" rms="0.0000000000000000e+00" purity="9.9903874099254608e-02" nType="-99"/>
      </Node>
    </BinaryTree>
    <BinaryTree type="DecisionTree" boostWeight="1.0000000000000000e+00" itree="852">
      <Node pos="s" depth="0" NCoef="0" IVar="31" Cut="2.6222307682037354e+00" cType="1" res="1.5548718161880970e-02" rms="2.3066599667072296e-01" purity="5.0398153066635132e-01" nType="0">
        <Node pos="l" depth="1" NCoef="0" IVar="17" Cut="9.0119040012359619e-01" cType="1" res="-6.2898620963096619e-02" rms="1.4523847401142120e-01" purity="1.1937844008207321e-01" nType="0">
          <Node pos="l" depth="2" NCoef="0" IVar="-1" Cut="0.0000000000000000e+00" cType="1" res="-1.0820724070072174e-02" rms="2.7474744245409966e-02" purity="1.4320247573778033e-03" nType="-99"/>
          <Node pos="r" depth="2" NCoef="0" IVar="-1" Cut="0.0000000000000000e+00" cType="1" res="-4.2322254739701748e-03" rms="1.7490169405937195e-01" purity="1.9182831048965454e-01" nType="-99"/>
        </Node>
        <Node pos="r" depth="1" NCoef="0" IVar="6" Cut="1.0941933393478394e+00" cType="1" res="2.5300590321421623e-02" rms="2.3735763132572174e-01" purity="5.5179184675216675e-01" nType="0">
          <Node pos="l" depth="2" NCoef="0" IVar="-1" Cut="0.0000000000000000e+00" cType="1" res="-3.1721636187285185e-03" rms="1.1963923275470734e-01" purity="6.1855413019657135e-02" nType="-99"/>
          <Node pos="r" depth="2" NCoef="0" IVar="-1" Cut="0.0000000000000000e+00" cType="1" res="7.9538108548149467e-04" rms="2.4290665984153748e-01" purity="5.9372645616531372e-01" nType="-99"/>
        </Node>
      </Node>
    </BinaryTree>
    <BinaryTree type="DecisionTree" boostWeight="1.0000000000000000e+00" itree="853">
      <Node pos="s" depth="0" NCoef="0" IVar="5" Cut="2.8427755832672119e-01" cType="1" res="1.9073560833930969e-02" rms="2.3535172641277313e-01" purity="5.1329028606414795e-01" nType="0">
        <Node pos="l" depth="1" NCoef="0" IVar="3" Cut="4.4920296669006348e+00" cType="1" res="4.2374096810817719e-02" rms="2.0644877851009369e-01" purity="6.9021725654602051e-01" nType="0">
          <Node pos="l" depth="2" NCoef="0" IVar="-1" Cut="0.0000000000000000e+00" cType="1" res="-1.7393134767189622e-03" rms="1.7539344727993011e-01" purity="4.0735280513763428e-01" nType="-99"/>
          <Node pos="r" depth="2" NCoef="0" IVar="-1" Cut="0.0000000000000000e+00" cType="1" res="1.6087954863905907e-03" rms="2.0755767822265625e-01" purity="7.3227775096893311e-01" nType="-99"/>
        </Node>
        <Node pos="r" depth="1" NCoef="0" IVar="52" Cut="3.2510375976562500e+00" cType="1" res="-1.1081123724579811e-02" rms="2.6514920592308044e-01" purity="2.8431797027587891e-01" nType="0">
          <Node pos="l" depth="2" NCoef="0" IVar="-1" Cut="0.0000000000000000e+00" cType="1" res="3.5837627365253866e-04" rms="2.8368252515792847e-01" purity="3.0717912316322327e-01" nType="-99"/>
          <Node pos="r" depth="2" NCoef="0" IVar="-1" Cut="0.0000000000000000e+00" cType="1" res="-1.9092711154371500e-03" rms="2.0139878988265991e-01" purity="2.3018184304237366e-01" nType="-99"/>
        </Node>
      </Node>
    </BinaryTree>
    <BinaryTree type="DecisionTree" boostWeight="1.0000000000000000e+00" itree="854">
      <Node pos="s" depth="0" NCoef="0" IVar="52" Cut="2.4368071556091309e+00" cType="1" res="1.4502255246043205e-02" rms="2.3132945597171783e-01" purity="5.0568521022796631e-01" nType="0">
        <Node pos="l" depth="1" NCoef="0" IVar="35" Cut="-1.0484207421541214e-01" cType="1" res="-7.4555180966854095e-02" rms="2.1910414099693298e-02" purity="2.4158319830894470e-01" nType="0">
          <Node pos="l" depth="2" NCoef="0" IVar="-1" Cut="0.0000000000000000e+00" cType="1" res="-1.2415123637765646e-03" rms="1.6184253990650177e-01" purity="2.7763581275939941e-01" nType="-99"/>
          <Node pos="r" depth="2" NCoef="0" IVar="-1" Cut="0.0000000000000000e+00" cType="1" res="-5.1875421777367592e-03" rms="0.0000000000000000e+00" purity="1.0372739285230637e-01" nType="-99"/>
        </Node>
        <Node pos="r" depth="1" NCoef="0" IVar="6" Cut="9.5682567358016968e-01" cType="1" res="2.6126172393560410e-02" rms="2.4344401061534882e-01" purity="5.4015618562698364e-01" nType="0">
          <Node pos="l" depth="2" NCoef="0" IVar="-1" Cut="0.0000000000000000e+00" cType="1" res="-5.1184720359742641e-03" rms="0.0000000000000000e+00" purity="3.6899805068969727e-02" nType="-99"/>
          <Node pos="r" depth="2" NCoef="0" IVar="-1" Cut="0.0000000000000000e+00" cType="1" res="8.7445613462477922e-04" rms="2.4873751401901245e-01" purity="5.6716775894165039e-01" nType="-99"/>
        </Node>
      </Node>
    </BinaryTree>
    <BinaryTree type="DecisionTree" boostWeight="1.0000000000000000e+00" itree="855">
      <Node pos="s" depth="0" NCoef="0" IVar="3" Cut="4.8905596733093262e+00" cType="1" res="1.7137560993432999e-02" rms="2.3901443183422089e-01" purity="4.9790319800376892e-01" nType="0">
        <Node pos="l" depth="1" NCoef="0" IVar="2" Cut="2.5080466270446777e+00" cType="1" res="-1.8727990391198546e-04" rms="2.3632055521011353e-01" purity="4.5647335052490234e-01" nType="0">
          <Node pos="l" depth="2" NCoef="0" IVar="-1" Cut="0.0000000000000000e+00" cType="1" res="-1.4637998538091779e-03" rms="1.9939854741096497e-01" purity="2.5253799557685852e-01" nType="-99"/>
          <Node pos="r" depth="2" NCoef="0" IVar="-1" Cut="0.0000000000000000e+00" cType="1" res="6.8865582579746842e-04" rms="2.5883963704109192e-01" purity="6.2454563379287720e-01" nType="-99"/>
        </Node>
        <Node pos="r" depth="1" NCoef="0" IVar="63" Cut="1.4681902527809143e-01" cType="1" res="5.9792038053274155e-02" rms="2.4025432765483856e-01" purity="5.9990525245666504e-01" nType="0">
          <Node pos="l" depth="2" NCoef="0" IVar="-1" Cut="0.0000000000000000e+00" cType="1" res="1.9681665580719709e-03" rms="2.6150429248809814e-01" purity="6.2153971195220947e-01" nType="-99"/>
          <Node pos="r" depth="2" NCoef="0" IVar="-1" Cut="0.0000000000000000e+00" cType="1" res="-2.5438077282160521e-03" rms="0.0000000000000000e+00" purity="4.3416225910186768e-01" nType="-99"/>
        </Node>
      </Node>
    </BinaryTree>
    <BinaryTree type="DecisionTree" boostWeight="1.0000000000000000e+00" itree="856">
      <Node pos="s" depth="0" NCoef="0" IVar="15" Cut="1.5215698480606079e+00" cType="1" res="1.0106476023793221e-02" rms="2.3258630931377411e-01" purity="4.9346315860748291e-01" nType="0">
        <Node pos="l" depth="1" NCoef="0" IVar="3" Cut="4.5018625259399414e+00" cType="1" res="2.1109925583004951e-02" rms="2.1959856152534485e-01" purity="4.9846205115318298e-01" nType="0">
          <Node pos="l" depth="2" NCoef="0" IVar="-1" Cut="0.0000000000000000e+00" cType="1" res="-1.3709607301279902e-03" rms="2.1034324169158936e-01" purity="1.9890801608562469e-01" nType="-99"/>
          <Node pos="r" depth="2" NCoef="0" IVar="-1" Cut="0.0000000000000000e+00" cType="1" res="9.9019077606499195e-04" rms="2.1929724514484406e-01" purity="5.6980603933334351e-01" nType="-99"/>
        </Node>
        <Node pos="r" depth="1" NCoef="0" IVar="15" Cut="1.5401757955551147e+00" cType="1" res="-7.5234167277812958e-02" rms="3.0236250162124634e-01" purity="4.5469224452972412e-01" nType="0">
          <Node pos="l" depth="2" NCoef="0" IVar="-1" Cut="0.0000000000000000e+00" cType="1" res="-5.8735988568514585e-04" rms="2.9486921429634094e-01" purity="5.5520427227020264e-01" nType="-99"/>
          <Node pos="r" depth="2" NCoef="0" IVar="-1" Cut="0.0000000000000000e+00" cType="1" res="-1.0489137843251228e-02" rms="2.8612408041954041e-01" purity="1.2571281194686890e-01" nType="-99"/>
        </Node>
      </Node>
    </BinaryTree>
    <BinaryTree type="DecisionTree" boostWeight="1.0000000000000000e+00" itree="857">
      <Node pos="s" depth="0" NCoef="0" IVar="26" Cut="1.2345679104328156e-02" cType="1" res="1.2468429282307625e-02" rms="2.2449572384357452e-01" purity="5.0742393732070923e-01" nType="0">
        <Node pos="l" depth="1" NCoef="0" IVar="0" Cut="6.1488342285156250e-01" cType="1" res="1.7823159694671631e-02" rms="2.2662466764450073e-01" purity="5.2648252248764038e-01" nType="0">
          <Node pos="l" depth="2" NCoef="0" IVar="-1" Cut="0.0000000000000000e+00" cType="1" res="1.0320482542738318e-03" rms="2.3903472721576691e-01" purity="5.9498578310012817e-01" nType="-99"/>
          <Node pos="r" depth="2" NCoef="0" IVar="-1" Cut="0.0000000000000000e+00" cType="1" res="-3.1062323250807822e-04" rms="2.0644335448741913e-01" purity="4.4104456901550293e-01" nType="-99"/>
        </Node>
        <Node pos="r" depth="1" NCoef="0" IVar="-1" Cut="0.0000000000000000e+00" cType="1" res="-8.3439638838171959e-03" rms="0.0000000000000000e+00" purity="-6.2957473099231720e-02" nType="-99"/>
      </Node>
    </BinaryTree>
    <BinaryTree type="DecisionTree" boostWeight="1.0000000000000000e+00" itree="858">
      <Node pos="s" depth="0" NCoef="0" IVar="52" Cut="2.4664423465728760e+00" cType="1" res="2.2596014663577080e-02" rms="2.4370704591274261e-01" purity="5.0820708274841309e-01" nType="0">
        <Node pos="l" depth="1" NCoef="0" IVar="0" Cut="7.8913080692291260e-01" cType="1" res="-5.2391368895769119e-02" rms="1.1409365385770798e-01" purity="2.8787559270858765e-01" nType="0">
          <Node pos="l" depth="2" NCoef="0" IVar="-1" Cut="0.0000000000000000e+00" cType="1" res="1.9716758106369525e-04" rms="2.1348455548286438e-01" purity="3.9309272170066833e-01" nType="-99"/>
          <Node pos="r" depth="2" NCoef="0" IVar="-1" Cut="0.0000000000000000e+00" cType="1" res="-5.5718668736517429e-03" rms="0.0000000000000000e+00" purity="5.8178171515464783e-02" nType="-99"/>
        </Node>
        <Node pos="r" depth="1" NCoef="0" IVar="3" Cut="4.9844660758972168e+00" cType="1" res="3.4015994518995285e-02" rms="2.5586912035942078e-01" purity="5.4176175594329834e-01" nType="0">
          <Node pos="l" depth="2" NCoef="0" IVar="-1" Cut="0.0000000000000000e+00" cType="1" res="4.9722206313163042e-04" rms="2.5251284241676331e-01" purity="5.1895868778228760e-01" nType="-99"/>
          <Node pos="r" depth="2" NCoef="0" IVar="-1" Cut="0.0000000000000000e+00" cType="1" res="2.4647235404700041e-03" rms="2.6016846299171448e-01" purity="6.3165599107742310e-01" nType="-99"/>
        </Node>
      </Node>
    </BinaryTree>
    <BinaryTree type="DecisionTree" boostWeight="1.0000000000000000e+00" itree="859">
      <Node pos="s" depth="0" NCoef="0" IVar="39" Cut="-1.0111471414566040e+00" cType="1" res="1.4340341091156006e-02" rms="2.2804592549800873e-01" purity="5.0069540739059448e-01" nType="0">
        <Node pos="l" depth="1" NCoef="0" IVar="6" Cut="9.8490345478057861e-01" cType="1" res="2.2677190601825714e-02" rms="2.3292994499206543e-01" purity="5.2713268995285034e-01" nType="0">
          <Node pos="l" depth="2" NCoef="0" IVar="-1" Cut="0.0000000000000000e+00" cType="1" res="-4.3580322526395321e-03" rms="0.0000000000000000e+00" purity="1.7923247069120407e-02" nType="-99"/>
          <Node pos="r" depth="2" NCoef="0" IVar="-1" Cut="0.0000000000000000e+00" cType="1" res="7.3910877108573914e-04" rms="2.3862536251544952e-01" purity="5.5684155225753784e-01" nType="-99"/>
        </Node>
        <Node pos="r" depth="1" NCoef="0" IVar="56" Cut="-9.9162513017654419e-01" cType="1" res="-7.3738977313041687e-02" rms="1.4045052230358124e-01" purity="2.2138398885726929e-01" nType="0">
          <Node pos="l" depth="2" NCoef="0" IVar="-1" Cut="0.0000000000000000e+00" cType="1" res="-2.0732556004077196e-03" rms="1.9161488115787506e-01" purity="2.8787219524383545e-01" nType="-99"/>
          <Node pos="r" depth="2" NCoef="0" IVar="-1" Cut="0.0000000000000000e+00" cType="1" res="-1.1866318061947823e-02" rms="0.0000000000000000e+00" purity="4.0440317243337631e-02" nType="-99"/>
        </Node>
      </Node>
    </BinaryTree>
    <BinaryTree type="DecisionTree" boostWeight="1.0000000000000000e+00" itree="860">
      <Node pos="s" depth="0" NCoef="0" IVar="57" Cut="7.0875488221645355e-02" cType="1" res="1.1209414340555668e-02" rms="2.2682824730873108e-01" purity="4.9594789743423462e-01" nType="0">
        <Node pos="l" depth="1" NCoef="0" IVar="3" Cut="4.9590568542480469e+00" cType="1" res="2.6886081323027611e-02" rms="2.3864537477493286e-01" purity="5.5021357536315918e-01" nType="0">
          <Node pos="l" depth="2" NCoef="0" IVar="-1" Cut="0.0000000000000000e+00" cType="1" res="2.5277989334426820e-04" rms="2.3531365394592285e-01" purity="5.1932573318481445e-01" nType="-99"/>
          <Node pos="r" depth="2" NCoef="0" IVar="-1" Cut="0.0000000000000000e+00" cType="1" res="2.0439554937183857e-03" rms="2.4094824492931366e-01" purity="6.5154665708541870e-01" nType="-99"/>
        </Node>
        <Node pos="r" depth="1" NCoef="0" IVar="55" Cut="1.0507723093032837e+00" cType="1" res="-4.0768995881080627e-02" rms="1.7232672870159149e-01" purity="3.1602150201797485e-01" nType="0">
          <Node pos="l" depth="2" NCoef="0" IVar="-1" Cut="0.0000000000000000e+00" cType="1" res="-5.2260584197938442e-03" rms="0.0000000000000000e+00" purity="8.7810523808002472e-02" nType="-99"/>
          <Node pos="r" depth="2" NCoef="0" IVar="-1" Cut="0.0000000000000000e+00" cType="1" res="-8.3263911074027419e-04" rms="2.0656694471836090e-01" purity="3.4120172262191772e-01" nType="-99"/>
        </Node>
      </Node>
    </BinaryTree>
    <BinaryTree type="DecisionTree" boostWeight="1.0000000000000000e+00" itree="861">
      <Node pos="s" depth="0" NCoef="0" IVar="0" Cut="6.2237471342086792e-01" cType="1" res="1.2916296720504761e-02" rms="2.3128426074981689e-01" purity="5.0151538848876953e-01" nType="0">
        <Node pos="l" depth="1" NCoef="0" IVar="3" Cut="5.2365779876708984e+00" cType="1" res="3.7786670029163361e-02" rms="2.4726966023445129e-01" purity="5.6482893228530884e-01" nType="0">
          <Node pos="l" depth="2" NCoef="0" IVar="-1" Cut="0.0000000000000000e+00" cType="1" res="7.0959597360342741e-04" rms="2.3196469247341156e-01" purity="5.6982368230819702e-01" nType="-99"/>
          <Node pos="r" depth="2" NCoef="0" IVar="-1" Cut="0.0000000000000000e+00" cType="1" res="5.1806624978780746e-03" rms="3.8526189327239990e-01" purity="4.8001685738563538e-01" nType="-99"/>
        </Node>
        <Node pos="r" depth="1" NCoef="0" IVar="48" Cut="9.5645338296890259e-01" cType="1" res="-1.9260179251432419e-02" rms="2.0435187220573425e-01" purity="4.1960245370864868e-01" nType="0">
          <Node pos="l" depth="2" NCoef="0" IVar="-1" Cut="0.0000000000000000e+00" cType="1" res="-4.0481612086296082e-03" rms="0.0000000000000000e+00" purity="-2.8918001800775528e-02" nType="-99"/>
          <Node pos="r" depth="2" NCoef="0" IVar="-1" Cut="0.0000000000000000e+00" cType="1" res="-1.0200000542681664e-04" rms="2.1999871730804443e-01" purity="4.8808261752128601e-01" nType="-99"/>
        </Node>
      </Node>
    </BinaryTree>
    <BinaryTree type="DecisionTree" boostWeight="1.0000000000000000e+00" itree="862">
      <Node pos="s" depth="0" NCoef="0" IVar="0" Cut="6.2213301658630371e-01" cType="1" res="2.0045379176735878e-02" rms="2.3755885660648346e-01" purity="5.0630170106887817e-01" nType="0">
        <Node pos="l" depth="1" NCoef="0" IVar="15" Cut="-5.2613896131515503e-01" cType="1" res="4.6620529145002365e-02" rms="2.5390830636024475e-01" purity="5.7164335250854492e-01" nType="0">
          <Node pos="l" depth="2" NCoef="0" IVar="-1" Cut="0.0000000000000000e+00" cType="1" res="-8.8819302618503571e-04" rms="9.3947619199752808e-02" purity="2.1594873070716858e-01" nType="-99"/>
          <Node pos="r" depth="2" NCoef="0" IVar="-1" Cut="0.0000000000000000e+00" cType="1" res="1.3910613488405943e-03" rms="2.8426447510719299e-01" purity="6.8567532300949097e-01" nType="-99"/>
        </Node>
        <Node pos="r" depth="1" NCoef="0" IVar="48" Cut="1.1143566370010376e+00" cType="1" res="-1.4122158288955688e-02" rms="2.0982834696769714e-01" purity="4.2229223251342773e-01" nType="0">
          <Node pos="l" depth="2" NCoef="0" IVar="-1" Cut="0.0000000000000000e+00" cType="1" res="-2.5603983085602522e-03" rms="0.0000000000000000e+00" purity="7.8019365668296814e-02" nType="-99"/>
          <Node pos="r" depth="2" NCoef="0" IVar="-1" Cut="0.0000000000000000e+00" cType="1" res="7.7306394814513624e-05" rms="2.3164068162441254e-01" purity="5.0216954946517944e-01" nType="-99"/>
        </Node>
      </Node>
    </BinaryTree>
    <BinaryTree type="DecisionTree" boostWeight="1.0000000000000000e+00" itree="863">
      <Node pos="s" depth="0" NCoef="0" IVar="3" Cut="4.8825221061706543e+00" cType="1" res="1.3554721139371395e-02" rms="2.3317569494247437e-01" purity="4.9705210328102112e-01" nType="0">
        <Node pos="l" depth="1" NCoef="0" IVar="56" Cut="-1.3769204616546631e+00" cType="1" res="-4.4540539383888245e-03" rms="2.2605964541435242e-01" purity="4.5187541842460632e-01" nType="0">
          <Node pos="l" depth="2" NCoef="0" IVar="-1" Cut="0.0000000000000000e+00" cType="1" res="4.8067365423776209e-04" rms="2.3215030133724213e-01" purity="5.3284019231796265e-01" nType="-99"/>
          <Node pos="r" depth="2" NCoef="0" IVar="-1" Cut="0.0000000000000000e+00" cType="1" res="-1.9090509740635753e-03" rms="2.0059102773666382e-01" purity="2.6306483149528503e-01" nType="-99"/>
        </Node>
        <Node pos="r" depth="1" NCoef="0" IVar="22" Cut="1.2345679104328156e-02" cType="1" res="5.5177051573991776e-02" rms="2.4380700290203094e-01" purity="6.0146558284759521e-01" nType="0">
          <Node pos="l" depth="2" NCoef="0" IVar="-1" Cut="0.0000000000000000e+00" cType="1" res="4.5977043919265270e-03" rms="3.6555400490760803e-01" purity="4.7703114151954651e-01" nType="-99"/>
          <Node pos="r" depth="2" NCoef="0" IVar="-1" Cut="0.0000000000000000e+00" cType="1" res="1.0447266977280378e-03" rms="2.1636219322681427e-01" purity="6.1812001466751099e-01" nType="-99"/>
        </Node>
      </Node>
    </BinaryTree>
    <BinaryTree type="DecisionTree" boostWeight="1.0000000000000000e+00" itree="864">
      <Node pos="s" depth="0" NCoef="0" IVar="25" Cut="7.9839432239532471e-01" cType="1" res="1.6294611617922783e-02" rms="2.3992119729518890e-01" purity="4.9665892124176025e-01" nType="0">
        <Node pos="l" depth="1" NCoef="0" IVar="-1" Cut="0.0000000000000000e+00" cType="1" res="3.1555551104247570e-03" rms="3.2464841008186340e-01" purity="6.6094380617141724e-01" nType="-99"/>
        <Node pos="r" depth="1" NCoef="0" IVar="18" Cut="-1.3590145111083984e+00" cType="1" res="1.2036990374326706e-02" rms="2.3554831743240356e-01" purity="4.9160361289978027e-01" nType="0">
          <Node pos="l" depth="2" NCoef="0" IVar="-1" Cut="0.0000000000000000e+00" cType="1" res="6.3484342535957694e-04" rms="2.3297242820262909e-01" purity="5.4241418838500977e-01" nType="-99"/>
          <Node pos="r" depth="2" NCoef="0" IVar="-1" Cut="0.0000000000000000e+00" cType="1" res="-1.3510811841115355e-03" rms="2.3975606262683868e-01" purity="2.7471852302551270e-01" nType="-99"/>
        </Node>
      </Node>
    </BinaryTree>
    <BinaryTree type="DecisionTree" boostWeight="1.0000000000000000e+00" itree="865">
      <Node pos="s" depth="0" NCoef="0" IVar="57" Cut="1.1010433435440063e+00" cType="1" res="4.2074136435985565e-03" rms="2.2490549087524414e-01" purity="4.9074208736419678e-01" nType="0">
        <Node pos="l" depth="1" NCoef="0" IVar="15" Cut="1.5225218534469604e+00" cType="1" res="1.6691863536834717e-02" rms="2.3542906343936920e-01" purity="5.3216159343719482e-01" nType="0">
          <Node pos="l" depth="2" NCoef="0" IVar="-1" Cut="0.0000000000000000e+00" cType="1" res="7.5894640758633614e-04" rms="2.2244662046432495e-01" purity="5.3812146186828613e-01" nType="-99"/>
          <Node pos="r" depth="2" NCoef="0" IVar="-1" Cut="0.0000000000000000e+00" cType="1" res="-1.3539873762056231e-03" rms="3.0885249376296997e-01" purity="4.8376414179801941e-01" nType="-99"/>
        </Node>
        <Node pos="r" depth="1" NCoef="0" IVar="39" Cut="-2.2286584377288818e+00" cType="1" res="-5.4436463862657547e-02" rms="1.5380363166332245e-01" purity="2.9618006944656372e-01" nType="0">
          <Node pos="l" depth="2" NCoef="0" IVar="-1" Cut="0.0000000000000000e+00" cType="1" res="-6.6840834915637970e-03" rms="0.0000000000000000e+00" purity="1.6213710606098175e-01" nType="-99"/>
          <Node pos="r" depth="2" NCoef="0" IVar="-1" Cut="0.0000000000000000e+00" cType="1" res="-1.1154743842780590e-03" rms="1.9267609715461731e-01" purity="3.1564781069755554e-01" nType="-99"/>
        </Node>
      </Node>
    </BinaryTree>
    <BinaryTree type="DecisionTree" boostWeight="1.0000000000000000e+00" itree="866">
      <Node pos="s" depth="0" NCoef="0" IVar="3" Cut="5.1719927787780762e+00" cType="1" res="8.7149301543831825e-03" rms="2.2129955887794495e-01" purity="5.0582295656204224e-01" nType="0">
        <Node pos="l" depth="1" NCoef="0" IVar="2" Cut="1.4759937524795532e+00" cType="1" res="-1.0340500157326460e-03" rms="2.1468295156955719e-01" purity="5.0361484289169312e-01" nType="0">
          <Node pos="l" depth="2" NCoef="0" IVar="-1" Cut="0.0000000000000000e+00" cType="1" res="-8.0525353550910950e-03" rms="0.0000000000000000e+00" purity="6.9961734116077423e-02" nType="-99"/>
          <Node pos="r" depth="2" NCoef="0" IVar="-1" Cut="0.0000000000000000e+00" cType="1" res="1.8960538727696985e-04" rms="2.2172224521636963e-01" purity="5.3892159461975098e-01" nType="-99"/>
        </Node>
        <Node pos="r" depth="1" NCoef="0" IVar="1" Cut="2.5746171474456787e+00" cType="1" res="1.1714777350425720e-01" rms="2.6123562455177307e-01" purity="5.3038209676742554e-01" nType="0">
          <Node pos="l" depth="2" NCoef="0" IVar="-1" Cut="0.0000000000000000e+00" cType="1" res="5.6388420052826405e-03" rms="3.8196873664855957e-01" purity="4.9192020297050476e-01" nType="-99"/>
          <Node pos="r" depth="2" NCoef="0" IVar="-1" Cut="0.0000000000000000e+00" cType="1" res="7.2236626874655485e-04" rms="0.0000000000000000e+00" purity="5.5417126417160034e-01" nType="-99"/>
        </Node>
      </Node>
    </BinaryTree>
    <BinaryTree type="DecisionTree" boostWeight="1.0000000000000000e+00" itree="867">
      <Node pos="s" depth="0" NCoef="0" IVar="15" Cut="1.5219346284866333e+00" cType="1" res="2.2121118381619453e-03" rms="2.1956203877925873e-01" purity="4.9011000990867615e-01" nType="0">
        <Node pos="l" depth="1" NCoef="0" IVar="17" Cut="1.5220416784286499e+00" cType="1" res="1.2411441653966904e-02" rms="2.0151361823081970e-01" purity="4.9537664651870728e-01" nType="0">
          <Node pos="l" depth="2" NCoef="0" IVar="-1" Cut="0.0000000000000000e+00" cType="1" res="-3.1530327396467328e-04" rms="2.0483060181140900e-01" purity="2.7275961637496948e-01" nType="-99"/>
          <Node pos="r" depth="2" NCoef="0" IVar="-1" Cut="0.0000000000000000e+00" cType="1" res="1.5144809149205685e-03" rms="1.8694001436233521e-01" purity="9.2786294221878052e-01" nType="-99"/>
        </Node>
        <Node pos="r" depth="1" NCoef="0" IVar="15" Cut="1.5357851982116699e+00" cType="1" res="-7.7463425695896149e-02" rms="3.1688281893730164e-01" purity="4.4896733760833740e-01" nType="0">
          <Node pos="l" depth="2" NCoef="0" IVar="-1" Cut="0.0000000000000000e+00" cType="1" res="-1.7503554408904165e-04" rms="2.9391267895698547e-01" purity="5.9964478015899658e-01" nType="-99"/>
          <Node pos="r" depth="2" NCoef="0" IVar="-1" Cut="0.0000000000000000e+00" cType="1" res="-6.5567693673074245e-03" rms="3.2261636853218079e-01" purity="1.9603170454502106e-01" nType="-99"/>
        </Node>
      </Node>
    </BinaryTree>
    <BinaryTree type="DecisionTree" boostWeight="1.0000000000000000e+00" itree="868">
      <Node pos="s" depth="0" NCoef="0" IVar="57" Cut="1.1392198801040649e+00" cType="1" res="4.4393525458872318e-03" rms="2.2111438214778900e-01" purity="4.9325743317604065e-01" nType="0">
        <Node pos="l" depth="1" NCoef="0" IVar="15" Cut="1.5225218534469604e+00" cType="1" res="1.8983200192451477e-02" rms="2.3152910172939301e-01" purity="5.3699988126754761e-01" nType="0">
          <Node pos="l" depth="2" NCoef="0" IVar="-1" Cut="0.0000000000000000e+00" cType="1" res="8.4809347754344344e-04" rms="2.1817778050899506e-01" purity="5.4662847518920898e-01" nType="-99"/>
          <Node pos="r" depth="2" NCoef="0" IVar="-1" Cut="0.0000000000000000e+00" cType="1" res="-1.7046189168468118e-03" rms="3.0037966370582581e-01" purity="4.6112143993377686e-01" nType="-99"/>
        </Node>
        <Node pos="r" depth="1" NCoef="0" IVar="48" Cut="9.9402022361755371e-01" cType="1" res="-6.7383453249931335e-02" rms="1.3931356370449066e-01" purity="2.7724152803421021e-01" nType="0">
          <Node pos="l" depth="2" NCoef="0" IVar="-1" Cut="0.0000000000000000e+00" cType="1" res="-1.2939364649355412e-02" rms="0.0000000000000000e+00" purity="-1.6256619989871979e-01" nType="-99"/>
          <Node pos="r" depth="2" NCoef="0" IVar="-1" Cut="0.0000000000000000e+00" cType="1" res="-1.1476166546344757e-03" rms="2.1826145052909851e-01" purity="3.5435146093368530e-01" nType="-99"/>
        </Node>
      </Node>
    </BinaryTree>
    <BinaryTree type="DecisionTree" boostWeight="1.0000000000000000e+00" itree="869">
      <Node pos="s" depth="0" NCoef="0" IVar="25" Cut="1.0115393400192261e+00" cType="1" res="1.1566124856472015e-02" rms="2.2427268326282501e-01" purity="4.9419844150543213e-01" nType="0">
        <Node pos="l" depth="1" NCoef="0" IVar="52" Cut="2.3952183723449707e+00" cType="1" res="3.0707990750670433e-02" rms="2.4119836091995239e-01" purity="5.3701770305633545e-01" nType="0">
          <Node pos="l" depth="2" NCoef="0" IVar="-1" Cut="0.0000000000000000e+00" cType="1" res="-1.6907268436625600e-03" rms="1.1394574493169785e-01" purity="2.5893604755401611e-01" nType="-99"/>
          <Node pos="r" depth="2" NCoef="0" IVar="-1" Cut="0.0000000000000000e+00" cType="1" res="1.0006885277107358e-03" rms="2.4928304553031921e-01" purity="5.6810384988784790e-01" nType="-99"/>
        </Node>
        <Node pos="r" depth="1" NCoef="0" IVar="17" Cut="1.5214687585830688e+00" cType="1" res="-3.6379747092723846e-02" rms="1.6537250578403473e-01" purity="3.8694626092910767e-01" nType="0">
          <Node pos="l" depth="2" NCoef="0" IVar="-1" Cut="0.0000000000000000e+00" cType="1" res="-3.4739426337182522e-03" rms="8.9704461395740509e-02" purity="1.2686991691589355e-01" nType="-99"/>
          <Node pos="r" depth="2" NCoef="0" IVar="-1" Cut="0.0000000000000000e+00" cType="1" res="9.1971753863617778e-04" rms="2.3138888180255890e-01" purity="8.5368281602859497e-01" nType="-99"/>
        </Node>
      </Node>
    </BinaryTree>
    <BinaryTree type="DecisionTree" boostWeight="1.0000000000000000e+00" itree="870">
      <Node pos="s" depth="0" NCoef="0" IVar="0" Cut="7.3354756832122803e-01" cType="1" res="6.6523808054625988e-03" rms="2.1765230596065521e-01" purity="4.9864763021469116e-01" nType="0">
        <Node pos="l" depth="1" NCoef="0" IVar="2" Cut="1.4695953130722046e+00" cType="1" res="2.8856981545686722e-02" rms="2.3432993888854980e-01" purity="5.5460596084594727e-01" nType="0">
          <Node pos="l" depth="2" NCoef="0" IVar="-1" Cut="0.0000000000000000e+00" cType="1" res="-4.1563436388969421e-03" rms="1.0180932283401489e-01" purity="1.0977399349212646e-01" nType="-99"/>
          <Node pos="r" depth="2" NCoef="0" IVar="-1" Cut="0.0000000000000000e+00" cType="1" res="9.8388839978724718e-04" rms="2.4161972105503082e-01" purity="6.0056126117706299e-01" nType="-99"/>
        </Node>
        <Node pos="r" depth="1" NCoef="0" IVar="2" Cut="2.5229766368865967e+00" cType="1" res="-3.7871979176998138e-02" rms="1.7113262414932251e-01" purity="3.8644066452980042e-01" nType="0">
          <Node pos="l" depth="2" NCoef="0" IVar="-1" Cut="0.0000000000000000e+00" cType="1" res="-2.9905049595981836e-03" rms="0.0000000000000000e+00" purity="1.9764225184917450e-01" nType="-99"/>
          <Node pos="r" depth="2" NCoef="0" IVar="-1" Cut="0.0000000000000000e+00" cType="1" res="2.6386382523924112e-04" rms="2.5843432545661926e-01" purity="5.7723057270050049e-01" nType="-99"/>
        </Node>
      </Node>
    </BinaryTree>
    <BinaryTree type="DecisionTree" boostWeight="1.0000000000000000e+00" itree="871">
      <Node pos="s" depth="0" NCoef="0" IVar="60" Cut="-9.0188330411911011e-01" cType="1" res="4.3911230750381947e-03" rms="2.0960143208503723e-01" purity="5.0269597768783569e-01" nType="0">
        <Node pos="l" depth="1" NCoef="0" IVar="36" Cut="9.8204135894775391e-01" cType="1" res="1.2599981389939785e-02" rms="2.1681064367294312e-01" purity="5.2775609493255615e-01" nType="0">
          <Node pos="l" depth="2" NCoef="0" IVar="-1" Cut="0.0000000000000000e+00" cType="1" res="-5.9674237854778767e-03" rms="0.0000000000000000e+00" purity="1.2949787080287933e-02" nType="-99"/>
          <Node pos="r" depth="2" NCoef="0" IVar="-1" Cut="0.0000000000000000e+00" cType="1" res="5.7772832224145532e-04" rms="2.4157772958278656e-01" purity="6.3310062885284424e-01" nType="-99"/>
        </Node>
        <Node pos="r" depth="1" NCoef="0" IVar="55" Cut="-6.4623212814331055e-01" cType="1" res="-3.7581245414912701e-03" rms="0.0000000000000000e+00" purity="1.7486310005187988e-01" nType="-99"/>
      </Node>
    </BinaryTree>
    <BinaryTree type="DecisionTree" boostWeight="1.0000000000000000e+00" itree="872">
      <Node pos="s" depth="0" NCoef="0" IVar="1" Cut="2.1939439773559570e+00" cType="1" res="6.9915852509438992e-03" rms="2.1800807118415833e-01" purity="4.9460533261299133e-01" nType="0">
        <Node pos="l" depth="1" NCoef="0" IVar="27" Cut="8.5642236471176147e-01" cType="1" res="-3.9869491010904312e-03" rms="0.0000000000000000e+00" purity="5.4344306699931622e-03" nType="-99"/>
        <Node pos="r" depth="1" NCoef="0" IVar="6" Cut="1.1793221235275269e+00" cType="1" res="1.6334313899278641e-02" rms="2.2953982651233673e-01" purity="5.4875785112380981e-01" nType="0">
          <Node pos="l" depth="2" NCoef="0" IVar="-1" Cut="0.0000000000000000e+00" cType="1" res="-4.0601263754069805e-03" rms="0.0000000000000000e+00" purity="9.9716693162918091e-02" nType="-99"/>
          <Node pos="r" depth="2" NCoef="0" IVar="-1" Cut="0.0000000000000000e+00" cType="1" res="6.1113451374694705e-04" rms="2.3574829101562500e-01" purity="5.7874685525894165e-01" nType="-99"/>
        </Node>
      </Node>
    </BinaryTree>
    <BinaryTree type="DecisionTree" boostWeight="1.0000000000000000e+00" itree="873">
      <Node pos="s" depth="0" NCoef="0" IVar="3" Cut="5.2113523483276367e+00" cType="1" res="1.5543491579592228e-02" rms="2.3274096846580505e-01" purity="4.9612072110176086e-01" nType="0">
        <Node pos="l" depth="1" NCoef="0" IVar="2" Cut="2.3943381309509277e+00" cType="1" res="8.4940670058131218e-03" rms="2.2661389410495758e-01" purity="4.9859026074409485e-01" nType="0">
          <Node pos="l" depth="2" NCoef="0" IVar="-1" Cut="0.0000000000000000e+00" cType="1" res="-9.9380919709801674e-04" rms="1.8194858729839325e-01" purity="2.8724977374076843e-01" nType="-99"/>
          <Node pos="r" depth="2" NCoef="0" IVar="-1" Cut="0.0000000000000000e+00" cType="1" res="8.0021884059533477e-04" rms="2.5004142522811890e-01" purity="6.4627885818481445e-01" nType="-99"/>
        </Node>
        <Node pos="r" depth="1" NCoef="0" IVar="13" Cut="-9.5376259088516235e-01" cType="1" res="1.2640205025672913e-01" rms="2.9216057062149048e-01" purity="4.5728510618209839e-01" nType="0">
          <Node pos="l" depth="2" NCoef="0" IVar="-1" Cut="0.0000000000000000e+00" cType="1" res="-1.0252371430397034e-03" rms="0.0000000000000000e+00" purity="2.1969982981681824e-01" nType="-99"/>
          <Node pos="r" depth="2" NCoef="0" IVar="-1" Cut="0.0000000000000000e+00" cType="1" res="4.1614514775574207e-03" rms="3.5368546843528748e-01" purity="5.8886396884918213e-01" nType="-99"/>
        </Node>
      </Node>
    </BinaryTree>
    <BinaryTree type="DecisionTree" boostWeight="1.0000000000000000e+00" itree="874">
      <Node pos="s" depth="0" NCoef="0" IVar="52" Cut="2.4640297889709473e+00" cType="1" res="1.1804468929767609e-02" rms="2.2413063049316406e-01" purity="5.0362306833267212e-01" nType="0">
        <Node pos="l" depth="1" NCoef="0" IVar="16" Cut="-2.2429919242858887e-01" cType="1" res="-5.8653656393289566e-02" rms="1.2504790723323822e-01" purity="2.5595802068710327e-01" nType="0">
          <Node pos="l" depth="2" NCoef="0" IVar="-1" Cut="0.0000000000000000e+00" cType="1" res="-5.6811649119481444e-04" rms="2.1453702449798584e-01" purity="2.9631161689758301e-01" nType="-99"/>
          <Node pos="r" depth="2" NCoef="0" IVar="-1" Cut="0.0000000000000000e+00" cType="1" res="-3.6755194887518883e-03" rms="0.0000000000000000e+00" purity="1.7586436867713928e-01" nType="-99"/>
        </Node>
        <Node pos="r" depth="1" NCoef="0" IVar="3" Cut="5.1425518989562988e+00" cType="1" res="2.2535551339387894e-02" rms="2.3373627662658691e-01" purity="5.4134351015090942e-01" nType="0">
          <Node pos="l" depth="2" NCoef="0" IVar="-1" Cut="0.0000000000000000e+00" cType="1" res="3.1181267695501447e-04" rms="2.2651259601116180e-01" purity="5.3818237781524658e-01" nType="-99"/>
          <Node pos="r" depth="2" NCoef="0" IVar="-1" Cut="0.0000000000000000e+00" cType="1" res="2.8497457969933748e-03" rms="2.7110269665718079e-01" purity="5.6894499063491821e-01" nType="-99"/>
        </Node>
      </Node>
    </BinaryTree>
    <BinaryTree type="DecisionTree" boostWeight="1.0000000000000000e+00" itree="875">
      <Node pos="s" depth="0" NCoef="0" IVar="3" Cut="4.8962912559509277e+00" cType="1" res="3.2140500843524933e-03" rms="2.2151176631450653e-01" purity="4.8254561424255371e-01" nType="0">
        <Node pos="l" depth="1" NCoef="0" IVar="1" Cut="3.2832732200622559e+00" cType="1" res="-1.7390456050634384e-02" rms="2.1645651757717133e-01" purity="4.3522456288337708e-01" nType="0">
          <Node pos="l" depth="2" NCoef="0" IVar="-1" Cut="0.0000000000000000e+00" cType="1" res="-1.5234322054311633e-03" rms="1.8234132230281830e-01" purity="2.7999436855316162e-01" nType="-99"/>
          <Node pos="r" depth="2" NCoef="0" IVar="-1" Cut="0.0000000000000000e+00" cType="1" res="5.4596987320110202e-04" rms="2.4998570978641510e-01" purity="6.4555162191390991e-01" nType="-99"/>
        </Node>
        <Node pos="r" depth="1" NCoef="0" IVar="10" Cut="2.9662108421325684e+00" cType="1" res="5.4082401096820831e-02" rms="2.2560533881187439e-01" purity="5.9937161207199097e-01" nType="0">
          <Node pos="l" depth="2" NCoef="0" IVar="-1" Cut="0.0000000000000000e+00" cType="1" res="5.5344072170555592e-03" rms="4.3918567895889282e-01" purity="4.0488570928573608e-01" nType="-99"/>
          <Node pos="r" depth="2" NCoef="0" IVar="-1" Cut="0.0000000000000000e+00" cType="1" res="1.0327477939426899e-03" rms="1.8690635263919830e-01" purity="6.1755037307739258e-01" nType="-99"/>
        </Node>
      </Node>
    </BinaryTree>
    <BinaryTree type="DecisionTree" boostWeight="1.0000000000000000e+00" itree="876">
      <Node pos="s" depth="0" NCoef="0" IVar="6" Cut="1.1463922262191772e+00" cType="1" res="5.1226457580924034e-03" rms="2.2035609185695648e-01" purity="4.9345144629478455e-01" nType="0">
        <Node pos="l" depth="1" NCoef="0" IVar="48" Cut="1.7967625856399536e+00" cType="1" res="-5.2268817089498043e-03" rms="0.0000000000000000e+00" purity="2.8965232893824577e-02" nType="-99"/>
        <Node pos="r" depth="1" NCoef="0" IVar="2" Cut="1.3428223133087158e+00" cType="1" res="1.5146778896450996e-02" rms="2.3057213425636292e-01" purity="5.3800731897354126e-01" nType="0">
          <Node pos="l" depth="2" NCoef="0" IVar="-1" Cut="0.0000000000000000e+00" cType="1" res="-7.4011068791151047e-03" rms="8.7065607309341431e-02" purity="7.6848641037940979e-02" nType="-99"/>
          <Node pos="r" depth="2" NCoef="0" IVar="-1" Cut="0.0000000000000000e+00" cType="1" res="5.5083283223211765e-04" rms="2.3570117354393005e-01" purity="5.6977051496505737e-01" nType="-99"/>
        </Node>
      </Node>
    </BinaryTree>
    <BinaryTree type="DecisionTree" boostWeight="1.0000000000000000e+00" itree="877">
      <Node pos="s" depth="0" NCoef="0" IVar="5" Cut="2.6530620455741882e-01" cType="1" res="1.2521881610155106e-02" rms="2.3217765986919403e-01" purity="5.0100207328796387e-01" nType="0">
        <Node pos="l" depth="1" NCoef="0" IVar="27" Cut="1.6187187433242798e+00" cType="1" res="4.0314111858606339e-02" rms="2.1652711927890778e-01" purity="6.6536414623260498e-01" nType="0">
          <Node pos="l" depth="2" NCoef="0" IVar="-1" Cut="0.0000000000000000e+00" cType="1" res="-7.0925033651292324e-04" rms="1.9737374782562256e-01" purity="3.0216199159622192e-01" nType="-99"/>
          <Node pos="r" depth="2" NCoef="0" IVar="-1" Cut="0.0000000000000000e+00" cType="1" res="1.7132401699200273e-03" rms="2.1936590969562531e-01" purity="8.0491870641708374e-01" nType="-99"/>
        </Node>
        <Node pos="r" depth="1" NCoef="0" IVar="2" Cut="2.5008156299591064e+00" cType="1" res="-1.9352564588189125e-02" rms="2.4506850540637970e-01" purity="3.1249800324440002e-01" nType="0">
          <Node pos="l" depth="2" NCoef="0" IVar="-1" Cut="0.0000000000000000e+00" cType="1" res="-2.2016835864633322e-03" rms="1.3558049499988556e-01" purity="1.5963129699230194e-01" nType="-99"/>
          <Node pos="r" depth="2" NCoef="0" IVar="-1" Cut="0.0000000000000000e+00" cType="1" res="4.3049061787314713e-04" rms="3.0879256129264832e-01" purity="4.5555737614631653e-01" nType="-99"/>
        </Node>
      </Node>
    </BinaryTree>
    <BinaryTree type="DecisionTree" boostWeight="1.0000000000000000e+00" itree="878">
      <Node pos="s" depth="0" NCoef="0" IVar="17" Cut="1.5220416784286499e+00" cType="1" res="2.9750952962785959e-03" rms="2.0993943512439728e-01" purity="4.9824333190917969e-01" nType="0">
        <Node pos="l" depth="1" NCoef="0" IVar="19" Cut="1.2764260172843933e-01" cType="1" res="-2.0689897239208221e-02" rms="2.0438355207443237e-01" purity="2.4607731401920319e-01" nType="0">
          <Node pos="l" depth="2" NCoef="0" IVar="-1" Cut="0.0000000000000000e+00" cType="1" res="-6.5810102969408035e-03" rms="0.0000000000000000e+00" purity="1.0173759609460831e-01" nType="-99"/>
          <Node pos="r" depth="2" NCoef="0" IVar="-1" Cut="0.0000000000000000e+00" cType="1" res="-4.5450928155332804e-04" rms="2.1205015480518341e-01" purity="2.5125929713249207e-01" nType="-99"/>
        </Node>
        <Node pos="r" depth="1" NCoef="0" IVar="2" Cut="1.7659060955047607e+00" cType="1" res="3.8255400955677032e-02" rms="2.1313548088073730e-01" purity="8.7417829036712646e-01" nType="0">
          <Node pos="l" depth="2" NCoef="0" IVar="-1" Cut="0.0000000000000000e+00" cType="1" res="-2.0069042220711708e-03" rms="2.4282860755920410e-01" purity="5.3109395503997803e-01" nType="-99"/>
          <Node pos="r" depth="2" NCoef="0" IVar="-1" Cut="0.0000000000000000e+00" cType="1" res="1.1642369208857417e-03" rms="2.0705656707286835e-01" purity="9.0443176031112671e-01" nType="-99"/>
        </Node>
      </Node>
    </BinaryTree>
    <BinaryTree type="DecisionTree" boostWeight="1.0000000000000000e+00" itree="879">
      <Node pos="s" depth="0" NCoef="0" IVar="52" Cut="2.2729969024658203e+00" cType="1" res="1.1004240252077579e-02" rms="2.2685073316097260e-01" purity="4.9105334281921387e-01" nType="0">
        <Node pos="l" depth="1" NCoef="0" IVar="17" Cut="1.3653751611709595e+00" cType="1" res="-3.7262714467942715e-03" rms="0.0000000000000000e+00" purity="1.6721589863300323e-01" nType="-99"/>
        <Node pos="r" depth="1" NCoef="0" IVar="3" Cut="4.9965462684631348e+00" cType="1" res="1.9028689712285995e-02" rms="2.3682028055191040e-01" purity="5.0804287195205688e-01" nType="0">
          <Node pos="l" depth="2" NCoef="0" IVar="-1" Cut="0.0000000000000000e+00" cType="1" res="1.1691288818838075e-04" rms="2.3365560173988342e-01" purity="4.8732420802116394e-01" nType="-99"/>
          <Node pos="r" depth="2" NCoef="0" IVar="-1" Cut="0.0000000000000000e+00" cType="1" res="2.0802528597414494e-03" rms="2.3971335589885712e-01" purity="6.0021883249282837e-01" nType="-99"/>
        </Node>
      </Node>
    </BinaryTree>
    <BinaryTree type="DecisionTree" boostWeight="1.0000000000000000e+00" itree="880">
      <Node pos="s" depth="0" NCoef="0" IVar="9" Cut="-7.5308644771575928e-01" cType="1" res="5.3325440967455506e-04" rms="2.1365526318550110e-01" purity="4.8316451907157898e-01" nType="0">
        <Node pos="l" depth="1" NCoef="0" IVar="-1" Cut="0.0000000000000000e+00" cType="1" res="-4.6193636953830719e-03" rms="0.0000000000000000e+00" purity="1.3536497950553894e-01" nType="-99"/>
        <Node pos="r" depth="1" NCoef="0" IVar="48" Cut="1.1314448118209839e+00" cType="1" res="7.9624215140938759e-03" rms="2.2317676246166229e-01" purity="4.9712857604026794e-01" nType="0">
          <Node pos="l" depth="2" NCoef="0" IVar="-1" Cut="0.0000000000000000e+00" cType="1" res="-1.8205505330115557e-03" rms="9.2592582106590271e-02" purity="1.3197439908981323e-01" nType="-99"/>
          <Node pos="r" depth="2" NCoef="0" IVar="-1" Cut="0.0000000000000000e+00" cType="1" res="5.4972531506791711e-04" rms="2.3755645751953125e-01" purity="5.6463599205017090e-01" nType="-99"/>
        </Node>
      </Node>
    </BinaryTree>
    <BinaryTree type="DecisionTree" boostWeight="1.0000000000000000e+00" itree="881">
      <Node pos="s" depth="0" NCoef="0" IVar="57" Cut="1.1392155885696411e+00" cType="1" res="8.6190039291977882e-03" rms="2.2811956703662872e-01" purity="4.8525476455688477e-01" nType="0">
        <Node pos="l" depth="1" NCoef="0" IVar="1" Cut="2.1712865829467773e+00" cType="1" res="2.1017672494053841e-02" rms="2.3521743714809418e-01" purity="5.2792125940322876e-01" nType="0">
          <Node pos="l" depth="2" NCoef="0" IVar="-1" Cut="0.0000000000000000e+00" cType="1" res="-2.9112724587321281e-03" rms="4.0411487221717834e-02" purity="5.6158103048801422e-02" nType="-99"/>
          <Node pos="r" depth="2" NCoef="0" IVar="-1" Cut="0.0000000000000000e+00" cType="1" res="7.4247812153771520e-04" rms="2.4446801841259003e-01" purity="5.7406091690063477e-01" nType="-99"/>
        </Node>
        <Node pos="r" depth="1" NCoef="0" IVar="52" Cut="3.2432556152343750e+00" cType="1" res="-5.2623283118009567e-02" rms="1.7687363922595978e-01" purity="2.7450692653656006e-01" nType="0">
          <Node pos="l" depth="2" NCoef="0" IVar="-1" Cut="0.0000000000000000e+00" cType="1" res="-9.7922515124082565e-04" rms="2.0115862786769867e-01" purity="3.1834927201271057e-01" nType="-99"/>
          <Node pos="r" depth="2" NCoef="0" IVar="-1" Cut="0.0000000000000000e+00" cType="1" res="-1.2486953288316727e-02" rms="0.0000000000000000e+00" purity="-1.3746835291385651e-02" nType="-99"/>
        </Node>
      </Node>
    </BinaryTree>
    <BinaryTree type="DecisionTree" boostWeight="1.0000000000000000e+00" itree="882">
      <Node pos="s" depth="0" NCoef="0" IVar="52" Cut="2.2088358402252197e+00" cType="1" res="1.1103258468210697e-02" rms="2.3088672757148743e-01" purity="4.9282953143119812e-01" nType="0">
        <Node pos="l" depth="1" NCoef="0" IVar="-1" Cut="0.0000000000000000e+00" cType="1" res="-4.7607496380805969e-03" rms="0.0000000000000000e+00" purity="6.4418151974678040e-02" nType="-99"/>
        <Node pos="r" depth="1" NCoef="0" IVar="5" Cut="2.8550559282302856e-01" cType="1" res="1.6101155430078506e-02" rms="2.3644109070301056e-01" purity="5.0601947307586670e-01" nType="0">
          <Node pos="l" depth="2" NCoef="0" IVar="-1" Cut="0.0000000000000000e+00" cType="1" res="1.3324631145223975e-03" rms="2.1455419063568115e-01" purity="6.8341219425201416e-01" nType="-99"/>
          <Node pos="r" depth="2" NCoef="0" IVar="-1" Cut="0.0000000000000000e+00" cType="1" res="-4.0454181726090610e-04" rms="2.5626134872436523e-01" purity="2.9476800560951233e-01" nType="-99"/>
        </Node>
      </Node>
    </BinaryTree>
    <BinaryTree type="DecisionTree" boostWeight="1.0000000000000000e+00" itree="883">
      <Node pos="s" depth="0" NCoef="0" IVar="5" Cut="3.4250506758689880e-01" cType="1" res="1.1497217230498791e-02" rms="2.2261725366115570e-01" purity="5.0777637958526611e-01" nType="0">
        <Node pos="l" depth="1" NCoef="0" IVar="31" Cut="2.6430203914642334e+00" cType="1" res="3.3210940659046173e-02" rms="2.0465670526027679e-01" purity="6.5283638238906860e-01" nType="0">
          <Node pos="l" depth="2" NCoef="0" IVar="-1" Cut="0.0000000000000000e+00" cType="1" res="-3.2264401670545340e-03" rms="1.8512509763240814e-01" purity="1.5997575223445892e-01" nType="-99"/>
          <Node pos="r" depth="2" NCoef="0" IVar="-1" Cut="0.0000000000000000e+00" cType="1" res="1.3427260564640164e-03" rms="2.0435625314712524e-01" purity="7.3933178186416626e-01" nType="-99"/>
        </Node>
        <Node pos="r" depth="1" NCoef="0" IVar="52" Cut="3.3918836116790771e+00" cType="1" res="-2.6025276631116867e-02" rms="2.4616453051567078e-01" purity="2.5710484385490417e-01" nType="0">
          <Node pos="l" depth="2" NCoef="0" IVar="-1" Cut="0.0000000000000000e+00" cType="1" res="-1.9920591148547828e-04" rms="2.6211756467819214e-01" purity="2.7027386426925659e-01" nType="-99"/>
          <Node pos="r" depth="2" NCoef="0" IVar="-1" Cut="0.0000000000000000e+00" cType="1" res="-2.9634893871843815e-03" rms="1.0625548660755157e-01" purity="1.9137419760227203e-01" nType="-99"/>
        </Node>
      </Node>
    </BinaryTree>
    <BinaryTree type="DecisionTree" boostWeight="1.0000000000000000e+00" itree="884">
      <Node pos="s" depth="0" NCoef="0" IVar="6" Cut="1.1487928628921509e+00" cType="1" res="8.8857868686318398e-03" rms="2.2764480113983154e-01" purity="4.8951330780982971e-01" nType="0">
        <Node pos="l" depth="1" NCoef="0" IVar="59" Cut="-8.3617341518402100e-01" cType="1" res="-3.6926311440765858e-03" rms="0.0000000000000000e+00" purity="7.3005117475986481e-02" nType="-99"/>
        <Node pos="r" depth="1" NCoef="0" IVar="15" Cut="1.5219346284866333e+00" cType="1" res="1.8324553966522217e-02" rms="2.3811700940132141e-01" purity="5.3155428171157837e-01" nType="0">
          <Node pos="l" depth="2" NCoef="0" IVar="-1" Cut="0.0000000000000000e+00" cType="1" res="7.9924613237380981e-04" rms="2.2261326014995575e-01" purity="5.3829556703567505e-01" nType="-99"/>
          <Node pos="r" depth="2" NCoef="0" IVar="-1" Cut="0.0000000000000000e+00" cType="1" res="-1.1644037440419197e-03" rms="3.2162889838218689e-01" purity="4.8066553473472595e-01" nType="-99"/>
        </Node>
      </Node>
    </BinaryTree>
    <BinaryTree type="DecisionTree" boostWeight="1.0000000000000000e+00" itree="885">
      <Node pos="s" depth="0" NCoef="0" IVar="17" Cut="1.5231137275695801e+00" cType="1" res="4.3564601801335812e-03" rms="2.1628303825855255e-01" purity="4.9876037240028381e-01" nType="0">
        <Node pos="l" depth="1" NCoef="0" IVar="48" Cut="2.1565999984741211e+00" cType="1" res="-2.0091632381081581e-02" rms="2.1079164743423462e-01" purity="2.6212978363037109e-01" nType="0">
          <Node pos="l" depth="2" NCoef="0" IVar="-1" Cut="0.0000000000000000e+00" cType="1" res="-2.1220427006483078e-03" rms="1.4762485027313232e-01" purity="1.2196679413318634e-01" nType="-99"/>
          <Node pos="r" depth="2" NCoef="0" IVar="-1" Cut="0.0000000000000000e+00" cType="1" res="3.6146969068795443e-04" rms="2.5418412685394287e-01" purity="4.0205451846122742e-01" nType="-99"/>
        </Node>
        <Node pos="r" depth="1" NCoef="0" IVar="31" Cut="2.6429023742675781e+00" cType="1" res="4.3278131633996964e-02" rms="2.1919290721416473e-01" purity="8.7547934055328369e-01" nType="0">
          <Node pos="l" depth="2" NCoef="0" IVar="-1" Cut="0.0000000000000000e+00" cType="1" res="-3.2912832684814930e-03" rms="2.3436662554740906e-01" purity="4.0170741081237793e-01" nType="-99"/>
          <Node pos="r" depth="2" NCoef="0" IVar="-1" Cut="0.0000000000000000e+00" cType="1" res="1.2750490568578243e-03" rms="2.1444402635097504e-01" purity="9.0646278858184814e-01" nType="-99"/>
        </Node>
      </Node>
    </BinaryTree>
    <BinaryTree type="DecisionTree" boostWeight="1.0000000000000000e+00" itree="886">
      <Node pos="s" depth="0" NCoef="0" IVar="56" Cut="-1.4538639783859253e+00" cType="1" res="5.6599704548716545e-03" rms="2.2175571322441101e-01" purity="4.9755889177322388e-01" nType="0">
        <Node pos="l" depth="1" NCoef="0" IVar="35" Cut="-1.4540519714355469e+00" cType="1" res="3.5859540104866028e-02" rms="2.3402300477027893e-01" purity="5.8913099765777588e-01" nType="0">
          <Node pos="l" depth="2" NCoef="0" IVar="-1" Cut="0.0000000000000000e+00" cType="1" res="-2.1646213717758656e-03" rms="1.6934210062026978e-01" purity="3.2060405611991882e-01" nType="-99"/>
          <Node pos="r" depth="2" NCoef="0" IVar="-1" Cut="0.0000000000000000e+00" cType="1" res="1.1950703337788582e-03" rms="2.4058382213115692e-01" purity="6.3653123378753662e-01" nType="-99"/>
        </Node>
        <Node pos="r" depth="1" NCoef="0" IVar="15" Cut="1.4452139139175415e+00" cType="1" res="-2.4175571277737617e-02" rms="2.0459875464439392e-01" purity="4.0709057450294495e-01" nType="0">
          <Node pos="l" depth="2" NCoef="0" IVar="-1" Cut="0.0000000000000000e+00" cType="1" res="2.3745941871311516e-04" rms="1.7301951348781586e-01" purity="3.5571199655532837e-01" nType="-99"/>
          <Node pos="r" depth="2" NCoef="0" IVar="-1" Cut="0.0000000000000000e+00" cType="1" res="-1.7428613500669599e-03" rms="2.4475640058517456e-01" purity="5.0774765014648438e-01" nType="-99"/>
        </Node>
      </Node>
    </BinaryTree>
    <BinaryTree type="DecisionTree" boostWeight="1.0000000000000000e+00" itree="887">
      <Node pos="s" depth="0" NCoef="0" IVar="5" Cut="4.3383565545082092e-01" cType="1" res="7.9706609249114990e-03" rms="2.1630780398845673e-01" purity="5.0421726703643799e-01" nType="0">
        <Node pos="l" depth="1" NCoef="0" IVar="36" Cut="1.4843255281448364e+00" cType="1" res="2.7365969493985176e-02" rms="2.1080420911312103e-01" purity="6.1567306518554688e-01" nType="0">
          <Node pos="l" depth="2" NCoef="0" IVar="-1" Cut="0.0000000000000000e+00" cType="1" res="-6.0118758119642735e-04" rms="1.9580446183681488e-01" purity="2.9348924756050110e-01" nType="-99"/>
          <Node pos="r" depth="2" NCoef="0" IVar="-1" Cut="0.0000000000000000e+00" cType="1" res="1.2894693063572049e-03" rms="2.1518249809741974e-01" purity="8.0171632766723633e-01" nType="-99"/>
        </Node>
        <Node pos="r" depth="1" NCoef="0" IVar="5" Cut="5.4134428501129150e-01" cType="1" res="-5.2940998226404190e-02" rms="2.2199042141437531e-01" purity="1.5418663620948792e-01" nType="0">
          <Node pos="l" depth="2" NCoef="0" IVar="-1" Cut="0.0000000000000000e+00" cType="1" res="-3.1904994975775480e-03" rms="9.7788214683532715e-02" purity="1.0808417946100235e-01" nType="-99"/>
          <Node pos="r" depth="2" NCoef="0" IVar="-1" Cut="0.0000000000000000e+00" cType="1" res="4.4351498218020424e-05" rms="2.5565972924232483e-01" purity="1.8202106654644012e-01" nType="-99"/>
        </Node>
      </Node>
    </BinaryTree>
    <BinaryTree type="DecisionTree" boostWeight="1.0000000000000000e+00" itree="888">
      <Node pos="s" depth="0" NCoef="0" IVar="5" Cut="3.0461463332176208e-01" cType="1" res="1.2797554954886436e-02" rms="2.2976867854595184e-01" purity="5.0187194347381592e-01" nType="0">
        <Node pos="l" depth="1" NCoef="0" IVar="57" Cut="-4.2515075206756592e-01" cType="1" res="3.5306844860315323e-02" rms="2.0883373916149139e-01" purity="6.6071194410324097e-01" nType="0">
          <Node pos="l" depth="2" NCoef="0" IVar="-1" Cut="0.0000000000000000e+00" cType="1" res="1.7190435901284218e-03" rms="2.2192867100238800e-01" purity="7.2660177946090698e-01" nType="-99"/>
          <Node pos="r" depth="2" NCoef="0" IVar="-1" Cut="0.0000000000000000e+00" cType="1" res="-9.4311678549274802e-04" rms="1.4669904112815857e-01" purity="4.6775710582733154e-01" nType="-99"/>
        </Node>
        <Node pos="r" depth="1" NCoef="0" IVar="21" Cut="-6.6772407293319702e-01" cType="1" res="-1.7143357545137405e-02" rms="2.5186684727668762e-01" purity="2.9058977961540222e-01" nType="0">
          <Node pos="l" depth="2" NCoef="0" IVar="-1" Cut="0.0000000000000000e+00" cType="1" res="3.7735877558588982e-03" rms="3.9095139503479004e-01" purity="3.6498576402664185e-01" nType="-99"/>
          <Node pos="r" depth="2" NCoef="0" IVar="-1" Cut="0.0000000000000000e+00" cType="1" res="-5.9221580158919096e-04" rms="2.3985064029693604e-01" purity="2.8688901662826538e-01" nType="-99"/>
        </Node>
      </Node>
    </BinaryTree>
    <BinaryTree type="DecisionTree" boostWeight="1.0000000000000000e+00" itree="889">
      <Node pos="s" depth="0" NCoef="0" IVar="14" Cut="-1.1447700262069702e+00" cType="1" res="2.2935293614864349e-02" rms="2.3871131241321564e-01" purity="5.0652992725372314e-01" nType="0">
        <Node pos="l" depth="1" NCoef="0" IVar="17" Cut="1.5208106040954590e+00" cType="1" res="-1.7922358587384224e-02" rms="1.9873507320880890e-01" purity="3.4767782688140869e-01" nType="0">
          <Node pos="l" depth="2" NCoef="0" IVar="-1" Cut="0.0000000000000000e+00" cType="1" res="-1.6090444987639785e-03" rms="1.7831720411777496e-01" purity="1.3966159522533417e-01" nType="-99"/>
          <Node pos="r" depth="2" NCoef="0" IVar="-1" Cut="0.0000000000000000e+00" cType="1" res="6.8911310518160462e-04" rms="2.3178826272487640e-01" purity="8.2622975111007690e-01" nType="-99"/>
        </Node>
        <Node pos="r" depth="1" NCoef="0" IVar="5" Cut="5.4083925485610962e-01" cType="1" res="4.9578156322240829e-02" rms="2.5804665684700012e-01" purity="6.1011570692062378e-01" nType="0">
          <Node pos="l" depth="2" NCoef="0" IVar="-1" Cut="0.0000000000000000e+00" cType="1" res="9.7591418307274580e-04" rms="2.3373420536518097e-01" purity="6.2976026535034180e-01" nType="-99"/>
          <Node pos="r" depth="2" NCoef="0" IVar="-1" Cut="0.0000000000000000e+00" cType="1" res="2.7923970483243465e-03" rms="3.9460724592208862e-01" purity="4.4383215904235840e-01" nType="-99"/>
        </Node>
      </Node>
    </BinaryTree>
    <BinaryTree type="DecisionTree" boostWeight="1.0000000000000000e+00" itree="890">
      <Node pos="s" depth="0" NCoef="0" IVar="60" Cut="-7.5185513496398926e-01" cType="1" res="1.5649024397134781e-02" rms="2.3206003010272980e-01" purity="5.0213414430618286e-01" nType="0">
        <Node pos="l" depth="1" NCoef="0" IVar="2" Cut="1.3547441959381104e+00" cType="1" res="2.1736921742558479e-02" rms="2.3721925914287567e-01" purity="5.2041304111480713e-01" nType="0">
          <Node pos="l" depth="2" NCoef="0" IVar="-1" Cut="0.0000000000000000e+00" cType="1" res="-7.7557670883834362e-03" rms="1.1403918266296387e-01" purity="5.1591977477073669e-02" nType="-99"/>
          <Node pos="r" depth="2" NCoef="0" IVar="-1" Cut="0.0000000000000000e+00" cType="1" res="7.3903577867895365e-04" rms="2.4174122512340546e-01" purity="5.5399924516677856e-01" nType="-99"/>
        </Node>
        <Node pos="r" depth="1" NCoef="0" IVar="59" Cut="6.9490605592727661e-01" cType="1" res="-6.4183082431554794e-03" rms="0.0000000000000000e+00" purity="1.0159758478403091e-01" nType="-99"/>
      </Node>
    </BinaryTree>
    <BinaryTree type="DecisionTree" boostWeight="1.0000000000000000e+00" itree="891">
      <Node pos="s" depth="0" NCoef="0" IVar="0" Cut="9.3307787179946899e-01" cType="1" res="7.7310469932854176e-03" rms="2.1757598221302032e-01" purity="5.0026988983154297e-01" nType="0">
        <Node pos="l" depth="1" NCoef="0" IVar="57" Cut="1.3680531978607178e+00" cType="1" res="2.3916006088256836e-02" rms="2.2808599472045898e-01" purity="5.3104048967361450e-01" nType="0">
          <Node pos="l" depth="2" NCoef="0" IVar="-1" Cut="0.0000000000000000e+00" cType="1" res="8.7316712597385049e-04" rms="2.3534449934959412e-01" purity="5.6061637401580811e-01" nType="-99"/>
          <Node pos="r" depth="2" NCoef="0" IVar="-1" Cut="0.0000000000000000e+00" cType="1" res="-2.2344512399286032e-03" rms="1.1820764839649200e-01" purity="2.7289298176765442e-01" nType="-99"/>
        </Node>
        <Node pos="r" depth="1" NCoef="0" IVar="5" Cut="9.0805172920227051e-02" cType="1" res="-7.6340675354003906e-02" rms="1.2074884027242661e-01" purity="3.4043392539024353e-01" nType="0">
          <Node pos="l" depth="2" NCoef="0" IVar="-1" Cut="0.0000000000000000e+00" cType="1" res="-5.1672272093128413e-05" rms="1.7624594271183014e-01" purity="5.3772228956222534e-01" nType="-99"/>
          <Node pos="r" depth="2" NCoef="0" IVar="-1" Cut="0.0000000000000000e+00" cType="1" res="-3.9785779081285000e-03" rms="0.0000000000000000e+00" purity="1.8396198749542236e-01" nType="-99"/>
        </Node>
      </Node>
    </BinaryTree>
    <BinaryTree type="DecisionTree" boostWeight="1.0000000000000000e+00" itree="892">
      <Node pos="s" depth="0" NCoef="0" IVar="1" Cut="2.2510411739349365e+00" cType="1" res="8.3420639857649803e-03" rms="2.2389444708824158e-01" purity="4.9682831764221191e-01" nType="0">
        <Node pos="l" depth="1" NCoef="0" IVar="35" Cut="-2.9856252670288086e-01" cType="1" res="-5.8659508824348450e-02" rms="1.2393123656511307e-01" purity="5.5239446461200714e-02" nType="0">
          <Node pos="l" depth="2" NCoef="0" IVar="-1" Cut="0.0000000000000000e+00" cType="1" res="-9.3481497606262565e-04" rms="2.0923940837383270e-01" purity="1.0829747468233109e-01" nType="-99"/>
          <Node pos="r" depth="2" NCoef="0" IVar="-1" Cut="0.0000000000000000e+00" cType="1" res="-1.0892868973314762e-02" rms="0.0000000000000000e+00" purity="-1.1855148524045944e-01" nType="-99"/>
        </Node>
        <Node pos="r" depth="1" NCoef="0" IVar="5" Cut="4.3533283472061157e-01" cType="1" res="1.7124580219388008e-02" rms="2.3242363333702087e-01" purity="5.5471152067184448e-01" nType="0">
          <Node pos="l" depth="2" NCoef="0" IVar="-1" Cut="0.0000000000000000e+00" cType="1" res="9.0407906100153923e-04" rms="2.1644884347915649e-01" purity="6.6900801658630371e-01" nType="-99"/>
          <Node pos="r" depth="2" NCoef="0" IVar="-1" Cut="0.0000000000000000e+00" cType="1" res="-6.8649224704131484e-04" rms="2.6934197545051575e-01" purity="2.1355943381786346e-01" nType="-99"/>
        </Node>
      </Node>
    </BinaryTree>
    <BinaryTree type="DecisionTree" boostWeight="1.0000000000000000e+00" itree="893">
      <Node pos="s" depth="0" NCoef="0" IVar="60" Cut="-7.5144672393798828e-01" cType="1" res="9.3145081773400307e-03" rms="2.2806647419929504e-01" purity="4.9124124646186829e-01" nType="0">
        <Node pos="l" depth="1" NCoef="0" IVar="18" Cut="-9.1102206707000732e-01" cType="1" res="1.5091000124812126e-02" rms="2.3364658653736115e-01" purity="5.0800770521163940e-01" nType="0">
          <Node pos="l" depth="2" NCoef="0" IVar="-1" Cut="0.0000000000000000e+00" cType="1" res="5.6249130284413695e-04" rms="2.3472757637500763e-01" purity="5.2953588962554932e-01" nType="-99"/>
          <Node pos="r" depth="2" NCoef="0" IVar="-1" Cut="0.0000000000000000e+00" cType="1" res="-4.2765419930219650e-03" rms="1.8913608789443970e-01" purity="1.7067776620388031e-01" nType="-99"/>
        </Node>
        <Node pos="r" depth="1" NCoef="0" IVar="39" Cut="-1.6859704256057739e+00" cType="1" res="-6.5373084507882595e-03" rms="0.0000000000000000e+00" purity="1.1838356405496597e-01" nType="-99"/>
      </Node>
    </BinaryTree>
    <BinaryTree type="DecisionTree" boostWeight="1.0000000000000000e+00" itree="894">
      <Node pos="s" depth="0" NCoef="0" IVar="52" Cut="2.4217815399169922e+00" cType="1" res="1.3270669616758823e-02" rms="2.3237012326717377e-01" purity="5.0285971164703369e-01" nType="0">
        <Node pos="l" depth="1" NCoef="0" IVar="60" Cut="-1.9498955011367798e+00" cType="1" res="-7.5705364346504211e-02" rms="6.9634519517421722e-02" purity="2.1062666177749634e-01" nType="0">
          <Node pos="l" depth="2" NCoef="0" IVar="-1" Cut="0.0000000000000000e+00" cType="1" res="7.0963357575237751e-04" rms="2.6115217804908752e-01" purity="4.3591946363449097e-01" nType="-99"/>
          <Node pos="r" depth="2" NCoef="0" IVar="-1" Cut="0.0000000000000000e+00" cType="1" res="-3.6163721233606339e-03" rms="0.0000000000000000e+00" purity="1.0850238800048828e-01" nType="-99"/>
        </Node>
        <Node pos="r" depth="1" NCoef="0" IVar="18" Cut="-8.4645366668701172e-01" cType="1" res="2.3659102618694305e-02" rms="2.4228455126285553e-01" purity="5.3697955608367920e-01" nType="0">
          <Node pos="l" depth="2" NCoef="0" IVar="-1" Cut="0.0000000000000000e+00" cType="1" res="7.8204472083598375e-04" rms="2.4274957180023193e-01" purity="5.5820834636688232e-01" nType="-99"/>
          <Node pos="r" depth="2" NCoef="0" IVar="-1" Cut="0.0000000000000000e+00" cType="1" res="-6.6765802912414074e-03" rms="1.9023041427135468e-01" purity="9.0426556766033173e-02" nType="-99"/>
        </Node>
      </Node>
    </BinaryTree>
    <BinaryTree type="DecisionTree" boostWeight="1.0000000000000000e+00" itree="895">
      <Node pos="s" depth="0" NCoef="0" IVar="27" Cut="8.2125478982925415e-01" cType="1" res="4.3159895576536655e-03" rms="2.1919967234134674e-01" purity="4.8750168085098267e-01" nType="0">
        <Node pos="l" depth="1" NCoef="0" IVar="48" Cut="1.2757914066314697e+00" cType="1" res="-9.3167498707771301e-03" rms="0.0000000000000000e+00" purity="-4.4172964990139008e-03" nType="-99"/>
        <Node pos="r" depth="1" NCoef="0" IVar="14" Cut="-1.3379638195037842e+00" cType="1" res="1.0698055848479271e-02" rms="2.2747616469860077e-01" purity="5.1300346851348877e-01" nType="0">
          <Node pos="l" depth="2" NCoef="0" IVar="-1" Cut="0.0000000000000000e+00" cType="1" res="-1.3939628843218088e-03" rms="2.0427669584751129e-01" purity="2.0785805583000183e-01" nType="-99"/>
          <Node pos="r" depth="2" NCoef="0" IVar="-1" Cut="0.0000000000000000e+00" cType="1" res="6.5147061832249165e-04" rms="2.3266309499740601e-01" purity="6.1625438928604126e-01" nType="-99"/>
        </Node>
      </Node>
    </BinaryTree>
    <BinaryTree type="DecisionTree" boostWeight="1.0000000000000000e+00" itree="896">
      <Node pos="s" depth="0" NCoef="0" IVar="2" Cut="2.5121355056762695e+00" cType="1" res="1.9423449411988258e-02" rms="2.3573811352252960e-01" purity="5.0604027509689331e-01" nType="0">
        <Node pos="l" depth="1" NCoef="0" IVar="3" Cut="4.7781219482421875e+00" cType="1" res="-9.4933258369565010e-03" rms="2.0284838974475861e-01" purity="3.4476411342620850e-01" nType="0">
          <Node pos="l" depth="2" NCoef="0" IVar="-1" Cut="0.0000000000000000e+00" cType="1" res="-2.0048196893185377e-03" rms="1.7078149318695068e-01" purity="2.2618684172630310e-01" nType="-99"/>
          <Node pos="r" depth="2" NCoef="0" IVar="-1" Cut="0.0000000000000000e+00" cType="1" res="8.5341534577310085e-04" rms="2.2394764423370361e-01" purity="4.6841281652450562e-01" nType="-99"/>
        </Node>
        <Node pos="r" depth="1" NCoef="0" IVar="25" Cut="9.0004676580429077e-01" cType="1" res="4.8479702323675156e-02" rms="2.6150056719779968e-01" purity="6.6809445619583130e-01" nType="0">
          <Node pos="l" depth="2" NCoef="0" IVar="-1" Cut="0.0000000000000000e+00" cType="1" res="1.9803449977189302e-03" rms="2.9464823007583618e-01" purity="7.2968333959579468e-01" nType="-99"/>
          <Node pos="r" depth="2" NCoef="0" IVar="-1" Cut="0.0000000000000000e+00" cType="1" res="6.8408576771616936e-04" rms="2.4430312216281891e-01" purity="6.4395177364349365e-01" nType="-99"/>
        </Node>
      </Node>
    </BinaryTree>
    <BinaryTree type="DecisionTree" boostWeight="1.0000000000000000e+00" itree="897">
      <Node pos="s" depth="0" NCoef="0" IVar="14" Cut="-1.2992165088653564e+00" cType="1" res="7.4746418977156281e-04" rms="2.1115200221538544e-01" purity="4.9125581979751587e-01" nType="0">
        <Node pos="l" depth="1" NCoef="0" IVar="17" Cut="1.5202944278717041e+00" cType="1" res="-4.9787659198045731e-02" rms="1.5203496813774109e-01" purity="2.2331261634826660e-01" nType="0">
          <Node pos="l" depth="2" NCoef="0" IVar="-1" Cut="0.0000000000000000e+00" cType="1" res="-3.5256352275609970e-03" rms="6.8632349371910095e-02" purity="7.0474185049533844e-02" nType="-99"/>
          <Node pos="r" depth="2" NCoef="0" IVar="-1" Cut="0.0000000000000000e+00" cType="1" res="7.4249441968277097e-04" rms="2.8480577468872070e-01" purity="7.9220980405807495e-01" nType="-99"/>
        </Node>
        <Node pos="r" depth="1" NCoef="0" IVar="15" Cut="1.5212945938110352e+00" cType="1" res="2.0110532641410828e-02" rms="2.2684442996978760e-01" purity="5.9392106533050537e-01" nType="0">
          <Node pos="l" depth="2" NCoef="0" IVar="-1" Cut="0.0000000000000000e+00" cType="1" res="8.3131482824683189e-04" rms="2.1015127003192902e-01" purity="6.1124372482299805e-01" nType="-99"/>
          <Node pos="r" depth="2" NCoef="0" IVar="-1" Cut="0.0000000000000000e+00" cType="1" res="-1.4368508709594607e-03" rms="3.0944538116455078e-01" purity="4.6781644225120544e-01" nType="-99"/>
        </Node>
      </Node>
    </BinaryTree>
    <BinaryTree type="DecisionTree" boostWeight="1.0000000000000000e+00" itree="898">
      <Node pos="s" depth="0" NCoef="0" IVar="2" Cut="1.4661643505096436e+00" cType="1" res="1.2036945670843124e-02" rms="2.2602717578411102e-01" purity="4.9520364403724670e-01" nType="0">
        <Node pos="l" depth="1" NCoef="0" IVar="17" Cut="-4.5080411434173584e-01" cType="1" res="-7.8763537108898163e-02" rms="6.9282419979572296e-02" purity="6.8128757178783417e-02" nType="0">
          <Node pos="l" depth="2" NCoef="0" IVar="-1" Cut="0.0000000000000000e+00" cType="1" res="1.0705883614718914e-02" rms="1.5777227282524109e-01" purity="2.5225913152098656e-02" nType="-99"/>
          <Node pos="r" depth="2" NCoef="0" IVar="-1" Cut="0.0000000000000000e+00" cType="1" res="-6.8876305595040321e-03" rms="0.0000000000000000e+00" purity="9.8758161067962646e-02" nType="-99"/>
        </Node>
        <Node pos="r" depth="1" NCoef="0" IVar="25" Cut="1.1111268997192383e+00" cType="1" res="2.1158056333661079e-02" rms="2.3415090143680573e-01" purity="5.3810423612594604e-01" nType="0">
          <Node pos="l" depth="2" NCoef="0" IVar="-1" Cut="0.0000000000000000e+00" cType="1" res="7.2595296660438180e-04" rms="2.3846048116683960e-01" purity="5.5709975957870483e-01" nType="-99"/>
          <Node pos="r" depth="2" NCoef="0" IVar="-1" Cut="0.0000000000000000e+00" cType="1" res="-3.1737254466861486e-03" rms="1.4180989563465118e-01" purity="3.0877307057380676e-01" nType="-99"/>
        </Node>
      </Node>
    </BinaryTree>
    <BinaryTree type="DecisionTree" boostWeight="1.0000000000000000e+00" itree="899">
      <Node pos="s" depth="0" NCoef="0" IVar="57" Cut="1.1392155885696411e+00" cType="1" res="1.5141656622290611e-02" rms="2.2665622830390930e-01" purity="5.0524789094924927e-01" nType="0">
        <Node pos="l" depth="1" NCoef="0" IVar="15" Cut="1.5225218534469604e+00" cType="1" res="2.8093338012695312e-02" rms="2.3562520742416382e-01" purity="5.4943519830703735e-01" nType="0">
          <Node pos="l" depth="2" NCoef="0" IVar="-1" Cut="0.0000000000000000e+00" cType="1" res="1.0343806352466345e-03" rms="2.2184726595878601e-01" purity="5.5802774429321289e-01" nType="-99"/>
          <Node pos="r" depth="2" NCoef="0" IVar="-1" Cut="0.0000000000000000e+00" cType="1" res="-1.1106785386800766e-03" rms="3.1655919551849365e-01" purity="4.7770726680755615e-01" nType="-99"/>
        </Node>
        <Node pos="r" depth="1" NCoef="0" IVar="37" Cut="-7.6342391967773438e-01" cType="1" res="-4.6104192733764648e-02" rms="1.6499167680740356e-01" purity="2.9629555344581604e-01" nType="0">
          <Node pos="l" depth="2" NCoef="0" IVar="-1" Cut="0.0000000000000000e+00" cType="1" res="-2.0911160390824080e-04" rms="2.1897783875465393e-01" purity="3.4686008095741272e-01" nType="-99"/>
          <Node pos="r" depth="2" NCoef="0" IVar="-1" Cut="0.0000000000000000e+00" cType="1" res="-3.1867467332631350e-03" rms="0.0000000000000000e+00" purity="2.3282234370708466e-01" nType="-99"/>
        </Node>
      </Node>
    </BinaryTree>
    <BinaryTree type="DecisionTree" boostWeight="1.0000000000000000e+00" itree="900">
      <Node pos="s" depth="0" NCoef="0" IVar="17" Cut="1.5220416784286499e+00" cType="1" res="1.0231804102659225e-02" rms="2.2227361798286438e-01" purity="4.8920294642448425e-01" nType="0">
        <Node pos="l" depth="1" NCoef="0" IVar="3" Cut="5.1810822486877441e+00" cType="1" res="-1.3849734328687191e-02" rms="2.1729171276092529e-01" purity="2.4545513093471527e-01" nType="0">
          <Node pos="l" depth="2" NCoef="0" IVar="-1" Cut="0.0000000000000000e+00" cType="1" res="-8.1126240547746420e-04" rms="2.0726279914379120e-01" purity="2.3058427870273590e-01" nType="-99"/>
          <Node pos="r" depth="2" NCoef="0" IVar="-1" Cut="0.0000000000000000e+00" cType="1" res="2.1121161989867687e-03" rms="2.7261668443679810e-01" purity="3.7984594702720642e-01" nType="-99"/>
        </Node>
        <Node pos="r" depth="1" NCoef="0" IVar="35" Cut="-1.4540519714355469e+00" cType="1" res="4.8141412436962128e-02" rms="2.2472837567329407e-01" purity="8.7291544675827026e-01" nType="0">
          <Node pos="l" depth="2" NCoef="0" IVar="-1" Cut="0.0000000000000000e+00" cType="1" res="-1.2206361861899495e-03" rms="2.1734522283077240e-01" purity="6.5145295858383179e-01" nType="-99"/>
          <Node pos="r" depth="2" NCoef="0" IVar="-1" Cut="0.0000000000000000e+00" cType="1" res="1.3205272844061255e-03" rms="2.2330710291862488e-01" purity="8.9716392755508423e-01" nType="-99"/>
        </Node>
      </Node>
    </BinaryTree>
    <BinaryTree type="DecisionTree" boostWeight="1.0000000000000000e+00" itree="901">
      <Node pos="s" depth="0" NCoef="0" IVar="18" Cut="-9.7484964132308960e-01" cType="1" res="2.0141888409852982e-02" rms="2.4044436216354370e-01" purity="5.0413149595260620e-01" nType="0">
        <Node pos="l" depth="1" NCoef="0" IVar="39" Cut="-7.4669647216796875e-01" cType="1" res="2.7799583971500397e-02" rms="2.4373388290405273e-01" purity="5.3097170591354370e-01" nType="0">
          <Node pos="l" depth="2" NCoef="0" IVar="-1" Cut="0.0000000000000000e+00" cType="1" res="8.5948256310075521e-04" rms="2.4542278051376343e-01" purity="5.4543107748031616e-01" nType="-99"/>
          <Node pos="r" depth="2" NCoef="0" IVar="-1" Cut="0.0000000000000000e+00" cType="1" res="-1.0332618840038776e-02" rms="1.2010811269283295e-01" purity="1.1987435817718506e-01" nType="-99"/>
        </Node>
        <Node pos="r" depth="1" NCoef="0" IVar="17" Cut="1.3621799945831299e+00" cType="1" res="-7.9830624163150787e-02" rms="1.6205026209354401e-01" purity="1.5372808277606964e-01" nType="0">
          <Node pos="l" depth="2" NCoef="0" IVar="-1" Cut="0.0000000000000000e+00" cType="1" res="-3.7207253277301788e-02" rms="0.0000000000000000e+00" purity="-1.8463617190718651e-02" nType="-99"/>
          <Node pos="r" depth="2" NCoef="0" IVar="-1" Cut="0.0000000000000000e+00" cType="1" res="-3.0336519703269005e-03" rms="2.4446262419223785e-01" purity="3.0145239830017090e-01" nType="-99"/>
        </Node>
      </Node>
    </BinaryTree>
    <BinaryTree type="DecisionTree" boostWeight="1.0000000000000000e+00" itree="902">
      <Node pos="s" depth="0" NCoef="0" IVar="57" Cut="-1.1500896215438843e+00" cType="1" res="1.6999932006001472e-02" rms="2.3010309040546417e-01" purity="5.1484674215316772e-01" nType="0">
        <Node pos="l" depth="1" NCoef="0" IVar="14" Cut="-1.3766577243804932e+00" cType="1" res="3.6466993391513824e-02" rms="2.4737605452537537e-01" purity="5.8083266019821167e-01" nType="0">
          <Node pos="l" depth="2" NCoef="0" IVar="-1" Cut="0.0000000000000000e+00" cType="1" res="-9.1294664889574051e-04" rms="2.0657701790332794e-01" purity="2.4513876438140869e-01" nType="-99"/>
          <Node pos="r" depth="2" NCoef="0" IVar="-1" Cut="0.0000000000000000e+00" cType="1" res="1.2770727043971419e-03" rms="2.5395518541336060e-01" purity="6.6211503744125366e-01" nType="-99"/>
        </Node>
        <Node pos="r" depth="1" NCoef="0" IVar="48" Cut="7.9571896791458130e-01" cType="1" res="-2.5380030274391174e-02" rms="1.7992091178894043e-01" purity="3.7119486927986145e-01" nType="0">
          <Node pos="l" depth="2" NCoef="0" IVar="-1" Cut="0.0000000000000000e+00" cType="1" res="-7.1800393052399158e-03" rms="0.0000000000000000e+00" purity="-1.0788393765687943e-01" nType="-99"/>
          <Node pos="r" depth="2" NCoef="0" IVar="-1" Cut="0.0000000000000000e+00" cType="1" res="-3.6816141800954938e-04" rms="2.0424105226993561e-01" purity="4.1521057486534119e-01" nType="-99"/>
        </Node>
      </Node>
    </BinaryTree>
    <BinaryTree type="DecisionTree" boostWeight="1.0000000000000000e+00" itree="903">
      <Node pos="s" depth="0" NCoef="0" IVar="52" Cut="3.6062057018280029e+00" cType="1" res="1.6808124259114265e-02" rms="2.3427407443523407e-01" purity="5.0582343339920044e-01" nType="0">
        <Node pos="l" depth="1" NCoef="0" IVar="3" Cut="5.1848778724670410e+00" cType="1" res="2.1705312654376030e-02" rms="2.3950083553791046e-01" purity="5.1540851593017578e-01" nType="0">
          <Node pos="l" depth="2" NCoef="0" IVar="-1" Cut="0.0000000000000000e+00" cType="1" res="3.8169449544511735e-04" rms="2.3337803781032562e-01" purity="5.1376050710678101e-01" nType="-99"/>
          <Node pos="r" depth="2" NCoef="0" IVar="-1" Cut="0.0000000000000000e+00" cType="1" res="3.0170721001923084e-03" rms="2.9349628090858459e-01" purity="5.3940385580062866e-01" nType="-99"/>
        </Node>
        <Node pos="r" depth="1" NCoef="0" IVar="-1" Cut="0.0000000000000000e+00" cType="1" res="-7.5028156861662865e-03" rms="0.0000000000000000e+00" purity="1.5818315744400024e-01" nType="-99"/>
      </Node>
    </BinaryTree>
    <BinaryTree type="DecisionTree" boostWeight="1.0000000000000000e+00" itree="904">
      <Node pos="s" depth="0" NCoef="0" IVar="15" Cut="1.5212173461914062e+00" cType="1" res="9.2926137149333954e-03" rms="2.2470889985561371e-01" purity="4.9769678711891174e-01" nType="0">
        <Node pos="l" depth="1" NCoef="0" IVar="0" Cut="7.4677830934524536e-01" cType="1" res="1.9371654838323593e-02" rms="2.0772665739059448e-01" purity="5.0123953819274902e-01" nType="0">
          <Node pos="l" depth="2" NCoef="0" IVar="-1" Cut="0.0000000000000000e+00" cType="1" res="1.0613001650199294e-03" rms="2.1718758344650269e-01" purity="5.5708461999893188e-01" nType="-99"/>
          <Node pos="r" depth="2" NCoef="0" IVar="-1" Cut="0.0000000000000000e+00" cType="1" res="-6.0756341554224491e-04" rms="1.8043147027492523e-01" purity="3.8643926382064819e-01" nType="-99"/>
        </Node>
        <Node pos="r" depth="1" NCoef="0" IVar="5" Cut="3.8499310612678528e-01" cType="1" res="-6.4751088619232178e-02" rms="3.1339207291603088e-01" purity="4.7167062759399414e-01" nType="0">
          <Node pos="l" depth="2" NCoef="0" IVar="-1" Cut="0.0000000000000000e+00" cType="1" res="-1.0749227658379823e-04" rms="2.7218741178512573e-01" purity="5.4999136924743652e-01" nType="-99"/>
          <Node pos="r" depth="2" NCoef="0" IVar="-1" Cut="0.0000000000000000e+00" cType="1" res="-2.8863840270787477e-03" rms="3.5317409038543701e-01" purity="3.1369024515151978e-01" nType="-99"/>
        </Node>
      </Node>
    </BinaryTree>
    <BinaryTree type="DecisionTree" boostWeight="1.0000000000000000e+00" itree="905">
      <Node pos="s" depth="0" NCoef="0" IVar="57" Cut="1.1010557413101196e+00" cType="1" res="1.1595231480896473e-02" rms="2.1360313892364502e-01" purity="5.1342338323593140e-01" nType="0">
        <Node pos="l" depth="1" NCoef="0" IVar="64" Cut="1.2345679104328156e-02" cType="1" res="2.5749642401933670e-02" rms="2.2447772324085236e-01" purity="5.5574041604995728e-01" nType="0">
          <Node pos="l" depth="2" NCoef="0" IVar="-1" Cut="0.0000000000000000e+00" cType="1" res="-3.0156292486935854e-03" rms="0.0000000000000000e+00" purity="2.3862348496913910e-01" nType="-99"/>
          <Node pos="r" depth="2" NCoef="0" IVar="-1" Cut="0.0000000000000000e+00" cType="1" res="8.2321220543235540e-04" rms="2.3410429060459137e-01" purity="5.6824988126754761e-01" nType="-99"/>
        </Node>
        <Node pos="r" depth="1" NCoef="0" IVar="60" Cut="-9.5300453901290894e-01" cType="1" res="-5.4616194218397141e-02" rms="1.3424012064933777e-01" purity="3.1547299027442932e-01" nType="0">
          <Node pos="l" depth="2" NCoef="0" IVar="-1" Cut="0.0000000000000000e+00" cType="1" res="-9.6448184922337532e-04" rms="1.7676563560962677e-01" purity="3.5629397630691528e-01" nType="-99"/>
          <Node pos="r" depth="2" NCoef="0" IVar="-1" Cut="0.0000000000000000e+00" cType="1" res="-9.2822210863232613e-03" rms="0.0000000000000000e+00" purity="8.4308117628097534e-02" nType="-99"/>
        </Node>
      </Node>
    </BinaryTree>
    <BinaryTree type="DecisionTree" boostWeight="1.0000000000000000e+00" itree="906">
      <Node pos="s" depth="0" NCoef="0" IVar="5" Cut="2.9942926764488220e-01" cType="1" res="1.1233923956751823e-02" rms="2.2731323540210724e-01" purity="5.0064742565155029e-01" nType="0">
        <Node pos="l" depth="1" NCoef="0" IVar="3" Cut="4.9872879981994629e+00" cType="1" res="3.3759843558073044e-02" rms="2.0623329281806946e-01" purity="6.6542589664459229e-01" nType="0">
          <Node pos="l" depth="2" NCoef="0" IVar="-1" Cut="0.0000000000000000e+00" cType="1" res="4.6696394565515220e-04" rms="1.8140035867691040e-01" purity="6.5052312612533569e-01" nType="-99"/>
          <Node pos="r" depth="2" NCoef="0" IVar="-1" Cut="0.0000000000000000e+00" cType="1" res="2.8167851269245148e-03" rms="2.6687845587730408e-01" purity="7.1947014331817627e-01" nType="-99"/>
        </Node>
        <Node pos="r" depth="1" NCoef="0" IVar="52" Cut="3.2250971794128418e+00" cType="1" res="-1.8544385209679604e-02" rms="2.4938990175724030e-01" purity="2.8281727433204651e-01" nType="0">
          <Node pos="l" depth="2" NCoef="0" IVar="-1" Cut="0.0000000000000000e+00" cType="1" res="1.4414807083085179e-04" rms="2.6770460605621338e-01" purity="2.9943379759788513e-01" nType="-99"/>
          <Node pos="r" depth="2" NCoef="0" IVar="-1" Cut="0.0000000000000000e+00" cType="1" res="-1.6356438864022493e-03" rms="2.0177179574966431e-01" purity="2.5115007162094116e-01" nType="-99"/>
        </Node>
      </Node>
    </BinaryTree>
    <BinaryTree type="DecisionTree" boostWeight="1.0000000000000000e+00" itree="907">
      <Node pos="s" depth="0" NCoef="0" IVar="27" Cut="9.7877049446105957e-01" cType="1" res="1.3998461887240410e-02" rms="2.2569498419761658e-01" purity="5.0800716876983643e-01" nType="0">
        <Node pos="l" depth="1" NCoef="0" IVar="40" Cut="8.8681596517562866e-01" cType="1" res="-5.5544236674904823e-03" rms="0.0000000000000000e+00" purity="5.1258184015750885e-02" nType="-99"/>
        <Node pos="r" depth="1" NCoef="0" IVar="36" Cut="1.6989332437515259e-01" cType="1" res="2.2008737549185753e-02" rms="2.3421920835971832e-01" purity="5.4602241516113281e-01" nType="0">
          <Node pos="l" depth="2" NCoef="0" IVar="-1" Cut="0.0000000000000000e+00" cType="1" res="-8.5539361461997032e-03" rms="0.0000000000000000e+00" purity="-2.2158448118716478e-03" nType="-99"/>
          <Node pos="r" depth="2" NCoef="0" IVar="-1" Cut="0.0000000000000000e+00" cType="1" res="7.4959028279408813e-04" rms="2.5101852416992188e-01" purity="6.2054765224456787e-01" nType="-99"/>
        </Node>
      </Node>
    </BinaryTree>
    <BinaryTree type="DecisionTree" boostWeight="1.0000000000000000e+00" itree="908">
      <Node pos="s" depth="0" NCoef="0" IVar="14" Cut="-1.2992165088653564e+00" cType="1" res="9.2645259574055672e-03" rms="2.3405738174915314e-01" purity="4.8718118667602539e-01" nType="0">
        <Node pos="l" depth="1" NCoef="0" IVar="16" Cut="-8.3752834796905518e-01" cType="1" res="-3.9328370243310928e-02" rms="1.8077503144741058e-01" purity="2.3348382115364075e-01" nType="0">
          <Node pos="l" depth="2" NCoef="0" IVar="-1" Cut="0.0000000000000000e+00" cType="1" res="-7.8051065793260932e-04" rms="2.0192395150661469e-01" purity="2.6784312725067139e-01" nType="-99"/>
          <Node pos="r" depth="2" NCoef="0" IVar="-1" Cut="0.0000000000000000e+00" cType="1" res="-6.2858853489160538e-03" rms="0.0000000000000000e+00" purity="-2.5450179819017649e-03" nType="-99"/>
        </Node>
        <Node pos="r" depth="1" NCoef="0" IVar="15" Cut="1.5215414762496948e+00" cType="1" res="2.8259117156267166e-02" rms="2.4927705526351929e-01" purity="5.8634954690933228e-01" nType="0">
          <Node pos="l" depth="2" NCoef="0" IVar="-1" Cut="0.0000000000000000e+00" cType="1" res="1.0870845289900899e-03" rms="2.3787550628185272e-01" purity="6.0265338420867920e-01" nType="-99"/>
          <Node pos="r" depth="2" NCoef="0" IVar="-1" Cut="0.0000000000000000e+00" cType="1" res="-1.4451642055064440e-03" rms="3.0539080500602722e-01" purity="4.6565410494804382e-01" nType="-99"/>
        </Node>
      </Node>
    </BinaryTree>
    <BinaryTree type="DecisionTree" boostWeight="1.0000000000000000e+00" itree="909">
      <Node pos="s" depth="0" NCoef="0" IVar="36" Cut="1.4068046808242798e+00" cType="1" res="1.8706206232309341e-02" rms="2.3609626293182373e-01" purity="4.9999874830245972e-01" nType="0">
        <Node pos="l" depth="1" NCoef="0" IVar="38" Cut="-1.2998229265213013e+00" cType="1" res="-2.6517331600189209e-02" rms="1.3792756199836731e-01" purity="1.0085880756378174e-01" nType="0">
          <Node pos="l" depth="2" NCoef="0" IVar="-1" Cut="0.0000000000000000e+00" cType="1" res="1.7054997151717544e-03" rms="2.2590111196041107e-01" purity="1.8039518594741821e-01" nType="-99"/>
          <Node pos="r" depth="2" NCoef="0" IVar="-1" Cut="0.0000000000000000e+00" cType="1" res="-4.5061581768095493e-03" rms="0.0000000000000000e+00" purity="5.6987702846527100e-02" nType="-99"/>
        </Node>
        <Node pos="r" depth="1" NCoef="0" IVar="8" Cut="-1.1440874338150024e+00" cType="1" res="3.5712365061044693e-02" rms="2.6170712709426880e-01" purity="6.5009397268295288e-01" nType="0">
          <Node pos="l" depth="2" NCoef="0" IVar="-1" Cut="0.0000000000000000e+00" cType="1" res="9.3281373847275972e-04" rms="2.6265844702720642e-01" purity="6.7125135660171509e-01" nType="-99"/>
          <Node pos="r" depth="2" NCoef="0" IVar="-1" Cut="0.0000000000000000e+00" cType="1" res="-3.6617054138332605e-03" rms="1.5059375762939453e-01" purity="1.0978125780820847e-01" nType="-99"/>
        </Node>
      </Node>
    </BinaryTree>
    <BinaryTree type="DecisionTree" boostWeight="1.0000000000000000e+00" itree="910">
      <Node pos="s" depth="0" NCoef="0" IVar="0" Cut="7.0724505186080933e-01" cType="1" res="1.0991672985255718e-02" rms="2.2643418610095978e-01" purity="4.9821934103965759e-01" nType="0">
        <Node pos="l" depth="1" NCoef="0" IVar="14" Cut="-4.8747709393501282e-01" cType="1" res="3.0507540330290794e-02" rms="2.4130389094352722e-01" purity="5.5488222837448120e-01" nType="0">
          <Node pos="l" depth="2" NCoef="0" IVar="-1" Cut="0.0000000000000000e+00" cType="1" res="6.3387342379428446e-05" rms="2.0681650936603546e-01" purity="4.9519446492195129e-01" nType="-99"/>
          <Node pos="r" depth="2" NCoef="0" IVar="-1" Cut="0.0000000000000000e+00" cType="1" res="1.7656154232099652e-03" rms="2.8345444798469543e-01" purity="6.5407508611679077e-01" nType="-99"/>
        </Node>
        <Node pos="r" depth="1" NCoef="0" IVar="27" Cut="1.2592899799346924e+00" cType="1" res="-2.3414058610796928e-02" rms="1.9275790452957153e-01" purity="3.9832466840744019e-01" nType="0">
          <Node pos="l" depth="2" NCoef="0" IVar="-1" Cut="0.0000000000000000e+00" cType="1" res="-5.9077446348965168e-03" rms="0.0000000000000000e+00" purity="4.4052787125110626e-02" nType="-99"/>
          <Node pos="r" depth="2" NCoef="0" IVar="-1" Cut="0.0000000000000000e+00" cType="1" res="-2.0847993437200785e-04" rms="2.1676672995090485e-01" purity="4.6692356467247009e-01" nType="-99"/>
        </Node>
      </Node>
    </BinaryTree>
    <BinaryTree type="DecisionTree" boostWeight="1.0000000000000000e+00" itree="911">
      <Node pos="s" depth="0" NCoef="0" IVar="60" Cut="-8.4582042694091797e-01" cType="1" res="1.0950925759971142e-02" rms="2.2666187584400177e-01" purity="5.0703042745590210e-01" nType="0">
        <Node pos="l" depth="1" NCoef="0" IVar="18" Cut="-1.1670942306518555e+00" cType="1" res="1.7264243215322495e-02" rms="2.3015749454498291e-01" purity="5.2852922677993774e-01" nType="0">
          <Node pos="l" depth="2" NCoef="0" IVar="-1" Cut="0.0000000000000000e+00" cType="1" res="6.9321779301390052e-04" rms="2.2971092164516449e-01" purity="5.6506425142288208e-01" nType="-99"/>
          <Node pos="r" depth="2" NCoef="0" IVar="-1" Cut="0.0000000000000000e+00" cType="1" res="-1.7096162773668766e-03" rms="2.2231079638004303e-01" purity="2.5876021385192871e-01" nType="-99"/>
        </Node>
        <Node pos="r" depth="1" NCoef="0" IVar="17" Cut="1.3633292913436890e+00" cType="1" res="-8.0085672438144684e-02" rms="1.3959483802318573e-01" purity="1.9702300429344177e-01" nType="0">
          <Node pos="l" depth="2" NCoef="0" IVar="-1" Cut="0.0000000000000000e+00" cType="1" res="-1.5375381335616112e-03" rms="6.4105510711669922e-02" purity="1.1674111708998680e-02" nType="-99"/>
          <Node pos="r" depth="2" NCoef="0" IVar="-1" Cut="0.0000000000000000e+00" cType="1" res="-3.1527949031442404e-03" rms="1.5419284999370575e-01" purity="3.6257421970367432e-01" nType="-99"/>
        </Node>
      </Node>
    </BinaryTree>
    <BinaryTree type="DecisionTree" boostWeight="1.0000000000000000e+00" itree="912">
      <Node pos="s" depth="0" NCoef="0" IVar="5" Cut="4.3599802255630493e-01" cType="1" res="1.4519110321998596e-02" rms="2.2447836399078369e-01" purity="5.1871079206466675e-01" nType="0">
        <Node pos="l" depth="1" NCoef="0" IVar="36" Cut="9.8120969533920288e-01" cType="1" res="3.1640000641345978e-02" rms="2.1880161762237549e-01" purity="6.2405556440353394e-01" nType="0">
          <Node pos="l" depth="2" NCoef="0" IVar="-1" Cut="0.0000000000000000e+00" cType="1" res="-4.4678826816380024e-03" rms="0.0000000000000000e+00" purity="2.4557370692491531e-02" nType="-99"/>
          <Node pos="r" depth="2" NCoef="0" IVar="-1" Cut="0.0000000000000000e+00" cType="1" res="1.1120422277599573e-03" rms="2.3617878556251526e-01" purity="7.3294317722320557e-01" nType="-99"/>
        </Node>
        <Node pos="r" depth="1" NCoef="0" IVar="52" Cut="3.3888945579528809e+00" cType="1" res="-3.7358198314905167e-02" rms="2.3331499099731445e-01" purity="1.9950993359088898e-01" nType="0">
          <Node pos="l" depth="2" NCoef="0" IVar="-1" Cut="0.0000000000000000e+00" cType="1" res="-3.2333543640561402e-04" rms="2.4819329380989075e-01" purity="2.2600676119327545e-01" nType="-99"/>
          <Node pos="r" depth="2" NCoef="0" IVar="-1" Cut="0.0000000000000000e+00" cType="1" res="-5.4974947124719620e-03" rms="0.0000000000000000e+00" purity="5.4639164358377457e-02" nType="-99"/>
        </Node>
      </Node>
    </BinaryTree>
    <BinaryTree type="DecisionTree" boostWeight="1.0000000000000000e+00" itree="913">
      <Node pos="s" depth="0" NCoef="0" IVar="57" Cut="1.3681508302688599e+00" cType="1" res="1.1621149256825447e-02" rms="2.2572128474712372e-01" purity="5.0671643018722534e-01" nType="0">
        <Node pos="l" depth="1" NCoef="0" IVar="52" Cut="3.6069364547729492e+00" cType="1" res="2.1603332832455635e-02" rms="2.3411850631237030e-01" purity="5.3979718685150146e-01" nType="0">
          <Node pos="l" depth="2" NCoef="0" IVar="-1" Cut="0.0000000000000000e+00" cType="1" res="6.9598545087501407e-04" rms="2.3810994625091553e-01" purity="5.4896348714828491e-01" nType="-99"/>
          <Node pos="r" depth="2" NCoef="0" IVar="-1" Cut="0.0000000000000000e+00" cType="1" res="-5.0670602358877659e-03" rms="0.0000000000000000e+00" purity="2.4538421630859375e-01" nType="-99"/>
        </Node>
        <Node pos="r" depth="1" NCoef="0" IVar="5" Cut="3.9259631186723709e-02" cType="1" res="-7.3746524751186371e-02" rms="9.8933182656764984e-02" purity="2.2380977869033813e-01" nType="0">
          <Node pos="l" depth="2" NCoef="0" IVar="-1" Cut="0.0000000000000000e+00" cType="1" res="-2.2023951169103384e-04" rms="1.8533615767955780e-01" purity="4.5550510287284851e-01" nType="-99"/>
          <Node pos="r" depth="2" NCoef="0" IVar="-1" Cut="0.0000000000000000e+00" cType="1" res="-4.1680149734020233e-03" rms="0.0000000000000000e+00" purity="8.8588707149028778e-02" nType="-99"/>
        </Node>
      </Node>
    </BinaryTree>
    <BinaryTree type="DecisionTree" boostWeight="1.0000000000000000e+00" itree="914">
      <Node pos="s" depth="0" NCoef="0" IVar="48" Cut="9.2093729972839355e-01" cType="1" res="8.1642707809805870e-03" rms="2.1679863333702087e-01" purity="4.9833807349205017e-01" nType="0">
        <Node pos="l" depth="1" NCoef="0" IVar="57" Cut="5.2848523855209351e-01" cType="1" res="-2.7537436690181494e-03" rms="0.0000000000000000e+00" purity="6.0181111097335815e-02" nType="-99"/>
        <Node pos="r" depth="1" NCoef="0" IVar="18" Cut="-1.1668041944503784e+00" cType="1" res="1.8340067937970161e-02" rms="2.3048740625381470e-01" purity="5.4599577188491821e-01" nType="0">
          <Node pos="l" depth="2" NCoef="0" IVar="-1" Cut="0.0000000000000000e+00" cType="1" res="7.4811320519074798e-04" rms="2.3475152254104614e-01" purity="5.8154761791229248e-01" nType="-99"/>
          <Node pos="r" depth="2" NCoef="0" IVar="-1" Cut="0.0000000000000000e+00" cType="1" res="-1.9487207755446434e-03" rms="1.7806848883628845e-01" purity="2.8579574823379517e-01" nType="-99"/>
        </Node>
      </Node>
    </BinaryTree>
    <BinaryTree type="DecisionTree" boostWeight="1.0000000000000000e+00" itree="915">
      <Node pos="s" depth="0" NCoef="0" IVar="6" Cut="1.1487928628921509e+00" cType="1" res="5.4999259300529957e-03" rms="2.1278481185436249e-01" purity="4.9657955765724182e-01" nType="0">
        <Node pos="l" depth="1" NCoef="0" IVar="52" Cut="2.8025915622711182e+00" cType="1" res="-5.1667331717908382e-03" rms="0.0000000000000000e+00" purity="4.2225159704685211e-02" nType="-99"/>
        <Node pos="r" depth="1" NCoef="0" IVar="60" Cut="-1.1547708511352539e+00" cType="1" res="1.5745105221867561e-02" rms="2.2569411993026733e-01" purity="5.3928756713867188e-01" nType="0">
          <Node pos="l" depth="2" NCoef="0" IVar="-1" Cut="0.0000000000000000e+00" cType="1" res="7.1123224915936589e-04" rms="2.3517665266990662e-01" purity="5.7701671123504639e-01" nType="-99"/>
          <Node pos="r" depth="2" NCoef="0" IVar="-1" Cut="0.0000000000000000e+00" cType="1" res="-1.7771810526028275e-03" rms="1.3430917263031006e-01" purity="3.0600753426551819e-01" nType="-99"/>
        </Node>
      </Node>
    </BinaryTree>
    <BinaryTree type="DecisionTree" boostWeight="1.0000000000000000e+00" itree="916">
      <Node pos="s" depth="0" NCoef="0" IVar="3" Cut="4.9840393066406250e+00" cType="1" res="1.0223826393485069e-02" rms="2.2371096909046173e-01" purity="5.0447249412536621e-01" nType="0">
        <Node pos="l" depth="1" NCoef="0" IVar="17" Cut="1.5231137275695801e+00" cType="1" res="-4.5740418136119843e-03" rms="2.2003956139087677e-01" purity="4.7858762741088867e-01" nType="0">
          <Node pos="l" depth="2" NCoef="0" IVar="-1" Cut="0.0000000000000000e+00" cType="1" res="-9.2731323093175888e-04" rms="2.1099419891834259e-01" purity="2.3391729593276978e-01" nType="-99"/>
          <Node pos="r" depth="2" NCoef="0" IVar="-1" Cut="0.0000000000000000e+00" cType="1" res="7.7826384222134948e-04" rms="2.2830286622047424e-01" purity="8.5738581418991089e-01" nType="-99"/>
        </Node>
        <Node pos="r" depth="1" NCoef="0" IVar="35" Cut="-8.3988392353057861e-01" cType="1" res="6.6985115408897400e-02" rms="2.2854758799076080e-01" purity="6.0376089811325073e-01" nType="0">
          <Node pos="l" depth="2" NCoef="0" IVar="-1" Cut="0.0000000000000000e+00" cType="1" res="3.1825657933950424e-03" rms="2.8026878833770752e-01" purity="7.2175151109695435e-01" nType="-99"/>
          <Node pos="r" depth="2" NCoef="0" IVar="-1" Cut="0.0000000000000000e+00" cType="1" res="-8.6834836110938340e-05" rms="1.1080923676490784e-01" purity="4.6569481492042542e-01" nType="-99"/>
        </Node>
      </Node>
    </BinaryTree>
    <BinaryTree type="DecisionTree" boostWeight="1.0000000000000000e+00" itree="917">
      <Node pos="s" depth="0" NCoef="0" IVar="52" Cut="2.2900247573852539e+00" cType="1" res="1.1261780746281147e-02" rms="2.2766363620758057e-01" purity="5.0117200613021851e-01" nType="0">
        <Node pos="l" depth="1" NCoef="0" IVar="57" Cut="-3.1516945362091064e-01" cType="1" res="-3.0241995118558407e-03" rms="0.0000000000000000e+00" purity="1.7705394327640533e-01" nType="-99"/>
        <Node pos="r" depth="1" NCoef="0" IVar="56" Cut="-9.5149064064025879e-01" cType="1" res="1.8504669889807701e-02" rms="2.3760703206062317e-01" purity="5.2087682485580444e-01" nType="0">
          <Node pos="l" depth="2" NCoef="0" IVar="-1" Cut="0.0000000000000000e+00" cType="1" res="9.0087397256866097e-04" rms="2.5345468521118164e-01" purity="5.6932377815246582e-01" nType="-99"/>
          <Node pos="r" depth="2" NCoef="0" IVar="-1" Cut="0.0000000000000000e+00" cType="1" res="-1.0372623801231384e-03" rms="1.6267164051532745e-01" purity="3.5716232657432556e-01" nType="-99"/>
        </Node>
      </Node>
    </BinaryTree>
    <BinaryTree type="DecisionTree" boostWeight="1.0000000000000000e+00" itree="918">
      <Node pos="s" depth="0" NCoef="0" IVar="60" Cut="-1.3867152929306030e+00" cType="1" res="1.3901845552027225e-02" rms="2.2403790056705475e-01" purity="5.0012922286987305e-01" nType="0">
        <Node pos="l" depth="1" NCoef="0" IVar="40" Cut="5.4457205533981323e-01" cType="1" res="2.9115004464983940e-02" rms="2.3964969813823700e-01" purity="5.4325383901596069e-01" nType="0">
          <Node pos="l" depth="2" NCoef="0" IVar="-1" Cut="0.0000000000000000e+00" cType="1" res="1.9215128850191832e-03" rms="2.8575038909912109e-01" purity="6.0511869192123413e-01" nType="-99"/>
          <Node pos="r" depth="2" NCoef="0" IVar="-1" Cut="0.0000000000000000e+00" cType="1" res="2.2965497919358313e-04" rms="2.1498098969459534e-01" purity="5.1852136850357056e-01" nType="-99"/>
        </Node>
        <Node pos="r" depth="1" NCoef="0" IVar="48" Cut="9.3129414319992065e-01" cType="1" res="-3.2984498888254166e-02" rms="1.5802241861820221e-01" purity="3.6722102761268616e-01" nType="0">
          <Node pos="l" depth="2" NCoef="0" IVar="-1" Cut="0.0000000000000000e+00" cType="1" res="-6.0091218911111355e-03" rms="0.0000000000000000e+00" purity="-4.1012216359376907e-02" nType="-99"/>
          <Node pos="r" depth="2" NCoef="0" IVar="-1" Cut="0.0000000000000000e+00" cType="1" res="-2.2342533338814974e-04" rms="2.0568533241748810e-01" purity="4.4708290696144104e-01" nType="-99"/>
        </Node>
      </Node>
    </BinaryTree>
    <BinaryTree type="DecisionTree" boostWeight="1.0000000000000000e+00" itree="919">
      <Node pos="s" depth="0" NCoef="0" IVar="68" Cut="1.2345679104328156e-02" cType="1" res="3.0539336148649454e-03" rms="2.2261908650398254e-01" purity="4.8923736810684204e-01" nType="0">
        <Node pos="l" depth="1" NCoef="0" IVar="3" Cut="4.2835459709167480e+00" cType="1" res="9.3219121918082237e-03" rms="2.2427548468112946e-01" purity="5.0362002849578857e-01" nType="0">
          <Node pos="l" depth="2" NCoef="0" IVar="-1" Cut="0.0000000000000000e+00" cType="1" res="-7.6291630975902081e-03" rms="1.1707822233438492e-01" purity="-1.7395419999957085e-02" nType="-99"/>
          <Node pos="r" depth="2" NCoef="0" IVar="-1" Cut="0.0000000000000000e+00" cType="1" res="3.7973836879245937e-04" rms="2.2477948665618896e-01" purity="5.1856064796447754e-01" nType="-99"/>
        </Node>
        <Node pos="r" depth="1" NCoef="0" IVar="49" Cut="-8.6321902275085449e-01" cType="1" res="-1.2122611701488495e-01" rms="1.3659247756004333e-01" purity="2.0406046509742737e-01" nType="0">
          <Node pos="l" depth="2" NCoef="0" IVar="-1" Cut="0.0000000000000000e+00" cType="1" res="-6.7884307354688644e-03" rms="0.0000000000000000e+00" purity="1.3851681724190712e-02" nType="-99"/>
          <Node pos="r" depth="2" NCoef="0" IVar="-1" Cut="0.0000000000000000e+00" cType="1" res="4.1348772356286645e-04" rms="2.6260402798652649e-01" purity="4.3564778566360474e-01" nType="-99"/>
        </Node>
      </Node>
    </BinaryTree>
    <BinaryTree type="DecisionTree" boostWeight="1.0000000000000000e+00" itree="920">
      <Node pos="s" depth="0" NCoef="0" IVar="15" Cut="1.5215698480606079e+00" cType="1" res="1.1405097320675850e-02" rms="2.2223354876041412e-01" purity="4.9939101934432983e-01" nType="0">
        <Node pos="l" depth="1" NCoef="0" IVar="17" Cut="1.0966084003448486e+00" cType="1" res="1.9792227074503899e-02" rms="2.0698921382427216e-01" purity="4.9920335412025452e-01" nType="0">
          <Node pos="l" depth="2" NCoef="0" IVar="-1" Cut="0.0000000000000000e+00" cType="1" res="-2.0621079951524734e-02" rms="0.0000000000000000e+00" purity="-1.3860380277037621e-02" nType="-99"/>
          <Node pos="r" depth="2" NCoef="0" IVar="-1" Cut="0.0000000000000000e+00" cType="1" res="7.9899712000042200e-04" rms="2.5033989548683167e-01" purity="6.9025290012359619e-01" nType="-99"/>
        </Node>
        <Node pos="r" depth="1" NCoef="0" IVar="2" Cut="2.6643943786621094e+00" cType="1" res="-4.9983032047748566e-02" rms="3.0495291948318481e-01" purity="5.0076496601104736e-01" nType="0">
          <Node pos="l" depth="2" NCoef="0" IVar="-1" Cut="0.0000000000000000e+00" cType="1" res="-3.1783876474946737e-03" rms="2.5322410464286804e-01" purity="2.7758619189262390e-01" nType="-99"/>
          <Node pos="r" depth="2" NCoef="0" IVar="-1" Cut="0.0000000000000000e+00" cType="1" res="5.2880856674164534e-04" rms="3.3535775542259216e-01" purity="7.5464433431625366e-01" nType="-99"/>
        </Node>
      </Node>
    </BinaryTree>
    <BinaryTree type="DecisionTree" boostWeight="1.0000000000000000e+00" itree="921">
      <Node pos="s" depth="0" NCoef="0" IVar="15" Cut="1.5212173461914062e+00" cType="1" res="1.6512507572770119e-02" rms="2.3710243403911591e-01" purity="5.0651532411575317e-01" nType="0">
        <Node pos="l" depth="1" NCoef="0" IVar="3" Cut="4.6552906036376953e+00" cType="1" res="2.6587326079607010e-02" rms="2.2206769883632660e-01" purity="5.0930726528167725e-01" nType="0">
          <Node pos="l" depth="2" NCoef="0" IVar="-1" Cut="0.0000000000000000e+00" cType="1" res="-3.3717814949341118e-04" rms="2.0715513825416565e-01" purity="3.4058883786201477e-01" nType="-99"/>
          <Node pos="r" depth="2" NCoef="0" IVar="-1" Cut="0.0000000000000000e+00" cType="1" res="1.3474755687639117e-03" rms="2.2773987054824829e-01" purity="6.1427319049835205e-01" nType="-99"/>
        </Node>
        <Node pos="r" depth="1" NCoef="0" IVar="58" Cut="-3.7579461932182312e-01" cType="1" res="-5.8048579841852188e-02" rms="3.1780186295509338e-01" purity="4.8585230112075806e-01" nType="0">
          <Node pos="l" depth="2" NCoef="0" IVar="-1" Cut="0.0000000000000000e+00" cType="1" res="-4.0464798803441226e-04" rms="3.1135109066963196e-01" purity="5.6645083427429199e-01" nType="-99"/>
          <Node pos="r" depth="2" NCoef="0" IVar="-1" Cut="0.0000000000000000e+00" cType="1" res="-4.6728672459721565e-03" rms="3.0552977323532104e-01" purity="1.9785100221633911e-01" nType="-99"/>
        </Node>
      </Node>
    </BinaryTree>
    <BinaryTree type="DecisionTree" boostWeight="1.0000000000000000e+00" itree="922">
      <Node pos="s" depth="0" NCoef="0" IVar="3" Cut="5.1616830825805664e+00" cType="1" res="1.4300121925771236e-02" rms="2.3399910330772400e-01" purity="4.9225518107414246e-01" nType="0">
        <Node pos="l" depth="1" NCoef="0" IVar="48" Cut="7.9880905151367188e-01" cType="1" res="5.4646534845232964e-03" rms="2.2794829308986664e-01" purity="4.8980322480201721e-01" nType="0">
          <Node pos="l" depth="2" NCoef="0" IVar="-1" Cut="0.0000000000000000e+00" cType="1" res="-3.0533296521753073e-03" rms="0.0000000000000000e+00" purity="4.3141651898622513e-02" nType="-99"/>
          <Node pos="r" depth="2" NCoef="0" IVar="-1" Cut="0.0000000000000000e+00" cType="1" res="3.3396983053535223e-04" rms="2.3712584376335144e-01" purity="5.2089983224868774e-01" nType="-99"/>
        </Node>
        <Node pos="r" depth="1" NCoef="0" IVar="21" Cut="-1.2106358259916306e-01" cType="1" res="1.0821776837110519e-01" rms="2.7352628111839294e-01" purity="5.1831752061843872e-01" nType="0">
          <Node pos="l" depth="2" NCoef="0" IVar="-1" Cut="0.0000000000000000e+00" cType="1" res="4.3165353126823902e-03" rms="3.2097616791725159e-01" purity="5.7279223203659058e-01" nType="-99"/>
          <Node pos="r" depth="2" NCoef="0" IVar="-1" Cut="0.0000000000000000e+00" cType="1" res="-3.0070316279307008e-04" rms="0.0000000000000000e+00" purity="4.1367644071578979e-01" nType="-99"/>
        </Node>
      </Node>
    </BinaryTree>
    <BinaryTree type="DecisionTree" boostWeight="1.0000000000000000e+00" itree="923">
      <Node pos="s" depth="0" NCoef="0" IVar="3" Cut="5.0285706520080566e+00" cType="1" res="1.2371170334517956e-02" rms="2.2366660833358765e-01" purity="5.0702595710754395e-01" nType="0">
        <Node pos="l" depth="1" NCoef="0" IVar="17" Cut="1.5220416784286499e+00" cType="1" res="7.5426307739689946e-04" rms="2.1837009489536285e-01" purity="4.9550983309745789e-01" nType="0">
          <Node pos="l" depth="2" NCoef="0" IVar="-1" Cut="0.0000000000000000e+00" cType="1" res="-7.8778312308713794e-04" rms="2.0606377720832825e-01" purity="2.3777052760124207e-01" nType="-99"/>
          <Node pos="r" depth="2" NCoef="0" IVar="-1" Cut="0.0000000000000000e+00" cType="1" res="8.9756061788648367e-04" rms="2.2975106537342072e-01" purity="8.6145180463790894e-01" nType="-99"/>
        </Node>
        <Node pos="r" depth="1" NCoef="0" IVar="10" Cut="3.1308870315551758e+00" cType="1" res="7.4495382606983185e-02" rms="2.4076142907142639e-01" purity="5.6861120462417603e-01" nType="0">
          <Node pos="l" depth="2" NCoef="0" IVar="-1" Cut="0.0000000000000000e+00" cType="1" res="5.9395316056907177e-03" rms="4.4192141294479370e-01" purity="4.6303948760032654e-01" nType="-99"/>
          <Node pos="r" depth="2" NCoef="0" IVar="-1" Cut="0.0000000000000000e+00" cType="1" res="1.2115030549466610e-03" rms="1.7093975841999054e-01" purity="5.8582139015197754e-01" nType="-99"/>
        </Node>
      </Node>
    </BinaryTree>
    <BinaryTree type="DecisionTree" boostWeight="1.0000000000000000e+00" itree="924">
      <Node pos="s" depth="0" NCoef="0" IVar="8" Cut="-9.1139173507690430e-01" cType="1" res="1.5033441595733166e-02" rms="2.3241256177425385e-01" purity="5.0618022680282593e-01" nType="0">
        <Node pos="l" depth="1" NCoef="0" IVar="36" Cut="1.4841190576553345e+00" cType="1" res="2.1445000544190407e-02" rms="2.3547105491161346e-01" purity="5.2684515714645386e-01" nType="0">
          <Node pos="l" depth="2" NCoef="0" IVar="-1" Cut="0.0000000000000000e+00" cType="1" res="-4.9887440400198102e-04" rms="2.0550861954689026e-01" purity="2.5054213404655457e-01" nType="-99"/>
          <Node pos="r" depth="2" NCoef="0" IVar="-1" Cut="0.0000000000000000e+00" cType="1" res="9.9808792583644390e-04" rms="2.5014537572860718e-01" purity="7.0060473680496216e-01" nType="-99"/>
        </Node>
        <Node pos="r" depth="1" NCoef="0" IVar="27" Cut="2.2092323303222656e+00" cType="1" res="-5.4036281071603298e-03" rms="0.0000000000000000e+00" purity="2.0336436107754707e-02" nType="-99"/>
      </Node>
    </BinaryTree>
    <BinaryTree type="DecisionTree" boostWeight="1.0000000000000000e+00" itree="925">
      <Node pos="s" depth="0" NCoef="0" IVar="17" Cut="1.5231137275695801e+00" cType="1" res="9.3272486701607704e-03" rms="2.2335408627986908e-01" purity="5.0449287891387939e-01" nType="0">
        <Node pos="l" depth="1" NCoef="0" IVar="20" Cut="-2.7834810316562653e-03" cType="1" res="-8.8509423658251762e-03" rms="2.2201748192310333e-01" purity="2.7613544464111328e-01" nType="0">
          <Node pos="l" depth="2" NCoef="0" IVar="-1" Cut="0.0000000000000000e+00" cType="1" res="-1.8199023324996233e-03" rms="1.2807098031044006e-01" purity="2.2456496953964233e-01" nType="-99"/>
          <Node pos="r" depth="2" NCoef="0" IVar="-1" Cut="0.0000000000000000e+00" cType="1" res="4.0005499613471329e-04" rms="2.5226590037345886e-01" purity="3.0107259750366211e-01" nType="-99"/>
        </Node>
        <Node pos="r" depth="1" NCoef="0" IVar="15" Cut="1.5230776071548462e+00" cType="1" res="3.8618844002485275e-02" rms="2.2238656878471375e-01" purity="8.7245863676071167e-01" nType="0">
          <Node pos="l" depth="2" NCoef="0" IVar="-1" Cut="0.0000000000000000e+00" cType="1" res="1.6028247773647308e-03" rms="1.7567653954029083e-01" purity="9.3551194667816162e-01" nType="-99"/>
          <Node pos="r" depth="2" NCoef="0" IVar="-1" Cut="0.0000000000000000e+00" cType="1" res="-6.7450857022777200e-04" rms="3.5071319341659546e-01" purity="5.9554129838943481e-01" nType="-99"/>
        </Node>
      </Node>
    </BinaryTree>
    <BinaryTree type="DecisionTree" boostWeight="1.0000000000000000e+00" itree="926">
      <Node pos="s" depth="0" NCoef="0" IVar="16" Cut="1.0160943269729614e+00" cType="1" res="5.2155978046357632e-03" rms="2.1365684270858765e-01" purity="4.9625986814498901e-01" nType="0">
        <Node pos="l" depth="1" NCoef="0" IVar="36" Cut="1.2910265922546387e+00" cType="1" res="1.2613056227564812e-02" rms="2.1600799262523651e-01" purity="5.1589047908782959e-01" nType="0">
          <Node pos="l" depth="2" NCoef="0" IVar="-1" Cut="0.0000000000000000e+00" cType="1" res="-2.8581826481968164e-03" rms="0.0000000000000000e+00" purity="5.3982805460691452e-02" nType="-99"/>
          <Node pos="r" depth="2" NCoef="0" IVar="-1" Cut="0.0000000000000000e+00" cType="1" res="6.5384391928091645e-04" rms="2.4385146796703339e-01" purity="6.4366227388381958e-01" nType="-99"/>
        </Node>
        <Node pos="r" depth="1" NCoef="0" IVar="54" Cut="1.2345679104328156e-02" cType="1" res="-9.3870729207992554e-02" rms="1.4685632288455963e-01" purity="2.3331499099731445e-01" nType="0">
          <Node pos="l" depth="2" NCoef="0" IVar="-1" Cut="0.0000000000000000e+00" cType="1" res="-5.7124802842736244e-03" rms="0.0000000000000000e+00" purity="3.9103534072637558e-02" nType="-99"/>
          <Node pos="r" depth="2" NCoef="0" IVar="-1" Cut="0.0000000000000000e+00" cType="1" res="-7.7644258271902800e-04" rms="2.4834239482879639e-01" purity="3.2641282677650452e-01" nType="-99"/>
        </Node>
      </Node>
    </BinaryTree>
    <BinaryTree type="DecisionTree" boostWeight="1.0000000000000000e+00" itree="927">
      <Node pos="s" depth="0" NCoef="0" IVar="2" Cut="9.0926015377044678e-01" cType="1" res="1.1928632855415344e-02" rms="2.2393879294395447e-01" purity="5.0445020198822021e-01" nType="0">
        <Node pos="l" depth="1" NCoef="0" IVar="-1" Cut="0.0000000000000000e+00" cType="1" res="-2.7074156329035759e-02" rms="0.0000000000000000e+00" purity="-7.7725023031234741e-02" nType="-99"/>
        <Node pos="r" depth="1" NCoef="0" IVar="36" Cut="1.6989332437515259e-01" cType="1" res="1.6936806961894035e-02" rms="2.2807517647743225e-01" purity="5.2085489034652710e-01" nType="0">
          <Node pos="l" depth="2" NCoef="0" IVar="-1" Cut="0.0000000000000000e+00" cType="1" res="-7.7361334115266800e-03" rms="0.0000000000000000e+00" purity="3.4964098595082760e-03" nType="-99"/>
          <Node pos="r" depth="2" NCoef="0" IVar="-1" Cut="0.0000000000000000e+00" cType="1" res="6.6147220786660910e-04" rms="2.5091052055358887e-01" purity="6.0920220613479614e-01" nType="-99"/>
        </Node>
      </Node>
    </BinaryTree>
    <BinaryTree type="DecisionTree" boostWeight="1.0000000000000000e+00" itree="928">
      <Node pos="s" depth="0" NCoef="0" IVar="68" Cut="1.2345679104328156e-02" cType="1" res="1.2635966762900352e-02" rms="2.2339427471160889e-01" purity="5.0296205282211304e-01" nType="0">
        <Node pos="l" depth="1" NCoef="0" IVar="6" Cut="1.0743960142135620e+00" cType="1" res="1.8172737210988998e-02" rms="2.2301396727561951e-01" purity="5.1675420999526978e-01" nType="0">
          <Node pos="l" depth="2" NCoef="0" IVar="-1" Cut="0.0000000000000000e+00" cType="1" res="-3.8128637243062258e-03" rms="0.0000000000000000e+00" purity="5.0306797027587891e-02" nType="-99"/>
          <Node pos="r" depth="2" NCoef="0" IVar="-1" Cut="0.0000000000000000e+00" cType="1" res="6.8451237166300416e-04" rms="2.3031450808048248e-01" purity="5.5229192972183228e-01" nType="-99"/>
        </Node>
        <Node pos="r" depth="1" NCoef="0" IVar="58" Cut="-8.7630069255828857e-01" cType="1" res="-1.0792045295238495e-01" rms="1.9595989584922791e-01" purity="2.0265440642833710e-01" nType="0">
          <Node pos="l" depth="2" NCoef="0" IVar="-1" Cut="0.0000000000000000e+00" cType="1" res="-3.8670009234920144e-04" rms="2.5226205587387085e-01" purity="3.8288569450378418e-01" nType="-99"/>
          <Node pos="r" depth="2" NCoef="0" IVar="-1" Cut="0.0000000000000000e+00" cType="1" res="-7.2411941364407539e-03" rms="0.0000000000000000e+00" purity="-1.1346485465764999e-02" nType="-99"/>
        </Node>
      </Node>
    </BinaryTree>
    <BinaryTree type="DecisionTree" boostWeight="1.0000000000000000e+00" itree="929">
      <Node pos="s" depth="0" NCoef="0" IVar="3" Cut="5.0855503082275391e+00" cType="1" res="1.3060209341347218e-02" rms="2.3213309049606323e-01" purity="5.0110757350921631e-01" nType="0">
        <Node pos="l" depth="1" NCoef="0" IVar="48" Cut="9.6669495105743408e-01" cType="1" res="1.4356853207573295e-03" rms="2.2626888751983643e-01" purity="4.9256312847137451e-01" nType="0">
          <Node pos="l" depth="2" NCoef="0" IVar="-1" Cut="0.0000000000000000e+00" cType="1" res="-3.1097196042537689e-03" rms="0.0000000000000000e+00" purity="5.3591068834066391e-02" nType="-99"/>
          <Node pos="r" depth="2" NCoef="0" IVar="-1" Cut="0.0000000000000000e+00" cType="1" res="3.3322424860671163e-04" rms="2.3846074938774109e-01" purity="5.4579955339431763e-01" nType="-99"/>
        </Node>
        <Node pos="r" depth="1" NCoef="0" IVar="6" Cut="1.9169178009033203e+00" cType="1" res="9.2486932873725891e-02" rms="2.5499257445335388e-01" purity="5.5948895215988159e-01" nType="0">
          <Node pos="l" depth="2" NCoef="0" IVar="-1" Cut="0.0000000000000000e+00" cType="1" res="4.3296157382428646e-03" rms="3.4691736102104187e-01" purity="5.0960105657577515e-01" nType="-99"/>
          <Node pos="r" depth="2" NCoef="0" IVar="-1" Cut="0.0000000000000000e+00" cType="1" res="7.1486405795440078e-04" rms="1.0812327265739441e-01" purity="5.9899967908859253e-01" nType="-99"/>
        </Node>
      </Node>
    </BinaryTree>
    <BinaryTree type="DecisionTree" boostWeight="1.0000000000000000e+00" itree="930">
      <Node pos="s" depth="0" NCoef="0" IVar="1" Cut="3.0264513492584229e+00" cType="1" res="3.0072557274252176e-03" rms="2.1006070077419281e-01" purity="4.8487493395805359e-01" nType="0">
        <Node pos="l" depth="1" NCoef="0" IVar="9" Cut="-7.1604937314987183e-01" cType="1" res="-2.9961980879306793e-02" rms="1.6166374087333679e-01" purity="2.8834989666938782e-01" nType="0">
          <Node pos="l" depth="2" NCoef="0" IVar="-1" Cut="0.0000000000000000e+00" cType="1" res="-6.5456749871373177e-03" rms="0.0000000000000000e+00" purity="2.6807488873600960e-02" nType="-99"/>
          <Node pos="r" depth="2" NCoef="0" IVar="-1" Cut="0.0000000000000000e+00" cType="1" res="-6.3211546512320638e-04" rms="1.8361896276473999e-01" purity="3.0165585875511169e-01" nType="-99"/>
        </Node>
        <Node pos="r" depth="1" NCoef="0" IVar="2" Cut="2.1289529800415039e+00" cType="1" res="2.9458647593855858e-02" rms="2.3872052133083344e-01" purity="6.4254808425903320e-01" nType="0">
          <Node pos="l" depth="2" NCoef="0" IVar="-1" Cut="0.0000000000000000e+00" cType="1" res="-4.1282065212726593e-03" rms="1.5165929496288300e-01" purity="2.7421832084655762e-01" nType="-99"/>
          <Node pos="r" depth="2" NCoef="0" IVar="-1" Cut="0.0000000000000000e+00" cType="1" res="9.4606488710269332e-04" rms="2.4358472228050232e-01" purity="6.8161422014236450e-01" nType="-99"/>
        </Node>
      </Node>
    </BinaryTree>
    <BinaryTree type="DecisionTree" boostWeight="1.0000000000000000e+00" itree="931">
      <Node pos="s" depth="0" NCoef="0" IVar="2" Cut="1.1877123117446899e+00" cType="1" res="2.7153125847689807e-04" rms="2.0943953096866608e-01" purity="4.9715092778205872e-01" nType="0">
        <Node pos="l" depth="1" NCoef="0" IVar="27" Cut="1.6342737674713135e+00" cType="1" res="-1.6034204512834549e-02" rms="0.0000000000000000e+00" purity="-3.7706889212131500e-02" nType="-99"/>
        <Node pos="r" depth="1" NCoef="0" IVar="17" Cut="1.5216873884201050e+00" cType="1" res="7.4389539659023285e-03" rms="2.1854619681835175e-01" purity="5.2330696582794189e-01" nType="0">
          <Node pos="l" depth="2" NCoef="0" IVar="-1" Cut="0.0000000000000000e+00" cType="1" res="-4.2959552956745028e-04" rms="2.1427194774150848e-01" purity="2.7002182602882385e-01" nType="-99"/>
          <Node pos="r" depth="2" NCoef="0" IVar="-1" Cut="0.0000000000000000e+00" cType="1" res="9.6014962764456868e-04" rms="2.2062870860099792e-01" purity="8.7980824708938599e-01" nType="-99"/>
        </Node>
      </Node>
    </BinaryTree>
    <BinaryTree type="DecisionTree" boostWeight="1.0000000000000000e+00" itree="932">
      <Node pos="s" depth="0" NCoef="0" IVar="3" Cut="5.2248659133911133e+00" cType="1" res="1.5196396037936211e-02" rms="2.2769999504089355e-01" purity="5.1124584674835205e-01" nType="0">
        <Node pos="l" depth="1" NCoef="0" IVar="17" Cut="1.5231137275695801e+00" cType="1" res="6.1471187509596348e-03" rms="2.2050762176513672e-01" purity="5.1042985916137695e-01" nType="0">
          <Node pos="l" depth="2" NCoef="0" IVar="-1" Cut="0.0000000000000000e+00" cType="1" res="-6.3065288122743368e-04" rms="2.1175405383110046e-01" purity="2.5901263952255249e-01" nType="-99"/>
          <Node pos="r" depth="2" NCoef="0" IVar="-1" Cut="0.0000000000000000e+00" cType="1" res="1.0846066288650036e-03" rms="2.2708533704280853e-01" purity="8.7199813127517700e-01" nType="-99"/>
        </Node>
        <Node pos="r" depth="1" NCoef="0" IVar="17" Cut="5.9332537651062012e-01" cType="1" res="1.4454004168510437e-01" rms="2.8288477659225464e-01" purity="5.2290952205657959e-01" nType="0">
          <Node pos="l" depth="2" NCoef="0" IVar="-1" Cut="0.0000000000000000e+00" cType="1" res="-1.5489239245653152e-02" rms="0.0000000000000000e+00" purity="-3.7996295839548111e-02" nType="-99"/>
          <Node pos="r" depth="2" NCoef="0" IVar="-1" Cut="0.0000000000000000e+00" cType="1" res="3.8338094018399715e-03" rms="3.2994365692138672e-01" purity="7.7412617206573486e-01" nType="-99"/>
        </Node>
      </Node>
    </BinaryTree>
    <BinaryTree type="DecisionTree" boostWeight="1.0000000000000000e+00" itree="933">
      <Node pos="s" depth="0" NCoef="0" IVar="60" Cut="-1.1741747856140137e+00" cType="1" res="4.2322911322116852e-03" rms="2.1264839172363281e-01" purity="5.0309193134307861e-01" nType="0">
        <Node pos="l" depth="1" NCoef="0" IVar="18" Cut="-9.7460788488388062e-01" cType="1" res="1.5646697953343391e-02" rms="2.2671759128570557e-01" purity="5.3760457038879395e-01" nType="0">
          <Node pos="l" depth="2" NCoef="0" IVar="-1" Cut="0.0000000000000000e+00" cType="1" res="6.1587849631905556e-04" rms="2.2922100126743317e-01" purity="5.6313776969909668e-01" nType="-99"/>
          <Node pos="r" depth="2" NCoef="0" IVar="-1" Cut="0.0000000000000000e+00" cType="1" res="-4.6821455471217632e-03" rms="1.5013022720813751e-01" purity="1.7452442646026611e-01" nType="-99"/>
        </Node>
        <Node pos="r" depth="1" NCoef="0" IVar="48" Cut="1.1995184421539307e+00" cType="1" res="-5.6197773665189743e-02" rms="9.0286038815975189e-02" purity="3.2037538290023804e-01" nType="0">
          <Node pos="l" depth="2" NCoef="0" IVar="-1" Cut="0.0000000000000000e+00" cType="1" res="-6.8809669464826584e-03" rms="0.0000000000000000e+00" purity="-3.7011958658695221e-02" nType="-99"/>
          <Node pos="r" depth="2" NCoef="0" IVar="-1" Cut="0.0000000000000000e+00" cType="1" res="-2.4834470241330564e-04" rms="2.1178083121776581e-01" purity="4.6474617719650269e-01" nType="-99"/>
        </Node>
      </Node>
    </BinaryTree>
    <BinaryTree type="DecisionTree" boostWeight="1.0000000000000000e+00" itree="934">
      <Node pos="s" depth="0" NCoef="0" IVar="57" Cut="1.1010603904724121e+00" cType="1" res="1.2260386720299721e-02" rms="2.3063726723194122e-01" purity="4.9225348234176636e-01" nType="0">
        <Node pos="l" depth="1" NCoef="0" IVar="5" Cut="2.9942926764488220e-01" cType="1" res="2.5444142520427704e-02" rms="2.3994828760623932e-01" purity="5.3402596712112427e-01" nType="0">
          <Node pos="l" depth="2" NCoef="0" IVar="-1" Cut="0.0000000000000000e+00" cType="1" res="1.5677653718739748e-03" rms="2.2029580175876617e-01" purity="6.9881993532180786e-01" nType="-99"/>
          <Node pos="r" depth="2" NCoef="0" IVar="-1" Cut="0.0000000000000000e+00" cType="1" res="-1.9896871526725590e-04" rms="2.5971969962120056e-01" purity="3.1649631261825562e-01" nType="-99"/>
        </Node>
        <Node pos="r" depth="1" NCoef="0" IVar="20" Cut="1.9653412699699402e-01" cType="1" res="-5.0780337303876877e-02" rms="1.6564019024372101e-01" purity="2.9251036047935486e-01" nType="0">
          <Node pos="l" depth="2" NCoef="0" IVar="-1" Cut="0.0000000000000000e+00" cType="1" res="-9.4747322145849466e-04" rms="1.9051475822925568e-01" purity="3.3651250600814819e-01" nType="-99"/>
          <Node pos="r" depth="2" NCoef="0" IVar="-1" Cut="0.0000000000000000e+00" cType="1" res="-7.5831143185496330e-03" rms="0.0000000000000000e+00" purity="9.2932090163230896e-02" nType="-99"/>
        </Node>
      </Node>
    </BinaryTree>
    <BinaryTree type="DecisionTree" boostWeight="1.0000000000000000e+00" itree="935">
      <Node pos="s" depth="0" NCoef="0" IVar="3" Cut="4.2670221328735352e+00" cType="1" res="8.1364046782255173e-03" rms="2.1770516037940979e-01" purity="5.0103211402893066e-01" nType="0">
        <Node pos="l" depth="1" NCoef="0" IVar="-1" Cut="0.0000000000000000e+00" cType="1" res="-6.5668146125972271e-03" rms="0.0000000000000000e+00" purity="2.3066347930580378e-03" nType="-99"/>
        <Node pos="r" depth="1" NCoef="0" IVar="2" Cut="1.8057247400283813e+00" cType="1" res="1.2418035417795181e-02" rms="2.1972072124481201e-01" purity="5.1357656717300415e-01" nType="0">
          <Node pos="l" depth="2" NCoef="0" IVar="-1" Cut="0.0000000000000000e+00" cType="1" res="-2.7376802172511816e-03" rms="1.3286411762237549e-01" purity="1.3965761661529541e-01" nType="-99"/>
          <Node pos="r" depth="2" NCoef="0" IVar="-1" Cut="0.0000000000000000e+00" cType="1" res="6.5572996390983462e-04" rms="2.3190180957317352e-01" purity="5.9362643957138062e-01" nType="-99"/>
        </Node>
      </Node>
    </BinaryTree>
    <BinaryTree type="DecisionTree" boostWeight="1.0000000000000000e+00" itree="936">
      <Node pos="s" depth="0" NCoef="0" IVar="8" Cut="-1.4155658483505249e+00" cType="1" res="6.0197417624294758e-03" rms="2.1726368367671967e-01" purity="4.9730077385902405e-01" nType="0">
        <Node pos="l" depth="1" NCoef="0" IVar="56" Cut="-1.4538639783859253e+00" cType="1" res="1.2155530042946339e-02" rms="2.1936170756816864e-01" purity="5.2191942930221558e-01" nType="0">
          <Node pos="l" depth="2" NCoef="0" IVar="-1" Cut="0.0000000000000000e+00" cType="1" res="1.0192475747317076e-03" rms="2.3394444584846497e-01" purity="6.1155545711517334e-01" nType="-99"/>
          <Node pos="r" depth="2" NCoef="0" IVar="-1" Cut="0.0000000000000000e+00" cType="1" res="-4.3857182026840746e-04" rms="2.0089960098266602e-01" purity="4.3641564249992371e-01" nType="-99"/>
        </Node>
        <Node pos="r" depth="1" NCoef="0" IVar="17" Cut="1.3198391199111938e+00" cType="1" res="-1.1180640757083893e-01" rms="1.2250152975320816e-01" purity="2.4545827880501747e-02" nType="0">
          <Node pos="l" depth="2" NCoef="0" IVar="-1" Cut="0.0000000000000000e+00" cType="1" res="-5.1726419478654861e-02" rms="0.0000000000000000e+00" purity="-2.2024791687726974e-02" nType="-99"/>
          <Node pos="r" depth="2" NCoef="0" IVar="-1" Cut="0.0000000000000000e+00" cType="1" res="-4.6216254122555256e-03" rms="2.1253000199794769e-01" purity="8.5554316639900208e-02" nType="-99"/>
        </Node>
      </Node>
    </BinaryTree>
    <BinaryTree type="DecisionTree" boostWeight="1.0000000000000000e+00" itree="937">
      <Node pos="s" depth="0" NCoef="0" IVar="0" Cut="6.1500394344329834e-01" cType="1" res="1.5946066007018089e-02" rms="2.2752326726913452e-01" purity="5.1809042692184448e-01" nType="0">
        <Node pos="l" depth="1" NCoef="0" IVar="3" Cut="5.2232103347778320e+00" cType="1" res="3.9665926247835159e-02" rms="2.4549004435539246e-01" purity="5.8558583259582520e-01" nType="0">
          <Node pos="l" depth="2" NCoef="0" IVar="-1" Cut="0.0000000000000000e+00" cType="1" res="8.3942449418827891e-04" rms="2.4002325534820557e-01" purity="5.8611911535263062e-01" nType="-99"/>
          <Node pos="r" depth="2" NCoef="0" IVar="-1" Cut="0.0000000000000000e+00" cType="1" res="3.5185865126550198e-03" rms="2.8793856501579285e-01" purity="5.7754009962081909e-01" nType="-99"/>
        </Node>
        <Node pos="r" depth="1" NCoef="0" IVar="27" Cut="1.5396881103515625e+00" cType="1" res="-1.4355285093188286e-02" rms="1.9817501306533813e-01" purity="4.3186721205711365e-01" nType="0">
          <Node pos="l" depth="2" NCoef="0" IVar="-1" Cut="0.0000000000000000e+00" cType="1" res="-4.1964394040405750e-03" rms="0.0000000000000000e+00" purity="1.2189856916666031e-01" nType="-99"/>
          <Node pos="r" depth="2" NCoef="0" IVar="-1" Cut="0.0000000000000000e+00" cType="1" res="1.1563124280655757e-04" rms="2.2462502121925354e-01" purity="5.1994544267654419e-01" nType="-99"/>
        </Node>
      </Node>
    </BinaryTree>
    <BinaryTree type="DecisionTree" boostWeight="1.0000000000000000e+00" itree="938">
      <Node pos="s" depth="0" NCoef="0" IVar="52" Cut="2.4639880657196045e+00" cType="1" res="1.9587182905524969e-03" rms="2.1255667507648468e-01" purity="4.8776155710220337e-01" nType="0">
        <Node pos="l" depth="1" NCoef="0" IVar="63" Cut="-1.6358257830142975e-01" cType="1" res="-2.4559309240430593e-03" rms="0.0000000000000000e+00" purity="2.2210922837257385e-01" nType="-99"/>
        <Node pos="r" depth="1" NCoef="0" IVar="6" Cut="1.5237731933593750e+00" cType="1" res="1.3824303634464741e-02" rms="2.2562111914157867e-01" purity="5.2705609798431396e-01" nType="0">
          <Node pos="l" depth="2" NCoef="0" IVar="-1" Cut="0.0000000000000000e+00" cType="1" res="-1.7254800768569112e-03" rms="1.3439159095287323e-01" purity="1.9191852211952209e-01" nType="-99"/>
          <Node pos="r" depth="2" NCoef="0" IVar="-1" Cut="0.0000000000000000e+00" cType="1" res="6.8850175011903048e-04" rms="2.3700718581676483e-01" purity="5.9013348817825317e-01" nType="-99"/>
        </Node>
      </Node>
    </BinaryTree>
    <BinaryTree type="DecisionTree" boostWeight="1.0000000000000000e+00" itree="939">
      <Node pos="s" depth="0" NCoef="0" IVar="22" Cut="1.2345679104328156e-02" cType="1" res="1.5108871273696423e-02" rms="2.3155769705772400e-01" purity="5.0102233886718750e-01" nType="0">
        <Node pos="l" depth="1" NCoef="0" IVar="31" Cut="3.2532477378845215e+00" cType="1" res="1.2937718629837036e-01" rms="3.2741668820381165e-01" purity="3.5749450325965881e-01" nType="0">
          <Node pos="l" depth="2" NCoef="0" IVar="-1" Cut="0.0000000000000000e+00" cType="1" res="1.6388503136113286e-03" rms="2.4258464574813843e-01" purity="3.0671855807304382e-01" nType="-99"/>
          <Node pos="r" depth="2" NCoef="0" IVar="-1" Cut="0.0000000000000000e+00" cType="1" res="6.3048670999705791e-03" rms="4.1073235869407654e-01" purity="4.5738002657890320e-01" nType="-99"/>
        </Node>
        <Node pos="r" depth="1" NCoef="0" IVar="57" Cut="1.2918405532836914e+00" cType="1" res="7.8745074570178986e-03" rms="2.2214326262474060e-01" purity="5.1010912656784058e-01" nType="0">
          <Node pos="l" depth="2" NCoef="0" IVar="-1" Cut="0.0000000000000000e+00" cType="1" res="4.8964191228151321e-04" rms="2.2928526997566223e-01" purity="5.4583901166915894e-01" nType="-99"/>
          <Node pos="r" depth="2" NCoef="0" IVar="-1" Cut="0.0000000000000000e+00" cType="1" res="-2.0616906695067883e-03" rms="1.5519706904888153e-01" purity="2.8539800643920898e-01" nType="-99"/>
        </Node>
      </Node>
    </BinaryTree>
    <BinaryTree type="DecisionTree" boostWeight="1.0000000000000000e+00" itree="940">
      <Node pos="s" depth="0" NCoef="0" IVar="3" Cut="4.9913563728332520e+00" cType="1" res="8.4461066871881485e-03" rms="2.2144548594951630e-01" purity="4.9972119927406311e-01" nType="0">
        <Node pos="l" depth="1" NCoef="0" IVar="1" Cut="3.2345981597900391e+00" cType="1" res="-6.9777104072272778e-03" rms="2.1590609848499298e-01" purity="4.7588157653808594e-01" nType="0">
          <Node pos="l" depth="2" NCoef="0" IVar="-1" Cut="0.0000000000000000e+00" cType="1" res="-1.1005313135683537e-03" rms="1.8105611205101013e-01" purity="3.1555566191673279e-01" nType="-99"/>
          <Node pos="r" depth="2" NCoef="0" IVar="-1" Cut="0.0000000000000000e+00" cType="1" res="6.6083943238481879e-04" rms="2.4687954783439636e-01" purity="6.6561734676361084e-01" nType="-99"/>
        </Node>
        <Node pos="r" depth="1" NCoef="0" IVar="17" Cut="-1.1061065196990967e+00" cType="1" res="7.1719430387020111e-02" rms="2.3237289488315582e-01" purity="5.9751868247985840e-01" nType="0">
          <Node pos="l" depth="2" NCoef="0" IVar="-1" Cut="0.0000000000000000e+00" cType="1" res="-3.0054410919547081e-02" rms="0.0000000000000000e+00" purity="-4.2535677552223206e-02" nType="-99"/>
          <Node pos="r" depth="2" NCoef="0" IVar="-1" Cut="0.0000000000000000e+00" cType="1" res="2.2246222943067551e-03" rms="2.6512658596038818e-01" purity="7.2785979509353638e-01" nType="-99"/>
        </Node>
      </Node>
    </BinaryTree>
    <BinaryTree type="DecisionTree" boostWeight="1.0000000000000000e+00" itree="941">
      <Node pos="s" depth="0" NCoef="0" IVar="0" Cut="9.4598925113677979e-01" cType="1" res="2.1484883502125740e-02" rms="2.3963612318038940e-01" purity="5.0985783338546753e-01" nType="0">
        <Node pos="l" depth="1" NCoef="0" IVar="3" Cut="5.0391459465026855e+00" cType="1" res="3.2669339329004288e-02" rms="2.4024166166782379e-01" purity="5.4068654775619507e-01" nType="0">
          <Node pos="l" depth="2" NCoef="0" IVar="-1" Cut="0.0000000000000000e+00" cType="1" res="5.3317332640290260e-04" rms="2.3403988778591156e-01" purity="5.2794861793518066e-01" nType="-99"/>
          <Node pos="r" depth="2" NCoef="0" IVar="-1" Cut="0.0000000000000000e+00" cType="1" res="2.6598258409649134e-03" rms="2.5988823175430298e-01" purity="6.0871624946594238e-01" nType="-99"/>
        </Node>
        <Node pos="r" depth="1" NCoef="0" IVar="61" Cut="1.0650188922882080e+00" cType="1" res="-4.3027449399232864e-02" rms="2.2553484141826630e-01" purity="3.3203697204589844e-01" nType="0">
          <Node pos="l" depth="2" NCoef="0" IVar="-1" Cut="0.0000000000000000e+00" cType="1" res="-2.3289818782359362e-03" rms="1.7167852818965912e-01" purity="3.1886869668960571e-01" nType="-99"/>
          <Node pos="r" depth="2" NCoef="0" IVar="-1" Cut="0.0000000000000000e+00" cType="1" res="1.4265661593526602e-03" rms="3.1231912970542908e-01" purity="3.6961999535560608e-01" nType="-99"/>
        </Node>
      </Node>
    </BinaryTree>
    <BinaryTree type="DecisionTree" boostWeight="1.0000000000000000e+00" itree="942">
      <Node pos="s" depth="0" NCoef="0" IVar="60" Cut="-8.1035345792770386e-01" cType="1" res="1.6493942588567734e-02" rms="2.3039267957210541e-01" purity="5.0679928064346313e-01" nType="0">
        <Node pos="l" depth="1" NCoef="0" IVar="3" Cut="5.1766190528869629e+00" cType="1" res="2.3035248741507530e-02" rms="2.3612651228904724e-01" purity="5.2671068906784058e-01" nType="0">
          <Node pos="l" depth="2" NCoef="0" IVar="-1" Cut="0.0000000000000000e+00" cType="1" res="3.8877391489222646e-04" rms="2.3039746284484863e-01" purity="5.2453273534774780e-01" nType="-99"/>
          <Node pos="r" depth="2" NCoef="0" IVar="-1" Cut="0.0000000000000000e+00" cType="1" res="2.8962274082005024e-03" rms="2.7474766969680786e-01" purity="5.5251753330230713e-01" nType="-99"/>
        </Node>
        <Node pos="r" depth="1" NCoef="0" IVar="31" Cut="3.0168077945709229e+00" cType="1" res="-4.3881405144929886e-03" rms="0.0000000000000000e+00" purity="1.5382863581180573e-01" nType="-99"/>
      </Node>
    </BinaryTree>
    <BinaryTree type="DecisionTree" boostWeight="1.0000000000000000e+00" itree="943">
      <Node pos="s" depth="0" NCoef="0" IVar="17" Cut="1.5220416784286499e+00" cType="1" res="1.2530960142612457e-02" rms="2.1909758448600769e-01" purity="5.0293242931365967e-01" nType="0">
        <Node pos="l" depth="1" NCoef="0" IVar="2" Cut="2.5803279876708984e+00" cType="1" res="-9.3505810946226120e-03" rms="2.1248552203178406e-01" purity="2.6089757680892944e-01" nType="0">
          <Node pos="l" depth="2" NCoef="0" IVar="-1" Cut="0.0000000000000000e+00" cType="1" res="-1.5140423784032464e-03" rms="1.4864881336688995e-01" purity="1.3986983895301819e-01" nType="-99"/>
          <Node pos="r" depth="2" NCoef="0" IVar="-1" Cut="0.0000000000000000e+00" cType="1" res="6.3259486341848969e-04" rms="2.7910614013671875e-01" purity="4.4572266936302185e-01" nType="-99"/>
        </Node>
        <Node pos="r" depth="1" NCoef="0" IVar="15" Cut="1.5230776071548462e+00" cType="1" res="4.6092756092548370e-02" rms="2.2476631402969360e-01" purity="8.7416440248489380e-01" nType="0">
          <Node pos="l" depth="2" NCoef="0" IVar="-1" Cut="0.0000000000000000e+00" cType="1" res="1.6741991275921464e-03" rms="1.8226143717765808e-01" purity="9.3439763784408569e-01" nType="-99"/>
          <Node pos="r" depth="2" NCoef="0" IVar="-1" Cut="0.0000000000000000e+00" cType="1" res="-2.6152815553359687e-04" rms="3.3711320161819458e-01" purity="6.3749957084655762e-01" nType="-99"/>
        </Node>
      </Node>
    </BinaryTree>
    <BinaryTree type="DecisionTree" boostWeight="1.0000000000000000e+00" itree="944">
      <Node pos="s" depth="0" NCoef="0" IVar="48" Cut="9.7471249103546143e-01" cType="1" res="1.2013198575004935e-03" rms="2.1913094818592072e-01" purity="4.8223519325256348e-01" nType="0">
        <Node pos="l" depth="1" NCoef="0" IVar="55" Cut="1.1570141315460205e+00" cType="1" res="-3.1438602600246668e-03" rms="0.0000000000000000e+00" purity="4.0378220379352570e-02" nType="-99"/>
        <Node pos="r" depth="1" NCoef="0" IVar="60" Cut="-8.4542292356491089e-01" cType="1" res="1.3575587421655655e-02" rms="2.3784941434860229e-01" purity="5.3692781925201416e-01" nType="0">
          <Node pos="l" depth="2" NCoef="0" IVar="-1" Cut="0.0000000000000000e+00" cType="1" res="5.8002053992822766e-04" rms="2.4278238415718079e-01" purity="5.5617880821228027e-01" nType="-99"/>
          <Node pos="r" depth="2" NCoef="0" IVar="-1" Cut="0.0000000000000000e+00" cType="1" res="-6.0567795298993587e-03" rms="0.0000000000000000e+00" purity="1.1251207441091537e-01" nType="-99"/>
        </Node>
      </Node>
    </BinaryTree>
    <BinaryTree type="DecisionTree" boostWeight="1.0000000000000000e+00" itree="945">
      <Node pos="s" depth="0" NCoef="0" IVar="14" Cut="-1.1834474802017212e+00" cType="1" res="1.1323623359203339e-02" rms="2.1895022690296173e-01" purity="5.0345247983932495e-01" nType="0">
        <Node pos="l" depth="1" NCoef="0" IVar="2" Cut="1.9928872585296631e+00" cType="1" res="-2.0811492577195168e-02" rms="1.8023051321506500e-01" purity="3.4769427776336670e-01" nType="0">
          <Node pos="l" depth="2" NCoef="0" IVar="-1" Cut="0.0000000000000000e+00" cType="1" res="-9.5467595383524895e-03" rms="0.0000000000000000e+00" purity="4.0189620107412338e-02" nType="-99"/>
          <Node pos="r" depth="2" NCoef="0" IVar="-1" Cut="0.0000000000000000e+00" cType="1" res="-1.3608342851512134e-04" rms="2.1122537553310394e-01" purity="4.2264485359191895e-01" nType="-99"/>
        </Node>
        <Node pos="r" depth="1" NCoef="0" IVar="3" Cut="4.4578084945678711e+00" cType="1" res="3.1071560457348824e-02" rms="2.3751392960548401e-01" purity="5.9917026758193970e-01" nType="0">
          <Node pos="l" depth="2" NCoef="0" IVar="-1" Cut="0.0000000000000000e+00" cType="1" res="-1.8646738026291132e-03" rms="2.3882025480270386e-01" purity="3.2891544699668884e-01" nType="-99"/>
          <Node pos="r" depth="2" NCoef="0" IVar="-1" Cut="0.0000000000000000e+00" cType="1" res="9.9499674979597330e-04" rms="2.3535394668579102e-01" purity="6.2149739265441895e-01" nType="-99"/>
        </Node>
      </Node>
    </BinaryTree>
    <BinaryTree type="DecisionTree" boostWeight="1.0000000000000000e+00" itree="946">
      <Node pos="s" depth="0" NCoef="0" IVar="3" Cut="4.8589749336242676e+00" cType="1" res="1.0744296945631504e-02" rms="2.1935129165649414e-01" purity="4.9673336744308472e-01" nType="0">
        <Node pos="l" depth="1" NCoef="0" IVar="27" Cut="1.6425577402114868e+00" cType="1" res="-1.2634562328457832e-02" rms="2.0978672802448273e-01" purity="4.4262099266052246e-01" nType="0">
          <Node pos="l" depth="2" NCoef="0" IVar="-1" Cut="0.0000000000000000e+00" cType="1" res="-3.4713358618319035e-03" rms="9.6849419176578522e-02" purity="1.6099111735820770e-01" nType="-99"/>
          <Node pos="r" depth="2" NCoef="0" IVar="-1" Cut="0.0000000000000000e+00" cType="1" res="1.0711341019487008e-04" rms="2.3126816749572754e-01" purity="5.2959758043289185e-01" nType="-99"/>
        </Node>
        <Node pos="r" depth="1" NCoef="0" IVar="1" Cut="2.5669631958007812e+00" cType="1" res="5.7729981839656830e-02" rms="2.3034305870532990e-01" purity="6.0548567771911621e-01" nType="0">
          <Node pos="l" depth="2" NCoef="0" IVar="-1" Cut="0.0000000000000000e+00" cType="1" res="3.2386484090238810e-03" rms="3.3298808336257935e-01" purity="4.1609618067741394e-01" nType="-99"/>
          <Node pos="r" depth="2" NCoef="0" IVar="-1" Cut="0.0000000000000000e+00" cType="1" res="7.7783415326848626e-04" rms="1.6017197072505951e-01" purity="6.8534725904464722e-01" nType="-99"/>
        </Node>
      </Node>
    </BinaryTree>
    <BinaryTree type="DecisionTree" boostWeight="1.0000000000000000e+00" itree="947">
      <Node pos="s" depth="0" NCoef="0" IVar="3" Cut="4.9586615562438965e+00" cType="1" res="7.9567432403564453e-03" rms="2.2045880556106567e-01" purity="4.9744871258735657e-01" nType="0">
        <Node pos="l" depth="1" NCoef="0" IVar="56" Cut="-1.4540683031082153e+00" cType="1" res="-6.0400953516364098e-03" rms="2.1757274866104126e-01" purity="4.7134897112846375e-01" nType="0">
          <Node pos="l" depth="2" NCoef="0" IVar="-1" Cut="0.0000000000000000e+00" cType="1" res="7.0111226523295045e-04" rms="2.3326082527637482e-01" purity="5.6438708305358887e-01" nType="-99"/>
          <Node pos="r" depth="2" NCoef="0" IVar="-1" Cut="0.0000000000000000e+00" cType="1" res="-1.4131078496575356e-03" rms="1.8977041542530060e-01" purity="3.5862368345260620e-01" nType="-99"/>
        </Node>
        <Node pos="r" depth="1" NCoef="0" IVar="52" Cut="3.3918836116790771e+00" cType="1" res="5.6512318551540375e-02" rms="2.2349566221237183e-01" purity="5.8798986673355103e-01" nType="0">
          <Node pos="l" depth="2" NCoef="0" IVar="-1" Cut="0.0000000000000000e+00" cType="1" res="2.2771949879825115e-03" rms="2.5987643003463745e-01" purity="6.2651926279067993e-01" nType="-99"/>
          <Node pos="r" depth="2" NCoef="0" IVar="-1" Cut="0.0000000000000000e+00" cType="1" res="-2.0058741793036461e-03" rms="0.0000000000000000e+00" purity="4.5390003919601440e-01" nType="-99"/>
        </Node>
      </Node>
    </BinaryTree>
    <BinaryTree type="DecisionTree" boostWeight="1.0000000000000000e+00" itree="948">
      <Node pos="s" depth="0" NCoef="0" IVar="17" Cut="1.5220416784286499e+00" cType="1" res="-5.0669414922595024e-03" rms="1.9576179981231689e-01" purity="4.8105818033218384e-01" nType="0">
        <Node pos="l" depth="1" NCoef="0" IVar="52" Cut="3.5431613922119141e+00" cType="1" res="-3.2602269202470779e-02" rms="1.6331097483634949e-01" purity="2.3221094906330109e-01" nType="0">
          <Node pos="l" depth="2" NCoef="0" IVar="-1" Cut="0.0000000000000000e+00" cType="1" res="-7.4080651393160224e-04" rms="1.7882572114467621e-01" purity="2.4733641743659973e-01" nType="-99"/>
          <Node pos="r" depth="2" NCoef="0" IVar="-1" Cut="0.0000000000000000e+00" cType="1" res="-1.3183813542127609e-02" rms="0.0000000000000000e+00" purity="-8.4368653595447540e-02" nType="-99"/>
        </Node>
        <Node pos="r" depth="1" NCoef="0" IVar="2" Cut="1.6474443674087524e+00" cType="1" res="3.6765456199645996e-02" rms="2.3048472404479980e-01" purity="8.5911345481872559e-01" nType="0">
          <Node pos="l" depth="2" NCoef="0" IVar="-1" Cut="0.0000000000000000e+00" cType="1" res="-2.8823257889598608e-03" rms="2.5350722670555115e-01" purity="4.2729979753494263e-01" nType="-99"/>
          <Node pos="r" depth="2" NCoef="0" IVar="-1" Cut="0.0000000000000000e+00" cType="1" res="1.1188500793650746e-03" rms="2.2571374475955963e-01" purity="8.8421761989593506e-01" nType="-99"/>
        </Node>
      </Node>
    </BinaryTree>
    <BinaryTree type="DecisionTree" boostWeight="1.0000000000000000e+00" itree="949">
      <Node pos="s" depth="0" NCoef="0" IVar="35" Cut="-1.4541386365890503e+00" cType="1" res="1.5670144930481911e-02" rms="2.2793899476528168e-01" purity="5.0593745708465576e-01" nType="0">
        <Node pos="l" depth="1" NCoef="0" IVar="33" Cut="1.2345679104328156e-02" cType="1" res="-4.1860949248075485e-02" rms="1.7500959336757660e-01" purity="2.6708576083183289e-01" nType="0">
          <Node pos="l" depth="2" NCoef="0" IVar="-1" Cut="0.0000000000000000e+00" cType="1" res="-8.8378973305225372e-03" rms="1.1818122118711472e-01" purity="8.1417247653007507e-02" nType="-99"/>
          <Node pos="r" depth="2" NCoef="0" IVar="-1" Cut="0.0000000000000000e+00" cType="1" res="-6.4828334143385291e-04" rms="1.9693033397197723e-01" purity="3.7637618184089661e-01" nType="-99"/>
        </Node>
        <Node pos="r" depth="1" NCoef="0" IVar="17" Cut="1.0205157995223999e+00" cType="1" res="2.5905689224600792e-02" rms="2.3464241623878479e-01" purity="5.4843235015869141e-01" nType="0">
          <Node pos="l" depth="2" NCoef="0" IVar="-1" Cut="0.0000000000000000e+00" cType="1" res="-1.6790520399808884e-02" rms="0.0000000000000000e+00" purity="-1.1182455345988274e-02" nType="-99"/>
          <Node pos="r" depth="2" NCoef="0" IVar="-1" Cut="0.0000000000000000e+00" cType="1" res="8.2077877596020699e-04" rms="2.7023592591285706e-01" purity="7.0596355199813843e-01" nType="-99"/>
        </Node>
      </Node>
    </BinaryTree>
    <BinaryTree type="DecisionTree" boostWeight="1.0000000000000000e+00" itree="950">
      <Node pos="s" depth="0" NCoef="0" IVar="56" Cut="-1.3383041620254517e+00" cType="1" res="9.7942175343632698e-03" rms="2.2650440037250519e-01" purity="4.9629038572311401e-01" nType="0">
        <Node pos="l" depth="1" NCoef="0" IVar="27" Cut="8.7602221965789795e-01" cType="1" res="3.0786156654357910e-02" rms="2.4286077916622162e-01" purity="5.5194008350372314e-01" nType="0">
          <Node pos="l" depth="2" NCoef="0" IVar="-1" Cut="0.0000000000000000e+00" cType="1" res="-6.6039790399372578e-03" rms="0.0000000000000000e+00" purity="7.0627793669700623e-02" nType="-99"/>
          <Node pos="r" depth="2" NCoef="0" IVar="-1" Cut="0.0000000000000000e+00" cType="1" res="9.8266289569437504e-04" rms="2.5116950273513794e-01" purity="5.8431220054626465e-01" nType="-99"/>
        </Node>
        <Node pos="r" depth="1" NCoef="0" IVar="15" Cut="1.5219346284866333e+00" cType="1" res="-2.5570370256900787e-02" rms="1.9072960317134857e-01" purity="4.0253874659538269e-01" nType="0">
          <Node pos="l" depth="2" NCoef="0" IVar="-1" Cut="0.0000000000000000e+00" cType="1" res="-3.0852330382913351e-04" rms="1.7749778926372528e-01" purity="4.2015245556831360e-01" nType="-99"/>
          <Node pos="r" depth="2" NCoef="0" IVar="-1" Cut="0.0000000000000000e+00" cType="1" res="-5.2421111613512039e-03" rms="2.4100333452224731e-01" purity="2.2506558895111084e-01" nType="-99"/>
        </Node>
      </Node>
    </BinaryTree>
    <BinaryTree type="DecisionTree" boostWeight="1.0000000000000000e+00" itree="951">
      <Node pos="s" depth="0" NCoef="0" IVar="35" Cut="-1.3767204284667969e+00" cType="1" res="1.5860540792346001e-02" rms="2.3355248570442200e-01" purity="5.0251257419586182e-01" nType="0">
        <Node pos="l" depth="1" NCoef="0" IVar="2" Cut="3.2903978824615479e+00" cType="1" res="-2.8788482770323753e-02" rms="1.8824437260627747e-01" purity="3.5499897599220276e-01" nType="0">
          <Node pos="l" depth="2" NCoef="0" IVar="-1" Cut="0.0000000000000000e+00" cType="1" res="-1.6934592276811600e-03" rms="1.7374600470066071e-01" purity="3.0710095167160034e-01" nType="-99"/>
          <Node pos="r" depth="2" NCoef="0" IVar="-1" Cut="0.0000000000000000e+00" cType="1" res="1.1866015847772360e-03" rms="2.6122838258743286e-01" purity="7.2165721654891968e-01" nType="-99"/>
        </Node>
        <Node pos="r" depth="1" NCoef="0" IVar="58" Cut="1.1999490261077881e+00" cType="1" res="3.1327463686466217e-02" rms="2.4543260037899017e-01" purity="5.5361294746398926e-01" nType="0">
          <Node pos="l" depth="2" NCoef="0" IVar="-1" Cut="0.0000000000000000e+00" cType="1" res="9.4732578145340085e-04" rms="2.4810400605201721e-01" purity="5.6547856330871582e-01" nType="-99"/>
          <Node pos="r" depth="2" NCoef="0" IVar="-1" Cut="0.0000000000000000e+00" cType="1" res="-3.0493775848299265e-03" rms="1.2823662161827087e-01" purity="3.1365662813186646e-01" nType="-99"/>
        </Node>
      </Node>
    </BinaryTree>
    <BinaryTree type="DecisionTree" boostWeight="1.0000000000000000e+00" itree="952">
      <Node pos="s" depth="0" NCoef="0" IVar="14" Cut="-1.1445994377136230e+00" cType="1" res="2.0463412627577782e-02" rms="2.3563218116760254e-01" purity="5.1787960529327393e-01" nType="0">
        <Node pos="l" depth="1" NCoef="0" IVar="58" Cut="-8.7633305788040161e-01" cType="1" res="-1.3901885598897934e-02" rms="2.1063977479934692e-01" purity="3.6990335583686829e-01" nType="0">
          <Node pos="l" depth="2" NCoef="0" IVar="-1" Cut="0.0000000000000000e+00" cType="1" res="4.1860702913254499e-04" rms="2.4258756637573242e-01" purity="4.3806657195091248e-01" nType="-99"/>
          <Node pos="r" depth="2" NCoef="0" IVar="-1" Cut="0.0000000000000000e+00" cType="1" res="-2.4333689361810684e-03" rms="1.1520722508430481e-01" purity="2.4330133199691772e-01" nType="-99"/>
        </Node>
        <Node pos="r" depth="1" NCoef="0" IVar="39" Cut="-1.1675767898559570e+00" cType="1" res="4.3346129357814789e-02" rms="2.4827247858047485e-01" purity="6.1641210317611694e-01" nType="0">
          <Node pos="l" depth="2" NCoef="0" IVar="-1" Cut="0.0000000000000000e+00" cType="1" res="1.3165617128834128e-03" rms="2.5261044502258301e-01" purity="6.4864879846572876e-01" nType="-99"/>
          <Node pos="r" depth="2" NCoef="0" IVar="-1" Cut="0.0000000000000000e+00" cType="1" res="-1.7544369911774993e-03" rms="1.9577512145042419e-01" purity="3.8776117563247681e-01" nType="-99"/>
        </Node>
      </Node>
    </BinaryTree>
    <BinaryTree type="DecisionTree" boostWeight="1.0000000000000000e+00" itree="953">
      <Node pos="s" depth="0" NCoef="0" IVar="6" Cut="1.1487928628921509e+00" cType="1" res="-8.5454212967306376e-04" rms="2.1046449244022369e-01" purity="4.9459257721900940e-01" nType="0">
        <Node pos="l" depth="1" NCoef="0" IVar="61" Cut="6.0586971044540405e-01" cType="1" res="-5.1262662746012211e-03" rms="0.0000000000000000e+00" purity="3.6143906414508820e-02" nType="-99"/>
        <Node pos="r" depth="1" NCoef="0" IVar="68" Cut="1.2345679104328156e-02" cType="1" res="9.2129120603203773e-03" rms="2.2354482114315033e-01" purity="5.3990840911865234e-01" nType="0">
          <Node pos="l" depth="2" NCoef="0" IVar="-1" Cut="0.0000000000000000e+00" cType="1" res="4.3019294389523566e-04" rms="2.2574058175086975e-01" purity="5.5299091339111328e-01" nType="-99"/>
          <Node pos="r" depth="2" NCoef="0" IVar="-1" Cut="0.0000000000000000e+00" cType="1" res="-3.7786019966006279e-03" rms="9.9397562444210052e-02" purity="2.6526793837547302e-01" nType="-99"/>
        </Node>
      </Node>
    </BinaryTree>
    <BinaryTree type="DecisionTree" boostWeight="1.0000000000000000e+00" itree="954">
      <Node pos="s" depth="0" NCoef="0" IVar="8" Cut="-1.4349571466445923e+00" cType="1" res="1.1554324068129063e-02" rms="2.1649342775344849e-01" purity="5.0508505105972290e-01" nType="0">
        <Node pos="l" depth="1" NCoef="0" IVar="15" Cut="1.5219346284866333e+00" cType="1" res="1.8237723037600517e-02" rms="2.2051064670085907e-01" purity="5.2824163436889648e-01" nType="0">
          <Node pos="l" depth="2" NCoef="0" IVar="-1" Cut="0.0000000000000000e+00" cType="1" res="7.9696706961840391e-04" rms="2.0839643478393555e-01" purity="5.3599238395690918e-01" nType="-99"/>
          <Node pos="r" depth="2" NCoef="0" IVar="-1" Cut="0.0000000000000000e+00" cType="1" res="-1.3386460486799479e-03" rms="2.8732818365097046e-01" purity="4.6605703234672546e-01" nType="-99"/>
        </Node>
        <Node pos="r" depth="1" NCoef="0" IVar="39" Cut="-1.6518975496292114e+00" cType="1" res="-4.7808950766921043e-03" rms="0.0000000000000000e+00" purity="6.0741100460290909e-02" nType="-99"/>
      </Node>
    </BinaryTree>
    <BinaryTree type="DecisionTree" boostWeight="1.0000000000000000e+00" itree="955">
      <Node pos="s" depth="0" NCoef="0" IVar="14" Cut="-7.1940267086029053e-01" cType="1" res="1.4649645425379276e-02" rms="2.2354155778884888e-01" purity="5.1135540008544922e-01" nType="0">
        <Node pos="l" depth="1" NCoef="0" IVar="6" Cut="2.4657340049743652e+00" cType="1" res="-7.0288842543959618e-03" rms="1.9996808469295502e-01" purity="4.4777643680572510e-01" nType="0">
          <Node pos="l" depth="2" NCoef="0" IVar="-1" Cut="0.0000000000000000e+00" cType="1" res="-1.2990575050935149e-03" rms="1.6015046834945679e-01" purity="2.8943857550621033e-01" nType="-99"/>
          <Node pos="r" depth="2" NCoef="0" IVar="-1" Cut="0.0000000000000000e+00" cType="1" res="6.7277660127729177e-04" rms="2.3197273910045624e-01" purity="6.2184309959411621e-01" nType="-99"/>
        </Node>
        <Node pos="r" depth="1" NCoef="0" IVar="0" Cut="8.9590585231781006e-01" cType="1" res="4.4018913060426712e-02" rms="2.4899195134639740e-01" purity="5.9748989343643188e-01" nType="0">
          <Node pos="l" depth="2" NCoef="0" IVar="-1" Cut="0.0000000000000000e+00" cType="1" res="1.5072559472173452e-03" rms="2.6309627294540405e-01" purity="6.2685137987136841e-01" nType="-99"/>
          <Node pos="r" depth="2" NCoef="0" IVar="-1" Cut="0.0000000000000000e+00" cType="1" res="-8.9774618390947580e-04" rms="1.5016163885593414e-01" purity="4.7135114669799805e-01" nType="-99"/>
        </Node>
      </Node>
    </BinaryTree>
    <BinaryTree type="DecisionTree" boostWeight="1.0000000000000000e+00" itree="956">
      <Node pos="s" depth="0" NCoef="0" IVar="2" Cut="8.3866769075393677e-01" cType="1" res="1.2483944883570075e-03" rms="2.1230597794055939e-01" purity="4.9619999527931213e-01" nType="0">
        <Node pos="l" depth="1" NCoef="0" IVar="-1" Cut="0.0000000000000000e+00" cType="1" res="-2.0893225446343422e-02" rms="0.0000000000000000e+00" purity="-7.7848635613918304e-02" nType="-99"/>
        <Node pos="r" depth="1" NCoef="0" IVar="5" Cut="2.8323230147361755e-01" cType="1" res="5.8262618258595467e-03" rms="2.1826535463333130e-01" purity="5.1135408878326416e-01" nType="0">
          <Node pos="l" depth="2" NCoef="0" IVar="-1" Cut="0.0000000000000000e+00" cType="1" res="9.1274094302207232e-04" rms="2.0495094358921051e-01" purity="6.7041301727294922e-01" nType="-99"/>
          <Node pos="r" depth="2" NCoef="0" IVar="-1" Cut="0.0000000000000000e+00" cType="1" res="-5.0313986139371991e-04" rms="2.3049689829349518e-01" purity="3.1798607110977173e-01" nType="-99"/>
        </Node>
      </Node>
    </BinaryTree>
    <BinaryTree type="DecisionTree" boostWeight="1.0000000000000000e+00" itree="957">
      <Node pos="s" depth="0" NCoef="0" IVar="52" Cut="2.3821585178375244e+00" cType="1" res="1.2921657413244247e-02" rms="2.3335358500480652e-01" purity="4.9607485532760620e-01" nType="0">
        <Node pos="l" depth="1" NCoef="0" IVar="14" Cut="-7.9671114683151245e-01" cType="1" res="-2.3680862504988909e-03" rms="0.0000000000000000e+00" purity="1.8329650163650513e-01" nType="-99"/>
        <Node pos="r" depth="1" NCoef="0" IVar="52" Cut="3.2399773597717285e+00" cType="1" res="2.2322542965412140e-02" rms="2.4383626878261566e-01" purity="5.2763170003890991e-01" nType="0">
          <Node pos="l" depth="2" NCoef="0" IVar="-1" Cut="0.0000000000000000e+00" cType="1" res="1.0515913600102067e-03" rms="2.4950550496578217e-01" purity="5.5695593357086182e-01" nType="-99"/>
          <Node pos="r" depth="2" NCoef="0" IVar="-1" Cut="0.0000000000000000e+00" cType="1" res="-7.1439315797761083e-04" rms="2.2035129368305206e-01" purity="4.4427451491355896e-01" nType="-99"/>
        </Node>
      </Node>
    </BinaryTree>
    <BinaryTree type="DecisionTree" boostWeight="1.0000000000000000e+00" itree="958">
      <Node pos="s" depth="0" NCoef="0" IVar="31" Cut="2.6478834152221680e+00" cType="1" res="6.0555497184395790e-03" rms="2.2252297401428223e-01" purity="4.9266403913497925e-01" nType="0">
        <Node pos="l" depth="1" NCoef="0" IVar="17" Cut="1.4433934688568115e+00" cType="1" res="-6.4744800329208374e-02" rms="1.4238381385803223e-01" purity="1.2445444613695145e-01" nType="0">
          <Node pos="l" depth="2" NCoef="0" IVar="-1" Cut="0.0000000000000000e+00" cType="1" res="-9.9679157137870789e-03" rms="0.0000000000000000e+00" purity="-5.4224575869739056e-03" nType="-99"/>
          <Node pos="r" depth="2" NCoef="0" IVar="-1" Cut="0.0000000000000000e+00" cType="1" res="-3.6486415192484856e-03" rms="2.2747232019901276e-01" purity="2.7732589840888977e-01" nType="-99"/>
        </Node>
        <Node pos="r" depth="1" NCoef="0" IVar="17" Cut="1.5231137275695801e+00" cType="1" res="1.5511133708059788e-02" rms="2.2948449850082397e-01" purity="5.4183942079544067e-01" nType="0">
          <Node pos="l" depth="2" NCoef="0" IVar="-1" Cut="0.0000000000000000e+00" cType="1" res="-1.7955737712327391e-04" rms="2.3449377715587616e-01" purity="2.9415252804756165e-01" nType="-99"/>
          <Node pos="r" depth="2" NCoef="0" IVar="-1" Cut="0.0000000000000000e+00" cType="1" res="1.1278028832748532e-03" rms="2.1795719861984253e-01" purity="9.0360224246978760e-01" nType="-99"/>
        </Node>
      </Node>
    </BinaryTree>
    <BinaryTree type="DecisionTree" boostWeight="1.0000000000000000e+00" itree="959">
      <Node pos="s" depth="0" NCoef="0" IVar="52" Cut="2.4742026329040527e+00" cType="1" res="1.0367091745138168e-02" rms="2.1795535087585449e-01" purity="5.0973808765411377e-01" nType="0">
        <Node pos="l" depth="1" NCoef="0" IVar="35" Cut="-1.0484207421541214e-01" cType="1" res="-5.2480109035968781e-02" rms="1.2874743342399597e-01" purity="2.6835715770721436e-01" nType="0">
          <Node pos="l" depth="2" NCoef="0" IVar="-1" Cut="0.0000000000000000e+00" cType="1" res="-4.6841424773447216e-04" rms="2.0350588858127594e-01" purity="3.2890608906745911e-01" nType="-99"/>
          <Node pos="r" depth="2" NCoef="0" IVar="-1" Cut="0.0000000000000000e+00" cType="1" res="-6.2373820692300797e-03" rms="0.0000000000000000e+00" purity="9.0683978050947189e-03" nType="-99"/>
        </Node>
        <Node pos="r" depth="1" NCoef="0" IVar="5" Cut="2.9218301177024841e-01" cType="1" res="2.0230177789926529e-02" rms="2.2724711894989014e-01" purity="5.4761981964111328e-01" nType="0">
          <Node pos="l" depth="2" NCoef="0" IVar="-1" Cut="0.0000000000000000e+00" cType="1" res="1.4208174543455243e-03" rms="1.9906751811504364e-01" purity="7.3018676042556763e-01" nType="-99"/>
          <Node pos="r" depth="2" NCoef="0" IVar="-1" Cut="0.0000000000000000e+00" cType="1" res="-1.6901381604839116e-04" rms="2.5437033176422119e-01" purity="3.2775452733039856e-01" nType="-99"/>
        </Node>
      </Node>
    </BinaryTree>
    <BinaryTree type="DecisionTree" boostWeight="1.0000000000000000e+00" itree="960">
      <Node pos="s" depth="0" NCoef="0" IVar="0" Cut="6.2242734432220459e-01" cType="1" res="9.1515807434916496e-03" rms="2.2326926887035370e-01" purity="4.9538427591323853e-01" nType="0">
        <Node pos="l" depth="1" NCoef="0" IVar="3" Cut="5.3112864494323730e+00" cType="1" res="3.3113166689872742e-02" rms="2.3731437325477600e-01" purity="5.7006102800369263e-01" nType="0">
          <Node pos="l" depth="2" NCoef="0" IVar="-1" Cut="0.0000000000000000e+00" cType="1" res="6.3352461438626051e-04" rms="2.2481033205986023e-01" purity="5.7040506601333618e-01" nType="-99"/>
          <Node pos="r" depth="2" NCoef="0" IVar="-1" Cut="0.0000000000000000e+00" cType="1" res="5.6996867060661316e-03" rms="3.5594350099563599e-01" purity="5.6300216913223267e-01" nType="-99"/>
        </Node>
        <Node pos="r" depth="1" NCoef="0" IVar="2" Cut="2.6029756069183350e+00" cType="1" res="-2.1629516035318375e-02" rms="1.9963493943214417e-01" purity="3.9945438504219055e-01" nType="0">
          <Node pos="l" depth="2" NCoef="0" IVar="-1" Cut="0.0000000000000000e+00" cType="1" res="-1.7166687175631523e-03" rms="1.5759018063545227e-01" purity="2.3751264810562134e-01" nType="-99"/>
          <Node pos="r" depth="2" NCoef="0" IVar="-1" Cut="0.0000000000000000e+00" cType="1" res="3.0777798383496702e-04" rms="2.3901532590389252e-01" purity="6.0819250345230103e-01" nType="-99"/>
        </Node>
      </Node>
    </BinaryTree>
    <BinaryTree type="DecisionTree" boostWeight="1.0000000000000000e+00" itree="961">
      <Node pos="s" depth="0" NCoef="0" IVar="18" Cut="-8.4687995910644531e-01" cType="1" res="1.6147293150424957e-02" rms="2.3601855337619781e-01" purity="4.9101972579956055e-01" nType="0">
        <Node pos="l" depth="1" NCoef="0" IVar="15" Cut="1.5225218534469604e+00" cType="1" res="2.1817922592163086e-02" rms="2.3896765708923340e-01" purity="5.1136672496795654e-01" nType="0">
          <Node pos="l" depth="2" NCoef="0" IVar="-1" Cut="0.0000000000000000e+00" cType="1" res="8.7484292453154922e-04" rms="2.2597429156303406e-01" purity="5.1606035232543945e-01" nType="-99"/>
          <Node pos="r" depth="2" NCoef="0" IVar="-1" Cut="0.0000000000000000e+00" cType="1" res="-1.0078803170472383e-03" rms="3.1443488597869873e-01" purity="4.7418463230133057e-01" nType="-99"/>
        </Node>
        <Node pos="r" depth="1" NCoef="0" IVar="17" Cut="1.3994907140731812e+00" cType="1" res="-9.4554163515567780e-02" rms="1.2440358847379684e-01" purity="9.3808248639106750e-02" nType="0">
          <Node pos="l" depth="2" NCoef="0" IVar="-1" Cut="0.0000000000000000e+00" cType="1" res="-4.2020328342914581e-02" rms="0.0000000000000000e+00" purity="-1.5533240512013435e-02" nType="-99"/>
          <Node pos="r" depth="2" NCoef="0" IVar="-1" Cut="0.0000000000000000e+00" cType="1" res="-5.0867358222603798e-03" rms="1.8803507089614868e-01" purity="2.0666967332363129e-01" nType="-99"/>
        </Node>
      </Node>
    </BinaryTree>
    <BinaryTree type="DecisionTree" boostWeight="1.0000000000000000e+00" itree="962">
      <Node pos="s" depth="0" NCoef="0" IVar="5" Cut="3.4117272496223450e-01" cType="1" res="5.3285676985979080e-03" rms="2.1635235846042633e-01" purity="4.9306103587150574e-01" nType="0">
        <Node pos="l" depth="1" NCoef="0" IVar="36" Cut="1.3681474924087524e+00" cType="1" res="2.8132237493991852e-02" rms="2.0079757273197174e-01" purity="6.4217501878738403e-01" nType="0">
          <Node pos="l" depth="2" NCoef="0" IVar="-1" Cut="0.0000000000000000e+00" cType="1" res="-2.1853905636817217e-03" rms="1.0136103630065918e-01" purity="1.1061460524797440e-01" nType="-99"/>
          <Node pos="r" depth="2" NCoef="0" IVar="-1" Cut="0.0000000000000000e+00" cType="1" res="1.2651329161599278e-03" rms="2.1839810907840729e-01" purity="7.9952794313430786e-01" nType="-99"/>
        </Node>
        <Node pos="r" depth="1" NCoef="0" IVar="52" Cut="3.1189732551574707e+00" cType="1" res="-3.4913267940282822e-02" rms="2.3605489730834961e-01" purity="2.2991807758808136e-01" nType="0">
          <Node pos="l" depth="2" NCoef="0" IVar="-1" Cut="0.0000000000000000e+00" cType="1" res="3.6847681622020900e-04" rms="2.7576673030853271e-01" purity="2.8886705636978149e-01" nType="-99"/>
          <Node pos="r" depth="2" NCoef="0" IVar="-1" Cut="0.0000000000000000e+00" cType="1" res="-2.8198854997754097e-03" rms="1.3389645516872406e-01" purity="1.4626443386077881e-01" nType="-99"/>
        </Node>
      </Node>
    </BinaryTree>
    <BinaryTree type="DecisionTree" boostWeight="1.0000000000000000e+00" itree="963">
      <Node pos="s" depth="0" NCoef="0" IVar="0" Cut="6.8038749694824219e-01" cType="1" res="3.9206650108098984e-03" rms="2.1462944149971008e-01" purity="4.9050635099411011e-01" nType="0">
        <Node pos="l" depth="1" NCoef="0" IVar="3" Cut="5.1372990608215332e+00" cType="1" res="2.5797361508011818e-02" rms="2.3229233920574188e-01" purity="5.4944479465484619e-01" nType="0">
          <Node pos="l" depth="2" NCoef="0" IVar="-1" Cut="0.0000000000000000e+00" cType="1" res="4.7874759184196591e-04" rms="2.3025357723236084e-01" purity="5.4949724674224854e-01" nType="-99"/>
          <Node pos="r" depth="2" NCoef="0" IVar="-1" Cut="0.0000000000000000e+00" cType="1" res="2.4768591392785311e-03" rms="2.3629511892795563e-01" purity="5.4896479845046997e-01" nType="-99"/>
        </Node>
        <Node pos="r" depth="1" NCoef="0" IVar="5" Cut="3.0299681425094604e-01" cType="1" res="-3.0476117506623268e-02" rms="1.7809695005416870e-01" purity="3.9783719182014465e-01" nType="0">
          <Node pos="l" depth="2" NCoef="0" IVar="-1" Cut="0.0000000000000000e+00" cType="1" res="1.1526977323228493e-04" rms="1.9292464852333069e-01" purity="5.6499475240707397e-01" nType="-99"/>
          <Node pos="r" depth="2" NCoef="0" IVar="-1" Cut="0.0000000000000000e+00" cType="1" res="-2.1039664279669523e-03" rms="1.4116519689559937e-01" purity="1.6001302003860474e-01" nType="-99"/>
        </Node>
      </Node>
    </BinaryTree>
    <BinaryTree type="DecisionTree" boostWeight="1.0000000000000000e+00" itree="964">
      <Node pos="s" depth="0" NCoef="0" IVar="57" Cut="2.9980644583702087e-01" cType="1" res="1.6878882423043251e-02" rms="2.3588815331459045e-01" purity="5.0850039720535278e-01" nType="0">
        <Node pos="l" depth="1" NCoef="0" IVar="25" Cut="9.8418641090393066e-01" cType="1" res="3.4280687570571899e-02" rms="2.5155133008956909e-01" purity="5.5546641349792480e-01" nType="0">
          <Node pos="l" depth="2" NCoef="0" IVar="-1" Cut="0.0000000000000000e+00" cType="1" res="1.3549963477998972e-03" rms="2.6440268754959106e-01" purity="6.0653251409530640e-01" nType="-99"/>
          <Node pos="r" depth="2" NCoef="0" IVar="-1" Cut="0.0000000000000000e+00" cType="1" res="-3.8587044400628656e-05" rms="2.2437877953052521e-01" purity="4.7149425745010376e-01" nType="-99"/>
        </Node>
        <Node pos="r" depth="1" NCoef="0" IVar="14" Cut="-2.9529681801795959e-01" cType="1" res="-4.3152820318937302e-02" rms="1.5702384710311890e-01" purity="3.4647959470748901e-01" nType="0">
          <Node pos="l" depth="2" NCoef="0" IVar="-1" Cut="0.0000000000000000e+00" cType="1" res="-5.0468550762161613e-04" rms="2.1235947310924530e-01" purity="3.5405012965202332e-01" nType="-99"/>
          <Node pos="r" depth="2" NCoef="0" IVar="-1" Cut="0.0000000000000000e+00" cType="1" res="-3.0841089319437742e-03" rms="0.0000000000000000e+00" purity="3.2584801316261292e-01" nType="-99"/>
        </Node>
      </Node>
    </BinaryTree>
    <BinaryTree type="DecisionTree" boostWeight="1.0000000000000000e+00" itree="965">
      <Node pos="s" depth="0" NCoef="0" IVar="60" Cut="-9.7998648881912231e-01" cType="1" res="1.1728391982614994e-02" rms="2.2376291453838348e-01" purity="5.0801920890808105e-01" nType="0">
        <Node pos="l" depth="1" NCoef="0" IVar="3" Cut="5.1129884719848633e+00" cType="1" res="1.9760796800255775e-02" rms="2.2926560044288635e-01" purity="5.3511303663253784e-01" nType="0">
          <Node pos="l" depth="2" NCoef="0" IVar="-1" Cut="0.0000000000000000e+00" cType="1" res="2.6764065842144191e-04" rms="2.2476294636726379e-01" purity="5.2768820524215698e-01" nType="-99"/>
          <Node pos="r" depth="2" NCoef="0" IVar="-1" Cut="0.0000000000000000e+00" cType="1" res="2.4409259203821421e-03" rms="2.4757972359657288e-01" purity="5.9008079767227173e-01" nType="-99"/>
        </Node>
        <Node pos="r" depth="1" NCoef="0" IVar="19" Cut="8.9342570304870605e-01" cType="1" res="-6.8019419908523560e-02" rms="1.3535007834434509e-01" purity="2.3902466893196106e-01" nType="0">
          <Node pos="l" depth="2" NCoef="0" IVar="-1" Cut="0.0000000000000000e+00" cType="1" res="-3.9272597059607506e-03" rms="0.0000000000000000e+00" purity="2.2746646404266357e-01" nType="-99"/>
          <Node pos="r" depth="2" NCoef="0" IVar="-1" Cut="0.0000000000000000e+00" cType="1" res="2.9621136491186917e-04" rms="2.8227359056472778e-01" purity="2.5889274477958679e-01" nType="-99"/>
        </Node>
      </Node>
    </BinaryTree>
    <BinaryTree type="DecisionTree" boostWeight="1.0000000000000000e+00" itree="966">
      <Node pos="s" depth="0" NCoef="0" IVar="17" Cut="1.5216873884201050e+00" cType="1" res="9.5511162653565407e-03" rms="2.1883785724639893e-01" purity="4.9869108200073242e-01" nType="0">
        <Node pos="l" depth="1" NCoef="0" IVar="15" Cut="1.4423943758010864e+00" cType="1" res="-1.4047454111278057e-02" rms="2.1492499113082886e-01" purity="2.4571238458156586e-01" nType="0">
          <Node pos="l" depth="2" NCoef="0" IVar="-1" Cut="0.0000000000000000e+00" cType="1" res="1.4552351785823703e-04" rms="1.9485314190387726e-01" purity="2.1411319077014923e-01" nType="-99"/>
          <Node pos="r" depth="2" NCoef="0" IVar="-1" Cut="0.0000000000000000e+00" cType="1" res="-1.1621777666732669e-03" rms="2.5959217548370361e-01" purity="3.4133908152580261e-01" nType="-99"/>
        </Node>
        <Node pos="r" depth="1" NCoef="0" IVar="15" Cut="1.5233229398727417e+00" cType="1" res="4.4398207217454910e-02" rms="2.1990820765495300e-01" purity="8.7225478887557983e-01" nType="0">
          <Node pos="l" depth="2" NCoef="0" IVar="-1" Cut="0.0000000000000000e+00" cType="1" res="1.5560718020424247e-03" rms="1.7171233892440796e-01" purity="9.3025124073028564e-01" nType="-99"/>
          <Node pos="r" depth="2" NCoef="0" IVar="-1" Cut="0.0000000000000000e+00" cType="1" res="-1.1408266436774284e-04" rms="3.4889993071556091e-01" purity="6.3661885261535645e-01" nType="-99"/>
        </Node>
      </Node>
    </BinaryTree>
    <BinaryTree type="DecisionTree" boostWeight="1.0000000000000000e+00" itree="967">
      <Node pos="s" depth="0" NCoef="0" IVar="2" Cut="2.5394854545593262e+00" cType="1" res="8.2850689068436623e-03" rms="2.1402205526828766e-01" purity="5.0038623809814453e-01" nType="0">
        <Node pos="l" depth="1" NCoef="0" IVar="34" Cut="1.2073776721954346e+00" cType="1" res="-2.2329580038785934e-02" rms="1.7864374816417694e-01" purity="3.3082115650177002e-01" nType="0">
          <Node pos="l" depth="2" NCoef="0" IVar="-1" Cut="0.0000000000000000e+00" cType="1" res="1.3215483631938696e-03" rms="2.0088915526866913e-01" purity="2.8753867745399475e-01" nType="-99"/>
          <Node pos="r" depth="2" NCoef="0" IVar="-1" Cut="0.0000000000000000e+00" cType="1" res="-1.4530493644997478e-03" rms="1.6272737085819244e-01" purity="3.4865257143974304e-01" nType="-99"/>
        </Node>
        <Node pos="r" depth="1" NCoef="0" IVar="36" Cut="-8.3537679910659790e-01" cType="1" res="4.0748469531536102e-02" rms="2.4184386432170868e-01" purity="6.8019104003906250e-01" nType="0">
          <Node pos="l" depth="2" NCoef="0" IVar="-1" Cut="0.0000000000000000e+00" cType="1" res="-1.6468260437250137e-02" rms="0.0000000000000000e+00" purity="-2.1868249401450157e-02" nType="-99"/>
          <Node pos="r" depth="2" NCoef="0" IVar="-1" Cut="0.0000000000000000e+00" cType="1" res="1.0795086855068803e-03" rms="2.4977158010005951e-01" purity="7.2429823875427246e-01" nType="-99"/>
        </Node>
      </Node>
    </BinaryTree>
    <BinaryTree type="DecisionTree" boostWeight="1.0000000000000000e+00" itree="968">
      <Node pos="s" depth="0" NCoef="0" IVar="48" Cut="9.5402419567108154e-01" cType="1" res="1.0833861306309700e-02" rms="2.2300754487514496e-01" purity="4.9803650379180908e-01" nType="0">
        <Node pos="l" depth="1" NCoef="0" IVar="55" Cut="-8.4008651971817017e-01" cType="1" res="-2.6359839830547571e-03" rms="0.0000000000000000e+00" purity="5.3510945290327072e-02" nType="-99"/>
        <Node pos="r" depth="1" NCoef="0" IVar="22" Cut="1.2345679104328156e-02" cType="1" res="2.1043939515948296e-02" rms="2.3534573614597321e-01" purity="5.5036246776580811e-01" nType="0">
          <Node pos="l" depth="2" NCoef="0" IVar="-1" Cut="0.0000000000000000e+00" cType="1" res="3.5864887759089470e-03" rms="3.2306039333343506e-01" purity="4.3330013751983643e-01" nType="-99"/>
          <Node pos="r" depth="2" NCoef="0" IVar="-1" Cut="0.0000000000000000e+00" cType="1" res="3.8550223689526320e-04" rms="2.2749178111553192e-01" purity="5.5692034959793091e-01" nType="-99"/>
        </Node>
      </Node>
    </BinaryTree>
    <BinaryTree type="DecisionTree" boostWeight="1.0000000000000000e+00" itree="969">
      <Node pos="s" depth="0" NCoef="0" IVar="59" Cut="3.9940205216407776e-01" cType="1" res="1.7870683223009109e-02" rms="2.2843810915946960e-01" purity="5.0569087266921997e-01" nType="0">
        <Node pos="l" depth="1" NCoef="0" IVar="3" Cut="5.0729446411132812e+00" cType="1" res="3.6392185837030411e-02" rms="2.4529531598091125e-01" purity="5.5607140064239502e-01" nType="0">
          <Node pos="l" depth="2" NCoef="0" IVar="-1" Cut="0.0000000000000000e+00" cType="1" res="6.2192685436457396e-04" rms="2.3781462013721466e-01" purity="5.4861670732498169e-01" nType="-99"/>
          <Node pos="r" depth="2" NCoef="0" IVar="-1" Cut="0.0000000000000000e+00" cType="1" res="2.5683047715574503e-03" rms="2.7411448955535889e-01" purity="5.9905046224594116e-01" nType="-99"/>
        </Node>
        <Node pos="r" depth="1" NCoef="0" IVar="55" Cut="1.2069830894470215e+00" cType="1" res="-2.3765536025166512e-02" rms="1.7812119424343109e-01" purity="3.9243566989898682e-01" nType="0">
          <Node pos="l" depth="2" NCoef="0" IVar="-1" Cut="0.0000000000000000e+00" cType="1" res="-7.3050898499786854e-03" rms="0.0000000000000000e+00" purity="1.0356849431991577e-01" nType="-99"/>
          <Node pos="r" depth="2" NCoef="0" IVar="-1" Cut="0.0000000000000000e+00" cType="1" res="-3.1267601298168302e-04" rms="1.9839459657669067e-01" purity="4.1516074538230896e-01" nType="-99"/>
        </Node>
      </Node>
    </BinaryTree>
    <BinaryTree type="DecisionTree" boostWeight="1.0000000000000000e+00" itree="970">
      <Node pos="s" depth="0" NCoef="0" IVar="22" Cut="1.2345679104328156e-02" cType="1" res="1.6871079802513123e-02" rms="2.3547823727130890e-01" purity="5.0602626800537109e-01" nType="0">
        <Node pos="l" depth="1" NCoef="0" IVar="61" Cut="6.9322592020034790e-01" cType="1" res="1.2076622992753983e-01" rms="3.1728270649909973e-01" purity="3.5634386539459229e-01" nType="0">
          <Node pos="l" depth="2" NCoef="0" IVar="-1" Cut="0.0000000000000000e+00" cType="1" res="6.0396706685423851e-03" rms="3.7703800201416016e-01" purity="5.2874493598937988e-01" nType="-99"/>
          <Node pos="r" depth="2" NCoef="0" IVar="-1" Cut="0.0000000000000000e+00" cType="1" res="8.7816693121567369e-04" rms="2.2550109028816223e-01" purity="2.3439428210258484e-01" nType="-99"/>
        </Node>
        <Node pos="r" depth="1" NCoef="0" IVar="5" Cut="4.3436396121978760e-01" cType="1" res="1.0918616317212582e-02" rms="2.2848510742187500e-01" purity="5.1460200548171997e-01" nType="0">
          <Node pos="l" depth="2" NCoef="0" IVar="-1" Cut="0.0000000000000000e+00" cType="1" res="7.6023710425943136e-04" rms="2.2238525748252869e-01" purity="6.1685907840728760e-01" nType="-99"/>
          <Node pos="r" depth="2" NCoef="0" IVar="-1" Cut="0.0000000000000000e+00" cType="1" res="-8.1836793106049299e-04" rms="2.4009425938129425e-01" purity="2.0787821710109711e-01" nType="-99"/>
        </Node>
      </Node>
    </BinaryTree>
    <BinaryTree type="DecisionTree" boostWeight="1.0000000000000000e+00" itree="971">
      <Node pos="s" depth="0" NCoef="0" IVar="0" Cut="6.4749765396118164e-01" cType="1" res="1.2103579938411713e-02" rms="2.2529782354831696e-01" purity="5.0554066896438599e-01" nType="0">
        <Node pos="l" depth="1" NCoef="0" IVar="2" Cut="1.5314806699752808e+00" cType="1" res="3.6383230239152908e-02" rms="2.3838900029659271e-01" purity="5.7152670621871948e-01" nType="0">
          <Node pos="l" depth="2" NCoef="0" IVar="-1" Cut="0.0000000000000000e+00" cType="1" res="-4.5212861150503159e-03" rms="1.6526280343532562e-01" purity="8.3567410707473755e-02" nType="-99"/>
          <Node pos="r" depth="2" NCoef="0" IVar="-1" Cut="0.0000000000000000e+00" cType="1" res="1.1480402899906039e-03" rms="2.4282665550708771e-01" purity="6.2307149171829224e-01" nType="-99"/>
        </Node>
        <Node pos="r" depth="1" NCoef="0" IVar="5" Cut="3.1934264302253723e-01" cType="1" res="-2.1912505850195885e-02" rms="2.0067805051803589e-01" purity="4.1309344768524170e-01" nType="0">
          <Node pos="l" depth="2" NCoef="0" IVar="-1" Cut="0.0000000000000000e+00" cType="1" res="1.8681498477235436e-04" rms="2.0484869182109833e-01" purity="5.6533622741699219e-01" nType="-99"/>
          <Node pos="r" depth="2" NCoef="0" IVar="-1" Cut="0.0000000000000000e+00" cType="1" res="-1.6833049012348056e-03" rms="1.8580877780914307e-01" purity="1.7330284416675568e-01" nType="-99"/>
        </Node>
      </Node>
    </BinaryTree>
    <BinaryTree type="DecisionTree" boostWeight="1.0000000000000000e+00" itree="972">
      <Node pos="s" depth="0" NCoef="0" IVar="14" Cut="-1.1447483301162720e+00" cType="1" res="1.0005422867834568e-02" rms="2.2328484058380127e-01" purity="4.9410685896873474e-01" nType="0">
        <Node pos="l" depth="1" NCoef="0" IVar="5" Cut="3.3992400765419006e-01" cType="1" res="-2.4428633973002434e-02" rms="1.8794883787631989e-01" purity="3.4389770030975342e-01" nType="0">
          <Node pos="l" depth="2" NCoef="0" IVar="-1" Cut="0.0000000000000000e+00" cType="1" res="2.4040574498940259e-04" rms="2.0352737605571747e-01" purity="5.4324012994766235e-01" nType="-99"/>
          <Node pos="r" depth="2" NCoef="0" IVar="-1" Cut="0.0000000000000000e+00" cType="1" res="-1.6368678770959377e-03" rms="1.6670808196067810e-01" purity="1.5525856614112854e-01" nType="-99"/>
        </Node>
        <Node pos="r" depth="1" NCoef="0" IVar="68" Cut="1.2345679104328156e-02" cType="1" res="3.2753244042396545e-02" rms="2.4115359783172607e-01" purity="5.9333795309066772e-01" nType="0">
          <Node pos="l" depth="2" NCoef="0" IVar="-1" Cut="0.0000000000000000e+00" cType="1" res="1.0125326225534081e-03" rms="2.4132211506366730e-01" purity="6.0619390010833740e-01" nType="-99"/>
          <Node pos="r" depth="2" NCoef="0" IVar="-1" Cut="0.0000000000000000e+00" cType="1" res="-3.7626207340508699e-03" rms="1.5548515319824219e-01" purity="2.7334272861480713e-01" nType="-99"/>
        </Node>
      </Node>
    </BinaryTree>
    <BinaryTree type="DecisionTree" boostWeight="1.0000000000000000e+00" itree="973">
      <Node pos="s" depth="0" NCoef="0" IVar="36" Cut="1.0586524009704590e+00" cType="1" res="1.3700316660106182e-02" rms="2.1952725946903229e-01" purity="5.1518785953521729e-01" nType="0">
        <Node pos="l" depth="1" NCoef="0" IVar="48" Cut="2.9293649196624756e+00" cType="1" res="-4.8958589322865009e-03" rms="0.0000000000000000e+00" purity="1.8854627385735512e-02" nType="-99"/>
        <Node pos="r" depth="1" NCoef="0" IVar="2" Cut="2.7200694084167480e+00" cType="1" res="2.6933135464787483e-02" rms="2.4747501313686371e-01" purity="6.2351852655410767e-01" nType="0">
          <Node pos="l" depth="2" NCoef="0" IVar="-1" Cut="0.0000000000000000e+00" cType="1" res="7.7709009929094464e-05" rms="2.3611406981945038e-01" purity="5.2637547254562378e-01" nType="-99"/>
          <Node pos="r" depth="2" NCoef="0" IVar="-1" Cut="0.0000000000000000e+00" cType="1" res="1.3207001611590385e-03" rms="2.5888448953628540e-01" purity="7.5948709249496460e-01" nType="-99"/>
        </Node>
      </Node>
    </BinaryTree>
    <BinaryTree type="DecisionTree" boostWeight="1.0000000000000000e+00" itree="974">
      <Node pos="s" depth="0" NCoef="0" IVar="0" Cut="7.0736372470855713e-01" cType="1" res="1.1926640756428242e-02" rms="2.2154776751995087e-01" purity="5.0734817981719971e-01" nType="0">
        <Node pos="l" depth="1" NCoef="0" IVar="15" Cut="1.5215698480606079e+00" cType="1" res="3.0401917174458504e-02" rms="2.3671545088291168e-01" purity="5.6051641702651978e-01" nType="0">
          <Node pos="l" depth="2" NCoef="0" IVar="-1" Cut="0.0000000000000000e+00" cType="1" res="1.1993471998721361e-03" rms="2.2265705466270447e-01" purity="5.6805104017257690e-01" nType="-99"/>
          <Node pos="r" depth="2" NCoef="0" IVar="-1" Cut="0.0000000000000000e+00" cType="1" res="-1.1748358374461532e-03" rms="3.1497877836227417e-01" purity="5.0048363208770752e-01" nType="-99"/>
        </Node>
        <Node pos="r" depth="1" NCoef="0" IVar="56" Cut="-4.4986823201179504e-01" cType="1" res="-1.9995082169771194e-02" rms="1.8832157552242279e-01" purity="4.1548368334770203e-01" nType="0">
          <Node pos="l" depth="2" NCoef="0" IVar="-1" Cut="0.0000000000000000e+00" cType="1" res="-3.0227804018068127e-05" rms="2.1164484322071075e-01" purity="4.5986723899841309e-01" nType="-99"/>
          <Node pos="r" depth="2" NCoef="0" IVar="-1" Cut="0.0000000000000000e+00" cType="1" res="-4.5464984141290188e-03" rms="0.0000000000000000e+00" purity="1.8173858523368835e-01" nType="-99"/>
        </Node>
      </Node>
    </BinaryTree>
    <BinaryTree type="DecisionTree" boostWeight="1.0000000000000000e+00" itree="975">
      <Node pos="s" depth="0" NCoef="0" IVar="39" Cut="-1.1679085493087769e+00" cType="1" res="8.4229856729507446e-03" rms="2.2204561531543732e-01" purity="4.9641835689544678e-01" nType="0">
        <Node pos="l" depth="1" NCoef="0" IVar="3" Cut="5.1922678947448730e+00" cType="1" res="1.9712174311280251e-02" rms="2.2985774278640747e-01" purity="5.3029793500900269e-01" nType="0">
          <Node pos="l" depth="2" NCoef="0" IVar="-1" Cut="0.0000000000000000e+00" cType="1" res="2.9774283757433295e-04" rms="2.2413840889930725e-01" purity="5.3084212541580200e-01" nType="-99"/>
          <Node pos="r" depth="2" NCoef="0" IVar="-1" Cut="0.0000000000000000e+00" cType="1" res="2.8881833422929049e-03" rms="2.6907998323440552e-01" purity="5.2369844913482666e-01" nType="-99"/>
        </Node>
        <Node pos="r" depth="1" NCoef="0" IVar="16" Cut="-1.4542271196842194e-01" cType="1" res="-6.4372882246971130e-02" rms="1.4289386570453644e-01" purity="2.7795344591140747e-01" nType="0">
          <Node pos="l" depth="2" NCoef="0" IVar="-1" Cut="0.0000000000000000e+00" cType="1" res="-1.3841446489095688e-03" rms="1.8860155344009399e-01" purity="3.5010907053947449e-01" nType="-99"/>
          <Node pos="r" depth="2" NCoef="0" IVar="-1" Cut="0.0000000000000000e+00" cType="1" res="-7.6365619897842407e-03" rms="0.0000000000000000e+00" purity="7.9443372786045074e-02" nType="-99"/>
        </Node>
      </Node>
    </BinaryTree>
    <BinaryTree type="DecisionTree" boostWeight="1.0000000000000000e+00" itree="976">
      <Node pos="s" depth="0" NCoef="0" IVar="15" Cut="1.5219346284866333e+00" cType="1" res="1.8578914925456047e-02" rms="2.3164986073970795e-01" purity="5.1146984100341797e-01" nType="0">
        <Node pos="l" depth="1" NCoef="0" IVar="17" Cut="1.4071296453475952e+00" cType="1" res="2.7741953730583191e-02" rms="2.1750649809837341e-01" purity="5.1481473445892334e-01" nType="0">
          <Node pos="l" depth="2" NCoef="0" IVar="-1" Cut="0.0000000000000000e+00" cType="1" res="-1.2939242878928781e-03" rms="8.9682005345821381e-02" purity="2.3177154362201691e-02" nType="-99"/>
          <Node pos="r" depth="2" NCoef="0" IVar="-1" Cut="0.0000000000000000e+00" cType="1" res="9.0956198982894421e-04" rms="2.5882872939109802e-01" purity="7.7421104907989502e-01" nType="-99"/>
        </Node>
        <Node pos="r" depth="1" NCoef="0" IVar="15" Cut="1.5352951288223267e+00" cType="1" res="-5.4299585521221161e-02" rms="3.1338155269622803e-01" purity="4.8486614227294922e-01" nType="0">
          <Node pos="l" depth="2" NCoef="0" IVar="-1" Cut="0.0000000000000000e+00" cType="1" res="1.0363412729930133e-04" rms="2.9580375552177429e-01" purity="6.3745594024658203e-01" nType="-99"/>
          <Node pos="r" depth="2" NCoef="0" IVar="-1" Cut="0.0000000000000000e+00" cType="1" res="-4.4596465304493904e-03" rms="3.1651788949966431e-01" purity="2.4665018916130066e-01" nType="-99"/>
        </Node>
      </Node>
    </BinaryTree>
    <BinaryTree type="DecisionTree" boostWeight="1.0000000000000000e+00" itree="977">
      <Node pos="s" depth="0" NCoef="0" IVar="3" Cut="4.2663292884826660e+00" cType="1" res="9.6540339291095734e-03" rms="2.2478784620761871e-01" purity="5.0359863042831421e-01" nType="0">
        <Node pos="l" depth="1" NCoef="0" IVar="-1" Cut="0.0000000000000000e+00" cType="1" res="-7.8987134620547295e-03" rms="1.0628907382488251e-01" purity="-4.6375457197427750e-02" nType="-99"/>
        <Node pos="r" depth="1" NCoef="0" IVar="15" Cut="1.5219346284866333e+00" cType="1" res="1.3999305665493011e-02" rms="2.2504618763923645e-01" purity="5.1664793491363525e-01" nType="0">
          <Node pos="l" depth="2" NCoef="0" IVar="-1" Cut="0.0000000000000000e+00" cType="1" res="6.8461935734376311e-04" rms="2.1075500547885895e-01" purity="5.2255427837371826e-01" nType="-99"/>
          <Node pos="r" depth="2" NCoef="0" IVar="-1" Cut="0.0000000000000000e+00" cType="1" res="-1.2180915800854564e-03" rms="3.0775701999664307e-01" purity="4.6916258335113525e-01" nType="-99"/>
        </Node>
      </Node>
    </BinaryTree>
    <BinaryTree type="DecisionTree" boostWeight="1.0000000000000000e+00" itree="978">
      <Node pos="s" depth="0" NCoef="0" IVar="48" Cut="8.5865533351898193e-01" cType="1" res="3.4990776330232620e-03" rms="2.1701720356941223e-01" purity="4.8389211297035217e-01" nType="0">
        <Node pos="l" depth="1" NCoef="0" IVar="31" Cut="3.0130929946899414e+00" cType="1" res="-2.6492674369364977e-03" rms="0.0000000000000000e+00" purity="6.0380730777978897e-02" nType="-99"/>
        <Node pos="r" depth="1" NCoef="0" IVar="25" Cut="9.8432826995849609e-01" cType="1" res="1.0955781675875187e-02" rms="2.2897771000862122e-01" purity="5.2201783657073975e-01" nType="0">
          <Node pos="l" depth="2" NCoef="0" IVar="-1" Cut="0.0000000000000000e+00" cType="1" res="8.4139325190335512e-04" rms="2.3899966478347778e-01" purity="5.8057701587677002e-01" nType="-99"/>
          <Node pos="r" depth="2" NCoef="0" IVar="-1" Cut="0.0000000000000000e+00" cType="1" res="-9.2854350805282593e-04" rms="2.0603923499584198e-01" purity="4.2598900198936462e-01" nType="-99"/>
        </Node>
      </Node>
    </BinaryTree>
    <BinaryTree type="DecisionTree" boostWeight="1.0000000000000000e+00" itree="979">
      <Node pos="s" depth="0" NCoef="0" IVar="2" Cut="2.6082510948181152e+00" cType="1" res="8.2909623160958290e-03" rms="2.2339220345020294e-01" purity="4.9729278683662415e-01" nType="0">
        <Node pos="l" depth="1" NCoef="0" IVar="15" Cut="1.5219346284866333e+00" cType="1" res="-1.6697911545634270e-02" rms="1.8896803259849548e-01" purity="3.5023906826972961e-01" nType="0">
          <Node pos="l" depth="2" NCoef="0" IVar="-1" Cut="0.0000000000000000e+00" cType="1" res="-1.2958486331626773e-04" rms="1.7475606501102448e-01" purity="3.6169052124023438e-01" nType="-99"/>
          <Node pos="r" depth="2" NCoef="0" IVar="-1" Cut="0.0000000000000000e+00" cType="1" res="-3.1865034252405167e-03" rms="2.5380676984786987e-01" purity="2.6179340481758118e-01" nType="-99"/>
        </Node>
        <Node pos="r" depth="1" NCoef="0" IVar="25" Cut="1.0114094018936157e+00" cType="1" res="3.9054483175277710e-02" rms="2.5625073909759521e-01" purity="6.7832893133163452e-01" nType="0">
          <Node pos="l" depth="2" NCoef="0" IVar="-1" Cut="0.0000000000000000e+00" cType="1" res="1.2498159194365144e-03" rms="2.6042407751083374e-01" purity="7.1122348308563232e-01" nType="-99"/>
          <Node pos="r" depth="2" NCoef="0" IVar="-1" Cut="0.0000000000000000e+00" cType="1" res="-2.4105864576995373e-04" rms="2.3824761807918549e-01" purity="5.8849072456359863e-01" nType="-99"/>
        </Node>
      </Node>
    </BinaryTree>
    <BinaryTree type="DecisionTree" boostWeight="1.0000000000000000e+00" itree="980">
      <Node pos="s" depth="0" NCoef="0" IVar="17" Cut="1.5231137275695801e+00" cType="1" res="2.7693007141351700e-03" rms="2.0977385342121124e-01" purity="4.9639138579368591e-01" nType="0">
        <Node pos="l" depth="1" NCoef="0" IVar="5" Cut="2.8308928012847900e-01" cType="1" res="-2.0157290622591972e-02" rms="1.9800107181072235e-01" purity="2.6148366928100586e-01" nType="0">
          <Node pos="l" depth="2" NCoef="0" IVar="-1" Cut="0.0000000000000000e+00" cType="1" res="4.5841580140404403e-04" rms="1.9971877336502075e-01" purity="4.2916318774223328e-01" nType="-99"/>
          <Node pos="r" depth="2" NCoef="0" IVar="-1" Cut="0.0000000000000000e+00" cType="1" res="-1.4360890490934253e-03" rms="1.9229353964328766e-01" purity="1.2920717895030975e-01" nType="-99"/>
        </Node>
        <Node pos="r" depth="1" NCoef="0" IVar="27" Cut="1.4044252634048462e+00" cType="1" res="3.9397094398736954e-02" rms="2.2247089445590973e-01" purity="8.7168270349502563e-01" nType="0">
          <Node pos="l" depth="2" NCoef="0" IVar="-1" Cut="0.0000000000000000e+00" cType="1" res="-1.1577539844438434e-03" rms="2.6007416844367981e-01" purity="5.6102424860000610e-01" nType="-99"/>
          <Node pos="r" depth="2" NCoef="0" IVar="-1" Cut="0.0000000000000000e+00" cType="1" res="1.2069317745044827e-03" rms="2.1535189449787140e-01" purity="9.0864193439483643e-01" nType="-99"/>
        </Node>
      </Node>
    </BinaryTree>
    <BinaryTree type="DecisionTree" boostWeight="1.0000000000000000e+00" itree="981">
      <Node pos="s" depth="0" NCoef="0" IVar="3" Cut="5.1970567703247070e+00" cType="1" res="1.8895559012889862e-02" rms="2.3377650976181030e-01" purity="5.1463013887405396e-01" nType="0">
        <Node pos="l" depth="1" NCoef="0" IVar="2" Cut="1.7977325916290283e+00" cType="1" res="1.0158923454582691e-02" rms="2.2711431980133057e-01" purity="5.1204228401184082e-01" nType="0">
          <Node pos="l" depth="2" NCoef="0" IVar="-1" Cut="0.0000000000000000e+00" cType="1" res="-2.7149522211402655e-03" rms="1.4401949942111969e-01" purity="1.4332136511802673e-01" nType="-99"/>
          <Node pos="r" depth="2" NCoef="0" IVar="-1" Cut="0.0000000000000000e+00" cType="1" res="5.4353062296286225e-04" rms="2.3764276504516602e-01" purity="5.7967334985733032e-01" nType="-99"/>
        </Node>
        <Node pos="r" depth="1" NCoef="0" IVar="1" Cut="2.4164681434631348e+00" cType="1" res="1.2567442655563354e-01" rms="2.8256854414939880e-01" purity="5.4625862836837769e-01" nType="0">
          <Node pos="l" depth="2" NCoef="0" IVar="-1" Cut="0.0000000000000000e+00" cType="1" res="7.1852477267384529e-03" rms="4.1042464971542358e-01" purity="4.5682954788208008e-01" nType="-99"/>
          <Node pos="r" depth="2" NCoef="0" IVar="-1" Cut="0.0000000000000000e+00" cType="1" res="1.8731632735580206e-03" rms="1.9418913125991821e-01" purity="5.7904618978500366e-01" nType="-99"/>
        </Node>
      </Node>
    </BinaryTree>
    <BinaryTree type="DecisionTree" boostWeight="1.0000000000000000e+00" itree="982">
      <Node pos="s" depth="0" NCoef="0" IVar="5" Cut="2.8427755832672119e-01" cType="1" res="-7.9055788228288293e-04" rms="2.1022537350654602e-01" purity="4.9134308099746704e-01" nType="0">
        <Node pos="l" depth="1" NCoef="0" IVar="57" Cut="-9.5933407545089722e-01" cType="1" res="2.4852888658642769e-02" rms="1.8603645265102386e-01" purity="6.6697490215301514e-01" nType="0">
          <Node pos="l" depth="2" NCoef="0" IVar="-1" Cut="0.0000000000000000e+00" cType="1" res="1.5715231420472264e-03" rms="2.0866085588932037e-01" purity="7.3144525289535522e-01" nType="-99"/>
          <Node pos="r" depth="2" NCoef="0" IVar="-1" Cut="0.0000000000000000e+00" cType="1" res="-1.2383057037368417e-03" rms="8.4895424544811249e-02" purity="5.0714516639709473e-01" nType="-99"/>
        </Node>
        <Node pos="r" depth="1" NCoef="0" IVar="21" Cut="-6.5002816915512085e-01" cType="1" res="-3.2953120768070221e-02" rms="2.3314677178859711e-01" purity="2.7106183767318726e-01" nType="0">
          <Node pos="l" depth="2" NCoef="0" IVar="-1" Cut="0.0000000000000000e+00" cType="1" res="4.4987015426158905e-03" rms="4.3747007846832275e-01" purity="3.9484983682632446e-01" nType="-99"/>
          <Node pos="r" depth="2" NCoef="0" IVar="-1" Cut="0.0000000000000000e+00" cType="1" res="-1.1135183740407228e-03" rms="2.0863439142704010e-01" purity="2.6349738240242004e-01" nType="-99"/>
        </Node>
      </Node>
    </BinaryTree>
    <BinaryTree type="DecisionTree" boostWeight="1.0000000000000000e+00" itree="983">
      <Node pos="s" depth="0" NCoef="0" IVar="3" Cut="5.1363058090209961e+00" cType="1" res="4.4236732646822929e-03" rms="2.1897655725479126e-01" purity="4.9272564053535461e-01" nType="0">
        <Node pos="l" depth="1" NCoef="0" IVar="36" Cut="1.4843255281448364e+00" cType="1" res="-5.8497563004493713e-03" rms="2.1355465054512024e-01" purity="4.8617711663246155e-01" nType="0">
          <Node pos="l" depth="2" NCoef="0" IVar="-1" Cut="0.0000000000000000e+00" cType="1" res="-2.1049804054200649e-03" rms="1.6734236478805542e-01" purity="2.0322737097740173e-01" nType="-99"/>
          <Node pos="r" depth="2" NCoef="0" IVar="-1" Cut="0.0000000000000000e+00" cType="1" res="3.6012224154546857e-04" rms="2.3415967822074890e-01" purity="6.5452951192855835e-01" nType="-99"/>
        </Node>
        <Node pos="r" depth="1" NCoef="0" IVar="17" Cut="9.1172099113464355e-02" cType="1" res="9.4341486692428589e-02" rms="2.4385960400104523e-01" purity="5.5004161596298218e-01" nType="0">
          <Node pos="l" depth="2" NCoef="0" IVar="-1" Cut="0.0000000000000000e+00" cType="1" res="-2.8526511043310165e-02" rms="0.0000000000000000e+00" purity="-6.2778733670711517e-02" nType="-99"/>
          <Node pos="r" depth="2" NCoef="0" IVar="-1" Cut="0.0000000000000000e+00" cType="1" res="2.7488740161061287e-03" rms="2.9770743846893311e-01" purity="7.5149053335189819e-01" nType="-99"/>
        </Node>
      </Node>
    </BinaryTree>
    <BinaryTree type="DecisionTree" boostWeight="1.0000000000000000e+00" itree="984">
      <Node pos="s" depth="0" NCoef="0" IVar="52" Cut="3.2908360958099365e+00" cType="1" res="1.2105345726013184e-02" rms="2.2372245788574219e-01" purity="5.0316524505615234e-01" nType="0">
        <Node pos="l" depth="1" NCoef="0" IVar="52" Cut="2.4303133487701416e+00" cType="1" res="2.4820473045110703e-02" rms="2.3474635183811188e-01" purity="5.2253013849258423e-01" nType="0">
          <Node pos="l" depth="2" NCoef="0" IVar="-1" Cut="0.0000000000000000e+00" cType="1" res="-1.4002779498696327e-03" rms="1.1460641026496887e-01" purity="2.4720087647438049e-01" nType="-99"/>
          <Node pos="r" depth="2" NCoef="0" IVar="-1" Cut="0.0000000000000000e+00" cType="1" res="1.0185310384258628e-03" rms="2.4676877260208130e-01" purity="5.6766027212142944e-01" nType="-99"/>
        </Node>
        <Node pos="r" depth="1" NCoef="0" IVar="5" Cut="3.4283477067947388e-01" cType="1" res="-4.4159065932035446e-02" rms="1.5429267287254333e-01" purity="4.1747561097145081e-01" nType="0">
          <Node pos="l" depth="2" NCoef="0" IVar="-1" Cut="0.0000000000000000e+00" cType="1" res="4.5105698518455029e-04" rms="1.4342312514781952e-01" purity="6.5605425834655762e-01" nType="-99"/>
          <Node pos="r" depth="2" NCoef="0" IVar="-1" Cut="0.0000000000000000e+00" cType="1" res="-2.5590797886252403e-03" rms="1.4391352236270905e-01" purity="1.8508863449096680e-01" nType="-99"/>
        </Node>
      </Node>
    </BinaryTree>
    <BinaryTree type="DecisionTree" boostWeight="1.0000000000000000e+00" itree="985">
      <Node pos="s" depth="0" NCoef="0" IVar="17" Cut="1.5220416784286499e+00" cType="1" res="7.6526985503733158e-03" rms="2.1808764338493347e-01" purity="4.9300944805145264e-01" nType="0">
        <Node pos="l" depth="1" NCoef="0" IVar="15" Cut="1.4823372364044189e+00" cType="1" res="-1.4168691821396351e-02" rms="2.0916421711444855e-01" purity="2.5682598352432251e-01" nType="0">
          <Node pos="l" depth="2" NCoef="0" IVar="-1" Cut="0.0000000000000000e+00" cType="1" res="1.0305525938747451e-04" rms="1.9505952298641205e-01" purity="2.4762396514415741e-01" nType="-99"/>
          <Node pos="r" depth="2" NCoef="0" IVar="-1" Cut="0.0000000000000000e+00" cType="1" res="-1.8527093343436718e-03" rms="2.5270104408264160e-01" purity="3.0367088317871094e-01" nType="-99"/>
        </Node>
        <Node pos="r" depth="1" NCoef="0" IVar="15" Cut="1.5198135375976562e+00" cType="1" res="4.2253497987985611e-02" rms="2.2727799415588379e-01" purity="8.6751061677932739e-01" nType="0">
          <Node pos="l" depth="2" NCoef="0" IVar="-1" Cut="0.0000000000000000e+00" cType="1" res="1.6868270467966795e-03" rms="1.8024779856204987e-01" purity="9.3275177478790283e-01" nType="-99"/>
          <Node pos="r" depth="2" NCoef="0" IVar="-1" Cut="0.0000000000000000e+00" cType="1" res="-2.0257964206393808e-04" rms="3.2411596179008484e-01" purity="6.7222136259078979e-01" nType="-99"/>
        </Node>
      </Node>
    </BinaryTree>
    <BinaryTree type="DecisionTree" boostWeight="1.0000000000000000e+00" itree="986">
      <Node pos="s" depth="0" NCoef="0" IVar="15" Cut="1.5225218534469604e+00" cType="1" res="1.0293338447809219e-02" rms="2.2745659947395325e-01" purity="4.9564468860626221e-01" nType="0">
        <Node pos="l" depth="1" NCoef="0" IVar="18" Cut="-9.7460788488388062e-01" cType="1" res="2.0553510636091232e-02" rms="2.1401683986186981e-01" purity="5.0172388553619385e-01" nType="0">
          <Node pos="l" depth="2" NCoef="0" IVar="-1" Cut="0.0000000000000000e+00" cType="1" res="8.3288323367014527e-04" rms="2.1783645451068878e-01" purity="5.3111326694488525e-01" nType="-99"/>
          <Node pos="r" depth="2" NCoef="0" IVar="-1" Cut="0.0000000000000000e+00" cType="1" res="-4.3801069259643555e-03" rms="1.2367472052574158e-01" purity="1.5001802146434784e-01" nType="-99"/>
        </Node>
        <Node pos="r" depth="1" NCoef="0" IVar="56" Cut="-1.3771604299545288e+00" cType="1" res="-7.2817072272300720e-02" rms="3.0337738990783691e-01" purity="4.4640100002288818e-01" nType="0">
          <Node pos="l" depth="2" NCoef="0" IVar="-1" Cut="0.0000000000000000e+00" cType="1" res="-4.3297058437019587e-04" rms="2.9305654764175415e-01" purity="5.5990082025527954e-01" nType="-99"/>
          <Node pos="r" depth="2" NCoef="0" IVar="-1" Cut="0.0000000000000000e+00" cType="1" res="-4.5003900304436684e-03" rms="2.9884919524192810e-01" purity="2.1718457341194153e-01" nType="-99"/>
        </Node>
      </Node>
    </BinaryTree>
    <BinaryTree type="DecisionTree" boostWeight="1.0000000000000000e+00" itree="987">
      <Node pos="s" depth="0" NCoef="0" IVar="17" Cut="1.5220416784286499e+00" cType="1" res="8.2896584644913673e-03" rms="2.1702116727828979e-01" purity="5.1008689403533936e-01" nType="0">
        <Node pos="l" depth="1" NCoef="0" IVar="15" Cut="1.5209717750549316e+00" cType="1" res="-1.3105812482535839e-02" rms="2.1059137582778931e-01" purity="2.6683643460273743e-01" nType="0">
          <Node pos="l" depth="2" NCoef="0" IVar="-1" Cut="0.0000000000000000e+00" cType="1" res="-1.3607737491838634e-04" rms="2.1034705638885498e-01" purity="2.8070312738418579e-01" nType="-99"/>
          <Node pos="r" depth="2" NCoef="0" IVar="-1" Cut="0.0000000000000000e+00" cType="1" res="-1.0449756868183613e-02" rms="1.4086824655532837e-01" purity="8.7667303159832954e-03" nType="-99"/>
        </Node>
        <Node pos="r" depth="1" NCoef="0" IVar="2" Cut="1.6237298250198364e+00" cType="1" res="4.0288962423801422e-02" rms="2.2248981893062592e-01" purity="8.7389504909515381e-01" nType="0">
          <Node pos="l" depth="2" NCoef="0" IVar="-1" Cut="0.0000000000000000e+00" cType="1" res="-2.6850060094147921e-03" rms="2.6702097058296204e-01" purity="4.8068249225616455e-01" nType="-99"/>
          <Node pos="r" depth="2" NCoef="0" IVar="-1" Cut="0.0000000000000000e+00" cType="1" res="1.2025089235976338e-03" rms="2.1724636852741241e-01" purity="8.9586085081100464e-01" nType="-99"/>
        </Node>
      </Node>
    </BinaryTree>
    <BinaryTree type="DecisionTree" boostWeight="1.0000000000000000e+00" itree="988">
      <Node pos="s" depth="0" NCoef="0" IVar="0" Cut="6.3477349281311035e-01" cType="1" res="1.5769436955451965e-02" rms="2.2615416347980499e-01" purity="5.0726151466369629e-01" nType="0">
        <Node pos="l" depth="1" NCoef="0" IVar="3" Cut="5.2035140991210938e+00" cType="1" res="4.0443699806928635e-02" rms="2.4903520941734314e-01" purity="5.7382690906524658e-01" nType="0">
          <Node pos="l" depth="2" NCoef="0" IVar="-1" Cut="0.0000000000000000e+00" cType="1" res="8.0654449993744493e-04" rms="2.4022474884986877e-01" purity="5.7339888811111450e-01" nType="-99"/>
          <Node pos="r" depth="2" NCoef="0" IVar="-1" Cut="0.0000000000000000e+00" cType="1" res="3.9380039088428020e-03" rms="3.0620592832565308e-01" purity="5.7913941144943237e-01" nType="-99"/>
        </Node>
        <Node pos="r" depth="1" NCoef="0" IVar="18" Cut="-1.1685487031936646e+00" cType="1" res="-1.7159886658191681e-02" rms="1.8638236820697784e-01" purity="4.1842603683471680e-01" nType="0">
          <Node pos="l" depth="2" NCoef="0" IVar="-1" Cut="0.0000000000000000e+00" cType="1" res="-1.3285569730214775e-04" rms="1.9244197010993958e-01" purity="4.6159884333610535e-01" nType="-99"/>
          <Node pos="r" depth="2" NCoef="0" IVar="-1" Cut="0.0000000000000000e+00" cType="1" res="-4.9224579706788063e-03" rms="1.0226695239543915e-01" purity="1.1940781027078629e-01" nType="-99"/>
        </Node>
      </Node>
    </BinaryTree>
    <BinaryTree type="DecisionTree" boostWeight="1.0000000000000000e+00" itree="989">
      <Node pos="s" depth="0" NCoef="0" IVar="25" Cut="9.5322132110595703e-01" cType="1" res="1.5971818938851357e-02" rms="2.2896943986415863e-01" purity="5.0963824987411499e-01" nType="0">
        <Node pos="l" depth="1" NCoef="0" IVar="34" Cut="-1.4926186800003052e+00" cType="1" res="4.1507590562105179e-02" rms="2.4698175489902496e-01" purity="5.7060986757278442e-01" nType="0">
          <Node pos="l" depth="2" NCoef="0" IVar="-1" Cut="0.0000000000000000e+00" cType="1" res="3.6945759784430265e-03" rms="3.2118105888366699e-01" purity="5.3370082378387451e-01" nType="-99"/>
          <Node pos="r" depth="2" NCoef="0" IVar="-1" Cut="0.0000000000000000e+00" cType="1" res="8.3298131357878447e-04" rms="2.3998770117759705e-01" purity="5.7268577814102173e-01" nType="-99"/>
        </Node>
        <Node pos="r" depth="1" NCoef="0" IVar="16" Cut="9.3890351057052612e-01" cType="1" res="-7.3878341354429722e-03" rms="2.0842845737934113e-01" purity="4.5386236906051636e-01" nType="0">
          <Node pos="l" depth="2" NCoef="0" IVar="-1" Cut="0.0000000000000000e+00" cType="1" res="4.7224079025909305e-05" rms="2.0887292921543121e-01" purity="4.8130342364311218e-01" nType="-99"/>
          <Node pos="r" depth="2" NCoef="0" IVar="-1" Cut="0.0000000000000000e+00" cType="1" res="-3.7537240423262119e-03" rms="1.6969509422779083e-01" purity="1.2097518146038055e-01" nType="-99"/>
        </Node>
      </Node>
    </BinaryTree>
    <BinaryTree type="DecisionTree" boostWeight="1.0000000000000000e+00" itree="990">
      <Node pos="s" depth="0" NCoef="0" IVar="0" Cut="5.7403439283370972e-01" cType="1" res="8.2324603572487831e-03" rms="2.2294715046882629e-01" purity="4.9854606389999390e-01" nType="0">
        <Node pos="l" depth="1" NCoef="0" IVar="22" Cut="1.2345679104328156e-02" cType="1" res="3.7000119686126709e-02" rms="2.4306473135948181e-01" purity="5.8131855726242065e-01" nType="0">
          <Node pos="l" depth="2" NCoef="0" IVar="-1" Cut="0.0000000000000000e+00" cType="1" res="4.9748332239687443e-03" rms="3.7040159106254578e-01" purity="4.0181851387023926e-01" nType="-99"/>
          <Node pos="r" depth="2" NCoef="0" IVar="-1" Cut="0.0000000000000000e+00" cType="1" res="8.2816946087405086e-04" rms="2.3229157924652100e-01" purity="5.9048360586166382e-01" nType="-99"/>
        </Node>
        <Node pos="r" depth="1" NCoef="0" IVar="15" Cut="1.5199739933013916e+00" cType="1" res="-2.3567359894514084e-02" rms="1.9343271851539612e-01" purity="4.0704926848411560e-01" nType="0">
          <Node pos="l" depth="2" NCoef="0" IVar="-1" Cut="0.0000000000000000e+00" cType="1" res="-3.7342702853493392e-04" rms="1.7964766919612885e-01" purity="4.0642449259757996e-01" nType="-99"/>
          <Node pos="r" depth="2" NCoef="0" IVar="-1" Cut="0.0000000000000000e+00" cType="1" res="-2.3525378201156855e-03" rms="2.5726032257080078e-01" purity="4.1156959533691406e-01" nType="-99"/>
        </Node>
      </Node>
    </BinaryTree>
    <BinaryTree type="DecisionTree" boostWeight="1.0000000000000000e+00" itree="991">
      <Node pos="s" depth="0" NCoef="0" IVar="17" Cut="1.5220416784286499e+00" cType="1" res="4.7478149645030499e-03" rms="2.1157050132751465e-01" purity="5.0550663471221924e-01" nType="0">
        <Node pos="l" depth="1" NCoef="0" IVar="15" Cut="1.4823372364044189e+00" cType="1" res="-1.9358040764927864e-02" rms="2.0107293128967285e-01" purity="2.5079327821731567e-01" nType="0">
          <Node pos="l" depth="2" NCoef="0" IVar="-1" Cut="0.0000000000000000e+00" cType="1" res="-1.3716264220420271e-04" rms="1.8308854103088379e-01" purity="2.4153849482536316e-01" nType="-99"/>
          <Node pos="r" depth="2" NCoef="0" IVar="-1" Cut="0.0000000000000000e+00" cType="1" res="-1.7219543224200606e-03" rms="2.6101061701774597e-01" purity="2.9797464609146118e-01" nType="-99"/>
        </Node>
        <Node pos="r" depth="1" NCoef="0" IVar="5" Cut="4.8990026116371155e-01" cType="1" res="3.9298236370086670e-02" rms="2.2123311460018158e-01" purity="8.7058198451995850e-01" nType="0">
          <Node pos="l" depth="2" NCoef="0" IVar="-1" Cut="0.0000000000000000e+00" cType="1" res="8.1320764729753137e-04" rms="1.9698299467563629e-01" purity="8.8027983903884888e-01" nType="-99"/>
          <Node pos="r" depth="2" NCoef="0" IVar="-1" Cut="0.0000000000000000e+00" cType="1" res="1.7198324203491211e-03" rms="3.7533542513847351e-01" purity="7.7108508348464966e-01" nType="-99"/>
        </Node>
      </Node>
    </BinaryTree>
    <BinaryTree type="DecisionTree" boostWeight="1.0000000000000000e+00" itree="992">
      <Node pos="s" depth="0" NCoef="0" IVar="0" Cut="6.2222844362258911e-01" cType="1" res="1.8035167828202248e-02" rms="2.3435695469379425e-01" purity="5.0320279598236084e-01" nType="0">
        <Node pos="l" depth="1" NCoef="0" IVar="22" Cut="1.2345679104328156e-02" cType="1" res="4.4464759528636932e-02" rms="2.5624772906303406e-01" purity="5.7592898607254028e-01" nType="0">
          <Node pos="l" depth="2" NCoef="0" IVar="-1" Cut="0.0000000000000000e+00" cType="1" res="7.9371966421604156e-03" rms="4.1457748413085938e-01" purity="4.3752047419548035e-01" nType="-99"/>
          <Node pos="r" depth="2" NCoef="0" IVar="-1" Cut="0.0000000000000000e+00" cType="1" res="8.7959994561970234e-04" rms="2.3962025344371796e-01" purity="5.8376973867416382e-01" nType="-99"/>
        </Node>
        <Node pos="r" depth="1" NCoef="0" IVar="1" Cut="3.1673605442047119e+00" cType="1" res="-1.6287947073578835e-02" rms="1.9720724225044250e-01" purity="4.0875610709190369e-01" nType="0">
          <Node pos="l" depth="2" NCoef="0" IVar="-1" Cut="0.0000000000000000e+00" cType="1" res="-1.4347619144245982e-03" rms="1.3438540697097778e-01" purity="2.4007323384284973e-01" nType="-99"/>
          <Node pos="r" depth="2" NCoef="0" IVar="-1" Cut="0.0000000000000000e+00" cType="1" res="4.7854945296421647e-04" rms="2.4727112054824829e-01" purity="6.0704493522644043e-01" nType="-99"/>
        </Node>
      </Node>
    </BinaryTree>
    <BinaryTree type="DecisionTree" boostWeight="1.0000000000000000e+00" itree="993">
      <Node pos="s" depth="0" NCoef="0" IVar="15" Cut="1.5219346284866333e+00" cType="1" res="6.0147126205265522e-03" rms="2.1848231554031372e-01" purity="4.8982736468315125e-01" nType="0">
        <Node pos="l" depth="1" NCoef="0" IVar="25" Cut="7.9846525192260742e-01" cType="1" res="1.6170686110854149e-02" rms="2.0319332182407379e-01" purity="4.9728924036026001e-01" nType="0">
          <Node pos="l" depth="2" NCoef="0" IVar="-1" Cut="0.0000000000000000e+00" cType="1" res="3.5780812613666058e-03" rms="3.1779229640960693e-01" purity="6.8800288438796997e-01" nType="-99"/>
          <Node pos="r" depth="2" NCoef="0" IVar="-1" Cut="0.0000000000000000e+00" cType="1" res="3.0621598125435412e-04" rms="1.9488629698753357e-01" purity="4.8992350697517395e-01" nType="-99"/>
        </Node>
        <Node pos="r" depth="1" NCoef="0" IVar="66" Cut="1.2345679104328156e-02" cType="1" res="-7.7243641018867493e-02" rms="3.0464616417884827e-01" purity="4.2865508794784546e-01" nType="0">
          <Node pos="l" depth="2" NCoef="0" IVar="-1" Cut="0.0000000000000000e+00" cType="1" res="-5.2792108617722988e-03" rms="2.6297625899314880e-01" purity="1.8170423805713654e-01" nType="-99"/>
          <Node pos="r" depth="2" NCoef="0" IVar="-1" Cut="0.0000000000000000e+00" cType="1" res="1.1661826283670962e-04" rms="3.0760896205902100e-01" purity="6.1676657199859619e-01" nType="-99"/>
        </Node>
      </Node>
    </BinaryTree>
    <BinaryTree type="DecisionTree" boostWeight="1.0000000000000000e+00" itree="994">
      <Node pos="s" depth="0" NCoef="0" IVar="2" Cut="1.7353390455245972e+00" cType="1" res="-4.1366412187926471e-04" rms="2.0493994653224945e-01" purity="4.9449744820594788e-01" nType="0">
        <Node pos="l" depth="1" NCoef="0" IVar="5" Cut="-3.4082871675491333e-01" cType="1" res="-6.4546629786491394e-02" rms="7.9488195478916168e-02" purity="9.4030395150184631e-02" nType="0">
          <Node pos="l" depth="2" NCoef="0" IVar="-1" Cut="0.0000000000000000e+00" cType="1" res="4.2345016263425350e-03" rms="2.9664215445518494e-01" purity="2.4585081636905670e-01" nType="-99"/>
          <Node pos="r" depth="2" NCoef="0" IVar="-1" Cut="0.0000000000000000e+00" cType="1" res="-5.5985813960433006e-03" rms="0.0000000000000000e+00" purity="6.9686546921730042e-02" nType="-99"/>
        </Node>
        <Node pos="r" depth="1" NCoef="0" IVar="5" Cut="3.4322205185890198e-01" cType="1" res="1.1364446021616459e-02" rms="2.1831020712852478e-01" purity="5.6804382801055908e-01" nType="0">
          <Node pos="l" depth="2" NCoef="0" IVar="-1" Cut="0.0000000000000000e+00" cType="1" res="9.9799595773220062e-04" rms="1.8959270417690277e-01" purity="7.2909402847290039e-01" nType="-99"/>
          <Node pos="r" depth="2" NCoef="0" IVar="-1" Cut="0.0000000000000000e+00" cType="1" res="-6.1742000980302691e-04" rms="2.5805854797363281e-01" purity="2.7506941556930542e-01" nType="-99"/>
        </Node>
      </Node>
    </BinaryTree>
    <BinaryTree type="DecisionTree" boostWeight="1.0000000000000000e+00" itree="995">
      <Node pos="s" depth="0" NCoef="0" IVar="15" Cut="1.5225218534469604e+00" cType="1" res="9.4810798764228821e-03" rms="2.1929849684238434e-01" purity="5.0593876838684082e-01" nType="0">
        <Node pos="l" depth="1" NCoef="0" IVar="36" Cut="1.1741800308227539e+00" cType="1" res="1.7970902845263481e-02" rms="2.0350877940654755e-01" purity="5.0892013311386108e-01" nType="0">
          <Node pos="l" depth="2" NCoef="0" IVar="-1" Cut="0.0000000000000000e+00" cType="1" res="-3.0096182599663734e-03" rms="2.9150005429983139e-02" purity="3.4736197441816330e-02" nType="-99"/>
          <Node pos="r" depth="2" NCoef="0" IVar="-1" Cut="0.0000000000000000e+00" cType="1" res="7.5790280243381858e-04" rms="2.2529864311218262e-01" purity="6.2723541259765625e-01" nType="-99"/>
        </Node>
        <Node pos="r" depth="1" NCoef="0" IVar="5" Cut="3.7135559320449829e-01" cType="1" res="-5.5918943136930466e-02" rms="3.0771255493164062e-01" purity="4.8297232389450073e-01" nType="0">
          <Node pos="l" depth="2" NCoef="0" IVar="-1" Cut="0.0000000000000000e+00" cType="1" res="-9.7886135336011648e-05" rms="2.4536366760730743e-01" purity="5.6323599815368652e-01" nType="-99"/>
          <Node pos="r" depth="2" NCoef="0" IVar="-1" Cut="0.0000000000000000e+00" cType="1" res="-2.4296389892697334e-03" rms="3.7963578104972839e-01" purity="3.3468270301818848e-01" nType="-99"/>
        </Node>
      </Node>
    </BinaryTree>
    <BinaryTree type="DecisionTree" boostWeight="1.0000000000000000e+00" itree="996">
      <Node pos="s" depth="0" NCoef="0" IVar="52" Cut="2.4742436408996582e+00" cType="1" res="6.1314105987548828e-03" rms="2.1209214627742767e-01" purity="5.0264197587966919e-01" nType="0">
        <Node pos="l" depth="1" NCoef="0" IVar="35" Cut="-7.9749268293380737e-01" cType="1" res="-7.1181870996952057e-02" rms="8.5267856717109680e-02" purity="2.4544736742973328e-01" nType="0">
          <Node pos="l" depth="2" NCoef="0" IVar="-1" Cut="0.0000000000000000e+00" cType="1" res="-8.7381573393940926e-04" rms="1.7403833568096161e-01" purity="3.3120074868202209e-01" nType="-99"/>
          <Node pos="r" depth="2" NCoef="0" IVar="-1" Cut="0.0000000000000000e+00" cType="1" res="-5.3071109578013420e-03" rms="0.0000000000000000e+00" purity="4.8166293650865555e-02" nType="-99"/>
        </Node>
        <Node pos="r" depth="1" NCoef="0" IVar="35" Cut="-1.4540016651153564e+00" cType="1" res="1.7883354797959328e-02" rms="2.2286507487297058e-01" purity="5.4173666238784790e-01" nType="0">
          <Node pos="l" depth="2" NCoef="0" IVar="-1" Cut="0.0000000000000000e+00" cType="1" res="-2.3293038830161095e-03" rms="1.5427042543888092e-01" purity="2.8686884045600891e-01" nType="-99"/>
          <Node pos="r" depth="2" NCoef="0" IVar="-1" Cut="0.0000000000000000e+00" cType="1" res="7.5351411942392588e-04" rms="2.3060670495033264e-01" purity="5.8530282974243164e-01" nType="-99"/>
        </Node>
      </Node>
    </BinaryTree>
    <BinaryTree type="DecisionTree" boostWeight="1.0000000000000000e+00" itree="997">
      <Node pos="s" depth="0" NCoef="0" IVar="57" Cut="-9.5933389663696289e-01" cType="1" res="1.2580086477100849e-02" rms="2.1839503943920135e-01" purity="5.0483185052871704e-01" nType="0">
        <Node pos="l" depth="1" NCoef="0" IVar="14" Cut="-7.9709869623184204e-01" cType="1" res="3.0442107468843460e-02" rms="2.3069803416728973e-01" purity="5.7165282964706421e-01" nType="0">
          <Node pos="l" depth="2" NCoef="0" IVar="-1" Cut="0.0000000000000000e+00" cType="1" res="2.8521595595520921e-05" rms="1.9195125997066498e-01" purity="4.9370679259300232e-01" nType="-99"/>
          <Node pos="r" depth="2" NCoef="0" IVar="-1" Cut="0.0000000000000000e+00" cType="1" res="1.5202582580968738e-03" rms="2.6510831713676453e-01" purity="6.6346591711044312e-01" nType="-99"/>
        </Node>
        <Node pos="r" depth="1" NCoef="0" IVar="60" Cut="-8.9751064777374268e-01" cType="1" res="-3.1422346830368042e-02" rms="1.7709632217884064e-01" purity="3.4022074937820435e-01" nType="0">
          <Node pos="l" depth="2" NCoef="0" IVar="-1" Cut="0.0000000000000000e+00" cType="1" res="-5.1127123879268765e-04" rms="1.9818396866321564e-01" purity="3.8155654072761536e-01" nType="-99"/>
          <Node pos="r" depth="2" NCoef="0" IVar="-1" Cut="0.0000000000000000e+00" cType="1" res="-6.9865663535892963e-03" rms="0.0000000000000000e+00" purity="4.3000943958759308e-02" nType="-99"/>
        </Node>
      </Node>
    </BinaryTree>
    <BinaryTree type="DecisionTree" boostWeight="1.0000000000000000e+00" itree="998">
      <Node pos="s" depth="0" NCoef="0" IVar="64" Cut="1.2345679104328156e-02" cType="1" res="-4.4538234942592680e-04" rms="2.0775061845779419e-01" purity="4.8668339848518372e-01" nType="0">
        <Node pos="l" depth="1" NCoef="0" IVar="-1" Cut="0.0000000000000000e+00" cType="1" res="-5.6450767442584038e-03" rms="0.0000000000000000e+00" purity="8.1887267529964447e-02" nType="-99"/>
        <Node pos="r" depth="1" NCoef="0" IVar="55" Cut="-1.4859373569488525e+00" cType="1" res="6.6508529707789421e-03" rms="2.1943970024585724e-01" purity="5.0172287225723267e-01" nType="0">
          <Node pos="l" depth="2" NCoef="0" IVar="-1" Cut="0.0000000000000000e+00" cType="1" res="1.2027283664792776e-03" rms="2.5421574711799622e-01" purity="6.0559988021850586e-01" nType="-99"/>
          <Node pos="r" depth="2" NCoef="0" IVar="-1" Cut="0.0000000000000000e+00" cType="1" res="-4.5650888932868838e-04" rms="1.9444237649440765e-01" purity="4.4525700807571411e-01" nType="-99"/>
        </Node>
      </Node>
    </BinaryTree>
    <BinaryTree type="DecisionTree" boostWeight="1.0000000000000000e+00" itree="999">
      <Node pos="s" depth="0" NCoef="0" IVar="0" Cut="8.5939216613769531e-01" cType="1" res="5.4140812717378139e-03" rms="2.1328990161418915e-01" purity="4.9826145172119141e-01" nType="0">
        <Node pos="l" depth="1" NCoef="0" IVar="25" Cut="8.8892042636871338e-01" cType="1" res="2.1453820168972015e-02" rms="2.2312381863594055e-01" purity="5.4043883085250854e-01" nType="0">
          <Node pos="l" depth="2" NCoef="0" IVar="-1" Cut="0.0000000000000000e+00" cType="1" res="1.5552005497738719e-03" rms="2.7318903803825378e-01" purity="6.0990601778030396e-01" nType="-99"/>
          <Node pos="r" depth="2" NCoef="0" IVar="-1" Cut="0.0000000000000000e+00" cType="1" res="2.5791811640374362e-04" rms="2.0630604028701782e-01" purity="5.2245211601257324e-01" nType="-99"/>
        </Node>
        <Node pos="r" depth="1" NCoef="0" IVar="4" Cut="3.4419562816619873e+00" cType="1" res="-5.4471567273139954e-02" rms="1.5786865353584290e-01" purity="3.4078896045684814e-01" nType="0">
          <Node pos="l" depth="2" NCoef="0" IVar="-1" Cut="0.0000000000000000e+00" cType="1" res="-7.1502313949167728e-03" rms="0.0000000000000000e+00" purity="2.8215721249580383e-02" nType="-99"/>
          <Node pos="r" depth="2" NCoef="0" IVar="-1" Cut="0.0000000000000000e+00" cType="1" res="-5.6293420493602753e-04" rms="2.0044378936290741e-01" purity="4.5324128866195679e-01" nType="-99"/>
        </Node>
      </Node>
    </BinaryTree>
    <BinaryTree type="DecisionTree" boostWeight="1.0000000000000000e+00" itree="1000">
      <Node pos="s" depth="0" NCoef="0" IVar="3" Cut="5.0300159454345703e+00" cType="1" res="1.5854982659220695e-02" rms="2.2920997440814972e-01" purity="5.0577211380004883e-01" nType="0">
        <Node pos="l" depth="1" NCoef="0" IVar="56" Cut="-1.4540683031082153e+00" cType="1" res="2.5596502237021923e-03" rms="2.2526355087757111e-01" purity="4.8753905296325684e-01" nType="0">
          <Node pos="l" depth="2" NCoef="0" IVar="-1" Cut="0.0000000000000000e+00" cType="1" res="8.6020654998719692e-04" rms="2.4643084406852722e-01" purity="5.7002311944961548e-01" nType="-99"/>
          <Node pos="r" depth="2" NCoef="0" IVar="-1" Cut="0.0000000000000000e+00" cType="1" res="-9.1026566224172711e-04" rms="1.9479630887508392e-01" purity="3.9811924099922180e-01" nType="-99"/>
        </Node>
        <Node pos="r" depth="1" NCoef="0" IVar="17" Cut="1.0964198112487793e+00" cType="1" res="8.2316845655441284e-02" rms="2.3706993460655212e-01" purity="5.9691733121871948e-01" nType="0">
          <Node pos="l" depth="2" NCoef="0" IVar="-1" Cut="0.0000000000000000e+00" cType="1" res="-1.0167792439460754e-02" rms="0.0000000000000000e+00" purity="-2.7869805693626404e-02" nType="-99"/>
          <Node pos="r" depth="2" NCoef="0" IVar="-1" Cut="0.0000000000000000e+00" cType="1" res="2.6906034909188747e-03" rms="2.8435155749320984e-01" purity="8.1386792659759521e-01" nType="-99"/>
        </Node>
      </Node>
    </BinaryTree>
    <BinaryTree type="DecisionTree" boostWeight="1.0000000000000000e+00" itree="1001">
      <Node pos="s" depth="0" NCoef="0" IVar="3" Cut="4.9526185989379883e+00" cType="1" res="1.4211394824087620e-02" rms="2.3138546943664551e-01" purity="4.9788087606430054e-01" nType="0">
        <Node pos="l" depth="1" NCoef="0" IVar="56" Cut="-1.4539417028427124e+00" cType="1" res="-2.6553398929536343e-03" rms="2.2954857349395752e-01" purity="4.6024146676063538e-01" nType="0">
          <Node pos="l" depth="2" NCoef="0" IVar="-1" Cut="0.0000000000000000e+00" cType="1" res="8.0087233800441027e-04" rms="2.4401859939098358e-01" purity="5.6422054767608643e-01" nType="-99"/>
          <Node pos="r" depth="2" NCoef="0" IVar="-1" Cut="0.0000000000000000e+00" cType="1" res="-1.4102790737524629e-03" rms="2.0141240954399109e-01" purity="3.2487511634826660e-01" nType="-99"/>
        </Node>
        <Node pos="r" depth="1" NCoef="0" IVar="43" Cut="1.2345679104328156e-02" cType="1" res="6.8206332623958588e-02" rms="2.2896185517311096e-01" purity="6.1837470531463623e-01" nType="0">
          <Node pos="l" depth="2" NCoef="0" IVar="-1" Cut="0.0000000000000000e+00" cType="1" res="4.8827170394361019e-03" rms="3.5274097323417664e-01" purity="5.3090900182723999e-01" nType="-99"/>
          <Node pos="r" depth="2" NCoef="0" IVar="-1" Cut="0.0000000000000000e+00" cType="1" res="1.3704312732443213e-03" rms="1.9859014451503754e-01" purity="6.3068222999572754e-01" nType="-99"/>
        </Node>
      </Node>
    </BinaryTree>
    <BinaryTree type="DecisionTree" boostWeight="1.0000000000000000e+00" itree="1002">
      <Node pos="s" depth="0" NCoef="0" IVar="3" Cut="5.2378163337707520e+00" cType="1" res="8.2513457164168358e-03" rms="2.2388982772827148e-01" purity="4.9382215738296509e-01" nType="0">
        <Node pos="l" depth="1" NCoef="0" IVar="56" Cut="-1.4540809392929077e+00" cType="1" res="2.4628108367323875e-03" rms="2.2079975903034210e-01" purity="4.9695590138435364e-01" nType="0">
          <Node pos="l" depth="2" NCoef="0" IVar="-1" Cut="0.0000000000000000e+00" cType="1" res="7.3665968375280499e-04" rms="2.3218913376331329e-01" purity="5.8029007911682129e-01" nType="-99"/>
          <Node pos="r" depth="2" NCoef="0" IVar="-1" Cut="0.0000000000000000e+00" cType="1" res="-6.8463548086583614e-04" rms="2.0595982670783997e-01" purity="4.1412225365638733e-01" nType="-99"/>
        </Node>
        <Node pos="r" depth="1" NCoef="0" IVar="1" Cut="2.5262765884399414e+00" cType="1" res="1.0950607806444168e-01" rms="2.5164371728897095e-01" purity="4.3900591135025024e-01" nType="0">
          <Node pos="l" depth="2" NCoef="0" IVar="-1" Cut="0.0000000000000000e+00" cType="1" res="6.1221490614116192e-03" rms="3.9611053466796875e-01" purity="4.7580698132514954e-01" nType="-99"/>
          <Node pos="r" depth="2" NCoef="0" IVar="-1" Cut="0.0000000000000000e+00" cType="1" res="-2.5788025232031941e-04" rms="0.0000000000000000e+00" purity="4.1169616580009460e-01" nType="-99"/>
        </Node>
      </Node>
    </BinaryTree>
    <BinaryTree type="DecisionTree" boostWeight="1.0000000000000000e+00" itree="1003">
      <Node pos="s" depth="0" NCoef="0" IVar="68" Cut="1.2345679104328156e-02" cType="1" res="1.1397350579500198e-02" rms="2.1506364643573761e-01" purity="5.0261718034744263e-01" nType="0">
        <Node pos="l" depth="1" NCoef="0" IVar="18" Cut="-1.1029789447784424e+00" cType="1" res="1.7479408532381058e-02" rms="2.1645465493202209e-01" purity="5.1560842990875244e-01" nType="0">
          <Node pos="l" depth="2" NCoef="0" IVar="-1" Cut="0.0000000000000000e+00" cType="1" res="7.0890178903937340e-04" rms="2.1801263093948364e-01" purity="5.5016136169433594e-01" nType="-99"/>
          <Node pos="r" depth="2" NCoef="0" IVar="-1" Cut="0.0000000000000000e+00" cType="1" res="-2.3041053209453821e-03" rms="1.8528532981872559e-01" purity="2.1260702610015869e-01" nType="-99"/>
        </Node>
        <Node pos="r" depth="1" NCoef="0" IVar="49" Cut="-8.4259611368179321e-01" cType="1" res="-1.2240014225244522e-01" rms="1.1971685290336609e-01" purity="2.1682582795619965e-01" nType="0">
          <Node pos="l" depth="2" NCoef="0" IVar="-1" Cut="0.0000000000000000e+00" cType="1" res="-8.2512125372886658e-03" rms="0.0000000000000000e+00" purity="-1.3620111159980297e-02" nType="-99"/>
          <Node pos="r" depth="2" NCoef="0" IVar="-1" Cut="0.0000000000000000e+00" cType="1" res="7.8201573342084885e-04" rms="2.6494312286376953e-01" purity="4.6447637677192688e-01" nType="-99"/>
        </Node>
      </Node>
    </BinaryTree>
    <BinaryTree type="DecisionTree" boostWeight="1.0000000000000000e+00" itree="1004">
      <Node pos="s" depth="0" NCoef="0" IVar="52" Cut="2.2591986656188965e+00" cType="1" res="7.0851612836122513e-03" rms="2.1691720187664032e-01" purity="5.0530344247817993e-01" nType="0">
        <Node pos="l" depth="1" NCoef="0" IVar="52" Cut="2.1696040630340576e+00" cType="1" res="-3.8863983936607838e-03" rms="0.0000000000000000e+00" purity="1.3596910238265991e-01" nType="-99"/>
        <Node pos="r" depth="1" NCoef="0" IVar="5" Cut="2.9233175516128540e-01" cType="1" res="1.3530990108847618e-02" rms="2.2575025260448456e-01" purity="5.2291381359100342e-01" nType="0">
          <Node pos="l" depth="2" NCoef="0" IVar="-1" Cut="0.0000000000000000e+00" cType="1" res="1.2179424520581961e-03" rms="2.0446133613586426e-01" purity="7.0088076591491699e-01" nType="-99"/>
          <Node pos="r" depth="2" NCoef="0" IVar="-1" Cut="0.0000000000000000e+00" cType="1" res="-4.2380217928439379e-04" rms="2.4705697596073151e-01" purity="2.9419282078742981e-01" nType="-99"/>
        </Node>
      </Node>
    </BinaryTree>
    <BinaryTree type="DecisionTree" boostWeight="1.0000000000000000e+00" itree="1005">
      <Node pos="s" depth="0" NCoef="0" IVar="3" Cut="4.2820105552673340e+00" cType="1" res="1.5046354383230209e-02" rms="2.2877009212970734e-01" purity="5.0279593467712402e-01" nType="0">
        <Node pos="l" depth="1" NCoef="0" IVar="-1" Cut="0.0000000000000000e+00" cType="1" res="-6.1259213835000992e-03" rms="6.9284170866012573e-02" purity="3.0695023015141487e-02" nType="-99"/>
        <Node pos="r" depth="1" NCoef="0" IVar="52" Cut="2.4742026329040527e+00" cType="1" res="1.9782716408371925e-02" rms="2.3023545742034912e-01" purity="5.1706838607788086e-01" nType="0">
          <Node pos="l" depth="2" NCoef="0" IVar="-1" Cut="0.0000000000000000e+00" cType="1" res="-1.2445659376680851e-03" rms="1.0515163093805313e-01" purity="2.8762418031692505e-01" nType="-99"/>
          <Node pos="r" depth="2" NCoef="0" IVar="-1" Cut="0.0000000000000000e+00" cType="1" res="8.5536332335323095e-04" rms="2.4276944994926453e-01" purity="5.5386835336685181e-01" nType="-99"/>
        </Node>
      </Node>
    </BinaryTree>
    <BinaryTree type="DecisionTree" boostWeight="1.0000000000000000e+00" itree="1006">
      <Node pos="s" depth="0" NCoef="0" IVar="52" Cut="3.3918836116790771e+00" cType="1" res="4.8059807159006596e-03" rms="2.1554374694824219e-01" purity="4.9664086103439331e-01" nType="0">
        <Node pos="l" depth="1" NCoef="0" IVar="59" Cut="3.9940205216407776e-01" cType="1" res="1.4684516936540604e-02" rms="2.2383055090904236e-01" purity="5.1057016849517822e-01" nType="0">
          <Node pos="l" depth="2" NCoef="0" IVar="-1" Cut="0.0000000000000000e+00" cType="1" res="8.8394578779116273e-04" rms="2.3805387318134308e-01" purity="5.7030338048934937e-01" nType="-99"/>
          <Node pos="r" depth="2" NCoef="0" IVar="-1" Cut="0.0000000000000000e+00" cType="1" res="-7.1723101427778602e-04" rms="1.8541592359542847e-01" purity="3.8688623905181885e-01" nType="-99"/>
        </Node>
        <Node pos="r" depth="1" NCoef="0" IVar="5" Cut="3.8035917282104492e-01" cType="1" res="-6.8287834525108337e-02" rms="1.1598965525627136e-01" purity="3.9357435703277588e-01" nType="0">
          <Node pos="l" depth="2" NCoef="0" IVar="-1" Cut="0.0000000000000000e+00" cType="1" res="-7.5532018672674894e-04" rms="1.2056632339954376e-01" purity="5.9059673547744751e-01" nType="-99"/>
          <Node pos="r" depth="2" NCoef="0" IVar="-1" Cut="0.0000000000000000e+00" cType="1" res="-4.3218499049544334e-03" rms="6.3033901154994965e-02" purity="1.1900356411933899e-01" nType="-99"/>
        </Node>
      </Node>
    </BinaryTree>
    <BinaryTree type="DecisionTree" boostWeight="1.0000000000000000e+00" itree="1007">
      <Node pos="s" depth="0" NCoef="0" IVar="2" Cut="1.2805296182632446e+00" cType="1" res="6.5049884142354131e-05" rms="2.1160000562667847e-01" purity="4.8536348342895508e-01" nType="0">
        <Node pos="l" depth="1" NCoef="0" IVar="62" Cut="1.9565731287002563e-02" cType="1" res="-9.8292864859104156e-03" rms="0.0000000000000000e+00" purity="2.0089542958885431e-03" nType="-99"/>
        <Node pos="r" depth="1" NCoef="0" IVar="22" Cut="1.2345679104328156e-02" cType="1" res="6.8325628526508808e-03" rms="2.2038316726684570e-01" purity="5.1604783535003662e-01" nType="0">
          <Node pos="l" depth="2" NCoef="0" IVar="-1" Cut="0.0000000000000000e+00" cType="1" res="3.4934696741402149e-03" rms="3.1209537386894226e-01" purity="3.9032393693923950e-01" nType="-99"/>
          <Node pos="r" depth="2" NCoef="0" IVar="-1" Cut="0.0000000000000000e+00" cType="1" res="-2.3067987058311701e-05" rms="2.1102230250835419e-01" purity="5.2384126186370850e-01" nType="-99"/>
        </Node>
      </Node>
    </BinaryTree>
    <BinaryTree type="DecisionTree" boostWeight="1.0000000000000000e+00" itree="1008">
      <Node pos="s" depth="0" NCoef="0" IVar="18" Cut="-1.1668041944503784e+00" cType="1" res="9.0008303523063660e-03" rms="2.2730253636837006e-01" purity="5.0330829620361328e-01" nType="0">
        <Node pos="l" depth="1" NCoef="0" IVar="60" Cut="-7.4772679805755615e-01" cType="1" res="1.8690222874283791e-02" rms="2.2876822948455811e-01" purity="5.4233026504516602e-01" nType="0">
          <Node pos="l" depth="2" NCoef="0" IVar="-1" Cut="0.0000000000000000e+00" cType="1" res="6.5233232453465462e-04" rms="2.3200336098670959e-01" purity="5.5916881561279297e-01" nType="-99"/>
          <Node pos="r" depth="2" NCoef="0" IVar="-1" Cut="0.0000000000000000e+00" cType="1" res="-5.0105703994631767e-03" rms="0.0000000000000000e+00" purity="1.3706722855567932e-01" nType="-99"/>
        </Node>
        <Node pos="r" depth="1" NCoef="0" IVar="35" Cut="-1.0779509693384171e-01" cType="1" res="-5.9988737106323242e-02" rms="2.0366366207599640e-01" purity="2.2546787559986115e-01" nType="0">
          <Node pos="l" depth="2" NCoef="0" IVar="-1" Cut="0.0000000000000000e+00" cType="1" res="-9.7137747798115015e-04" rms="2.4382600188255310e-01" purity="2.7950674295425415e-01" nType="-99"/>
          <Node pos="r" depth="2" NCoef="0" IVar="-1" Cut="0.0000000000000000e+00" cType="1" res="-1.1790203861892223e-02" rms="0.0000000000000000e+00" purity="-3.3525223843753338e-03" nType="-99"/>
        </Node>
      </Node>
    </BinaryTree>
    <BinaryTree type="DecisionTree" boostWeight="1.0000000000000000e+00" itree="1009">
      <Node pos="s" depth="0" NCoef="0" IVar="64" Cut="1.2345679104328156e-02" cType="1" res="1.0451436042785645e-02" rms="2.2098740935325623e-01" purity="4.9373406171798706e-01" nType="0">
        <Node pos="l" depth="1" NCoef="0" IVar="-1" Cut="0.0000000000000000e+00" cType="1" res="-3.5798314493149519e-03" rms="0.0000000000000000e+00" purity="1.6570319235324860e-01" nType="-99"/>
        <Node pos="r" depth="1" NCoef="0" IVar="57" Cut="1.1399981975555420e+00" cType="1" res="1.5911841765046120e-02" rms="2.3015829920768738e-01" purity="5.0657242536544800e-01" nType="0">
          <Node pos="l" depth="2" NCoef="0" IVar="-1" Cut="0.0000000000000000e+00" cType="1" res="7.1841687895357609e-04" rms="2.3629732429981232e-01" purity="5.4552626609802246e-01" nType="-99"/>
          <Node pos="r" depth="2" NCoef="0" IVar="-1" Cut="0.0000000000000000e+00" cType="1" res="-1.2635713210329413e-03" rms="1.8966086208820343e-01" purity="3.2009378075599670e-01" nType="-99"/>
        </Node>
      </Node>
    </BinaryTree>
    <BinaryTree type="DecisionTree" boostWeight="1.0000000000000000e+00" itree="1010">
      <Node pos="s" depth="0" NCoef="0" IVar="60" Cut="-6.9254004955291748e-01" cType="1" res="1.9646260887384415e-02" rms="2.3890030384063721e-01" purity="5.0172042846679688e-01" nType="0">
        <Node pos="l" depth="1" NCoef="0" IVar="3" Cut="4.9844660758972168e+00" cType="1" res="2.5340821593999863e-02" rms="2.4489974975585938e-01" purity="5.1659131050109863e-01" nType="0">
          <Node pos="l" depth="2" NCoef="0" IVar="-1" Cut="0.0000000000000000e+00" cType="1" res="3.2625137828290462e-04" rms="2.3981082439422607e-01" purity="4.9231204390525818e-01" nType="-99"/>
          <Node pos="r" depth="2" NCoef="0" IVar="-1" Cut="0.0000000000000000e+00" cType="1" res="2.0992828067392111e-03" rms="2.5734329223632812e-01" purity="6.1320132017135620e-01" nType="-99"/>
        </Node>
        <Node pos="r" depth="1" NCoef="0" IVar="-1" Cut="0.0000000000000000e+00" cType="1" res="-7.9850042238831520e-03" rms="0.0000000000000000e+00" purity="7.5900420546531677e-02" nType="-99"/>
      </Node>
    </BinaryTree>
    <BinaryTree type="DecisionTree" boostWeight="1.0000000000000000e+00" itree="1011">
      <Node pos="s" depth="0" NCoef="0" IVar="60" Cut="-7.5244289636611938e-01" cType="1" res="4.4161468395031989e-04" rms="2.0744651556015015e-01" purity="4.9232420325279236e-01" nType="0">
        <Node pos="l" depth="1" NCoef="0" IVar="15" Cut="1.5225218534469604e+00" cType="1" res="6.3575906679034233e-03" rms="2.1490477025508881e-01" purity="5.0963366031646729e-01" nType="0">
          <Node pos="l" depth="2" NCoef="0" IVar="-1" Cut="0.0000000000000000e+00" cType="1" res="4.7239792183972895e-04" rms="1.9891338050365448e-01" purity="5.1590865850448608e-01" nType="-99"/>
          <Node pos="r" depth="2" NCoef="0" IVar="-1" Cut="0.0000000000000000e+00" cType="1" res="-1.5925343614071608e-03" rms="3.0668881535530090e-01" purity="4.5725724101066589e-01" nType="-99"/>
        </Node>
        <Node pos="r" depth="1" NCoef="0" IVar="55" Cut="1.0432066917419434e+00" cType="1" res="-5.8778757229447365e-03" rms="0.0000000000000000e+00" purity="1.2053943425416946e-01" nType="-99"/>
      </Node>
    </BinaryTree>
    <BinaryTree type="DecisionTree" boostWeight="1.0000000000000000e+00" itree="1012">
      <Node pos="s" depth="0" NCoef="0" IVar="25" Cut="9.5059990882873535e-01" cType="1" res="9.6564767882227898e-03" rms="2.2363243997097015e-01" purity="4.9963179230690002e-01" nType="0">
        <Node pos="l" depth="1" NCoef="0" IVar="6" Cut="1.1244584321975708e+00" cType="1" res="3.9887323975563049e-02" rms="2.4859775602817535e-01" purity="5.5759751796722412e-01" nType="0">
          <Node pos="l" depth="2" NCoef="0" IVar="-1" Cut="0.0000000000000000e+00" cType="1" res="-2.7773140463978052e-03" rms="0.0000000000000000e+00" purity="6.5052092075347900e-02" nType="-99"/>
          <Node pos="r" depth="2" NCoef="0" IVar="-1" Cut="0.0000000000000000e+00" cType="1" res="1.1931390035897493e-03" rms="2.5717863440513611e-01" purity="5.9896665811538696e-01" nType="-99"/>
        </Node>
        <Node pos="r" depth="1" NCoef="0" IVar="5" Cut="2.6696974039077759e-01" cType="1" res="-1.6287805512547493e-02" rms="1.9605186581611633e-01" purity="4.4988518953323364e-01" nType="0">
          <Node pos="l" depth="2" NCoef="0" IVar="-1" Cut="0.0000000000000000e+00" cType="1" res="5.3776724962517619e-04" rms="1.8662855029106140e-01" purity="6.4052385091781616e-01" nType="-99"/>
          <Node pos="r" depth="2" NCoef="0" IVar="-1" Cut="0.0000000000000000e+00" cType="1" res="-1.5750015154480934e-03" rms="2.0064641535282135e-01" purity="2.2558163106441498e-01" nType="-99"/>
        </Node>
      </Node>
    </BinaryTree>
    <BinaryTree type="DecisionTree" boostWeight="1.0000000000000000e+00" itree="1013">
      <Node pos="s" depth="0" NCoef="0" IVar="5" Cut="4.5359352231025696e-01" cType="1" res="9.1162230819463730e-03" rms="2.2757983207702637e-01" purity="4.9392768740653992e-01" nType="0">
        <Node pos="l" depth="1" NCoef="0" IVar="57" Cut="-1.9621528685092926e-01" cType="1" res="2.5208372622728348e-02" rms="2.2625736892223358e-01" purity="5.9484815597534180e-01" nType="0">
          <Node pos="l" depth="2" NCoef="0" IVar="-1" Cut="0.0000000000000000e+00" cType="1" res="1.1319130426272750e-03" rms="2.4155139923095703e-01" purity="6.4541822671890259e-01" nType="-99"/>
          <Node pos="r" depth="2" NCoef="0" IVar="-1" Cut="0.0000000000000000e+00" cType="1" res="-5.5365083971992135e-04" rms="1.6581493616104126e-01" purity="4.4569146633148193e-01" nType="-99"/>
        </Node>
        <Node pos="r" depth="1" NCoef="0" IVar="5" Cut="4.9011370539665222e-01" cType="1" res="-4.5075081288814545e-02" rms="2.2361789643764496e-01" purity="1.5407171845436096e-01" nType="0">
          <Node pos="l" depth="2" NCoef="0" IVar="-1" Cut="0.0000000000000000e+00" cType="1" res="-3.6138114519417286e-03" rms="6.6456265747547150e-02" purity="6.6331110894680023e-02" nType="-99"/>
          <Node pos="r" depth="2" NCoef="0" IVar="-1" Cut="0.0000000000000000e+00" cType="1" res="-7.4672530172392726e-04" rms="2.3212294280529022e-01" purity="1.6653272509574890e-01" nType="-99"/>
        </Node>
      </Node>
    </BinaryTree>
    <BinaryTree type="DecisionTree" boostWeight="1.0000000000000000e+00" itree="1014">
      <Node pos="s" depth="0" NCoef="0" IVar="14" Cut="1.4050894975662231e+00" cType="1" res="1.1477001942694187e-02" rms="2.3007680475711823e-01" purity="5.0300246477127075e-01" nType="0">
        <Node pos="l" depth="1" NCoef="0" IVar="14" Cut="-7.9865568876266479e-01" cType="1" res="1.5403198078274727e-02" rms="2.3002718389034271e-01" purity="5.0990790128707886e-01" nType="0">
          <Node pos="l" depth="2" NCoef="0" IVar="-1" Cut="0.0000000000000000e+00" cType="1" res="-2.9640880529768765e-04" rms="2.0290473103523254e-01" purity="4.3838283419609070e-01" nType="-99"/>
          <Node pos="r" depth="2" NCoef="0" IVar="-1" Cut="0.0000000000000000e+00" cType="1" res="1.2261911761015654e-03" rms="2.5834220647811890e-01" purity="6.0582166910171509e-01" nType="-99"/>
        </Node>
        <Node pos="r" depth="1" NCoef="0" IVar="-1" Cut="0.0000000000000000e+00" cType="1" res="-2.9657899867743254e-03" rms="1.4431025087833405e-01" purity="1.8617002665996552e-01" nType="-99"/>
      </Node>
    </BinaryTree>
    <BinaryTree type="DecisionTree" boostWeight="1.0000000000000000e+00" itree="1015">
      <Node pos="s" depth="0" NCoef="0" IVar="56" Cut="-1.3767052888870239e+00" cType="1" res="6.7250211723148823e-03" rms="2.0919236540794373e-01" purity="4.9430105090141296e-01" nType="0">
        <Node pos="l" depth="1" NCoef="0" IVar="35" Cut="-1.4540519714355469e+00" cType="1" res="3.1956292688846588e-02" rms="2.3774936795234680e-01" purity="5.6773686408996582e-01" nType="0">
          <Node pos="l" depth="2" NCoef="0" IVar="-1" Cut="0.0000000000000000e+00" cType="1" res="-1.6848722007125616e-03" rms="1.6484887897968292e-01" purity="3.1446668505668640e-01" nType="-99"/>
          <Node pos="r" depth="2" NCoef="0" IVar="-1" Cut="0.0000000000000000e+00" cType="1" res="1.1116516543552279e-03" rms="2.4596160650253296e-01" purity="6.1023539304733276e-01" nType="-99"/>
        </Node>
        <Node pos="r" depth="1" NCoef="0" IVar="50" Cut="-1.2022614479064941e+00" cType="1" res="-3.1634461134672165e-02" rms="1.4804686605930328e-01" purity="3.8265541195869446e-01" nType="0">
          <Node pos="l" depth="2" NCoef="0" IVar="-1" Cut="0.0000000000000000e+00" cType="1" res="-5.0624337745830417e-04" rms="1.6198621690273285e-01" purity="4.1338077187538147e-01" nType="-99"/>
          <Node pos="r" depth="2" NCoef="0" IVar="-1" Cut="0.0000000000000000e+00" cType="1" res="-1.0569334030151367e-02" rms="0.0000000000000000e+00" purity="-1.2956216931343079e-01" nType="-99"/>
        </Node>
      </Node>
    </BinaryTree>
    <BinaryTree type="DecisionTree" boostWeight="1.0000000000000000e+00" itree="1016">
      <Node pos="s" depth="0" NCoef="0" IVar="52" Cut="3.3961846828460693e+00" cType="1" res="1.0875388979911804e-02" rms="2.2880901396274567e-01" purity="4.9974468350410461e-01" nType="0">
        <Node pos="l" depth="1" NCoef="0" IVar="3" Cut="5.1400418281555176e+00" cType="1" res="1.9507929682731628e-02" rms="2.3644734919071198e-01" purity="5.1338154077529907e-01" nType="0">
          <Node pos="l" depth="2" NCoef="0" IVar="-1" Cut="0.0000000000000000e+00" cType="1" res="3.0035580857656896e-04" rms="2.3182605206966400e-01" purity="5.0594592094421387e-01" nType="-99"/>
          <Node pos="r" depth="2" NCoef="0" IVar="-1" Cut="0.0000000000000000e+00" cType="1" res="2.6383015792816877e-03" rms="2.6229450106620789e-01" purity="5.9592640399932861e-01" nType="-99"/>
        </Node>
        <Node pos="r" depth="1" NCoef="0" IVar="57" Cut="-1.4171940088272095e+00" cType="1" res="-5.5981352925300598e-02" rms="1.4065380394458771e-01" purity="3.9413049817085266e-01" nType="0">
          <Node pos="l" depth="2" NCoef="0" IVar="-1" Cut="0.0000000000000000e+00" cType="1" res="-7.6819059904664755e-04" rms="1.9539122283458710e-01" purity="4.9759334325790405e-01" nType="-99"/>
          <Node pos="r" depth="2" NCoef="0" IVar="-1" Cut="0.0000000000000000e+00" cType="1" res="-5.6307674385607243e-03" rms="0.0000000000000000e+00" purity="1.4777062833309174e-01" nType="-99"/>
        </Node>
      </Node>
    </BinaryTree>
    <BinaryTree type="DecisionTree" boostWeight="1.0000000000000000e+00" itree="1017">
      <Node pos="s" depth="0" NCoef="0" IVar="3" Cut="4.9606046676635742e+00" cType="1" res="9.3983262777328491e-03" rms="2.1865433454513550e-01" purity="5.0614106655120850e-01" nType="0">
        <Node pos="l" depth="1" NCoef="0" IVar="2" Cut="2.5005888938903809e+00" cType="1" res="-6.6838762722909451e-03" rms="2.1453221142292023e-01" purity="4.7475215792655945e-01" nType="0">
          <Node pos="l" depth="2" NCoef="0" IVar="-1" Cut="0.0000000000000000e+00" cType="1" res="-1.6013829736039042e-03" rms="1.5639483928680420e-01" purity="2.7239388227462769e-01" nType="-99"/>
          <Node pos="r" depth="2" NCoef="0" IVar="-1" Cut="0.0000000000000000e+00" cType="1" res="5.5783760035410523e-04" rms="2.4805280566215515e-01" purity="6.3967639207839966e-01" nType="-99"/>
        </Node>
        <Node pos="r" depth="1" NCoef="0" IVar="4" Cut="3.5204279422760010e+00" cType="1" res="6.4637206494808197e-02" rms="2.2361426055431366e-01" purity="6.1395514011383057e-01" nType="0">
          <Node pos="l" depth="2" NCoef="0" IVar="-1" Cut="0.0000000000000000e+00" cType="1" res="4.8069031909108162e-03" rms="3.7941244244575500e-01" purity="5.6892806291580200e-01" nType="-99"/>
          <Node pos="r" depth="2" NCoef="0" IVar="-1" Cut="0.0000000000000000e+00" cType="1" res="1.3124918332323432e-03" rms="1.9360165297985077e-01" purity="6.1871123313903809e-01" nType="-99"/>
        </Node>
      </Node>
    </BinaryTree>
    <BinaryTree type="DecisionTree" boostWeight="1.0000000000000000e+00" itree="1018">
      <Node pos="s" depth="0" NCoef="0" IVar="52" Cut="2.4218571186065674e+00" cType="1" res="8.2783792167901993e-03" rms="2.1551896631717682e-01" purity="5.0577753782272339e-01" nType="0">
        <Node pos="l" depth="1" NCoef="0" IVar="41" Cut="1.8466895818710327e-01" cType="1" res="-2.1849803160876036e-03" rms="0.0000000000000000e+00" purity="2.0156100392341614e-01" nType="-99"/>
        <Node pos="r" depth="1" NCoef="0" IVar="60" Cut="-8.6367869377136230e-01" cType="1" res="1.8074771389365196e-02" rms="2.2691383957862854e-01" purity="5.4141837358474731e-01" nType="0">
          <Node pos="l" depth="2" NCoef="0" IVar="-1" Cut="0.0000000000000000e+00" cType="1" res="6.7588832462206483e-04" rms="2.3085948824882507e-01" purity="5.5722379684448242e-01" nType="-99"/>
          <Node pos="r" depth="2" NCoef="0" IVar="-1" Cut="0.0000000000000000e+00" cType="1" res="-4.0671690367162228e-03" rms="1.3458504341542721e-02" purity="2.1926066279411316e-01" nType="-99"/>
        </Node>
      </Node>
    </BinaryTree>
    <BinaryTree type="DecisionTree" boostWeight="1.0000000000000000e+00" itree="1019">
      <Node pos="s" depth="0" NCoef="0" IVar="0" Cut="8.5551816225051880e-01" cType="1" res="9.9677219986915588e-03" rms="2.2257719933986664e-01" purity="4.9938273429870605e-01" nType="0">
        <Node pos="l" depth="1" NCoef="0" IVar="3" Cut="4.9867863655090332e+00" cType="1" res="2.8529861941933632e-02" rms="2.3733758926391602e-01" purity="5.3999620676040649e-01" nType="0">
          <Node pos="l" depth="2" NCoef="0" IVar="-1" Cut="0.0000000000000000e+00" cType="1" res="3.9373320760205388e-04" rms="2.3072758316993713e-01" purity="5.1399391889572144e-01" nType="-99"/>
          <Node pos="r" depth="2" NCoef="0" IVar="-1" Cut="0.0000000000000000e+00" cType="1" res="2.3974261712282896e-03" rms="2.5357988476753235e-01" purity="6.3995230197906494e-01" nType="-99"/>
        </Node>
        <Node pos="r" depth="1" NCoef="0" IVar="48" Cut="1.1724865436553955e+00" cType="1" res="-5.5005963891744614e-02" rms="1.4265653491020203e-01" purity="3.5722222924232483e-01" nType="0">
          <Node pos="l" depth="2" NCoef="0" IVar="-1" Cut="0.0000000000000000e+00" cType="1" res="-4.2577381245791912e-03" rms="0.0000000000000000e+00" purity="-7.2789601981639862e-03" nType="-99"/>
          <Node pos="r" depth="2" NCoef="0" IVar="-1" Cut="0.0000000000000000e+00" cType="1" res="-8.3629344590008259e-04" rms="1.9089929759502411e-01" purity="4.5449882745742798e-01" nType="-99"/>
        </Node>
      </Node>
    </BinaryTree>
    <BinaryTree type="DecisionTree" boostWeight="1.0000000000000000e+00" itree="1020">
      <Node pos="s" depth="0" NCoef="0" IVar="18" Cut="-1.1027476787567139e+00" cType="1" res="1.3049545697867870e-02" rms="2.2414836287498474e-01" purity="5.0042635202407837e-01" nType="0">
        <Node pos="l" depth="1" NCoef="0" IVar="36" Cut="5.5673503875732422e-01" cType="1" res="2.1875642240047455e-02" rms="2.2809349000453949e-01" purity="5.3427934646606445e-01" nType="0">
          <Node pos="l" depth="2" NCoef="0" IVar="-1" Cut="0.0000000000000000e+00" cType="1" res="-5.3350613452494144e-03" rms="0.0000000000000000e+00" purity="1.7583180218935013e-02" nType="-99"/>
          <Node pos="r" depth="2" NCoef="0" IVar="-1" Cut="0.0000000000000000e+00" cType="1" res="7.8209693310782313e-04" rms="2.4861885607242584e-01" purity="6.2574934959411621e-01" nType="-99"/>
        </Node>
        <Node pos="r" depth="1" NCoef="0" IVar="15" Cut="1.4768043756484985e+00" cType="1" res="-6.1647977679967880e-02" rms="1.7001096904277802e-01" purity="2.1392011642456055e-01" nType="0">
          <Node pos="l" depth="2" NCoef="0" IVar="-1" Cut="0.0000000000000000e+00" cType="1" res="-1.7964906292036176e-03" rms="1.6170656681060791e-01" purity="1.7197002470493317e-01" nType="-99"/>
          <Node pos="r" depth="2" NCoef="0" IVar="-1" Cut="0.0000000000000000e+00" cType="1" res="-3.4224824048578739e-03" rms="1.6034640371799469e-01" purity="3.4923404455184937e-01" nType="-99"/>
        </Node>
      </Node>
    </BinaryTree>
    <BinaryTree type="DecisionTree" boostWeight="1.0000000000000000e+00" itree="1021">
      <Node pos="s" depth="0" NCoef="0" IVar="57" Cut="1.4717997610569000e-01" cType="1" res="1.1873207986354828e-02" rms="2.2186589241027832e-01" purity="5.0857251882553101e-01" nType="0">
        <Node pos="l" depth="1" NCoef="0" IVar="14" Cut="-1.2992165088653564e+00" cType="1" res="2.6423782110214233e-02" rms="2.4052923917770386e-01" purity="5.5711889266967773e-01" nType="0">
          <Node pos="l" depth="2" NCoef="0" IVar="-1" Cut="0.0000000000000000e+00" cType="1" res="-7.0230127312242985e-04" rms="2.2027020156383514e-01" purity="2.8149327635765076e-01" nType="-99"/>
          <Node pos="r" depth="2" NCoef="0" IVar="-1" Cut="0.0000000000000000e+00" cType="1" res="1.1150942882522941e-03" rms="2.4521106481552124e-01" purity="6.5794736146926880e-01" nType="-99"/>
        </Node>
        <Node pos="r" depth="1" NCoef="0" IVar="37" Cut="-8.7861996889114380e-01" cType="1" res="-3.2778982073068619e-02" rms="1.4176760613918304e-01" purity="3.5959559679031372e-01" nType="0">
          <Node pos="l" depth="2" NCoef="0" IVar="-1" Cut="0.0000000000000000e+00" cType="1" res="4.0147433173842728e-04" rms="2.1984970569610596e-01" purity="4.1905614733695984e-01" nType="-99"/>
          <Node pos="r" depth="2" NCoef="0" IVar="-1" Cut="0.0000000000000000e+00" cType="1" res="-2.5896814186125994e-03" rms="0.0000000000000000e+00" purity="2.9832032322883606e-01" nType="-99"/>
        </Node>
      </Node>
    </BinaryTree>
    <BinaryTree type="DecisionTree" boostWeight="1.0000000000000000e+00" itree="1022">
      <Node pos="s" depth="0" NCoef="0" IVar="3" Cut="5.1829047203063965e+00" cType="1" res="7.7696908265352249e-03" rms="2.1696901321411133e-01" purity="5.0194436311721802e-01" nType="0">
        <Node pos="l" depth="1" NCoef="0" IVar="17" Cut="1.5231137275695801e+00" cType="1" res="6.5946066752076149e-04" rms="2.1108642220497131e-01" purity="5.0277167558670044e-01" nType="0">
          <Node pos="l" depth="2" NCoef="0" IVar="-1" Cut="0.0000000000000000e+00" cType="1" res="-6.9872394669800997e-04" rms="2.0687288045883179e-01" purity="2.5461447238922119e-01" nType="-99"/>
          <Node pos="r" depth="2" NCoef="0" IVar="-1" Cut="0.0000000000000000e+00" cType="1" res="9.1704755323007703e-04" rms="2.1280661225318909e-01" purity="8.7690162658691406e-01" nType="-99"/>
        </Node>
        <Node pos="r" depth="1" NCoef="0" IVar="1" Cut="2.2913222312927246e+00" cType="1" res="9.9587775766849518e-02" rms="2.6553609967231750e-01" purity="4.9126091599464417e-01" nType="0">
          <Node pos="l" depth="2" NCoef="0" IVar="-1" Cut="0.0000000000000000e+00" cType="1" res="8.6541557684540749e-03" rms="4.3101772665977478e-01" purity="5.4335588216781616e-01" nType="-99"/>
          <Node pos="r" depth="2" NCoef="0" IVar="-1" Cut="0.0000000000000000e+00" cType="1" res="-1.1239891136938240e-05" rms="0.0000000000000000e+00" purity="4.7097629308700562e-01" nType="-99"/>
        </Node>
      </Node>
    </BinaryTree>
    <BinaryTree type="DecisionTree" boostWeight="1.0000000000000000e+00" itree="1023">
      <Node pos="s" depth="0" NCoef="0" IVar="60" Cut="-8.4596365690231323e-01" cType="1" res="1.4749951660633087e-02" rms="2.3138168454170227e-01" purity="5.0467336177825928e-01" nType="0">
        <Node pos="l" depth="1" NCoef="0" IVar="3" Cut="5.0391459465026855e+00" cType="1" res="2.1565604954957962e-02" rms="2.3726294934749603e-01" purity="5.2566552162170410e-01" nType="0">
          <Node pos="l" depth="2" NCoef="0" IVar="-1" Cut="0.0000000000000000e+00" cType="1" res="2.7741861413232982e-04" rms="2.3243275284767151e-01" purity="5.1415508985519409e-01" nType="-99"/>
          <Node pos="r" depth="2" NCoef="0" IVar="-1" Cut="0.0000000000000000e+00" cType="1" res="2.3206057958304882e-03" rms="2.5263494253158569e-01" purity="5.8819192647933960e-01" nType="-99"/>
        </Node>
        <Node pos="r" depth="1" NCoef="0" IVar="15" Cut="1.3250796794891357e+00" cType="1" res="-3.4547254908829927e-03" rms="0.0000000000000000e+00" purity="1.8070369958877563e-01" nType="-99"/>
      </Node>
    </BinaryTree>
    <BinaryTree type="DecisionTree" boostWeight="1.0000000000000000e+00" itree="1024">
      <Node pos="s" depth="0" NCoef="0" IVar="3" Cut="4.9526185989379883e+00" cType="1" res="7.0028887130320072e-03" rms="2.1549309790134430e-01" purity="4.9257940053939819e-01" nType="0">
        <Node pos="l" depth="1" NCoef="0" IVar="1" Cut="3.0622024536132812e+00" cType="1" res="-9.4317812472581863e-03" rms="2.0793293416500092e-01" purity="4.5769548416137695e-01" nType="0">
          <Node pos="l" depth="2" NCoef="0" IVar="-1" Cut="0.0000000000000000e+00" cType="1" res="-1.6364954644814134e-03" rms="1.4524835348129272e-01" purity="2.4596740305423737e-01" nType="-99"/>
          <Node pos="r" depth="2" NCoef="0" IVar="-1" Cut="0.0000000000000000e+00" cType="1" res="5.2958028391003609e-04" rms="2.4352233111858368e-01" purity="6.3142687082290649e-01" nType="-99"/>
        </Node>
        <Node pos="r" depth="1" NCoef="0" IVar="4" Cut="3.5162811279296875e+00" cType="1" res="6.0052260756492615e-02" rms="2.3040017485618591e-01" purity="6.0518109798431396e-01" nType="0">
          <Node pos="l" depth="2" NCoef="0" IVar="-1" Cut="0.0000000000000000e+00" cType="1" res="5.8985282666981220e-03" rms="4.1579648852348328e-01" purity="5.3699374198913574e-01" nType="-99"/>
          <Node pos="r" depth="2" NCoef="0" IVar="-1" Cut="0.0000000000000000e+00" cType="1" res="1.1007727589458227e-03" rms="1.8577553331851959e-01" purity="6.1235010623931885e-01" nType="-99"/>
        </Node>
      </Node>
    </BinaryTree>
    <BinaryTree type="DecisionTree" boostWeight="1.0000000000000000e+00" itree="1025">
      <Node pos="s" depth="0" NCoef="0" IVar="52" Cut="2.4094488620758057e+00" cType="1" res="2.9065059497952461e-03" rms="2.1780109405517578e-01" purity="4.9304157495498657e-01" nType="0">
        <Node pos="l" depth="1" NCoef="0" IVar="10" Cut="2.8885962963104248e+00" cType="1" res="-2.5932786520570517e-03" rms="0.0000000000000000e+00" purity="1.8717725574970245e-01" nType="-99"/>
        <Node pos="r" depth="1" NCoef="0" IVar="3" Cut="4.5526180267333984e+00" cType="1" res="1.2714819982647896e-02" rms="2.2838464379310608e-01" purity="5.2745467424392700e-01" nType="0">
          <Node pos="l" depth="2" NCoef="0" IVar="-1" Cut="0.0000000000000000e+00" cType="1" res="-9.6370454411953688e-04" rms="2.1936208009719849e-01" purity="3.2471749186515808e-01" nType="-99"/>
          <Node pos="r" depth="2" NCoef="0" IVar="-1" Cut="0.0000000000000000e+00" cType="1" res="7.8995845979079604e-04" rms="2.2939513623714447e-01" purity="5.9547501802444458e-01" nType="-99"/>
        </Node>
      </Node>
    </BinaryTree>
    <BinaryTree type="DecisionTree" boostWeight="1.0000000000000000e+00" itree="1026">
      <Node pos="s" depth="0" NCoef="0" IVar="57" Cut="7.0875488221645355e-02" cType="1" res="4.1392142884433270e-03" rms="2.1556961536407471e-01" purity="4.9854424595832825e-01" nType="0">
        <Node pos="l" depth="1" NCoef="0" IVar="14" Cut="-1.3379870653152466e+00" cType="1" res="1.6773412004113197e-02" rms="2.2594507038593292e-01" purity="5.5250781774520874e-01" nType="0">
          <Node pos="l" depth="2" NCoef="0" IVar="-1" Cut="0.0000000000000000e+00" cType="1" res="-1.3205480063334107e-03" rms="1.6610179841518402e-01" purity="2.4212896823883057e-01" nType="-99"/>
          <Node pos="r" depth="2" NCoef="0" IVar="-1" Cut="0.0000000000000000e+00" cType="1" res="8.6535507580265403e-04" rms="2.3848472535610199e-01" purity="6.4583152532577515e-01" nType="-99"/>
        </Node>
        <Node pos="r" depth="1" NCoef="0" IVar="48" Cut="8.0768436193466187e-01" cType="1" res="-3.5702537745237350e-02" rms="1.7301349341869354e-01" purity="3.2837089896202087e-01" nType="0">
          <Node pos="l" depth="2" NCoef="0" IVar="-1" Cut="0.0000000000000000e+00" cType="1" res="-8.9127011597156525e-03" rms="0.0000000000000000e+00" purity="-1.1942091584205627e-01" nType="-99"/>
          <Node pos="r" depth="2" NCoef="0" IVar="-1" Cut="0.0000000000000000e+00" cType="1" res="-6.9659069413319230e-04" rms="2.0358452200889587e-01" purity="3.7292009592056274e-01" nType="-99"/>
        </Node>
      </Node>
    </BinaryTree>
    <BinaryTree type="DecisionTree" boostWeight="1.0000000000000000e+00" itree="1027">
      <Node pos="s" depth="0" NCoef="0" IVar="18" Cut="-1.1030110120773315e+00" cType="1" res="1.1095725931227207e-02" rms="2.2574406862258911e-01" purity="4.9960517883300781e-01" nType="0">
        <Node pos="l" depth="1" NCoef="0" IVar="3" Cut="5.0285706520080566e+00" cType="1" res="1.9962852820754051e-02" rms="2.2734555602073669e-01" purity="5.3301537036895752e-01" nType="0">
          <Node pos="l" depth="2" NCoef="0" IVar="-1" Cut="0.0000000000000000e+00" cType="1" res="2.0848005078732967e-04" rms="2.2246824204921722e-01" purity="5.1707935333251953e-01" nType="-99"/>
          <Node pos="r" depth="2" NCoef="0" IVar="-1" Cut="0.0000000000000000e+00" cType="1" res="2.2627792786806822e-03" rms="2.4093064665794373e-01" purity="6.1268973350524902e-01" nType="-99"/>
        </Node>
        <Node pos="r" depth="1" NCoef="0" IVar="0" Cut="7.2246509790420532e-01" cType="1" res="-6.3558928668498993e-02" rms="1.9650934636592865e-01" purity="2.1831551194190979e-01" nType="0">
          <Node pos="l" depth="2" NCoef="0" IVar="-1" Cut="0.0000000000000000e+00" cType="1" res="-7.6890463242307305e-04" rms="2.6064717769622803e-01" purity="2.9135504364967346e-01" nType="-99"/>
          <Node pos="r" depth="2" NCoef="0" IVar="-1" Cut="0.0000000000000000e+00" cType="1" res="-7.6666353270411491e-03" rms="0.0000000000000000e+00" purity="8.6270362138748169e-02" nType="-99"/>
        </Node>
      </Node>
    </BinaryTree>
    <BinaryTree type="DecisionTree" boostWeight="1.0000000000000000e+00" itree="1028">
      <Node pos="s" depth="0" NCoef="0" IVar="15" Cut="1.5225218534469604e+00" cType="1" res="1.0020980611443520e-02" rms="2.2100071609020233e-01" purity="5.0273489952087402e-01" nType="0">
        <Node pos="l" depth="1" NCoef="0" IVar="21" Cut="-5.1074802875518799e-01" cType="1" res="1.8243476748466492e-02" rms="2.0710350573062897e-01" purity="5.0842094421386719e-01" nType="0">
          <Node pos="l" depth="2" NCoef="0" IVar="-1" Cut="0.0000000000000000e+00" cType="1" res="2.5475707370787859e-03" rms="3.1873261928558350e-01" purity="5.0873851776123047e-01" nType="-99"/>
          <Node pos="r" depth="2" NCoef="0" IVar="-1" Cut="0.0000000000000000e+00" cType="1" res="3.0254467856138945e-04" rms="1.8967646360397339e-01" purity="5.0838714838027954e-01" nType="-99"/>
        </Node>
        <Node pos="r" depth="1" NCoef="0" IVar="15" Cut="1.5287305116653442e+00" cType="1" res="-5.8359418064355850e-02" rms="3.0509084463119507e-01" purity="4.5544841885566711e-01" nType="0">
          <Node pos="l" depth="2" NCoef="0" IVar="-1" Cut="0.0000000000000000e+00" cType="1" res="7.8872521407902241e-04" rms="2.9086911678314209e-01" purity="6.6023564338684082e-01" nType="-99"/>
          <Node pos="r" depth="2" NCoef="0" IVar="-1" Cut="0.0000000000000000e+00" cType="1" res="-2.6882977690547705e-03" rms="2.9808974266052246e-01" purity="3.5011583566665649e-01" nType="-99"/>
        </Node>
      </Node>
    </BinaryTree>
    <BinaryTree type="DecisionTree" boostWeight="1.0000000000000000e+00" itree="1029">
      <Node pos="s" depth="0" NCoef="0" IVar="2" Cut="2.5532896518707275e+00" cType="1" res="4.8882593400776386e-03" rms="2.1542541682720184e-01" purity="4.9983346462249756e-01" nType="0">
        <Node pos="l" depth="1" NCoef="0" IVar="52" Cut="3.5432386398315430e+00" cType="1" res="-2.1248169243335724e-02" rms="1.7937427759170532e-01" purity="3.4025663137435913e-01" nType="0">
          <Node pos="l" depth="2" NCoef="0" IVar="-1" Cut="0.0000000000000000e+00" cType="1" res="-4.0476131835021079e-04" rms="1.9490927457809448e-01" purity="3.5518240928649902e-01" nType="-99"/>
          <Node pos="r" depth="2" NCoef="0" IVar="-1" Cut="0.0000000000000000e+00" cType="1" res="-9.4500174745917320e-03" rms="0.0000000000000000e+00" purity="8.7412804365158081e-02" nType="-99"/>
        </Node>
        <Node pos="r" depth="1" NCoef="0" IVar="21" Cut="4.5614998787641525e-02" cType="1" res="3.2729893922805786e-02" rms="2.4508540332317352e-01" purity="6.6982150077819824e-01" nType="0">
          <Node pos="l" depth="2" NCoef="0" IVar="-1" Cut="0.0000000000000000e+00" cType="1" res="2.8825123445130885e-04" rms="2.1680316329002380e-01" purity="6.7069804668426514e-01" nType="-99"/>
          <Node pos="r" depth="2" NCoef="0" IVar="-1" Cut="0.0000000000000000e+00" cType="1" res="1.7331796698272228e-03" rms="2.9212832450866699e-01" purity="6.6790324449539185e-01" nType="-99"/>
        </Node>
      </Node>
    </BinaryTree>
    <BinaryTree type="DecisionTree" boostWeight="1.0000000000000000e+00" itree="1030">
      <Node pos="s" depth="0" NCoef="0" IVar="44" Cut="1.2345679104328156e-02" cType="1" res="1.1815474368631840e-02" rms="2.2695685923099518e-01" purity="4.9805259704589844e-01" nType="0">
        <Node pos="l" depth="1" NCoef="0" IVar="39" Cut="-2.3409974575042725e+00" cType="1" res="-3.4377612173557281e-02" rms="1.9142387807369232e-01" purity="3.7029483914375305e-01" nType="0">
          <Node pos="l" depth="2" NCoef="0" IVar="-1" Cut="0.0000000000000000e+00" cType="1" res="-4.7483807429671288e-03" rms="0.0000000000000000e+00" purity="1.8652963638305664e-01" nType="-99"/>
          <Node pos="r" depth="2" NCoef="0" IVar="-1" Cut="0.0000000000000000e+00" cType="1" res="-7.8741996549069881e-04" rms="2.0098882913589478e-01" purity="3.9030694961547852e-01" nType="-99"/>
        </Node>
        <Node pos="r" depth="1" NCoef="0" IVar="29" Cut="-2.5208705663681030e-01" cType="1" res="3.0242528766393661e-02" rms="2.3716880381107330e-01" purity="5.4901695251464844e-01" nType="0">
          <Node pos="l" depth="2" NCoef="0" IVar="-1" Cut="0.0000000000000000e+00" cType="1" res="9.1245205840095878e-04" rms="2.4230143427848816e-01" purity="5.5496573448181152e-01" nType="-99"/>
          <Node pos="r" depth="2" NCoef="0" IVar="-1" Cut="0.0000000000000000e+00" cType="1" res="-4.1107498109340668e-03" rms="0.0000000000000000e+00" purity="3.8058352470397949e-01" nType="-99"/>
        </Node>
      </Node>
    </BinaryTree>
    <BinaryTree type="DecisionTree" boostWeight="1.0000000000000000e+00" itree="1031">
      <Node pos="s" depth="0" NCoef="0" IVar="18" Cut="-1.1668176651000977e+00" cType="1" res="1.0981352999806404e-02" rms="2.2787420451641083e-01" purity="4.9715265631675720e-01" nType="0">
        <Node pos="l" depth="1" NCoef="0" IVar="39" Cut="-9.7427749633789062e-01" cType="1" res="2.0236153155565262e-02" rms="2.2786390781402588e-01" purity="5.3304284811019897e-01" nType="0">
          <Node pos="l" depth="2" NCoef="0" IVar="-1" Cut="0.0000000000000000e+00" cType="1" res="6.9748866371810436e-04" rms="2.3151510953903198e-01" purity="5.5541235208511353e-01" nType="-99"/>
          <Node pos="r" depth="2" NCoef="0" IVar="-1" Cut="0.0000000000000000e+00" cType="1" res="-3.6057839170098305e-03" rms="1.5215243399143219e-01" purity="2.4658988416194916e-01" nType="-99"/>
        </Node>
        <Node pos="r" depth="1" NCoef="0" IVar="37" Cut="-1.5474037826061249e-01" cType="1" res="-5.3410526365041733e-02" rms="2.1729488670825958e-01" purity="2.4744015932083130e-01" nType="0">
          <Node pos="l" depth="2" NCoef="0" IVar="-1" Cut="0.0000000000000000e+00" cType="1" res="-5.0335039850324392e-04" rms="2.6568433642387390e-01" purity="3.1096294522285461e-01" nType="-99"/>
          <Node pos="r" depth="2" NCoef="0" IVar="-1" Cut="0.0000000000000000e+00" cType="1" res="-8.6338156834244728e-03" rms="0.0000000000000000e+00" purity="7.9542681574821472e-02" nType="-99"/>
        </Node>
      </Node>
    </BinaryTree>
    <BinaryTree type="DecisionTree" boostWeight="1.0000000000000000e+00" itree="1032">
      <Node pos="s" depth="0" NCoef="0" IVar="0" Cut="9.3307787179946899e-01" cType="1" res="5.9261615388095379e-03" rms="2.1723078191280365e-01" purity="4.9682927131652832e-01" nType="0">
        <Node pos="l" depth="1" NCoef="0" IVar="2" Cut="2.6727902889251709e+00" cType="1" res="1.7609518021345139e-02" rms="2.2123876214027405e-01" purity="5.2833473682403564e-01" nType="0">
          <Node pos="l" depth="2" NCoef="0" IVar="-1" Cut="0.0000000000000000e+00" cType="1" res="-1.8124234338756651e-04" rms="2.0223002135753632e-01" purity="3.9635938405990601e-01" nType="-99"/>
          <Node pos="r" depth="2" NCoef="0" IVar="-1" Cut="0.0000000000000000e+00" cType="1" res="1.2020946014672518e-03" rms="2.4238750338554382e-01" purity="7.2046464681625366e-01" nType="-99"/>
        </Node>
        <Node pos="r" depth="1" NCoef="0" IVar="61" Cut="4.0659847855567932e-01" cType="1" res="-5.5426046252250671e-02" rms="1.8297509849071503e-01" purity="3.3138608932495117e-01" nType="0">
          <Node pos="l" depth="2" NCoef="0" IVar="-1" Cut="0.0000000000000000e+00" cType="1" res="2.5539980269968510e-03" rms="3.4114757180213928e-01" purity="5.2856254577636719e-01" nType="-99"/>
          <Node pos="r" depth="2" NCoef="0" IVar="-1" Cut="0.0000000000000000e+00" cType="1" res="-2.6227165944874287e-03" rms="9.8176687955856323e-02" purity="2.8600227832794189e-01" nType="-99"/>
        </Node>
      </Node>
    </BinaryTree>
    <BinaryTree type="DecisionTree" boostWeight="1.0000000000000000e+00" itree="1033">
      <Node pos="s" depth="0" NCoef="0" IVar="3" Cut="4.4042005538940430e+00" cType="1" res="6.5673775970935822e-03" rms="2.2145387530326843e-01" purity="5.0081562995910645e-01" nType="0">
        <Node pos="l" depth="1" NCoef="0" IVar="13" Cut="1.4366091489791870e+00" cType="1" res="-7.3087207973003387e-02" rms="1.6493254899978638e-01" purity="2.0045304298400879e-01" nType="0">
          <Node pos="l" depth="2" NCoef="0" IVar="-1" Cut="0.0000000000000000e+00" cType="1" res="-5.3660728735849261e-04" rms="1.0183278471231461e-01" purity="2.3009587079286575e-02" nType="-99"/>
          <Node pos="r" depth="2" NCoef="0" IVar="-1" Cut="0.0000000000000000e+00" cType="1" res="-2.6369486004114151e-03" rms="1.8161593377590179e-01" purity="3.2681441307067871e-01" nType="-99"/>
        </Node>
        <Node pos="r" depth="1" NCoef="0" IVar="52" Cut="2.4094488620758057e+00" cType="1" res="1.5776783227920532e-02" rms="2.2527404129505157e-01" purity="5.3554254770278931e-01" nType="0">
          <Node pos="l" depth="2" NCoef="0" IVar="-1" Cut="0.0000000000000000e+00" cType="1" res="-1.6477224417030811e-03" rms="1.2860743701457977e-01" purity="2.4522654712200165e-01" nType="-99"/>
          <Node pos="r" depth="2" NCoef="0" IVar="-1" Cut="0.0000000000000000e+00" cType="1" res="6.7463319282978773e-04" rms="2.3183873295783997e-01" purity="5.6665521860122681e-01" nType="-99"/>
        </Node>
      </Node>
    </BinaryTree>
    <BinaryTree type="DecisionTree" boostWeight="1.0000000000000000e+00" itree="1034">
      <Node pos="s" depth="0" NCoef="0" IVar="0" Cut="6.9073772430419922e-01" cType="1" res="1.3365959748625755e-02" rms="2.2489464282989502e-01" purity="5.0040161609649658e-01" nType="0">
        <Node pos="l" depth="1" NCoef="0" IVar="3" Cut="5.1904230117797852e+00" cType="1" res="3.1952641904354095e-02" rms="2.4017079174518585e-01" purity="5.5947768688201904e-01" nType="0">
          <Node pos="l" depth="2" NCoef="0" IVar="-1" Cut="0.0000000000000000e+00" cType="1" res="6.4288883004337549e-04" rms="2.3286661505699158e-01" purity="5.6026393175125122e-01" nType="-99"/>
          <Node pos="r" depth="2" NCoef="0" IVar="-1" Cut="0.0000000000000000e+00" cType="1" res="3.2675706315785646e-03" rms="2.9348403215408325e-01" purity="5.5021619796752930e-01" nType="-99"/>
        </Node>
        <Node pos="r" depth="1" NCoef="0" IVar="58" Cut="-3.7549850344657898e-01" cType="1" res="-1.7431922256946564e-02" rms="1.9309259951114655e-01" purity="4.0251341462135315e-01" nType="0">
          <Node pos="l" depth="2" NCoef="0" IVar="-1" Cut="0.0000000000000000e+00" cType="1" res="2.8198203654028475e-04" rms="2.3349002003669739e-01" purity="4.6021580696105957e-01" nType="-99"/>
          <Node pos="r" depth="2" NCoef="0" IVar="-1" Cut="0.0000000000000000e+00" cType="1" res="-3.1229534652084112e-03" rms="0.0000000000000000e+00" purity="2.5017237663269043e-01" nType="-99"/>
        </Node>
      </Node>
    </BinaryTree>
    <BinaryTree type="DecisionTree" boostWeight="1.0000000000000000e+00" itree="1035">
      <Node pos="s" depth="0" NCoef="0" IVar="48" Cut="9.6031236648559570e-01" cType="1" res="5.8429995551705360e-03" rms="2.0983690023422241e-01" purity="5.0198960304260254e-01" nType="0">
        <Node pos="l" depth="1" NCoef="0" IVar="56" Cut="-1.4156395196914673e+00" cType="1" res="-2.5140217039734125e-03" rms="0.0000000000000000e+00" purity="6.5583012998104095e-02" nType="-99"/>
        <Node pos="r" depth="1" NCoef="0" IVar="49" Cut="-1.5512963533401489e+00" cType="1" res="1.6071824356913567e-02" rms="2.2640325129032135e-01" purity="5.5333739519119263e-01" nType="0">
          <Node pos="l" depth="2" NCoef="0" IVar="-1" Cut="0.0000000000000000e+00" cType="1" res="6.8221508990973234e-04" rms="2.3136278986930847e-01" purity="5.6928753852844238e-01" nType="-99"/>
          <Node pos="r" depth="2" NCoef="0" IVar="-1" Cut="0.0000000000000000e+00" cType="1" res="-3.0718159396201372e-03" rms="5.0483554601669312e-02" purity="3.2352894544601440e-01" nType="-99"/>
        </Node>
      </Node>
    </BinaryTree>
    <BinaryTree type="DecisionTree" boostWeight="1.0000000000000000e+00" itree="1036">
      <Node pos="s" depth="0" NCoef="0" IVar="25" Cut="1.0126924514770508e+00" cType="1" res="9.1822352260351181e-03" rms="2.2091346979141235e-01" purity="5.0370049476623535e-01" nType="0">
        <Node pos="l" depth="1" NCoef="0" IVar="22" Cut="1.2345679104328156e-02" cType="1" res="2.5777768343687057e-02" rms="2.3490484058856964e-01" purity="5.4358476400375366e-01" nType="0">
          <Node pos="l" depth="2" NCoef="0" IVar="-1" Cut="0.0000000000000000e+00" cType="1" res="3.9540207944810390e-03" rms="3.3132824301719666e-01" purity="4.5206323266029358e-01" nType="-99"/>
          <Node pos="r" depth="2" NCoef="0" IVar="-1" Cut="0.0000000000000000e+00" cType="1" res="4.4205784797668457e-04" rms="2.2421000897884369e-01" purity="5.4969400167465210e-01" nType="-99"/>
        </Node>
        <Node pos="r" depth="1" NCoef="0" IVar="14" Cut="6.7215067148208618e-01" cType="1" res="-3.2741758972406387e-02" rms="1.7389175295829773e-01" purity="4.0294405817985535e-01" nType="0">
          <Node pos="l" depth="2" NCoef="0" IVar="-1" Cut="0.0000000000000000e+00" cType="1" res="-7.7489466639235616e-04" rms="1.7927490174770355e-01" purity="4.2941474914550781e-01" nType="-99"/>
          <Node pos="r" depth="2" NCoef="0" IVar="-1" Cut="0.0000000000000000e+00" cType="1" res="-3.7864542100578547e-03" rms="6.9144405424594879e-02" purity="1.9994658231735229e-01" nType="-99"/>
        </Node>
      </Node>
    </BinaryTree>
    <BinaryTree type="DecisionTree" boostWeight="1.0000000000000000e+00" itree="1037">
      <Node pos="s" depth="0" NCoef="0" IVar="0" Cut="9.4593590497970581e-01" cType="1" res="6.0055456124246120e-03" rms="2.2292648255825043e-01" purity="4.8913562297821045e-01" nType="0">
        <Node pos="l" depth="1" NCoef="0" IVar="3" Cut="4.9584417343139648e+00" cType="1" res="1.7771434038877487e-02" rms="2.2842864692211151e-01" purity="5.1989179849624634e-01" nType="0">
          <Node pos="l" depth="2" NCoef="0" IVar="-1" Cut="0.0000000000000000e+00" cType="1" res="9.6813761047087610e-05" rms="2.2597995400428772e-01" purity="4.8785737156867981e-01" nType="-99"/>
          <Node pos="r" depth="2" NCoef="0" IVar="-1" Cut="0.0000000000000000e+00" cType="1" res="1.8010876374319196e-03" rms="2.3002272844314575e-01" purity="6.2786680459976196e-01" nType="-99"/>
        </Node>
        <Node pos="r" depth="1" NCoef="0" IVar="13" Cut="1.4776391983032227e+00" cType="1" res="-5.9894755482673645e-02" rms="1.7512392997741699e-01" purity="3.1687146425247192e-01" nType="0">
          <Node pos="l" depth="2" NCoef="0" IVar="-1" Cut="0.0000000000000000e+00" cType="1" res="1.8635687592905015e-04" rms="1.5995153784751892e-01" purity="1.3030488789081573e-01" nType="-99"/>
          <Node pos="r" depth="2" NCoef="0" IVar="-1" Cut="0.0000000000000000e+00" cType="1" res="-2.4208212271332741e-03" rms="1.6700719296932220e-01" purity="5.0186955928802490e-01" nType="-99"/>
        </Node>
      </Node>
    </BinaryTree>
    <BinaryTree type="DecisionTree" boostWeight="1.0000000000000000e+00" itree="1038">
      <Node pos="s" depth="0" NCoef="0" IVar="17" Cut="1.5231137275695801e+00" cType="1" res="-4.1436864994466305e-03" rms="2.0719325542449951e-01" purity="4.8948189616203308e-01" nType="0">
        <Node pos="l" depth="1" NCoef="0" IVar="0" Cut="7.7776706218719482e-01" cType="1" res="-2.7994923293590546e-02" rms="1.9790002703666687e-01" purity="2.4847997725009918e-01" nType="0">
          <Node pos="l" depth="2" NCoef="0" IVar="-1" Cut="0.0000000000000000e+00" cType="1" res="-1.6724757733754814e-04" rms="2.2627815604209900e-01" purity="2.9974752664566040e-01" nType="-99"/>
          <Node pos="r" depth="2" NCoef="0" IVar="-1" Cut="0.0000000000000000e+00" cType="1" res="-2.6188869960606098e-03" rms="9.7021870315074921e-02" purity="1.3668954372406006e-01" nType="-99"/>
        </Node>
        <Node pos="r" depth="1" NCoef="0" IVar="17" Cut="1.5360060930252075e+00" cType="1" res="3.3786863088607788e-02" rms="2.1580663323402405e-01" purity="8.7274646759033203e-01" nType="0">
          <Node pos="l" depth="2" NCoef="0" IVar="-1" Cut="0.0000000000000000e+00" cType="1" res="-1.7796732208807953e-05" rms="2.5060281157493591e-01" purity="8.1194508075714111e-01" nType="-99"/>
          <Node pos="r" depth="2" NCoef="0" IVar="-1" Cut="0.0000000000000000e+00" cType="1" res="1.5105762286111712e-03" rms="1.8556724488735199e-01" purity="9.1325229406356812e-01" nType="-99"/>
        </Node>
      </Node>
    </BinaryTree>
    <BinaryTree type="DecisionTree" boostWeight="1.0000000000000000e+00" itree="1039">
      <Node pos="s" depth="0" NCoef="0" IVar="14" Cut="1.4055399894714355e+00" cType="1" res="9.1208955273032188e-03" rms="2.2361284494400024e-01" purity="4.9421477317810059e-01" nType="0">
        <Node pos="l" depth="1" NCoef="0" IVar="18" Cut="-9.1072940826416016e-01" cType="1" res="1.2842105701565742e-02" rms="2.2294363379478455e-01" purity="5.0109219551086426e-01" nType="0">
          <Node pos="l" depth="2" NCoef="0" IVar="-1" Cut="0.0000000000000000e+00" cType="1" res="5.2919308654963970e-04" rms="2.2557653486728668e-01" purity="5.2282750606536865e-01" nType="-99"/>
          <Node pos="r" depth="2" NCoef="0" IVar="-1" Cut="0.0000000000000000e+00" cType="1" res="-4.3309647589921951e-03" rms="1.4033885300159454e-01" purity="1.3235996663570404e-01" nType="-99"/>
        </Node>
        <Node pos="r" depth="1" NCoef="0" IVar="-1" Cut="0.0000000000000000e+00" cType="1" res="-3.2494608312845230e-03" rms="1.7751440405845642e-01" purity="1.6234937310218811e-01" nType="-99"/>
      </Node>
    </BinaryTree>
    <BinaryTree type="DecisionTree" boostWeight="1.0000000000000000e+00" itree="1040">
      <Node pos="s" depth="0" NCoef="0" IVar="25" Cut="1.0160279273986816e+00" cType="1" res="3.4963318612426519e-03" rms="2.0980259776115417e-01" purity="4.9603155255317688e-01" nType="0">
        <Node pos="l" depth="1" NCoef="0" IVar="52" Cut="3.2908694744110107e+00" cType="1" res="1.8731297925114632e-02" rms="2.2348923981189728e-01" purity="5.3303498029708862e-01" nType="0">
          <Node pos="l" depth="2" NCoef="0" IVar="-1" Cut="0.0000000000000000e+00" cType="1" res="8.4738445002585649e-04" rms="2.3726800084114075e-01" purity="5.4406499862670898e-01" nType="-99"/>
          <Node pos="r" depth="2" NCoef="0" IVar="-1" Cut="0.0000000000000000e+00" cType="1" res="-1.1349767446517944e-03" rms="1.2910446524620056e-01" purity="4.8299872875213623e-01" nType="-99"/>
        </Node>
        <Node pos="r" depth="1" NCoef="0" IVar="17" Cut="1.5214687585830688e+00" cType="1" res="-3.7040669471025467e-02" rms="1.6117386519908905e-01" purity="3.9757335186004639e-01" nType="0">
          <Node pos="l" depth="2" NCoef="0" IVar="-1" Cut="0.0000000000000000e+00" cType="1" res="-3.4591685980558395e-03" rms="1.0474045574665070e-01" purity="1.3403189182281494e-01" nType="-99"/>
          <Node pos="r" depth="2" NCoef="0" IVar="-1" Cut="0.0000000000000000e+00" cType="1" res="5.1199109293520451e-04" rms="2.1799083054065704e-01" purity="8.6267107725143433e-01" nType="-99"/>
        </Node>
      </Node>
    </BinaryTree>
    <BinaryTree type="DecisionTree" boostWeight="1.0000000000000000e+00" itree="1041">
      <Node pos="s" depth="0" NCoef="0" IVar="15" Cut="1.5225218534469604e+00" cType="1" res="6.6531309857964516e-03" rms="2.1029366552829742e-01" purity="5.0313240289688110e-01" nType="0">
        <Node pos="l" depth="1" NCoef="0" IVar="17" Cut="1.5220416784286499e+00" cType="1" res="1.5728009864687920e-02" rms="1.9528998434543610e-01" purity="5.0595879554748535e-01" nType="0">
          <Node pos="l" depth="2" NCoef="0" IVar="-1" Cut="0.0000000000000000e+00" cType="1" res="-2.0033058535773307e-04" rms="2.0462809503078461e-01" purity="2.6357257366180420e-01" nType="-99"/>
          <Node pos="r" depth="2" NCoef="0" IVar="-1" Cut="0.0000000000000000e+00" cType="1" res="1.6438213642686605e-03" rms="1.7028075456619263e-01" purity="9.3853598833084106e-01" nType="-99"/>
        </Node>
        <Node pos="r" depth="1" NCoef="0" IVar="66" Cut="1.2345679104328156e-02" cType="1" res="-6.5072521567344666e-02" rms="2.9415011405944824e-01" purity="4.8079365491867065e-01" nType="0">
          <Node pos="l" depth="2" NCoef="0" IVar="-1" Cut="0.0000000000000000e+00" cType="1" res="-3.4945528022944927e-03" rms="2.9574057459831238e-01" purity="2.6984637975692749e-01" nType="-99"/>
          <Node pos="r" depth="2" NCoef="0" IVar="-1" Cut="0.0000000000000000e+00" cType="1" res="-6.1338701925706118e-05" rms="2.7741169929504395e-01" purity="6.4162296056747437e-01" nType="-99"/>
        </Node>
      </Node>
    </BinaryTree>
    <BinaryTree type="DecisionTree" boostWeight="1.0000000000000000e+00" itree="1042">
      <Node pos="s" depth="0" NCoef="0" IVar="18" Cut="-6.5424329042434692e-01" cType="1" res="8.0342786386609077e-03" rms="2.2245897352695465e-01" purity="4.9234482645988464e-01" nType="0">
        <Node pos="l" depth="1" NCoef="0" IVar="52" Cut="3.5377931594848633e+00" cType="1" res="1.1735764332115650e-02" rms="2.2410278022289276e-01" purity="5.0375968217849731e-01" nType="0">
          <Node pos="l" depth="2" NCoef="0" IVar="-1" Cut="0.0000000000000000e+00" cType="1" res="4.6796232345513999e-04" rms="2.3130440711975098e-01" purity="5.1432126760482788e-01" nType="-99"/>
          <Node pos="r" depth="2" NCoef="0" IVar="-1" Cut="0.0000000000000000e+00" cType="1" res="-3.1044757924973965e-03" rms="0.0000000000000000e+00" purity="3.0327066779136658e-01" nType="-99"/>
        </Node>
        <Node pos="r" depth="1" NCoef="0" IVar="-1" Cut="0.0000000000000000e+00" cType="1" res="-1.8474498763680458e-02" rms="0.0000000000000000e+00" purity="4.0704730898141861e-02" nType="-99"/>
      </Node>
    </BinaryTree>
    <BinaryTree type="DecisionTree" boostWeight="1.0000000000000000e+00" itree="1043">
      <Node pos="s" depth="0" NCoef="0" IVar="36" Cut="1.4841190576553345e+00" cType="1" res="1.0088399052619934e-02" rms="2.2303856909275055e-01" purity="4.9786669015884399e-01" nType="0">
        <Node pos="l" depth="1" NCoef="0" IVar="9" Cut="-7.5308644771575928e-01" cType="1" res="-2.0507857203483582e-02" rms="1.8625535070896149e-01" purity="2.2449535131454468e-01" nType="0">
          <Node pos="l" depth="2" NCoef="0" IVar="-1" Cut="0.0000000000000000e+00" cType="1" res="-9.6332887187600136e-03" rms="0.0000000000000000e+00" purity="-6.1412975192070007e-02" nType="-99"/>
          <Node pos="r" depth="2" NCoef="0" IVar="-1" Cut="0.0000000000000000e+00" cType="1" res="-4.8461006372235715e-04" rms="1.9967284798622131e-01" purity="2.4036566913127899e-01" nType="-99"/>
        </Node>
        <Node pos="r" depth="1" NCoef="0" IVar="2" Cut="1.5253424644470215e+00" cType="1" res="2.9912231490015984e-02" rms="2.4187013506889343e-01" purity="6.7498868703842163e-01" nType="0">
          <Node pos="l" depth="2" NCoef="0" IVar="-1" Cut="0.0000000000000000e+00" cType="1" res="-5.1465122960507870e-03" rms="8.8040493428707123e-02" purity="1.3025048375129700e-01" nType="-99"/>
          <Node pos="r" depth="2" NCoef="0" IVar="-1" Cut="0.0000000000000000e+00" cType="1" res="8.7198754772543907e-04" rms="2.4516853690147400e-01" purity="7.0575726032257080e-01" nType="-99"/>
        </Node>
      </Node>
    </BinaryTree>
    <BinaryTree type="DecisionTree" boostWeight="1.0000000000000000e+00" itree="1044">
      <Node pos="s" depth="0" NCoef="0" IVar="0" Cut="5.7861882448196411e-01" cType="1" res="1.1134079657495022e-02" rms="2.1586471796035767e-01" purity="5.1116496324539185e-01" nType="0">
        <Node pos="l" depth="1" NCoef="0" IVar="18" Cut="-1.1668041944503784e+00" cType="1" res="3.8319285959005356e-02" rms="2.3724393546581268e-01" purity="5.8261764049530029e-01" nType="0">
          <Node pos="l" depth="2" NCoef="0" IVar="-1" Cut="0.0000000000000000e+00" cType="1" res="1.2962359469383955e-03" rms="2.4026630818843842e-01" purity="6.1869257688522339e-01" nType="-99"/>
          <Node pos="r" depth="2" NCoef="0" IVar="-1" Cut="0.0000000000000000e+00" cType="1" res="-1.7333135474473238e-03" rms="1.8629966676235199e-01" purity="2.5790116190910339e-01" nType="-99"/>
        </Node>
        <Node pos="r" depth="1" NCoef="0" IVar="52" Cut="2.3923985958099365e+00" cType="1" res="-1.8428850919008255e-02" rms="1.8543343245983124e-01" purity="4.3346276879310608e-01" nType="0">
          <Node pos="l" depth="2" NCoef="0" IVar="-1" Cut="0.0000000000000000e+00" cType="1" res="-3.2388244289904833e-03" rms="0.0000000000000000e+00" purity="1.2913021445274353e-01" nType="-99"/>
          <Node pos="r" depth="2" NCoef="0" IVar="-1" Cut="0.0000000000000000e+00" cType="1" res="-1.9799386791419238e-04" rms="2.0311149954795837e-01" purity="4.7161886096000671e-01" nType="-99"/>
        </Node>
      </Node>
    </BinaryTree>
    <BinaryTree type="DecisionTree" boostWeight="1.0000000000000000e+00" itree="1045">
      <Node pos="s" depth="0" NCoef="0" IVar="52" Cut="2.3911831378936768e+00" cType="1" res="-3.7556450115516782e-04" rms="2.1570138633251190e-01" purity="4.7969850897789001e-01" nType="0">
        <Node pos="l" depth="1" NCoef="0" IVar="1" Cut="2.4523489475250244e+00" cType="1" res="-2.6553343050181866e-03" rms="0.0000000000000000e+00" purity="1.5169587731361389e-01" nType="-99"/>
        <Node pos="r" depth="1" NCoef="0" IVar="52" Cut="3.2617864608764648e+00" cType="1" res="8.3205858245491982e-03" rms="2.2533632814884186e-01" purity="5.1310151815414429e-01" nType="0">
          <Node pos="l" depth="2" NCoef="0" IVar="-1" Cut="0.0000000000000000e+00" cType="1" res="6.5839337185025215e-04" rms="2.3586943745613098e-01" purity="5.4346543550491333e-01" nType="-99"/>
          <Node pos="r" depth="2" NCoef="0" IVar="-1" Cut="0.0000000000000000e+00" cType="1" res="-1.1599422432482243e-03" rms="1.7896050214767456e-01" purity="4.1478320956230164e-01" nType="-99"/>
        </Node>
      </Node>
    </BinaryTree>
    <BinaryTree type="DecisionTree" boostWeight="1.0000000000000000e+00" itree="1046">
      <Node pos="s" depth="0" NCoef="0" IVar="17" Cut="1.5220416784286499e+00" cType="1" res="4.8446073196828365e-03" rms="2.0902609825134277e-01" purity="5.0677090883255005e-01" nType="0">
        <Node pos="l" depth="1" NCoef="0" IVar="0" Cut="6.6888457536697388e-01" cType="1" res="-1.4883764088153839e-02" rms="2.0215740799903870e-01" purity="2.6280108094215393e-01" nType="0">
          <Node pos="l" depth="2" NCoef="0" IVar="-1" Cut="0.0000000000000000e+00" cType="1" res="3.6678218748420477e-04" rms="2.3883372545242310e-01" purity="3.3814784884452820e-01" nType="-99"/>
          <Node pos="r" depth="2" NCoef="0" IVar="-1" Cut="0.0000000000000000e+00" cType="1" res="-1.7981043783947825e-03" rms="1.2057843059301376e-01" purity="1.5263232588768005e-01" nType="-99"/>
        </Node>
        <Node pos="r" depth="1" NCoef="0" IVar="15" Cut="1.5224975347518921e+00" cType="1" res="3.4393630921840668e-02" rms="2.1555979549884796e-01" purity="8.7218731641769409e-01" nType="0">
          <Node pos="l" depth="2" NCoef="0" IVar="-1" Cut="0.0000000000000000e+00" cType="1" res="1.4630293007940054e-03" rms="1.7551048099994659e-01" purity="9.3311434984207153e-01" nType="-99"/>
          <Node pos="r" depth="2" NCoef="0" IVar="-1" Cut="0.0000000000000000e+00" cType="1" res="-4.6689828741364181e-04" rms="3.2495582103729248e-01" purity="6.2331414222717285e-01" nType="-99"/>
        </Node>
      </Node>
    </BinaryTree>
    <BinaryTree type="DecisionTree" boostWeight="1.0000000000000000e+00" itree="1047">
      <Node pos="s" depth="0" NCoef="0" IVar="52" Cut="2.2183687686920166e+00" cType="1" res="1.1291113682091236e-02" rms="2.2764690220355988e-01" purity="4.9582767486572266e-01" nType="0">
        <Node pos="l" depth="1" NCoef="0" IVar="-1" Cut="0.0000000000000000e+00" cType="1" res="-5.7576186954975128e-03" rms="0.0000000000000000e+00" purity="-1.2175145559012890e-02" nType="-99"/>
        <Node pos="r" depth="1" NCoef="0" IVar="3" Cut="5.2327814102172852e+00" cType="1" res="1.6585115343332291e-02" rms="2.3362986743450165e-01" purity="5.1105636358261108e-01" nType="0">
          <Node pos="l" depth="2" NCoef="0" IVar="-1" Cut="0.0000000000000000e+00" cType="1" res="2.6468627038411796e-04" rms="2.2744432091712952e-01" purity="5.1289242506027222e-01" nType="-99"/>
          <Node pos="r" depth="2" NCoef="0" IVar="-1" Cut="0.0000000000000000e+00" cType="1" res="3.3496047835797071e-03" rms="2.9131513833999634e-01" purity="4.8133349418640137e-01" nType="-99"/>
        </Node>
      </Node>
    </BinaryTree>
    <BinaryTree type="DecisionTree" boostWeight="1.0000000000000000e+00" itree="1048">
      <Node pos="s" depth="0" NCoef="0" IVar="39" Cut="-2.8331713676452637e+00" cType="1" res="1.3184133917093277e-02" rms="2.1941849589347839e-01" purity="5.1023012399673462e-01" nType="0">
        <Node pos="l" depth="1" NCoef="0" IVar="-1" Cut="0.0000000000000000e+00" cType="1" res="-4.3950080871582031e-03" rms="0.0000000000000000e+00" purity="3.7273383140563965e-01" nType="-99"/>
        <Node pos="r" depth="1" NCoef="0" IVar="18" Cut="-7.1890729665756226e-01" cType="1" res="1.6872808337211609e-02" rms="2.2358463704586029e-01" purity="5.1358449459075928e-01" nType="0">
          <Node pos="l" depth="2" NCoef="0" IVar="-1" Cut="0.0000000000000000e+00" cType="1" res="5.7186943013221025e-04" rms="2.2522917389869690e-01" purity="5.2743786573410034e-01" nType="-99"/>
          <Node pos="r" depth="2" NCoef="0" IVar="-1" Cut="0.0000000000000000e+00" cType="1" res="-1.1162982322275639e-02" rms="1.0465808212757111e-01" purity="7.2901636362075806e-02" nType="-99"/>
        </Node>
      </Node>
    </BinaryTree>
    <BinaryTree type="DecisionTree" boostWeight="1.0000000000000000e+00" itree="1049">
      <Node pos="s" depth="0" NCoef="0" IVar="57" Cut="1.1392198801040649e+00" cType="1" res="1.1134606320410967e-03" rms="2.1404886245727539e-01" purity="4.9235245585441589e-01" nType="0">
        <Node pos="l" depth="1" NCoef="0" IVar="14" Cut="-1.3765250444412231e+00" cType="1" res="1.3398412615060806e-02" rms="2.2862844169139862e-01" purity="5.3455513715744019e-01" nType="0">
          <Node pos="l" depth="2" NCoef="0" IVar="-1" Cut="0.0000000000000000e+00" cType="1" res="-1.7053866758942604e-03" rms="1.6249822080135345e-01" purity="1.7982153594493866e-01" nType="-99"/>
          <Node pos="r" depth="2" NCoef="0" IVar="-1" Cut="0.0000000000000000e+00" cType="1" res="7.2119152173399925e-04" rms="2.3985669016838074e-01" purity="6.2038230895996094e-01" nType="-99"/>
        </Node>
        <Node pos="r" depth="1" NCoef="0" IVar="66" Cut="1.2345679104328156e-02" cType="1" res="-6.0128580778837204e-02" rms="9.5601975917816162e-02" purity="2.8196644783020020e-01" nType="0">
          <Node pos="l" depth="2" NCoef="0" IVar="-1" Cut="0.0000000000000000e+00" cType="1" res="-5.8501679450273514e-03" rms="0.0000000000000000e+00" purity="1.0961857438087463e-01" nType="-99"/>
          <Node pos="r" depth="2" NCoef="0" IVar="-1" Cut="0.0000000000000000e+00" cType="1" res="-4.6747052692808211e-04" rms="1.9371767342090607e-01" purity="3.7655493617057800e-01" nType="-99"/>
        </Node>
      </Node>
    </BinaryTree>
    <BinaryTree type="DecisionTree" boostWeight="1.0000000000000000e+00" itree="1050">
      <Node pos="s" depth="0" NCoef="0" IVar="27" Cut="1.1400616168975830e+00" cType="1" res="3.6495376843959093e-03" rms="2.2015379369258881e-01" purity="5.0594389438629150e-01" nType="0">
        <Node pos="l" depth="1" NCoef="0" IVar="42" Cut="6.2506608664989471e-02" cType="1" res="-4.2119384743273258e-03" rms="0.0000000000000000e+00" purity="1.3096223771572113e-01" nType="-99"/>
        <Node pos="r" depth="1" NCoef="0" IVar="15" Cut="1.5225218534469604e+00" cType="1" res="1.3495865277945995e-02" rms="2.3599959909915924e-01" purity="5.5369496345520020e-01" nType="0">
          <Node pos="l" depth="2" NCoef="0" IVar="-1" Cut="0.0000000000000000e+00" cType="1" res="6.4679590286687016e-04" rms="2.1984396874904633e-01" purity="5.5947816371917725e-01" nType="-99"/>
          <Node pos="r" depth="2" NCoef="0" IVar="-1" Cut="0.0000000000000000e+00" cType="1" res="-1.1879535159096122e-03" rms="3.3624026179313660e-01" purity="5.0334519147872925e-01" nType="-99"/>
        </Node>
      </Node>
    </BinaryTree>
    <BinaryTree type="DecisionTree" boostWeight="1.0000000000000000e+00" itree="1051">
      <Node pos="s" depth="0" NCoef="0" IVar="5" Cut="2.8323230147361755e-01" cType="1" res="7.0254984311759472e-03" rms="2.1326509118080139e-01" purity="5.0367420911788940e-01" nType="0">
        <Node pos="l" depth="1" NCoef="0" IVar="31" Cut="2.7560253143310547e+00" cType="1" res="3.2394479960203171e-02" rms="1.9494375586509705e-01" purity="6.7611932754516602e-01" nType="0">
          <Node pos="l" depth="2" NCoef="0" IVar="-1" Cut="0.0000000000000000e+00" cType="1" res="-1.4995787059888244e-03" rms="1.8288299441337585e-01" purity="2.9891827702522278e-01" nType="-99"/>
          <Node pos="r" depth="2" NCoef="0" IVar="-1" Cut="0.0000000000000000e+00" cType="1" res="1.4391381992027164e-03" rms="1.9445747137069702e-01" purity="7.8389608860015869e-01" nType="-99"/>
        </Node>
        <Node pos="r" depth="1" NCoef="0" IVar="58" Cut="1.0499536991119385e+00" cType="1" res="-2.3888312280178070e-02" rms="2.2990359365940094e-01" purity="2.9353824257850647e-01" nType="0">
          <Node pos="l" depth="2" NCoef="0" IVar="-1" Cut="0.0000000000000000e+00" cType="1" res="-3.4045355278067291e-04" rms="2.3768973350524902e-01" purity="3.1223359704017639e-01" nType="-99"/>
          <Node pos="r" depth="2" NCoef="0" IVar="-1" Cut="0.0000000000000000e+00" cType="1" res="-5.0160544924438000e-03" rms="0.0000000000000000e+00" purity="7.1188382804393768e-02" nType="-99"/>
        </Node>
      </Node>
    </BinaryTree>
    <BinaryTree type="DecisionTree" boostWeight="1.0000000000000000e+00" itree="1052">
      <Node pos="s" depth="0" NCoef="0" IVar="34" Cut="-1.4926372766494751e+00" cType="1" res="6.9526513107120991e-03" rms="2.2288236021995544e-01" purity="4.9153533577919006e-01" nType="0">
        <Node pos="l" depth="1" NCoef="0" IVar="16" Cut="-3.1018888950347900e-01" cType="1" res="1.1345878243446350e-01" rms="2.5718659162521362e-01" purity="5.4687070846557617e-01" nType="0">
          <Node pos="l" depth="2" NCoef="0" IVar="-1" Cut="0.0000000000000000e+00" cType="1" res="1.6526092076674104e-04" rms="1.3773322105407715e-01" purity="4.3002840876579285e-01" nType="-99"/>
          <Node pos="r" depth="2" NCoef="0" IVar="-1" Cut="0.0000000000000000e+00" cType="1" res="3.7160587962716818e-03" rms="2.9088154435157776e-01" purity="6.2573945522308350e-01" nType="-99"/>
        </Node>
        <Node pos="r" depth="1" NCoef="0" IVar="5" Cut="2.8452664613723755e-01" cType="1" res="-3.8205311284400523e-04" rms="2.1842032670974731e-01" purity="4.8772457242012024e-01" nType="0">
          <Node pos="l" depth="2" NCoef="0" IVar="-1" Cut="0.0000000000000000e+00" cType="1" res="8.4046385018154979e-04" rms="1.9678972661495209e-01" purity="6.6992098093032837e-01" nType="-99"/>
          <Node pos="r" depth="2" NCoef="0" IVar="-1" Cut="0.0000000000000000e+00" cType="1" res="-8.1078411312773824e-04" rms="2.3939089477062225e-01" purity="2.5445806980133057e-01" nType="-99"/>
        </Node>
      </Node>
    </BinaryTree>
    <BinaryTree type="DecisionTree" boostWeight="1.0000000000000000e+00" itree="1053">
      <Node pos="s" depth="0" NCoef="0" IVar="3" Cut="4.9689002037048340e+00" cType="1" res="1.4652741141617298e-02" rms="2.3031838238239288e-01" purity="5.0255084037780762e-01" nType="0">
        <Node pos="l" depth="1" NCoef="0" IVar="40" Cut="2.6534333825111389e-01" cType="1" res="2.9430471477098763e-04" rms="2.2631828486919403e-01" purity="4.7882366180419922e-01" nType="0">
          <Node pos="l" depth="2" NCoef="0" IVar="-1" Cut="0.0000000000000000e+00" cType="1" res="1.9642112310975790e-03" rms="3.1238430738449097e-01" purity="5.4379147291183472e-01" nType="-99"/>
          <Node pos="r" depth="2" NCoef="0" IVar="-1" Cut="0.0000000000000000e+00" cType="1" res="-2.1727751300204545e-04" rms="2.1471822261810303e-01" purity="4.7264465689659119e-01" nType="-99"/>
        </Node>
        <Node pos="r" depth="1" NCoef="0" IVar="4" Cut="3.6451051235198975e+00" cType="1" res="6.7041717469692230e-02" rms="2.3709559440612793e-01" purity="5.8912301063537598e-01" nType="0">
          <Node pos="l" depth="2" NCoef="0" IVar="-1" Cut="0.0000000000000000e+00" cType="1" res="4.0068752132356167e-03" rms="3.5141286253929138e-01" purity="5.6637066602706909e-01" nType="-99"/>
          <Node pos="r" depth="2" NCoef="0" IVar="-1" Cut="0.0000000000000000e+00" cType="1" res="8.8616716675460339e-04" rms="1.7095106840133667e-01" purity="5.9638196229934692e-01" nType="-99"/>
        </Node>
      </Node>
    </BinaryTree>
    <BinaryTree type="DecisionTree" boostWeight="1.0000000000000000e+00" itree="1054">
      <Node pos="s" depth="0" NCoef="0" IVar="3" Cut="5.0347948074340820e+00" cType="1" res="9.1133182868361473e-03" rms="2.2349417209625244e-01" purity="4.9720674753189087e-01" nType="0">
        <Node pos="l" depth="1" NCoef="0" IVar="6" Cut="1.0719615221023560e+00" cType="1" res="-6.4141764305531979e-03" rms="2.1109072864055634e-01" purity="4.8117581009864807e-01" nType="0">
          <Node pos="l" depth="2" NCoef="0" IVar="-1" Cut="0.0000000000000000e+00" cType="1" res="-5.0566773861646652e-03" rms="0.0000000000000000e+00" purity="1.4173174276947975e-03" nType="-99"/>
          <Node pos="r" depth="2" NCoef="0" IVar="-1" Cut="0.0000000000000000e+00" cType="1" res="3.4851789678214118e-05" rms="2.2068102657794952e-01" purity="5.2162557840347290e-01" nType="-99"/>
        </Node>
        <Node pos="r" depth="1" NCoef="0" IVar="1" Cut="2.5669631958007812e+00" cType="1" res="9.2031732201576233e-02" rms="2.6565331220626831e-01" purity="5.8281385898590088e-01" nType="0">
          <Node pos="l" depth="2" NCoef="0" IVar="-1" Cut="0.0000000000000000e+00" cType="1" res="5.4093189537525177e-03" rms="3.8453900814056396e-01" purity="4.2936089634895325e-01" nType="-99"/>
          <Node pos="r" depth="2" NCoef="0" IVar="-1" Cut="0.0000000000000000e+00" cType="1" res="1.1398539645597339e-03" rms="1.5829996764659882e-01" purity="6.5595597028732300e-01" nType="-99"/>
        </Node>
      </Node>
    </BinaryTree>
    <BinaryTree type="DecisionTree" boostWeight="1.0000000000000000e+00" itree="1055">
      <Node pos="s" depth="0" NCoef="0" IVar="5" Cut="2.8571492433547974e-01" cType="1" res="2.0029740408062935e-03" rms="2.1663796901702881e-01" purity="4.9476507306098938e-01" nType="0">
        <Node pos="l" depth="1" NCoef="0" IVar="52" Cut="2.4132397174835205e+00" cType="1" res="2.9414650052785873e-02" rms="2.0136593282222748e-01" purity="6.6926163434982300e-01" nType="0">
          <Node pos="l" depth="2" NCoef="0" IVar="-1" Cut="0.0000000000000000e+00" cType="1" res="-2.1641899365931749e-03" rms="0.0000000000000000e+00" purity="3.0981516838073730e-01" nType="-99"/>
          <Node pos="r" depth="2" NCoef="0" IVar="-1" Cut="0.0000000000000000e+00" cType="1" res="1.4979080297052860e-03" rms="2.1486350893974304e-01" purity="7.2367155551910400e-01" nType="-99"/>
        </Node>
        <Node pos="r" depth="1" NCoef="0" IVar="58" Cut="8.9475941658020020e-01" cType="1" res="-3.2651603221893311e-02" rms="2.2989490628242493e-01" purity="2.7416166663169861e-01" nType="0">
          <Node pos="l" depth="2" NCoef="0" IVar="-1" Cut="0.0000000000000000e+00" cType="1" res="-4.7801030450500548e-04" rms="2.3807919025421143e-01" purity="2.9892331361770630e-01" nType="-99"/>
          <Node pos="r" depth="2" NCoef="0" IVar="-1" Cut="0.0000000000000000e+00" cType="1" res="-5.2481167949736118e-03" rms="0.0000000000000000e+00" purity="2.8431534767150879e-02" nType="-99"/>
        </Node>
      </Node>
    </BinaryTree>
    <BinaryTree type="DecisionTree" boostWeight="1.0000000000000000e+00" itree="1056">
      <Node pos="s" depth="0" NCoef="0" IVar="5" Cut="3.0324262380599976e-01" cType="1" res="-3.0160674359649420e-03" rms="2.0650108158588409e-01" purity="4.8362433910369873e-01" nType="0">
        <Node pos="l" depth="1" NCoef="0" IVar="57" Cut="-9.9747353792190552e-01" cType="1" res="1.9016264006495476e-02" rms="1.8252748250961304e-01" purity="6.5334135293960571e-01" nType="0">
          <Node pos="l" depth="2" NCoef="0" IVar="-1" Cut="0.0000000000000000e+00" cType="1" res="1.3763167662546039e-03" rms="2.0521827042102814e-01" purity="7.2894603013992310e-01" nType="-99"/>
          <Node pos="r" depth="2" NCoef="0" IVar="-1" Cut="0.0000000000000000e+00" cType="1" res="-1.3179092202335596e-03" rms="8.4361761808395386e-02" purity="4.6737065911293030e-01" nType="-99"/>
        </Node>
        <Node pos="r" depth="1" NCoef="0" IVar="38" Cut="-1.2998229265213013e+00" cType="1" res="-3.2906241714954376e-02" rms="2.3182626068592072e-01" purity="2.5337770581245422e-01" nType="0">
          <Node pos="l" depth="2" NCoef="0" IVar="-1" Cut="0.0000000000000000e+00" cType="1" res="1.3608902227133512e-03" rms="2.4978606402873993e-01" purity="3.4457162022590637e-01" nType="-99"/>
          <Node pos="r" depth="2" NCoef="0" IVar="-1" Cut="0.0000000000000000e+00" cType="1" res="-1.3501889770850539e-03" rms="2.2029583156108856e-01" purity="2.2468619048595428e-01" nType="-99"/>
        </Node>
      </Node>
    </BinaryTree>
    <BinaryTree type="DecisionTree" boostWeight="1.0000000000000000e+00" itree="1057">
      <Node pos="s" depth="0" NCoef="0" IVar="41" Cut="1.0165788978338242e-01" cType="1" res="7.6443674042820930e-03" rms="2.1689669787883759e-01" purity="5.0323325395584106e-01" nType="0">
        <Node pos="l" depth="1" NCoef="0" IVar="3" Cut="5.2571654319763184e+00" cType="1" res="2.8197398409247398e-02" rms="2.3447664082050323e-01" purity="5.4602187871932983e-01" nType="0">
          <Node pos="l" depth="2" NCoef="0" IVar="-1" Cut="0.0000000000000000e+00" cType="1" res="5.8378226822242141e-04" rms="2.2820249199867249e-01" purity="5.4987144470214844e-01" nType="-99"/>
          <Node pos="r" depth="2" NCoef="0" IVar="-1" Cut="0.0000000000000000e+00" cType="1" res="3.2888995483517647e-03" rms="2.9479339718818665e-01" purity="4.7978624701499939e-01" nType="-99"/>
        </Node>
        <Node pos="r" depth="1" NCoef="0" IVar="6" Cut="2.0266659259796143e+00" cType="1" res="-2.7237070724368095e-02" rms="1.7788623273372650e-01" purity="4.3061479926109314e-01" nType="0">
          <Node pos="l" depth="2" NCoef="0" IVar="-1" Cut="0.0000000000000000e+00" cType="1" res="-4.1227573528885841e-03" rms="0.0000000000000000e+00" purity="1.4014716446399689e-01" nType="-99"/>
          <Node pos="r" depth="2" NCoef="0" IVar="-1" Cut="0.0000000000000000e+00" cType="1" res="1.1769130651373416e-04" rms="2.2471864521503448e-01" purity="5.6484919786453247e-01" nType="-99"/>
        </Node>
      </Node>
    </BinaryTree>
    <BinaryTree type="DecisionTree" boostWeight="1.0000000000000000e+00" itree="1058">
      <Node pos="s" depth="0" NCoef="0" IVar="68" Cut="1.2345679104328156e-02" cType="1" res="1.0686133056879044e-02" rms="2.2004024684429169e-01" purity="5.0078475475311279e-01" nType="0">
        <Node pos="l" depth="1" NCoef="0" IVar="14" Cut="-1.1832537651062012e+00" cType="1" res="1.6235152259469032e-02" rms="2.2165113687515259e-01" purity="5.1353204250335693e-01" nType="0">
          <Node pos="l" depth="2" NCoef="0" IVar="-1" Cut="0.0000000000000000e+00" cType="1" res="-5.7175941765308380e-04" rms="1.9389243423938751e-01" purity="3.3825078606605530e-01" nType="-99"/>
          <Node pos="r" depth="2" NCoef="0" IVar="-1" Cut="0.0000000000000000e+00" cType="1" res="9.4619352603331208e-04" rms="2.3414754867553711e-01" purity="6.1551934480667114e-01" nType="-99"/>
        </Node>
        <Node pos="r" depth="1" NCoef="0" IVar="49" Cut="-7.8539174795150757e-01" cType="1" res="-1.0156171768903732e-01" rms="1.4423024654388428e-01" purity="2.4292705953121185e-01" nType="0">
          <Node pos="l" depth="2" NCoef="0" IVar="-1" Cut="0.0000000000000000e+00" cType="1" res="-7.2897314094007015e-03" rms="0.0000000000000000e+00" purity="-2.7756273746490479e-02" nType="-99"/>
          <Node pos="r" depth="2" NCoef="0" IVar="-1" Cut="0.0000000000000000e+00" cType="1" res="1.0210647014901042e-03" rms="2.4940395355224609e-01" purity="5.3717905282974243e-01" nType="-99"/>
        </Node>
      </Node>
    </BinaryTree>
    <BinaryTree type="DecisionTree" boostWeight="1.0000000000000000e+00" itree="1059">
      <Node pos="s" depth="0" NCoef="0" IVar="15" Cut="1.5225218534469604e+00" cType="1" res="1.5468250960111618e-02" rms="2.2963099181652069e-01" purity="5.0563180446624756e-01" nType="0">
        <Node pos="l" depth="1" NCoef="0" IVar="25" Cut="1.0160279273986816e+00" cType="1" res="2.4858321994543076e-02" rms="2.1752507984638214e-01" purity="5.0964939594268799e-01" nType="0">
          <Node pos="l" depth="2" NCoef="0" IVar="-1" Cut="0.0000000000000000e+00" cType="1" res="1.1172593804076314e-03" rms="2.2690311074256897e-01" purity="5.5330824851989746e-01" nType="-99"/>
          <Node pos="r" depth="2" NCoef="0" IVar="-1" Cut="0.0000000000000000e+00" cType="1" res="-7.1806320920586586e-04" rms="1.8409599363803864e-01" purity="3.9603874087333679e-01" nType="-99"/>
        </Node>
        <Node pos="r" depth="1" NCoef="0" IVar="15" Cut="1.5397025346755981e+00" cType="1" res="-5.9688035398721695e-02" rms="2.9950392246246338e-01" purity="4.7347560524940491e-01" nType="0">
          <Node pos="l" depth="2" NCoef="0" IVar="-1" Cut="0.0000000000000000e+00" cType="1" res="-1.7828952695708722e-04" rms="2.8894135355949402e-01" purity="5.8345770835876465e-01" nType="-99"/>
          <Node pos="r" depth="2" NCoef="0" IVar="-1" Cut="0.0000000000000000e+00" cType="1" res="-1.0541472584009171e-02" rms="2.6967978477478027e-01" purity="9.0738222002983093e-02" nType="-99"/>
        </Node>
      </Node>
    </BinaryTree>
    <BinaryTree type="DecisionTree" boostWeight="1.0000000000000000e+00" itree="1060">
      <Node pos="s" depth="0" NCoef="0" IVar="5" Cut="3.0103641748428345e-01" cType="1" res="9.2194816097617149e-03" rms="2.1770691871643066e-01" purity="5.0659447908401489e-01" nType="0">
        <Node pos="l" depth="1" NCoef="0" IVar="31" Cut="2.6411981582641602e+00" cType="1" res="3.1912997364997864e-02" rms="2.0218977332115173e-01" purity="6.7435657978057861e-01" nType="0">
          <Node pos="l" depth="2" NCoef="0" IVar="-1" Cut="0.0000000000000000e+00" cType="1" res="-5.0221402198076248e-03" rms="1.3133940100669861e-01" purity="1.2426349520683289e-01" nType="-99"/>
          <Node pos="r" depth="2" NCoef="0" IVar="-1" Cut="0.0000000000000000e+00" cType="1" res="1.5102236066013575e-03" rms="2.0674826204776764e-01" purity="7.6869434118270874e-01" nType="-99"/>
        </Node>
        <Node pos="r" depth="1" NCoef="0" IVar="56" Cut="-1.4540951251983643e+00" cType="1" res="-2.2589398548007011e-02" rms="2.3408412933349609e-01" purity="2.7144697308540344e-01" nType="0">
          <Node pos="l" depth="2" NCoef="0" IVar="-1" Cut="0.0000000000000000e+00" cType="1" res="4.1015195893123746e-04" rms="2.8124365210533142e-01" purity="3.4494164586067200e-01" nType="-99"/>
          <Node pos="r" depth="2" NCoef="0" IVar="-1" Cut="0.0000000000000000e+00" cType="1" res="-1.4701798791065812e-03" rms="1.8610864877700806e-01" purity="2.1731416881084442e-01" nType="-99"/>
        </Node>
      </Node>
    </BinaryTree>
    <BinaryTree type="DecisionTree" boostWeight="1.0000000000000000e+00" itree="1061">
      <Node pos="s" depth="0" NCoef="0" IVar="3" Cut="4.2646794319152832e+00" cType="1" res="8.7759010493755341e-03" rms="2.3124903440475464e-01" purity="4.8753741383552551e-01" nType="0">
        <Node pos="l" depth="1" NCoef="0" IVar="-1" Cut="0.0000000000000000e+00" cType="1" res="-4.9822670407593250e-03" rms="8.3090372383594513e-02" purity="5.3463410586118698e-02" nType="-99"/>
        <Node pos="r" depth="1" NCoef="0" IVar="2" Cut="1.4924482107162476e+00" cType="1" res="1.2376262806355953e-02" rms="2.3264729976654053e-01" purity="4.9849155545234680e-01" nType="0">
          <Node pos="l" depth="2" NCoef="0" IVar="-1" Cut="0.0000000000000000e+00" cType="1" res="-4.4393711723387241e-03" rms="1.5740390121936798e-01" purity="8.5428968071937561e-02" nType="-99"/>
          <Node pos="r" depth="2" NCoef="0" IVar="-1" Cut="0.0000000000000000e+00" cType="1" res="5.4458464728668332e-04" rms="2.3832182586193085e-01" purity="5.4480141401290894e-01" nType="-99"/>
        </Node>
      </Node>
    </BinaryTree>
    <BinaryTree type="DecisionTree" boostWeight="1.0000000000000000e+00" itree="1062">
      <Node pos="s" depth="0" NCoef="0" IVar="5" Cut="3.0068382620811462e-01" cType="1" res="2.7668075636029243e-03" rms="2.1319253742694855e-01" purity="4.9641802906990051e-01" nType="0">
        <Node pos="l" depth="1" NCoef="0" IVar="52" Cut="2.3923985958099365e+00" cType="1" res="2.4070277810096741e-02" rms="1.9141505658626556e-01" purity="6.6172415018081665e-01" nType="0">
          <Node pos="l" depth="2" NCoef="0" IVar="-1" Cut="0.0000000000000000e+00" cType="1" res="-1.9011007389053702e-03" rms="0.0000000000000000e+00" purity="2.9103946685791016e-01" nType="-99"/>
          <Node pos="r" depth="2" NCoef="0" IVar="-1" Cut="0.0000000000000000e+00" cType="1" res="1.2742993421852589e-03" rms="2.0149666070938110e-01" purity="7.1107739210128784e-01" nType="-99"/>
        </Node>
        <Node pos="r" depth="1" NCoef="0" IVar="58" Cut="-1.2230646610260010e+00" cType="1" res="-2.5699989870190620e-02" rms="2.3623806238174438e-01" purity="2.7552750706672668e-01" nType="0">
          <Node pos="l" depth="2" NCoef="0" IVar="-1" Cut="0.0000000000000000e+00" cType="1" res="3.8079798105172813e-04" rms="2.9604592919349670e-01" purity="3.3682921528816223e-01" nType="-99"/>
          <Node pos="r" depth="2" NCoef="0" IVar="-1" Cut="0.0000000000000000e+00" cType="1" res="-1.4011892490088940e-03" rms="1.8535676598548889e-01" purity="2.3792548477649689e-01" nType="-99"/>
        </Node>
      </Node>
    </BinaryTree>
    <BinaryTree type="DecisionTree" boostWeight="1.0000000000000000e+00" itree="1063">
      <Node pos="s" depth="0" NCoef="0" IVar="22" Cut="1.2345679104328156e-02" cType="1" res="1.1766137555241585e-02" rms="2.2709065675735474e-01" purity="4.9751716852188110e-01" nType="0">
        <Node pos="l" depth="1" NCoef="0" IVar="17" Cut="1.2389252185821533e+00" cType="1" res="1.5578895807266235e-01" rms="3.4638041257858276e-01" purity="3.7277004122734070e-01" nType="0">
          <Node pos="l" depth="2" NCoef="0" IVar="-1" Cut="0.0000000000000000e+00" cType="1" res="4.1388231329619884e-03" rms="1.8597483634948730e-01" purity="4.3134216219186783e-02" nType="-99"/>
          <Node pos="r" depth="2" NCoef="0" IVar="-1" Cut="0.0000000000000000e+00" cType="1" res="4.4793360866606236e-03" rms="4.1055393218994141e-01" purity="6.8372863531112671e-01" nType="-99"/>
        </Node>
        <Node pos="r" depth="1" NCoef="0" IVar="1" Cut="2.4000649452209473e+00" cType="1" res="2.5690167676657438e-03" rms="2.1399171650409698e-01" purity="5.0548338890075684e-01" nType="0">
          <Node pos="l" depth="2" NCoef="0" IVar="-1" Cut="0.0000000000000000e+00" cType="1" res="-2.7912193909287453e-03" rms="8.7968669831752777e-02" purity="8.5113830864429474e-02" nType="-99"/>
          <Node pos="r" depth="2" NCoef="0" IVar="-1" Cut="0.0000000000000000e+00" cType="1" res="3.6056607495993376e-04" rms="2.2684270143508911e-01" purity="5.7694756984710693e-01" nType="-99"/>
        </Node>
      </Node>
    </BinaryTree>
    <BinaryTree type="DecisionTree" boostWeight="1.0000000000000000e+00" itree="1064">
      <Node pos="s" depth="0" NCoef="0" IVar="0" Cut="6.3477349281311035e-01" cType="1" res="6.0035623610019684e-03" rms="2.0979158580303192e-01" purity="5.0323408842086792e-01" nType="0">
        <Node pos="l" depth="1" NCoef="0" IVar="15" Cut="1.5199739933013916e+00" cType="1" res="2.9622085392475128e-02" rms="2.2989587485790253e-01" purity="5.6889927387237549e-01" nType="0">
          <Node pos="l" depth="2" NCoef="0" IVar="-1" Cut="0.0000000000000000e+00" cType="1" res="1.1912315385416150e-03" rms="2.1633084118366241e-01" purity="5.7616215944290161e-01" nType="-99"/>
          <Node pos="r" depth="2" NCoef="0" IVar="-1" Cut="0.0000000000000000e+00" cType="1" res="-1.2142779305577278e-03" rms="3.0142515897750854e-01" purity="5.1302391290664673e-01" nType="-99"/>
        </Node>
        <Node pos="r" depth="1" NCoef="0" IVar="6" Cut="2.1893727779388428e+00" cType="1" res="-2.5017170235514641e-02" rms="1.7523573338985443e-01" purity="4.1698893904685974e-01" nType="0">
          <Node pos="l" depth="2" NCoef="0" IVar="-1" Cut="0.0000000000000000e+00" cType="1" res="-2.3101815022528172e-03" rms="6.4711570739746094e-02" purity="1.7257300019264221e-01" nType="-99"/>
          <Node pos="r" depth="2" NCoef="0" IVar="-1" Cut="0.0000000000000000e+00" cType="1" res="1.2756061914842576e-04" rms="2.1785095334053040e-01" purity="5.9092628955841064e-01" nType="-99"/>
        </Node>
      </Node>
    </BinaryTree>
    <BinaryTree type="DecisionTree" boostWeight="1.0000000000000000e+00" itree="1065">
      <Node pos="s" depth="0" NCoef="0" IVar="57" Cut="1.1392045021057129e+00" cType="1" res="1.1252181604504585e-02" rms="2.2161553800106049e-01" purity="4.9962085485458374e-01" nType="0">
        <Node pos="l" depth="1" NCoef="0" IVar="3" Cut="4.7548317909240723e+00" cType="1" res="2.4027854204177856e-02" rms="2.3231506347656250e-01" purity="5.4039174318313599e-01" nType="0">
          <Node pos="l" depth="2" NCoef="0" IVar="-1" Cut="0.0000000000000000e+00" cType="1" res="-4.4588901801034808e-05" rms="2.2925660014152527e-01" purity="4.5761767029762268e-01" nType="-99"/>
          <Node pos="r" depth="2" NCoef="0" IVar="-1" Cut="0.0000000000000000e+00" cType="1" res="1.3926564715802670e-03" rms="2.3238919675350189e-01" purity="6.3221973180770874e-01" nType="-99"/>
        </Node>
        <Node pos="r" depth="1" NCoef="0" IVar="40" Cut="6.8839335441589355e-01" cType="1" res="-4.8495929688215256e-02" rms="1.4854718744754791e-01" purity="3.0894735455513000e-01" nType="0">
          <Node pos="l" depth="2" NCoef="0" IVar="-1" Cut="0.0000000000000000e+00" cType="1" res="2.1289961296133697e-04" rms="2.0596797764301300e-01" purity="4.5409896969795227e-01" nType="-99"/>
          <Node pos="r" depth="2" NCoef="0" IVar="-1" Cut="0.0000000000000000e+00" cType="1" res="-4.0912050753831863e-03" rms="4.8160567879676819e-02" purity="1.9861829280853271e-01" nType="-99"/>
        </Node>
      </Node>
    </BinaryTree>
    <BinaryTree type="DecisionTree" boostWeight="1.0000000000000000e+00" itree="1066">
      <Node pos="s" depth="0" NCoef="0" IVar="17" Cut="1.5220416784286499e+00" cType="1" res="5.2807470783591270e-03" rms="2.0789098739624023e-01" purity="5.0787132978439331e-01" nType="0">
        <Node pos="l" depth="1" NCoef="0" IVar="40" Cut="6.9406545162200928e-01" cType="1" res="-1.6901323571801186e-02" rms="2.0082518458366394e-01" purity="2.5099074840545654e-01" nType="0">
          <Node pos="l" depth="2" NCoef="0" IVar="-1" Cut="0.0000000000000000e+00" cType="1" res="4.2549584759399295e-04" rms="2.3834599554538727e-01" purity="2.9908677935600281e-01" nType="-99"/>
          <Node pos="r" depth="2" NCoef="0" IVar="-1" Cut="0.0000000000000000e+00" cType="1" res="-1.3434231514111161e-03" rms="1.6559657454490662e-01" purity="2.1698129177093506e-01" nType="-99"/>
        </Node>
        <Node pos="r" depth="1" NCoef="0" IVar="17" Cut="1.5301537513732910e+00" cType="1" res="3.7345610558986664e-02" rms="2.1366751194000244e-01" purity="8.7920010089874268e-01" nType="0">
          <Node pos="l" depth="2" NCoef="0" IVar="-1" Cut="0.0000000000000000e+00" cType="1" res="-3.8637974648736417e-04" rms="2.8183430433273315e-01" purity="7.6256275177001953e-01" nType="-99"/>
          <Node pos="r" depth="2" NCoef="0" IVar="-1" Cut="0.0000000000000000e+00" cType="1" res="1.3667118037119508e-03" rms="1.9259385764598846e-01" purity="9.0586894750595093e-01" nType="-99"/>
        </Node>
      </Node>
    </BinaryTree>
    <BinaryTree type="DecisionTree" boostWeight="1.0000000000000000e+00" itree="1067">
      <Node pos="s" depth="0" NCoef="0" IVar="52" Cut="3.3961846828460693e+00" cType="1" res="1.3349370099604130e-02" rms="2.2603979706764221e-01" purity="5.0464826822280884e-01" nType="0">
        <Node pos="l" depth="1" NCoef="0" IVar="3" Cut="4.4180836677551270e+00" cType="1" res="2.2335184738039970e-02" rms="2.3444017767906189e-01" purity="5.2223205566406250e-01" nType="0">
          <Node pos="l" depth="2" NCoef="0" IVar="-1" Cut="0.0000000000000000e+00" cType="1" res="-1.5691001899540424e-03" rms="2.1712450683116913e-01" purity="1.9711196422576904e-01" nType="-99"/>
          <Node pos="r" depth="2" NCoef="0" IVar="-1" Cut="0.0000000000000000e+00" cType="1" res="8.8334735482931137e-04" rms="2.3515100777149200e-01" purity="5.6868135929107666e-01" nType="-99"/>
        </Node>
        <Node pos="r" depth="1" NCoef="0" IVar="42" Cut="-2.3424223065376282e-01" cType="1" res="-6.1744917184114456e-02" rms="1.1159551888704300e-01" purity="3.5770124197006226e-01" nType="0">
          <Node pos="l" depth="2" NCoef="0" IVar="-1" Cut="0.0000000000000000e+00" cType="1" res="-6.9724945351481438e-03" rms="0.0000000000000000e+00" purity="2.0716553926467896e-01" nType="-99"/>
          <Node pos="r" depth="2" NCoef="0" IVar="-1" Cut="0.0000000000000000e+00" cType="1" res="-8.6917995940893888e-04" rms="1.6804224252700806e-01" purity="3.9968201518058777e-01" nType="-99"/>
        </Node>
      </Node>
    </BinaryTree>
    <BinaryTree type="DecisionTree" boostWeight="1.0000000000000000e+00" itree="1068">
      <Node pos="s" depth="0" NCoef="0" IVar="25" Cut="9.5654445886611938e-01" cType="1" res="9.4716921448707581e-03" rms="2.1983161568641663e-01" purity="4.9606868624687195e-01" nType="0">
        <Node pos="l" depth="1" NCoef="0" IVar="36" Cut="-9.8995888233184814e-01" cType="1" res="3.6204345524311066e-02" rms="2.3800863325595856e-01" purity="5.6255435943603516e-01" nType="0">
          <Node pos="l" depth="2" NCoef="0" IVar="-1" Cut="0.0000000000000000e+00" cType="1" res="-2.0089901983737946e-02" rms="0.0000000000000000e+00" purity="-2.9973879456520081e-02" nType="-99"/>
          <Node pos="r" depth="2" NCoef="0" IVar="-1" Cut="0.0000000000000000e+00" cType="1" res="1.0708560002967715e-03" rms="2.5360938906669617e-01" purity="6.2491554021835327e-01" nType="-99"/>
        </Node>
        <Node pos="r" depth="1" NCoef="0" IVar="17" Cut="1.5231137275695801e+00" cType="1" res="-1.6824379563331604e-02" rms="1.9683809578418732e-01" purity="4.3066880106925964e-01" nType="0">
          <Node pos="l" depth="2" NCoef="0" IVar="-1" Cut="0.0000000000000000e+00" cType="1" res="-1.4772800495848060e-03" rms="1.7173053324222565e-01" purity="1.9649641215801239e-01" nType="-99"/>
          <Node pos="r" depth="2" NCoef="0" IVar="-1" Cut="0.0000000000000000e+00" cType="1" res="6.3311564736068249e-04" rms="2.3009778559207916e-01" purity="8.5450249910354614e-01" nType="-99"/>
        </Node>
      </Node>
    </BinaryTree>
    <BinaryTree type="DecisionTree" boostWeight="1.0000000000000000e+00" itree="1069">
      <Node pos="s" depth="0" NCoef="0" IVar="68" Cut="1.2345679104328156e-02" cType="1" res="7.7182205859571695e-04" rms="2.0036065578460693e-01" purity="5.0194513797760010e-01" nType="0">
        <Node pos="l" depth="1" NCoef="0" IVar="52" Cut="2.3548681735992432e+00" cType="1" res="6.7783170379698277e-03" rms="2.0321244001388550e-01" purity="5.1554602384567261e-01" nType="0">
          <Node pos="l" depth="2" NCoef="0" IVar="-1" Cut="0.0000000000000000e+00" cType="1" res="-2.2068128455430269e-03" rms="0.0000000000000000e+00" purity="2.1724449098110199e-01" nType="-99"/>
          <Node pos="r" depth="2" NCoef="0" IVar="-1" Cut="0.0000000000000000e+00" cType="1" res="4.0428413194604218e-04" rms="2.1257981657981873e-01" purity="5.4140627384185791e-01" nType="-99"/>
        </Node>
        <Node pos="r" depth="1" NCoef="0" IVar="17" Cut="1.4808034896850586e+00" cType="1" res="-3.6380975507199764e-03" rms="0.0000000000000000e+00" purity="2.1430122852325439e-01" nType="-99"/>
      </Node>
    </BinaryTree>
    <BinaryTree type="DecisionTree" boostWeight="1.0000000000000000e+00" itree="1070">
      <Node pos="s" depth="0" NCoef="0" IVar="18" Cut="-1.2949820756912231e+00" cType="1" res="7.6485797762870789e-03" rms="2.2072589397430420e-01" purity="5.0414967536926270e-01" nType="0">
        <Node pos="l" depth="1" NCoef="0" IVar="5" Cut="3.9501500129699707e-01" cType="1" res="1.9547721371054649e-02" rms="2.2704306244850159e-01" purity="5.5065119266510010e-01" nType="0">
          <Node pos="l" depth="2" NCoef="0" IVar="-1" Cut="0.0000000000000000e+00" cType="1" res="1.0971786687150598e-03" rms="2.1472509205341339e-01" purity="6.5913975238800049e-01" nType="-99"/>
          <Node pos="r" depth="2" NCoef="0" IVar="-1" Cut="0.0000000000000000e+00" cType="1" res="-5.4736004676669836e-04" rms="2.5271359086036682e-01" purity="2.5180608034133911e-01" nType="-99"/>
        </Node>
        <Node pos="r" depth="1" NCoef="0" IVar="37" Cut="-7.6764565706253052e-01" cType="1" res="-5.6729864329099655e-02" rms="1.6883544623851776e-01" purity="2.5256046652793884e-01" nType="0">
          <Node pos="l" depth="2" NCoef="0" IVar="-1" Cut="0.0000000000000000e+00" cType="1" res="-5.0878402544185519e-04" rms="2.4146606028079987e-01" purity="3.1600645184516907e-01" nType="-99"/>
          <Node pos="r" depth="2" NCoef="0" IVar="-1" Cut="0.0000000000000000e+00" cType="1" res="-4.0905773639678955e-03" rms="0.0000000000000000e+00" purity="1.7842957377433777e-01" nType="-99"/>
        </Node>
      </Node>
    </BinaryTree>
    <BinaryTree type="DecisionTree" boostWeight="1.0000000000000000e+00" itree="1071">
      <Node pos="s" depth="0" NCoef="0" IVar="57" Cut="4.1426518559455872e-01" cType="1" res="7.2853812016546726e-03" rms="2.1570892632007599e-01" purity="4.9454754590988159e-01" nType="0">
        <Node pos="l" depth="1" NCoef="0" IVar="27" Cut="9.6687990427017212e-01" cType="1" res="2.1444154903292656e-02" rms="2.2794401645660400e-01" purity="5.4674625396728516e-01" nType="0">
          <Node pos="l" depth="2" NCoef="0" IVar="-1" Cut="0.0000000000000000e+00" cType="1" res="-4.7602504491806030e-03" rms="0.0000000000000000e+00" purity="7.6781913638114929e-02" nType="-99"/>
          <Node pos="r" depth="2" NCoef="0" IVar="-1" Cut="0.0000000000000000e+00" cType="1" res="7.6424627332016826e-04" rms="2.3763142526149750e-01" purity="5.8180409669876099e-01" nType="-99"/>
        </Node>
        <Node pos="r" depth="1" NCoef="0" IVar="42" Cut="-2.3979392647743225e-01" cType="1" res="-4.0286429226398468e-02" rms="1.5923514962196350e-01" purity="3.1916624307632446e-01" nType="0">
          <Node pos="l" depth="2" NCoef="0" IVar="-1" Cut="0.0000000000000000e+00" cType="1" res="9.2637306079268456e-04" rms="2.5818052887916565e-01" purity="3.8660928606987000e-01" nType="-99"/>
          <Node pos="r" depth="2" NCoef="0" IVar="-1" Cut="0.0000000000000000e+00" cType="1" res="-2.7950578369200230e-03" rms="4.7261133790016174e-02" purity="2.8718534111976624e-01" nType="-99"/>
        </Node>
      </Node>
    </BinaryTree>
    <BinaryTree type="DecisionTree" boostWeight="1.0000000000000000e+00" itree="1072">
      <Node pos="s" depth="0" NCoef="0" IVar="14" Cut="-9.9021506309509277e-01" cType="1" res="1.8860276788473129e-02" rms="2.3766760528087616e-01" purity="5.0664412975311279e-01" nType="0">
        <Node pos="l" depth="1" NCoef="0" IVar="16" Cut="-7.2190707921981812e-01" cType="1" res="-9.9454298615455627e-03" rms="2.1292161941528320e-01" purity="3.9665046334266663e-01" nType="0">
          <Node pos="l" depth="2" NCoef="0" IVar="-1" Cut="0.0000000000000000e+00" cType="1" res="1.0623635171214119e-04" rms="2.1643337607383728e-01" purity="4.3209010362625122e-01" nType="-99"/>
          <Node pos="r" depth="2" NCoef="0" IVar="-1" Cut="0.0000000000000000e+00" cType="1" res="-2.7174309361726046e-03" rms="1.8029284477233887e-01" purity="2.1884204447269440e-01" nType="-99"/>
        </Node>
        <Node pos="r" depth="1" NCoef="0" IVar="40" Cut="1.3779707252979279e-01" cType="1" res="4.5593585819005966e-02" rms="2.5563496351242065e-01" purity="6.0872441530227661e-01" nType="0">
          <Node pos="l" depth="2" NCoef="0" IVar="-1" Cut="0.0000000000000000e+00" cType="1" res="3.9258114993572235e-03" rms="3.4834739565849304e-01" purity="7.2426080703735352e-01" nType="-99"/>
          <Node pos="r" depth="2" NCoef="0" IVar="-1" Cut="0.0000000000000000e+00" cType="1" res="9.3705259496346116e-04" rms="2.4656759202480316e-01" purity="6.0206133127212524e-01" nType="-99"/>
        </Node>
      </Node>
    </BinaryTree>
    <BinaryTree type="DecisionTree" boostWeight="1.0000000000000000e+00" itree="1073">
      <Node pos="s" depth="0" NCoef="0" IVar="68" Cut="1.2345679104328156e-02" cType="1" res="9.6848588436841965e-03" rms="2.1861010789871216e-01" purity="5.0281453132629395e-01" nType="0">
        <Node pos="l" depth="1" NCoef="0" IVar="2" Cut="1.0234715938568115e+00" cType="1" res="1.5653634443879128e-02" rms="2.2044485807418823e-01" purity="5.1638954877853394e-01" nType="0">
          <Node pos="l" depth="2" NCoef="0" IVar="-1" Cut="0.0000000000000000e+00" cType="1" res="-1.5951588749885559e-02" rms="0.0000000000000000e+00" purity="-3.8578044623136520e-02" nType="-99"/>
          <Node pos="r" depth="2" NCoef="0" IVar="-1" Cut="0.0000000000000000e+00" cType="1" res="5.7579803979024291e-04" rms="2.2703769803047180e-01" purity="5.3720223903656006e-01" nType="-99"/>
        </Node>
        <Node pos="r" depth="1" NCoef="0" IVar="52" Cut="2.9560077190399170e+00" cType="1" res="-1.0686069726943970e-01" rms="1.3335138559341431e-01" purity="2.3775084316730499e-01" nType="0">
          <Node pos="l" depth="2" NCoef="0" IVar="-1" Cut="0.0000000000000000e+00" cType="1" res="-6.7651516292244196e-04" rms="1.8928439915180206e-01" purity="3.9422690868377686e-01" nType="-99"/>
          <Node pos="r" depth="2" NCoef="0" IVar="-1" Cut="0.0000000000000000e+00" cType="1" res="-8.6734266951680183e-03" rms="0.0000000000000000e+00" purity="1.9689016044139862e-02" nType="-99"/>
        </Node>
      </Node>
    </BinaryTree>
    <BinaryTree type="DecisionTree" boostWeight="1.0000000000000000e+00" itree="1074">
      <Node pos="s" depth="0" NCoef="0" IVar="2" Cut="2.3741695880889893e+00" cType="1" res="7.0302882231771946e-03" rms="2.1613773703575134e-01" purity="4.9838924407958984e-01" nType="0">
        <Node pos="l" depth="1" NCoef="0" IVar="17" Cut="1.5214687585830688e+00" cType="1" res="-2.2798812016844749e-02" rms="1.6114480793476105e-01" purity="2.9487946629524231e-01" nType="0">
          <Node pos="l" depth="2" NCoef="0" IVar="-1" Cut="0.0000000000000000e+00" cType="1" res="-2.6731791440397501e-03" rms="7.9305030405521393e-02" purity="9.2663615942001343e-02" nType="-99"/>
          <Node pos="r" depth="2" NCoef="0" IVar="-1" Cut="0.0000000000000000e+00" cType="1" res="7.9635420115664601e-04" rms="2.5576171278953552e-01" purity="7.5499343872070312e-01" nType="-99"/>
        </Node>
        <Node pos="r" depth="1" NCoef="0" IVar="35" Cut="-1.2608748674392700e+00" cType="1" res="2.8597524389624596e-02" rms="2.4618755280971527e-01" purity="6.4553225040435791e-01" nType="0">
          <Node pos="l" depth="2" NCoef="0" IVar="-1" Cut="0.0000000000000000e+00" cType="1" res="-1.4269184612203389e-04" rms="2.1838977932929993e-01" purity="5.8510106801986694e-01" nType="-99"/>
          <Node pos="r" depth="2" NCoef="0" IVar="-1" Cut="0.0000000000000000e+00" cType="1" res="1.2064347974956036e-03" rms="2.6143798232078552e-01" purity="6.8816065788269043e-01" nType="-99"/>
        </Node>
      </Node>
    </BinaryTree>
    <BinaryTree type="DecisionTree" boostWeight="1.0000000000000000e+00" itree="1075">
      <Node pos="s" depth="0" NCoef="0" IVar="25" Cut="9.2107087373733521e-01" cType="1" res="7.8204143792390823e-03" rms="2.2110490500926971e-01" purity="5.0481325387954712e-01" nType="0">
        <Node pos="l" depth="1" NCoef="0" IVar="34" Cut="-1.4926186800003052e+00" cType="1" res="4.0871635079383850e-02" rms="2.2877311706542969e-01" purity="5.7026684284210205e-01" nType="0">
          <Node pos="l" depth="2" NCoef="0" IVar="-1" Cut="0.0000000000000000e+00" cType="1" res="3.7929795216768980e-03" rms="3.0898973345756531e-01" purity="6.1470133066177368e-01" nType="-99"/>
          <Node pos="r" depth="2" NCoef="0" IVar="-1" Cut="0.0000000000000000e+00" cType="1" res="7.1441900217905641e-04" rms="2.1785782277584076e-01" purity="5.6703108549118042e-01" nType="-99"/>
        </Node>
        <Node pos="r" depth="1" NCoef="0" IVar="35" Cut="-1.4541255235671997e+00" cType="1" res="-8.4627252072095871e-03" rms="2.1537058055400848e-01" purity="4.7256663441658020e-01" nType="0">
          <Node pos="l" depth="2" NCoef="0" IVar="-1" Cut="0.0000000000000000e+00" cType="1" res="-5.6798388250172138e-03" rms="9.6393130719661713e-02" purity="1.4409478008747101e-01" nType="-99"/>
          <Node pos="r" depth="2" NCoef="0" IVar="-1" Cut="0.0000000000000000e+00" cType="1" res="7.6274380262475461e-05" rms="2.2638569772243500e-01" purity="5.2360790967941284e-01" nType="-99"/>
        </Node>
      </Node>
    </BinaryTree>
    <BinaryTree type="DecisionTree" boostWeight="1.0000000000000000e+00" itree="1076">
      <Node pos="s" depth="0" NCoef="0" IVar="22" Cut="1.2345679104328156e-02" cType="1" res="4.0352949872612953e-04" rms="2.1780487895011902e-01" purity="4.9418160319328308e-01" nType="0">
        <Node pos="l" depth="1" NCoef="0" IVar="18" Cut="-1.4233578443527222e+00" cType="1" res="1.0760593414306641e-01" rms="3.0568912625312805e-01" purity="3.7221574783325195e-01" nType="0">
          <Node pos="l" depth="2" NCoef="0" IVar="-1" Cut="0.0000000000000000e+00" cType="1" res="5.2456981502473354e-03" rms="3.6841675639152527e-01" purity="4.7876739501953125e-01" nType="-99"/>
          <Node pos="r" depth="2" NCoef="0" IVar="-1" Cut="0.0000000000000000e+00" cType="1" res="-4.3149746488779783e-04" rms="7.0701748132705688e-02" purity="2.0666971802711487e-01" nType="-99"/>
        </Node>
        <Node pos="r" depth="1" NCoef="0" IVar="5" Cut="4.3533283472061157e-01" cType="1" res="-6.3677923753857613e-03" rms="2.0919187366962433e-01" purity="5.0188547372817993e-01" nType="0">
          <Node pos="l" depth="2" NCoef="0" IVar="-1" Cut="0.0000000000000000e+00" cType="1" res="3.3107065246440470e-04" rms="2.0565237104892731e-01" purity="6.1367321014404297e-01" nType="-99"/>
          <Node pos="r" depth="2" NCoef="0" IVar="-1" Cut="0.0000000000000000e+00" cType="1" res="-1.5144182834774256e-03" rms="2.1136538684368134e-01" purity="1.5823651850223541e-01" nType="-99"/>
        </Node>
      </Node>
    </BinaryTree>
    <BinaryTree type="DecisionTree" boostWeight="1.0000000000000000e+00" itree="1077">
      <Node pos="s" depth="0" NCoef="0" IVar="5" Cut="3.4241408109664917e-01" cType="1" res="5.6161778047680855e-03" rms="2.1550203859806061e-01" purity="5.0159269571304321e-01" nType="0">
        <Node pos="l" depth="1" NCoef="0" IVar="52" Cut="2.4216277599334717e+00" cType="1" res="2.4889433756470680e-02" rms="2.0031221210956573e-01" purity="6.4795839786529541e-01" nType="0">
          <Node pos="l" depth="2" NCoef="0" IVar="-1" Cut="0.0000000000000000e+00" cType="1" res="-1.8331392202526331e-03" rms="1.3140890002250671e-01" purity="2.7638226747512817e-01" nType="-99"/>
          <Node pos="r" depth="2" NCoef="0" IVar="-1" Cut="0.0000000000000000e+00" cType="1" res="1.2142652412876487e-03" rms="2.0501872897148132e-01" purity="6.9716799259185791e-01" nType="-99"/>
        </Node>
        <Node pos="r" depth="1" NCoef="0" IVar="19" Cut="4.8389393091201782e-01" cType="1" res="-2.6992842555046082e-02" rms="2.3544804751873016e-01" purity="2.5395208597183228e-01" nType="0">
          <Node pos="l" depth="2" NCoef="0" IVar="-1" Cut="0.0000000000000000e+00" cType="1" res="-3.2409760169684887e-03" rms="9.1915860772132874e-02" purity="1.5924127399921417e-01" nType="-99"/>
          <Node pos="r" depth="2" NCoef="0" IVar="-1" Cut="0.0000000000000000e+00" cType="1" res="-2.7971909730695188e-04" rms="2.4967506527900696e-01" purity="2.7099370956420898e-01" nType="-99"/>
        </Node>
      </Node>
    </BinaryTree>
    <BinaryTree type="DecisionTree" boostWeight="1.0000000000000000e+00" itree="1078">
      <Node pos="s" depth="0" NCoef="0" IVar="27" Cut="1.2592766284942627e+00" cType="1" res="7.5639942660927773e-03" rms="2.1529121696949005e-01" purity="5.0575911998748779e-01" nType="0">
        <Node pos="l" depth="1" NCoef="0" IVar="0" Cut="8.3892518281936646e-01" cType="1" res="-6.0331605374813080e-02" rms="9.4188794493675232e-02" purity="1.4444057643413544e-01" nType="0">
          <Node pos="l" depth="2" NCoef="0" IVar="-1" Cut="0.0000000000000000e+00" cType="1" res="-1.3791047967970371e-03" rms="1.8324825167655945e-01" purity="2.1406044065952301e-01" nType="-99"/>
          <Node pos="r" depth="2" NCoef="0" IVar="-1" Cut="0.0000000000000000e+00" cType="1" res="-1.0467036627233028e-02" rms="0.0000000000000000e+00" purity="-4.3783497065305710e-02" nType="-99"/>
        </Node>
        <Node pos="r" depth="1" NCoef="0" IVar="43" Cut="1.2345679104328156e-02" cType="1" res="1.8084000796079636e-02" rms="2.2656671702861786e-01" purity="5.6174314022064209e-01" nType="0">
          <Node pos="l" depth="2" NCoef="0" IVar="-1" Cut="0.0000000000000000e+00" cType="1" res="4.0677222423255444e-03" rms="3.5705155134201050e-01" purity="5.1594543457031250e-01" nType="-99"/>
          <Node pos="r" depth="2" NCoef="0" IVar="-1" Cut="0.0000000000000000e+00" cType="1" res="3.7444959161803126e-04" rms="2.2024621069431305e-01" purity="5.6307685375213623e-01" nType="-99"/>
        </Node>
      </Node>
    </BinaryTree>
    <BinaryTree type="DecisionTree" boostWeight="1.0000000000000000e+00" itree="1079">
      <Node pos="s" depth="0" NCoef="0" IVar="25" Cut="1.0107504129409790e+00" cType="1" res="3.0538311693817377e-03" rms="2.1123456954956055e-01" purity="4.9594670534133911e-01" nType="0">
        <Node pos="l" depth="1" NCoef="0" IVar="38" Cut="-1.4540168046951294e+00" cType="1" res="2.0913682878017426e-02" rms="2.2752566635608673e-01" purity="5.4007816314697266e-01" nType="0">
          <Node pos="l" depth="2" NCoef="0" IVar="-1" Cut="0.0000000000000000e+00" cType="1" res="2.6398228947073221e-03" rms="2.7909037470817566e-01" purity="5.4687994718551636e-01" nType="-99"/>
          <Node pos="r" depth="2" NCoef="0" IVar="-1" Cut="0.0000000000000000e+00" cType="1" res="2.9504724079743028e-04" rms="2.1855178475379944e-01" purity="5.3928112983703613e-01" nType="-99"/>
        </Node>
        <Node pos="r" depth="1" NCoef="0" IVar="1" Cut="2.1909873485565186e+00" cType="1" res="-3.8973558694124222e-02" rms="1.5900598466396332e-01" purity="3.9209774136543274e-01" nType="0">
          <Node pos="l" depth="2" NCoef="0" IVar="-1" Cut="0.0000000000000000e+00" cType="1" res="-1.7875319346785545e-02" rms="0.0000000000000000e+00" purity="-1.0719096660614014e-01" nType="-99"/>
          <Node pos="r" depth="2" NCoef="0" IVar="-1" Cut="0.0000000000000000e+00" cType="1" res="-8.5803517140448093e-04" rms="1.9796790182590485e-01" purity="4.5201963186264038e-01" nType="-99"/>
        </Node>
      </Node>
    </BinaryTree>
    <BinaryTree type="DecisionTree" boostWeight="1.0000000000000000e+00" itree="1080">
      <Node pos="s" depth="0" NCoef="0" IVar="64" Cut="1.2345679104328156e-02" cType="1" res="4.3549081310629845e-03" rms="2.1656854450702667e-01" purity="4.9349457025527954e-01" nType="0">
        <Node pos="l" depth="1" NCoef="0" IVar="37" Cut="-5.3340715169906616e-01" cType="1" res="-3.7571331486105919e-03" rms="0.0000000000000000e+00" purity="2.5423815846443176e-01" nType="-99"/>
        <Node pos="r" depth="1" NCoef="0" IVar="27" Cut="1.2474482059478760e+00" cType="1" res="1.0042378678917885e-02" rms="2.2721993923187256e-01" purity="5.0435096025466919e-01" nType="0">
          <Node pos="l" depth="2" NCoef="0" IVar="-1" Cut="0.0000000000000000e+00" cType="1" res="-3.0333143658936024e-03" rms="1.1177856475114822e-01" purity="1.4092613756656647e-01" nType="-99"/>
          <Node pos="r" depth="2" NCoef="0" IVar="-1" Cut="0.0000000000000000e+00" cType="1" res="5.2974908612668514e-04" rms="2.3837420344352722e-01" purity="5.5928742885589600e-01" nType="-99"/>
        </Node>
      </Node>
    </BinaryTree>
    <BinaryTree type="DecisionTree" boostWeight="1.0000000000000000e+00" itree="1081">
      <Node pos="s" depth="0" NCoef="0" IVar="52" Cut="3.5279114246368408e+00" cType="1" res="2.8598402423085645e-05" rms="2.0073962211608887e-01" purity="4.9691182374954224e-01" nType="0">
        <Node pos="l" depth="1" NCoef="0" IVar="26" Cut="1.2345679104328156e-02" cType="1" res="6.1115385033190250e-03" rms="2.0831277966499329e-01" purity="5.0923591852188110e-01" nType="0">
          <Node pos="l" depth="2" NCoef="0" IVar="-1" Cut="0.0000000000000000e+00" cType="1" res="3.1655305065214634e-04" rms="2.1106310188770294e-01" purity="5.2851009368896484e-01" nType="-99"/>
          <Node pos="r" depth="2" NCoef="0" IVar="-1" Cut="0.0000000000000000e+00" cType="1" res="-7.3808459565043449e-03" rms="0.0000000000000000e+00" purity="-1.5982611104846001e-02" nType="-99"/>
        </Node>
        <Node pos="r" depth="1" NCoef="0" IVar="52" Cut="3.6476898193359375e+00" cType="1" res="-4.6955659054219723e-03" rms="0.0000000000000000e+00" purity="2.5688984990119934e-01" nType="-99"/>
      </Node>
    </BinaryTree>
    <BinaryTree type="DecisionTree" boostWeight="1.0000000000000000e+00" itree="1082">
      <Node pos="s" depth="0" NCoef="0" IVar="48" Cut="1.2260903120040894e+00" cType="1" res="4.1257338598370552e-03" rms="2.0839315652847290e-01" purity="5.0336402654647827e-01" nType="0">
        <Node pos="l" depth="1" NCoef="0" IVar="0" Cut="8.5933953523635864e-01" cType="1" res="-5.9270687401294708e-02" rms="7.1958765387535095e-02" purity="1.5648382902145386e-01" nType="0">
          <Node pos="l" depth="2" NCoef="0" IVar="-1" Cut="0.0000000000000000e+00" cType="1" res="-6.6490628523752093e-04" rms="1.6130223870277405e-01" purity="2.2173967957496643e-01" nType="-99"/>
          <Node pos="r" depth="2" NCoef="0" IVar="-1" Cut="0.0000000000000000e+00" cType="1" res="-4.7483472153544426e-03" rms="0.0000000000000000e+00" purity="-3.2755319029092789e-02" nType="-99"/>
        </Node>
        <Node pos="r" depth="1" NCoef="0" IVar="56" Cut="7.8591448068618774e-01" cType="1" res="1.7278177663683891e-02" rms="2.2440211474895477e-01" purity="5.7532900571823120e-01" nType="0">
          <Node pos="l" depth="2" NCoef="0" IVar="-1" Cut="0.0000000000000000e+00" cType="1" res="7.0264126406982541e-04" rms="2.2754316031932831e-01" purity="5.9427148103713989e-01" nType="-99"/>
          <Node pos="r" depth="2" NCoef="0" IVar="-1" Cut="0.0000000000000000e+00" cType="1" res="-2.8048323001712561e-03" rms="1.5783601999282837e-01" purity="3.5340279340744019e-01" nType="-99"/>
        </Node>
      </Node>
    </BinaryTree>
    <BinaryTree type="DecisionTree" boostWeight="1.0000000000000000e+00" itree="1083">
      <Node pos="s" depth="0" NCoef="0" IVar="55" Cut="1.4727100133895874e+00" cType="1" res="1.6152078285813332e-02" rms="2.2683732211589813e-01" purity="5.1335799694061279e-01" nType="0">
        <Node pos="l" depth="1" NCoef="0" IVar="2" Cut="7.4907785654067993e-01" cType="1" res="2.5060180574655533e-02" rms="2.3296883702278137e-01" purity="5.3733426332473755e-01" nType="0">
          <Node pos="l" depth="2" NCoef="0" IVar="-1" Cut="0.0000000000000000e+00" cType="1" res="-1.9868671894073486e-02" rms="0.0000000000000000e+00" purity="-3.5848520696163177e-02" nType="-99"/>
          <Node pos="r" depth="2" NCoef="0" IVar="-1" Cut="0.0000000000000000e+00" cType="1" res="7.8795029548928142e-04" rms="2.3598229885101318e-01" purity="5.5081015825271606e-01" nType="-99"/>
        </Node>
        <Node pos="r" depth="1" NCoef="0" IVar="16" Cut="-1.1075692176818848e+00" cType="1" res="-4.2482785880565643e-02" rms="1.7011041939258575e-01" purity="3.5554122924804688e-01" nType="0">
          <Node pos="l" depth="2" NCoef="0" IVar="-1" Cut="0.0000000000000000e+00" cType="1" res="9.5818011322990060e-04" rms="2.4829587340354919e-01" purity="3.1326177716255188e-01" nType="-99"/>
          <Node pos="r" depth="2" NCoef="0" IVar="-1" Cut="0.0000000000000000e+00" cType="1" res="-2.7477084659039974e-03" rms="7.6439015567302704e-02" purity="3.7948095798492432e-01" nType="-99"/>
        </Node>
      </Node>
    </BinaryTree>
    <BinaryTree type="DecisionTree" boostWeight="1.0000000000000000e+00" itree="1084">
      <Node pos="s" depth="0" NCoef="0" IVar="3" Cut="5.2411665916442871e+00" cType="1" res="5.8803996071219444e-03" rms="2.1594740450382233e-01" purity="4.9172973632812500e-01" nType="0">
        <Node pos="l" depth="1" NCoef="0" IVar="5" Cut="3.9377129077911377e-01" cType="1" res="-1.0890717385336757e-03" rms="2.1257033944129944e-01" purity="4.9101093411445618e-01" nType="0">
          <Node pos="l" depth="2" NCoef="0" IVar="-1" Cut="0.0000000000000000e+00" cType="1" res="4.9165298696607351e-04" rms="1.9851136207580566e-01" purity="6.1555242538452148e-01" nType="-99"/>
          <Node pos="r" depth="2" NCoef="0" IVar="-1" Cut="0.0000000000000000e+00" cType="1" res="-9.6806709188967943e-04" rms="2.3768785595893860e-01" purity="2.0165109634399414e-01" nType="-99"/>
        </Node>
        <Node pos="r" depth="1" NCoef="0" IVar="0" Cut="5.9218531847000122e-01" cType="1" res="1.1231043934822083e-01" rms="2.3804023861885071e-01" purity="5.0270664691925049e-01" nType="0">
          <Node pos="l" depth="2" NCoef="0" IVar="-1" Cut="0.0000000000000000e+00" cType="1" res="4.4067613780498505e-03" rms="3.0961245298385620e-01" purity="5.9700167179107666e-01" nType="-99"/>
          <Node pos="r" depth="2" NCoef="0" IVar="-1" Cut="0.0000000000000000e+00" cType="1" res="-9.7460806136950850e-04" rms="0.0000000000000000e+00" purity="3.3639869093894958e-01" nType="-99"/>
        </Node>
      </Node>
    </BinaryTree>
    <BinaryTree type="DecisionTree" boostWeight="1.0000000000000000e+00" itree="1085">
      <Node pos="s" depth="0" NCoef="0" IVar="17" Cut="1.4441871643066406e+00" cType="1" res="1.0780233889818192e-02" rms="2.1624879539012909e-01" purity="5.0174951553344727e-01" nType="0">
        <Node pos="l" depth="1" NCoef="0" IVar="37" Cut="1.0311089754104614e+00" cType="1" res="-3.1355274841189384e-03" rms="0.0000000000000000e+00" purity="1.5995267778635025e-02" nType="-99"/>
        <Node pos="r" depth="1" NCoef="0" IVar="15" Cut="1.5230847597122192e+00" cType="1" res="3.0621005222201347e-02" rms="2.7067989110946655e-01" purity="7.6263165473937988e-01" nType="0">
          <Node pos="l" depth="2" NCoef="0" IVar="-1" Cut="0.0000000000000000e+00" cType="1" res="8.8793697068467736e-04" rms="2.5157216191291809e-01" purity="8.0482071638107300e-01" nType="-99"/>
          <Node pos="r" depth="2" NCoef="0" IVar="-1" Cut="0.0000000000000000e+00" cType="1" res="-8.9350511552765965e-04" rms="3.5040745139122009e-01" purity="5.2252668142318726e-01" nType="-99"/>
        </Node>
      </Node>
    </BinaryTree>
    <BinaryTree type="DecisionTree" boostWeight="1.0000000000000000e+00" itree="1086">
      <Node pos="s" depth="0" NCoef="0" IVar="0" Cut="5.7861882448196411e-01" cType="1" res="6.8825827911496162e-03" rms="2.2384127974510193e-01" purity="4.9426099658012390e-01" nType="0">
        <Node pos="l" depth="1" NCoef="0" IVar="39" Cut="-1.0120760202407837e+00" cType="1" res="3.4559428691864014e-02" rms="2.4821141362190247e-01" purity="5.7193952798843384e-01" nType="0">
          <Node pos="l" depth="2" NCoef="0" IVar="-1" Cut="0.0000000000000000e+00" cType="1" res="1.1748302495107055e-03" rms="2.5152176618576050e-01" purity="5.9571170806884766e-01" nType="-99"/>
          <Node pos="r" depth="2" NCoef="0" IVar="-1" Cut="0.0000000000000000e+00" cType="1" res="-5.0592217594385147e-03" rms="1.5808624029159546e-01" purity="2.5153407454490662e-01" nType="-99"/>
        </Node>
        <Node pos="r" depth="1" NCoef="0" IVar="9" Cut="-7.1604937314987183e-01" cType="1" res="-2.3366058245301247e-02" rms="1.8915545940399170e-01" purity="4.0936440229415894e-01" nType="0">
          <Node pos="l" depth="2" NCoef="0" IVar="-1" Cut="0.0000000000000000e+00" cType="1" res="-5.3434954024851322e-03" rms="0.0000000000000000e+00" purity="1.0906530916690826e-01" nType="-99"/>
          <Node pos="r" depth="2" NCoef="0" IVar="-1" Cut="0.0000000000000000e+00" cType="1" res="-4.6093109995126724e-04" rms="2.0225051045417786e-01" purity="4.2251345515251160e-01" nType="-99"/>
        </Node>
      </Node>
    </BinaryTree>
    <BinaryTree type="DecisionTree" boostWeight="1.0000000000000000e+00" itree="1087">
      <Node pos="s" depth="0" NCoef="0" IVar="3" Cut="5.2221207618713379e+00" cType="1" res="2.1103933453559875e-02" rms="2.4299980700016022e-01" purity="5.0898104906082153e-01" nType="0">
        <Node pos="l" depth="1" NCoef="0" IVar="2" Cut="2.0178678035736084e+00" cType="1" res="1.4855536632239819e-02" rms="2.3889435827732086e-01" purity="5.0991970300674438e-01" nType="0">
          <Node pos="l" depth="2" NCoef="0" IVar="-1" Cut="0.0000000000000000e+00" cType="1" res="-1.5366673469543457e-03" rms="1.8084743618965149e-01" purity="2.0884597301483154e-01" nType="-99"/>
          <Node pos="r" depth="2" NCoef="0" IVar="-1" Cut="0.0000000000000000e+00" cType="1" res="7.4468151433393359e-04" rms="2.5224897265434265e-01" purity="6.0182344913482666e-01" nType="-99"/>
        </Node>
        <Node pos="r" depth="1" NCoef="0" IVar="34" Cut="-9.9263805150985718e-01" cType="1" res="1.1448933184146881e-01" rms="2.8162500262260437e-01" purity="4.9495175480842590e-01" nType="0">
          <Node pos="l" depth="2" NCoef="0" IVar="-1" Cut="0.0000000000000000e+00" cType="1" res="4.1755358688533306e-03" rms="3.2591435313224792e-01" purity="5.3374910354614258e-01" nType="-99"/>
          <Node pos="r" depth="2" NCoef="0" IVar="-1" Cut="0.0000000000000000e+00" cType="1" res="-3.9234122959896922e-04" rms="7.6215900480747223e-02" purity="4.2654547095298767e-01" nType="-99"/>
        </Node>
      </Node>
    </BinaryTree>
    <BinaryTree type="DecisionTree" boostWeight="1.0000000000000000e+00" itree="1088">
      <Node pos="s" depth="0" NCoef="0" IVar="17" Cut="1.5214687585830688e+00" cType="1" res="3.8529632147401571e-03" rms="2.0783770084381104e-01" purity="4.8943546414375305e-01" nType="0">
        <Node pos="l" depth="1" NCoef="0" IVar="58" Cut="7.8027355670928955e-01" cType="1" res="-1.4420193620026112e-02" rms="1.9899180531501770e-01" purity="2.4991518259048462e-01" nType="0">
          <Node pos="l" depth="2" NCoef="0" IVar="-1" Cut="0.0000000000000000e+00" cType="1" res="-1.0747841588454321e-04" rms="2.1543294191360474e-01" purity="2.6749923825263977e-01" nType="-99"/>
          <Node pos="r" depth="2" NCoef="0" IVar="-1" Cut="0.0000000000000000e+00" cType="1" res="-3.4208430442959070e-03" rms="0.0000000000000000e+00" purity="1.3734619319438934e-01" nType="-99"/>
        </Node>
        <Node pos="r" depth="1" NCoef="0" IVar="15" Cut="1.5230776071548462e+00" cType="1" res="3.2686479389667511e-02" rms="2.1798351407051086e-01" purity="8.6737847328186035e-01" nType="0">
          <Node pos="l" depth="2" NCoef="0" IVar="-1" Cut="0.0000000000000000e+00" cType="1" res="1.4549905899912119e-03" rms="1.7842358350753784e-01" purity="9.3041360378265381e-01" nType="-99"/>
          <Node pos="r" depth="2" NCoef="0" IVar="-1" Cut="0.0000000000000000e+00" cType="1" res="-4.6242543612606823e-04" rms="3.2541149854660034e-01" purity="6.1345797777175903e-01" nType="-99"/>
        </Node>
      </Node>
    </BinaryTree>
    <BinaryTree type="DecisionTree" boostWeight="1.0000000000000000e+00" itree="1089">
      <Node pos="s" depth="0" NCoef="0" IVar="25" Cut="1.0126924514770508e+00" cType="1" res="1.6790669411420822e-02" rms="2.2902129590511322e-01" purity="5.0999766588211060e-01" nType="0">
        <Node pos="l" depth="1" NCoef="0" IVar="43" Cut="1.2345679104328156e-02" cType="1" res="3.1502965837717056e-02" rms="2.4268481135368347e-01" purity="5.5094844102859497e-01" nType="0">
          <Node pos="l" depth="2" NCoef="0" IVar="-1" Cut="0.0000000000000000e+00" cType="1" res="5.4696989245712757e-03" rms="3.6712479591369629e-01" purity="3.6997428536415100e-01" nType="-99"/>
          <Node pos="r" depth="2" NCoef="0" IVar="-1" Cut="0.0000000000000000e+00" cType="1" res="6.6706805955618620e-04" rms="2.3362372815608978e-01" purity="5.5945664644241333e-01" nType="-99"/>
        </Node>
        <Node pos="r" depth="1" NCoef="0" IVar="17" Cut="1.5205001831054688e+00" cType="1" res="-1.8616210669279099e-02" rms="1.8752367794513702e-01" purity="4.1144478321075439e-01" nType="0">
          <Node pos="l" depth="2" NCoef="0" IVar="-1" Cut="0.0000000000000000e+00" cType="1" res="-2.4471089709550142e-03" rms="1.5081208944320679e-01" purity="1.4442126452922821e-01" nType="-99"/>
          <Node pos="r" depth="2" NCoef="0" IVar="-1" Cut="0.0000000000000000e+00" cType="1" res="9.9244643934071064e-04" rms="2.2605791687965393e-01" purity="8.6578303575515747e-01" nType="-99"/>
        </Node>
      </Node>
    </BinaryTree>
    <BinaryTree type="DecisionTree" boostWeight="1.0000000000000000e+00" itree="1090">
      <Node pos="s" depth="0" NCoef="0" IVar="2" Cut="1.0234715938568115e+00" cType="1" res="6.1112269759178162e-03" rms="2.2623489797115326e-01" purity="4.8026978969573975e-01" nType="0">
        <Node pos="l" depth="1" NCoef="0" IVar="-1" Cut="0.0000000000000000e+00" cType="1" res="-1.2899989262223244e-02" rms="0.0000000000000000e+00" purity="-1.4956478029489517e-02" nType="-99"/>
        <Node pos="r" depth="1" NCoef="0" IVar="18" Cut="-7.1878761053085327e-01" cType="1" res="1.0731040500104427e-02" rms="2.3196780681610107e-01" purity="5.0047683715820312e-01" nType="0">
          <Node pos="l" depth="2" NCoef="0" IVar="-1" Cut="0.0000000000000000e+00" cType="1" res="4.2364801629446447e-04" rms="2.3367731273174286e-01" purity="5.1526904106140137e-01" nType="-99"/>
          <Node pos="r" depth="2" NCoef="0" IVar="-1" Cut="0.0000000000000000e+00" cType="1" res="-1.5045181848108768e-02" rms="1.1688795685768127e-01" purity="6.9265477359294891e-02" nType="-99"/>
        </Node>
      </Node>
    </BinaryTree>
    <BinaryTree type="DecisionTree" boostWeight="1.0000000000000000e+00" itree="1091">
      <Node pos="s" depth="0" NCoef="0" IVar="5" Cut="3.0324262380599976e-01" cType="1" res="1.7770763952285051e-03" rms="2.0916865766048431e-01" purity="4.9019131064414978e-01" nType="0">
        <Node pos="l" depth="1" NCoef="0" IVar="52" Cut="2.4709253311157227e+00" cType="1" res="2.4356912821531296e-02" rms="1.9360300898551941e-01" purity="6.5212070941925049e-01" nType="0">
          <Node pos="l" depth="2" NCoef="0" IVar="-1" Cut="0.0000000000000000e+00" cType="1" res="-1.4813984744250774e-03" rms="8.4569752216339111e-02" purity="3.3487233519554138e-01" nType="-99"/>
          <Node pos="r" depth="2" NCoef="0" IVar="-1" Cut="0.0000000000000000e+00" cType="1" res="1.3556876219809055e-03" rms="2.0498281717300415e-01" purity="7.1443855762481689e-01" nType="-99"/>
        </Node>
        <Node pos="r" depth="1" NCoef="0" IVar="58" Cut="-1.3001035451889038e+00" cType="1" res="-2.8229430317878723e-02" rms="2.2473327815532684e-01" purity="2.7500221133232117e-01" nType="0">
          <Node pos="l" depth="2" NCoef="0" IVar="-1" Cut="0.0000000000000000e+00" cType="1" res="5.4390501463785768e-04" rms="2.9262909293174744e-01" purity="3.5822430253028870e-01" nType="-99"/>
          <Node pos="r" depth="2" NCoef="0" IVar="-1" Cut="0.0000000000000000e+00" cType="1" res="-1.4956179074943066e-03" rms="1.7222590744495392e-01" purity="2.3096379637718201e-01" nType="-99"/>
        </Node>
      </Node>
    </BinaryTree>
    <BinaryTree type="DecisionTree" boostWeight="1.0000000000000000e+00" itree="1092">
      <Node pos="s" depth="0" NCoef="0" IVar="0" Cut="6.9992250204086304e-01" cType="1" res="-7.5776048470288515e-04" rms="2.0502324402332306e-01" purity="4.9613755941390991e-01" nType="0">
        <Node pos="l" depth="1" NCoef="0" IVar="39" Cut="-1.0092098712921143e+00" cType="1" res="1.9781885668635368e-02" rms="2.2342020273208618e-01" purity="5.5687236785888672e-01" nType="0">
          <Node pos="l" depth="2" NCoef="0" IVar="-1" Cut="0.0000000000000000e+00" cType="1" res="7.5483298860490322e-04" rms="2.2477503120899200e-01" purity="5.8335298299789429e-01" nType="-99"/>
          <Node pos="r" depth="2" NCoef="0" IVar="-1" Cut="0.0000000000000000e+00" cType="1" res="-4.6667540445923805e-03" rms="1.7752692103385925e-01" purity="2.0581282675266266e-01" nType="-99"/>
        </Node>
        <Node pos="r" depth="1" NCoef="0" IVar="55" Cut="1.3571718931198120e+00" cType="1" res="-3.5973411053419113e-02" rms="1.6296355426311493e-01" purity="3.9200642704963684e-01" nType="0">
          <Node pos="l" depth="2" NCoef="0" IVar="-1" Cut="0.0000000000000000e+00" cType="1" res="-2.1407236636150628e-04" rms="2.0705156028270721e-01" purity="4.5776093006134033e-01" nType="-99"/>
          <Node pos="r" depth="2" NCoef="0" IVar="-1" Cut="0.0000000000000000e+00" cType="1" res="-4.0340162813663483e-03" rms="0.0000000000000000e+00" purity="2.3501172661781311e-01" nType="-99"/>
        </Node>
      </Node>
    </BinaryTree>
    <BinaryTree type="DecisionTree" boostWeight="1.0000000000000000e+00" itree="1093">
      <Node pos="s" depth="0" NCoef="0" IVar="3" Cut="5.1867933273315430e+00" cType="1" res="1.5316109172999859e-02" rms="2.2949434816837311e-01" purity="5.1011157035827637e-01" nType="0">
        <Node pos="l" depth="1" NCoef="0" IVar="25" Cut="9.5667451620101929e-01" cType="1" res="8.0552604049444199e-03" rms="2.2711135447025299e-01" purity="5.0945842266082764e-01" nType="0">
          <Node pos="l" depth="2" NCoef="0" IVar="-1" Cut="0.0000000000000000e+00" cType="1" res="7.7796797268092632e-04" rms="2.4713788926601410e-01" purity="5.6176900863647461e-01" nType="-99"/>
          <Node pos="r" depth="2" NCoef="0" IVar="-1" Cut="0.0000000000000000e+00" cType="1" res="-4.4819497270509601e-04" rms="2.0391991734504700e-01" purity="4.5971676707267761e-01" nType="-99"/>
        </Node>
        <Node pos="r" depth="1" NCoef="0" IVar="3" Cut="5.3614983558654785e+00" cType="1" res="1.0418545454740524e-01" rms="2.3967121541500092e-01" purity="5.1810622215270996e-01" nType="0">
          <Node pos="l" depth="2" NCoef="0" IVar="-1" Cut="0.0000000000000000e+00" cType="1" res="3.7603448145091534e-03" rms="3.1039768457412720e-01" purity="6.2929040193557739e-01" nType="-99"/>
          <Node pos="r" depth="2" NCoef="0" IVar="-1" Cut="0.0000000000000000e+00" cType="1" res="-2.2582600358873606e-03" rms="0.0000000000000000e+00" purity="2.1019574999809265e-01" nType="-99"/>
        </Node>
      </Node>
    </BinaryTree>
    <BinaryTree type="DecisionTree" boostWeight="1.0000000000000000e+00" itree="1094">
      <Node pos="s" depth="0" NCoef="0" IVar="56" Cut="1.0966470241546631e+00" cType="1" res="8.2945385947823524e-03" rms="2.1781666576862335e-01" purity="5.0100350379943848e-01" nType="0">
        <Node pos="l" depth="1" NCoef="0" IVar="3" Cut="5.0531425476074219e+00" cType="1" res="1.4747493900358677e-02" rms="2.2204326093196869e-01" purity="5.1887124776840210e-01" nType="0">
          <Node pos="l" depth="2" NCoef="0" IVar="-1" Cut="0.0000000000000000e+00" cType="1" res="1.2227302067913115e-04" rms="2.1670955419540405e-01" purity="5.1162654161453247e-01" nType="-99"/>
          <Node pos="r" depth="2" NCoef="0" IVar="-1" Cut="0.0000000000000000e+00" cType="1" res="2.0745280198752880e-03" rms="2.4232803285121918e-01" purity="5.6229925155639648e-01" nType="-99"/>
        </Node>
        <Node pos="r" depth="1" NCoef="0" IVar="27" Cut="2.5040543079376221e+00" cType="1" res="-9.4184964895248413e-02" rms="8.2196451723575592e-02" purity="2.1724522113800049e-01" nType="0">
          <Node pos="l" depth="2" NCoef="0" IVar="-1" Cut="0.0000000000000000e+00" cType="1" res="-8.2873990759253502e-03" rms="0.0000000000000000e+00" purity="4.8692125827074051e-02" nType="-99"/>
          <Node pos="r" depth="2" NCoef="0" IVar="-1" Cut="0.0000000000000000e+00" cType="1" res="-5.3387382649816573e-05" rms="2.7306401729583740e-01" purity="4.7255063056945801e-01" nType="-99"/>
        </Node>
      </Node>
    </BinaryTree>
    <BinaryTree type="DecisionTree" boostWeight="1.0000000000000000e+00" itree="1095">
      <Node pos="s" depth="0" NCoef="0" IVar="64" Cut="1.2345679104328156e-02" cType="1" res="1.4189656823873520e-02" rms="2.2940985858440399e-01" purity="5.0127339363098145e-01" nType="0">
        <Node pos="l" depth="1" NCoef="0" IVar="-1" Cut="0.0000000000000000e+00" cType="1" res="-3.5288983490318060e-03" rms="0.0000000000000000e+00" purity="1.4598748087882996e-01" nType="-99"/>
        <Node pos="r" depth="1" NCoef="0" IVar="36" Cut="1.2140265703201294e+00" cType="1" res="1.9394841045141220e-02" rms="2.3679663240909576e-01" purity="5.1490956544876099e-01" nType="0">
          <Node pos="l" depth="2" NCoef="0" IVar="-1" Cut="0.0000000000000000e+00" cType="1" res="-2.2511596325784922e-03" rms="9.8363764584064484e-02" purity="6.3294015824794769e-02" nType="-99"/>
          <Node pos="r" depth="2" NCoef="0" IVar="-1" Cut="0.0000000000000000e+00" cType="1" res="7.5921707320958376e-04" rms="2.5941762328147888e-01" purity="6.3030719757080078e-01" nType="-99"/>
        </Node>
      </Node>
    </BinaryTree>
    <BinaryTree type="DecisionTree" boostWeight="1.0000000000000000e+00" itree="1096">
      <Node pos="s" depth="0" NCoef="0" IVar="52" Cut="2.4742026329040527e+00" cType="1" res="4.5838309451937675e-03" rms="2.1772910654544830e-01" purity="4.9227726459503174e-01" nType="0">
        <Node pos="l" depth="1" NCoef="0" IVar="25" Cut="8.7315833568572998e-01" cType="1" res="-2.1836226806044579e-03" rms="0.0000000000000000e+00" purity="2.5234335660934448e-01" nType="-99"/>
        <Node pos="r" depth="1" NCoef="0" IVar="3" Cut="5.1271147727966309e+00" cType="1" res="1.6711169853806496e-02" rms="2.3303133249282837e-01" purity="5.3117477893829346e-01" nType="0">
          <Node pos="l" depth="2" NCoef="0" IVar="-1" Cut="0.0000000000000000e+00" cType="1" res="2.2763182641938329e-04" rms="2.3058056831359863e-01" purity="5.2597004175186157e-01" nType="-99"/>
          <Node pos="r" depth="2" NCoef="0" IVar="-1" Cut="0.0000000000000000e+00" cType="1" res="2.4483092129230499e-03" rms="2.3988705873489380e-01" purity="5.7283133268356323e-01" nType="-99"/>
        </Node>
      </Node>
    </BinaryTree>
    <BinaryTree type="DecisionTree" boostWeight="1.0000000000000000e+00" itree="1097">
      <Node pos="s" depth="0" NCoef="0" IVar="25" Cut="9.5307946205139160e-01" cType="1" res="9.6604889258742332e-03" rms="2.1825157105922699e-01" purity="5.0705772638320923e-01" nType="0">
        <Node pos="l" depth="1" NCoef="0" IVar="6" Cut="9.6696782112121582e-01" cType="1" res="3.7767302244901657e-02" rms="2.3875227570533752e-01" purity="5.7841271162033081e-01" nType="0">
          <Node pos="l" depth="2" NCoef="0" IVar="-1" Cut="0.0000000000000000e+00" cType="1" res="-5.0610499456524849e-03" rms="0.0000000000000000e+00" purity="6.8094380199909210e-02" nType="-99"/>
          <Node pos="r" depth="2" NCoef="0" IVar="-1" Cut="0.0000000000000000e+00" cType="1" res="1.1484737042337656e-03" rms="2.4676007032394409e-01" purity="6.0490858554840088e-01" nType="-99"/>
        </Node>
        <Node pos="r" depth="1" NCoef="0" IVar="17" Cut="1.5213149785995483e+00" cType="1" res="-1.6584312543272972e-02" rms="1.9354344904422760e-01" purity="4.4042989611625671e-01" nType="0">
          <Node pos="l" depth="2" NCoef="0" IVar="-1" Cut="0.0000000000000000e+00" cType="1" res="-1.6772317467257380e-03" rms="1.7400829493999481e-01" purity="1.8617491424083710e-01" nType="-99"/>
          <Node pos="r" depth="2" NCoef="0" IVar="-1" Cut="0.0000000000000000e+00" cType="1" res="6.5171049209311604e-04" rms="2.1563704311847687e-01" purity="8.5811454057693481e-01" nType="-99"/>
        </Node>
      </Node>
    </BinaryTree>
    <BinaryTree type="DecisionTree" boostWeight="1.0000000000000000e+00" itree="1098">
      <Node pos="s" depth="0" NCoef="0" IVar="52" Cut="3.5431842803955078e+00" cType="1" res="7.1177473291754723e-03" rms="2.2510267794132233e-01" purity="4.8705369234085083e-01" nType="0">
        <Node pos="l" depth="1" NCoef="0" IVar="34" Cut="-1.4926186800003052e+00" cType="1" res="1.2875981628894806e-02" rms="2.3265582323074341e-01" purity="4.9732062220573425e-01" nType="0">
          <Node pos="l" depth="2" NCoef="0" IVar="-1" Cut="0.0000000000000000e+00" cType="1" res="3.3443891443312168e-03" rms="3.0431708693504333e-01" purity="5.2048057317733765e-01" nType="-99"/>
          <Node pos="r" depth="2" NCoef="0" IVar="-1" Cut="0.0000000000000000e+00" cType="1" res="1.8338560767006129e-04" rms="2.2592887282371521e-01" purity="4.9590036273002625e-01" nType="-99"/>
        </Node>
        <Node pos="r" depth="1" NCoef="0" IVar="48" Cut="2.3911767005920410e+00" cType="1" res="-3.7010503001511097e-03" rms="0.0000000000000000e+00" purity="2.8572490811347961e-01" nType="-99"/>
      </Node>
    </BinaryTree>
    <BinaryTree type="DecisionTree" boostWeight="1.0000000000000000e+00" itree="1099">
      <Node pos="s" depth="0" NCoef="0" IVar="3" Cut="5.2378163337707520e+00" cType="1" res="1.0105759836733341e-02" rms="2.1559233963489532e-01" purity="4.9694299697875977e-01" nType="0">
        <Node pos="l" depth="1" NCoef="0" IVar="60" Cut="-8.1035345792770386e-01" cType="1" res="2.8071994893252850e-03" rms="2.1075089275836945e-01" purity="4.9627959728240967e-01" nType="0">
          <Node pos="l" depth="2" NCoef="0" IVar="-1" Cut="0.0000000000000000e+00" cType="1" res="2.5163218379020691e-04" rms="2.1868497133255005e-01" purity="5.1689684391021729e-01" nType="-99"/>
          <Node pos="r" depth="2" NCoef="0" IVar="-1" Cut="0.0000000000000000e+00" cType="1" res="-4.6852673403918743e-03" rms="0.0000000000000000e+00" purity="1.5263764560222626e-01" nType="-99"/>
        </Node>
        <Node pos="r" depth="1" NCoef="0" IVar="17" Cut="1.0509424209594727e+00" cType="1" res="1.2653571367263794e-01" rms="2.5495502352714539e-01" purity="5.0752621889114380e-01" nType="0">
          <Node pos="l" depth="2" NCoef="0" IVar="-1" Cut="0.0000000000000000e+00" cType="1" res="-5.8287461288273335e-03" rms="0.0000000000000000e+00" purity="-1.3335024937987328e-02" nType="-99"/>
          <Node pos="r" depth="2" NCoef="0" IVar="-1" Cut="0.0000000000000000e+00" cType="1" res="3.1985919922590256e-03" rms="3.0345872044563293e-01" purity="7.9062408208847046e-01" nType="-99"/>
        </Node>
      </Node>
    </BinaryTree>
    <BinaryTree type="DecisionTree" boostWeight="1.0000000000000000e+00" itree="1100">
      <Node pos="s" depth="0" NCoef="0" IVar="57" Cut="1.4826163053512573e+00" cType="1" res="1.0959445498883724e-02" rms="2.2148926556110382e-01" purity="5.0640702247619629e-01" nType="0">
        <Node pos="l" depth="1" NCoef="0" IVar="36" Cut="1.4070059061050415e+00" cType="1" res="1.4995529316365719e-02" rms="2.2230385243892670e-01" purity="5.1873415708541870e-01" nType="0">
          <Node pos="l" depth="2" NCoef="0" IVar="-1" Cut="0.0000000000000000e+00" cType="1" res="-1.2393407523632050e-03" rms="1.2401408702135086e-01" purity="1.1385215073823929e-01" nType="-99"/>
          <Node pos="r" depth="2" NCoef="0" IVar="-1" Cut="0.0000000000000000e+00" cType="1" res="6.9441931555047631e-04" rms="2.4727895855903625e-01" purity="6.6685068607330322e-01" nType="-99"/>
        </Node>
        <Node pos="r" depth="1" NCoef="0" IVar="-1" Cut="0.0000000000000000e+00" cType="1" res="-7.3560583405196667e-03" rms="1.2681688368320465e-01" purity="7.6608411967754364e-02" nType="-99"/>
      </Node>
    </BinaryTree>
    <BinaryTree type="DecisionTree" boostWeight="1.0000000000000000e+00" itree="1101">
      <Node pos="s" depth="0" NCoef="0" IVar="0" Cut="7.8580313920974731e-01" cType="1" res="6.4322710968554020e-03" rms="2.0508076250553131e-01" purity="5.0231772661209106e-01" nType="0">
        <Node pos="l" depth="1" NCoef="0" IVar="3" Cut="5.1970567703247070e+00" cType="1" res="2.3469859734177589e-02" rms="2.2203676402568817e-01" purity="5.4641264677047729e-01" nType="0">
          <Node pos="l" depth="2" NCoef="0" IVar="-1" Cut="0.0000000000000000e+00" cType="1" res="4.0450567030347884e-04" rms="2.1637849509716034e-01" purity="5.4572486877441406e-01" nType="-99"/>
          <Node pos="r" depth="2" NCoef="0" IVar="-1" Cut="0.0000000000000000e+00" cType="1" res="3.2107126899063587e-03" rms="2.5653070211410522e-01" purity="5.5415326356887817e-01" nType="-99"/>
        </Node>
        <Node pos="r" depth="1" NCoef="0" IVar="2" Cut="2.7355303764343262e+00" cType="1" res="-3.6799002438783646e-02" rms="1.4517647027969360e-01" purity="3.9043101668357849e-01" nType="0">
          <Node pos="l" depth="2" NCoef="0" IVar="-1" Cut="0.0000000000000000e+00" cType="1" res="-2.4207348469644785e-03" rms="0.0000000000000000e+00" purity="2.3696163296699524e-01" nType="-99"/>
          <Node pos="r" depth="2" NCoef="0" IVar="-1" Cut="0.0000000000000000e+00" cType="1" res="6.3902122201398015e-04" rms="2.3409140110015869e-01" purity="6.3114351034164429e-01" nType="-99"/>
        </Node>
      </Node>
    </BinaryTree>
    <BinaryTree type="DecisionTree" boostWeight="1.0000000000000000e+00" itree="1102">
      <Node pos="s" depth="0" NCoef="0" IVar="48" Cut="8.6120343208312988e-01" cType="1" res="3.4608792047947645e-03" rms="2.1067306399345398e-01" purity="4.9289092421531677e-01" nType="0">
        <Node pos="l" depth="1" NCoef="0" IVar="37" Cut="-1.1866707801818848e+00" cType="1" res="-2.3066226858645678e-03" rms="0.0000000000000000e+00" purity="4.0188502520322800e-02" nType="-99"/>
        <Node pos="r" depth="1" NCoef="0" IVar="36" Cut="1.4070059061050415e+00" cType="1" res="9.8121659830212593e-03" rms="2.2040714323520660e-01" purity="5.3235650062561035e-01" nType="0">
          <Node pos="l" depth="2" NCoef="0" IVar="-1" Cut="0.0000000000000000e+00" cType="1" res="-1.7998781986534595e-03" rms="9.5517002046108246e-02" purity="1.3045878708362579e-01" nType="-99"/>
          <Node pos="r" depth="2" NCoef="0" IVar="-1" Cut="0.0000000000000000e+00" cType="1" res="5.8898259885609150e-04" rms="2.4787124991416931e-01" purity="6.7191982269287109e-01" nType="-99"/>
        </Node>
      </Node>
    </BinaryTree>
    <BinaryTree type="DecisionTree" boostWeight="1.0000000000000000e+00" itree="1103">
      <Node pos="s" depth="0" NCoef="0" IVar="57" Cut="7.1951317787170410e-01" cType="1" res="4.4566397555172443e-03" rms="2.1771787106990814e-01" purity="4.9552726745605469e-01" nType="0">
        <Node pos="l" depth="1" NCoef="0" IVar="25" Cut="8.5676991939544678e-01" cType="1" res="1.7933156341314316e-02" rms="2.3268935084342957e-01" purity="5.4504907131195068e-01" nType="0">
          <Node pos="l" depth="2" NCoef="0" IVar="-1" Cut="0.0000000000000000e+00" cType="1" res="1.7889328300952911e-03" rms="2.8592100739479065e-01" purity="6.1720889806747437e-01" nType="-99"/>
          <Node pos="r" depth="2" NCoef="0" IVar="-1" Cut="0.0000000000000000e+00" cType="1" res="2.6356280432082713e-04" rms="2.2262667119503021e-01" purity="5.3473788499832153e-01" nType="-99"/>
        </Node>
        <Node pos="r" depth="1" NCoef="0" IVar="67" Cut="9.1196191310882568e-01" cType="1" res="-4.6095535159111023e-02" rms="1.3736605644226074e-01" purity="3.0976444482803345e-01" nType="0">
          <Node pos="l" depth="2" NCoef="0" IVar="-1" Cut="0.0000000000000000e+00" cType="1" res="-4.7709443606436253e-03" rms="0.0000000000000000e+00" purity="1.5845775604248047e-01" nType="-99"/>
          <Node pos="r" depth="2" NCoef="0" IVar="-1" Cut="0.0000000000000000e+00" cType="1" res="-7.4258347740396857e-04" rms="1.6856941580772400e-01" purity="3.5399541258811951e-01" nType="-99"/>
        </Node>
      </Node>
    </BinaryTree>
    <BinaryTree type="DecisionTree" boostWeight="1.0000000000000000e+00" itree="1104">
      <Node pos="s" depth="0" NCoef="0" IVar="17" Cut="1.5214687585830688e+00" cType="1" res="1.2864776654168963e-03" rms="2.1060949563980103e-01" purity="4.9920016527175903e-01" nType="0">
        <Node pos="l" depth="1" NCoef="0" IVar="48" Cut="9.6521389484405518e-01" cType="1" res="-2.4089384824037552e-02" rms="1.9382148981094360e-01" purity="2.3888958990573883e-01" nType="0">
          <Node pos="l" depth="2" NCoef="0" IVar="-1" Cut="0.0000000000000000e+00" cType="1" res="-6.2463642098009586e-03" rms="0.0000000000000000e+00" purity="-6.4652957022190094e-02" nType="-99"/>
          <Node pos="r" depth="2" NCoef="0" IVar="-1" Cut="0.0000000000000000e+00" cType="1" res="-3.0521652661263943e-04" rms="2.2957517206668854e-01" purity="2.8768596053123474e-01" nType="-99"/>
        </Node>
        <Node pos="r" depth="1" NCoef="0" IVar="15" Cut="1.5224903821945190e+00" cType="1" res="3.7420891225337982e-02" rms="2.2760024666786194e-01" purity="8.6987417936325073e-01" nType="0">
          <Node pos="l" depth="2" NCoef="0" IVar="-1" Cut="0.0000000000000000e+00" cType="1" res="1.4965451555326581e-03" rms="1.8528056144714355e-01" purity="9.3052840232849121e-01" nType="-99"/>
          <Node pos="r" depth="2" NCoef="0" IVar="-1" Cut="0.0000000000000000e+00" cType="1" res="-2.0563203725032508e-04" rms="3.4230548143386841e-01" purity="6.3214331865310669e-01" nType="-99"/>
        </Node>
      </Node>
    </BinaryTree>
    <BinaryTree type="DecisionTree" boostWeight="1.0000000000000000e+00" itree="1105">
      <Node pos="s" depth="0" NCoef="0" IVar="52" Cut="2.2607109546661377e+00" cType="1" res="1.0145004838705063e-02" rms="2.1860453486442566e-01" purity="5.0704926252365112e-01" nType="0">
        <Node pos="l" depth="1" NCoef="0" IVar="14" Cut="-1.0288538932800293e+00" cType="1" res="-3.8187592290341854e-03" rms="0.0000000000000000e+00" purity="1.1252741515636444e-01" nType="-99"/>
        <Node pos="r" depth="1" NCoef="0" IVar="52" Cut="3.2658729553222656e+00" cType="1" res="1.6407825052738190e-02" rms="2.2694604098796844e-01" purity="5.2477753162384033e-01" nType="0">
          <Node pos="l" depth="2" NCoef="0" IVar="-1" Cut="0.0000000000000000e+00" cType="1" res="8.9653534814715385e-04" rms="2.4074856936931610e-01" purity="5.5175292491912842e-01" nType="-99"/>
          <Node pos="r" depth="2" NCoef="0" IVar="-1" Cut="0.0000000000000000e+00" cType="1" res="-1.1423098621889949e-03" rms="1.5646164119243622e-01" purity="4.2784911394119263e-01" nType="-99"/>
        </Node>
      </Node>
    </BinaryTree>
    <BinaryTree type="DecisionTree" boostWeight="1.0000000000000000e+00" itree="1106">
      <Node pos="s" depth="0" NCoef="0" IVar="3" Cut="4.9844660758972168e+00" cType="1" res="1.0636175051331520e-02" rms="2.2758722305297852e-01" purity="5.0033664703369141e-01" nType="0">
        <Node pos="l" depth="1" NCoef="0" IVar="56" Cut="-1.4538639783859253e+00" cType="1" res="-9.0423540677875280e-04" rms="2.2421027719974518e-01" purity="4.8156604170799255e-01" nType="0">
          <Node pos="l" depth="2" NCoef="0" IVar="-1" Cut="0.0000000000000000e+00" cType="1" res="6.2283419538289309e-04" rms="2.3232603073120117e-01" purity="5.7719516754150391e-01" nType="-99"/>
          <Node pos="r" depth="2" NCoef="0" IVar="-1" Cut="0.0000000000000000e+00" cType="1" res="-9.0525363339111209e-04" rms="2.1059422194957733e-01" purity="3.6680278182029724e-01" nType="-99"/>
        </Node>
        <Node pos="r" depth="1" NCoef="0" IVar="4" Cut="3.6034326553344727e+00" cType="1" res="5.9369374066591263e-02" rms="2.3516242206096649e-01" purity="5.7960194349288940e-01" nType="0">
          <Node pos="l" depth="2" NCoef="0" IVar="-1" Cut="0.0000000000000000e+00" cType="1" res="6.5401652827858925e-03" rms="4.2208224534988403e-01" purity="5.4101705551147461e-01" nType="-99"/>
          <Node pos="r" depth="2" NCoef="0" IVar="-1" Cut="0.0000000000000000e+00" cType="1" res="6.4363324781879783e-04" rms="1.4944891631603241e-01" purity="5.8733832836151123e-01" nType="-99"/>
        </Node>
      </Node>
    </BinaryTree>
    <BinaryTree type="DecisionTree" boostWeight="1.0000000000000000e+00" itree="1107">
      <Node pos="s" depth="0" NCoef="0" IVar="60" Cut="-9.8763740062713623e-01" cType="1" res="1.8122121691703796e-02" rms="2.3389817774295807e-01" purity="5.0625240802764893e-01" nType="0">
        <Node pos="l" depth="1" NCoef="0" IVar="31" Cut="3.2375006675720215e+00" cType="1" res="2.6321247220039368e-02" rms="2.4217087030410767e-01" purity="5.3364241123199463e-01" nType="0">
          <Node pos="l" depth="2" NCoef="0" IVar="-1" Cut="0.0000000000000000e+00" cType="1" res="1.1132919462397695e-04" rms="2.1914255619049072e-01" purity="4.9488937854766846e-01" nType="-99"/>
          <Node pos="r" depth="2" NCoef="0" IVar="-1" Cut="0.0000000000000000e+00" cType="1" res="1.5164932701736689e-03" rms="2.6869833469390869e-01" purity="5.8978259563446045e-01" nType="-99"/>
        </Node>
        <Node pos="r" depth="1" NCoef="0" IVar="48" Cut="2.3610882759094238e+00" cType="1" res="-5.5036257952451706e-02" rms="1.1668539792299271e-01" purity="2.6185953617095947e-01" nType="0">
          <Node pos="l" depth="2" NCoef="0" IVar="-1" Cut="0.0000000000000000e+00" cType="1" res="-3.5044040996581316e-03" rms="0.0000000000000000e+00" purity="1.4881114661693573e-01" nType="-99"/>
          <Node pos="r" depth="2" NCoef="0" IVar="-1" Cut="0.0000000000000000e+00" cType="1" res="9.0276409173384309e-04" rms="2.5351387262344360e-01" purity="5.8549237251281738e-01" nType="-99"/>
        </Node>
      </Node>
    </BinaryTree>
    <BinaryTree type="DecisionTree" boostWeight="1.0000000000000000e+00" itree="1108">
      <Node pos="s" depth="0" NCoef="0" IVar="18" Cut="-1.1029973030090332e+00" cType="1" res="3.4110134001821280e-03" rms="2.1004030108451843e-01" purity="4.9378636479377747e-01" nType="0">
        <Node pos="l" depth="1" NCoef="0" IVar="5" Cut="4.3596971035003662e-01" cType="1" res="1.2365538626909256e-02" rms="2.1527194976806641e-01" purity="5.2891212701797485e-01" nType="0">
          <Node pos="l" depth="2" NCoef="0" IVar="-1" Cut="0.0000000000000000e+00" cType="1" res="7.7248958405107260e-04" rms="2.1119563281536102e-01" purity="6.2728154659271240e-01" nType="-99"/>
          <Node pos="r" depth="2" NCoef="0" IVar="-1" Cut="0.0000000000000000e+00" cType="1" res="-7.5403251685202122e-04" rms="2.2252559661865234e-01" purity="2.0323167741298676e-01" nType="-99"/>
        </Node>
        <Node pos="r" depth="1" NCoef="0" IVar="17" Cut="1.4393372535705566e+00" cType="1" res="-7.6234705746173859e-02" rms="1.3141292333602905e-01" purity="1.8136163055896759e-01" nType="0">
          <Node pos="l" depth="2" NCoef="0" IVar="-1" Cut="0.0000000000000000e+00" cType="1" res="-1.4577638357877731e-02" rms="0.0000000000000000e+00" purity="-1.3708492740988731e-02" nType="-99"/>
          <Node pos="r" depth="2" NCoef="0" IVar="-1" Cut="0.0000000000000000e+00" cType="1" res="-2.7157019358128309e-03" rms="2.0676440000534058e-01" purity="3.9738291501998901e-01" nType="-99"/>
        </Node>
      </Node>
    </BinaryTree>
    <BinaryTree type="DecisionTree" boostWeight="1.0000000000000000e+00" itree="1109">
      <Node pos="s" depth="0" NCoef="0" IVar="3" Cut="5.2035140991210938e+00" cType="1" res="5.8005661703646183e-03" rms="2.0802977681159973e-01" purity="5.0422263145446777e-01" nType="0">
        <Node pos="l" depth="1" NCoef="0" IVar="6" Cut="8.0947726964950562e-01" cType="1" res="-2.1430025808513165e-03" rms="2.0084509253501892e-01" purity="5.0455027818679810e-01" nType="0">
          <Node pos="l" depth="2" NCoef="0" IVar="-1" Cut="0.0000000000000000e+00" cType="1" res="-1.8142204731702805e-02" rms="0.0000000000000000e+00" purity="-1.2347752600908279e-01" nType="-99"/>
          <Node pos="r" depth="2" NCoef="0" IVar="-1" Cut="0.0000000000000000e+00" cType="1" res="9.2166221293155104e-05" rms="2.0870777964591980e-01" purity="5.2297556400299072e-01" nType="-99"/>
        </Node>
        <Node pos="r" depth="1" NCoef="0" IVar="1" Cut="2.5092077255249023e+00" cType="1" res="1.1193328350782394e-01" rms="2.6536482572555542e-01" purity="4.9984458088874817e-01" nType="0">
          <Node pos="l" depth="2" NCoef="0" IVar="-1" Cut="0.0000000000000000e+00" cType="1" res="6.6035366617143154e-03" rms="3.9356926083564758e-01" purity="4.5094850659370422e-01" nType="-99"/>
          <Node pos="r" depth="2" NCoef="0" IVar="-1" Cut="0.0000000000000000e+00" cType="1" res="8.0419407458975911e-04" rms="8.0616466701030731e-02" purity="5.2664786577224731e-01" nType="-99"/>
        </Node>
      </Node>
    </BinaryTree>
    <BinaryTree type="DecisionTree" boostWeight="1.0000000000000000e+00" itree="1110">
      <Node pos="s" depth="0" NCoef="0" IVar="0" Cut="6.2213301658630371e-01" cType="1" res="4.4842963106930256e-03" rms="2.1380051970481873e-01" purity="4.9471220374107361e-01" nType="0">
        <Node pos="l" depth="1" NCoef="0" IVar="57" Cut="1.2916128635406494e+00" cType="1" res="2.9437243938446045e-02" rms="2.3678755760192871e-01" purity="5.6274807453155518e-01" nType="0">
          <Node pos="l" depth="2" NCoef="0" IVar="-1" Cut="0.0000000000000000e+00" cType="1" res="1.1368984123691916e-03" rms="2.4557149410247803e-01" purity="5.9469920396804810e-01" nType="-99"/>
          <Node pos="r" depth="2" NCoef="0" IVar="-1" Cut="0.0000000000000000e+00" cType="1" res="-1.7809652490541339e-03" rms="1.4138410985469818e-01" purity="3.4846889972686768e-01" nType="-99"/>
        </Node>
        <Node pos="r" depth="1" NCoef="0" IVar="10" Cut="3.3996901512145996e+00" cType="1" res="-2.7254413813352585e-02" rms="1.7531962692737579e-01" purity="4.0817457437515259e-01" nType="0">
          <Node pos="l" depth="2" NCoef="0" IVar="-1" Cut="0.0000000000000000e+00" cType="1" res="-1.5273538883775473e-03" rms="1.5971234440803528e-01" purity="2.9488703608512878e-01" nType="-99"/>
          <Node pos="r" depth="2" NCoef="0" IVar="-1" Cut="0.0000000000000000e+00" cType="1" res="9.3931786250323057e-04" rms="1.9387648999691010e-01" purity="6.5215665102005005e-01" nType="-99"/>
        </Node>
      </Node>
    </BinaryTree>
    <BinaryTree type="DecisionTree" boostWeight="1.0000000000000000e+00" itree="1111">
      <Node pos="s" depth="0" NCoef="0" IVar="48" Cut="7.9461085796356201e-01" cType="1" res="4.5223720371723175e-03" rms="2.0850990712642670e-01" purity="5.0637334585189819e-01" nType="0">
        <Node pos="l" depth="1" NCoef="0" IVar="18" Cut="-1.6823214292526245e+00" cType="1" res="-3.7702817935496569e-03" rms="0.0000000000000000e+00" purity="-1.5018831007182598e-02" nType="-99"/>
        <Node pos="r" depth="1" NCoef="0" IVar="52" Cut="3.2555742263793945e+00" cType="1" res="1.1337954550981522e-02" rms="2.1925427019596100e-01" purity="5.3690493106842041e-01" nType="0">
          <Node pos="l" depth="2" NCoef="0" IVar="-1" Cut="0.0000000000000000e+00" cType="1" res="7.0956267882138491e-04" rms="2.3044164478778839e-01" purity="5.6572157144546509e-01" nType="-99"/>
          <Node pos="r" depth="2" NCoef="0" IVar="-1" Cut="0.0000000000000000e+00" cType="1" res="-1.0508915875107050e-03" rms="1.6880810260772705e-01" purity="4.4056957960128784e-01" nType="-99"/>
        </Node>
      </Node>
    </BinaryTree>
    <BinaryTree type="DecisionTree" boostWeight="1.0000000000000000e+00" itree="1112">
      <Node pos="s" depth="0" NCoef="0" IVar="15" Cut="1.5225218534469604e+00" cType="1" res="6.2650674954056740e-03" rms="2.1706646680831909e-01" purity="5.0022935867309570e-01" nType="0">
        <Node pos="l" depth="1" NCoef="0" IVar="7" Cut="-1.5513211488723755e+00" cType="1" res="1.5076161362230778e-02" rms="2.0059350132942200e-01" purity="5.0701624155044556e-01" nType="0">
          <Node pos="l" depth="2" NCoef="0" IVar="-1" Cut="0.0000000000000000e+00" cType="1" res="6.3661253079771996e-04" rms="2.0401744544506073e-01" purity="5.3157371282577515e-01" nType="-99"/>
          <Node pos="r" depth="2" NCoef="0" IVar="-1" Cut="0.0000000000000000e+00" cType="1" res="-4.1236244142055511e-03" rms="6.5356053411960602e-02" purity="7.4800744652748108e-02" nType="-99"/>
        </Node>
        <Node pos="r" depth="1" NCoef="0" IVar="15" Cut="1.5435217618942261e+00" cType="1" res="-6.5645985305309296e-02" rms="3.1219294667243958e-01" purity="4.4483900070190430e-01" nType="0">
          <Node pos="l" depth="2" NCoef="0" IVar="-1" Cut="0.0000000000000000e+00" cType="1" res="-6.4635981107130647e-04" rms="3.1168997287750244e-01" purity="5.2179831266403198e-01" nType="-99"/>
          <Node pos="r" depth="2" NCoef="0" IVar="-1" Cut="0.0000000000000000e+00" cType="1" res="-1.3078934513032436e-02" rms="2.7415791153907776e-01" purity="1.0235580056905746e-01" nType="-99"/>
        </Node>
      </Node>
    </BinaryTree>
    <BinaryTree type="DecisionTree" boostWeight="1.0000000000000000e+00" itree="1113">
      <Node pos="s" depth="0" NCoef="0" IVar="16" Cut="6.3014048337936401e-01" cType="1" res="7.6346378773450851e-03" rms="2.1405607461929321e-01" purity="5.0240087509155273e-01" nType="0">
        <Node pos="l" depth="1" NCoef="0" IVar="2" Cut="1.4579595327377319e+00" cType="1" res="1.6384180635213852e-02" rms="2.1677723526954651e-01" purity="5.2704262733459473e-01" nType="0">
          <Node pos="l" depth="2" NCoef="0" IVar="-1" Cut="0.0000000000000000e+00" cType="1" res="-5.3843688219785690e-03" rms="5.0508484244346619e-02" purity="4.8241641372442245e-02" nType="-99"/>
          <Node pos="r" depth="2" NCoef="0" IVar="-1" Cut="0.0000000000000000e+00" cType="1" res="7.0044805761426687e-04" rms="2.2467346489429474e-01" purity="5.7298415899276733e-01" nType="-99"/>
        </Node>
        <Node pos="r" depth="1" NCoef="0" IVar="56" Cut="-8.3686780929565430e-01" cType="1" res="-5.7185206562280655e-02" rms="1.7990529537200928e-01" purity="3.1984588503837585e-01" nType="0">
          <Node pos="l" depth="2" NCoef="0" IVar="-1" Cut="0.0000000000000000e+00" cType="1" res="-6.3088838942348957e-04" rms="2.1501426398754120e-01" purity="3.8544437289237976e-01" nType="-99"/>
          <Node pos="r" depth="2" NCoef="0" IVar="-1" Cut="0.0000000000000000e+00" cType="1" res="-7.0512448437511921e-03" rms="0.0000000000000000e+00" purity="2.7583395130932331e-03" nType="-99"/>
        </Node>
      </Node>
    </BinaryTree>
    <BinaryTree type="DecisionTree" boostWeight="1.0000000000000000e+00" itree="1114">
      <Node pos="s" depth="0" NCoef="0" IVar="25" Cut="9.1825801134109497e-01" cType="1" res="7.4038887396454811e-03" rms="2.1878094971179962e-01" purity="4.9152141809463501e-01" nType="0">
        <Node pos="l" depth="1" NCoef="0" IVar="19" Cut="6.1143112182617188e-01" cType="1" res="4.7431889921426773e-02" rms="2.5311374664306641e-01" purity="5.6196123361587524e-01" nType="0">
          <Node pos="l" depth="2" NCoef="0" IVar="-1" Cut="0.0000000000000000e+00" cType="1" res="-4.8428995069116354e-04" rms="1.4977017045021057e-01" purity="5.2503246068954468e-01" nType="-99"/>
          <Node pos="r" depth="2" NCoef="0" IVar="-1" Cut="0.0000000000000000e+00" cType="1" res="1.7524231225252151e-03" rms="2.7853563427925110e-01" purity="5.7603698968887329e-01" nType="-99"/>
        </Node>
        <Node pos="r" depth="1" NCoef="0" IVar="61" Cut="8.2959860563278198e-01" cType="1" res="-1.1890706606209278e-02" rms="1.9725857675075531e-01" purity="4.5756736397743225e-01" nType="0">
          <Node pos="l" depth="2" NCoef="0" IVar="-1" Cut="0.0000000000000000e+00" cType="1" res="3.3169664675369859e-04" rms="2.2986644506454468e-01" purity="4.9722501635551453e-01" nType="-99"/>
          <Node pos="r" depth="2" NCoef="0" IVar="-1" Cut="0.0000000000000000e+00" cType="1" res="-1.3790354132652283e-03" rms="1.3949382305145264e-01" purity="4.0641632676124573e-01" nType="-99"/>
        </Node>
      </Node>
    </BinaryTree>
    <BinaryTree type="DecisionTree" boostWeight="1.0000000000000000e+00" itree="1115">
      <Node pos="s" depth="0" NCoef="0" IVar="0" Cut="7.0012432336807251e-01" cType="1" res="1.5935287810862064e-03" rms="2.1278446912765503e-01" purity="4.8435604572296143e-01" nType="0">
        <Node pos="l" depth="1" NCoef="0" IVar="41" Cut="-7.4034512042999268e-02" cType="1" res="2.0302750170230865e-02" rms="2.3370413482189178e-01" purity="5.3825557231903076e-01" nType="0">
          <Node pos="l" depth="2" NCoef="0" IVar="-1" Cut="0.0000000000000000e+00" cType="1" res="1.8341215327382088e-03" rms="2.8026625514030457e-01" purity="6.0958147048950195e-01" nType="-99"/>
          <Node pos="r" depth="2" NCoef="0" IVar="-1" Cut="0.0000000000000000e+00" cType="1" res="8.2924882008228451e-05" rms="2.1299307048320770e-01" purity="5.1435697078704834e-01" nType="-99"/>
        </Node>
        <Node pos="r" depth="1" NCoef="0" IVar="18" Cut="-2.6365189552307129e+00" cType="1" res="-2.9969682916998863e-02" rms="1.6713124513626099e-01" purity="3.9342537522315979e-01" nType="0">
          <Node pos="l" depth="2" NCoef="0" IVar="-1" Cut="0.0000000000000000e+00" cType="1" res="2.4608937092125416e-03" rms="3.1583285331726074e-01" purity="6.0243928432464600e-01" nType="-99"/>
          <Node pos="r" depth="2" NCoef="0" IVar="-1" Cut="0.0000000000000000e+00" cType="1" res="-1.1989910854026675e-03" rms="1.4616453647613525e-01" purity="3.7828996777534485e-01" nType="-99"/>
        </Node>
      </Node>
    </BinaryTree>
    <BinaryTree type="DecisionTree" boostWeight="1.0000000000000000e+00" itree="1116">
      <Node pos="s" depth="0" NCoef="0" IVar="61" Cut="5.3348008543252945e-02" cType="1" res="2.6507577858865261e-03" rms="2.0990215241909027e-01" purity="4.9184709787368774e-01" nType="0">
        <Node pos="l" depth="1" NCoef="0" IVar="-1" Cut="0.0000000000000000e+00" cType="1" res="2.9000663198530674e-03" rms="2.9275617003440857e-01" purity="6.1300504207611084e-01" nType="-99"/>
        <Node pos="r" depth="1" NCoef="0" IVar="5" Cut="3.3902129530906677e-01" cType="1" res="-1.5006799949333072e-03" rms="2.0510675013065338e-01" purity="4.8750743269920349e-01" nType="0">
          <Node pos="l" depth="2" NCoef="0" IVar="-1" Cut="0.0000000000000000e+00" cType="1" res="6.0437613865360618e-04" rms="1.8670308589935303e-01" purity="6.3541835546493530e-01" nType="-99"/>
          <Node pos="r" depth="2" NCoef="0" IVar="-1" Cut="0.0000000000000000e+00" cType="1" res="-8.1691081868484616e-04" rms="2.2884666919708252e-01" purity="2.4245169758796692e-01" nType="-99"/>
        </Node>
      </Node>
    </BinaryTree>
    <BinaryTree type="DecisionTree" boostWeight="1.0000000000000000e+00" itree="1117">
      <Node pos="s" depth="0" NCoef="0" IVar="17" Cut="1.5220416784286499e+00" cType="1" res="4.4565955176949501e-03" rms="2.1443355083465576e-01" purity="4.8923495411872864e-01" nType="0">
        <Node pos="l" depth="1" NCoef="0" IVar="48" Cut="8.0745702981948853e-01" cType="1" res="-1.4788138680160046e-02" rms="2.0401002466678619e-01" purity="2.4349588155746460e-01" nType="0">
          <Node pos="l" depth="2" NCoef="0" IVar="-1" Cut="0.0000000000000000e+00" cType="1" res="-7.7609498985111713e-03" rms="0.0000000000000000e+00" purity="-6.5770797431468964e-02" nType="-99"/>
          <Node pos="r" depth="2" NCoef="0" IVar="-1" Cut="0.0000000000000000e+00" cType="1" res="-1.4749704860150814e-04" rms="2.2836537659168243e-01" purity="2.7211225032806396e-01" nType="-99"/>
        </Node>
        <Node pos="r" depth="1" NCoef="0" IVar="34" Cut="-1.1839079856872559e+00" cType="1" res="3.4331969916820526e-02" rms="2.2646251320838928e-01" purity="8.7071841955184937e-01" nType="0">
          <Node pos="l" depth="2" NCoef="0" IVar="-1" Cut="0.0000000000000000e+00" cType="1" res="2.6842933148145676e-03" rms="2.5028097629547119e-01" purity="8.7328374385833740e-01" nType="-99"/>
          <Node pos="r" depth="2" NCoef="0" IVar="-1" Cut="0.0000000000000000e+00" cType="1" res="5.8988621458411217e-04" rms="2.2005254030227661e-01" purity="8.7035542726516724e-01" nType="-99"/>
        </Node>
      </Node>
    </BinaryTree>
    <BinaryTree type="DecisionTree" boostWeight="1.0000000000000000e+00" itree="1118">
      <Node pos="s" depth="0" NCoef="0" IVar="5" Cut="3.9788073301315308e-01" cType="1" res="6.3042305409908295e-03" rms="2.1341499686241150e-01" purity="5.0173008441925049e-01" nType="0">
        <Node pos="l" depth="1" NCoef="0" IVar="27" Cut="1.6297047138214111e+00" cType="1" res="2.2722885012626648e-02" rms="2.0224642753601074e-01" purity="6.1936950683593750e-01" nType="0">
          <Node pos="l" depth="2" NCoef="0" IVar="-1" Cut="0.0000000000000000e+00" cType="1" res="-1.0392612311989069e-03" rms="1.7649532854557037e-01" purity="2.7861788868904114e-01" nType="-99"/>
          <Node pos="r" depth="2" NCoef="0" IVar="-1" Cut="0.0000000000000000e+00" cType="1" res="1.1023905826732516e-03" rms="2.0779320597648621e-01" purity="7.3235017061233521e-01" nType="-99"/>
        </Node>
        <Node pos="r" depth="1" NCoef="0" IVar="37" Cut="-3.4103840589523315e-01" cType="1" res="-3.2637502998113632e-02" rms="2.3323982954025269e-01" purity="2.2271308302879333e-01" nType="0">
          <Node pos="l" depth="2" NCoef="0" IVar="-1" Cut="0.0000000000000000e+00" cType="1" res="-1.6944627277553082e-03" rms="1.8640182912349701e-01" purity="1.8725669384002686e-01" nType="-99"/>
          <Node pos="r" depth="2" NCoef="0" IVar="-1" Cut="0.0000000000000000e+00" cType="1" res="5.5966951185837388e-04" rms="2.8191617131233215e-01" purity="2.7742975950241089e-01" nType="-99"/>
        </Node>
      </Node>
    </BinaryTree>
    <BinaryTree type="DecisionTree" boostWeight="1.0000000000000000e+00" itree="1119">
      <Node pos="s" depth="0" NCoef="0" IVar="3" Cut="4.9586615562438965e+00" cType="1" res="1.1546893045306206e-02" rms="2.2164921462535858e-01" purity="5.0615906715393066e-01" nType="0">
        <Node pos="l" depth="1" NCoef="0" IVar="0" Cut="6.9062811136245728e-01" cType="1" res="-4.0816891123540699e-04" rms="2.2059905529022217e-01" purity="4.7771552205085754e-01" nType="0">
          <Node pos="l" depth="2" NCoef="0" IVar="-1" Cut="0.0000000000000000e+00" cType="1" res="6.3818128546699882e-04" rms="2.3600237071514130e-01" purity="5.4934746026992798e-01" nType="-99"/>
          <Node pos="r" depth="2" NCoef="0" IVar="-1" Cut="0.0000000000000000e+00" cType="1" res="-1.2285454431548715e-03" rms="1.8537431955337524e-01" purity="3.5673916339874268e-01" nType="-99"/>
        </Node>
        <Node pos="r" depth="1" NCoef="0" IVar="4" Cut="3.5385599136352539e+00" cType="1" res="5.2161999046802521e-02" rms="2.2038839757442474e-01" purity="6.0279053449630737e-01" nType="0">
          <Node pos="l" depth="2" NCoef="0" IVar="-1" Cut="0.0000000000000000e+00" cType="1" res="5.4531921632587910e-03" rms="3.9097422361373901e-01" purity="5.5685079097747803e-01" nType="-99"/>
          <Node pos="r" depth="2" NCoef="0" IVar="-1" Cut="0.0000000000000000e+00" cType="1" res="9.0110138989984989e-04" rms="1.7193961143493652e-01" purity="6.0938119888305664e-01" nType="-99"/>
        </Node>
      </Node>
    </BinaryTree>
    <BinaryTree type="DecisionTree" boostWeight="1.0000000000000000e+00" itree="1120">
      <Node pos="s" depth="0" NCoef="0" IVar="36" Cut="1.0588903427124023e+00" cType="1" res="1.1851899325847626e-02" rms="2.2286751866340637e-01" purity="5.0521612167358398e-01" nType="0">
        <Node pos="l" depth="1" NCoef="0" IVar="59" Cut="-2.2142544388771057e-01" cType="1" res="-3.6857288796454668e-03" rms="0.0000000000000000e+00" purity="2.6282833889126778e-02" nType="-99"/>
        <Node pos="r" depth="1" NCoef="0" IVar="3" Cut="5.1947412490844727e+00" cType="1" res="2.2639039903879166e-02" rms="2.4869698286056519e-01" purity="6.1287015676498413e-01" nType="0">
          <Node pos="l" depth="2" NCoef="0" IVar="-1" Cut="0.0000000000000000e+00" cType="1" res="3.8821183261461556e-04" rms="2.4325431883335114e-01" purity="6.0995852947235107e-01" nType="-99"/>
          <Node pos="r" depth="2" NCoef="0" IVar="-1" Cut="0.0000000000000000e+00" cType="1" res="3.5682818852365017e-03" rms="3.0498343706130981e-01" purity="6.6396826505661011e-01" nType="-99"/>
        </Node>
      </Node>
    </BinaryTree>
    <BinaryTree type="DecisionTree" boostWeight="1.0000000000000000e+00" itree="1121">
      <Node pos="s" depth="0" NCoef="0" IVar="3" Cut="5.1520428657531738e+00" cType="1" res="1.4401213265955448e-02" rms="2.2746568918228149e-01" purity="5.0826442241668701e-01" nType="0">
        <Node pos="l" depth="1" NCoef="0" IVar="2" Cut="2.6020841598510742e+00" cType="1" res="7.3475185781717300e-03" rms="2.2490663826465607e-01" purity="5.0607645511627197e-01" nType="0">
          <Node pos="l" depth="2" NCoef="0" IVar="-1" Cut="0.0000000000000000e+00" cType="1" res="-5.5980501929298043e-04" rms="1.9082333147525787e-01" purity="3.6071670055389404e-01" nType="-99"/>
          <Node pos="r" depth="2" NCoef="0" IVar="-1" Cut="0.0000000000000000e+00" cType="1" res="8.7681162403896451e-04" rms="2.5671446323394775e-01" purity="6.7767280340194702e-01" nType="-99"/>
        </Node>
        <Node pos="r" depth="1" NCoef="0" IVar="6" Cut="2.1770055294036865e+00" cType="1" res="8.6537420749664307e-02" rms="2.4055589735507965e-01" purity="5.3063946962356567e-01" nType="0">
          <Node pos="l" depth="2" NCoef="0" IVar="-1" Cut="0.0000000000000000e+00" cType="1" res="3.9638318121433258e-03" rms="3.3481377363204956e-01" purity="5.1892584562301636e-01" nType="-99"/>
          <Node pos="r" depth="2" NCoef="0" IVar="-1" Cut="0.0000000000000000e+00" cType="1" res="-1.1612439993768930e-03" rms="0.0000000000000000e+00" purity="5.4837703704833984e-01" nType="-99"/>
        </Node>
      </Node>
    </BinaryTree>
    <BinaryTree type="DecisionTree" boostWeight="1.0000000000000000e+00" itree="1122">
      <Node pos="s" depth="0" NCoef="0" IVar="15" Cut="1.5212173461914062e+00" cType="1" res="6.7730643786489964e-03" rms="2.2932168841362000e-01" purity="4.9525496363639832e-01" nType="0">
        <Node pos="l" depth="1" NCoef="0" IVar="3" Cut="4.8149619102478027e+00" cType="1" res="1.6559841111302376e-02" rms="2.1364583075046539e-01" purity="5.0248295068740845e-01" nType="0">
          <Node pos="l" depth="2" NCoef="0" IVar="-1" Cut="0.0000000000000000e+00" cType="1" res="-2.0421497174538672e-04" rms="2.0446281135082245e-01" purity="4.2466402053833008e-01" nType="-99"/>
          <Node pos="r" depth="2" NCoef="0" IVar="-1" Cut="0.0000000000000000e+00" cType="1" res="1.5264332760125399e-03" rms="2.2245727479457855e-01" purity="6.2175512313842773e-01" nType="-99"/>
        </Node>
        <Node pos="r" depth="1" NCoef="0" IVar="15" Cut="1.5331434011459351e+00" cType="1" res="-6.8440228700637817e-02" rms="3.1553208827972412e-01" purity="4.3970632553100586e-01" nType="0">
          <Node pos="l" depth="2" NCoef="0" IVar="-1" Cut="0.0000000000000000e+00" cType="1" res="2.1542719332501292e-04" rms="3.1646618247032166e-01" purity="5.9642946720123291e-01" nType="-99"/>
          <Node pos="r" depth="2" NCoef="0" IVar="-1" Cut="0.0000000000000000e+00" cType="1" res="-5.3361477330327034e-03" rms="2.8236463665962219e-01" purity="2.3887492716312408e-01" nType="-99"/>
        </Node>
      </Node>
    </BinaryTree>
    <BinaryTree type="DecisionTree" boostWeight="1.0000000000000000e+00" itree="1123">
      <Node pos="s" depth="0" NCoef="0" IVar="40" Cut="3.9444363117218018e-01" cType="1" res="4.1317725554108620e-03" rms="2.0778053998947144e-01" purity="4.9829423427581787e-01" nType="0">
        <Node pos="l" depth="1" NCoef="0" IVar="5" Cut="4.3572041392326355e-01" cType="1" res="6.1474818736314774e-02" rms="2.5980246067047119e-01" purity="5.7981801033020020e-01" nType="0">
          <Node pos="l" depth="2" NCoef="0" IVar="-1" Cut="0.0000000000000000e+00" cType="1" res="2.2375697735697031e-03" rms="2.5912216305732727e-01" purity="7.0628201961517334e-01" nType="-99"/>
          <Node pos="r" depth="2" NCoef="0" IVar="-1" Cut="0.0000000000000000e+00" cType="1" res="-9.4977550907060504e-04" rms="2.3745496571063995e-01" purity="1.9737410545349121e-01" nType="-99"/>
        </Node>
        <Node pos="r" depth="1" NCoef="0" IVar="59" Cut="-7.2185313701629639e-01" cType="1" res="-6.3106794841587543e-03" rms="1.9502636790275574e-01" purity="4.8344829678535461e-01" nType="0">
          <Node pos="l" depth="2" NCoef="0" IVar="-1" Cut="0.0000000000000000e+00" cType="1" res="3.9609899977222085e-04" rms="2.1918597817420959e-01" purity="5.4831933975219727e-01" nType="-99"/>
          <Node pos="r" depth="2" NCoef="0" IVar="-1" Cut="0.0000000000000000e+00" cType="1" res="-1.4048654120415449e-03" rms="1.3326373696327209e-01" purity="3.6573389172554016e-01" nType="-99"/>
        </Node>
      </Node>
    </BinaryTree>
    <BinaryTree type="DecisionTree" boostWeight="1.0000000000000000e+00" itree="1124">
      <Node pos="s" depth="0" NCoef="0" IVar="2" Cut="2.5121355056762695e+00" cType="1" res="9.7549678757786751e-03" rms="2.1600864827632904e-01" purity="5.0697267055511475e-01" nType="0">
        <Node pos="l" depth="1" NCoef="0" IVar="5" Cut="2.8150889277458191e-01" cType="1" res="-1.4751637354493141e-02" rms="1.7319028079509735e-01" purity="3.5353225469589233e-01" nType="0">
          <Node pos="l" depth="2" NCoef="0" IVar="-1" Cut="0.0000000000000000e+00" cType="1" res="5.9006328228861094e-04" rms="2.0731876790523529e-01" purity="5.0190615653991699e-01" nType="-99"/>
          <Node pos="r" depth="2" NCoef="0" IVar="-1" Cut="0.0000000000000000e+00" cType="1" res="-1.9161941017955542e-03" rms="1.0336296260356903e-01" purity="1.6709339618682861e-01" nType="-99"/>
        </Node>
        <Node pos="r" depth="1" NCoef="0" IVar="39" Cut="-1.1803359985351562e+00" cType="1" res="3.4908272325992584e-02" rms="2.5003051757812500e-01" purity="6.6446220874786377e-01" nType="0">
          <Node pos="l" depth="2" NCoef="0" IVar="-1" Cut="0.0000000000000000e+00" cType="1" res="1.0682314168661833e-03" rms="2.5497949123382568e-01" purity="6.8682062625885010e-01" nType="-99"/>
          <Node pos="r" depth="2" NCoef="0" IVar="-1" Cut="0.0000000000000000e+00" cType="1" res="-1.7848399002104998e-03" rms="1.8566738069057465e-01" purity="4.9026146531105042e-01" nType="-99"/>
        </Node>
      </Node>
    </BinaryTree>
    <BinaryTree type="DecisionTree" boostWeight="1.0000000000000000e+00" itree="1125">
      <Node pos="s" depth="0" NCoef="0" IVar="16" Cut="1.2476665973663330e+00" cType="1" res="5.7958820834755898e-03" rms="2.2065536677837372e-01" purity="4.9837422370910645e-01" nType="0">
        <Node pos="l" depth="1" NCoef="0" IVar="48" Cut="7.5061565637588501e-01" cType="1" res="1.0580632835626602e-02" rms="2.2010523080825806e-01" purity="5.1160514354705811e-01" nType="0">
          <Node pos="l" depth="2" NCoef="0" IVar="-1" Cut="0.0000000000000000e+00" cType="1" res="-3.2095757778733969e-03" rms="0.0000000000000000e+00" purity="2.9378011822700500e-02" nType="-99"/>
          <Node pos="r" depth="2" NCoef="0" IVar="-1" Cut="0.0000000000000000e+00" cType="1" res="4.7163074486888945e-04" rms="2.2798134386539459e-01" purity="5.3467077016830444e-01" nType="-99"/>
        </Node>
        <Node pos="r" depth="1" NCoef="0" IVar="-1" Cut="0.0000000000000000e+00" cType="1" res="-2.7341691311448812e-03" rms="1.9818343222141266e-01" purity="1.5924887359142303e-01" nType="-99"/>
      </Node>
    </BinaryTree>
    <BinaryTree type="DecisionTree" boostWeight="1.0000000000000000e+00" itree="1126">
      <Node pos="s" depth="0" NCoef="0" IVar="52" Cut="2.3923554420471191e+00" cType="1" res="-4.1199075058102608e-03" rms="2.0148988068103790e-01" purity="4.9289822578430176e-01" nType="0">
        <Node pos="l" depth="1" NCoef="0" IVar="38" Cut="1.1290750503540039e+00" cType="1" res="-2.3945986758917570e-03" rms="0.0000000000000000e+00" purity="2.0847649872303009e-01" nType="-99"/>
        <Node pos="r" depth="1" NCoef="0" IVar="5" Cut="3.4675148129463196e-01" cType="1" res="4.2457194067537785e-03" rms="2.1578654646873474e-01" purity="5.2186632156372070e-01" nType="0">
          <Node pos="l" depth="2" NCoef="0" IVar="-1" Cut="0.0000000000000000e+00" cType="1" res="8.4127648733556271e-04" rms="1.9389250874519348e-01" purity="6.8103718757629395e-01" nType="-99"/>
          <Node pos="r" depth="2" NCoef="0" IVar="-1" Cut="0.0000000000000000e+00" cType="1" res="-7.1637227665632963e-04" rms="2.4518080055713654e-01" purity="2.4932084977626801e-01" nType="-99"/>
        </Node>
      </Node>
    </BinaryTree>
    <BinaryTree type="DecisionTree" boostWeight="1.0000000000000000e+00" itree="1127">
      <Node pos="s" depth="0" NCoef="0" IVar="6" Cut="1.1173962354660034e+00" cType="1" res="1.1821993626654148e-02" rms="2.1606805920600891e-01" purity="5.0709503889083862e-01" nType="0">
        <Node pos="l" depth="1" NCoef="0" IVar="37" Cut="-1.9967024028301239e-01" cType="1" res="-4.2820824310183525e-03" rms="0.0000000000000000e+00" purity="4.9835294485092163e-02" nType="-99"/>
        <Node pos="r" depth="1" NCoef="0" IVar="8" Cut="-9.1139173507690430e-01" cType="1" res="2.0914157852530479e-02" rms="2.2690746188163757e-01" purity="5.4617738723754883e-01" nType="0">
          <Node pos="l" depth="2" NCoef="0" IVar="-1" Cut="0.0000000000000000e+00" cType="1" res="7.0715241599828005e-04" rms="2.3018942773342133e-01" purity="5.6594544649124146e-01" nType="-99"/>
          <Node pos="r" depth="2" NCoef="0" IVar="-1" Cut="0.0000000000000000e+00" cType="1" res="-4.6401144936680794e-03" rms="0.0000000000000000e+00" purity="6.3426278531551361e-02" nType="-99"/>
        </Node>
      </Node>
    </BinaryTree>
    <BinaryTree type="DecisionTree" boostWeight="1.0000000000000000e+00" itree="1128">
      <Node pos="s" depth="0" NCoef="0" IVar="52" Cut="3.6268584728240967e+00" cType="1" res="1.0480466298758984e-02" rms="2.1554504334926605e-01" purity="5.0994962453842163e-01" nType="0">
        <Node pos="l" depth="1" NCoef="0" IVar="26" Cut="1.2345679104328156e-02" cType="1" res="1.4337725006043911e-02" rms="2.2050900757312775e-01" purity="5.1779311895370483e-01" nType="0">
          <Node pos="l" depth="2" NCoef="0" IVar="-1" Cut="0.0000000000000000e+00" cType="1" res="5.1919172983616590e-04" rms="2.2195902466773987e-01" purity="5.3642868995666504e-01" nType="-99"/>
          <Node pos="r" depth="2" NCoef="0" IVar="-1" Cut="0.0000000000000000e+00" cType="1" res="-6.4276503399014473e-03" rms="1.1120758950710297e-01" purity="-5.6012552231550217e-02" nType="-99"/>
        </Node>
        <Node pos="r" depth="1" NCoef="0" IVar="-1" Cut="0.0000000000000000e+00" cType="1" res="-6.8980073556303978e-03" rms="0.0000000000000000e+00" purity="1.4076729118824005e-01" nType="-99"/>
      </Node>
    </BinaryTree>
    <BinaryTree type="DecisionTree" boostWeight="1.0000000000000000e+00" itree="1129">
      <Node pos="s" depth="0" NCoef="0" IVar="2" Cut="1.3733470439910889e+00" cType="1" res="9.4160009175539017e-03" rms="2.2300806641578674e-01" purity="4.9419778585433960e-01" nType="0">
        <Node pos="l" depth="1" NCoef="0" IVar="27" Cut="1.9010852575302124e+00" cType="1" res="-4.8106135800480843e-03" rms="0.0000000000000000e+00" purity="7.7560231089591980e-02" nType="-99"/>
        <Node pos="r" depth="1" NCoef="0" IVar="3" Cut="4.8827600479125977e+00" cType="1" res="1.5724362805485725e-02" rms="2.3133832216262817e-01" purity="5.2801316976547241e-01" nType="0">
          <Node pos="l" depth="2" NCoef="0" IVar="-1" Cut="0.0000000000000000e+00" cType="1" res="2.6098381567862816e-05" rms="2.3482657968997955e-01" purity="4.6603864431381226e-01" nType="-99"/>
          <Node pos="r" depth="2" NCoef="0" IVar="-1" Cut="0.0000000000000000e+00" cType="1" res="1.4149144990369678e-03" rms="2.1723641455173492e-01" purity="6.9015282392501831e-01" nType="-99"/>
        </Node>
      </Node>
    </BinaryTree>
    <BinaryTree type="DecisionTree" boostWeight="1.0000000000000000e+00" itree="1130">
      <Node pos="s" depth="0" NCoef="0" IVar="34" Cut="-1.4926186800003052e+00" cType="1" res="6.2236036173999310e-03" rms="2.1117380261421204e-01" purity="5.0381076335906982e-01" nType="0">
        <Node pos="l" depth="1" NCoef="0" IVar="25" Cut="9.3979746103286743e-01" cType="1" res="1.1016470938920975e-01" rms="2.5519689917564392e-01" purity="5.4778033494949341e-01" nType="0">
          <Node pos="l" depth="2" NCoef="0" IVar="-1" Cut="0.0000000000000000e+00" cType="1" res="3.9779422804713249e-03" rms="2.9701513051986694e-01" purity="6.6188699007034302e-01" nType="-99"/>
          <Node pos="r" depth="2" NCoef="0" IVar="-1" Cut="0.0000000000000000e+00" cType="1" res="1.3552433811128139e-03" rms="1.9129286706447601e-01" purity="4.5152446627616882e-01" nType="-99"/>
        </Node>
        <Node pos="r" depth="1" NCoef="0" IVar="6" Cut="1.1793977022171021e+00" cType="1" res="-4.6158305485732853e-04" rms="2.0623849332332611e-01" purity="5.0098276138305664e-01" nType="0">
          <Node pos="l" depth="2" NCoef="0" IVar="-1" Cut="0.0000000000000000e+00" cType="1" res="-4.0081352926790714e-03" rms="0.0000000000000000e+00" purity="8.0202244222164154e-02" nType="-99"/>
          <Node pos="r" depth="2" NCoef="0" IVar="-1" Cut="0.0000000000000000e+00" cType="1" res="2.4323187244590372e-04" rms="2.1854934096336365e-01" purity="5.4488909244537354e-01" nType="-99"/>
        </Node>
      </Node>
    </BinaryTree>
    <BinaryTree type="DecisionTree" boostWeight="1.0000000000000000e+00" itree="1131">
      <Node pos="s" depth="0" NCoef="0" IVar="5" Cut="1.9121630489826202e-01" cType="1" res="4.6310373581945896e-03" rms="2.1588082611560822e-01" purity="4.8905038833618164e-01" nType="0">
        <Node pos="l" depth="1" NCoef="0" IVar="3" Cut="5.1912512779235840e+00" cType="1" res="3.1536281108856201e-02" rms="1.9721013307571411e-01" purity="6.6621494293212891e-01" nType="0">
          <Node pos="l" depth="2" NCoef="0" IVar="-1" Cut="0.0000000000000000e+00" cType="1" res="6.8335497053340077e-04" rms="1.7607711255550385e-01" purity="6.6983246803283691e-01" nType="-99"/>
          <Node pos="r" depth="2" NCoef="0" IVar="-1" Cut="0.0000000000000000e+00" cType="1" res="3.9210151880979538e-03" rms="3.3073109388351440e-01" purity="6.2264907360076904e-01" nType="-99"/>
        </Node>
        <Node pos="r" depth="1" NCoef="0" IVar="38" Cut="-1.2998369932174683e+00" cType="1" res="-1.9169984385371208e-02" rms="2.2851806879043579e-01" purity="3.3232635259628296e-01" nType="0">
          <Node pos="l" depth="2" NCoef="0" IVar="-1" Cut="0.0000000000000000e+00" cType="1" res="1.5749727608636022e-03" rms="2.5417914986610413e-01" purity="3.9225307106971741e-01" nType="-99"/>
          <Node pos="r" depth="2" NCoef="0" IVar="-1" Cut="0.0000000000000000e+00" cType="1" res="-9.5930899260565639e-04" rms="2.1604973077774048e-01" purity="3.1470790505409241e-01" nType="-99"/>
        </Node>
      </Node>
    </BinaryTree>
    <BinaryTree type="DecisionTree" boostWeight="1.0000000000000000e+00" itree="1132">
      <Node pos="s" depth="0" NCoef="0" IVar="3" Cut="5.1677513122558594e+00" cType="1" res="1.6846841201186180e-02" rms="2.3171199858188629e-01" purity="5.0003409385681152e-01" nType="0">
        <Node pos="l" depth="1" NCoef="0" IVar="36" Cut="1.4846760034561157e+00" cType="1" res="6.3513247296214104e-03" rms="2.2347469627857208e-01" purity="4.9559634923934937e-01" nType="0">
          <Node pos="l" depth="2" NCoef="0" IVar="-1" Cut="0.0000000000000000e+00" cType="1" res="-1.2330384925007820e-03" rms="1.8504965305328369e-01" purity="2.1624912321567535e-01" nType="-99"/>
          <Node pos="r" depth="2" NCoef="0" IVar="-1" Cut="0.0000000000000000e+00" cType="1" res="5.9457641327753663e-04" rms="2.4157649278640747e-01" purity="6.6297030448913574e-01" nType="-99"/>
        </Node>
        <Node pos="r" depth="1" NCoef="0" IVar="1" Cut="2.3015029430389404e+00" cType="1" res="1.3198815286159515e-01" rms="2.8347587585449219e-01" purity="5.4871791601181030e-01" nType="0">
          <Node pos="l" depth="2" NCoef="0" IVar="-1" Cut="0.0000000000000000e+00" cType="1" res="7.3314588516950607e-03" rms="4.1758432984352112e-01" purity="5.1560521125793457e-01" nType="-99"/>
          <Node pos="r" depth="2" NCoef="0" IVar="-1" Cut="0.0000000000000000e+00" cType="1" res="1.5715211629867554e-03" rms="1.8497815728187561e-01" purity="5.5978494882583618e-01" nType="-99"/>
        </Node>
      </Node>
    </BinaryTree>
    <BinaryTree type="DecisionTree" boostWeight="1.0000000000000000e+00" itree="1133">
      <Node pos="s" depth="0" NCoef="0" IVar="1" Cut="2.0781018733978271e+00" cType="1" res="8.7796407751739025e-04" rms="2.0488728582859039e-01" purity="5.0215733051300049e-01" nType="0">
        <Node pos="l" depth="1" NCoef="0" IVar="60" Cut="-1.7396985292434692e+00" cType="1" res="-5.9659392572939396e-03" rms="0.0000000000000000e+00" purity="-1.7498806118965149e-02" nType="-99"/>
        <Node pos="r" depth="1" NCoef="0" IVar="3" Cut="4.9661574363708496e+00" cType="1" res="8.6311250925064087e-03" rms="2.1926181018352509e-01" purity="5.4085385799407959e-01" nType="0">
          <Node pos="l" depth="2" NCoef="0" IVar="-1" Cut="0.0000000000000000e+00" cType="1" res="-1.6813488036859781e-04" rms="2.1256782114505768e-01" purity="5.1277941465377808e-01" nType="-99"/>
          <Node pos="r" depth="2" NCoef="0" IVar="-1" Cut="0.0000000000000000e+00" cType="1" res="1.8740268424153328e-03" rms="2.3438726365566254e-01" purity="6.4157503843307495e-01" nType="-99"/>
        </Node>
      </Node>
    </BinaryTree>
    <BinaryTree type="DecisionTree" boostWeight="1.0000000000000000e+00" itree="1134">
      <Node pos="s" depth="0" NCoef="0" IVar="60" Cut="-8.4132272005081177e-01" cType="1" res="4.8222751356661320e-03" rms="2.1104453504085541e-01" purity="4.9943393468856812e-01" nType="0">
        <Node pos="l" depth="1" NCoef="0" IVar="5" Cut="2.8571492433547974e-01" cType="1" res="1.1479223147034645e-02" rms="2.2012853622436523e-01" purity="5.2140778303146362e-01" nType="0">
          <Node pos="l" depth="2" NCoef="0" IVar="-1" Cut="0.0000000000000000e+00" cType="1" res="1.2419453123584390e-03" rms="2.0174714922904968e-01" purity="6.9495093822479248e-01" nType="-99"/>
          <Node pos="r" depth="2" NCoef="0" IVar="-1" Cut="0.0000000000000000e+00" cType="1" res="-4.3705440475605428e-04" rms="2.3789475858211517e-01" purity="3.0340409278869629e-01" nType="-99"/>
        </Node>
        <Node pos="r" depth="1" NCoef="0" IVar="18" Cut="-1.7631300687789917e+00" cType="1" res="-4.0204753167927265e-03" rms="0.0000000000000000e+00" purity="1.3429781794548035e-01" nType="-99"/>
      </Node>
    </BinaryTree>
    <BinaryTree type="DecisionTree" boostWeight="1.0000000000000000e+00" itree="1135">
      <Node pos="s" depth="0" NCoef="0" IVar="15" Cut="1.5212173461914062e+00" cType="1" res="8.3661414682865143e-03" rms="2.2241455316543579e-01" purity="4.8468723893165588e-01" nType="0">
        <Node pos="l" depth="1" NCoef="0" IVar="25" Cut="1.0160279273986816e+00" cType="1" res="1.7509197816252708e-02" rms="2.0695924758911133e-01" purity="4.8727250099182129e-01" nType="0">
          <Node pos="l" depth="2" NCoef="0" IVar="-1" Cut="0.0000000000000000e+00" cType="1" res="9.3275128165259957e-04" rms="2.1710003912448883e-01" purity="5.3507870435714722e-01" nType="-99"/>
          <Node pos="r" depth="2" NCoef="0" IVar="-1" Cut="0.0000000000000000e+00" cType="1" res="-9.0546207502484322e-04" rms="1.7062693834304810e-01" purity="3.5972508788108826e-01" nType="-99"/>
        </Node>
        <Node pos="r" depth="1" NCoef="0" IVar="15" Cut="1.5279035568237305e+00" cType="1" res="-6.2858529388904572e-02" rms="3.0893284082412720e-01" purity="4.6454799175262451e-01" nType="0">
          <Node pos="l" depth="2" NCoef="0" IVar="-1" Cut="0.0000000000000000e+00" cType="1" res="7.0936389965936542e-04" rms="2.9710575938224792e-01" purity="6.7923939228057861e-01" nType="-99"/>
          <Node pos="r" depth="2" NCoef="0" IVar="-1" Cut="0.0000000000000000e+00" cType="1" res="-2.9374745208770037e-03" rms="2.9993751645088196e-01" purity="3.4377336502075195e-01" nType="-99"/>
        </Node>
      </Node>
    </BinaryTree>
    <BinaryTree type="DecisionTree" boostWeight="1.0000000000000000e+00" itree="1136">
      <Node pos="s" depth="0" NCoef="0" IVar="3" Cut="4.9787998199462891e+00" cType="1" res="2.7310114819556475e-04" rms="2.1300131082534790e-01" purity="4.8247528076171875e-01" nType="0">
        <Node pos="l" depth="1" NCoef="0" IVar="9" Cut="-6.1728394031524658e-01" cType="1" res="-1.3858594000339508e-02" rms="2.0783269405364990e-01" purity="4.5393237471580505e-01" nType="0">
          <Node pos="l" depth="2" NCoef="0" IVar="-1" Cut="0.0000000000000000e+00" cType="1" res="-5.3416769951581955e-03" rms="0.0000000000000000e+00" purity="1.2976258993148804e-01" nType="-99"/>
          <Node pos="r" depth="2" NCoef="0" IVar="-1" Cut="0.0000000000000000e+00" cType="1" res="-2.3957761004567146e-04" rms="2.1112966537475586e-01" purity="4.6666067838668823e-01" nType="-99"/>
        </Node>
        <Node pos="r" depth="1" NCoef="0" IVar="21" Cut="-3.8472941517829895e-01" cType="1" res="5.3500395268201828e-02" rms="2.2355514764785767e-01" purity="5.8998262882232666e-01" nType="0">
          <Node pos="l" depth="2" NCoef="0" IVar="-1" Cut="0.0000000000000000e+00" cType="1" res="3.5872722510248423e-03" rms="3.1673336029052734e-01" purity="6.0519677400588989e-01" nType="-99"/>
          <Node pos="r" depth="2" NCoef="0" IVar="-1" Cut="0.0000000000000000e+00" cType="1" res="6.5729382913559675e-04" rms="1.7301207780838013e-01" purity="5.8525443077087402e-01" nType="-99"/>
        </Node>
      </Node>
    </BinaryTree>
    <BinaryTree type="DecisionTree" boostWeight="1.0000000000000000e+00" itree="1137">
      <Node pos="s" depth="0" NCoef="0" IVar="3" Cut="4.9559793472290039e+00" cType="1" res="-5.9132248861715198e-04" rms="2.0830628275871277e-01" purity="4.8429000377655029e-01" nType="0">
        <Node pos="l" depth="1" NCoef="0" IVar="48" Cut="9.2116034030914307e-01" cType="1" res="-1.7988119274377823e-02" rms="2.0007529854774475e-01" purity="4.5002177357673645e-01" nType="0">
          <Node pos="l" depth="2" NCoef="0" IVar="-1" Cut="0.0000000000000000e+00" cType="1" res="-4.1863978840410709e-03" rms="0.0000000000000000e+00" purity="-1.3892366550862789e-02" nType="-99"/>
          <Node pos="r" depth="2" NCoef="0" IVar="-1" Cut="0.0000000000000000e+00" cType="1" res="-2.3521698312833905e-04" rms="2.1842765808105469e-01" purity="5.0199311971664429e-01" nType="-99"/>
        </Node>
        <Node pos="r" depth="1" NCoef="0" IVar="4" Cut="3.6202538013458252e+00" cType="1" res="5.7776082307100296e-02" rms="2.2415848076343536e-01" purity="5.9926205873489380e-01" nType="0">
          <Node pos="l" depth="2" NCoef="0" IVar="-1" Cut="0.0000000000000000e+00" cType="1" res="3.9381114766001701e-03" rms="3.4932294487953186e-01" purity="5.5489158630371094e-01" nType="-99"/>
          <Node pos="r" depth="2" NCoef="0" IVar="-1" Cut="0.0000000000000000e+00" cType="1" res="7.5093522900715470e-04" rms="1.6341949999332428e-01" purity="6.1084091663360596e-01" nType="-99"/>
        </Node>
      </Node>
    </BinaryTree>
    <BinaryTree type="DecisionTree" boostWeight="1.0000000000000000e+00" itree="1138">
      <Node pos="s" depth="0" NCoef="0" IVar="48" Cut="8.1211817264556885e-01" cType="1" res="2.9073744080960751e-03" rms="2.0419196784496307e-01" purity="4.9867457151412964e-01" nType="0">
        <Node pos="l" depth="1" NCoef="0" IVar="5" Cut="3.5573191940784454e-02" cType="1" res="-3.8110590539872646e-03" rms="0.0000000000000000e+00" purity="-1.1201989836990833e-02" nType="-99"/>
        <Node pos="r" depth="1" NCoef="0" IVar="3" Cut="4.4313225746154785e+00" cType="1" res="1.0665955021977425e-02" rms="2.1551482379436493e-01" purity="5.3179675340652466e-01" nType="0">
          <Node pos="l" depth="2" NCoef="0" IVar="-1" Cut="0.0000000000000000e+00" cType="1" res="-1.9090418936684728e-03" rms="1.9010029733181000e-01" purity="2.3300984501838684e-01" nType="-99"/>
          <Node pos="r" depth="2" NCoef="0" IVar="-1" Cut="0.0000000000000000e+00" cType="1" res="5.8176781749352813e-04" rms="2.1694663166999817e-01" purity="5.7336473464965820e-01" nType="-99"/>
        </Node>
      </Node>
    </BinaryTree>
    <BinaryTree type="DecisionTree" boostWeight="1.0000000000000000e+00" itree="1139">
      <Node pos="s" depth="0" NCoef="0" IVar="52" Cut="3.3919031620025635e+00" cType="1" res="9.0780025348067284e-03" rms="2.2320470213890076e-01" purity="4.9918031692504883e-01" nType="0">
        <Node pos="l" depth="1" NCoef="0" IVar="25" Cut="9.6285891532897949e-01" cType="1" res="1.7899788916110992e-02" rms="2.3044121265411377e-01" purity="5.1576280593872070e-01" nType="0">
          <Node pos="l" depth="2" NCoef="0" IVar="-1" Cut="0.0000000000000000e+00" cType="1" res="1.1181498412042856e-03" rms="2.4799689650535583e-01" purity="5.7830476760864258e-01" nType="-99"/>
          <Node pos="r" depth="2" NCoef="0" IVar="-1" Cut="0.0000000000000000e+00" cType="1" res="-4.7075236216187477e-04" rms="2.0316807925701141e-01" purity="4.4158780574798584e-01" nType="-99"/>
        </Node>
        <Node pos="r" depth="1" NCoef="0" IVar="5" Cut="4.3857631087303162e-01" cType="1" res="-5.7235315442085266e-02" rms="1.4198924601078033e-01" purity="3.7453004717826843e-01" nType="0">
          <Node pos="l" depth="2" NCoef="0" IVar="-1" Cut="0.0000000000000000e+00" cType="1" res="7.5033065513707697e-05" rms="1.7777392268180847e-01" purity="5.4836696386337280e-01" nType="-99"/>
          <Node pos="r" depth="2" NCoef="0" IVar="-1" Cut="0.0000000000000000e+00" cType="1" res="-6.1916573904454708e-03" rms="0.0000000000000000e+00" purity="-3.2585905864834785e-03" nType="-99"/>
        </Node>
      </Node>
    </BinaryTree>
    <BinaryTree type="DecisionTree" boostWeight="1.0000000000000000e+00" itree="1140">
      <Node pos="s" depth="0" NCoef="0" IVar="31" Cut="3.2572379112243652e+00" cType="1" res="8.1584993749856949e-03" rms="2.1947988867759705e-01" purity="5.0603550672531128e-01" nType="0">
        <Node pos="l" depth="1" NCoef="0" IVar="5" Cut="3.4117272496223450e-01" cType="1" res="-1.0583972558379173e-02" rms="1.9749088585376740e-01" purity="4.7447434067726135e-01" nType="0">
          <Node pos="l" depth="2" NCoef="0" IVar="-1" Cut="0.0000000000000000e+00" cType="1" res="3.0957502895034850e-04" rms="1.8412788212299347e-01" purity="5.9590828418731689e-01" nType="-99"/>
          <Node pos="r" depth="2" NCoef="0" IVar="-1" Cut="0.0000000000000000e+00" cType="1" res="-1.4327528188005090e-03" rms="2.1918106079101562e-01" purity="1.8801526725292206e-01" nType="-99"/>
        </Node>
        <Node pos="r" depth="1" NCoef="0" IVar="2" Cut="1.4985675811767578e+00" cType="1" res="3.9146929979324341e-02" rms="2.4857555329799652e-01" purity="5.5821812152862549e-01" nType="0">
          <Node pos="l" depth="2" NCoef="0" IVar="-1" Cut="0.0000000000000000e+00" cType="1" res="-3.1839171424508095e-03" rms="1.4151129126548767e-01" purity="1.4185293018817902e-01" nType="-99"/>
          <Node pos="r" depth="2" NCoef="0" IVar="-1" Cut="0.0000000000000000e+00" cType="1" res="1.2570482213050127e-03" rms="2.5953784584999084e-01" purity="6.2923580408096313e-01" nType="-99"/>
        </Node>
      </Node>
    </BinaryTree>
    <BinaryTree type="DecisionTree" boostWeight="1.0000000000000000e+00" itree="1141">
      <Node pos="s" depth="0" NCoef="0" IVar="3" Cut="5.2082834243774414e+00" cType="1" res="1.2074737809598446e-02" rms="2.2714766860008240e-01" purity="4.9197557568550110e-01" nType="0">
        <Node pos="l" depth="1" NCoef="0" IVar="25" Cut="9.4111526012420654e-01" cType="1" res="4.7374428249895573e-03" rms="2.2363419830799103e-01" purity="4.9017101526260376e-01" nType="0">
          <Node pos="l" depth="2" NCoef="0" IVar="-1" Cut="0.0000000000000000e+00" cType="1" res="7.9956109402701259e-04" rms="2.3883561789989471e-01" purity="5.6632226705551147e-01" nType="-99"/>
          <Node pos="r" depth="2" NCoef="0" IVar="-1" Cut="0.0000000000000000e+00" cType="1" res="-5.2032090025022626e-04" rms="2.0901735126972198e-01" purity="4.3176463246345520e-01" nType="-99"/>
        </Node>
        <Node pos="r" depth="1" NCoef="0" IVar="17" Cut="1.0568513870239258e+00" cType="1" res="1.1036454886198044e-01" rms="2.4986112117767334e-01" purity="5.1614969968795776e-01" nType="0">
          <Node pos="l" depth="2" NCoef="0" IVar="-1" Cut="0.0000000000000000e+00" cType="1" res="-1.7971444875001907e-02" rms="0.0000000000000000e+00" purity="-6.2576547265052795e-02" nType="-99"/>
          <Node pos="r" depth="2" NCoef="0" IVar="-1" Cut="0.0000000000000000e+00" cType="1" res="3.2016071490943432e-03" rms="3.1608241796493530e-01" purity="7.9718226194381714e-01" nType="-99"/>
        </Node>
      </Node>
    </BinaryTree>
    <BinaryTree type="DecisionTree" boostWeight="1.0000000000000000e+00" itree="1142">
      <Node pos="s" depth="0" NCoef="0" IVar="25" Cut="7.9605847597122192e-01" cType="1" res="2.5975850876420736e-03" rms="2.0964287221431732e-01" purity="4.8853263258934021e-01" nType="0">
        <Node pos="l" depth="1" NCoef="0" IVar="-1" Cut="0.0000000000000000e+00" cType="1" res="2.8990721330046654e-03" rms="3.1698182225227356e-01" purity="6.6654777526855469e-01" nType="-99"/>
        <Node pos="r" depth="1" NCoef="0" IVar="3" Cut="5.3520798683166504e+00" cType="1" res="-2.1230224519968033e-03" rms="2.0339697599411011e-01" purity="4.8257568478584290e-01" nType="0">
          <Node pos="l" depth="2" NCoef="0" IVar="-1" Cut="0.0000000000000000e+00" cType="1" res="3.6948906199540943e-05" rms="2.1377545595169067e-01" purity="4.8883536458015442e-01" nType="-99"/>
          <Node pos="r" depth="2" NCoef="0" IVar="-1" Cut="0.0000000000000000e+00" cType="1" res="-4.0370994247496128e-03" rms="0.0000000000000000e+00" purity="1.8990430235862732e-01" nType="-99"/>
        </Node>
      </Node>
    </BinaryTree>
    <BinaryTree type="DecisionTree" boostWeight="1.0000000000000000e+00" itree="1143">
      <Node pos="s" depth="0" NCoef="0" IVar="48" Cut="9.5065563917160034e-01" cType="1" res="1.2879438698291779e-02" rms="2.1917082369327545e-01" purity="5.1066869497299194e-01" nType="0">
        <Node pos="l" depth="1" NCoef="0" IVar="5" Cut="2.4668686091899872e-01" cType="1" res="-2.1374553907662630e-03" rms="0.0000000000000000e+00" purity="6.3187442719936371e-02" nType="-99"/>
        <Node pos="r" depth="1" NCoef="0" IVar="25" Cut="9.2363709211349487e-01" cType="1" res="2.1995065733790398e-02" rms="2.3020449280738831e-01" purity="5.6310540437698364e-01" nType="0">
          <Node pos="l" depth="2" NCoef="0" IVar="-1" Cut="0.0000000000000000e+00" cType="1" res="1.3574797194451094e-03" rms="2.5802141427993774e-01" purity="6.2563759088516235e-01" nType="-99"/>
          <Node pos="r" depth="2" NCoef="0" IVar="-1" Cut="0.0000000000000000e+00" cType="1" res="1.1743016511900350e-04" rms="2.1209900081157684e-01" purity="5.3067666292190552e-01" nType="-99"/>
        </Node>
      </Node>
    </BinaryTree>
    <BinaryTree type="DecisionTree" boostWeight="1.0000000000000000e+00" itree="1144">
      <Node pos="s" depth="0" NCoef="0" IVar="27" Cut="9.7861963510513306e-01" cType="1" res="9.2374356463551521e-03" rms="2.2054307162761688e-01" purity="5.0199246406555176e-01" nType="0">
        <Node pos="l" depth="1" NCoef="0" IVar="3" Cut="4.6255831718444824e+00" cType="1" res="-4.9855737015604973e-03" rms="0.0000000000000000e+00" purity="6.3387639820575714e-02" nType="-99"/>
        <Node pos="r" depth="1" NCoef="0" IVar="57" Cut="9.8659926652908325e-01" cType="1" res="1.6279546543955803e-02" rms="2.2948193550109863e-01" purity="5.4001563787460327e-01" nType="0">
          <Node pos="l" depth="2" NCoef="0" IVar="-1" Cut="0.0000000000000000e+00" cType="1" res="7.3067535413429141e-04" rms="2.3781639337539673e-01" purity="5.8154231309890747e-01" nType="-99"/>
          <Node pos="r" depth="2" NCoef="0" IVar="-1" Cut="0.0000000000000000e+00" cType="1" res="-9.7891641780734062e-04" rms="1.7970912158489227e-01" purity="3.5417428612709045e-01" nType="-99"/>
        </Node>
      </Node>
    </BinaryTree>
    <BinaryTree type="DecisionTree" boostWeight="1.0000000000000000e+00" itree="1145">
      <Node pos="s" depth="0" NCoef="0" IVar="52" Cut="2.3821148872375488e+00" cType="1" res="5.1988670602440834e-03" rms="2.0974057912826538e-01" purity="5.0116413831710815e-01" nType="0">
        <Node pos="l" depth="1" NCoef="0" IVar="58" Cut="-1.3396713733673096e+00" cType="1" res="-1.9507682882249355e-03" rms="0.0000000000000000e+00" purity="2.1057151257991791e-01" nType="-99"/>
        <Node pos="r" depth="1" NCoef="0" IVar="5" Cut="4.4236454367637634e-01" cType="1" res="1.2795181944966316e-02" rms="2.2211521863937378e-01" purity="5.3007018566131592e-01" nType="0">
          <Node pos="l" depth="2" NCoef="0" IVar="-1" Cut="0.0000000000000000e+00" cType="1" res="8.0843013711273670e-04" rms="2.1439588069915771e-01" purity="6.4080244302749634e-01" nType="-99"/>
          <Node pos="r" depth="2" NCoef="0" IVar="-1" Cut="0.0000000000000000e+00" cType="1" res="-7.1743043372407556e-04" rms="2.3923373222351074e-01" purity="1.9269780814647675e-01" nType="-99"/>
        </Node>
      </Node>
    </BinaryTree>
    <BinaryTree type="DecisionTree" boostWeight="1.0000000000000000e+00" itree="1146">
      <Node pos="s" depth="0" NCoef="0" IVar="14" Cut="1.4053874015808105e+00" cType="1" res="8.9353984221816063e-03" rms="2.2349239885807037e-01" purity="5.0506037473678589e-01" nType="0">
        <Node pos="l" depth="1" NCoef="0" IVar="34" Cut="-1.4926451444625854e+00" cType="1" res="1.2786560691893101e-02" rms="2.2420327365398407e-01" purity="5.1148241758346558e-01" nType="0">
          <Node pos="l" depth="2" NCoef="0" IVar="-1" Cut="0.0000000000000000e+00" cType="1" res="2.5645450223237276e-03" rms="2.5669389963150024e-01" purity="5.4077833890914917e-01" nType="-99"/>
          <Node pos="r" depth="2" NCoef="0" IVar="-1" Cut="0.0000000000000000e+00" cType="1" res="2.1955338888801634e-04" rms="2.2076754271984100e-01" purity="5.0955653190612793e-01" nType="-99"/>
        </Node>
        <Node pos="r" depth="1" NCoef="0" IVar="-1" Cut="0.0000000000000000e+00" cType="1" res="-2.9360884800553322e-03" rms="1.0035790503025055e-01" purity="2.3645666241645813e-01" nType="-99"/>
      </Node>
    </BinaryTree>
    <BinaryTree type="DecisionTree" boostWeight="1.0000000000000000e+00" itree="1147">
      <Node pos="s" depth="0" NCoef="0" IVar="59" Cut="-1.0679057836532593e+00" cType="1" res="2.4288448039442301e-03" rms="2.1402545273303986e-01" purity="4.9332591891288757e-01" nType="0">
        <Node pos="l" depth="1" NCoef="0" IVar="52" Cut="3.1064188480377197e+00" cType="1" res="2.0999515429139137e-02" rms="2.2911621630191803e-01" purity="5.6118041276931763e-01" nType="0">
          <Node pos="l" depth="2" NCoef="0" IVar="-1" Cut="0.0000000000000000e+00" cType="1" res="1.2150558177381754e-03" rms="2.4306060373783112e-01" purity="6.0502195358276367e-01" nType="-99"/>
          <Node pos="r" depth="2" NCoef="0" IVar="-1" Cut="0.0000000000000000e+00" cType="1" res="-3.7578184856101871e-04" rms="2.0373417437076569e-01" purity="5.0139832496643066e-01" nType="-99"/>
        </Node>
        <Node pos="r" depth="1" NCoef="0" IVar="14" Cut="-4.4927260279655457e-01" cType="1" res="-2.8971286490559578e-02" rms="1.8146772682666779e-01" purity="3.7859445810317993e-01" nType="0">
          <Node pos="l" depth="2" NCoef="0" IVar="-1" Cut="0.0000000000000000e+00" cType="1" res="-1.6241011326201260e-04" rms="2.1846504509449005e-01" purity="3.9009031653404236e-01" nType="-99"/>
          <Node pos="r" depth="2" NCoef="0" IVar="-1" Cut="0.0000000000000000e+00" cType="1" res="-2.5208359584212303e-03" rms="0.0000000000000000e+00" purity="3.4813153743743896e-01" nType="-99"/>
        </Node>
      </Node>
    </BinaryTree>
    <BinaryTree type="DecisionTree" boostWeight="1.0000000000000000e+00" itree="1148">
      <Node pos="s" depth="0" NCoef="0" IVar="36" Cut="1.5233402252197266e+00" cType="1" res="1.4493172056972980e-02" rms="2.1717031300067902e-01" purity="5.1880443096160889e-01" nType="0">
        <Node pos="l" depth="1" NCoef="0" IVar="1" Cut="2.1186583042144775e+00" cType="1" res="-2.6925413403660059e-03" rms="2.0165038108825684e-01" purity="3.9349210262298584e-01" nType="0">
          <Node pos="l" depth="2" NCoef="0" IVar="-1" Cut="0.0000000000000000e+00" cType="1" res="-5.6508178822696209e-03" rms="0.0000000000000000e+00" purity="-1.5541839413344860e-02" nType="-99"/>
          <Node pos="r" depth="2" NCoef="0" IVar="-1" Cut="0.0000000000000000e+00" cType="1" res="2.2193070617504418e-04" rms="2.2191302478313446e-01" purity="4.4358101487159729e-01" nType="-99"/>
        </Node>
        <Node pos="r" depth="1" NCoef="0" IVar="5" Cut="8.7641589343547821e-02" cType="1" res="4.1526518762111664e-02" rms="2.3704902827739716e-01" purity="7.1592235565185547e-01" nType="0">
          <Node pos="l" depth="2" NCoef="0" IVar="-1" Cut="0.0000000000000000e+00" cType="1" res="2.5198811199516058e-03" rms="1.9199797511100769e-01" purity="9.3804430961608887e-01" nType="-99"/>
          <Node pos="r" depth="2" NCoef="0" IVar="-1" Cut="0.0000000000000000e+00" cType="1" res="3.8884810055606067e-04" rms="2.5776767730712891e-01" purity="5.8216851949691772e-01" nType="-99"/>
        </Node>
      </Node>
    </BinaryTree>
    <BinaryTree type="DecisionTree" boostWeight="1.0000000000000000e+00" itree="1149">
      <Node pos="s" depth="0" NCoef="0" IVar="3" Cut="5.2124385833740234e+00" cType="1" res="7.3490277864038944e-03" rms="2.1134693920612335e-01" purity="5.0202667713165283e-01" nType="0">
        <Node pos="l" depth="1" NCoef="0" IVar="25" Cut="1.0173567533493042e+00" cType="1" res="5.2555720321834087e-04" rms="2.0840929448604584e-01" purity="5.0141245126724243e-01" nType="0">
          <Node pos="l" depth="2" NCoef="0" IVar="-1" Cut="0.0000000000000000e+00" cType="1" res="4.3614694732241333e-04" rms="2.2056385874748230e-01" purity="5.4281824827194214e-01" nType="-99"/>
          <Node pos="r" depth="2" NCoef="0" IVar="-1" Cut="0.0000000000000000e+00" cType="1" res="-1.5766299329698086e-03" rms="1.6463392972946167e-01" purity="3.8970887660980225e-01" nType="-99"/>
        </Node>
        <Node pos="r" depth="1" NCoef="0" IVar="17" Cut="1.3272416591644287e+00" cType="1" res="1.0105511546134949e-01" rms="2.2843211889266968e-01" purity="5.1046180725097656e-01" nType="0">
          <Node pos="l" depth="2" NCoef="0" IVar="-1" Cut="0.0000000000000000e+00" cType="1" res="-4.1114035993814468e-03" rms="0.0000000000000000e+00" purity="-1.4530496671795845e-02" nType="-99"/>
          <Node pos="r" depth="2" NCoef="0" IVar="-1" Cut="0.0000000000000000e+00" cType="1" res="3.3160368911921978e-03" rms="3.1313377618789673e-01" purity="8.5312902927398682e-01" nType="-99"/>
        </Node>
      </Node>
    </BinaryTree>
    <BinaryTree type="DecisionTree" boostWeight="1.0000000000000000e+00" itree="1150">
      <Node pos="s" depth="0" NCoef="0" IVar="9" Cut="-6.1728394031524658e-01" cType="1" res="9.2131532728672028e-03" rms="2.1215675771236420e-01" purity="5.0003838539123535e-01" nType="0">
        <Node pos="l" depth="1" NCoef="0" IVar="37" Cut="-5.3740209341049194e-01" cType="1" res="-2.9172967188060284e-03" rms="0.0000000000000000e+00" purity="2.3591288924217224e-01" nType="-99"/>
        <Node pos="r" depth="1" NCoef="0" IVar="18" Cut="-9.1072940826416016e-01" cType="1" res="1.4595369808375835e-02" rms="2.1752996742725372e-01" purity="5.1251536607742310e-01" nType="0">
          <Node pos="l" depth="2" NCoef="0" IVar="-1" Cut="0.0000000000000000e+00" cType="1" res="5.5797561071813107e-04" rms="2.1905526518821716e-01" purity="5.3612202405929565e-01" nType="-99"/>
          <Node pos="r" depth="2" NCoef="0" IVar="-1" Cut="0.0000000000000000e+00" cType="1" res="-3.8332580588757992e-03" rms="1.6972462832927704e-01" purity="1.4178550243377686e-01" nType="-99"/>
        </Node>
      </Node>
    </BinaryTree>
    <BinaryTree type="DecisionTree" boostWeight="1.0000000000000000e+00" itree="1151">
      <Node pos="s" depth="0" NCoef="0" IVar="2" Cut="8.1952106952667236e-01" cType="1" res="1.5978344017639756e-03" rms="2.0299597084522247e-01" purity="4.9629423022270203e-01" nType="0">
        <Node pos="l" depth="1" NCoef="0" IVar="-1" Cut="0.0000000000000000e+00" cType="1" res="-3.0796553939580917e-02" rms="0.0000000000000000e+00" purity="-7.6181605458259583e-02" nType="-99"/>
        <Node pos="r" depth="1" NCoef="0" IVar="15" Cut="1.5225218534469604e+00" cType="1" res="5.7863201946020126e-03" rms="2.0871032774448395e-01" purity="5.1145011186599731e-01" nType="0">
          <Node pos="l" depth="2" NCoef="0" IVar="-1" Cut="0.0000000000000000e+00" cType="1" res="4.1932612657546997e-04" rms="1.9099515676498413e-01" purity="5.1671874523162842e-01" nType="-99"/>
          <Node pos="r" depth="2" NCoef="0" IVar="-1" Cut="0.0000000000000000e+00" cType="1" res="-1.2704731198027730e-03" rms="3.1717506051063538e-01" purity="4.6492782235145569e-01" nType="-99"/>
        </Node>
      </Node>
    </BinaryTree>
    <BinaryTree type="DecisionTree" boostWeight="1.0000000000000000e+00" itree="1152">
      <Node pos="s" depth="0" NCoef="0" IVar="48" Cut="1.0182108879089355e+00" cType="1" res="-1.2295983033254743e-03" rms="2.0169863104820251e-01" purity="4.9171021580696106e-01" nType="0">
        <Node pos="l" depth="1" NCoef="0" IVar="27" Cut="2.0212101936340332e+00" cType="1" res="-2.3853778839111328e-03" rms="0.0000000000000000e+00" purity="7.8244954347610474e-02" nType="-99"/>
        <Node pos="r" depth="1" NCoef="0" IVar="25" Cut="8.1374841928482056e-01" cType="1" res="8.9964447543025017e-03" rms="2.1678569912910461e-01" purity="5.5080676078796387e-01" nType="0">
          <Node pos="l" depth="2" NCoef="0" IVar="-1" Cut="0.0000000000000000e+00" cType="1" res="2.3612466175109148e-03" rms="2.9549285769462585e-01" purity="6.6671621799468994e-01" nType="-99"/>
          <Node pos="r" depth="2" NCoef="0" IVar="-1" Cut="0.0000000000000000e+00" cType="1" res="1.3400669558905065e-04" rms="2.1110065281391144e-01" purity="5.4507607221603394e-01" nType="-99"/>
        </Node>
      </Node>
    </BinaryTree>
    <BinaryTree type="DecisionTree" boostWeight="1.0000000000000000e+00" itree="1153">
      <Node pos="s" depth="0" NCoef="0" IVar="52" Cut="3.5432617664337158e+00" cType="1" res="1.6267508268356323e-02" rms="2.2440779209136963e-01" purity="5.0424659252166748e-01" nType="0">
        <Node pos="l" depth="1" NCoef="0" IVar="3" Cut="4.6526794433593750e+00" cType="1" res="2.2180056199431419e-02" rms="2.3148968815803528e-01" purity="5.1725196838378906e-01" nType="0">
          <Node pos="l" depth="2" NCoef="0" IVar="-1" Cut="0.0000000000000000e+00" cType="1" res="-3.0044736922718585e-04" rms="2.2336551547050476e-01" purity="3.8792511820793152e-01" nType="-99"/>
          <Node pos="r" depth="2" NCoef="0" IVar="-1" Cut="0.0000000000000000e+00" cType="1" res="1.2485347688198090e-03" rms="2.3443554341793060e-01" purity="6.1163544654846191e-01" nType="-99"/>
        </Node>
        <Node pos="r" depth="1" NCoef="0" IVar="31" Cut="3.3259558677673340e+00" cType="1" res="-4.1026179678738117e-03" rms="0.0000000000000000e+00" purity="2.1475759148597717e-01" nType="-99"/>
      </Node>
    </BinaryTree>
    <BinaryTree type="DecisionTree" boostWeight="1.0000000000000000e+00" itree="1154">
      <Node pos="s" depth="0" NCoef="0" IVar="6" Cut="1.0917019844055176e+00" cType="1" res="4.1490453295409679e-03" rms="2.1277639269828796e-01" purity="4.9757114052772522e-01" nType="0">
        <Node pos="l" depth="1" NCoef="0" IVar="55" Cut="8.1751692295074463e-01" cType="1" res="-4.0670372545719147e-03" rms="0.0000000000000000e+00" purity="5.5395800620317459e-02" nType="-99"/>
        <Node pos="r" depth="1" NCoef="0" IVar="57" Cut="1.4717607200145721e-01" cType="1" res="1.2430594302713871e-02" rms="2.2439512610435486e-01" purity="5.3440278768539429e-01" nType="0">
          <Node pos="l" depth="2" NCoef="0" IVar="-1" Cut="0.0000000000000000e+00" cType="1" res="7.4668315937742591e-04" rms="2.3740172386169434e-01" purity="5.8410805463790894e-01" nType="-99"/>
          <Node pos="r" depth="2" NCoef="0" IVar="-1" Cut="0.0000000000000000e+00" cType="1" res="-1.1488897725939751e-03" rms="1.6283565759658813e-01" purity="3.6269676685333252e-01" nType="-99"/>
        </Node>
      </Node>
    </BinaryTree>
    <BinaryTree type="DecisionTree" boostWeight="1.0000000000000000e+00" itree="1155">
      <Node pos="s" depth="0" NCoef="0" IVar="0" Cut="6.9092816114425659e-01" cType="1" res="2.1024118177592754e-03" rms="2.0104023814201355e-01" purity="4.9365207552909851e-01" nType="0">
        <Node pos="l" depth="1" NCoef="0" IVar="22" Cut="1.2345679104328156e-02" cType="1" res="2.0878581330180168e-02" rms="2.2306770086288452e-01" purity="5.5126440525054932e-01" nType="0">
          <Node pos="l" depth="2" NCoef="0" IVar="-1" Cut="0.0000000000000000e+00" cType="1" res="4.1306330822408199e-03" rms="3.4885710477828979e-01" purity="4.3724727630615234e-01" nType="-99"/>
          <Node pos="r" depth="2" NCoef="0" IVar="-1" Cut="0.0000000000000000e+00" cType="1" res="3.8972636684775352e-04" rms="2.1117238700389862e-01" purity="5.5792742967605591e-01" nType="-99"/>
        </Node>
        <Node pos="r" depth="1" NCoef="0" IVar="48" Cut="1.9037984609603882e+00" cType="1" res="-2.8563819825649261e-02" rms="1.5376310050487518e-01" purity="3.9955654740333557e-01" nType="0">
          <Node pos="l" depth="2" NCoef="0" IVar="-1" Cut="0.0000000000000000e+00" cType="1" res="-2.9409888666123152e-03" rms="0.0000000000000000e+00" purity="1.3695496320724487e-01" nType="-99"/>
          <Node pos="r" depth="2" NCoef="0" IVar="-1" Cut="0.0000000000000000e+00" cType="1" res="2.2122263908386230e-04" rms="2.0262125134468079e-01" purity="5.5667459964752197e-01" nType="-99"/>
        </Node>
      </Node>
    </BinaryTree>
    <BinaryTree type="DecisionTree" boostWeight="1.0000000000000000e+00" itree="1156">
      <Node pos="s" depth="0" NCoef="0" IVar="52" Cut="2.4215600490570068e+00" cType="1" res="1.2844140641391277e-02" rms="2.2592771053314209e-01" purity="5.0766867399215698e-01" nType="0">
        <Node pos="l" depth="1" NCoef="0" IVar="61" Cut="6.9002574682235718e-01" cType="1" res="-5.9223543852567673e-02" rms="9.1985292732715607e-02" purity="2.1584385633468628e-01" nType="0">
          <Node pos="l" depth="2" NCoef="0" IVar="-1" Cut="0.0000000000000000e+00" cType="1" res="2.0744418725371361e-03" rms="3.3852183818817139e-01" purity="3.4863418340682983e-01" nType="-99"/>
          <Node pos="r" depth="2" NCoef="0" IVar="-1" Cut="0.0000000000000000e+00" cType="1" res="-3.8836554158478975e-03" rms="0.0000000000000000e+00" purity="1.5747174620628357e-01" nType="-99"/>
        </Node>
        <Node pos="r" depth="1" NCoef="0" IVar="25" Cut="1.0175223350524902e+00" cType="1" res="2.1772865206003189e-02" rms="2.3578757047653198e-01" purity="5.4382395744323730e-01" nType="0">
          <Node pos="l" depth="2" NCoef="0" IVar="-1" Cut="0.0000000000000000e+00" cType="1" res="9.6887035761028528e-04" rms="2.4420809745788574e-01" purity="5.8277201652526855e-01" nType="-99"/>
          <Node pos="r" depth="2" NCoef="0" IVar="-1" Cut="0.0000000000000000e+00" cType="1" res="-5.9930008137598634e-04" rms="2.0672719180583954e-01" purity="4.3864339590072632e-01" nType="-99"/>
        </Node>
      </Node>
    </BinaryTree>
    <BinaryTree type="DecisionTree" boostWeight="1.0000000000000000e+00" itree="1157">
      <Node pos="s" depth="0" NCoef="0" IVar="4" Cut="3.5265388488769531e+00" cType="1" res="2.7450432535260916e-03" rms="2.0715190470218658e-01" purity="4.9941587448120117e-01" nType="0">
        <Node pos="l" depth="1" NCoef="0" IVar="0" Cut="7.4493342638015747e-01" cType="1" res="-3.1410384923219681e-02" rms="1.8643611669540405e-01" purity="3.1396874785423279e-01" nType="0">
          <Node pos="l" depth="2" NCoef="0" IVar="-1" Cut="0.0000000000000000e+00" cType="1" res="7.8812365245539695e-05" rms="2.2778795659542084e-01" purity="4.0307554602622986e-01" nType="-99"/>
          <Node pos="r" depth="2" NCoef="0" IVar="-1" Cut="0.0000000000000000e+00" cType="1" res="-3.4285322763025761e-03" rms="0.0000000000000000e+00" purity="1.4891161024570465e-01" nType="-99"/>
        </Node>
        <Node pos="r" depth="1" NCoef="0" IVar="17" Cut="1.0978386402130127e+00" cType="1" res="2.1370917558670044e-02" rms="2.1534885466098785e-01" purity="6.0054522752761841e-01" nType="0">
          <Node pos="l" depth="2" NCoef="0" IVar="-1" Cut="0.0000000000000000e+00" cType="1" res="-1.8871849402785301e-02" rms="0.0000000000000000e+00" purity="-2.1227663382887840e-02" nType="-99"/>
          <Node pos="r" depth="2" NCoef="0" IVar="-1" Cut="0.0000000000000000e+00" cType="1" res="8.1808550748974085e-04" rms="2.4989260733127594e-01" purity="7.5367766618728638e-01" nType="-99"/>
        </Node>
      </Node>
    </BinaryTree>
    <BinaryTree type="DecisionTree" boostWeight="1.0000000000000000e+00" itree="1158">
      <Node pos="s" depth="0" NCoef="0" IVar="0" Cut="6.3477349281311035e-01" cType="1" res="5.4024248383939266e-03" rms="2.0965684950351715e-01" purity="4.9807697534561157e-01" nType="0">
        <Node pos="l" depth="1" NCoef="0" IVar="3" Cut="5.1519107818603516e+00" cType="1" res="3.0043993145227432e-02" rms="2.3667787015438080e-01" purity="5.6955558061599731e-01" nType="0">
          <Node pos="l" depth="2" NCoef="0" IVar="-1" Cut="0.0000000000000000e+00" cType="1" res="5.1683298079296947e-04" rms="2.2566030919551849e-01" purity="5.6849056482315063e-01" nType="-99"/>
          <Node pos="r" depth="2" NCoef="0" IVar="-1" Cut="0.0000000000000000e+00" cType="1" res="3.5771478433161974e-03" rms="2.9980471730232239e-01" purity="5.7929617166519165e-01" nType="-99"/>
        </Node>
        <Node pos="r" depth="1" NCoef="0" IVar="57" Cut="2.9979142546653748e-01" cType="1" res="-2.7818445116281509e-02" rms="1.6054385900497437e-01" purity="4.0171205997467041e-01" nType="0">
          <Node pos="l" depth="2" NCoef="0" IVar="-1" Cut="0.0000000000000000e+00" cType="1" res="-2.3296703875530511e-04" rms="1.9580069184303284e-01" purity="4.6818226575851440e-01" nType="-99"/>
          <Node pos="r" depth="2" NCoef="0" IVar="-1" Cut="0.0000000000000000e+00" cType="1" res="-3.2691806554794312e-03" rms="0.0000000000000000e+00" purity="1.8616358935832977e-01" nType="-99"/>
        </Node>
      </Node>
    </BinaryTree>
    <BinaryTree type="DecisionTree" boostWeight="1.0000000000000000e+00" itree="1159">
      <Node pos="s" depth="0" NCoef="0" IVar="59" Cut="-7.9765695333480835e-01" cType="1" res="5.7008542353287339e-04" rms="2.1241876482963562e-01" purity="4.9657306075096130e-01" nType="0">
        <Node pos="l" depth="1" NCoef="0" IVar="15" Cut="1.5225218534469604e+00" cType="1" res="1.8983062356710434e-02" rms="2.3193192481994629e-01" purity="5.6321191787719727e-01" nType="0">
          <Node pos="l" depth="2" NCoef="0" IVar="-1" Cut="0.0000000000000000e+00" cType="1" res="9.0808951063081622e-04" rms="2.2061547636985779e-01" purity="5.7521313428878784e-01" nType="-99"/>
          <Node pos="r" depth="2" NCoef="0" IVar="-1" Cut="0.0000000000000000e+00" cType="1" res="-1.4090593904256821e-03" rms="2.9266396164894104e-01" purity="4.6991017460823059e-01" nType="-99"/>
        </Node>
        <Node pos="r" depth="1" NCoef="0" IVar="1" Cut="3.1764411926269531e+00" cType="1" res="-3.2809909433126450e-02" rms="1.6635568439960480e-01" purity="3.7576657533645630e-01" nType="0">
          <Node pos="l" depth="2" NCoef="0" IVar="-1" Cut="0.0000000000000000e+00" cType="1" res="-2.9046514537185431e-03" rms="4.3704520910978317e-02" purity="1.7883712053298950e-01" nType="-99"/>
          <Node pos="r" depth="2" NCoef="0" IVar="-1" Cut="0.0000000000000000e+00" cType="1" res="3.8353490526787937e-04" rms="2.3520648479461670e-01" purity="6.1737638711929321e-01" nType="-99"/>
        </Node>
      </Node>
    </BinaryTree>
    <BinaryTree type="DecisionTree" boostWeight="1.0000000000000000e+00" itree="1160">
      <Node pos="s" depth="0" NCoef="0" IVar="57" Cut="1.3681460618972778e+00" cType="1" res="5.9872199781239033e-03" rms="2.2049574553966522e-01" purity="4.9447721242904663e-01" nType="0">
        <Node pos="l" depth="1" NCoef="0" IVar="21" Cut="1.9832107424736023e-01" cType="1" res="1.4515729621052742e-02" rms="2.2801455855369568e-01" purity="5.2481347322463989e-01" nType="0">
          <Node pos="l" depth="2" NCoef="0" IVar="-1" Cut="0.0000000000000000e+00" cType="1" res="6.3901755493134260e-04" rms="2.3594333231449127e-01" purity="5.3940379619598389e-01" nType="-99"/>
          <Node pos="r" depth="2" NCoef="0" IVar="-1" Cut="0.0000000000000000e+00" cType="1" res="-1.5254573663696647e-03" rms="1.3640315830707550e-01" purity="4.1033771634101868e-01" nType="-99"/>
        </Node>
        <Node pos="r" depth="1" NCoef="0" IVar="0" Cut="6.6204059123992920e-01" cType="1" res="-6.1158578842878342e-02" rms="1.3033396005630493e-01" purity="2.5563630461692810e-01" nType="0">
          <Node pos="l" depth="2" NCoef="0" IVar="-1" Cut="0.0000000000000000e+00" cType="1" res="-7.0786016294732690e-04" rms="2.0578788220882416e-01" purity="3.5932788252830505e-01" nType="-99"/>
          <Node pos="r" depth="2" NCoef="0" IVar="-1" Cut="0.0000000000000000e+00" cType="1" res="-4.5322249643504620e-03" rms="0.0000000000000000e+00" purity="9.9294379353523254e-02" nType="-99"/>
        </Node>
      </Node>
    </BinaryTree>
    <BinaryTree type="DecisionTree" boostWeight="1.0000000000000000e+00" itree="1161">
      <Node pos="s" depth="0" NCoef="0" IVar="14" Cut="-1.2220296859741211e+00" cType="1" res="6.0056583024561405e-03" rms="2.1348913013935089e-01" purity="5.0012499094009399e-01" nType="0">
        <Node pos="l" depth="1" NCoef="0" IVar="63" Cut="2.8058612346649170e-01" cType="1" res="-3.2053999602794647e-02" rms="1.7692437767982483e-01" purity="2.9322704672813416e-01" nType="0">
          <Node pos="l" depth="2" NCoef="0" IVar="-1" Cut="0.0000000000000000e+00" cType="1" res="-8.1478699576109648e-04" rms="1.8936617672443390e-01" purity="3.0569431185722351e-01" nType="-99"/>
          <Node pos="r" depth="2" NCoef="0" IVar="-1" Cut="0.0000000000000000e+00" cType="1" res="-6.7955642007291317e-03" rms="0.0000000000000000e+00" purity="1.1959911137819290e-01" nType="-99"/>
        </Node>
        <Node pos="r" depth="1" NCoef="0" IVar="0" Cut="5.8004367351531982e-01" cType="1" res="2.5557594373822212e-02" rms="2.2756253182888031e-01" purity="6.0641229152679443e-01" nType="0">
          <Node pos="l" depth="2" NCoef="0" IVar="-1" Cut="0.0000000000000000e+00" cType="1" res="1.4360090717673302e-03" rms="2.5493222475051880e-01" purity="6.7166167497634888e-01" nType="-99"/>
          <Node pos="r" depth="2" NCoef="0" IVar="-1" Cut="0.0000000000000000e+00" cType="1" res="-1.1262518819421530e-04" rms="1.8879067897796631e-01" purity="5.3490352630615234e-01" nType="-99"/>
        </Node>
      </Node>
    </BinaryTree>
    <BinaryTree type="DecisionTree" boostWeight="1.0000000000000000e+00" itree="1162">
      <Node pos="s" depth="0" NCoef="0" IVar="25" Cut="7.9238623380661011e-01" cType="1" res="9.3959216028451920e-03" rms="2.1429283916950226e-01" purity="5.0891071557998657e-01" nType="0">
        <Node pos="l" depth="1" NCoef="0" IVar="-1" Cut="0.0000000000000000e+00" cType="1" res="2.9774527065455914e-03" rms="3.1225711107254028e-01" purity="7.1299910545349121e-01" nType="-99"/>
        <Node pos="r" depth="1" NCoef="0" IVar="5" Cut="2.8323230147361755e-01" cType="1" res="4.9095451831817627e-03" rms="2.0873881876468658e-01" purity="5.0207048654556274e-01" nType="0">
          <Node pos="l" depth="2" NCoef="0" IVar="-1" Cut="0.0000000000000000e+00" cType="1" res="9.1613567201420665e-04" rms="1.9385868310928345e-01" purity="6.6776996850967407e-01" nType="-99"/>
          <Node pos="r" depth="2" NCoef="0" IVar="-1" Cut="0.0000000000000000e+00" cType="1" res="-5.3327425848692656e-04" rms="2.2334687411785126e-01" purity="2.9179543256759644e-01" nType="-99"/>
        </Node>
      </Node>
    </BinaryTree>
    <BinaryTree type="DecisionTree" boostWeight="1.0000000000000000e+00" itree="1163">
      <Node pos="s" depth="0" NCoef="0" IVar="5" Cut="3.0461463332176208e-01" cType="1" res="2.9187942855060101e-03" rms="2.1170920133590698e-01" purity="5.0087559223175049e-01" nType="0">
        <Node pos="l" depth="1" NCoef="0" IVar="52" Cut="2.4710154533386230e+00" cType="1" res="2.9081510379910469e-02" rms="1.9524987041950226e-01" purity="6.6965049505233765e-01" nType="0">
          <Node pos="l" depth="2" NCoef="0" IVar="-1" Cut="0.0000000000000000e+00" cType="1" res="-1.4203818282112479e-03" rms="1.1911386996507645e-01" purity="3.3578369021415710e-01" nType="-99"/>
          <Node pos="r" depth="2" NCoef="0" IVar="-1" Cut="0.0000000000000000e+00" cType="1" res="1.4837564667686820e-03" rms="2.0325829088687897e-01" purity="7.3088264465332031e-01" nType="-99"/>
        </Node>
        <Node pos="r" depth="1" NCoef="0" IVar="38" Cut="-1.2999652624130249e+00" cType="1" res="-3.4370835870504379e-02" rms="2.2803881764411926e-01" purity="2.6032125949859619e-01" nType="0">
          <Node pos="l" depth="2" NCoef="0" IVar="-1" Cut="0.0000000000000000e+00" cType="1" res="1.5124646015465260e-03" rms="2.6249048113822937e-01" purity="3.2997152209281921e-01" nType="-99"/>
          <Node pos="r" depth="2" NCoef="0" IVar="-1" Cut="0.0000000000000000e+00" cType="1" res="-1.4048838056623936e-03" rms="2.1077260375022888e-01" purity="2.3949672281742096e-01" nType="-99"/>
        </Node>
      </Node>
    </BinaryTree>
    <BinaryTree type="DecisionTree" boostWeight="1.0000000000000000e+00" itree="1164">
      <Node pos="s" depth="0" NCoef="0" IVar="22" Cut="1.2345679104328156e-02" cType="1" res="1.4468204230070114e-02" rms="2.2216662764549255e-01" purity="5.0974696874618530e-01" nType="0">
        <Node pos="l" depth="1" NCoef="0" IVar="0" Cut="6.6778218746185303e-01" cType="1" res="1.0929537564516068e-01" rms="3.0048874020576477e-01" purity="3.8341647386550903e-01" nType="0">
          <Node pos="l" depth="2" NCoef="0" IVar="-1" Cut="0.0000000000000000e+00" cType="1" res="5.4350928403437138e-03" rms="3.7990534305572510e-01" purity="4.8442634940147400e-01" nType="-99"/>
          <Node pos="r" depth="2" NCoef="0" IVar="-1" Cut="0.0000000000000000e+00" cType="1" res="-4.2061638669110835e-04" rms="0.0000000000000000e+00" purity="2.3547582328319550e-01" nType="-99"/>
        </Node>
        <Node pos="r" depth="1" NCoef="0" IVar="14" Cut="1.3680851459503174e+00" cType="1" res="8.5820714011788368e-03" rms="2.1499823033809662e-01" purity="5.1758861541748047e-01" nType="0">
          <Node pos="l" depth="2" NCoef="0" IVar="-1" Cut="0.0000000000000000e+00" cType="1" res="3.7319361581467092e-04" rms="2.1384137868881226e-01" purity="5.2558988332748413e-01" nType="-99"/>
          <Node pos="r" depth="2" NCoef="0" IVar="-1" Cut="0.0000000000000000e+00" cType="1" res="-2.8033629059791565e-03" rms="1.9912455976009369e-01" purity="2.2947341203689575e-01" nType="-99"/>
        </Node>
      </Node>
    </BinaryTree>
    <BinaryTree type="DecisionTree" boostWeight="1.0000000000000000e+00" itree="1165">
      <Node pos="s" depth="0" NCoef="0" IVar="26" Cut="1.2345679104328156e-02" cType="1" res="7.2416537441313267e-03" rms="2.1703530848026276e-01" purity="4.9536091089248657e-01" nType="0">
        <Node pos="l" depth="1" NCoef="0" IVar="52" Cut="3.5493798255920410e+00" cType="1" res="1.1862817220389843e-02" rms="2.1981994807720184e-01" purity="5.1403206586837769e-01" nType="0">
          <Node pos="l" depth="2" NCoef="0" IVar="-1" Cut="0.0000000000000000e+00" cType="1" res="4.9363967264071107e-04" rms="2.2675964236259460e-01" purity="5.2466189861297607e-01" nType="-99"/>
          <Node pos="r" depth="2" NCoef="0" IVar="-1" Cut="0.0000000000000000e+00" cType="1" res="-4.0948349051177502e-03" rms="0.0000000000000000e+00" purity="2.9453387856483459e-01" nType="-99"/>
        </Node>
        <Node pos="r" depth="1" NCoef="0" IVar="-1" Cut="0.0000000000000000e+00" cType="1" res="-6.9779460318386555e-03" rms="0.0000000000000000e+00" purity="-3.0890882015228271e-02" nType="-99"/>
      </Node>
    </BinaryTree>
    <BinaryTree type="DecisionTree" boostWeight="1.0000000000000000e+00" itree="1166">
      <Node pos="s" depth="0" NCoef="0" IVar="22" Cut="1.2345679104328156e-02" cType="1" res="1.0495319962501526e-02" rms="2.2445283830165863e-01" purity="4.9796342849731445e-01" nType="0">
        <Node pos="l" depth="1" NCoef="0" IVar="48" Cut="1.6191970109939575e+00" cType="1" res="1.1889870464801788e-01" rms="3.0283257365226746e-01" purity="3.3958578109741211e-01" nType="0">
          <Node pos="l" depth="2" NCoef="0" IVar="-1" Cut="0.0000000000000000e+00" cType="1" res="-9.2802866129204631e-04" rms="0.0000000000000000e+00" purity="7.9133734107017517e-02" nType="-99"/>
          <Node pos="r" depth="2" NCoef="0" IVar="-1" Cut="0.0000000000000000e+00" cType="1" res="5.3274035453796387e-03" rms="3.6904489994049072e-01" purity="5.1048517227172852e-01" nType="-99"/>
        </Node>
        <Node pos="r" depth="1" NCoef="0" IVar="60" Cut="-1.3867152929306030e+00" cType="1" res="3.9203064516186714e-03" rms="2.1706308424472809e-01" purity="5.0756955146789551e-01" nType="0">
          <Node pos="l" depth="2" NCoef="0" IVar="-1" Cut="0.0000000000000000e+00" cType="1" res="4.6405629836954176e-04" rms="2.2666727006435394e-01" purity="5.5347096920013428e-01" nType="-99"/>
          <Node pos="r" depth="2" NCoef="0" IVar="-1" Cut="0.0000000000000000e+00" cType="1" res="-1.2741351965814829e-03" rms="1.7564256489276886e-01" purity="3.5684153437614441e-01" nType="-99"/>
        </Node>
      </Node>
    </BinaryTree>
    <BinaryTree type="DecisionTree" boostWeight="1.0000000000000000e+00" itree="1167">
      <Node pos="s" depth="0" NCoef="0" IVar="52" Cut="3.3339121341705322e+00" cType="1" res="2.0677293650805950e-03" rms="2.0666877925395966e-01" purity="4.9881494045257568e-01" nType="0">
        <Node pos="l" depth="1" NCoef="0" IVar="0" Cut="7.7782124280929565e-01" cType="1" res="1.3816412538290024e-02" rms="2.1917662024497986e-01" purity="5.1579743623733521e-01" nType="0">
          <Node pos="l" depth="2" NCoef="0" IVar="-1" Cut="0.0000000000000000e+00" cType="1" res="9.1804977273568511e-04" rms="2.2897204756736755e-01" purity="5.7903707027435303e-01" nType="-99"/>
          <Node pos="r" depth="2" NCoef="0" IVar="-1" Cut="0.0000000000000000e+00" cType="1" res="-9.6247199689969420e-04" rms="1.8491700291633606e-01" purity="3.5843089222908020e-01" nType="-99"/>
        </Node>
        <Node pos="r" depth="1" NCoef="0" IVar="17" Cut="1.5210473537445068e+00" cType="1" res="-6.4558789134025574e-02" rms="8.5347458720207214e-02" purity="4.0250763297080994e-01" nType="0">
          <Node pos="l" depth="2" NCoef="0" IVar="-1" Cut="0.0000000000000000e+00" cType="1" res="-4.6076700091362000e-03" rms="0.0000000000000000e+00" purity="8.6559012532234192e-02" nType="-99"/>
          <Node pos="r" depth="2" NCoef="0" IVar="-1" Cut="0.0000000000000000e+00" cType="1" res="2.3260811576619744e-04" rms="2.3203188180923462e-01" purity="8.3705502748489380e-01" nType="-99"/>
        </Node>
      </Node>
    </BinaryTree>
    <BinaryTree type="DecisionTree" boostWeight="1.0000000000000000e+00" itree="1168">
      <Node pos="s" depth="0" NCoef="0" IVar="3" Cut="5.1870608329772949e+00" cType="1" res="1.5355452895164490e-02" rms="2.3027227818965912e-01" purity="5.0038999319076538e-01" nType="0">
        <Node pos="l" depth="1" NCoef="0" IVar="2" Cut="2.0623927116394043e+00" cType="1" res="6.2565016560256481e-03" rms="2.2315046191215515e-01" purity="4.9754628539085388e-01" nType="0">
          <Node pos="l" depth="2" NCoef="0" IVar="-1" Cut="0.0000000000000000e+00" cType="1" res="-2.0905740093439817e-03" rms="1.4849145710468292e-01" purity="1.9327759742736816e-01" nType="-99"/>
          <Node pos="r" depth="2" NCoef="0" IVar="-1" Cut="0.0000000000000000e+00" cType="1" res="5.9028947725892067e-04" rms="2.4066478013992310e-01" purity="5.9806793928146362e-01" nType="-99"/>
        </Node>
        <Node pos="r" depth="1" NCoef="0" IVar="6" Cut="2.1474275588989258e+00" cType="1" res="1.3262629508972168e-01" rms="2.8253316879272461e-01" purity="5.3704178333282471e-01" nType="0">
          <Node pos="l" depth="2" NCoef="0" IVar="-1" Cut="0.0000000000000000e+00" cType="1" res="4.6030469238758087e-03" rms="3.4866988658905029e-01" purity="5.4832834005355835e-01" nType="-99"/>
          <Node pos="r" depth="2" NCoef="0" IVar="-1" Cut="0.0000000000000000e+00" cType="1" res="6.0095670050941408e-05" rms="0.0000000000000000e+00" purity="5.1962316036224365e-01" nType="-99"/>
        </Node>
      </Node>
    </BinaryTree>
    <BinaryTree type="DecisionTree" boostWeight="1.0000000000000000e+00" itree="1169">
      <Node pos="s" depth="0" NCoef="0" IVar="52" Cut="2.4742026329040527e+00" cType="1" res="4.7781036118976772e-04" rms="1.9929702579975128e-01" purity="4.9707558751106262e-01" nType="0">
        <Node pos="l" depth="1" NCoef="0" IVar="13" Cut="1.4754111766815186e+00" cType="1" res="-6.3860103487968445e-02" rms="7.6763264834880829e-02" purity="2.3920585215091705e-01" nType="0">
          <Node pos="l" depth="2" NCoef="0" IVar="-1" Cut="0.0000000000000000e+00" cType="1" res="-2.8795822800020687e-05" rms="1.2418884038925171e-01" purity="1.4171442389488220e-01" nType="-99"/>
          <Node pos="r" depth="2" NCoef="0" IVar="-1" Cut="0.0000000000000000e+00" cType="1" res="-2.7635195292532444e-03" rms="0.0000000000000000e+00" purity="3.6327865719795227e-01" nType="-99"/>
        </Node>
        <Node pos="r" depth="1" NCoef="0" IVar="5" Cut="3.4675148129463196e-01" cType="1" res="1.0379475541412830e-02" rms="2.1021458506584167e-01" purity="5.3676193952560425e-01" nType="0">
          <Node pos="l" depth="2" NCoef="0" IVar="-1" Cut="0.0000000000000000e+00" cType="1" res="1.1722036870196462e-03" rms="1.9010272622108459e-01" purity="7.0741832256317139e-01" nType="-99"/>
          <Node pos="r" depth="2" NCoef="0" IVar="-1" Cut="0.0000000000000000e+00" cType="1" res="-6.9337850436568260e-04" rms="2.3574785888195038e-01" purity="2.4291045963764191e-01" nType="-99"/>
        </Node>
      </Node>
    </BinaryTree>
    <BinaryTree type="DecisionTree" boostWeight="1.0000000000000000e+00" itree="1170">
      <Node pos="s" depth="0" NCoef="0" IVar="35" Cut="-1.4540016651153564e+00" cType="1" res="1.2847806327044964e-02" rms="2.2042548656463623e-01" purity="5.0251978635787964e-01" nType="0">
        <Node pos="l" depth="1" NCoef="0" IVar="39" Cut="-2.2954668998718262e+00" cType="1" res="-4.1587669402360916e-02" rms="1.4932340383529663e-01" purity="2.8809568285942078e-01" nType="0">
          <Node pos="l" depth="2" NCoef="0" IVar="-1" Cut="0.0000000000000000e+00" cType="1" res="1.3316757977008820e-03" rms="2.5663849711418152e-01" purity="4.1834712028503418e-01" nType="-99"/>
          <Node pos="r" depth="2" NCoef="0" IVar="-1" Cut="0.0000000000000000e+00" cType="1" res="-3.0801969114691019e-03" rms="1.1067945510149002e-01" purity="2.6229512691497803e-01" nType="-99"/>
        </Node>
        <Node pos="r" depth="1" NCoef="0" IVar="2" Cut="1.7430489063262939e+00" cType="1" res="2.2614283487200737e-02" rms="2.2951503098011017e-01" purity="5.4099041223526001e-01" nType="0">
          <Node pos="l" depth="2" NCoef="0" IVar="-1" Cut="0.0000000000000000e+00" cType="1" res="-1.5554311685264111e-03" rms="1.6190584003925323e-01" purity="1.5822771191596985e-01" nType="-99"/>
          <Node pos="r" depth="2" NCoef="0" IVar="-1" Cut="0.0000000000000000e+00" cType="1" res="8.2074344391003251e-04" rms="2.3877765238285065e-01" purity="6.1328428983688354e-01" nType="-99"/>
        </Node>
      </Node>
    </BinaryTree>
    <BinaryTree type="DecisionTree" boostWeight="1.0000000000000000e+00" itree="1171">
      <Node pos="s" depth="0" NCoef="0" IVar="40" Cut="6.9594961404800415e-01" cType="1" res="1.3914591632783413e-02" rms="2.2455666959285736e-01" purity="5.0185644626617432e-01" nType="0">
        <Node pos="l" depth="1" NCoef="0" IVar="3" Cut="5.2295451164245605e+00" cType="1" res="4.1231118142604828e-02" rms="2.5154435634613037e-01" purity="5.4682540893554688e-01" nType="0">
          <Node pos="l" depth="2" NCoef="0" IVar="-1" Cut="0.0000000000000000e+00" cType="1" res="8.8332587620243430e-04" rms="2.4214981496334076e-01" purity="5.4871058464050293e-01" nType="-99"/>
          <Node pos="r" depth="2" NCoef="0" IVar="-1" Cut="0.0000000000000000e+00" cType="1" res="4.4015273451805115e-03" rms="3.3981510996818542e-01" purity="5.1876825094223022e-01" nType="-99"/>
        </Node>
        <Node pos="r" depth="1" NCoef="0" IVar="56" Cut="-5.6504958868026733e-01" cType="1" res="-6.1792312189936638e-03" rms="2.0005379617214203e-01" purity="4.6877762675285339e-01" nType="0">
          <Node pos="l" depth="2" NCoef="0" IVar="-1" Cut="0.0000000000000000e+00" cType="1" res="2.4879927514120936e-04" rms="2.1685579419136047e-01" purity="5.1083153486251831e-01" nType="-99"/>
          <Node pos="r" depth="2" NCoef="0" IVar="-1" Cut="0.0000000000000000e+00" cType="1" res="-2.8732141945511103e-03" rms="5.8311667293310165e-02" purity="2.7978813648223877e-01" nType="-99"/>
        </Node>
      </Node>
    </BinaryTree>
    <BinaryTree type="DecisionTree" boostWeight="1.0000000000000000e+00" itree="1172">
      <Node pos="s" depth="0" NCoef="0" IVar="57" Cut="1.3681508302688599e+00" cType="1" res="4.5631960965692997e-03" rms="2.1466414630413055e-01" purity="4.9221000075340271e-01" nType="0">
        <Node pos="l" depth="1" NCoef="0" IVar="3" Cut="4.9394011497497559e+00" cType="1" res="1.3714110478758812e-02" rms="2.2287549078464508e-01" purity="5.2477282285690308e-01" nType="0">
          <Node pos="l" depth="2" NCoef="0" IVar="-1" Cut="0.0000000000000000e+00" cType="1" res="5.1549168347264640e-06" rms="2.1578200161457062e-01" purity="4.9689382314682007e-01" nType="-99"/>
          <Node pos="r" depth="2" NCoef="0" IVar="-1" Cut="0.0000000000000000e+00" cType="1" res="1.6321460716426373e-03" rms="2.3845098912715912e-01" purity="6.0915344953536987e-01" nType="-99"/>
        </Node>
        <Node pos="r" depth="1" NCoef="0" IVar="18" Cut="-1.6901427507400513e+00" cType="1" res="-7.4884086847305298e-02" rms="8.8597871363162994e-02" purity="2.0950254797935486e-01" nType="0">
          <Node pos="l" depth="2" NCoef="0" IVar="-1" Cut="0.0000000000000000e+00" cType="1" res="-5.1317322067916393e-03" rms="0.0000000000000000e+00" purity="2.0626759529113770e-01" nType="-99"/>
          <Node pos="r" depth="2" NCoef="0" IVar="-1" Cut="0.0000000000000000e+00" cType="1" res="-8.6895423009991646e-04" rms="2.2294303774833679e-01" purity="2.1275289356708527e-01" nType="-99"/>
        </Node>
      </Node>
    </BinaryTree>
    <BinaryTree type="DecisionTree" boostWeight="1.0000000000000000e+00" itree="1173">
      <Node pos="s" depth="0" NCoef="0" IVar="1" Cut="2.8348727226257324e+00" cType="1" res="-3.3822300611063838e-04" rms="1.9781975448131561e-01" purity="4.9748736619949341e-01" nType="0">
        <Node pos="l" depth="1" NCoef="0" IVar="15" Cut="1.4446413516998291e+00" cType="1" res="-3.4038651734590530e-02" rms="1.3693180680274963e-01" purity="2.2020135819911957e-01" nType="0">
          <Node pos="l" depth="2" NCoef="0" IVar="-1" Cut="0.0000000000000000e+00" cType="1" res="-5.1887088920921087e-04" rms="9.6494272351264954e-02" purity="1.9586387276649475e-01" nType="-99"/>
          <Node pos="r" depth="2" NCoef="0" IVar="-1" Cut="0.0000000000000000e+00" cType="1" res="-2.2212008479982615e-03" rms="1.8911048769950867e-01" purity="2.7315676212310791e-01" nType="-99"/>
        </Node>
        <Node pos="r" depth="1" NCoef="0" IVar="25" Cut="9.7690391540527344e-01" cType="1" res="1.6121976077556610e-02" rms="2.1968677639961243e-01" purity="6.3292139768600464e-01" nType="0">
          <Node pos="l" depth="2" NCoef="0" IVar="-1" Cut="0.0000000000000000e+00" cType="1" res="9.1083749430254102e-04" rms="2.2641038894653320e-01" purity="6.8042260408401489e-01" nType="-99"/>
          <Node pos="r" depth="2" NCoef="0" IVar="-1" Cut="0.0000000000000000e+00" cType="1" res="-4.6793924411758780e-04" rms="2.0552046597003937e-01" purity="5.6257510185241699e-01" nType="-99"/>
        </Node>
      </Node>
    </BinaryTree>
    <BinaryTree type="DecisionTree" boostWeight="1.0000000000000000e+00" itree="1174">
      <Node pos="s" depth="0" NCoef="0" IVar="34" Cut="-1.4926186800003052e+00" cType="1" res="6.8134823814034462e-03" rms="2.1690502762794495e-01" purity="5.0243556499481201e-01" nType="0">
        <Node pos="l" depth="1" NCoef="0" IVar="1" Cut="2.5136332511901855e+00" cType="1" res="1.1401239037513733e-01" rms="3.0634784698486328e-01" purity="5.1894325017929077e-01" nType="0">
          <Node pos="l" depth="2" NCoef="0" IVar="-1" Cut="0.0000000000000000e+00" cType="1" res="8.6331358179450035e-03" rms="4.2567136883735657e-01" purity="4.8053291440010071e-01" nType="-99"/>
          <Node pos="r" depth="2" NCoef="0" IVar="-1" Cut="0.0000000000000000e+00" cType="1" res="3.8709558430127800e-04" rms="1.3111795485019684e-01" purity="5.4023438692092896e-01" nType="-99"/>
        </Node>
        <Node pos="r" depth="1" NCoef="0" IVar="25" Cut="1.1111268997192383e+00" cType="1" res="1.1293525312794372e-04" rms="2.0822885632514954e-01" purity="5.0140374898910522e-01" nType="0">
          <Node pos="l" depth="2" NCoef="0" IVar="-1" Cut="0.0000000000000000e+00" cType="1" res="2.0257444703020155e-04" rms="2.1589323878288269e-01" purity="5.2476304769515991e-01" nType="-99"/>
          <Node pos="r" depth="2" NCoef="0" IVar="-1" Cut="0.0000000000000000e+00" cType="1" res="-4.4632875360548496e-03" rms="0.0000000000000000e+00" purity="2.1693122386932373e-01" nType="-99"/>
        </Node>
      </Node>
    </BinaryTree>
    <BinaryTree type="DecisionTree" boostWeight="1.0000000000000000e+00" itree="1175">
      <Node pos="s" depth="0" NCoef="0" IVar="12" Cut="1.2345679104328156e-02" cType="1" res="8.3924485370516777e-03" rms="2.2045420110225677e-01" purity="4.9585056304931641e-01" nType="0">
        <Node pos="l" depth="1" NCoef="0" IVar="17" Cut="1.4356714487075806e+00" cType="1" res="-5.4274644702672958e-02" rms="2.0761609077453613e-01" purity="2.2213603556156158e-01" nType="0">
          <Node pos="l" depth="2" NCoef="0" IVar="-1" Cut="0.0000000000000000e+00" cType="1" res="3.6405643913894892e-03" rms="1.9271516799926758e-01" purity="5.0101831555366516e-02" nType="-99"/>
          <Node pos="r" depth="2" NCoef="0" IVar="-1" Cut="0.0000000000000000e+00" cType="1" res="-2.7950140647590160e-03" rms="1.9047294557094574e-01" purity="4.2419707775115967e-01" nType="-99"/>
        </Node>
        <Node pos="r" depth="1" NCoef="0" IVar="52" Cut="3.6333341598510742e+00" cType="1" res="1.9178027287125587e-02" rms="2.2080233693122864e-01" purity="5.4295933246612549e-01" nType="0">
          <Node pos="l" depth="2" NCoef="0" IVar="-1" Cut="0.0000000000000000e+00" cType="1" res="6.4973020926117897e-04" rms="2.2569744288921356e-01" purity="5.5263543128967285e-01" nType="-99"/>
          <Node pos="r" depth="2" NCoef="0" IVar="-1" Cut="0.0000000000000000e+00" cType="1" res="-7.2675044648349285e-03" rms="0.0000000000000000e+00" purity="1.7813156545162201e-01" nType="-99"/>
        </Node>
      </Node>
    </BinaryTree>
    <BinaryTree type="DecisionTree" boostWeight="1.0000000000000000e+00" itree="1176">
      <Node pos="s" depth="0" NCoef="0" IVar="0" Cut="9.3815588951110840e-01" cType="1" res="9.5262173563241959e-03" rms="2.1820990741252899e-01" purity="5.0658375024795532e-01" nType="0">
        <Node pos="l" depth="1" NCoef="0" IVar="3" Cut="5.1788220405578613e+00" cType="1" res="2.0497864112257957e-02" rms="2.2575689852237701e-01" purity="5.3900861740112305e-01" nType="0">
          <Node pos="l" depth="2" NCoef="0" IVar="-1" Cut="0.0000000000000000e+00" cType="1" res="3.8015196332708001e-04" rms="2.2199693322181702e-01" purity="5.3794014453887939e-01" nType="-99"/>
          <Node pos="r" depth="2" NCoef="0" IVar="-1" Cut="0.0000000000000000e+00" cType="1" res="2.5265682488679886e-03" rms="2.4899588525295258e-01" purity="5.5126208066940308e-01" nType="-99"/>
        </Node>
        <Node pos="r" depth="1" NCoef="0" IVar="15" Cut="1.4805761575698853e+00" cType="1" res="-5.0836663693189621e-02" rms="1.5771974623203278e-01" purity="3.2819136977195740e-01" nType="0">
          <Node pos="l" depth="2" NCoef="0" IVar="-1" Cut="0.0000000000000000e+00" cType="1" res="-5.2278739167377353e-04" rms="1.1815244704484940e-01" purity="3.1985360383987427e-01" nType="-99"/>
          <Node pos="r" depth="2" NCoef="0" IVar="-1" Cut="0.0000000000000000e+00" cType="1" res="-3.2767816446721554e-03" rms="2.0805935561656952e-01" purity="3.5562038421630859e-01" nType="-99"/>
        </Node>
      </Node>
    </BinaryTree>
    <BinaryTree type="DecisionTree" boostWeight="1.0000000000000000e+00" itree="1177">
      <Node pos="s" depth="0" NCoef="0" IVar="3" Cut="5.2113523483276367e+00" cType="1" res="1.1547599919140339e-02" rms="2.2166332602500916e-01" purity="5.0445926189422607e-01" nType="0">
        <Node pos="l" depth="1" NCoef="0" IVar="64" Cut="1.2345679104328156e-02" cType="1" res="4.0708337910473347e-03" rms="2.1600377559661865e-01" purity="5.0373548269271851e-01" nType="0">
          <Node pos="l" depth="2" NCoef="0" IVar="-1" Cut="0.0000000000000000e+00" cType="1" res="-4.2908084578812122e-03" rms="0.0000000000000000e+00" purity="1.8095982074737549e-01" nType="-99"/>
          <Node pos="r" depth="2" NCoef="0" IVar="-1" Cut="0.0000000000000000e+00" cType="1" res="2.5146442931145430e-04" rms="2.2267550230026245e-01" purity="5.1397460699081421e-01" nType="-99"/>
        </Node>
        <Node pos="r" depth="1" NCoef="0" IVar="17" Cut="1.0516324043273926e+00" cType="1" res="1.1811351776123047e-01" rms="2.6886078715324402e-01" purity="5.1477599143981934e-01" nType="0">
          <Node pos="l" depth="2" NCoef="0" IVar="-1" Cut="0.0000000000000000e+00" cType="1" res="-9.3913273885846138e-03" rms="0.0000000000000000e+00" purity="-2.6654193177819252e-02" nType="-99"/>
          <Node pos="r" depth="2" NCoef="0" IVar="-1" Cut="0.0000000000000000e+00" cType="1" res="3.3839205279946327e-03" rms="3.2781901955604553e-01" purity="7.9892623424530029e-01" nType="-99"/>
        </Node>
      </Node>
    </BinaryTree>
    <BinaryTree type="DecisionTree" boostWeight="1.0000000000000000e+00" itree="1178">
      <Node pos="s" depth="0" NCoef="0" IVar="17" Cut="1.5216873884201050e+00" cType="1" res="9.1176563873887062e-03" rms="2.1998816728591919e-01" purity="4.9984237551689148e-01" nType="0">
        <Node pos="l" depth="1" NCoef="0" IVar="15" Cut="1.4817870855331421e+00" cType="1" res="-7.6309973374009132e-03" rms="2.2015596926212311e-01" purity="2.6250693202018738e-01" nType="0">
          <Node pos="l" depth="2" NCoef="0" IVar="-1" Cut="0.0000000000000000e+00" cType="1" res="3.6818996886722744e-04" rms="2.0570446550846100e-01" purity="2.6327928900718689e-01" nType="-99"/>
          <Node pos="r" depth="2" NCoef="0" IVar="-1" Cut="0.0000000000000000e+00" cType="1" res="-1.8993779085576534e-03" rms="2.6560878753662109e-01" purity="2.5843065977096558e-01" nType="-99"/>
        </Node>
        <Node pos="r" depth="1" NCoef="0" IVar="15" Cut="1.5227357149124146e+00" cType="1" res="3.5046044737100601e-02" rms="2.1719554066658020e-01" purity="8.6725860834121704e-01" nType="0">
          <Node pos="l" depth="2" NCoef="0" IVar="-1" Cut="0.0000000000000000e+00" cType="1" res="1.4560043346136808e-03" rms="1.8186366558074951e-01" purity="9.2769938707351685e-01" nType="-99"/>
          <Node pos="r" depth="2" NCoef="0" IVar="-1" Cut="0.0000000000000000e+00" cType="1" res="-2.3162683646660298e-04" rms="3.1402489542961121e-01" purity="6.3372522592544556e-01" nType="-99"/>
        </Node>
      </Node>
    </BinaryTree>
    <BinaryTree type="DecisionTree" boostWeight="1.0000000000000000e+00" itree="1179">
      <Node pos="s" depth="0" NCoef="0" IVar="3" Cut="4.2734627723693848e+00" cType="1" res="-2.0819278433918953e-03" rms="1.9911649823188782e-01" purity="4.9895760416984558e-01" nType="0">
        <Node pos="l" depth="1" NCoef="0" IVar="-1" Cut="0.0000000000000000e+00" cType="1" res="-9.7166877239942551e-03" rms="0.0000000000000000e+00" purity="-8.3232961595058441e-02" nType="-99"/>
        <Node pos="r" depth="1" NCoef="0" IVar="36" Cut="1.4460117816925049e+00" cType="1" res="2.5693385396152735e-03" rms="2.0162062346935272e-01" purity="5.1295304298400879e-01" nType="0">
          <Node pos="l" depth="2" NCoef="0" IVar="-1" Cut="0.0000000000000000e+00" cType="1" res="-2.2131672594696283e-03" rms="8.3346284925937653e-02" purity="1.4762553572654724e-01" nType="-99"/>
          <Node pos="r" depth="2" NCoef="0" IVar="-1" Cut="0.0000000000000000e+00" cType="1" res="5.5080011952668428e-04" rms="2.3284362256526947e-01" purity="6.7320668697357178e-01" nType="-99"/>
        </Node>
      </Node>
    </BinaryTree>
    <BinaryTree type="DecisionTree" boostWeight="1.0000000000000000e+00" itree="1180">
      <Node pos="s" depth="0" NCoef="0" IVar="18" Cut="-1.1671048402786255e+00" cType="1" res="8.0615486949682236e-03" rms="2.1416859328746796e-01" purity="5.0977927446365356e-01" nType="0">
        <Node pos="l" depth="1" NCoef="0" IVar="52" Cut="2.4215600490570068e+00" cType="1" res="1.6909915953874588e-02" rms="2.1846644580364227e-01" purity="5.5011039972305298e-01" nType="0">
          <Node pos="l" depth="2" NCoef="0" IVar="-1" Cut="0.0000000000000000e+00" cType="1" res="-1.5253999736160040e-03" rms="4.5630190521478653e-02" purity="2.7788135409355164e-01" nType="-99"/>
          <Node pos="r" depth="2" NCoef="0" IVar="-1" Cut="0.0000000000000000e+00" cType="1" res="7.1843201294541359e-04" rms="2.2913011908531189e-01" purity="5.8257496356964111e-01" nType="-99"/>
        </Node>
        <Node pos="r" depth="1" NCoef="0" IVar="37" Cut="-1.9877436757087708e-01" cType="1" res="-5.7821180671453476e-02" rms="1.6462105512619019e-01" purity="2.0948342978954315e-01" nType="0">
          <Node pos="l" depth="2" NCoef="0" IVar="-1" Cut="0.0000000000000000e+00" cType="1" res="-8.8972336379811168e-04" rms="2.1821233630180359e-01" purity="2.8106200695037842e-01" nType="-99"/>
          <Node pos="r" depth="2" NCoef="0" IVar="-1" Cut="0.0000000000000000e+00" cType="1" res="-7.7379168942570686e-03" rms="0.0000000000000000e+00" purity="2.4471679702401161e-02" nType="-99"/>
        </Node>
      </Node>
    </BinaryTree>
    <BinaryTree type="DecisionTree" boostWeight="1.0000000000000000e+00" itree="1181">
      <Node pos="s" depth="0" NCoef="0" IVar="2" Cut="2.3411214351654053e+00" cType="1" res="1.2950166128575802e-02" rms="2.1707557141780853e-01" purity="5.0669336318969727e-01" nType="0">
        <Node pos="l" depth="1" NCoef="0" IVar="5" Cut="4.1460314393043518e-01" cType="1" res="-1.7148975282907486e-02" rms="1.6393934190273285e-01" purity="2.9165917634963989e-01" nType="0">
          <Node pos="l" depth="2" NCoef="0" IVar="-1" Cut="0.0000000000000000e+00" cType="1" res="1.6928859986364841e-04" rms="1.9694408774375916e-01" purity="3.8668319582939148e-01" nType="-99"/>
          <Node pos="r" depth="2" NCoef="0" IVar="-1" Cut="0.0000000000000000e+00" cType="1" res="-3.5717503633350134e-03" rms="0.0000000000000000e+00" purity="5.0995610654354095e-02" nType="-99"/>
        </Node>
        <Node pos="r" depth="1" NCoef="0" IVar="35" Cut="-1.4926934242248535e+00" cType="1" res="3.3033289015293121e-02" rms="2.4417734146118164e-01" purity="6.5017116069793701e-01" nType="0">
          <Node pos="l" depth="2" NCoef="0" IVar="-1" Cut="0.0000000000000000e+00" cType="1" res="-3.3111032098531723e-03" rms="1.1847950518131256e-01" purity="2.8863957524299622e-01" nType="-99"/>
          <Node pos="r" depth="2" NCoef="0" IVar="-1" Cut="0.0000000000000000e+00" cType="1" res="9.9184212740510702e-04" rms="2.5005200505256653e-01" purity="6.8034160137176514e-01" nType="-99"/>
        </Node>
      </Node>
    </BinaryTree>
    <BinaryTree type="DecisionTree" boostWeight="1.0000000000000000e+00" itree="1182">
      <Node pos="s" depth="0" NCoef="0" IVar="3" Cut="4.8068599700927734e+00" cType="1" res="9.0936273336410522e-03" rms="2.1710182726383209e-01" purity="4.9823272228240967e-01" nType="0">
        <Node pos="l" depth="1" NCoef="0" IVar="1" Cut="3.2184495925903320e+00" cType="1" res="-1.0888395830988884e-02" rms="2.1161261200904846e-01" purity="4.3259975314140320e-01" nType="0">
          <Node pos="l" depth="2" NCoef="0" IVar="-1" Cut="0.0000000000000000e+00" cType="1" res="-1.3454029103741050e-03" rms="1.8815335631370544e-01" purity="2.4588638544082642e-01" nType="-99"/>
          <Node pos="r" depth="2" NCoef="0" IVar="-1" Cut="0.0000000000000000e+00" cType="1" res="4.7967393766157329e-04" rms="2.3110246658325195e-01" purity="6.3655525445938110e-01" nType="-99"/>
        </Node>
        <Node pos="r" depth="1" NCoef="0" IVar="52" Cut="3.1728737354278564e+00" cType="1" res="4.0742591023445129e-02" rms="2.2187039256095886e-01" purity="6.0218685865402222e-01" nType="0">
          <Node pos="l" depth="2" NCoef="0" IVar="-1" Cut="0.0000000000000000e+00" cType="1" res="1.8450213829055429e-03" rms="2.4865700304508209e-01" purity="6.4004194736480713e-01" nType="-99"/>
          <Node pos="r" depth="2" NCoef="0" IVar="-1" Cut="0.0000000000000000e+00" cType="1" res="-7.3877970862668008e-05" rms="1.6191455721855164e-01" purity="5.4211819171905518e-01" nType="-99"/>
        </Node>
      </Node>
    </BinaryTree>
    <BinaryTree type="DecisionTree" boostWeight="1.0000000000000000e+00" itree="1183">
      <Node pos="s" depth="0" NCoef="0" IVar="14" Cut="-1.1833889484405518e+00" cType="1" res="-4.9098912859335542e-04" rms="2.0394347608089447e-01" purity="5.0082617998123169e-01" nType="0">
        <Node pos="l" depth="1" NCoef="0" IVar="6" Cut="2.2967171669006348e+00" cType="1" res="-3.0153797939419746e-02" rms="1.8176226317882538e-01" purity="3.2771912217140198e-01" nType="0">
          <Node pos="l" depth="2" NCoef="0" IVar="-1" Cut="0.0000000000000000e+00" cType="1" res="-2.9668272472918034e-03" rms="0.0000000000000000e+00" purity="1.3473853468894958e-01" nType="-99"/>
          <Node pos="r" depth="2" NCoef="0" IVar="-1" Cut="0.0000000000000000e+00" cType="1" res="-5.5233042075997218e-05" rms="2.4585878849029541e-01" purity="4.9356928467750549e-01" nType="-99"/>
        </Node>
        <Node pos="r" depth="1" NCoef="0" IVar="39" Cut="-1.1662901639938354e+00" cType="1" res="1.7379384487867355e-02" rms="2.1423754096031189e-01" purity="6.0511463880538940e-01" nType="0">
          <Node pos="l" depth="2" NCoef="0" IVar="-1" Cut="0.0000000000000000e+00" cType="1" res="7.4821809539571404e-04" rms="2.2075338661670685e-01" purity="6.4200121164321899e-01" nType="-99"/>
          <Node pos="r" depth="2" NCoef="0" IVar="-1" Cut="0.0000000000000000e+00" cType="1" res="-2.4118891451507807e-03" rms="1.3727976381778717e-01" purity="3.4267202019691467e-01" nType="-99"/>
        </Node>
      </Node>
    </BinaryTree>
    <BinaryTree type="DecisionTree" boostWeight="1.0000000000000000e+00" itree="1184">
      <Node pos="s" depth="0" NCoef="0" IVar="56" Cut="-1.3765758275985718e+00" cType="1" res="1.4377973275259137e-03" rms="1.9562461972236633e-01" purity="5.0591486692428589e-01" nType="0">
        <Node pos="l" depth="1" NCoef="0" IVar="16" Cut="1.1280331611633301e+00" cType="1" res="2.2260962054133415e-02" rms="2.1279345452785492e-01" purity="5.7501852512359619e-01" nType="0">
          <Node pos="l" depth="2" NCoef="0" IVar="-1" Cut="0.0000000000000000e+00" cType="1" res="7.9827505396679044e-04" rms="2.1574439108371735e-01" purity="5.9154498577117920e-01" nType="-99"/>
          <Node pos="r" depth="2" NCoef="0" IVar="-1" Cut="0.0000000000000000e+00" cType="1" res="-1.9026489462703466e-03" rms="7.3645144701004028e-02" purity="2.5710809230804443e-01" nType="-99"/>
        </Node>
        <Node pos="r" depth="1" NCoef="0" IVar="15" Cut="1.5219346284866333e+00" cType="1" res="-2.9137616977095604e-02" rms="1.6248504817485809e-01" purity="4.0444749593734741e-01" nType="0">
          <Node pos="l" depth="2" NCoef="0" IVar="-1" Cut="0.0000000000000000e+00" cType="1" res="-6.3833512831479311e-04" rms="1.4356434345245361e-01" purity="4.1436320543289185e-01" nType="-99"/>
          <Node pos="r" depth="2" NCoef="0" IVar="-1" Cut="0.0000000000000000e+00" cType="1" res="-3.1160446815192699e-03" rms="2.6148453354835510e-01" purity="3.1570264697074890e-01" nType="-99"/>
        </Node>
      </Node>
    </BinaryTree>
    <BinaryTree type="DecisionTree" boostWeight="1.0000000000000000e+00" itree="1185">
      <Node pos="s" depth="0" NCoef="0" IVar="27" Cut="1.2474974393844604e+00" cType="1" res="4.7394745051860809e-03" rms="2.0763975381851196e-01" purity="5.0066637992858887e-01" nType="0">
        <Node pos="l" depth="1" NCoef="0" IVar="54" Cut="1.2345679104328156e-02" cType="1" res="-5.6198496371507645e-02" rms="6.9876827299594879e-02" purity="1.3168610632419586e-01" nType="0">
          <Node pos="l" depth="2" NCoef="0" IVar="-1" Cut="0.0000000000000000e+00" cType="1" res="-1.0947305709123611e-02" rms="0.0000000000000000e+00" purity="4.4303774833679199e-02" nType="-99"/>
          <Node pos="r" depth="2" NCoef="0" IVar="-1" Cut="0.0000000000000000e+00" cType="1" res="-3.9147975621744990e-04" rms="1.9368001818656921e-01" purity="1.9585160911083221e-01" nType="-99"/>
        </Node>
        <Node pos="r" depth="1" NCoef="0" IVar="55" Cut="1.5122191905975342e+00" cType="1" res="1.3619728386402130e-02" rms="2.1923865377902985e-01" purity="5.5443650484085083e-01" nType="0">
          <Node pos="l" depth="2" NCoef="0" IVar="-1" Cut="0.0000000000000000e+00" cType="1" res="4.9521226901561022e-04" rms="2.2179676592350006e-01" purity="5.6657016277313232e-01" nType="-99"/>
          <Node pos="r" depth="2" NCoef="0" IVar="-1" Cut="0.0000000000000000e+00" cType="1" res="-4.3358919210731983e-03" rms="4.5645628124475479e-02" purity="2.2909447550773621e-01" nType="-99"/>
        </Node>
      </Node>
    </BinaryTree>
    <BinaryTree type="DecisionTree" boostWeight="1.0000000000000000e+00" itree="1186">
      <Node pos="s" depth="0" NCoef="0" IVar="0" Cut="6.8552935123443604e-01" cType="1" res="1.2676164507865906e-02" rms="2.2190202772617340e-01" purity="5.1037597656250000e-01" nType="0">
        <Node pos="l" depth="1" NCoef="0" IVar="3" Cut="5.2089753150939941e+00" cType="1" res="2.9683789238333702e-02" rms="2.3766635358333588e-01" purity="5.7334423065185547e-01" nType="0">
          <Node pos="l" depth="2" NCoef="0" IVar="-1" Cut="0.0000000000000000e+00" cType="1" res="6.2141538364812732e-04" rms="2.2919116914272308e-01" purity="5.7485723495483398e-01" nType="-99"/>
          <Node pos="r" depth="2" NCoef="0" IVar="-1" Cut="0.0000000000000000e+00" cType="1" res="3.8694895338267088e-03" rms="3.0558177828788757e-01" purity="5.5387872457504272e-01" nType="-99"/>
        </Node>
        <Node pos="r" depth="1" NCoef="0" IVar="56" Cut="-1.4540683031082153e+00" cType="1" res="-1.5998087823390961e-02" rms="1.8898721039295197e-01" purity="4.0421387553215027e-01" nType="0">
          <Node pos="l" depth="2" NCoef="0" IVar="-1" Cut="0.0000000000000000e+00" cType="1" res="5.3751998348161578e-04" rms="2.3675802350044250e-01" purity="4.9724790453910828e-01" nType="-99"/>
          <Node pos="r" depth="2" NCoef="0" IVar="-1" Cut="0.0000000000000000e+00" cType="1" res="-1.6926752869039774e-03" rms="1.1840672791004181e-01" purity="3.1650367379188538e-01" nType="-99"/>
        </Node>
      </Node>
    </BinaryTree>
    <BinaryTree type="DecisionTree" boostWeight="1.0000000000000000e+00" itree="1187">
      <Node pos="s" depth="0" NCoef="0" IVar="17" Cut="1.5231137275695801e+00" cType="1" res="3.0458669643849134e-03" rms="2.0264446735382080e-01" purity="5.0359070301055908e-01" nType="0">
        <Node pos="l" depth="1" NCoef="0" IVar="42" Cut="-1.6676542162895203e-01" cType="1" res="-1.7778484150767326e-02" rms="1.9442966580390930e-01" purity="2.6423805952072144e-01" nType="0">
          <Node pos="l" depth="2" NCoef="0" IVar="-1" Cut="0.0000000000000000e+00" cType="1" res="-1.9845725037157536e-03" rms="2.0706725772470236e-03" purity="2.1203731000423431e-01" nType="-99"/>
          <Node pos="r" depth="2" NCoef="0" IVar="-1" Cut="0.0000000000000000e+00" cType="1" res="2.4917843984439969e-04" rms="2.3786245286464691e-01" purity="2.9276344180107117e-01" nType="-99"/>
        </Node>
        <Node pos="r" depth="1" NCoef="0" IVar="17" Cut="1.5364832878112793e+00" cType="1" res="3.5548321902751923e-02" rms="2.1076679229736328e-01" purity="8.7717002630233765e-01" nType="0">
          <Node pos="l" depth="2" NCoef="0" IVar="-1" Cut="0.0000000000000000e+00" cType="1" res="1.8720229854807258e-04" rms="2.4423193931579590e-01" purity="8.1871193647384644e-01" nType="-99"/>
          <Node pos="r" depth="2" NCoef="0" IVar="-1" Cut="0.0000000000000000e+00" cType="1" res="1.5899776481091976e-03" rms="1.7990653216838837e-01" purity="9.1971778869628906e-01" nType="-99"/>
        </Node>
      </Node>
    </BinaryTree>
    <BinaryTree type="DecisionTree" boostWeight="1.0000000000000000e+00" itree="1188">
      <Node pos="s" depth="0" NCoef="0" IVar="2" Cut="2.5532896518707275e+00" cType="1" res="-2.1455038804560900e-03" rms="2.0742735266685486e-01" purity="4.8257347941398621e-01" nType="0">
        <Node pos="l" depth="1" NCoef="0" IVar="9" Cut="-7.1604937314987183e-01" cType="1" res="-2.5726310908794403e-02" rms="1.5720236301422119e-01" purity="3.2457810640335083e-01" nType="0">
          <Node pos="l" depth="2" NCoef="0" IVar="-1" Cut="0.0000000000000000e+00" cType="1" res="-5.2654691971838474e-03" rms="0.0000000000000000e+00" purity="1.0840050876140594e-01" nType="-99"/>
          <Node pos="r" depth="2" NCoef="0" IVar="-1" Cut="0.0000000000000000e+00" cType="1" res="-6.4753362676128745e-04" rms="1.7878791689872742e-01" purity="3.3511540293693542e-01" nType="-99"/>
        </Node>
        <Node pos="r" depth="1" NCoef="0" IVar="25" Cut="8.9972239732742310e-01" cType="1" res="2.3226562887430191e-02" rms="2.4796922504901886e-01" purity="6.5257066488265991e-01" nType="0">
          <Node pos="l" depth="2" NCoef="0" IVar="-1" Cut="0.0000000000000000e+00" cType="1" res="1.5305327251553535e-03" rms="2.6712104678153992e-01" purity="7.3677563667297363e-01" nType="-99"/>
          <Node pos="r" depth="2" NCoef="0" IVar="-1" Cut="0.0000000000000000e+00" cType="1" res="1.2838360271416605e-04" rms="2.3743964731693268e-01" purity="6.1956834793090820e-01" nType="-99"/>
        </Node>
      </Node>
    </BinaryTree>
    <BinaryTree type="DecisionTree" boostWeight="1.0000000000000000e+00" itree="1189">
      <Node pos="s" depth="0" NCoef="0" IVar="22" Cut="1.2345679104328156e-02" cType="1" res="8.8836960494518280e-03" rms="2.2156682610511780e-01" purity="5.0431388616561890e-01" nType="0">
        <Node pos="l" depth="1" NCoef="0" IVar="17" Cut="1.2389252185821533e+00" cType="1" res="1.0477951169013977e-01" rms="3.1625983119010925e-01" purity="3.2239836454391479e-01" nType="0">
          <Node pos="l" depth="2" NCoef="0" IVar="-1" Cut="0.0000000000000000e+00" cType="1" res="-2.2082482464611530e-03" rms="6.1682794243097305e-02" purity="9.0292552486062050e-03" nType="-99"/>
          <Node pos="r" depth="2" NCoef="0" IVar="-1" Cut="0.0000000000000000e+00" cType="1" res="3.8521329406648874e-03" rms="4.1168171167373657e-01" purity="6.3294184207916260e-01" nType="-99"/>
        </Node>
        <Node pos="r" depth="1" NCoef="0" IVar="48" Cut="2.1551313400268555e+00" cType="1" res="3.1496912706643343e-03" rms="2.1322263777256012e-01" purity="5.1519137620925903e-01" nType="0">
          <Node pos="l" depth="2" NCoef="0" IVar="-1" Cut="0.0000000000000000e+00" cType="1" res="-7.0572138065472245e-04" rms="1.8520645797252655e-01" purity="3.6592346429824829e-01" nType="-99"/>
          <Node pos="r" depth="2" NCoef="0" IVar="-1" Cut="0.0000000000000000e+00" cType="1" res="6.4675975590944290e-04" rms="2.3182974755764008e-01" purity="6.3841825723648071e-01" nType="-99"/>
        </Node>
      </Node>
    </BinaryTree>
    <BinaryTree type="DecisionTree" boostWeight="1.0000000000000000e+00" itree="1190">
      <Node pos="s" depth="0" NCoef="0" IVar="14" Cut="-7.1940267086029053e-01" cType="1" res="1.4625331386923790e-02" rms="2.3075889050960541e-01" purity="5.0403016805648804e-01" nType="0">
        <Node pos="l" depth="1" NCoef="0" IVar="56" Cut="-1.3765758275985718e+00" cType="1" res="-8.1092510372400284e-03" rms="1.9041021168231964e-01" purity="4.4930270314216614e-01" nType="0">
          <Node pos="l" depth="2" NCoef="0" IVar="-1" Cut="0.0000000000000000e+00" cType="1" res="3.9126040064729750e-04" rms="2.0935733616352081e-01" purity="5.1876807212829590e-01" nType="-99"/>
          <Node pos="r" depth="2" NCoef="0" IVar="-1" Cut="0.0000000000000000e+00" cType="1" res="-1.7552055651322007e-03" rms="1.4603273570537567e-01" purity="3.3105507493019104e-01" nType="-99"/>
        </Node>
        <Node pos="r" depth="1" NCoef="0" IVar="3" Cut="4.4522662162780762e+00" cType="1" res="4.7307144850492477e-02" rms="2.7544060349464417e-01" purity="5.8270305395126343e-01" nType="0">
          <Node pos="l" depth="2" NCoef="0" IVar="-1" Cut="0.0000000000000000e+00" cType="1" res="-2.9611359350383282e-03" rms="1.7174664139747620e-01" purity="2.7588823437690735e-01" nType="-99"/>
          <Node pos="r" depth="2" NCoef="0" IVar="-1" Cut="0.0000000000000000e+00" cType="1" res="1.5421774005517364e-03" rms="2.7834215760231018e-01" purity="6.0862070322036743e-01" nType="-99"/>
        </Node>
      </Node>
    </BinaryTree>
    <BinaryTree type="DecisionTree" boostWeight="1.0000000000000000e+00" itree="1191">
      <Node pos="s" depth="0" NCoef="0" IVar="14" Cut="1.4065815210342407e+00" cType="1" res="4.1655898094177246e-03" rms="2.1012020111083984e-01" purity="4.9774414300918579e-01" nType="0">
        <Node pos="l" depth="1" NCoef="0" IVar="2" Cut="1.9724442958831787e+00" cType="1" res="7.6872175559401512e-03" rms="2.1146374940872192e-01" purity="5.0449514389038086e-01" nType="0">
          <Node pos="l" depth="2" NCoef="0" IVar="-1" Cut="0.0000000000000000e+00" cType="1" res="-1.2224478414282203e-03" rms="1.4442911744117737e-01" purity="2.1697294712066650e-01" nType="-99"/>
          <Node pos="r" depth="2" NCoef="0" IVar="-1" Cut="0.0000000000000000e+00" cType="1" res="5.1870959578081965e-04" rms="2.2774596512317657e-01" purity="5.9709179401397705e-01" nType="-99"/>
        </Node>
        <Node pos="r" depth="1" NCoef="0" IVar="-1" Cut="0.0000000000000000e+00" cType="1" res="-3.0579387675970793e-03" rms="0.0000000000000000e+00" purity="1.7518228292465210e-01" nType="-99"/>
      </Node>
    </BinaryTree>
    <BinaryTree type="DecisionTree" boostWeight="1.0000000000000000e+00" itree="1192">
      <Node pos="s" depth="0" NCoef="0" IVar="52" Cut="2.4367394447326660e+00" cType="1" res="6.6403918899595737e-03" rms="2.1334767341613770e-01" purity="4.9061176180839539e-01" nType="0">
        <Node pos="l" depth="1" NCoef="0" IVar="1" Cut="3.0632348060607910e+00" cType="1" res="-5.1679130643606186e-02" rms="8.9140154421329498e-02" purity="2.4948029220104218e-01" nType="0">
          <Node pos="l" depth="2" NCoef="0" IVar="-1" Cut="0.0000000000000000e+00" cType="1" res="-4.9019469879567623e-03" rms="0.0000000000000000e+00" purity="4.1711647063493729e-02" nType="-99"/>
          <Node pos="r" depth="2" NCoef="0" IVar="-1" Cut="0.0000000000000000e+00" cType="1" res="9.2578126350417733e-04" rms="2.5175958871841431e-01" purity="5.6610357761383057e-01" nType="-99"/>
        </Node>
        <Node pos="r" depth="1" NCoef="0" IVar="22" Cut="1.2345679104328156e-02" cType="1" res="1.4849488623440266e-02" rms="2.2418664395809174e-01" purity="5.2455359697341919e-01" nType="0">
          <Node pos="l" depth="2" NCoef="0" IVar="-1" Cut="0.0000000000000000e+00" cType="1" res="4.3584578670561314e-03" rms="3.4308105707168579e-01" purity="3.6616539955139160e-01" nType="-99"/>
          <Node pos="r" depth="2" NCoef="0" IVar="-1" Cut="0.0000000000000000e+00" cType="1" res="2.6856618933379650e-04" rms="2.1447458863258362e-01" purity="5.3306692838668823e-01" nType="-99"/>
        </Node>
      </Node>
    </BinaryTree>
    <BinaryTree type="DecisionTree" boostWeight="1.0000000000000000e+00" itree="1193">
      <Node pos="s" depth="0" NCoef="0" IVar="60" Cut="-8.1075644493103027e-01" cType="1" res="4.9302233383059502e-03" rms="2.1551664173603058e-01" purity="4.9730244278907776e-01" nType="0">
        <Node pos="l" depth="1" NCoef="0" IVar="3" Cut="4.9970726966857910e+00" cType="1" res="1.0739749297499657e-02" rms="2.2146339714527130e-01" purity="5.2006882429122925e-01" nType="0">
          <Node pos="l" depth="2" NCoef="0" IVar="-1" Cut="0.0000000000000000e+00" cType="1" res="-6.7319582740310580e-05" rms="2.1938779950141907e-01" purity="4.9273598194122314e-01" nType="-99"/>
          <Node pos="r" depth="2" NCoef="0" IVar="-1" Cut="0.0000000000000000e+00" cType="1" res="1.8243722151964903e-03" rms="2.2195965051651001e-01" purity="6.3136160373687744e-01" nType="-99"/>
        </Node>
        <Node pos="r" depth="1" NCoef="0" IVar="16" Cut="-8.3848547935485840e-01" cType="1" res="-5.1692877896130085e-03" rms="0.0000000000000000e+00" purity="7.0005036890506744e-02" nType="-99"/>
      </Node>
    </BinaryTree>
    <BinaryTree type="DecisionTree" boostWeight="1.0000000000000000e+00" itree="1194">
      <Node pos="s" depth="0" NCoef="0" IVar="22" Cut="1.2345679104328156e-02" cType="1" res="6.7571592517197132e-03" rms="2.1975669264793396e-01" purity="4.9380385875701904e-01" nType="0">
        <Node pos="l" depth="1" NCoef="0" IVar="17" Cut="1.2365026473999023e+00" cType="1" res="9.6261441707611084e-02" rms="2.9395583271980286e-01" purity="3.0466127395629883e-01" nType="0">
          <Node pos="l" depth="2" NCoef="0" IVar="-1" Cut="0.0000000000000000e+00" cType="1" res="-4.7376328147947788e-03" rms="0.0000000000000000e+00" purity="-4.1582286357879639e-03" nType="-99"/>
          <Node pos="r" depth="2" NCoef="0" IVar="-1" Cut="0.0000000000000000e+00" cType="1" res="3.5321041941642761e-03" rms="4.0169745683670044e-01" purity="6.1325883865356445e-01" nType="-99"/>
        </Node>
        <Node pos="r" depth="1" NCoef="0" IVar="5" Cut="3.4089198708534241e-01" cType="1" res="1.6538129420951009e-03" rms="2.1362780034542084e-01" purity="5.0458836555480957e-01" nType="0">
          <Node pos="l" depth="2" NCoef="0" IVar="-1" Cut="0.0000000000000000e+00" cType="1" res="7.5702019967138767e-04" rms="2.0320869982242584e-01" purity="6.5074610710144043e-01" nType="-99"/>
          <Node pos="r" depth="2" NCoef="0" IVar="-1" Cut="0.0000000000000000e+00" cType="1" res="-7.4788177153095603e-04" rms="2.2618895769119263e-01" purity="2.5992086529731750e-01" nType="-99"/>
        </Node>
      </Node>
    </BinaryTree>
    <BinaryTree type="DecisionTree" boostWeight="1.0000000000000000e+00" itree="1195">
      <Node pos="s" depth="0" NCoef="0" IVar="18" Cut="-1.1668176651000977e+00" cType="1" res="4.2418581433594227e-03" rms="2.1463267505168915e-01" purity="4.8787692189216614e-01" nType="0">
        <Node pos="l" depth="1" NCoef="0" IVar="57" Cut="7.0875488221645355e-02" cType="1" res="1.4529462903738022e-02" rms="2.2193007171154022e-01" purity="5.2709025144577026e-01" nType="0">
          <Node pos="l" depth="2" NCoef="0" IVar="-1" Cut="0.0000000000000000e+00" cType="1" res="7.8694015974178910e-04" rms="2.3858304321765900e-01" purity="5.7570332288742065e-01" nType="-99"/>
          <Node pos="r" depth="2" NCoef="0" IVar="-1" Cut="0.0000000000000000e+00" cType="1" res="-9.5647800480946898e-04" rms="1.4710743725299835e-01" purity="3.6904886364936829e-01" nType="-99"/>
        </Node>
        <Node pos="r" depth="1" NCoef="0" IVar="48" Cut="1.7447328567504883e+00" cType="1" res="-6.9629542529582977e-02" rms="1.3028605282306671e-01" purity="2.0630058646202087e-01" nType="0">
          <Node pos="l" depth="2" NCoef="0" IVar="-1" Cut="0.0000000000000000e+00" cType="1" res="-1.2126830406486988e-02" rms="0.0000000000000000e+00" purity="-2.9959335923194885e-02" nType="-99"/>
          <Node pos="r" depth="2" NCoef="0" IVar="-1" Cut="0.0000000000000000e+00" cType="1" res="-9.8391342908143997e-04" rms="2.1066373586654663e-01" purity="3.3388292789459229e-01" nType="-99"/>
        </Node>
      </Node>
    </BinaryTree>
    <BinaryTree type="DecisionTree" boostWeight="1.0000000000000000e+00" itree="1196">
      <Node pos="s" depth="0" NCoef="0" IVar="17" Cut="1.5220416784286499e+00" cType="1" res="3.2508645672351122e-03" rms="2.0453526079654694e-01" purity="4.9659547209739685e-01" nType="0">
        <Node pos="l" depth="1" NCoef="0" IVar="31" Cut="3.5472238063812256e+00" cType="1" res="-2.0018743351101875e-02" rms="1.9022230803966522e-01" purity="2.4851274490356445e-01" nType="0">
          <Node pos="l" depth="2" NCoef="0" IVar="-1" Cut="0.0000000000000000e+00" cType="1" res="-3.6130470107309520e-04" rms="2.0839747786521912e-01" purity="2.6155358552932739e-01" nType="-99"/>
          <Node pos="r" depth="2" NCoef="0" IVar="-1" Cut="0.0000000000000000e+00" cType="1" res="-4.0896753780543804e-03" rms="0.0000000000000000e+00" purity="9.5360308885574341e-02" nType="-99"/>
        </Node>
        <Node pos="r" depth="1" NCoef="0" IVar="38" Cut="-1.1071370840072632e+00" cType="1" res="3.8636852055788040e-02" rms="2.1988917887210846e-01" purity="8.7385380268096924e-01" nType="0">
          <Node pos="l" depth="2" NCoef="0" IVar="-1" Cut="0.0000000000000000e+00" cType="1" res="2.2973702289164066e-03" rms="2.3631577193737030e-01" purity="8.6497569084167480e-01" nType="-99"/>
          <Node pos="r" depth="2" NCoef="0" IVar="-1" Cut="0.0000000000000000e+00" cType="1" res="6.5675005316734314e-04" rms="2.1355105936527252e-01" purity="8.7594068050384521e-01" nType="-99"/>
        </Node>
      </Node>
    </BinaryTree>
    <BinaryTree type="DecisionTree" boostWeight="1.0000000000000000e+00" itree="1197">
      <Node pos="s" depth="0" NCoef="0" IVar="15" Cut="1.5212173461914062e+00" cType="1" res="3.4584098029881716e-03" rms="2.1863251924514771e-01" purity="4.8745745420455933e-01" nType="0">
        <Node pos="l" depth="1" NCoef="0" IVar="14" Cut="-1.2994023561477661e+00" cType="1" res="1.1991595849394798e-02" rms="2.0480188727378845e-01" purity="4.9110928177833557e-01" nType="0">
          <Node pos="l" depth="2" NCoef="0" IVar="-1" Cut="0.0000000000000000e+00" cType="1" res="-9.9558709189295769e-04" rms="1.6815151274204254e-01" purity="2.2590218484401703e-01" nType="-99"/>
          <Node pos="r" depth="2" NCoef="0" IVar="-1" Cut="0.0000000000000000e+00" cType="1" res="7.6725613325834274e-04" rms="2.1661725640296936e-01" purity="6.0347449779510498e-01" nType="-99"/>
        </Node>
        <Node pos="r" depth="1" NCoef="0" IVar="15" Cut="1.5331492424011230e+00" cType="1" res="-6.4638048410415649e-02" rms="2.9885926842689514e-01" purity="4.5831564068794250e-01" nType="0">
          <Node pos="l" depth="2" NCoef="0" IVar="-1" Cut="0.0000000000000000e+00" cType="1" res="1.8658288172446191e-04" rms="2.7220517396926880e-01" purity="6.3961148262023926e-01" nType="-99"/>
          <Node pos="r" depth="2" NCoef="0" IVar="-1" Cut="0.0000000000000000e+00" cType="1" res="-5.0479406490921974e-03" rms="3.0283188819885254e-01" purity="2.2336997091770172e-01" nType="-99"/>
        </Node>
      </Node>
    </BinaryTree>
    <BinaryTree type="DecisionTree" boostWeight="1.0000000000000000e+00" itree="1198">
      <Node pos="s" depth="0" NCoef="0" IVar="3" Cut="4.8842287063598633e+00" cType="1" res="8.8043138384819031e-03" rms="2.1671313047409058e-01" purity="4.9707511067390442e-01" nType="0">
        <Node pos="l" depth="1" NCoef="0" IVar="1" Cut="3.1320092678070068e+00" cType="1" res="-8.6785685271024704e-03" rms="2.1010291576385498e-01" purity="4.5055022835731506e-01" nType="0">
          <Node pos="l" depth="2" NCoef="0" IVar="-1" Cut="0.0000000000000000e+00" cType="1" res="-1.6729617491364479e-03" rms="1.4535473287105560e-01" purity="2.3798388242721558e-01" nType="-99"/>
          <Node pos="r" depth="2" NCoef="0" IVar="-1" Cut="0.0000000000000000e+00" cType="1" res="6.2712666112929583e-04" rms="2.4845021963119507e-01" purity="6.3612890243530273e-01" nType="-99"/>
        </Node>
        <Node pos="r" depth="1" NCoef="0" IVar="6" Cut="1.9593642950057983e+00" cType="1" res="4.9014929682016373e-02" rms="2.2612777352333069e-01" purity="6.0408240556716919e-01" nType="0">
          <Node pos="l" depth="2" NCoef="0" IVar="-1" Cut="0.0000000000000000e+00" cType="1" res="2.4237169418483973e-03" rms="3.0014762282371521e-01" purity="4.4864708185195923e-01" nType="-99"/>
          <Node pos="r" depth="2" NCoef="0" IVar="-1" Cut="0.0000000000000000e+00" cType="1" res="7.1261165430769324e-04" rms="1.6390252113342285e-01" purity="6.9307291507720947e-01" nType="-99"/>
        </Node>
      </Node>
    </BinaryTree>
    <BinaryTree type="DecisionTree" boostWeight="1.0000000000000000e+00" itree="1199">
      <Node pos="s" depth="0" NCoef="0" IVar="40" Cut="5.8272004127502441e-01" cType="1" res="7.9757813364267349e-03" rms="2.1458227932453156e-01" purity="5.0462716817855835e-01" nType="0">
        <Node pos="l" depth="1" NCoef="0" IVar="36" Cut="1.1746133565902710e+00" cType="1" res="4.5656971633434296e-02" rms="2.4243764579296112e-01" purity="5.6887787580490112e-01" nType="0">
          <Node pos="l" depth="2" NCoef="0" IVar="-1" Cut="0.0000000000000000e+00" cType="1" res="-2.6320251636207104e-03" rms="0.0000000000000000e+00" purity="6.3008382916450500e-02" nType="-99"/>
          <Node pos="r" depth="2" NCoef="0" IVar="-1" Cut="0.0000000000000000e+00" cType="1" res="1.4180719153955579e-03" rms="2.6681581139564514e-01" purity="6.6886287927627563e-01" nType="-99"/>
        </Node>
        <Node pos="r" depth="1" NCoef="0" IVar="16" Cut="9.7749888896942139e-01" cType="1" res="-9.0770972892642021e-03" rms="1.9837068021297455e-01" purity="4.7555014491081238e-01" nType="0">
          <Node pos="l" depth="2" NCoef="0" IVar="-1" Cut="0.0000000000000000e+00" cType="1" res="-7.5159200605412479e-06" rms="2.0383566617965698e-01" purity="4.9605235457420349e-01" nType="-99"/>
          <Node pos="r" depth="2" NCoef="0" IVar="-1" Cut="0.0000000000000000e+00" cType="1" res="-2.8364206664264202e-03" rms="5.1796119660139084e-02" purity="2.3897607624530792e-01" nType="-99"/>
        </Node>
      </Node>
    </BinaryTree>
    <BinaryTree type="DecisionTree" boostWeight="1.0000000000000000e+00" itree="1200">
      <Node pos="s" depth="0" NCoef="0" IVar="3" Cut="4.8867363929748535e+00" cType="1" res="1.9642123952507973e-03" rms="2.1765865385532379e-01" purity="4.9114325642585754e-01" nType="0">
        <Node pos="l" depth="1" NCoef="0" IVar="48" Cut="1.4330636262893677e+00" cType="1" res="-1.6051873564720154e-02" rms="2.1194447576999664e-01" purity="4.3598693609237671e-01" nType="0">
          <Node pos="l" depth="2" NCoef="0" IVar="-1" Cut="0.0000000000000000e+00" cType="1" res="-2.3714664857834578e-03" rms="1.2089220434427261e-01" purity="1.5308263897895813e-01" nType="-99"/>
          <Node pos="r" depth="2" NCoef="0" IVar="-1" Cut="0.0000000000000000e+00" cType="1" res="-1.0269106496707536e-05" rms="2.3051247000694275e-01" purity="5.2250945568084717e-01" nType="-99"/>
        </Node>
        <Node pos="r" depth="1" NCoef="0" IVar="56" Cut="-1.3776968717575073e+00" cType="1" res="4.1844069957733154e-02" rms="2.2472281754016876e-01" purity="6.1323553323745728e-01" nType="0">
          <Node pos="l" depth="2" NCoef="0" IVar="-1" Cut="0.0000000000000000e+00" cType="1" res="2.8354912064969540e-03" rms="2.7419906854629517e-01" purity="7.4340558052062988e-01" nType="-99"/>
          <Node pos="r" depth="2" NCoef="0" IVar="-1" Cut="0.0000000000000000e+00" cType="1" res="1.4662989997304976e-04" rms="1.7245231568813324e-01" purity="5.2149564027786255e-01" nType="-99"/>
        </Node>
      </Node>
    </BinaryTree>
    <BinaryTree type="DecisionTree" boostWeight="1.0000000000000000e+00" itree="1201">
      <Node pos="s" depth="0" NCoef="0" IVar="15" Cut="1.5225218534469604e+00" cType="1" res="9.5371268689632416e-03" rms="2.1984615921974182e-01" purity="5.0490522384643555e-01" nType="0">
        <Node pos="l" depth="1" NCoef="0" IVar="3" Cut="4.9657592773437500e+00" cType="1" res="1.8934896215796471e-02" rms="2.0939582586288452e-01" purity="5.0937980413436890e-01" nType="0">
          <Node pos="l" depth="2" NCoef="0" IVar="-1" Cut="0.0000000000000000e+00" cType="1" res="1.3867835514247417e-04" rms="1.9643567502498627e-01" purity="4.7282895445823669e-01" nType="-99"/>
          <Node pos="r" depth="2" NCoef="0" IVar="-1" Cut="0.0000000000000000e+00" cType="1" res="1.8914943793788552e-03" rms="2.4026560783386230e-01" purity="6.2526899576187134e-01" nType="-99"/>
        </Node>
        <Node pos="r" depth="1" NCoef="0" IVar="56" Cut="-1.1074702739715576e+00" cType="1" res="-6.8117417395114899e-02" rms="2.8042513132095337e-01" purity="4.6793168783187866e-01" nType="0">
          <Node pos="l" depth="2" NCoef="0" IVar="-1" Cut="0.0000000000000000e+00" cType="1" res="-6.1043386813253164e-04" rms="2.9624629020690918e-01" purity="5.5277621746063232e-01" nType="-99"/>
          <Node pos="r" depth="2" NCoef="0" IVar="-1" Cut="0.0000000000000000e+00" cType="1" res="-6.8569444119930267e-03" rms="9.6108801662921906e-02" purity="1.0672625154256821e-01" nType="-99"/>
        </Node>
      </Node>
    </BinaryTree>
    <BinaryTree type="DecisionTree" boostWeight="1.0000000000000000e+00" itree="1202">
      <Node pos="s" depth="0" NCoef="0" IVar="48" Cut="6.9266909360885620e-01" cType="1" res="9.5515837892889977e-03" rms="2.1613566577434540e-01" purity="4.9467876553535461e-01" nType="0">
        <Node pos="l" depth="1" NCoef="0" IVar="-1" Cut="0.0000000000000000e+00" cType="1" res="-5.6959716603159904e-03" rms="0.0000000000000000e+00" purity="-6.0836978256702423e-02" nType="-99"/>
        <Node pos="r" depth="1" NCoef="0" IVar="52" Cut="3.2281608581542969e+00" cType="1" res="1.4321629889309406e-02" rms="2.2346335649490356e-01" purity="5.0983846187591553e-01" nType="0">
          <Node pos="l" depth="2" NCoef="0" IVar="-1" Cut="0.0000000000000000e+00" cType="1" res="7.6247658580541611e-04" rms="2.2792564332485199e-01" purity="5.3840941190719604e-01" nType="-99"/>
          <Node pos="r" depth="2" NCoef="0" IVar="-1" Cut="0.0000000000000000e+00" cType="1" res="-7.5357145396992564e-04" rms="2.0489099621772766e-01" purity="4.2426419258117676e-01" nType="-99"/>
        </Node>
      </Node>
    </BinaryTree>
    <BinaryTree type="DecisionTree" boostWeight="1.0000000000000000e+00" itree="1203">
      <Node pos="s" depth="0" NCoef="0" IVar="9" Cut="-7.1604937314987183e-01" cType="1" res="1.6979601932689548e-03" rms="2.0703981816768646e-01" purity="4.9781891703605652e-01" nType="0">
        <Node pos="l" depth="1" NCoef="0" IVar="18" Cut="-1.7470490932464600e+00" cType="1" res="-3.3269261475652456e-03" rms="0.0000000000000000e+00" purity="2.0006440579891205e-01" nType="-99"/>
        <Node pos="r" depth="1" NCoef="0" IVar="15" Cut="1.5225218534469604e+00" cType="1" res="7.0243156515061855e-03" rms="2.1313144266605377e-01" purity="5.1093471050262451e-01" nType="0">
          <Node pos="l" depth="2" NCoef="0" IVar="-1" Cut="0.0000000000000000e+00" cType="1" res="5.1554222591221333e-04" rms="2.0281602442264557e-01" purity="5.1282280683517456e-01" nType="-99"/>
          <Node pos="r" depth="2" NCoef="0" IVar="-1" Cut="0.0000000000000000e+00" cType="1" res="-1.3783521717414260e-03" rms="2.6815167069435120e-01" purity="4.9677306413650513e-01" nType="-99"/>
        </Node>
      </Node>
    </BinaryTree>
    <BinaryTree type="DecisionTree" boostWeight="1.0000000000000000e+00" itree="1204">
      <Node pos="s" depth="0" NCoef="0" IVar="48" Cut="1.0173206329345703e+00" cType="1" res="4.5031448826193810e-03" rms="2.1062426269054413e-01" purity="4.9874040484428406e-01" nType="0">
        <Node pos="l" depth="1" NCoef="0" IVar="57" Cut="-2.7256408333778381e-01" cType="1" res="-2.1651680581271648e-03" rms="0.0000000000000000e+00" purity="6.5743505954742432e-02" nType="-99"/>
        <Node pos="r" depth="1" NCoef="0" IVar="26" Cut="1.2345679104328156e-02" cType="1" res="1.3674031011760235e-02" rms="2.2388528287410736e-01" purity="5.5536180734634399e-01" nType="0">
          <Node pos="l" depth="2" NCoef="0" IVar="-1" Cut="0.0000000000000000e+00" cType="1" res="5.1464879652485251e-04" rms="2.2649225592613220e-01" purity="5.7319426536560059e-01" nType="-99"/>
          <Node pos="r" depth="2" NCoef="0" IVar="-1" Cut="0.0000000000000000e+00" cType="1" res="-6.5204282291233540e-03" rms="0.0000000000000000e+00" purity="-1.2846262194216251e-02" nType="-99"/>
        </Node>
      </Node>
    </BinaryTree>
    <BinaryTree type="DecisionTree" boostWeight="1.0000000000000000e+00" itree="1205">
      <Node pos="s" depth="0" NCoef="0" IVar="6" Cut="1.1463922262191772e+00" cType="1" res="2.8487034142017365e-03" rms="2.0491957664489746e-01" purity="4.9827799201011658e-01" nType="0">
        <Node pos="l" depth="1" NCoef="0" IVar="41" Cut="-6.2209047377109528e-02" cType="1" res="-3.7887298967689276e-03" rms="0.0000000000000000e+00" purity="3.7794880568981171e-02" nType="-99"/>
        <Node pos="r" depth="1" NCoef="0" IVar="36" Cut="1.4070059061050415e+00" cType="1" res="1.0236361064016819e-02" rms="2.1471923589706421e-01" purity="5.4042035341262817e-01" nType="0">
          <Node pos="l" depth="2" NCoef="0" IVar="-1" Cut="0.0000000000000000e+00" cType="1" res="-1.4276898000389338e-03" rms="1.3644154369831085e-01" purity="1.2754765152931213e-01" nType="-99"/>
          <Node pos="r" depth="2" NCoef="0" IVar="-1" Cut="0.0000000000000000e+00" cType="1" res="5.4783164523541927e-04" rms="2.3459024727344513e-01" purity="6.8374484777450562e-01" nType="-99"/>
        </Node>
      </Node>
    </BinaryTree>
    <BinaryTree type="DecisionTree" boostWeight="1.0000000000000000e+00" itree="1206">
      <Node pos="s" depth="0" NCoef="0" IVar="21" Cut="2.5020977854728699e-01" cType="1" res="9.4027873128652573e-03" rms="2.1604725718498230e-01" purity="4.9993684887886047e-01" nType="0">
        <Node pos="l" depth="1" NCoef="0" IVar="36" Cut="1.3096462190151215e-01" cType="1" res="1.6204588115215302e-02" rms="2.2307179868221283e-01" purity="5.1467233896255493e-01" nType="0">
          <Node pos="l" depth="2" NCoef="0" IVar="-1" Cut="0.0000000000000000e+00" cType="1" res="-6.9016818888485432e-03" rms="0.0000000000000000e+00" purity="8.8291047140955925e-03" nType="-99"/>
          <Node pos="r" depth="2" NCoef="0" IVar="-1" Cut="0.0000000000000000e+00" cType="1" res="6.5389019437134266e-04" rms="2.4200615286827087e-01" purity="6.0198664665222168e-01" nType="-99"/>
        </Node>
        <Node pos="r" depth="1" NCoef="0" IVar="14" Cut="-3.3409470319747925e-01" cType="1" res="-2.5076770689338446e-03" rms="0.0000000000000000e+00" purity="3.1450566649436951e-01" nType="-99"/>
      </Node>
    </BinaryTree>
    <BinaryTree type="DecisionTree" boostWeight="1.0000000000000000e+00" itree="1207">
      <Node pos="s" depth="0" NCoef="0" IVar="0" Cut="6.8031471967697144e-01" cType="1" res="3.1517338939011097e-03" rms="2.0962642133235931e-01" purity="4.9100363254547119e-01" nType="0">
        <Node pos="l" depth="1" NCoef="0" IVar="43" Cut="1.2345679104328156e-02" cType="1" res="2.2591324523091316e-02" rms="2.3095843195915222e-01" purity="5.5483281612396240e-01" nType="0">
          <Node pos="l" depth="2" NCoef="0" IVar="-1" Cut="0.0000000000000000e+00" cType="1" res="4.2624855414032936e-03" rms="3.3238777518272400e-01" purity="4.3854209780693054e-01" nType="-99"/>
          <Node pos="r" depth="2" NCoef="0" IVar="-1" Cut="0.0000000000000000e+00" cType="1" res="4.8122598673216999e-04" rms="2.2314731776714325e-01" purity="5.6053042411804199e-01" nType="-99"/>
        </Node>
        <Node pos="r" depth="1" NCoef="0" IVar="16" Cut="-6.5267600119113922e-02" cType="1" res="-2.8196869418025017e-02" rms="1.6490854322910309e-01" purity="3.8807165622711182e-01" nType="0">
          <Node pos="l" depth="2" NCoef="0" IVar="-1" Cut="0.0000000000000000e+00" cType="1" res="-2.0323852368164808e-04" rms="1.8841491639614105e-01" purity="4.2956054210662842e-01" nType="-99"/>
          <Node pos="r" depth="2" NCoef="0" IVar="-1" Cut="0.0000000000000000e+00" cType="1" res="-2.5317145045846701e-03" rms="0.0000000000000000e+00" purity="2.6589113473892212e-01" nType="-99"/>
        </Node>
      </Node>
    </BinaryTree>
    <BinaryTree type="DecisionTree" boostWeight="1.0000000000000000e+00" itree="1208">
      <Node pos="s" depth="0" NCoef="0" IVar="14" Cut="1.4055399894714355e+00" cType="1" res="1.2254404835402966e-02" rms="2.2284452617168427e-01" purity="5.0072735548019409e-01" nType="0">
        <Node pos="l" depth="1" NCoef="0" IVar="5" Cut="2.8704059123992920e-01" cType="1" res="1.6414532437920570e-02" rms="2.2272202372550964e-01" purity="5.0869745016098022e-01" nType="0">
          <Node pos="l" depth="2" NCoef="0" IVar="-1" Cut="0.0000000000000000e+00" cType="1" res="1.3087403494864702e-03" rms="2.1023677289485931e-01" purity="6.7546999454498291e-01" nType="-99"/>
          <Node pos="r" depth="2" NCoef="0" IVar="-1" Cut="0.0000000000000000e+00" cType="1" res="-2.6239763246849179e-04" rms="2.3502591252326965e-01" purity="2.9501298069953918e-01" nType="-99"/>
        </Node>
        <Node pos="r" depth="1" NCoef="0" IVar="-1" Cut="0.0000000000000000e+00" cType="1" res="-3.9319223724305630e-03" rms="1.1497542262077332e-01" purity="1.2632529437541962e-01" nType="-99"/>
      </Node>
    </BinaryTree>
    <BinaryTree type="DecisionTree" boostWeight="1.0000000000000000e+00" itree="1209">
      <Node pos="s" depth="0" NCoef="0" IVar="40" Cut="5.1264488697052002e-01" cType="1" res="1.1743515497073531e-03" rms="2.0609053969383240e-01" purity="4.9881699681282043e-01" nType="0">
        <Node pos="l" depth="1" NCoef="0" IVar="60" Cut="-1.6621053218841553e+00" cType="1" res="4.8409909009933472e-02" rms="2.5175571441650391e-01" purity="5.5468380451202393e-01" nType="0">
          <Node pos="l" depth="2" NCoef="0" IVar="-1" Cut="0.0000000000000000e+00" cType="1" res="1.9973171874880791e-03" rms="2.7907380461692810e-01" purity="6.2673753499984741e-01" nType="-99"/>
          <Node pos="r" depth="2" NCoef="0" IVar="-1" Cut="0.0000000000000000e+00" cType="1" res="-3.3828191226348281e-04" rms="1.8340604007244110e-01" purity="4.3517526984214783e-01" nType="-99"/>
        </Node>
        <Node pos="r" depth="1" NCoef="0" IVar="48" Cut="9.4233071804046631e-01" cType="1" res="-1.3486581854522228e-02" rms="1.8728736042976379e-01" purity="4.8147708177566528e-01" nType="0">
          <Node pos="l" depth="2" NCoef="0" IVar="-1" Cut="0.0000000000000000e+00" cType="1" res="-3.5469466820359230e-03" rms="0.0000000000000000e+00" purity="3.7208806723356247e-02" nType="-99"/>
          <Node pos="r" depth="2" NCoef="0" IVar="-1" Cut="0.0000000000000000e+00" cType="1" res="-1.3284209126140922e-04" rms="2.0722731947898865e-01" purity="5.3268128633499146e-01" nType="-99"/>
        </Node>
      </Node>
    </BinaryTree>
    <BinaryTree type="DecisionTree" boostWeight="1.0000000000000000e+00" itree="1210">
      <Node pos="s" depth="0" NCoef="0" IVar="60" Cut="-6.7546820640563965e-01" cType="1" res="1.2847427278757095e-02" rms="2.2263856232166290e-01" purity="5.1174581050872803e-01" nType="0">
        <Node pos="l" depth="1" NCoef="0" IVar="3" Cut="5.2018990516662598e+00" cType="1" res="1.6966404393315315e-02" rms="2.2754134237766266e-01" purity="5.2492934465408325e-01" nType="0">
          <Node pos="l" depth="2" NCoef="0" IVar="-1" Cut="0.0000000000000000e+00" cType="1" res="3.2680408912710845e-04" rms="2.2486717998981476e-01" purity="5.2512419223785400e-01" nType="-99"/>
          <Node pos="r" depth="2" NCoef="0" IVar="-1" Cut="0.0000000000000000e+00" cType="1" res="2.3780043702572584e-03" rms="2.4795401096343994e-01" purity="5.2231574058532715e-01" nType="-99"/>
        </Node>
        <Node pos="r" depth="1" NCoef="0" IVar="-1" Cut="0.0000000000000000e+00" cType="1" res="-5.9567480348050594e-03" rms="0.0000000000000000e+00" purity="1.3202303647994995e-01" nType="-99"/>
      </Node>
    </BinaryTree>
    <BinaryTree type="DecisionTree" boostWeight="1.0000000000000000e+00" itree="1211">
      <Node pos="s" depth="0" NCoef="0" IVar="64" Cut="1.2345679104328156e-02" cType="1" res="2.5887400843203068e-03" rms="2.0971515774726868e-01" purity="5.0108599662780762e-01" nType="0">
        <Node pos="l" depth="1" NCoef="0" IVar="-1" Cut="0.0000000000000000e+00" cType="1" res="-5.8925226330757141e-03" rms="0.0000000000000000e+00" purity="1.7670923471450806e-01" nType="-99"/>
        <Node pos="r" depth="1" NCoef="0" IVar="40" Cut="5.3023719787597656e-01" cType="1" res="9.1767171397805214e-03" rms="2.2162447869777679e-01" purity="5.1359570026397705e-01" nType="0">
          <Node pos="l" depth="2" NCoef="0" IVar="-1" Cut="0.0000000000000000e+00" cType="1" res="1.4552166685461998e-03" rms="2.6482582092285156e-01" purity="5.6170332431793213e-01" nType="-99"/>
          <Node pos="r" depth="2" NCoef="0" IVar="-1" Cut="0.0000000000000000e+00" cType="1" res="-1.6905408119782805e-04" rms="2.0364205539226532e-01" purity="4.9806192517280579e-01" nType="-99"/>
        </Node>
      </Node>
    </BinaryTree>
    <BinaryTree type="DecisionTree" boostWeight="1.0000000000000000e+00" itree="1212">
      <Node pos="s" depth="0" NCoef="0" IVar="0" Cut="4.8092821240425110e-01" cType="1" res="7.4989902786910534e-03" rms="2.0743621885776520e-01" purity="5.0314360857009888e-01" nType="0">
        <Node pos="l" depth="1" NCoef="0" IVar="3" Cut="5.3070993423461914e+00" cType="1" res="3.6636460572481155e-02" rms="2.3399330675601959e-01" purity="5.8251368999481201e-01" nType="0">
          <Node pos="l" depth="2" NCoef="0" IVar="-1" Cut="0.0000000000000000e+00" cType="1" res="7.9577165888622403e-04" rms="2.2474873065948486e-01" purity="5.8345609903335571e-01" nType="-99"/>
          <Node pos="r" depth="2" NCoef="0" IVar="-1" Cut="0.0000000000000000e+00" cType="1" res="4.7298180870711803e-03" rms="3.2917955517768860e-01" purity="5.6419223546981812e-01" nType="-99"/>
        </Node>
        <Node pos="r" depth="1" NCoef="0" IVar="16" Cut="-6.4576424658298492e-02" cType="1" res="-1.4832386747002602e-02" rms="1.8137165904045105e-01" purity="4.4231328368186951e-01" nType="0">
          <Node pos="l" depth="2" NCoef="0" IVar="-1" Cut="0.0000000000000000e+00" cType="1" res="1.5742564573884010e-04" rms="2.1083372831344604e-01" purity="4.7032925486564636e-01" nType="-99"/>
          <Node pos="r" depth="2" NCoef="0" IVar="-1" Cut="0.0000000000000000e+00" cType="1" res="-1.8920531729236245e-03" rms="0.0000000000000000e+00" purity="3.6136451363563538e-01" nType="-99"/>
        </Node>
      </Node>
    </BinaryTree>
    <BinaryTree type="DecisionTree" boostWeight="1.0000000000000000e+00" itree="1213">
      <Node pos="s" depth="0" NCoef="0" IVar="56" Cut="-1.4538639783859253e+00" cType="1" res="1.0083770030178130e-04" rms="1.9695277512073517e-01" purity="5.0924915075302124e-01" nType="0">
        <Node pos="l" depth="1" NCoef="0" IVar="35" Cut="-1.3770554065704346e+00" cType="1" res="2.8567202389240265e-02" rms="2.2363713383674622e-01" purity="5.9824204444885254e-01" nType="0">
          <Node pos="l" depth="2" NCoef="0" IVar="-1" Cut="0.0000000000000000e+00" cType="1" res="-9.1542210429906845e-04" rms="1.6993905603885651e-01" purity="4.4988897442817688e-01" nType="-99"/>
          <Node pos="r" depth="2" NCoef="0" IVar="-1" Cut="0.0000000000000000e+00" cType="1" res="1.2465054169297218e-03" rms="2.3658938705921173e-01" purity="6.4951384067535400e-01" nType="-99"/>
        </Node>
        <Node pos="r" depth="1" NCoef="0" IVar="5" Cut="4.1344213485717773e-01" cType="1" res="-2.6985745877027512e-02" rms="1.6311490535736084e-01" purity="4.2456984519958496e-01" nType="0">
          <Node pos="l" depth="2" NCoef="0" IVar="-1" Cut="0.0000000000000000e+00" cType="1" res="-1.3767789641860873e-04" rms="1.7750105261802673e-01" purity="5.4798734188079834e-01" nType="-99"/>
          <Node pos="r" depth="2" NCoef="0" IVar="-1" Cut="0.0000000000000000e+00" cType="1" res="-2.2329739294946194e-03" rms="1.0530370473861694e-01" purity="1.3686387240886688e-01" nType="-99"/>
        </Node>
      </Node>
    </BinaryTree>
    <BinaryTree type="DecisionTree" boostWeight="1.0000000000000000e+00" itree="1214">
      <Node pos="s" depth="0" NCoef="0" IVar="50" Cut="-1.3573919534683228e+00" cType="1" res="7.8589273616671562e-03" rms="2.2061736881732941e-01" purity="5.0148928165435791e-01" nType="0">
        <Node pos="l" depth="1" NCoef="0" IVar="40" Cut="6.4684534072875977e-01" cType="1" res="1.3775675557553768e-02" rms="2.2412998974323273e-01" purity="5.1305609941482544e-01" nType="0">
          <Node pos="l" depth="2" NCoef="0" IVar="-1" Cut="0.0000000000000000e+00" cType="1" res="1.0971332667395473e-03" rms="2.4493958055973053e-01" purity="5.6193757057189941e-01" nType="-99"/>
          <Node pos="r" depth="2" NCoef="0" IVar="-1" Cut="0.0000000000000000e+00" cType="1" res="-7.0746405981481075e-05" rms="2.0891876518726349e-01" purity="4.8349422216415405e-01" nType="-99"/>
        </Node>
        <Node pos="r" depth="1" NCoef="0" IVar="56" Cut="-1.3383451700210571e+00" cType="1" res="-7.0622384548187256e-02" rms="1.4603610336780548e-01" purity="3.4806415438652039e-01" nType="0">
          <Node pos="l" depth="2" NCoef="0" IVar="-1" Cut="0.0000000000000000e+00" cType="1" res="-2.9570903279818594e-04" rms="2.2019128501415253e-01" purity="5.1286804676055908e-01" nType="-99"/>
          <Node pos="r" depth="2" NCoef="0" IVar="-1" Cut="0.0000000000000000e+00" cType="1" res="-6.4770374447107315e-03" rms="0.0000000000000000e+00" purity="-4.3550200760364532e-02" nType="-99"/>
        </Node>
      </Node>
    </BinaryTree>
    <BinaryTree type="DecisionTree" boostWeight="1.0000000000000000e+00" itree="1215">
      <Node pos="s" depth="0" NCoef="0" IVar="36" Cut="4.0171864628791809e-01" cType="1" res="6.7573017440736294e-03" rms="2.0971009135246277e-01" purity="5.0469893217086792e-01" nType="0">
        <Node pos="l" depth="1" NCoef="0" IVar="2" Cut="2.0730662345886230e+00" cType="1" res="-6.8588480353355408e-03" rms="0.0000000000000000e+00" purity="7.2757364250719547e-04" nType="-99"/>
        <Node pos="r" depth="1" NCoef="0" IVar="25" Cut="9.5748364925384521e-01" cType="1" res="1.6401182860136032e-02" rms="2.3216068744659424e-01" purity="5.9691655635833740e-01" nType="0">
          <Node pos="l" depth="2" NCoef="0" IVar="-1" Cut="0.0000000000000000e+00" cType="1" res="1.0158047080039978e-03" rms="2.4260956048965454e-01" purity="6.6028243303298950e-01" nType="-99"/>
          <Node pos="r" depth="2" NCoef="0" IVar="-1" Cut="0.0000000000000000e+00" cType="1" res="-3.2286738860420883e-04" rms="2.1748964488506317e-01" purity="5.3183948993682861e-01" nType="-99"/>
        </Node>
      </Node>
    </BinaryTree>
    <BinaryTree type="DecisionTree" boostWeight="1.0000000000000000e+00" itree="1216">
      <Node pos="s" depth="0" NCoef="0" IVar="17" Cut="1.5231137275695801e+00" cType="1" res="1.2461520964279771e-03" rms="2.0356434583663940e-01" purity="5.0319242477416992e-01" nType="0">
        <Node pos="l" depth="1" NCoef="0" IVar="57" Cut="6.8133997917175293e-01" cType="1" res="-1.9256366416811943e-02" rms="1.9252096116542816e-01" purity="2.6888164877891541e-01" nType="0">
          <Node pos="l" depth="2" NCoef="0" IVar="-1" Cut="0.0000000000000000e+00" cType="1" res="-6.0676899011014029e-05" rms="2.2088478505611420e-01" purity="3.1478172540664673e-01" nType="-99"/>
          <Node pos="r" depth="2" NCoef="0" IVar="-1" Cut="0.0000000000000000e+00" cType="1" res="-2.9344321228563786e-03" rms="0.0000000000000000e+00" purity="1.2909168004989624e-01" nType="-99"/>
        </Node>
        <Node pos="r" depth="1" NCoef="0" IVar="31" Cut="2.6486225128173828e+00" cType="1" res="3.3760100603103638e-02" rms="2.1598929166793823e-01" purity="8.7477451562881470e-01" nType="0">
          <Node pos="l" depth="2" NCoef="0" IVar="-1" Cut="0.0000000000000000e+00" cType="1" res="-2.5027524679899216e-03" rms="2.1583874523639679e-01" purity="4.8400443792343140e-01" nType="-99"/>
          <Node pos="r" depth="2" NCoef="0" IVar="-1" Cut="0.0000000000000000e+00" cType="1" res="1.0941231157630682e-03" rms="2.1364408731460571e-01" purity="9.0439373254776001e-01" nType="-99"/>
        </Node>
      </Node>
    </BinaryTree>
    <BinaryTree type="DecisionTree" boostWeight="1.0000000000000000e+00" itree="1217">
      <Node pos="s" depth="0" NCoef="0" IVar="27" Cut="1.3549667596817017e+00" cType="1" res="-2.5145229883491993e-03" rms="1.9779066741466522e-01" purity="4.9281102418899536e-01" nType="0">
        <Node pos="l" depth="1" NCoef="0" IVar="17" Cut="1.6844883561134338e-01" cType="1" res="-6.3836462795734406e-02" rms="2.7884004637598991e-02" purity="1.7479816079139709e-01" nType="0">
          <Node pos="l" depth="2" NCoef="0" IVar="-1" Cut="0.0000000000000000e+00" cType="1" res="2.4864731822162867e-03" rms="9.6804909408092499e-02" purity="1.0476636700332165e-02" nType="-99"/>
          <Node pos="r" depth="2" NCoef="0" IVar="-1" Cut="0.0000000000000000e+00" cType="1" res="-3.8076625205576420e-03" rms="0.0000000000000000e+00" purity="2.5791636109352112e-01" nType="-99"/>
        </Node>
        <Node pos="r" depth="1" NCoef="0" IVar="48" Cut="8.0463546514511108e-01" cType="1" res="9.1061256825923920e-03" rms="2.1340036392211914e-01" purity="5.5307519435882568e-01" nType="0">
          <Node pos="l" depth="2" NCoef="0" IVar="-1" Cut="0.0000000000000000e+00" cType="1" res="-3.4009849186986685e-03" rms="0.0000000000000000e+00" purity="1.2753481976687908e-02" nType="-99"/>
          <Node pos="r" depth="2" NCoef="0" IVar="-1" Cut="0.0000000000000000e+00" cType="1" res="4.2797866626642644e-04" rms="2.2413313388824463e-01" purity="5.7901108264923096e-01" nType="-99"/>
        </Node>
      </Node>
    </BinaryTree>
    <BinaryTree type="DecisionTree" boostWeight="1.0000000000000000e+00" itree="1218">
      <Node pos="s" depth="0" NCoef="0" IVar="8" Cut="-1.1246961355209351e+00" cType="1" res="5.9696282260119915e-03" rms="2.1110244095325470e-01" purity="5.0414001941680908e-01" nType="0">
        <Node pos="l" depth="1" NCoef="0" IVar="61" Cut="4.4440269470214844e-02" cType="1" res="1.1490240693092346e-02" rms="2.1447293460369110e-01" purity="5.2543169260025024e-01" nType="0">
          <Node pos="l" depth="2" NCoef="0" IVar="-1" Cut="0.0000000000000000e+00" cType="1" res="3.6895414814352989e-03" rms="3.0526188015937805e-01" purity="6.8962240219116211e-01" nType="-99"/>
          <Node pos="r" depth="2" NCoef="0" IVar="-1" Cut="0.0000000000000000e+00" cType="1" res="1.9890430849045515e-04" rms="2.0870919525623322e-01" purity="5.1908421516418457e-01" nType="-99"/>
        </Node>
        <Node pos="r" depth="1" NCoef="0" IVar="17" Cut="1.3214854001998901e+00" cType="1" res="-1.0534502565860748e-01" rms="5.1344040781259537e-02" purity="7.4826449155807495e-02" nType="0">
          <Node pos="l" depth="2" NCoef="0" IVar="-1" Cut="0.0000000000000000e+00" cType="1" res="-2.2840172052383423e-02" rms="0.0000000000000000e+00" purity="-6.9524487480521202e-03" nType="-99"/>
          <Node pos="r" depth="2" NCoef="0" IVar="-1" Cut="0.0000000000000000e+00" cType="1" res="-4.6544377692043781e-03" rms="0.0000000000000000e+00" purity="1.7307633161544800e-01" nType="-99"/>
        </Node>
      </Node>
    </BinaryTree>
    <BinaryTree type="DecisionTree" boostWeight="1.0000000000000000e+00" itree="1219">
      <Node pos="s" depth="0" NCoef="0" IVar="4" Cut="3.4036598205566406e+00" cType="1" res="5.0652556819841266e-04" rms="2.0410579442977905e-01" purity="4.9608117341995239e-01" nType="0">
        <Node pos="l" depth="1" NCoef="0" IVar="61" Cut="8.9627438783645630e-01" cType="1" res="-5.2351109683513641e-02" rms="1.3636334240436554e-01" purity="2.0524349808692932e-01" nType="0">
          <Node pos="l" depth="2" NCoef="0" IVar="-1" Cut="0.0000000000000000e+00" cType="1" res="-1.8698326312005520e-04" rms="2.1219387650489807e-01" purity="2.7196118235588074e-01" nType="-99"/>
          <Node pos="r" depth="2" NCoef="0" IVar="-1" Cut="0.0000000000000000e+00" cType="1" res="-5.8159697800874710e-03" rms="0.0000000000000000e+00" purity="1.0811869800090790e-01" nType="-99"/>
        </Node>
        <Node pos="r" depth="1" NCoef="0" IVar="58" Cut="-3.7961336970329285e-01" cType="1" res="1.2815739028155804e-02" rms="2.1500720083713531e-01" purity="5.6380999088287354e-01" nType="0">
          <Node pos="l" depth="2" NCoef="0" IVar="-1" Cut="0.0000000000000000e+00" cType="1" res="8.5755425971001387e-04" rms="2.4123978614807129e-01" purity="6.0655200481414795e-01" nType="-99"/>
          <Node pos="r" depth="2" NCoef="0" IVar="-1" Cut="0.0000000000000000e+00" cType="1" res="-7.8617990948259830e-04" rms="1.3347068428993225e-01" purity="4.7019645571708679e-01" nType="-99"/>
        </Node>
      </Node>
    </BinaryTree>
    <BinaryTree type="DecisionTree" boostWeight="1.0000000000000000e+00" itree="1220">
      <Node pos="s" depth="0" NCoef="0" IVar="2" Cut="1.8089659214019775e+00" cType="1" res="2.5269410107284784e-03" rms="2.0861542224884033e-01" purity="4.9455803632736206e-01" nType="0">
        <Node pos="l" depth="1" NCoef="0" IVar="57" Cut="1.4717997610569000e-01" cType="1" res="-5.8026716113090515e-02" rms="5.6181550025939941e-02" purity="1.4779448509216309e-01" nType="0">
          <Node pos="l" depth="2" NCoef="0" IVar="-1" Cut="0.0000000000000000e+00" cType="1" res="-1.1504386784508824e-03" rms="1.8554386496543884e-01" purity="2.2088745236396790e-01" nType="-99"/>
          <Node pos="r" depth="2" NCoef="0" IVar="-1" Cut="0.0000000000000000e+00" cType="1" res="-1.4504875056445599e-02" rms="0.0000000000000000e+00" purity="-5.6423883885145187e-02" nType="-99"/>
        </Node>
        <Node pos="r" depth="1" NCoef="0" IVar="36" Cut="1.0980339050292969e+00" cType="1" res="1.5708837658166885e-02" rms="2.2657282650470734e-01" purity="5.7004475593566895e-01" nType="0">
          <Node pos="l" depth="2" NCoef="0" IVar="-1" Cut="0.0000000000000000e+00" cType="1" res="-4.1392100974917412e-03" rms="0.0000000000000000e+00" purity="3.7213988602161407e-02" nType="-99"/>
          <Node pos="r" depth="2" NCoef="0" IVar="-1" Cut="0.0000000000000000e+00" cType="1" res="6.2979775248095393e-04" rms="2.4822857975959778e-01" purity="6.6369175910949707e-01" nType="-99"/>
        </Node>
      </Node>
    </BinaryTree>
    <BinaryTree type="DecisionTree" boostWeight="1.0000000000000000e+00" itree="1221">
      <Node pos="s" depth="0" NCoef="0" IVar="57" Cut="2.9980340600013733e-01" cType="1" res="3.3601033501327038e-03" rms="2.0912253856658936e-01" purity="4.9808013439178467e-01" nType="0">
        <Node pos="l" depth="1" NCoef="0" IVar="14" Cut="-7.1940267086029053e-01" cType="1" res="1.7003066837787628e-02" rms="2.2836309671401978e-01" purity="5.4577279090881348e-01" nType="0">
          <Node pos="l" depth="2" NCoef="0" IVar="-1" Cut="0.0000000000000000e+00" cType="1" res="-1.3293675146996975e-04" rms="1.9583703577518463e-01" purity="4.9196967482566833e-01" nType="-99"/>
          <Node pos="r" depth="2" NCoef="0" IVar="-1" Cut="0.0000000000000000e+00" cType="1" res="1.1565483873710036e-03" rms="2.6499819755554199e-01" purity="6.2225210666656494e-01" nType="-99"/>
        </Node>
        <Node pos="r" depth="1" NCoef="0" IVar="21" Cut="-3.7136870622634888e-01" cType="1" res="-4.2071532458066940e-02" rms="1.1409576237201691e-01" purity="3.3926153182983398e-01" nType="0">
          <Node pos="l" depth="2" NCoef="0" IVar="-1" Cut="0.0000000000000000e+00" cType="1" res="-6.2268641777336597e-03" rms="0.0000000000000000e+00" purity="2.0957367122173309e-01" nType="-99"/>
          <Node pos="r" depth="2" NCoef="0" IVar="-1" Cut="0.0000000000000000e+00" cType="1" res="-7.7206245623528957e-04" rms="1.6370315849781036e-01" purity="3.6078405380249023e-01" nType="-99"/>
        </Node>
      </Node>
    </BinaryTree>
    <BinaryTree type="DecisionTree" boostWeight="1.0000000000000000e+00" itree="1222">
      <Node pos="s" depth="0" NCoef="0" IVar="3" Cut="4.9661574363708496e+00" cType="1" res="1.3158074580132961e-02" rms="2.2375550866127014e-01" purity="5.0425171852111816e-01" nType="0">
        <Node pos="l" depth="1" NCoef="0" IVar="56" Cut="-9.1284650564193726e-01" cType="1" res="-1.1948426254093647e-03" rms="2.1924965083599091e-01" purity="4.7536173462867737e-01" nType="0">
          <Node pos="l" depth="2" NCoef="0" IVar="-1" Cut="0.0000000000000000e+00" cType="1" res="2.8380833100527525e-04" rms="2.2687263786792755e-01" purity="5.1880919933319092e-01" nType="-99"/>
          <Node pos="r" depth="2" NCoef="0" IVar="-1" Cut="0.0000000000000000e+00" cType="1" res="-2.0641111768782139e-03" rms="1.6544803977012634e-01" purity="2.5838518142700195e-01" nType="-99"/>
        </Node>
        <Node pos="r" depth="1" NCoef="0" IVar="6" Cut="1.8811893463134766e+00" cType="1" res="6.3168719410896301e-02" rms="2.3195439577102661e-01" purity="6.0491472482681274e-01" nType="0">
          <Node pos="l" depth="2" NCoef="0" IVar="-1" Cut="0.0000000000000000e+00" cType="1" res="3.1306827440857887e-03" rms="3.2346549630165100e-01" purity="4.9623376131057739e-01" nType="-99"/>
          <Node pos="r" depth="2" NCoef="0" IVar="-1" Cut="0.0000000000000000e+00" cType="1" res="8.6318061221390963e-04" rms="1.5150344371795654e-01" purity="6.6356217861175537e-01" nType="-99"/>
        </Node>
      </Node>
    </BinaryTree>
    <BinaryTree type="DecisionTree" boostWeight="1.0000000000000000e+00" itree="1223">
      <Node pos="s" depth="0" NCoef="0" IVar="52" Cut="2.4639880657196045e+00" cType="1" res="7.1701128035783768e-03" rms="2.1418499946594238e-01" purity="4.9601471424102783e-01" nType="0">
        <Node pos="l" depth="1" NCoef="0" IVar="35" Cut="-8.7587064504623413e-01" cType="1" res="-4.4485736638307571e-02" rms="9.3061760067939758e-02" purity="2.8808605670928955e-01" nType="0">
          <Node pos="l" depth="2" NCoef="0" IVar="-1" Cut="0.0000000000000000e+00" cType="1" res="2.6517876540310681e-04" rms="1.9927914440631866e-01" purity="3.6892834305763245e-01" nType="-99"/>
          <Node pos="r" depth="2" NCoef="0" IVar="-1" Cut="0.0000000000000000e+00" cType="1" res="-4.5825587585568428e-03" rms="0.0000000000000000e+00" purity="1.2335848063230515e-01" nType="-99"/>
        </Node>
        <Node pos="r" depth="1" NCoef="0" IVar="57" Cut="1.4825918674468994e+00" cType="1" res="1.5215402469038963e-02" rms="2.2625431418418884e-01" purity="5.2839910984039307e-01" nType="0">
          <Node pos="l" depth="2" NCoef="0" IVar="-1" Cut="0.0000000000000000e+00" cType="1" res="5.6475639576092362e-04" rms="2.2790704667568207e-01" purity="5.4432278871536255e-01" nType="-99"/>
          <Node pos="r" depth="2" NCoef="0" IVar="-1" Cut="0.0000000000000000e+00" cType="1" res="-5.9858509339392185e-03" rms="1.1317135393619537e-01" purity="4.9057453870773315e-02" nType="-99"/>
        </Node>
      </Node>
    </BinaryTree>
    <BinaryTree type="DecisionTree" boostWeight="1.0000000000000000e+00" itree="1224">
      <Node pos="s" depth="0" NCoef="0" IVar="18" Cut="-9.1075617074966431e-01" cType="1" res="1.0610303841531277e-02" rms="2.1809151768684387e-01" purity="5.1232808828353882e-01" nType="0">
        <Node pos="l" depth="1" NCoef="0" IVar="35" Cut="-1.3767204284667969e+00" cType="1" res="1.6586182639002800e-02" rms="2.1916563808917999e-01" purity="5.3856194019317627e-01" nType="0">
          <Node pos="l" depth="2" NCoef="0" IVar="-1" Cut="0.0000000000000000e+00" cType="1" res="-8.5384899284690619e-04" rms="1.8146538734436035e-01" purity="4.0642186999320984e-01" nType="-99"/>
          <Node pos="r" depth="2" NCoef="0" IVar="-1" Cut="0.0000000000000000e+00" cType="1" res="7.7808910282328725e-04" rms="2.2935907542705536e-01" purity="5.8484607934951782e-01" nType="-99"/>
        </Node>
        <Node pos="r" depth="1" NCoef="0" IVar="59" Cut="1.0857784748077393e+00" cType="1" res="-8.5183732211589813e-02" rms="1.7402900755405426e-01" purity="9.1796904802322388e-02" nType="0">
          <Node pos="l" depth="2" NCoef="0" IVar="-1" Cut="0.0000000000000000e+00" cType="1" res="-1.0300567373633385e-02" rms="0.0000000000000000e+00" purity="3.7368845194578171e-02" nType="-99"/>
          <Node pos="r" depth="2" NCoef="0" IVar="-1" Cut="0.0000000000000000e+00" cType="1" res="4.4734516995958984e-04" rms="2.8918537497520447e-01" purity="1.7434304952621460e-01" nType="-99"/>
        </Node>
      </Node>
    </BinaryTree>
    <BinaryTree type="DecisionTree" boostWeight="1.0000000000000000e+00" itree="1225">
      <Node pos="s" depth="0" NCoef="0" IVar="15" Cut="1.5225218534469604e+00" cType="1" res="1.0254377499222755e-02" rms="2.1039767563343048e-01" purity="5.0980085134506226e-01" nType="0">
        <Node pos="l" depth="1" NCoef="0" IVar="10" Cut="2.8651883602142334e+00" cType="1" res="1.8979929387569427e-02" rms="1.9199918210506439e-01" purity="5.1686149835586548e-01" nType="0">
          <Node pos="l" depth="2" NCoef="0" IVar="-1" Cut="0.0000000000000000e+00" cType="1" res="-1.7329325200989842e-03" rms="1.4548252522945404e-01" purity="1.0746087878942490e-01" nType="-99"/>
          <Node pos="r" depth="2" NCoef="0" IVar="-1" Cut="0.0000000000000000e+00" cType="1" res="8.9877942809835076e-04" rms="1.9749464094638824e-01" purity="5.9386497735977173e-01" nType="-99"/>
        </Node>
        <Node pos="r" depth="1" NCoef="0" IVar="15" Cut="1.5282533168792725e+00" cType="1" res="-6.1400756239891052e-02" rms="3.1512817740440369e-01" purity="4.5181873440742493e-01" nType="0">
          <Node pos="l" depth="2" NCoef="0" IVar="-1" Cut="0.0000000000000000e+00" cType="1" res="9.0938014909625053e-04" rms="3.1665268540382385e-01" purity="6.6641145944595337e-01" nType="-99"/>
          <Node pos="r" depth="2" NCoef="0" IVar="-1" Cut="0.0000000000000000e+00" cType="1" res="-2.7005311567336321e-03" rms="2.9915779829025269e-01" purity="3.5311269760131836e-01" nType="-99"/>
        </Node>
      </Node>
    </BinaryTree>
    <BinaryTree type="DecisionTree" boostWeight="1.0000000000000000e+00" itree="1226">
      <Node pos="s" depth="0" NCoef="0" IVar="48" Cut="8.0745702981948853e-01" cType="1" res="-1.3526247348636389e-03" rms="2.0257176458835602e-01" purity="4.9360057711601257e-01" nType="0">
        <Node pos="l" depth="1" NCoef="0" IVar="66" Cut="1.2345679104328156e-02" cType="1" res="-4.9269604496657848e-03" rms="0.0000000000000000e+00" purity="-3.3437673002481461e-02" nType="-99"/>
        <Node pos="r" depth="1" NCoef="0" IVar="68" Cut="1.2345679104328156e-02" cType="1" res="6.2702754512429237e-03" rms="2.1410809457302094e-01" purity="5.2701902389526367e-01" nType="0">
          <Node pos="l" depth="2" NCoef="0" IVar="-1" Cut="0.0000000000000000e+00" cType="1" res="3.5442251828499138e-04" rms="2.1674656867980957e-01" purity="5.4048061370849609e-01" nType="-99"/>
          <Node pos="r" depth="2" NCoef="0" IVar="-1" Cut="0.0000000000000000e+00" cType="1" res="-2.9921191744506359e-03" rms="9.6712432801723480e-02" purity="2.5639370083808899e-01" nType="-99"/>
        </Node>
      </Node>
    </BinaryTree>
    <BinaryTree type="DecisionTree" boostWeight="1.0000000000000000e+00" itree="1227">
      <Node pos="s" depth="0" NCoef="0" IVar="9" Cut="-6.1728394031524658e-01" cType="1" res="5.4995450191199780e-03" rms="2.0581667125225067e-01" purity="5.0054955482482910e-01" nType="0">
        <Node pos="l" depth="1" NCoef="0" IVar="-1" Cut="0.0000000000000000e+00" cType="1" res="-3.4968415275216103e-03" rms="0.0000000000000000e+00" purity="2.0811466872692108e-01" nType="-99"/>
        <Node pos="r" depth="1" NCoef="0" IVar="27" Cut="9.6681511402130127e-01" cType="1" res="1.1463165283203125e-02" rms="2.1405611932277679e-01" purity="5.1275014877319336e-01" nType="0">
          <Node pos="l" depth="2" NCoef="0" IVar="-1" Cut="0.0000000000000000e+00" cType="1" res="-5.6915995664894581e-03" rms="0.0000000000000000e+00" purity="7.1010798215866089e-02" nType="-99"/>
          <Node pos="r" depth="2" NCoef="0" IVar="-1" Cut="0.0000000000000000e+00" cType="1" res="5.3285213652998209e-04" rms="2.2516368329524994e-01" purity="5.4937839508056641e-01" nType="-99"/>
        </Node>
      </Node>
    </BinaryTree>
    <BinaryTree type="DecisionTree" boostWeight="1.0000000000000000e+00" itree="1228">
      <Node pos="s" depth="0" NCoef="0" IVar="18" Cut="-1.0393463373184204e+00" cType="1" res="3.5849718842655420e-03" rms="2.1288189291954041e-01" purity="4.9310946464538574e-01" nType="0">
        <Node pos="l" depth="1" NCoef="0" IVar="52" Cut="2.4742026329040527e+00" cType="1" res="9.9373320117592812e-03" rms="2.1530450880527496e-01" purity="5.2369511127471924e-01" nType="0">
          <Node pos="l" depth="2" NCoef="0" IVar="-1" Cut="0.0000000000000000e+00" cType="1" res="-1.3218959793448448e-03" rms="1.4933763444423676e-01" purity="2.8058728575706482e-01" nType="-99"/>
          <Node pos="r" depth="2" NCoef="0" IVar="-1" Cut="0.0000000000000000e+00" cType="1" res="5.5672478629276156e-04" rms="2.2275792062282562e-01" purity="5.6261724233627319e-01" nType="-99"/>
        </Node>
        <Node pos="r" depth="1" NCoef="0" IVar="62" Cut="7.3866292834281921e-02" cType="1" res="-6.3649766147136688e-02" rms="1.7144031822681427e-01" purity="1.6938494145870209e-01" nType="0">
          <Node pos="l" depth="2" NCoef="0" IVar="-1" Cut="0.0000000000000000e+00" cType="1" res="-8.2455500960350037e-03" rms="0.0000000000000000e+00" purity="1.0151137411594391e-01" nType="-99"/>
          <Node pos="r" depth="2" NCoef="0" IVar="-1" Cut="0.0000000000000000e+00" cType="1" res="-6.5836892463266850e-04" rms="2.3037508130073547e-01" purity="2.1779859066009521e-01" nType="-99"/>
        </Node>
      </Node>
    </BinaryTree>
    <BinaryTree type="DecisionTree" boostWeight="1.0000000000000000e+00" itree="1229">
      <Node pos="s" depth="0" NCoef="0" IVar="25" Cut="7.9413044452667236e-01" cType="1" res="6.3576255924999714e-03" rms="2.1460236608982086e-01" purity="4.9153617024421692e-01" nType="0">
        <Node pos="l" depth="1" NCoef="0" IVar="-1" Cut="0.0000000000000000e+00" cType="1" res="2.8608930297195911e-03" rms="3.1059923768043518e-01" purity="6.6089713573455811e-01" nType="-99"/>
        <Node pos="r" depth="1" NCoef="0" IVar="6" Cut="8.0931675434112549e-01" cType="1" res="2.6433819439262152e-03" rms="2.1000859141349792e-01" purity="4.8662996292114258e-01" nType="0">
          <Node pos="l" depth="2" NCoef="0" IVar="-1" Cut="0.0000000000000000e+00" cType="1" res="-8.9846448972821236e-03" rms="0.0000000000000000e+00" purity="-2.3762442171573639e-02" nType="-99"/>
          <Node pos="r" depth="2" NCoef="0" IVar="-1" Cut="0.0000000000000000e+00" cType="1" res="2.0189318456687033e-04" rms="2.1657070517539978e-01" purity="5.0360310077667236e-01" nType="-99"/>
        </Node>
      </Node>
    </BinaryTree>
    <BinaryTree type="DecisionTree" boostWeight="1.0000000000000000e+00" itree="1230">
      <Node pos="s" depth="0" NCoef="0" IVar="57" Cut="1.1010603904724121e+00" cType="1" res="9.4467764720320702e-03" rms="2.1394662559032440e-01" purity="5.0351935625076294e-01" nType="0">
        <Node pos="l" depth="1" NCoef="0" IVar="52" Cut="2.2457065582275391e+00" cType="1" res="2.0044256001710892e-02" rms="2.2258937358856201e-01" purity="5.5061280727386475e-01" nType="0">
          <Node pos="l" depth="2" NCoef="0" IVar="-1" Cut="0.0000000000000000e+00" cType="1" res="-2.7091398369520903e-03" rms="0.0000000000000000e+00" purity="1.5839177370071411e-01" nType="-99"/>
          <Node pos="r" depth="2" NCoef="0" IVar="-1" Cut="0.0000000000000000e+00" cType="1" res="6.9406675174832344e-04" rms="2.2887773811817169e-01" purity="5.6750726699829102e-01" nType="-99"/>
        </Node>
        <Node pos="r" depth="1" NCoef="0" IVar="16" Cut="-1.1843920946121216e+00" cType="1" res="-4.2509619146585464e-02" rms="1.5500257909297943e-01" purity="2.7263340353965759e-01" nType="0">
          <Node pos="l" depth="2" NCoef="0" IVar="-1" Cut="0.0000000000000000e+00" cType="1" res="1.2968207010999322e-03" rms="2.7514651417732239e-01" purity="2.6327639818191528e-01" nType="-99"/>
          <Node pos="r" depth="2" NCoef="0" IVar="-1" Cut="0.0000000000000000e+00" cType="1" res="-2.7268787380307913e-03" rms="0.0000000000000000e+00" purity="2.7662023901939392e-01" nType="-99"/>
        </Node>
      </Node>
    </BinaryTree>
    <BinaryTree type="DecisionTree" boostWeight="1.0000000000000000e+00" itree="1231">
      <Node pos="s" depth="0" NCoef="0" IVar="57" Cut="1.1392107009887695e+00" cType="1" res="8.7438849732279778e-03" rms="2.1311250329017639e-01" purity="5.0525611639022827e-01" nType="0">
        <Node pos="l" depth="1" NCoef="0" IVar="3" Cut="5.2320995330810547e+00" cType="1" res="1.8843835219740868e-02" rms="2.2360987961292267e-01" purity="5.4768890142440796e-01" nType="0">
          <Node pos="l" depth="2" NCoef="0" IVar="-1" Cut="0.0000000000000000e+00" cType="1" res="3.6914041265845299e-04" rms="2.1849615871906281e-01" purity="5.4929351806640625e-01" nType="-99"/>
          <Node pos="r" depth="2" NCoef="0" IVar="-1" Cut="0.0000000000000000e+00" cType="1" res="3.0307995621114969e-03" rms="2.7492004632949829e-01" purity="5.2290439605712891e-01" nType="-99"/>
        </Node>
        <Node pos="r" depth="1" NCoef="0" IVar="46" Cut="1.0154160261154175e+00" cType="1" res="-4.1625611484050751e-02" rms="1.3967128098011017e-01" purity="2.9363921284675598e-01" nType="0">
          <Node pos="l" depth="2" NCoef="0" IVar="-1" Cut="0.0000000000000000e+00" cType="1" res="-4.8641706234775484e-04" rms="2.0420512557029724e-01" purity="3.3850267529487610e-01" nType="-99"/>
          <Node pos="r" depth="2" NCoef="0" IVar="-1" Cut="0.0000000000000000e+00" cType="1" res="-4.6390662901103497e-03" rms="0.0000000000000000e+00" purity="1.7963826656341553e-01" nType="-99"/>
        </Node>
      </Node>
    </BinaryTree>
    <BinaryTree type="DecisionTree" boostWeight="1.0000000000000000e+00" itree="1232">
      <Node pos="s" depth="0" NCoef="0" IVar="3" Cut="5.2937474250793457e+00" cType="1" res="8.5584772750735283e-03" rms="2.2506062686443329e-01" purity="4.9849495291709900e-01" nType="0">
        <Node pos="l" depth="1" NCoef="0" IVar="0" Cut="6.9982576370239258e-01" cType="1" res="3.3569422084838152e-03" rms="2.2059538960456848e-01" purity="5.0067663192749023e-01" nType="0">
          <Node pos="l" depth="2" NCoef="0" IVar="-1" Cut="0.0000000000000000e+00" cType="1" res="6.3162989681586623e-04" rms="2.3740166425704956e-01" purity="5.6303155422210693e-01" nType="-99"/>
          <Node pos="r" depth="2" NCoef="0" IVar="-1" Cut="0.0000000000000000e+00" cType="1" res="-8.2377798389643431e-04" rms="1.8463301658630371e-01" purity="3.9424979686737061e-01" nType="-99"/>
        </Node>
        <Node pos="r" depth="1" NCoef="0" IVar="5" Cut="2.0412917435169220e-01" cType="1" res="1.3258112967014313e-01" rms="2.8648415207862854e-01" purity="4.4647714495658875e-01" nType="0">
          <Node pos="l" depth="2" NCoef="0" IVar="-1" Cut="0.0000000000000000e+00" cType="1" res="4.6709976159036160e-03" rms="3.6722114682197571e-01" purity="6.0844874382019043e-01" nType="-99"/>
          <Node pos="r" depth="2" NCoef="0" IVar="-1" Cut="0.0000000000000000e+00" cType="1" res="8.7929825531318784e-04" rms="8.8743790984153748e-02" purity="2.8457048535346985e-01" nType="-99"/>
        </Node>
      </Node>
    </BinaryTree>
    <BinaryTree type="DecisionTree" boostWeight="1.0000000000000000e+00" itree="1233">
      <Node pos="s" depth="0" NCoef="0" IVar="14" Cut="-1.1834474802017212e+00" cType="1" res="3.4310531336814165e-03" rms="2.1171413362026215e-01" purity="4.9775135517120361e-01" nType="0">
        <Node pos="l" depth="1" NCoef="0" IVar="16" Cut="-7.2238004207611084e-01" cType="1" res="-2.9094349592924118e-02" rms="1.7359235882759094e-01" purity="3.3669599890708923e-01" nType="0">
          <Node pos="l" depth="2" NCoef="0" IVar="-1" Cut="0.0000000000000000e+00" cType="1" res="-5.2104645874351263e-04" rms="1.8243210017681122e-01" purity="3.7136375904083252e-01" nType="-99"/>
          <Node pos="r" depth="2" NCoef="0" IVar="-1" Cut="0.0000000000000000e+00" cType="1" res="-4.8580467700958252e-03" rms="0.0000000000000000e+00" purity="9.4309911131858826e-02" nType="-99"/>
        </Node>
        <Node pos="r" depth="1" NCoef="0" IVar="20" Cut="2.7939295768737793e-01" cType="1" res="2.3513374850153923e-02" rms="2.2986000776290894e-01" purity="5.9719258546829224e-01" nType="0">
          <Node pos="l" depth="2" NCoef="0" IVar="-1" Cut="0.0000000000000000e+00" cType="1" res="8.3640072261914611e-04" rms="2.3384584486484528e-01" purity="6.1134690046310425e-01" nType="-99"/>
          <Node pos="r" depth="2" NCoef="0" IVar="-1" Cut="0.0000000000000000e+00" cType="1" res="-3.5853530280292034e-03" rms="0.0000000000000000e+00" purity="3.3594453334808350e-01" nType="-99"/>
        </Node>
      </Node>
    </BinaryTree>
    <BinaryTree type="DecisionTree" boostWeight="1.0000000000000000e+00" itree="1234">
      <Node pos="s" depth="0" NCoef="0" IVar="3" Cut="5.2659091949462891e+00" cType="1" res="1.7020909115672112e-02" rms="2.2053688764572144e-01" purity="5.1597797870635986e-01" nType="0">
        <Node pos="l" depth="1" NCoef="0" IVar="5" Cut="4.3750804662704468e-01" cType="1" res="1.1829610913991928e-02" rms="2.1684023737907410e-01" purity="5.1727688312530518e-01" nType="0">
          <Node pos="l" depth="2" NCoef="0" IVar="-1" Cut="0.0000000000000000e+00" cType="1" res="8.1455032341182232e-04" rms="2.1275310218334198e-01" purity="6.2670081853866577e-01" nType="-99"/>
          <Node pos="r" depth="2" NCoef="0" IVar="-1" Cut="0.0000000000000000e+00" cType="1" res="-7.4009376112371683e-04" rms="2.2362019121646881e-01" purity="1.8785236775875092e-01" nType="-99"/>
        </Node>
        <Node pos="r" depth="1" NCoef="0" IVar="52" Cut="3.2645914554595947e+00" cType="1" res="1.2121842056512833e-01" rms="2.6399022340774536e-01" purity="4.8990586400032043e-01" nType="0">
          <Node pos="l" depth="2" NCoef="0" IVar="-1" Cut="0.0000000000000000e+00" cType="1" res="4.4207824394106865e-03" rms="3.1162294745445251e-01" purity="5.9457570314407349e-01" nType="-99"/>
          <Node pos="r" depth="2" NCoef="0" IVar="-1" Cut="0.0000000000000000e+00" cType="1" res="-1.6435307043138891e-04" rms="8.8047094643115997e-02" purity="3.6383259296417236e-01" nType="-99"/>
        </Node>
      </Node>
    </BinaryTree>
    <BinaryTree type="DecisionTree" boostWeight="1.0000000000000000e+00" itree="1235">
      <Node pos="s" depth="0" NCoef="0" IVar="2" Cut="1.4340823888778687e+00" cType="1" res="1.2045456096529961e-02" rms="2.1719634532928467e-01" purity="4.9903178215026855e-01" nType="0">
        <Node pos="l" depth="1" NCoef="0" IVar="35" Cut="-7.2256463766098022e-01" cType="1" res="-4.8129297792911530e-03" rms="0.0000000000000000e+00" purity="8.9733138680458069e-02" nType="-99"/>
        <Node pos="r" depth="1" NCoef="0" IVar="36" Cut="1.4456657171249390e+00" cType="1" res="1.9113386049866676e-02" rms="2.2627402842044830e-01" purity="5.3720384836196899e-01" nType="0">
          <Node pos="l" depth="2" NCoef="0" IVar="-1" Cut="0.0000000000000000e+00" cType="1" res="-8.8596250861883163e-04" rms="1.5635564923286438e-01" purity="1.8597108125686646e-01" nType="-99"/>
          <Node pos="r" depth="2" NCoef="0" IVar="-1" Cut="0.0000000000000000e+00" cType="1" res="8.3541928324848413e-04" rms="2.4810710549354553e-01" purity="6.8423390388488770e-01" nType="-99"/>
        </Node>
      </Node>
    </BinaryTree>
    <BinaryTree type="DecisionTree" boostWeight="1.0000000000000000e+00" itree="1236">
      <Node pos="s" depth="0" NCoef="0" IVar="15" Cut="1.5225218534469604e+00" cType="1" res="5.5761183612048626e-03" rms="2.1381616592407227e-01" purity="5.0825852155685425e-01" nType="0">
        <Node pos="l" depth="1" NCoef="0" IVar="14" Cut="-1.4538335800170898e+00" cType="1" res="1.4822102151811123e-02" rms="2.0338156819343567e-01" purity="5.1519107818603516e-01" nType="0">
          <Node pos="l" depth="2" NCoef="0" IVar="-1" Cut="0.0000000000000000e+00" cType="1" res="-2.6762590277940035e-03" rms="9.3441717326641083e-02" purity="7.3871366679668427e-02" nType="-99"/>
          <Node pos="r" depth="2" NCoef="0" IVar="-1" Cut="0.0000000000000000e+00" cType="1" res="7.3090847581624985e-04" rms="2.1419270336627960e-01" purity="5.8581554889678955e-01" nType="-99"/>
        </Node>
        <Node pos="r" depth="1" NCoef="0" IVar="66" Cut="1.2345679104328156e-02" cType="1" res="-7.2353877127170563e-02" rms="2.7498278021812439e-01" purity="4.4982749223709106e-01" nType="0">
          <Node pos="l" depth="2" NCoef="0" IVar="-1" Cut="0.0000000000000000e+00" cType="1" res="-3.7708813324570656e-03" rms="2.4202683568000793e-01" purity="2.4189284443855286e-01" nType="-99"/>
          <Node pos="r" depth="2" NCoef="0" IVar="-1" Cut="0.0000000000000000e+00" cType="1" res="-2.3505746503360569e-04" rms="2.8300759196281433e-01" purity="6.0723435878753662e-01" nType="-99"/>
        </Node>
      </Node>
    </BinaryTree>
    <BinaryTree type="DecisionTree" boostWeight="1.0000000000000000e+00" itree="1237">
      <Node pos="s" depth="0" NCoef="0" IVar="48" Cut="9.6669495105743408e-01" cType="1" res="-1.1448441073298454e-03" rms="2.0051662623882294e-01" purity="4.9290770292282104e-01" nType="0">
        <Node pos="l" depth="1" NCoef="0" IVar="58" Cut="-5.3430759906768799e-01" cType="1" res="-3.3311008010059595e-03" rms="0.0000000000000000e+00" purity="2.2927204146981239e-02" nType="-99"/>
        <Node pos="r" depth="1" NCoef="0" IVar="36" Cut="1.4451889991760254e+00" cType="1" res="9.1908117756247520e-03" rms="2.1522675454616547e-01" purity="5.4812866449356079e-01" nType="0">
          <Node pos="l" depth="2" NCoef="0" IVar="-1" Cut="0.0000000000000000e+00" cType="1" res="-1.5486776828765869e-03" rms="1.4401575922966003e-01" purity="1.7782936990261078e-01" nType="-99"/>
          <Node pos="r" depth="2" NCoef="0" IVar="-1" Cut="0.0000000000000000e+00" cType="1" res="6.5302138682454824e-04" rms="2.3560063540935516e-01" purity="6.9465553760528564e-01" nType="-99"/>
        </Node>
      </Node>
    </BinaryTree>
    <BinaryTree type="DecisionTree" boostWeight="1.0000000000000000e+00" itree="1238">
      <Node pos="s" depth="0" NCoef="0" IVar="15" Cut="1.5225218534469604e+00" cType="1" res="-2.7630883269011974e-03" rms="1.9966933131217957e-01" purity="4.9594137072563171e-01" nType="0">
        <Node pos="l" depth="1" NCoef="0" IVar="18" Cut="-1.1027476787567139e+00" cType="1" res="5.9412512928247452e-03" rms="1.8530891835689545e-01" purity="5.0132966041564941e-01" nType="0">
          <Node pos="l" depth="2" NCoef="0" IVar="-1" Cut="0.0000000000000000e+00" cType="1" res="4.7016484313644469e-04" rms="1.9196689128875732e-01" purity="5.3819042444229126e-01" nType="-99"/>
          <Node pos="r" depth="2" NCoef="0" IVar="-1" Cut="0.0000000000000000e+00" cType="1" res="-3.3940745051950216e-03" rms="7.7548369765281677e-02" purity="1.8641267716884613e-01" nType="-99"/>
        </Node>
        <Node pos="r" depth="1" NCoef="0" IVar="15" Cut="1.5358928442001343e+00" cType="1" res="-7.1527332067489624e-02" rms="2.7967032790184021e-01" purity="4.5337340235710144e-01" nType="0">
          <Node pos="l" depth="2" NCoef="0" IVar="-1" Cut="0.0000000000000000e+00" cType="1" res="-7.9722711234353483e-05" rms="2.6778540015220642e-01" purity="6.0683441162109375e-01" nType="-99"/>
          <Node pos="r" depth="2" NCoef="0" IVar="-1" Cut="0.0000000000000000e+00" cType="1" res="-7.0661860518157482e-03" rms="2.6129180192947388e-01" purity="1.8796387314796448e-01" nType="-99"/>
        </Node>
      </Node>
    </BinaryTree>
    <BinaryTree type="DecisionTree" boostWeight="1.0000000000000000e+00" itree="1239">
      <Node pos="s" depth="0" NCoef="0" IVar="59" Cut="6.6940778493881226e-01" cType="1" res="7.0971655659377575e-03" rms="2.0392483472824097e-01" purity="5.1191473007202148e-01" nType="0">
        <Node pos="l" depth="1" NCoef="0" IVar="17" Cut="1.0978386402130127e+00" cType="1" res="2.3439485579729080e-02" rms="2.2108004987239838e-01" purity="5.6852364540100098e-01" nType="0">
          <Node pos="l" depth="2" NCoef="0" IVar="-1" Cut="0.0000000000000000e+00" cType="1" res="-1.5243417583405972e-02" rms="0.0000000000000000e+00" purity="-1.0868296958506107e-02" nType="-99"/>
          <Node pos="r" depth="2" NCoef="0" IVar="-1" Cut="0.0000000000000000e+00" cType="1" res="8.1132294144481421e-04" rms="2.5378426909446716e-01" purity="7.2416269779205322e-01" nType="-99"/>
        </Node>
        <Node pos="r" depth="1" NCoef="0" IVar="14" Cut="7.8716737031936646e-01" cType="1" res="-3.2816786319017410e-02" rms="1.4673961699008942e-01" purity="3.7365487217903137e-01" nType="0">
          <Node pos="l" depth="2" NCoef="0" IVar="-1" Cut="0.0000000000000000e+00" cType="1" res="-6.1965832719579339e-04" rms="1.6149917244911194e-01" purity="3.8732001185417175e-01" nType="-99"/>
          <Node pos="r" depth="2" NCoef="0" IVar="-1" Cut="0.0000000000000000e+00" cType="1" res="-3.6345520056784153e-03" rms="0.0000000000000000e+00" purity="2.7445894479751587e-01" nType="-99"/>
        </Node>
      </Node>
    </BinaryTree>
    <BinaryTree type="DecisionTree" boostWeight="1.0000000000000000e+00" itree="1240">
      <Node pos="s" depth="0" NCoef="0" IVar="14" Cut="-7.9702132940292358e-01" cType="1" res="1.0047785006463528e-02" rms="2.2074531018733978e-01" purity="4.9746474623680115e-01" nType="0">
        <Node pos="l" depth="1" NCoef="0" IVar="56" Cut="-1.3765758275985718e+00" cType="1" res="-1.7611496150493622e-02" rms="1.7535535991191864e-01" purity="4.1666215658187866e-01" nType="0">
          <Node pos="l" depth="2" NCoef="0" IVar="-1" Cut="0.0000000000000000e+00" cType="1" res="1.3860923354513943e-04" rms="2.0403324067592621e-01" purity="4.8458001017570496e-01" nType="-99"/>
          <Node pos="r" depth="2" NCoef="0" IVar="-1" Cut="0.0000000000000000e+00" cType="1" res="-2.1980218589305878e-03" rms="9.8632849752902985e-02" purity="2.9962703585624695e-01" nType="-99"/>
        </Node>
        <Node pos="r" depth="1" NCoef="0" IVar="3" Cut="4.4578084945678711e+00" cType="1" res="4.3674677610397339e-02" rms="2.6177406311035156e-01" purity="5.9570091962814331e-01" nType="0">
          <Node pos="l" depth="2" NCoef="0" IVar="-1" Cut="0.0000000000000000e+00" cType="1" res="-1.5586153604090214e-03" rms="2.4707841873168945e-01" purity="3.3756384253501892e-01" nType="-99"/>
          <Node pos="r" depth="2" NCoef="0" IVar="-1" Cut="0.0000000000000000e+00" cType="1" res="1.4030836755409837e-03" rms="2.6058486104011536e-01" purity="6.1903655529022217e-01" nType="-99"/>
        </Node>
      </Node>
    </BinaryTree>
    <BinaryTree type="DecisionTree" boostWeight="1.0000000000000000e+00" itree="1241">
      <Node pos="s" depth="0" NCoef="0" IVar="14" Cut="1.4055399894714355e+00" cType="1" res="8.4602450951933861e-03" rms="2.1749527752399445e-01" purity="5.0532400608062744e-01" nType="0">
        <Node pos="l" depth="1" NCoef="0" IVar="61" Cut="4.8055365681648254e-01" cType="1" res="1.2522765435278416e-02" rms="2.1963901817798615e-01" purity="5.1271790266036987e-01" nType="0">
          <Node pos="l" depth="2" NCoef="0" IVar="-1" Cut="0.0000000000000000e+00" cType="1" res="1.6528543783351779e-03" rms="2.8421980142593384e-01" purity="5.8078885078430176e-01" nType="-99"/>
          <Node pos="r" depth="2" NCoef="0" IVar="-1" Cut="0.0000000000000000e+00" cType="1" res="3.5797871532849967e-05" rms="1.9780959188938141e-01" purity="4.9495321512222290e-01" nType="-99"/>
        </Node>
        <Node pos="r" depth="1" NCoef="0" IVar="-1" Cut="0.0000000000000000e+00" cType="1" res="-3.6221633199602365e-03" rms="0.0000000000000000e+00" purity="1.3829925656318665e-01" nType="-99"/>
      </Node>
    </BinaryTree>
    <BinaryTree type="DecisionTree" boostWeight="1.0000000000000000e+00" itree="1242">
      <Node pos="s" depth="0" NCoef="0" IVar="27" Cut="1.5330402851104736e+00" cType="1" res="1.6891092527657747e-03" rms="2.0569965243339539e-01" purity="5.0562602281570435e-01" nType="0">
        <Node pos="l" depth="1" NCoef="0" IVar="16" Cut="-1.5166069567203522e-01" cType="1" res="-4.7055479139089584e-02" rms="4.9233976751565933e-02" purity="2.0558574795722961e-01" nType="0">
          <Node pos="l" depth="2" NCoef="0" IVar="-1" Cut="0.0000000000000000e+00" cType="1" res="-5.5996171431615949e-04" rms="1.7170989513397217e-01" purity="2.5906920433044434e-01" nType="-99"/>
          <Node pos="r" depth="2" NCoef="0" IVar="-1" Cut="0.0000000000000000e+00" cType="1" res="-6.1138193123042583e-03" rms="0.0000000000000000e+00" purity="7.9536832869052887e-02" nType="-99"/>
        </Node>
        <Node pos="r" depth="1" NCoef="0" IVar="60" Cut="-7.2082161903381348e-01" cType="1" res="1.3830344192683697e-02" rms="2.2695474326610565e-01" purity="5.8035963773727417e-01" nType="0">
          <Node pos="l" depth="2" NCoef="0" IVar="-1" Cut="0.0000000000000000e+00" cType="1" res="5.0642085261642933e-04" rms="2.3016405105590820e-01" purity="5.9558045864105225e-01" nType="-99"/>
          <Node pos="r" depth="2" NCoef="0" IVar="-1" Cut="0.0000000000000000e+00" cType="1" res="-6.2230881303548813e-03" rms="0.0000000000000000e+00" purity="8.5179708898067474e-02" nType="-99"/>
        </Node>
      </Node>
    </BinaryTree>
    <BinaryTree type="DecisionTree" boostWeight="1.0000000000000000e+00" itree="1243">
      <Node pos="s" depth="0" NCoef="0" IVar="2" Cut="2.3411214351654053e+00" cType="1" res="7.6540983282029629e-03" rms="2.1423092484474182e-01" purity="5.0614726543426514e-01" nType="0">
        <Node pos="l" depth="1" NCoef="0" IVar="5" Cut="9.9871821701526642e-02" cType="1" res="-2.4104116484522820e-02" rms="1.6324353218078613e-01" purity="2.8366678953170776e-01" nType="0">
          <Node pos="l" depth="2" NCoef="0" IVar="-1" Cut="0.0000000000000000e+00" cType="1" res="6.6540669649839401e-04" rms="2.1718607842922211e-01" purity="4.2948439717292786e-01" nType="-99"/>
          <Node pos="r" depth="2" NCoef="0" IVar="-1" Cut="0.0000000000000000e+00" cType="1" res="-2.1399462129920721e-03" rms="1.0230094194412231e-01" purity="1.8377703428268433e-01" nType="-99"/>
        </Node>
        <Node pos="r" depth="1" NCoef="0" IVar="39" Cut="-1.3607171773910522e+00" cType="1" res="2.7988012880086899e-02" rms="2.3907868564128876e-01" purity="6.4859545230865479e-01" nType="0">
          <Node pos="l" depth="2" NCoef="0" IVar="-1" Cut="0.0000000000000000e+00" cType="1" res="1.0074966121464968e-03" rms="2.4768353998661041e-01" purity="6.7502593994140625e-01" nType="-99"/>
          <Node pos="r" depth="2" NCoef="0" IVar="-1" Cut="0.0000000000000000e+00" cType="1" res="-8.4381113993003964e-04" rms="1.8897043168544769e-01" purity="5.3479683399200439e-01" nType="-99"/>
        </Node>
      </Node>
    </BinaryTree>
    <BinaryTree type="DecisionTree" boostWeight="1.0000000000000000e+00" itree="1244">
      <Node pos="s" depth="0" NCoef="0" IVar="17" Cut="1.5231137275695801e+00" cType="1" res="3.0455070082098246e-03" rms="2.1083045005798340e-01" purity="4.9113920331001282e-01" nType="0">
        <Node pos="l" depth="1" NCoef="0" IVar="31" Cut="3.4341661930084229e+00" cType="1" res="-1.3902430422604084e-02" rms="2.0719699561595917e-01" purity="2.5065314769744873e-01" nType="0">
          <Node pos="l" depth="2" NCoef="0" IVar="-1" Cut="0.0000000000000000e+00" cType="1" res="-6.7638313339557499e-05" rms="2.2529233992099762e-01" purity="2.6644575595855713e-01" nType="-99"/>
          <Node pos="r" depth="2" NCoef="0" IVar="-1" Cut="0.0000000000000000e+00" cType="1" res="-2.6326188817620277e-03" rms="0.0000000000000000e+00" purity="1.5681377053260803e-01" nType="-99"/>
        </Node>
        <Node pos="r" depth="1" NCoef="0" IVar="17" Cut="1.5317161083221436e+00" cType="1" res="2.9941584914922714e-02" rms="2.1373040974140167e-01" purity="8.7278628349304199e-01" nType="0">
          <Node pos="l" depth="2" NCoef="0" IVar="-1" Cut="0.0000000000000000e+00" cType="1" res="-2.8198090149089694e-04" rms="2.6409947872161865e-01" purity="7.8129607439041138e-01" nType="-99"/>
          <Node pos="r" depth="2" NCoef="0" IVar="-1" Cut="0.0000000000000000e+00" cType="1" res="1.2614503502845764e-03" rms="1.9455325603485107e-01" purity="8.9990633726119995e-01" nType="-99"/>
        </Node>
      </Node>
    </BinaryTree>
    <BinaryTree type="DecisionTree" boostWeight="1.0000000000000000e+00" itree="1245">
      <Node pos="s" depth="0" NCoef="0" IVar="2" Cut="2.4901125431060791e+00" cType="1" res="5.1067490130662918e-03" rms="2.1636641025543213e-01" purity="4.9905428290367126e-01" nType="0">
        <Node pos="l" depth="1" NCoef="0" IVar="52" Cut="2.3111906051635742e+00" cType="1" res="-2.0455326884984970e-02" rms="1.8249459564685822e-01" purity="3.2573080062866211e-01" nType="0">
          <Node pos="l" depth="2" NCoef="0" IVar="-1" Cut="0.0000000000000000e+00" cType="1" res="-5.3108264692127705e-03" rms="0.0000000000000000e+00" purity="-1.9209841266274452e-02" nType="-99"/>
          <Node pos="r" depth="2" NCoef="0" IVar="-1" Cut="0.0000000000000000e+00" cType="1" res="-4.2108693742193282e-04" rms="2.0424453914165497e-01" purity="3.5293361544609070e-01" nType="-99"/>
        </Node>
        <Node pos="r" depth="1" NCoef="0" IVar="34" Cut="-1.4540297985076904e+00" cType="1" res="2.9274368658661842e-02" rms="2.4163135886192322e-01" purity="6.6292262077331543e-01" nType="0">
          <Node pos="l" depth="2" NCoef="0" IVar="-1" Cut="0.0000000000000000e+00" cType="1" res="3.3462762366980314e-03" rms="3.0353382229804993e-01" purity="7.2379291057586670e-01" nType="-99"/>
          <Node pos="r" depth="2" NCoef="0" IVar="-1" Cut="0.0000000000000000e+00" cType="1" res="5.7114823721349239e-04" rms="2.3513354361057281e-01" purity="6.5880370140075684e-01" nType="-99"/>
        </Node>
      </Node>
    </BinaryTree>
    <BinaryTree type="DecisionTree" boostWeight="1.0000000000000000e+00" itree="1246">
      <Node pos="s" depth="0" NCoef="0" IVar="52" Cut="3.3961846828460693e+00" cType="1" res="8.6950231343507767e-03" rms="2.1696490049362183e-01" purity="4.9374589323997498e-01" nType="0">
        <Node pos="l" depth="1" NCoef="0" IVar="14" Cut="-1.1832537651062012e+00" cType="1" res="1.7362762242555618e-02" rms="2.2691494226455688e-01" purity="5.1141113042831421e-01" nType="0">
          <Node pos="l" depth="2" NCoef="0" IVar="-1" Cut="0.0000000000000000e+00" cType="1" res="-6.0147751355543733e-04" rms="1.8757018446922302e-01" purity="3.4345114231109619e-01" nType="-99"/>
          <Node pos="r" depth="2" NCoef="0" IVar="-1" Cut="0.0000000000000000e+00" cType="1" res="1.0563037358224392e-03" rms="2.4643616378307343e-01" purity="6.1940807104110718e-01" nType="-99"/>
        </Node>
        <Node pos="r" depth="1" NCoef="0" IVar="42" Cut="-1.9865462183952332e-01" cType="1" res="-6.2425944954156876e-02" rms="7.1830466389656067e-02" purity="3.4879809617996216e-01" nType="0">
          <Node pos="l" depth="2" NCoef="0" IVar="-1" Cut="0.0000000000000000e+00" cType="1" res="-6.5002539195120335e-03" rms="0.0000000000000000e+00" purity="1.5119563043117523e-01" nType="-99"/>
          <Node pos="r" depth="2" NCoef="0" IVar="-1" Cut="0.0000000000000000e+00" cType="1" res="-9.4359123613685369e-04" rms="1.5805982053279877e-01" purity="4.1207659244537354e-01" nType="-99"/>
        </Node>
      </Node>
    </BinaryTree>
    <BinaryTree type="DecisionTree" boostWeight="1.0000000000000000e+00" itree="1247">
      <Node pos="s" depth="0" NCoef="0" IVar="48" Cut="7.5787323713302612e-01" cType="1" res="1.1185717768967152e-02" rms="2.1865506470203400e-01" purity="5.0790286064147949e-01" nType="0">
        <Node pos="l" depth="1" NCoef="0" IVar="39" Cut="-1.7118027210235596e+00" cType="1" res="-3.6132913082838058e-03" rms="0.0000000000000000e+00" purity="2.3036014754325151e-03" nType="-99"/>
        <Node pos="r" depth="1" NCoef="0" IVar="3" Cut="5.2378163337707520e+00" cType="1" res="1.6904987394809723e-02" rms="2.2734798491001129e-01" purity="5.3286999464035034e-01" nType="0">
          <Node pos="l" depth="2" NCoef="0" IVar="-1" Cut="0.0000000000000000e+00" cType="1" res="3.3828124287538230e-04" rms="2.2472125291824341e-01" purity="5.3590118885040283e-01" nType="-99"/>
          <Node pos="r" depth="2" NCoef="0" IVar="-1" Cut="0.0000000000000000e+00" cType="1" res="2.6681807357817888e-03" rms="2.4908815324306488e-01" purity="4.7869431972503662e-01" nType="-99"/>
        </Node>
      </Node>
    </BinaryTree>
    <BinaryTree type="DecisionTree" boostWeight="1.0000000000000000e+00" itree="1248">
      <Node pos="s" depth="0" NCoef="0" IVar="21" Cut="1.4226371049880981e-01" cType="1" res="1.1523881927132607e-02" rms="2.1456243097782135e-01" purity="5.1271927356719971e-01" nType="0">
        <Node pos="l" depth="1" NCoef="0" IVar="52" Cut="3.5285491943359375e+00" cType="1" res="2.2636566311120987e-02" rms="2.2272180020809174e-01" purity="5.3630661964416504e-01" nType="0">
          <Node pos="l" depth="2" NCoef="0" IVar="-1" Cut="0.0000000000000000e+00" cType="1" res="7.9871079651638865e-04" rms="2.2811318933963776e-01" purity="5.5156493186950684e-01" nType="-99"/>
          <Node pos="r" depth="2" NCoef="0" IVar="-1" Cut="0.0000000000000000e+00" cType="1" res="-4.8041562549769878e-03" rms="0.0000000000000000e+00" purity="1.9245308637619019e-01" nType="-99"/>
        </Node>
        <Node pos="r" depth="1" NCoef="0" IVar="48" Cut="1.6160817146301270e+00" cType="1" res="-4.5946512371301651e-02" rms="1.5376427769660950e-01" purity="3.9073508977890015e-01" nType="0">
          <Node pos="l" depth="2" NCoef="0" IVar="-1" Cut="0.0000000000000000e+00" cType="1" res="-5.4265200160443783e-03" rms="0.0000000000000000e+00" purity="5.8942191302776337e-02" nType="-99"/>
          <Node pos="r" depth="2" NCoef="0" IVar="-1" Cut="0.0000000000000000e+00" cType="1" res="-6.0599949210882187e-04" rms="2.0367683470249176e-01" purity="4.9878501892089844e-01" nType="-99"/>
        </Node>
      </Node>
    </BinaryTree>
    <BinaryTree type="DecisionTree" boostWeight="1.0000000000000000e+00" itree="1249">
      <Node pos="s" depth="0" NCoef="0" IVar="15" Cut="1.5212173461914062e+00" cType="1" res="6.0286312364041805e-03" rms="2.1022263169288635e-01" purity="4.9754610657691956e-01" nType="0">
        <Node pos="l" depth="1" NCoef="0" IVar="55" Cut="-1.4543544054031372e+00" cType="1" res="1.3559105806052685e-02" rms="1.9496008753776550e-01" purity="5.0374990701675415e-01" nType="0">
          <Node pos="l" depth="2" NCoef="0" IVar="-1" Cut="0.0000000000000000e+00" cType="1" res="1.2822250137105584e-03" rms="2.1857698261737823e-01" purity="5.8706915378570557e-01" nType="-99"/>
          <Node pos="r" depth="2" NCoef="0" IVar="-1" Cut="0.0000000000000000e+00" cType="1" res="-1.9470714323688298e-04" rms="1.7604959011077881e-01" purity="4.5217955112457275e-01" nType="-99"/>
        </Node>
        <Node pos="r" depth="1" NCoef="0" IVar="15" Cut="1.5331434011459351e+00" cType="1" res="-5.5914118885993958e-02" rms="3.0126127600669861e-01" purity="4.4651636481285095e-01" nType="0">
          <Node pos="l" depth="2" NCoef="0" IVar="-1" Cut="0.0000000000000000e+00" cType="1" res="4.9352011410519481e-04" rms="2.9167869687080383e-01" purity="6.2707310914993286e-01" nType="-99"/>
          <Node pos="r" depth="2" NCoef="0" IVar="-1" Cut="0.0000000000000000e+00" cType="1" res="-5.3123678080737591e-03" rms="2.7539956569671631e-01" purity="2.0901332795619965e-01" nType="-99"/>
        </Node>
      </Node>
    </BinaryTree>
    <BinaryTree type="DecisionTree" boostWeight="1.0000000000000000e+00" itree="1250">
      <Node pos="s" depth="0" NCoef="0" IVar="3" Cut="5.1929507255554199e+00" cType="1" res="1.6524866223335266e-02" rms="2.3362296819686890e-01" purity="5.0764065980911255e-01" nType="0">
        <Node pos="l" depth="1" NCoef="0" IVar="40" Cut="5.8272004127502441e-01" cType="1" res="9.8572084680199623e-03" rms="2.2880123555660248e-01" purity="5.0819557905197144e-01" nType="0">
          <Node pos="l" depth="2" NCoef="0" IVar="-1" Cut="0.0000000000000000e+00" cType="1" res="1.2074003461748362e-03" rms="2.5733774900436401e-01" purity="5.7221019268035889e-01" nType="-99"/>
          <Node pos="r" depth="2" NCoef="0" IVar="-1" Cut="0.0000000000000000e+00" cType="1" res="-1.8540192104410380e-04" rms="2.1281126141548157e-01" purity="4.7923374176025391e-01" nType="-99"/>
        </Node>
        <Node pos="r" depth="1" NCoef="0" IVar="27" Cut="1.8370282649993896e+00" cType="1" res="1.0412663221359253e-01" rms="2.7498349547386169e-01" purity="5.0035035610198975e-01" nType="0">
          <Node pos="l" depth="2" NCoef="0" IVar="-1" Cut="0.0000000000000000e+00" cType="1" res="6.9499490782618523e-03" rms="4.0280172228813171e-01" purity="5.1311534643173218e-01" nType="-99"/>
          <Node pos="r" depth="2" NCoef="0" IVar="-1" Cut="0.0000000000000000e+00" cType="1" res="-1.2671705335378647e-03" rms="0.0000000000000000e+00" purity="4.8906129598617554e-01" nType="-99"/>
        </Node>
      </Node>
    </BinaryTree>
    <BinaryTree type="DecisionTree" boostWeight="1.0000000000000000e+00" itree="1251">
      <Node pos="s" depth="0" NCoef="0" IVar="41" Cut="-2.1197699010372162e-01" cType="1" res="5.4864827543497086e-03" rms="2.1169479191303253e-01" purity="4.9467062950134277e-01" nType="0">
        <Node pos="l" depth="1" NCoef="0" IVar="19" Cut="5.5086708068847656e-01" cType="1" res="8.3565369248390198e-02" rms="2.7322849631309509e-01" purity="5.9385311603546143e-01" nType="0">
          <Node pos="l" depth="2" NCoef="0" IVar="-1" Cut="0.0000000000000000e+00" cType="1" res="4.2500942945480347e-03" rms="3.5214683413505554e-01" purity="7.0351976156234741e-01" nType="-99"/>
          <Node pos="r" depth="2" NCoef="0" IVar="-1" Cut="0.0000000000000000e+00" cType="1" res="8.4234646055847406e-04" rms="2.0137253403663635e-01" purity="5.3579849004745483e-01" nType="-99"/>
        </Node>
        <Node pos="r" depth="1" NCoef="0" IVar="56" Cut="-1.4539417028427124e+00" cType="1" res="-2.8845230117440224e-03" rms="2.0221745967864990e-01" purity="4.8403707146644592e-01" nType="0">
          <Node pos="l" depth="2" NCoef="0" IVar="-1" Cut="0.0000000000000000e+00" cType="1" res="6.4795278012752533e-04" rms="2.3420502245426178e-01" purity="5.6765282154083252e-01" nType="-99"/>
          <Node pos="r" depth="2" NCoef="0" IVar="-1" Cut="0.0000000000000000e+00" cType="1" res="-8.5565674817189574e-04" rms="1.6324619948863983e-01" purity="4.0562808513641357e-01" nType="-99"/>
        </Node>
      </Node>
    </BinaryTree>
    <BinaryTree type="DecisionTree" boostWeight="1.0000000000000000e+00" itree="1252">
      <Node pos="s" depth="0" NCoef="0" IVar="52" Cut="2.3952183723449707e+00" cType="1" res="8.3664637058973312e-03" rms="2.1586629748344421e-01" purity="5.1234614849090576e-01" nType="0">
        <Node pos="l" depth="1" NCoef="0" IVar="2" Cut="2.6080930233001709e+00" cType="1" res="-5.8721080422401428e-02" rms="9.5275886356830597e-02" purity="2.1958801150321960e-01" nType="0">
          <Node pos="l" depth="2" NCoef="0" IVar="-1" Cut="0.0000000000000000e+00" cType="1" res="-4.8835258930921555e-03" rms="0.0000000000000000e+00" purity="2.9512770473957062e-02" nType="-99"/>
          <Node pos="r" depth="2" NCoef="0" IVar="-1" Cut="0.0000000000000000e+00" cType="1" res="1.0615645442157984e-03" rms="3.1418061256408691e-01" purity="5.5860936641693115e-01" nType="-99"/>
        </Node>
        <Node pos="r" depth="1" NCoef="0" IVar="3" Cut="4.7526760101318359e+00" cType="1" res="1.5682065859436989e-02" rms="2.2393174469470978e-01" purity="5.4427015781402588e-01" nType="0">
          <Node pos="l" depth="2" NCoef="0" IVar="-1" Cut="0.0000000000000000e+00" cType="1" res="-1.3894814765080810e-04" rms="2.2166784107685089e-01" purity="4.5961713790893555e-01" nType="-99"/>
          <Node pos="r" depth="2" NCoef="0" IVar="-1" Cut="0.0000000000000000e+00" cType="1" res="1.1433155741542578e-03" rms="2.2428198158740997e-01" purity="6.3497656583786011e-01" nType="-99"/>
        </Node>
      </Node>
    </BinaryTree>
    <BinaryTree type="DecisionTree" boostWeight="1.0000000000000000e+00" itree="1253">
      <Node pos="s" depth="0" NCoef="0" IVar="25" Cut="1.1171991825103760e+00" cType="1" res="8.7741194292902946e-03" rms="2.1342416107654572e-01" purity="5.0531250238418579e-01" nType="0">
        <Node pos="l" depth="1" NCoef="0" IVar="40" Cut="7.0439291000366211e-01" cType="1" res="1.6015160828828812e-02" rms="2.2125175595283508e-01" purity="5.2490782737731934e-01" nType="0">
          <Node pos="l" depth="2" NCoef="0" IVar="-1" Cut="0.0000000000000000e+00" cType="1" res="1.0557795176282525e-03" rms="2.4517081677913666e-01" purity="5.6666904687881470e-01" nType="-99"/>
          <Node pos="r" depth="2" NCoef="0" IVar="-1" Cut="0.0000000000000000e+00" cType="1" res="-1.1346521932864562e-04" rms="1.9829876720905304e-01" purity="4.9215853214263916e-01" nType="-99"/>
        </Node>
        <Node pos="r" depth="1" NCoef="0" IVar="37" Cut="-9.9612140655517578e-01" cType="1" res="-4.1942931711673737e-03" rms="0.0000000000000000e+00" purity="2.6536557078361511e-01" nType="-99"/>
      </Node>
    </BinaryTree>
    <BinaryTree type="DecisionTree" boostWeight="1.0000000000000000e+00" itree="1254">
      <Node pos="s" depth="0" NCoef="0" IVar="3" Cut="4.7605395317077637e+00" cType="1" res="4.1378536261618137e-03" rms="2.1054990589618683e-01" purity="4.9749401211738586e-01" nType="0">
        <Node pos="l" depth="1" NCoef="0" IVar="10" Cut="2.9699869155883789e+00" cType="1" res="-1.9577402621507645e-02" rms="2.0355790853500366e-01" purity="4.1324266791343689e-01" nType="0">
          <Node pos="l" depth="2" NCoef="0" IVar="-1" Cut="0.0000000000000000e+00" cType="1" res="-2.2257643286138773e-03" rms="1.5712457895278931e-01" purity="1.3615973293781281e-01" nType="-99"/>
          <Node pos="r" depth="2" NCoef="0" IVar="-1" Cut="0.0000000000000000e+00" cType="1" res="7.1897273301146924e-05" rms="2.1760427951812744e-01" purity="5.3716462850570679e-01" nType="-99"/>
        </Node>
        <Node pos="r" depth="1" NCoef="0" IVar="58" Cut="-1.3011529445648193e+00" cType="1" res="3.3444698899984360e-02" rms="2.1530321240425110e-01" purity="6.0161024332046509e-01" nType="0">
          <Node pos="l" depth="2" NCoef="0" IVar="-1" Cut="0.0000000000000000e+00" cType="1" res="2.2537601180374622e-03" rms="2.5774472951889038e-01" purity="7.3072123527526855e-01" nType="-99"/>
          <Node pos="r" depth="2" NCoef="0" IVar="-1" Cut="0.0000000000000000e+00" cType="1" res="3.4330354537814856e-04" rms="1.9178658723831177e-01" purity="5.5137693881988525e-01" nType="-99"/>
        </Node>
      </Node>
    </BinaryTree>
    <BinaryTree type="DecisionTree" boostWeight="1.0000000000000000e+00" itree="1255">
      <Node pos="s" depth="0" NCoef="0" IVar="15" Cut="1.5212173461914062e+00" cType="1" res="1.5143604017794132e-02" rms="2.2688812017440796e-01" purity="5.0114977359771729e-01" nType="0">
        <Node pos="l" depth="1" NCoef="0" IVar="15" Cut="-9.5922642946243286e-01" cType="1" res="2.4151057004928589e-02" rms="2.1579946577548981e-01" purity="5.0530183315277100e-01" nType="0">
          <Node pos="l" depth="2" NCoef="0" IVar="-1" Cut="0.0000000000000000e+00" cType="1" res="-1.9415935967117548e-03" rms="5.0484247505664825e-02" purity="1.6287739574909210e-01" nType="-99"/>
          <Node pos="r" depth="2" NCoef="0" IVar="-1" Cut="0.0000000000000000e+00" cType="1" res="1.0601051617413759e-03" rms="2.5079447031021118e-01" purity="6.4106822013854980e-01" nType="-99"/>
        </Node>
        <Node pos="r" depth="1" NCoef="0" IVar="15" Cut="1.5336240530014038e+00" cType="1" res="-5.5415399372577667e-02" rms="2.9037353396415710e-01" purity="4.6862483024597168e-01" nType="0">
          <Node pos="l" depth="2" NCoef="0" IVar="-1" Cut="0.0000000000000000e+00" cType="1" res="2.0009677973575890e-04" rms="2.7117067575454712e-01" purity="6.1672556400299072e-01" nType="-99"/>
          <Node pos="r" depth="2" NCoef="0" IVar="-1" Cut="0.0000000000000000e+00" cType="1" res="-3.9350241422653198e-03" rms="2.9140803217887878e-01" purity="2.8775221109390259e-01" nType="-99"/>
        </Node>
      </Node>
    </BinaryTree>
    <BinaryTree type="DecisionTree" boostWeight="1.0000000000000000e+00" itree="1256">
      <Node pos="s" depth="0" NCoef="0" IVar="57" Cut="1.4826163053512573e+00" cType="1" res="9.1826273128390312e-03" rms="2.1629144251346588e-01" purity="5.0029283761978149e-01" nType="0">
        <Node pos="l" depth="1" NCoef="0" IVar="15" Cut="1.5219346284866333e+00" cType="1" res="1.3119685463607311e-02" rms="2.1861167252063751e-01" purity="5.1426559686660767e-01" nType="0">
          <Node pos="l" depth="2" NCoef="0" IVar="-1" Cut="0.0000000000000000e+00" cType="1" res="6.4745254348963499e-04" rms="2.0730707049369812e-01" purity="5.1659810543060303e-01" nType="-99"/>
          <Node pos="r" depth="2" NCoef="0" IVar="-1" Cut="0.0000000000000000e+00" cType="1" res="-9.2764908913522959e-04" rms="2.8469860553741455e-01" purity="4.9631127715110779e-01" nType="-99"/>
        </Node>
        <Node pos="r" depth="1" NCoef="0" IVar="-1" Cut="0.0000000000000000e+00" cType="1" res="-6.5885148942470551e-03" rms="0.0000000000000000e+00" purity="3.2169733196496964e-02" nType="-99"/>
      </Node>
    </BinaryTree>
    <BinaryTree type="DecisionTree" boostWeight="1.0000000000000000e+00" itree="1257">
      <Node pos="s" depth="0" NCoef="0" IVar="17" Cut="1.5220416784286499e+00" cType="1" res="5.1130275242030621e-03" rms="2.0590136945247650e-01" purity="5.0428634881973267e-01" nType="0">
        <Node pos="l" depth="1" NCoef="0" IVar="2" Cut="3.0837101936340332e+00" cType="1" res="-1.8551038578152657e-02" rms="1.8957430124282837e-01" purity="2.5375220179557800e-01" nType="0">
          <Node pos="l" depth="2" NCoef="0" IVar="-1" Cut="0.0000000000000000e+00" cType="1" res="-1.2514182599261403e-03" rms="1.5531881153583527e-01" purity="1.9142407178878784e-01" nType="-99"/>
          <Node pos="r" depth="2" NCoef="0" IVar="-1" Cut="0.0000000000000000e+00" cType="1" res="1.1978431139141321e-03" rms="2.9448962211608887e-01" purity="5.5829119682312012e-01" nType="-99"/>
        </Node>
        <Node pos="r" depth="1" NCoef="0" IVar="31" Cut="3.3667864799499512e+00" cType="1" res="4.0032662451267242e-02" rms="2.2333338856697083e-01" purity="8.7398451566696167e-01" nType="0">
          <Node pos="l" depth="2" NCoef="0" IVar="-1" Cut="0.0000000000000000e+00" cType="1" res="7.2610744973644614e-04" rms="2.2130665183067322e-01" purity="8.5666137933731079e-01" nType="-99"/>
          <Node pos="r" depth="2" NCoef="0" IVar="-1" Cut="0.0000000000000000e+00" cType="1" res="1.7689634114503860e-03" rms="2.2457347810268402e-01" purity="9.1845083236694336e-01" nType="-99"/>
        </Node>
      </Node>
    </BinaryTree>
    <BinaryTree type="DecisionTree" boostWeight="1.0000000000000000e+00" itree="1258">
      <Node pos="s" depth="0" NCoef="0" IVar="14" Cut="1.4065815210342407e+00" cType="1" res="6.9901221431791782e-03" rms="2.1135750412940979e-01" purity="5.0412130355834961e-01" nType="0">
        <Node pos="l" depth="1" NCoef="0" IVar="14" Cut="-7.2468805313110352e-01" cType="1" res="1.0494824498891830e-02" rms="2.1200437843799591e-01" purity="5.1027762889862061e-01" nType="0">
          <Node pos="l" depth="2" NCoef="0" IVar="-1" Cut="0.0000000000000000e+00" cType="1" res="-2.3630948271602392e-04" rms="1.9293826818466187e-01" purity="4.4898805022239685e-01" nType="-99"/>
          <Node pos="r" depth="2" NCoef="0" IVar="-1" Cut="0.0000000000000000e+00" cType="1" res="9.8918937146663666e-04" rms="2.3578883707523346e-01" purity="6.0428804159164429e-01" nType="-99"/>
        </Node>
        <Node pos="r" depth="1" NCoef="0" IVar="-1" Cut="0.0000000000000000e+00" cType="1" res="-3.0926761683076620e-03" rms="6.4599312841892242e-02" purity="2.1513187885284424e-01" nType="-99"/>
      </Node>
    </BinaryTree>
    <BinaryTree type="DecisionTree" boostWeight="1.0000000000000000e+00" itree="1259">
      <Node pos="s" depth="0" NCoef="0" IVar="52" Cut="3.1207253932952881e+00" cType="1" res="-4.3714791536331177e-03" rms="1.9857428967952728e-01" purity="4.8367109894752502e-01" nType="0">
        <Node pos="l" depth="1" NCoef="0" IVar="48" Cut="1.2058175802230835e+00" cType="1" res="1.3990847393870354e-02" rms="2.1505524218082428e-01" purity="5.0410449504852295e-01" nType="0">
          <Node pos="l" depth="2" NCoef="0" IVar="-1" Cut="0.0000000000000000e+00" cType="1" res="-2.1504517644643784e-03" rms="0.0000000000000000e+00" purity="1.2137016654014587e-01" nType="-99"/>
          <Node pos="r" depth="2" NCoef="0" IVar="-1" Cut="0.0000000000000000e+00" cType="1" res="1.1092883069068193e-03" rms="2.4227148294448853e-01" purity="6.2553995847702026e-01" nType="-99"/>
        </Node>
        <Node pos="r" depth="1" NCoef="0" IVar="17" Cut="1.5220416784286499e+00" cType="1" res="-3.9800766855478287e-02" rms="1.5611800551414490e-01" purity="4.4424593448638916e-01" nType="0">
          <Node pos="l" depth="2" NCoef="0" IVar="-1" Cut="0.0000000000000000e+00" cType="1" res="-2.3989258334040642e-03" rms="8.1517070531845093e-02" purity="1.8273934721946716e-01" nType="-99"/>
          <Node pos="r" depth="2" NCoef="0" IVar="-1" Cut="0.0000000000000000e+00" cType="1" res="2.5023531634360552e-04" rms="2.2029122710227966e-01" purity="8.5794198513031006e-01" nType="-99"/>
        </Node>
      </Node>
    </BinaryTree>
    <BinaryTree type="DecisionTree" boostWeight="1.0000000000000000e+00" itree="1260">
      <Node pos="s" depth="0" NCoef="0" IVar="17" Cut="1.5231137275695801e+00" cType="1" res="4.7721709124743938e-03" rms="2.0211961865425110e-01" purity="5.0520652532577515e-01" nType="0">
        <Node pos="l" depth="1" NCoef="0" IVar="61" Cut="8.7124216556549072e-01" cType="1" res="-1.4706178568303585e-02" rms="1.9042299687862396e-01" purity="2.7642181515693665e-01" nType="0">
          <Node pos="l" depth="2" NCoef="0" IVar="-1" Cut="0.0000000000000000e+00" cType="1" res="3.4847122151404619e-04" rms="2.2913083434104919e-01" purity="3.2118302583694458e-01" nType="-99"/>
          <Node pos="r" depth="2" NCoef="0" IVar="-1" Cut="0.0000000000000000e+00" cType="1" res="-1.8627672689035535e-03" rms="9.5035664737224579e-02" purity="2.0893767476081848e-01" nType="-99"/>
        </Node>
        <Node pos="r" depth="1" NCoef="0" IVar="3" Cut="4.7491602897644043e+00" cType="1" res="3.5855978727340698e-02" rms="2.1588824689388275e-01" purity="8.7030422687530518e-01" nType="0">
          <Node pos="l" depth="2" NCoef="0" IVar="-1" Cut="0.0000000000000000e+00" cType="1" res="1.8228220869787037e-04" rms="2.2804015874862671e-01" purity="8.0440086126327515e-01" nType="-99"/>
          <Node pos="r" depth="2" NCoef="0" IVar="-1" Cut="0.0000000000000000e+00" cType="1" res="1.7555318772792816e-03" rms="2.0179963111877441e-01" purity="9.2644536495208740e-01" nType="-99"/>
        </Node>
      </Node>
    </BinaryTree>
    <BinaryTree type="DecisionTree" boostWeight="1.0000000000000000e+00" itree="1261">
      <Node pos="s" depth="0" NCoef="0" IVar="8" Cut="-9.1139173507690430e-01" cType="1" res="4.0892041288316250e-03" rms="2.0869532227516174e-01" purity="5.0618219375610352e-01" nType="0">
        <Node pos="l" depth="1" NCoef="0" IVar="58" Cut="1.2812411785125732e+00" cType="1" res="9.3081407248973846e-03" rms="2.1172086894512177e-01" purity="5.2655875682830811e-01" nType="0">
          <Node pos="l" depth="2" NCoef="0" IVar="-1" Cut="0.0000000000000000e+00" cType="1" res="4.0866326889954507e-04" rms="2.1561658382415771e-01" purity="5.3784000873565674e-01" nType="-99"/>
          <Node pos="r" depth="2" NCoef="0" IVar="-1" Cut="0.0000000000000000e+00" cType="1" res="-4.8352298326790333e-03" rms="0.0000000000000000e+00" purity="2.4088010191917419e-01" nType="-99"/>
        </Node>
        <Node pos="r" depth="1" NCoef="0" IVar="17" Cut="8.9743071794509888e-01" cType="1" res="-1.1093994975090027e-01" rms="4.1062813252210617e-02" purity="5.7069581001996994e-02" nType="0">
          <Node pos="l" depth="2" NCoef="0" IVar="-1" Cut="0.0000000000000000e+00" cType="1" res="-4.3655976653099060e-02" rms="0.0000000000000000e+00" purity="-9.1566015034914017e-03" nType="-99"/>
          <Node pos="r" depth="2" NCoef="0" IVar="-1" Cut="0.0000000000000000e+00" cType="1" res="-4.4359997846186161e-03" rms="0.0000000000000000e+00" purity="1.1731541901826859e-01" nType="-99"/>
        </Node>
      </Node>
    </BinaryTree>
    <BinaryTree type="DecisionTree" boostWeight="1.0000000000000000e+00" itree="1262">
      <Node pos="s" depth="0" NCoef="0" IVar="0" Cut="6.6888457536697388e-01" cType="1" res="-3.0909818597137928e-03" rms="2.0571188628673553e-01" purity="4.9088037014007568e-01" nType="0">
        <Node pos="l" depth="1" NCoef="0" IVar="60" Cut="-8.6965769529342651e-01" cType="1" res="1.7265263944864273e-02" rms="2.2632770240306854e-01" purity="5.5827552080154419e-01" nType="0">
          <Node pos="l" depth="2" NCoef="0" IVar="-1" Cut="0.0000000000000000e+00" cType="1" res="7.4614386539906263e-04" rms="2.3329293727874756e-01" purity="5.8184880018234253e-01" nType="-99"/>
          <Node pos="r" depth="2" NCoef="0" IVar="-1" Cut="0.0000000000000000e+00" cType="1" res="-5.1584108732640743e-03" rms="0.0000000000000000e+00" purity="1.4682179689407349e-01" nType="-99"/>
        </Node>
        <Node pos="r" depth="1" NCoef="0" IVar="4" Cut="3.6318473815917969e+00" cType="1" res="-3.5037294030189514e-02" rms="1.6330474615097046e-01" purity="3.8511309027671814e-01" nType="0">
          <Node pos="l" depth="2" NCoef="0" IVar="-1" Cut="0.0000000000000000e+00" cType="1" res="-2.6162408757954836e-03" rms="1.1036640405654907e-01" purity="2.3047877848148346e-01" nType="-99"/>
          <Node pos="r" depth="2" NCoef="0" IVar="-1" Cut="0.0000000000000000e+00" cType="1" res="1.7868765280582011e-04" rms="2.0037166774272919e-01" purity="5.6365525722503662e-01" nType="-99"/>
        </Node>
      </Node>
    </BinaryTree>
    <BinaryTree type="DecisionTree" boostWeight="1.0000000000000000e+00" itree="1263">
      <Node pos="s" depth="0" NCoef="0" IVar="0" Cut="7.9111427068710327e-01" cType="1" res="1.8218464683741331e-03" rms="2.0419889688491821e-01" purity="5.0104475021362305e-01" nType="0">
        <Node pos="l" depth="1" NCoef="0" IVar="58" Cut="4.3304526805877686e-01" cType="1" res="1.6367042437195778e-02" rms="2.1531592309474945e-01" purity="5.4302603006362915e-01" nType="0">
          <Node pos="l" depth="2" NCoef="0" IVar="-1" Cut="0.0000000000000000e+00" cType="1" res="7.7038060408085585e-04" rms="2.2328978776931763e-01" purity="5.6478232145309448e-01" nType="-99"/>
          <Node pos="r" depth="2" NCoef="0" IVar="-1" Cut="0.0000000000000000e+00" cType="1" res="-1.2176566524431109e-03" rms="1.5284232795238495e-01" purity="4.2237105965614319e-01" nType="-99"/>
        </Node>
        <Node pos="r" depth="1" NCoef="0" IVar="41" Cut="-1.6778163611888885e-01" cType="1" res="-3.4962441772222519e-02" rms="1.6737560927867889e-01" purity="3.9487546682357788e-01" nType="0">
          <Node pos="l" depth="2" NCoef="0" IVar="-1" Cut="0.0000000000000000e+00" cType="1" res="-4.9642748199403286e-03" rms="0.0000000000000000e+00" purity="3.3796185255050659e-01" nType="-99"/>
          <Node pos="r" depth="2" NCoef="0" IVar="-1" Cut="0.0000000000000000e+00" cType="1" res="-6.0466420836746693e-04" rms="1.9616493582725525e-01" purity="4.0116149187088013e-01" nType="-99"/>
        </Node>
      </Node>
    </BinaryTree>
    <BinaryTree type="DecisionTree" boostWeight="1.0000000000000000e+00" itree="1264">
      <Node pos="s" depth="0" NCoef="0" IVar="57" Cut="1.3681460618972778e+00" cType="1" res="8.9470818638801575e-03" rms="2.1327678859233856e-01" purity="5.0354695320129395e-01" nType="0">
        <Node pos="l" depth="1" NCoef="0" IVar="38" Cut="-1.2226876020431519e+00" cType="1" res="1.6949923709034920e-02" rms="2.1962618827819824e-01" purity="5.3523057699203491e-01" nType="0">
          <Node pos="l" depth="2" NCoef="0" IVar="-1" Cut="0.0000000000000000e+00" cType="1" res="2.1202461794018745e-03" rms="2.4877436459064484e-01" purity="4.6342241764068604e-01" nType="-99"/>
          <Node pos="r" depth="2" NCoef="0" IVar="-1" Cut="0.0000000000000000e+00" cType="1" res="1.4352831931319088e-04" rms="2.0978458225727081e-01" purity="5.5385231971740723e-01" nType="-99"/>
        </Node>
        <Node pos="r" depth="1" NCoef="0" IVar="5" Cut="5.4581665992736816e-01" cType="1" res="-5.8823134750127792e-02" rms="1.3067266345024109e-01" purity="2.3524108529090881e-01" nType="0">
          <Node pos="l" depth="2" NCoef="0" IVar="-1" Cut="0.0000000000000000e+00" cType="1" res="-3.2013882882893085e-03" rms="0.0000000000000000e+00" purity="2.5702226161956787e-01" nType="-99"/>
          <Node pos="r" depth="2" NCoef="0" IVar="-1" Cut="0.0000000000000000e+00" cType="1" res="1.3133711181581020e-03" rms="3.0900126695632935e-01" purity="1.5505205094814301e-01" nType="-99"/>
        </Node>
      </Node>
    </BinaryTree>
    <BinaryTree type="DecisionTree" boostWeight="1.0000000000000000e+00" itree="1265">
      <Node pos="s" depth="0" NCoef="0" IVar="15" Cut="1.5219346284866333e+00" cType="1" res="1.9998825155198574e-03" rms="2.0954033732414246e-01" purity="4.9670329689979553e-01" nType="0">
        <Node pos="l" depth="1" NCoef="0" IVar="39" Cut="-1.1662901639938354e+00" cType="1" res="1.1609955690801144e-02" rms="1.9722299277782440e-01" purity="5.0399559736251831e-01" nType="0">
          <Node pos="l" depth="2" NCoef="0" IVar="-1" Cut="0.0000000000000000e+00" cType="1" res="6.4845394808799028e-04" rms="2.0713429152965546e-01" purity="5.3892135620117188e-01" nType="-99"/>
          <Node pos="r" depth="2" NCoef="0" IVar="-1" Cut="0.0000000000000000e+00" cType="1" res="-2.7615115977823734e-03" rms="8.9140519499778748e-02" purity="2.7697670459747314e-01" nType="-99"/>
        </Node>
        <Node pos="r" depth="1" NCoef="0" IVar="66" Cut="1.2345679104328156e-02" cType="1" res="-7.8373350203037262e-02" rms="2.8031727671623230e-01" purity="4.3571433424949646e-01" nType="0">
          <Node pos="l" depth="2" NCoef="0" IVar="-1" Cut="0.0000000000000000e+00" cType="1" res="-4.6348692849278450e-03" rms="2.2278681397438049e-01" purity="2.1265834569931030e-01" nType="-99"/>
          <Node pos="r" depth="2" NCoef="0" IVar="-1" Cut="0.0000000000000000e+00" cType="1" res="-1.9965966930612922e-04" rms="2.9824981093406677e-01" purity="6.0024565458297729e-01" nType="-99"/>
        </Node>
      </Node>
    </BinaryTree>
    <BinaryTree type="DecisionTree" boostWeight="1.0000000000000000e+00" itree="1266">
      <Node pos="s" depth="0" NCoef="0" IVar="52" Cut="3.3862209320068359e+00" cType="1" res="9.1559151187539101e-03" rms="2.1333111822605133e-01" purity="4.9629759788513184e-01" nType="0">
        <Node pos="l" depth="1" NCoef="0" IVar="3" Cut="5.2053122520446777e+00" cType="1" res="1.7399055883288383e-02" rms="2.2250595688819885e-01" purity="5.1144206523895264e-01" nType="0">
          <Node pos="l" depth="2" NCoef="0" IVar="-1" Cut="0.0000000000000000e+00" cType="1" res="3.2111030304804444e-04" rms="2.1615147590637207e-01" purity="5.0876694917678833e-01" nType="-99"/>
          <Node pos="r" depth="2" NCoef="0" IVar="-1" Cut="0.0000000000000000e+00" cType="1" res="2.9946151189506054e-03" rms="2.9171016812324524e-01" purity="5.5987805128097534e-01" nType="-99"/>
        </Node>
        <Node pos="r" depth="1" NCoef="0" IVar="5" Cut="4.3641263246536255e-01" cType="1" res="-5.0737671554088593e-02" rms="1.1124268174171448e-01" purity="3.8626050949096680e-01" nType="0">
          <Node pos="l" depth="2" NCoef="0" IVar="-1" Cut="0.0000000000000000e+00" cType="1" res="1.2987751688342541e-04" rms="1.5471056103706360e-01" purity="5.5389302968978882e-01" nType="-99"/>
          <Node pos="r" depth="2" NCoef="0" IVar="-1" Cut="0.0000000000000000e+00" cType="1" res="-4.8040598630905151e-03" rms="0.0000000000000000e+00" purity="2.7722872793674469e-02" nType="-99"/>
        </Node>
      </Node>
    </BinaryTree>
    <BinaryTree type="DecisionTree" boostWeight="1.0000000000000000e+00" itree="1267">
      <Node pos="s" depth="0" NCoef="0" IVar="57" Cut="1.3299909830093384e+00" cType="1" res="2.3618589621037245e-03" rms="2.0213258266448975e-01" purity="5.0299060344696045e-01" nType="0">
        <Node pos="l" depth="1" NCoef="0" IVar="36" Cut="1.4063773155212402e+00" cType="1" res="1.0493543930351734e-02" rms="2.1076653897762299e-01" purity="5.3907901048660278e-01" nType="0">
          <Node pos="l" depth="2" NCoef="0" IVar="-1" Cut="0.0000000000000000e+00" cType="1" res="-1.5476602129638195e-03" rms="1.3588523864746094e-01" purity="1.1667093634605408e-01" nType="-99"/>
          <Node pos="r" depth="2" NCoef="0" IVar="-1" Cut="0.0000000000000000e+00" cType="1" res="5.7053426280617714e-04" rms="2.2932292520999908e-01" purity="6.8150126934051514e-01" nType="-99"/>
        </Node>
        <Node pos="r" depth="1" NCoef="0" IVar="38" Cut="1.3246928453445435e+00" cType="1" res="-5.8525703847408295e-02" rms="9.9809482693672180e-02" purity="2.3277138173580170e-01" nType="0">
          <Node pos="l" depth="2" NCoef="0" IVar="-1" Cut="0.0000000000000000e+00" cType="1" res="-1.0771048255264759e-02" rms="0.0000000000000000e+00" purity="-2.8044037520885468e-02" nType="-99"/>
          <Node pos="r" depth="2" NCoef="0" IVar="-1" Cut="0.0000000000000000e+00" cType="1" res="-6.6051247995346785e-04" rms="2.1793559193611145e-01" purity="3.5229080915451050e-01" nType="-99"/>
        </Node>
      </Node>
    </BinaryTree>
    <BinaryTree type="DecisionTree" boostWeight="1.0000000000000000e+00" itree="1268">
      <Node pos="s" depth="0" NCoef="0" IVar="16" Cut="9.3459904193878174e-01" cType="1" res="1.0135709308087826e-02" rms="2.2261184453964233e-01" purity="5.0720357894897461e-01" nType="0">
        <Node pos="l" depth="1" NCoef="0" IVar="15" Cut="1.5209717750549316e+00" cType="1" res="1.6950527206063271e-02" rms="2.2463256120681763e-01" purity="5.2656507492065430e-01" nType="0">
          <Node pos="l" depth="2" NCoef="0" IVar="-1" Cut="0.0000000000000000e+00" cType="1" res="8.2701555220410228e-04" rms="2.1139112114906311e-01" purity="5.3284031152725220e-01" nType="-99"/>
          <Node pos="r" depth="2" NCoef="0" IVar="-1" Cut="0.0000000000000000e+00" cType="1" res="-1.1372936423867941e-03" rms="2.9947865009307861e-01" purity="4.7844818234443665e-01" nType="-99"/>
        </Node>
        <Node pos="r" depth="1" NCoef="0" IVar="55" Cut="-1.3775136470794678e+00" cType="1" res="-6.3610263168811798e-02" rms="1.8394328653812408e-01" purity="2.9768431186676025e-01" nType="0">
          <Node pos="l" depth="2" NCoef="0" IVar="-1" Cut="0.0000000000000000e+00" cType="1" res="-4.4442820362746716e-03" rms="0.0000000000000000e+00" purity="1.3841234147548676e-01" nType="-99"/>
          <Node pos="r" depth="2" NCoef="0" IVar="-1" Cut="0.0000000000000000e+00" cType="1" res="-4.4417273602448404e-04" rms="2.2412425279617310e-01" purity="3.6469650268554688e-01" nType="-99"/>
        </Node>
      </Node>
    </BinaryTree>
    <BinaryTree type="DecisionTree" boostWeight="1.0000000000000000e+00" itree="1269">
      <Node pos="s" depth="0" NCoef="0" IVar="60" Cut="-6.8880313634872437e-01" cType="1" res="7.2287060320377350e-03" rms="2.1539708971977234e-01" purity="5.0082486867904663e-01" nType="0">
        <Node pos="l" depth="1" NCoef="0" IVar="14" Cut="-1.2605623006820679e+00" cType="1" res="1.2339889071881771e-02" rms="2.2070905566215515e-01" purity="5.1593947410583496e-01" nType="0">
          <Node pos="l" depth="2" NCoef="0" IVar="-1" Cut="0.0000000000000000e+00" cType="1" res="-8.6267484584823251e-04" rms="1.8382947146892548e-01" purity="2.9783546924591064e-01" nType="-99"/>
          <Node pos="r" depth="2" NCoef="0" IVar="-1" Cut="0.0000000000000000e+00" cType="1" res="8.3738047396764159e-04" rms="2.3362413048744202e-01" purity="6.1544859409332275e-01" nType="-99"/>
        </Node>
        <Node pos="r" depth="1" NCoef="0" IVar="-1" Cut="0.0000000000000000e+00" cType="1" res="-1.2061678804457188e-02" rms="0.0000000000000000e+00" purity="1.8205499276518822e-02" nType="-99"/>
      </Node>
    </BinaryTree>
    <BinaryTree type="DecisionTree" boostWeight="1.0000000000000000e+00" itree="1270">
      <Node pos="s" depth="0" NCoef="0" IVar="27" Cut="1.2592899799346924e+00" cType="1" res="-1.7095817020162940e-03" rms="2.0519927144050598e-01" purity="4.9065765738487244e-01" nType="0">
        <Node pos="l" depth="1" NCoef="0" IVar="36" Cut="1.4805781841278076e+00" cType="1" res="-3.9852480404078960e-03" rms="0.0000000000000000e+00" purity="1.2157354503870010e-01" nType="-99"/>
        <Node pos="r" depth="1" NCoef="0" IVar="3" Cut="4.2820105552673340e+00" cType="1" res="8.8538415729999542e-03" rms="2.2071219980716705e-01" purity="5.4707175493240356e-01" nType="0">
          <Node pos="l" depth="2" NCoef="0" IVar="-1" Cut="0.0000000000000000e+00" cType="1" res="-5.0624506548047066e-03" rms="6.7877411842346191e-02" purity="8.2764379680156708e-02" nType="-99"/>
          <Node pos="r" depth="2" NCoef="0" IVar="-1" Cut="0.0000000000000000e+00" cType="1" res="3.8439640775322914e-04" rms="2.2240874171257019e-01" purity="5.6196016073226929e-01" nType="-99"/>
        </Node>
      </Node>
    </BinaryTree>
    <BinaryTree type="DecisionTree" boostWeight="1.0000000000000000e+00" itree="1271">
      <Node pos="s" depth="0" NCoef="0" IVar="22" Cut="1.2345679104328156e-02" cType="1" res="8.4749599918723106e-03" rms="2.2439658641815186e-01" purity="4.9225115776062012e-01" nType="0">
        <Node pos="l" depth="1" NCoef="0" IVar="17" Cut="1.2374964952468872e+00" cType="1" res="1.0829257220029831e-01" rms="3.3050006628036499e-01" purity="3.0249968171119690e-01" nType="0">
          <Node pos="l" depth="2" NCoef="0" IVar="-1" Cut="0.0000000000000000e+00" cType="1" res="-7.6177790760993958e-03" rms="0.0000000000000000e+00" purity="-1.5500305220484734e-02" nType="-99"/>
          <Node pos="r" depth="2" NCoef="0" IVar="-1" Cut="0.0000000000000000e+00" cType="1" res="4.0527950040996075e-03" rms="4.3701371550559998e-01" purity="5.9781616926193237e-01" nType="-99"/>
        </Node>
        <Node pos="r" depth="1" NCoef="0" IVar="17" Cut="1.5229057073593140e+00" cType="1" res="2.6478406507521868e-03" rms="2.1517701447010040e-01" purity="5.0332838296890259e-01" nType="0">
          <Node pos="l" depth="2" NCoef="0" IVar="-1" Cut="0.0000000000000000e+00" cType="1" res="-5.2492978284135461e-04" rms="2.0666551589965820e-01" purity="2.6043614745140076e-01" nType="-99"/>
          <Node pos="r" depth="2" NCoef="0" IVar="-1" Cut="0.0000000000000000e+00" cType="1" res="8.2954909885302186e-04" rms="2.2427117824554443e-01" purity="8.6561810970306396e-01" nType="-99"/>
        </Node>
      </Node>
    </BinaryTree>
    <BinaryTree type="DecisionTree" boostWeight="1.0000000000000000e+00" itree="1272">
      <Node pos="s" depth="0" NCoef="0" IVar="6" Cut="1.1463922262191772e+00" cType="1" res="3.4162278752774000e-03" rms="2.0170363783836365e-01" purity="5.0564712285995483e-01" nType="0">
        <Node pos="l" depth="1" NCoef="0" IVar="59" Cut="1.2874718904495239e+00" cType="1" res="-2.8434554114937782e-03" rms="0.0000000000000000e+00" purity="7.3644317686557770e-02" nType="-99"/>
        <Node pos="r" depth="1" NCoef="0" IVar="60" Cut="-7.4737089872360229e-01" cType="1" res="1.0036357678472996e-02" rms="2.1041470766067505e-01" purity="5.4702240228652954e-01" nType="0">
          <Node pos="l" depth="2" NCoef="0" IVar="-1" Cut="0.0000000000000000e+00" cType="1" res="4.1423903894610703e-04" rms="2.1360166370868683e-01" purity="5.6465375423431396e-01" nType="-99"/>
          <Node pos="r" depth="2" NCoef="0" IVar="-1" Cut="0.0000000000000000e+00" cType="1" res="-5.2817049436271191e-03" rms="0.0000000000000000e+00" purity="1.1460057646036148e-01" nType="-99"/>
        </Node>
      </Node>
    </BinaryTree>
    <BinaryTree type="DecisionTree" boostWeight="1.0000000000000000e+00" itree="1273">
      <Node pos="s" depth="0" NCoef="0" IVar="39" Cut="-9.7540009021759033e-01" cType="1" res="6.0414415784180164e-03" rms="2.1044878661632538e-01" purity="4.9619367718696594e-01" nType="0">
        <Node pos="l" depth="1" NCoef="0" IVar="42" Cut="-6.4823442697525024e-01" cType="1" res="1.2307426892220974e-02" rms="2.1696874499320984e-01" purity="5.1949000358581543e-01" nType="0">
          <Node pos="l" depth="2" NCoef="0" IVar="-1" Cut="0.0000000000000000e+00" cType="1" res="-2.6893245521932840e-03" rms="0.0000000000000000e+00" purity="3.9716345071792603e-01" nType="-99"/>
          <Node pos="r" depth="2" NCoef="0" IVar="-1" Cut="0.0000000000000000e+00" cType="1" res="4.8538987175561488e-04" rms="2.2416912019252777e-01" purity="5.2416253089904785e-01" nType="-99"/>
        </Node>
        <Node pos="r" depth="1" NCoef="0" IVar="58" Cut="-1.3016437292098999e+00" cType="1" res="-6.5258994698524475e-02" rms="8.3951644599437714e-02" purity="2.3110528290271759e-01" nType="0">
          <Node pos="l" depth="2" NCoef="0" IVar="-1" Cut="0.0000000000000000e+00" cType="1" res="-4.0011046803556383e-04" rms="2.1931098401546478e-01" purity="3.4126091003417969e-01" nType="-99"/>
          <Node pos="r" depth="2" NCoef="0" IVar="-1" Cut="0.0000000000000000e+00" cType="1" res="-6.7838891409337521e-03" rms="0.0000000000000000e+00" purity="1.6649286448955536e-01" nType="-99"/>
        </Node>
      </Node>
    </BinaryTree>
    <BinaryTree type="DecisionTree" boostWeight="1.0000000000000000e+00" itree="1274">
      <Node pos="s" depth="0" NCoef="0" IVar="3" Cut="4.8046026229858398e+00" cType="1" res="1.3043971732258797e-02" rms="2.2368943691253662e-01" purity="4.9697399139404297e-01" nType="0">
        <Node pos="l" depth="1" NCoef="0" IVar="48" Cut="8.0463546514511108e-01" cType="1" res="-8.2539459690451622e-03" rms="2.1152906119823456e-01" purity="4.2996615171432495e-01" nType="0">
          <Node pos="l" depth="2" NCoef="0" IVar="-1" Cut="0.0000000000000000e+00" cType="1" res="-1.0432454757392406e-02" rms="0.0000000000000000e+00" purity="-1.4107532799243927e-01" nType="-99"/>
          <Node pos="r" depth="2" NCoef="0" IVar="-1" Cut="0.0000000000000000e+00" cType="1" res="9.7746320534497499e-05" rms="2.3122555017471313e-01" purity="4.6825700998306274e-01" nType="-99"/>
        </Node>
        <Node pos="r" depth="1" NCoef="0" IVar="15" Cut="1.5212173461914062e+00" cType="1" res="4.6215619891881943e-02" rms="2.3764067888259888e-01" purity="6.0133922100067139e-01" nType="0">
          <Node pos="l" depth="2" NCoef="0" IVar="-1" Cut="0.0000000000000000e+00" cType="1" res="1.6742630396038294e-03" rms="2.3323114216327667e-01" purity="6.2628859281539917e-01" nType="-99"/>
          <Node pos="r" depth="2" NCoef="0" IVar="-1" Cut="0.0000000000000000e+00" cType="1" res="-4.2585958726704121e-03" rms="2.2992311418056488e-01" purity="2.4767641723155975e-01" nType="-99"/>
        </Node>
      </Node>
    </BinaryTree>
    <BinaryTree type="DecisionTree" boostWeight="1.0000000000000000e+00" itree="1275">
      <Node pos="s" depth="0" NCoef="0" IVar="5" Cut="3.9425748586654663e-01" cType="1" res="3.5497734788805246e-03" rms="2.1631386876106262e-01" purity="4.9584481120109558e-01" nType="0">
        <Node pos="l" depth="1" NCoef="0" IVar="2" Cut="1.4661643505096436e+00" cType="1" res="1.8611786887049675e-02" rms="1.9959516823291779e-01" purity="6.1478412151336670e-01" nType="0">
          <Node pos="l" depth="2" NCoef="0" IVar="-1" Cut="0.0000000000000000e+00" cType="1" res="-4.2789522558450699e-03" rms="0.0000000000000000e+00" purity="1.1251487582921982e-01" nType="-99"/>
          <Node pos="r" depth="2" NCoef="0" IVar="-1" Cut="0.0000000000000000e+00" cType="1" res="8.3749188343062997e-04" rms="2.0798930525779724e-01" purity="6.6132366657257080e-01" nType="-99"/>
        </Node>
        <Node pos="r" depth="1" NCoef="0" IVar="18" Cut="-1.8952372074127197e+00" cType="1" res="-3.1818386167287827e-02" rms="2.4766100943088531e-01" purity="2.1655543148517609e-01" nType="0">
          <Node pos="l" depth="2" NCoef="0" IVar="-1" Cut="0.0000000000000000e+00" cType="1" res="-3.0458865221589804e-03" rms="1.6241401433944702e-01" purity="1.0439188033342361e-01" nType="-99"/>
          <Node pos="r" depth="2" NCoef="0" IVar="-1" Cut="0.0000000000000000e+00" cType="1" res="7.6086966146249324e-05" rms="2.6864179968833923e-01" purity="2.6445308327674866e-01" nType="-99"/>
        </Node>
      </Node>
    </BinaryTree>
    <BinaryTree type="DecisionTree" boostWeight="1.0000000000000000e+00" itree="1276">
      <Node pos="s" depth="0" NCoef="0" IVar="0" Cut="5.4473042488098145e-01" cType="1" res="9.8639735952019691e-03" rms="2.1626761555671692e-01" purity="4.9659982323646545e-01" nType="0">
        <Node pos="l" depth="1" NCoef="0" IVar="18" Cut="-1.2044856548309326e+00" cType="1" res="3.3740419894456863e-02" rms="2.3543305695056915e-01" purity="5.6137186288833618e-01" nType="0">
          <Node pos="l" depth="2" NCoef="0" IVar="-1" Cut="0.0000000000000000e+00" cType="1" res="1.2191256973892450e-03" rms="2.3843657970428467e-01" purity="6.0100215673446655e-01" nType="-99"/>
          <Node pos="r" depth="2" NCoef="0" IVar="-1" Cut="0.0000000000000000e+00" cType="1" res="-1.5193986473605037e-03" rms="1.9278720021247864e-01" purity="2.5179302692413330e-01" nType="-99"/>
        </Node>
        <Node pos="r" depth="1" NCoef="0" IVar="48" Cut="7.4538004398345947e-01" cType="1" res="-1.1409644968807697e-02" rms="1.9518673419952393e-01" purity="4.3888878822326660e-01" nType="0">
          <Node pos="l" depth="2" NCoef="0" IVar="-1" Cut="0.0000000000000000e+00" cType="1" res="-7.0794154889881611e-03" rms="0.0000000000000000e+00" purity="-1.2509091198444366e-01" nType="-99"/>
          <Node pos="r" depth="2" NCoef="0" IVar="-1" Cut="0.0000000000000000e+00" cType="1" res="-8.0490724940318614e-05" rms="2.1145214140415192e-01" purity="4.7045162320137024e-01" nType="-99"/>
        </Node>
      </Node>
    </BinaryTree>
    <BinaryTree type="DecisionTree" boostWeight="1.0000000000000000e+00" itree="1277">
      <Node pos="s" depth="0" NCoef="0" IVar="25" Cut="1.1921440362930298e+00" cType="1" res="1.0201928205788136e-02" rms="2.1401923894882202e-01" purity="5.0425779819488525e-01" nType="0">
        <Node pos="l" depth="1" NCoef="0" IVar="14" Cut="-1.1447700262069702e+00" cType="1" res="1.4166812412440777e-02" rms="2.1670772135257721e-01" purity="5.1800566911697388e-01" nType="0">
          <Node pos="l" depth="2" NCoef="0" IVar="-1" Cut="0.0000000000000000e+00" cType="1" res="-3.3756924676708877e-04" rms="1.9455130398273468e-01" purity="3.6919933557510376e-01" nType="-99"/>
          <Node pos="r" depth="2" NCoef="0" IVar="-1" Cut="0.0000000000000000e+00" cType="1" res="8.2546740304678679e-04" rms="2.2905287146568298e-01" purity="6.1848050355911255e-01" nType="-99"/>
        </Node>
        <Node pos="r" depth="1" NCoef="0" IVar="-1" Cut="0.0000000000000000e+00" cType="1" res="-7.9807369038462639e-03" rms="3.3313579857349396e-02" purity="1.2263429164886475e-01" nType="-99"/>
      </Node>
    </BinaryTree>
    <BinaryTree type="DecisionTree" boostWeight="1.0000000000000000e+00" itree="1278">
      <Node pos="s" depth="0" NCoef="0" IVar="41" Cut="-1.8649807572364807e-01" cType="1" res="3.6067550536245108e-03" rms="2.1405917406082153e-01" purity="4.9484804272651672e-01" nType="0">
        <Node pos="l" depth="1" NCoef="0" IVar="27" Cut="2.4512641429901123e+00" cType="1" res="7.9031720757484436e-02" rms="3.0334454774856567e-01" purity="5.7774430513381958e-01" nType="0">
          <Node pos="l" depth="2" NCoef="0" IVar="-1" Cut="0.0000000000000000e+00" cType="1" res="3.6658705212175846e-03" rms="3.5134533047676086e-01" purity="5.1556700468063354e-01" nType="-99"/>
          <Node pos="r" depth="2" NCoef="0" IVar="-1" Cut="0.0000000000000000e+00" cType="1" res="-1.4272073167376220e-04" rms="1.7773176729679108e-01" purity="6.7468047142028809e-01" nType="-99"/>
        </Node>
        <Node pos="r" depth="1" NCoef="0" IVar="1" Cut="1.9613760709762573e+00" cType="1" res="-5.4286448284983635e-03" rms="1.9880683720111847e-01" purity="4.8491764068603516e-01" nType="0">
          <Node pos="l" depth="2" NCoef="0" IVar="-1" Cut="0.0000000000000000e+00" cType="1" res="-6.5279691480100155e-03" rms="0.0000000000000000e+00" purity="-4.9720570445060730e-02" nType="-99"/>
          <Node pos="r" depth="2" NCoef="0" IVar="-1" Cut="0.0000000000000000e+00" cType="1" res="-3.5892966820938454e-07" rms="2.1057523787021637e-01" purity="5.1311171054840088e-01" nType="-99"/>
        </Node>
      </Node>
    </BinaryTree>
    <BinaryTree type="DecisionTree" boostWeight="1.0000000000000000e+00" itree="1279">
      <Node pos="s" depth="0" NCoef="0" IVar="5" Cut="2.8585231304168701e-01" cType="1" res="2.7317991480231285e-03" rms="2.0901082456111908e-01" purity="5.0040435791015625e-01" nType="0">
        <Node pos="l" depth="1" NCoef="0" IVar="61" Cut="6.0283380746841431e-01" cType="1" res="2.4145118892192841e-02" rms="1.8771605193614960e-01" purity="6.7328733205795288e-01" nType="0">
          <Node pos="l" depth="2" NCoef="0" IVar="-1" Cut="0.0000000000000000e+00" cType="1" res="2.3601897992193699e-03" rms="2.5042399764060974e-01" purity="7.3099702596664429e-01" nType="-99"/>
          <Node pos="r" depth="2" NCoef="0" IVar="-1" Cut="0.0000000000000000e+00" cType="1" res="1.8320821982342750e-04" rms="1.4929483830928802e-01" purity="6.4862996339797974e-01" nType="-99"/>
        </Node>
        <Node pos="r" depth="1" NCoef="0" IVar="5" Cut="5.4142826795578003e-01" cType="1" res="-2.4587731808423996e-02" rms="2.3050498962402344e-01" purity="2.7983674407005310e-01" nType="0">
          <Node pos="l" depth="2" NCoef="0" IVar="-1" Cut="0.0000000000000000e+00" cType="1" res="-1.3173547340556979e-03" rms="1.9521357119083405e-01" purity="3.2062917947769165e-01" nType="-99"/>
          <Node pos="r" depth="2" NCoef="0" IVar="-1" Cut="0.0000000000000000e+00" cType="1" res="8.8080612476915121e-04" rms="2.7498662471771240e-01" purity="2.0657210052013397e-01" nType="-99"/>
        </Node>
      </Node>
    </BinaryTree>
    <BinaryTree type="DecisionTree" boostWeight="1.0000000000000000e+00" itree="1280">
      <Node pos="s" depth="0" NCoef="0" IVar="64" Cut="1.2345679104328156e-02" cType="1" res="1.3075310271233320e-03" rms="2.0515614748001099e-01" purity="5.0033730268478394e-01" nType="0">
        <Node pos="l" depth="1" NCoef="0" IVar="-1" Cut="0.0000000000000000e+00" cType="1" res="-3.6793381441384554e-03" rms="0.0000000000000000e+00" purity="2.3245720565319061e-01" nType="-99"/>
        <Node pos="r" depth="1" NCoef="0" IVar="52" Cut="3.4191937446594238e+00" cType="1" res="6.8600005470216274e-03" rms="2.1725189685821533e-01" purity="5.1150310039520264e-01" nType="0">
          <Node pos="l" depth="2" NCoef="0" IVar="-1" Cut="0.0000000000000000e+00" cType="1" res="4.4676652760244906e-04" rms="2.2574926912784576e-01" purity="5.2927309274673462e-01" nType="-99"/>
          <Node pos="r" depth="2" NCoef="0" IVar="-1" Cut="0.0000000000000000e+00" cType="1" res="-2.4871637579053640e-03" rms="7.1797996759414673e-02" purity="3.4428551793098450e-01" nType="-99"/>
        </Node>
      </Node>
    </BinaryTree>
    <BinaryTree type="DecisionTree" boostWeight="1.0000000000000000e+00" itree="1281">
      <Node pos="s" depth="0" NCoef="0" IVar="15" Cut="1.5225218534469604e+00" cType="1" res="1.2380270054563880e-03" rms="2.0471367239952087e-01" purity="4.9743756651878357e-01" nType="0">
        <Node pos="l" depth="1" NCoef="0" IVar="14" Cut="-1.3378707170486450e+00" cType="1" res="9.3637173995375633e-03" rms="1.9208213686943054e-01" purity="5.0182235240936279e-01" nType="0">
          <Node pos="l" depth="2" NCoef="0" IVar="-1" Cut="0.0000000000000000e+00" cType="1" res="-1.3269752962514758e-03" rms="1.6232211887836456e-01" purity="1.8351887166500092e-01" nType="-99"/>
          <Node pos="r" depth="2" NCoef="0" IVar="-1" Cut="0.0000000000000000e+00" cType="1" res="6.8542460212484002e-04" rms="1.9945541024208069e-01" purity="6.1076998710632324e-01" nType="-99"/>
        </Node>
        <Node pos="r" depth="1" NCoef="0" IVar="46" Cut="9.3825620412826538e-01" cType="1" res="-6.6215857863426208e-02" rms="2.8003013134002686e-01" purity="4.6103790402412415e-01" nType="0">
          <Node pos="l" depth="2" NCoef="0" IVar="-1" Cut="0.0000000000000000e+00" cType="1" res="1.5679036732763052e-04" rms="2.9553973674774170e-01" purity="5.9438639879226685e-01" nType="-99"/>
          <Node pos="r" depth="2" NCoef="0" IVar="-1" Cut="0.0000000000000000e+00" cType="1" res="-3.1710912007838488e-03" rms="2.4636462330818176e-01" purity="3.4037241339683533e-01" nType="-99"/>
        </Node>
      </Node>
    </BinaryTree>
    <BinaryTree type="DecisionTree" boostWeight="1.0000000000000000e+00" itree="1282">
      <Node pos="s" depth="0" NCoef="0" IVar="5" Cut="2.8308928012847900e-01" cType="1" res="5.2148592658340931e-03" rms="2.1081721782684326e-01" purity="4.9549540877342224e-01" nType="0">
        <Node pos="l" depth="1" NCoef="0" IVar="36" Cut="1.0587999820709229e+00" cType="1" res="2.6081569492816925e-02" rms="1.8505211174488068e-01" purity="6.6645628213882446e-01" nType="0">
          <Node pos="l" depth="2" NCoef="0" IVar="-1" Cut="0.0000000000000000e+00" cType="1" res="-5.6908288970589638e-03" rms="0.0000000000000000e+00" purity="2.9367802664637566e-02" nType="-99"/>
          <Node pos="r" depth="2" NCoef="0" IVar="-1" Cut="0.0000000000000000e+00" cType="1" res="1.2827274622395635e-03" rms="2.0935155451297760e-01" purity="7.9869699478149414e-01" nType="-99"/>
        </Node>
        <Node pos="r" depth="1" NCoef="0" IVar="52" Cut="3.2381305694580078e+00" cType="1" res="-2.1347092464566231e-02" rms="2.3699693381786346e-01" purity="2.7787348628044128e-01" nType="0">
          <Node pos="l" depth="2" NCoef="0" IVar="-1" Cut="0.0000000000000000e+00" cType="1" res="9.1672380222007632e-05" rms="2.5984302163124084e-01" purity="3.0229240655899048e-01" nType="-99"/>
          <Node pos="r" depth="2" NCoef="0" IVar="-1" Cut="0.0000000000000000e+00" cType="1" res="-2.0537003874778748e-03" rms="1.6654776036739349e-01" purity="2.2575038671493530e-01" nType="-99"/>
        </Node>
      </Node>
    </BinaryTree>
    <BinaryTree type="DecisionTree" boostWeight="1.0000000000000000e+00" itree="1283">
      <Node pos="s" depth="0" NCoef="0" IVar="40" Cut="7.1276575326919556e-01" cType="1" res="3.2187583856284618e-03" rms="2.1226330101490021e-01" purity="4.9352234601974487e-01" nType="0">
        <Node pos="l" depth="1" NCoef="0" IVar="17" Cut="1.1346918344497681e+00" cType="1" res="2.3661453276872635e-02" rms="2.2050604224205017e-01" purity="5.4801255464553833e-01" nType="0">
          <Node pos="l" depth="2" NCoef="0" IVar="-1" Cut="0.0000000000000000e+00" cType="1" res="-1.5039080753922462e-02" rms="0.0000000000000000e+00" purity="-1.2088275514543056e-02" nType="-99"/>
          <Node pos="r" depth="2" NCoef="0" IVar="-1" Cut="0.0000000000000000e+00" cType="1" res="8.3301606355234981e-04" rms="2.5666603446006775e-01" purity="7.1101665496826172e-01" nType="-99"/>
        </Node>
        <Node pos="r" depth="1" NCoef="0" IVar="5" Cut="3.4279674291610718e-01" cType="1" res="-1.4394639059901237e-02" rms="2.0325332880020142e-01" purity="4.4657370448112488e-01" nType="0">
          <Node pos="l" depth="2" NCoef="0" IVar="-1" Cut="0.0000000000000000e+00" cType="1" res="2.3595870879944414e-04" rms="1.8488781154155731e-01" purity="5.9085363149642944e-01" nType="-99"/>
          <Node pos="r" depth="2" NCoef="0" IVar="-1" Cut="0.0000000000000000e+00" cType="1" res="-1.4044675044715405e-03" rms="2.2705835103988647e-01" purity="1.9897320866584778e-01" nType="-99"/>
        </Node>
      </Node>
    </BinaryTree>
    <BinaryTree type="DecisionTree" boostWeight="1.0000000000000000e+00" itree="1284">
      <Node pos="s" depth="0" NCoef="0" IVar="2" Cut="7.4651205539703369e-01" cType="1" res="6.6943485289812088e-03" rms="2.1027956902980804e-01" purity="5.0188976526260376e-01" nType="0">
        <Node pos="l" depth="1" NCoef="0" IVar="-1" Cut="0.0000000000000000e+00" cType="1" res="-2.6090141385793686e-02" rms="0.0000000000000000e+00" purity="-5.8241773396730423e-02" nType="-99"/>
        <Node pos="r" depth="1" NCoef="0" IVar="18" Cut="-9.1072940826416016e-01" cType="1" res="9.7494199872016907e-03" rms="2.1423378586769104e-01" purity="5.1491141319274902e-01" nType="0">
          <Node pos="l" depth="2" NCoef="0" IVar="-1" Cut="0.0000000000000000e+00" cType="1" res="4.3368671322241426e-04" rms="2.1625861525535583e-01" purity="5.3993076086044312e-01" nType="-99"/>
          <Node pos="r" depth="2" NCoef="0" IVar="-1" Cut="0.0000000000000000e+00" cType="1" res="-4.3513206765055656e-03" rms="1.6002640128135681e-01" purity="1.2980787456035614e-01" nType="-99"/>
        </Node>
      </Node>
    </BinaryTree>
    <BinaryTree type="DecisionTree" boostWeight="1.0000000000000000e+00" itree="1285">
      <Node pos="s" depth="0" NCoef="0" IVar="6" Cut="1.0120071172714233e+00" cType="1" res="1.8939592409878969e-03" rms="2.1079386770725250e-01" purity="5.0046205520629883e-01" nType="0">
        <Node pos="l" depth="1" NCoef="0" IVar="52" Cut="3.0689373016357422e+00" cType="1" res="-5.9747132472693920e-03" rms="0.0000000000000000e+00" purity="1.4231454581022263e-02" nType="-99"/>
        <Node pos="r" depth="1" NCoef="0" IVar="3" Cut="4.8046026229858398e+00" cType="1" res="9.1759087517857552e-03" rms="2.2076302766799927e-01" purity="5.3286242485046387e-01" nType="0">
          <Node pos="l" depth="2" NCoef="0" IVar="-1" Cut="0.0000000000000000e+00" cType="1" res="-3.0316758784465492e-04" rms="2.2042962908744812e-01" purity="4.6246591210365295e-01" nType="-99"/>
          <Node pos="r" depth="2" NCoef="0" IVar="-1" Cut="0.0000000000000000e+00" cType="1" res="1.1467431904748082e-03" rms="2.1813322603702545e-01" purity="6.3621473312377930e-01" nType="-99"/>
        </Node>
      </Node>
    </BinaryTree>
    <BinaryTree type="DecisionTree" boostWeight="1.0000000000000000e+00" itree="1286">
      <Node pos="s" depth="0" NCoef="0" IVar="1" Cut="2.1705727577209473e+00" cType="1" res="8.0137969925999641e-03" rms="2.1544998884201050e-01" purity="5.0167411565780640e-01" nType="0">
        <Node pos="l" depth="1" NCoef="0" IVar="16" Cut="-1.1655770242214203e-01" cType="1" res="-3.5001181531697512e-03" rms="0.0000000000000000e+00" purity="2.3842679336667061e-02" nType="-99"/>
        <Node pos="r" depth="1" NCoef="0" IVar="68" Cut="1.2345679104328156e-02" cType="1" res="1.5438241884112358e-02" rms="2.2853851318359375e-01" purity="5.5055367946624756e-01" nType="0">
          <Node pos="l" depth="2" NCoef="0" IVar="-1" Cut="0.0000000000000000e+00" cType="1" res="5.9909361880272627e-04" rms="2.3109146952629089e-01" purity="5.6336832046508789e-01" nType="-99"/>
          <Node pos="r" depth="2" NCoef="0" IVar="-1" Cut="0.0000000000000000e+00" cType="1" res="-2.4116740096360445e-03" rms="1.1982084065675735e-01" purity="2.7998721599578857e-01" nType="-99"/>
        </Node>
      </Node>
    </BinaryTree>
    <BinaryTree type="DecisionTree" boostWeight="1.0000000000000000e+00" itree="1287">
      <Node pos="s" depth="0" NCoef="0" IVar="40" Cut="6.7919391393661499e-01" cType="1" res="9.9069848656654358e-03" rms="2.1097077429294586e-01" purity="5.0622427463531494e-01" nType="0">
        <Node pos="l" depth="1" NCoef="0" IVar="16" Cut="5.4715615510940552e-01" cType="1" res="3.7031307816505432e-02" rms="2.3802076280117035e-01" purity="5.5151093006134033e-01" nType="0">
          <Node pos="l" depth="2" NCoef="0" IVar="-1" Cut="0.0000000000000000e+00" cType="1" res="6.3894770573824644e-04" rms="2.1485257148742676e-01" purity="5.5318206548690796e-01" nType="-99"/>
          <Node pos="r" depth="2" NCoef="0" IVar="-1" Cut="0.0000000000000000e+00" cType="1" res="2.1165474317967892e-03" rms="3.2506951689720154e-01" purity="5.4257470369338989e-01" nType="-99"/>
        </Node>
        <Node pos="r" depth="1" NCoef="0" IVar="16" Cut="9.3393361568450928e-01" cType="1" res="-8.0106910318136215e-03" rms="1.8888829648494720e-01" purity="4.7630897164344788e-01" nType="0">
          <Node pos="l" depth="2" NCoef="0" IVar="-1" Cut="0.0000000000000000e+00" cType="1" res="-1.3326121006684843e-05" rms="1.9327557086944580e-01" purity="4.9746471643447876e-01" nType="-99"/>
          <Node pos="r" depth="2" NCoef="0" IVar="-1" Cut="0.0000000000000000e+00" cType="1" res="-2.2674351930618286e-03" rms="1.0240481793880463e-01" purity="2.4990631639957428e-01" nType="-99"/>
        </Node>
      </Node>
    </BinaryTree>
    <BinaryTree type="DecisionTree" boostWeight="1.0000000000000000e+00" itree="1288">
      <Node pos="s" depth="0" NCoef="0" IVar="5" Cut="5.6924426555633545e-01" cType="1" res="6.0226838104426861e-03" rms="2.1321184933185577e-01" purity="5.0170868635177612e-01" nType="0">
        <Node pos="l" depth="1" NCoef="0" IVar="0" Cut="7.7751851081848145e-01" cType="1" res="-2.8444870840758085e-03" rms="1.9667944312095642e-01" purity="5.3896611928939819e-01" nType="0">
          <Node pos="l" depth="2" NCoef="0" IVar="-1" Cut="0.0000000000000000e+00" cType="1" res="3.6900080158375204e-04" rms="2.0956587791442871e-01" purity="5.8890223503112793e-01" nType="-99"/>
          <Node pos="r" depth="2" NCoef="0" IVar="-1" Cut="0.0000000000000000e+00" cType="1" res="-1.2027339544147253e-03" rms="1.5523037314414978e-01" purity="4.1740161180496216e-01" nType="-99"/>
        </Node>
        <Node pos="r" depth="1" NCoef="0" IVar="15" Cut="1.3229799270629883e+00" cType="1" res="6.3908793032169342e-02" rms="2.9297280311584473e-01" purity="2.5848683714866638e-01" nType="0">
          <Node pos="l" depth="2" NCoef="0" IVar="-1" Cut="0.0000000000000000e+00" cType="1" res="-1.1207964271306992e-03" rms="1.4971381425857544e-01" purity="4.1073031723499298e-02" nType="-99"/>
          <Node pos="r" depth="2" NCoef="0" IVar="-1" Cut="0.0000000000000000e+00" cType="1" res="2.0539921242743731e-03" rms="3.8761097192764282e-01" purity="5.3262269496917725e-01" nType="-99"/>
        </Node>
      </Node>
    </BinaryTree>
    <BinaryTree type="DecisionTree" boostWeight="1.0000000000000000e+00" itree="1289">
      <Node pos="s" depth="0" NCoef="0" IVar="18" Cut="-1.0375477075576782e+00" cType="1" res="1.2333495542407036e-02" rms="2.1716445684432983e-01" purity="5.0260877609252930e-01" nType="0">
        <Node pos="l" depth="1" NCoef="0" IVar="52" Cut="3.3292443752288818e+00" cType="1" res="2.0323505625128746e-02" rms="2.2312662005424500e-01" purity="5.3242939710617065e-01" nType="0">
          <Node pos="l" depth="2" NCoef="0" IVar="-1" Cut="0.0000000000000000e+00" cType="1" res="8.2445063162595034e-04" rms="2.3411220312118530e-01" purity="5.4900228977203369e-01" nType="-99"/>
          <Node pos="r" depth="2" NCoef="0" IVar="-1" Cut="0.0000000000000000e+00" cType="1" res="-8.7636761600151658e-04" rms="1.4742159843444824e-01" purity="4.4869944453239441e-01" nType="-99"/>
        </Node>
        <Node pos="r" depth="1" NCoef="0" IVar="35" Cut="-7.6086068153381348e-01" cType="1" res="-6.8798676133155823e-02" rms="1.1521300673484802e-01" purity="1.9980368018150330e-01" nType="0">
          <Node pos="l" depth="2" NCoef="0" IVar="-1" Cut="0.0000000000000000e+00" cType="1" res="-1.6694484511390328e-03" rms="1.8880473077297211e-01" purity="2.6201775670051575e-01" nType="-99"/>
          <Node pos="r" depth="2" NCoef="0" IVar="-1" Cut="0.0000000000000000e+00" cType="1" res="-7.9610785469412804e-03" rms="0.0000000000000000e+00" purity="6.1632368713617325e-02" nType="-99"/>
        </Node>
      </Node>
    </BinaryTree>
    <BinaryTree type="DecisionTree" boostWeight="1.0000000000000000e+00" itree="1290">
      <Node pos="s" depth="0" NCoef="0" IVar="3" Cut="5.2082834243774414e+00" cType="1" res="8.9293653145432472e-03" rms="2.1785572171211243e-01" purity="5.1100736856460571e-01" nType="0">
        <Node pos="l" depth="1" NCoef="0" IVar="56" Cut="-5.6572288274765015e-01" cType="1" res="3.6344607360661030e-04" rms="2.0914062857627869e-01" purity="5.0877350568771362e-01" nType="0">
          <Node pos="l" depth="2" NCoef="0" IVar="-1" Cut="0.0000000000000000e+00" cType="1" res="3.2263979665003717e-04" rms="2.1657824516296387e-01" purity="5.4405784606933594e-01" nType="-99"/>
          <Node pos="r" depth="2" NCoef="0" IVar="-1" Cut="0.0000000000000000e+00" cType="1" res="-2.0410104189068079e-03" rms="1.5017373859882355e-01" purity="3.1677374243736267e-01" nType="-99"/>
        </Node>
        <Node pos="r" depth="1" NCoef="0" IVar="4" Cut="3.7911982536315918e+00" cType="1" res="1.2176274508237839e-01" rms="2.8771802783012390e-01" purity="5.4043203592300415e-01" nType="0">
          <Node pos="l" depth="2" NCoef="0" IVar="-1" Cut="0.0000000000000000e+00" cType="1" res="6.3245533965528011e-03" rms="4.0492781996726990e-01" purity="6.9336444139480591e-01" nType="-99"/>
          <Node pos="r" depth="2" NCoef="0" IVar="-1" Cut="0.0000000000000000e+00" cType="1" res="8.8247819803655148e-04" rms="1.3916547596454620e-01" purity="4.7804793715476990e-01" nType="-99"/>
        </Node>
      </Node>
    </BinaryTree>
    <BinaryTree type="DecisionTree" boostWeight="1.0000000000000000e+00" itree="1291">
      <Node pos="s" depth="0" NCoef="0" IVar="3" Cut="5.2014141082763672e+00" cType="1" res="-9.4358506612479687e-04" rms="1.9512934982776642e-01" purity="4.9605259299278259e-01" nType="0">
        <Node pos="l" depth="1" NCoef="0" IVar="48" Cut="8.1012630462646484e-01" cType="1" res="-7.4895280413329601e-03" rms="1.9240882992744446e-01" purity="4.9418839812278748e-01" nType="0">
          <Node pos="l" depth="2" NCoef="0" IVar="-1" Cut="0.0000000000000000e+00" cType="1" res="-4.7185705043375492e-03" rms="0.0000000000000000e+00" purity="-1.6611773520708084e-02" nType="-99"/>
          <Node pos="r" depth="2" NCoef="0" IVar="-1" Cut="0.0000000000000000e+00" cType="1" res="1.4375157775248226e-07" rms="2.0783489942550659e-01" purity="5.2882784605026245e-01" nType="-99"/>
        </Node>
        <Node pos="r" depth="1" NCoef="0" IVar="1" Cut="2.5250618457794189e+00" cType="1" res="8.4579162299633026e-02" rms="2.0970463752746582e-01" purity="5.2040851116180420e-01" nType="0">
          <Node pos="l" depth="2" NCoef="0" IVar="-1" Cut="0.0000000000000000e+00" cType="1" res="6.0157682746648788e-03" rms="3.8251757621765137e-01" purity="5.0512391328811646e-01" nType="-99"/>
          <Node pos="r" depth="2" NCoef="0" IVar="-1" Cut="0.0000000000000000e+00" cType="1" res="-6.2690669437870383e-04" rms="0.0000000000000000e+00" purity="5.2949869632720947e-01" nType="-99"/>
        </Node>
      </Node>
    </BinaryTree>
    <BinaryTree type="DecisionTree" boostWeight="1.0000000000000000e+00" itree="1292">
      <Node pos="s" depth="0" NCoef="0" IVar="48" Cut="1.1146723031997681e+00" cType="1" res="4.8393276520073414e-03" rms="2.1111463010311127e-01" purity="5.0365167856216431e-01" nType="0">
        <Node pos="l" depth="1" NCoef="0" IVar="34" Cut="1.3629548549652100e+00" cType="1" res="-6.4890883862972260e-02" rms="3.3866573125123978e-02" purity="7.7160507440567017e-02" nType="0">
          <Node pos="l" depth="2" NCoef="0" IVar="-1" Cut="0.0000000000000000e+00" cType="1" res="2.1784424316138029e-03" rms="2.3970256745815277e-01" purity="1.5206184983253479e-01" nType="-99"/>
          <Node pos="r" depth="2" NCoef="0" IVar="-1" Cut="0.0000000000000000e+00" cType="1" res="-4.1647916659712791e-03" rms="0.0000000000000000e+00" purity="2.1806757897138596e-02" nType="-99"/>
        </Node>
        <Node pos="r" depth="1" NCoef="0" IVar="26" Cut="1.2345679104328156e-02" cType="1" res="1.6291337087750435e-02" rms="2.2532440721988678e-01" purity="5.7369571924209595e-01" nType="0">
          <Node pos="l" depth="2" NCoef="0" IVar="-1" Cut="0.0000000000000000e+00" cType="1" res="5.7708477834239602e-04" rms="2.2551757097244263e-01" purity="5.9100019931793213e-01" nType="-99"/>
          <Node pos="r" depth="2" NCoef="0" IVar="-1" Cut="0.0000000000000000e+00" cType="1" res="-6.5695368684828281e-03" rms="1.7902554571628571e-01" purity="5.8461108710616827e-04" nType="-99"/>
        </Node>
      </Node>
    </BinaryTree>
    <BinaryTree type="DecisionTree" boostWeight="1.0000000000000000e+00" itree="1293">
      <Node pos="s" depth="0" NCoef="0" IVar="52" Cut="2.4185099601745605e+00" cType="1" res="-8.2964781904593110e-04" rms="2.0440566539764404e-01" purity="4.9498006701469421e-01" nType="0">
        <Node pos="l" depth="1" NCoef="0" IVar="5" Cut="1.4237514138221741e-01" cType="1" res="-2.6647101622074842e-03" rms="0.0000000000000000e+00" purity="1.8543447554111481e-01" nType="-99"/>
        <Node pos="r" depth="1" NCoef="0" IVar="6" Cut="1.0680400133132935e+00" cType="1" res="8.6801014840602875e-03" rms="2.1662124991416931e-01" purity="5.3071385622024536e-01" nType="0">
          <Node pos="l" depth="2" NCoef="0" IVar="-1" Cut="0.0000000000000000e+00" cType="1" res="-3.1882517505437136e-03" rms="0.0000000000000000e+00" purity="6.3459157943725586e-02" nType="-99"/>
          <Node pos="r" depth="2" NCoef="0" IVar="-1" Cut="0.0000000000000000e+00" cType="1" res="4.4840987538918853e-04" rms="2.2397112846374512e-01" purity="5.6638717651367188e-01" nType="-99"/>
        </Node>
      </Node>
    </BinaryTree>
    <BinaryTree type="DecisionTree" boostWeight="1.0000000000000000e+00" itree="1294">
      <Node pos="s" depth="0" NCoef="0" IVar="5" Cut="2.8452664613723755e-01" cType="1" res="-3.5782062914222479e-03" rms="1.9410793483257294e-01" purity="4.9622109532356262e-01" nType="0">
        <Node pos="l" depth="1" NCoef="0" IVar="52" Cut="2.2879567146301270e+00" cType="1" res="2.4315539747476578e-02" rms="1.9311775267124176e-01" purity="6.6978281736373901e-01" nType="0">
          <Node pos="l" depth="2" NCoef="0" IVar="-1" Cut="0.0000000000000000e+00" cType="1" res="-2.4786512367427349e-03" rms="0.0000000000000000e+00" purity="2.5129532814025879e-01" nType="-99"/>
          <Node pos="r" depth="2" NCoef="0" IVar="-1" Cut="0.0000000000000000e+00" cType="1" res="1.2215044116601348e-03" rms="2.0542950928211212e-01" purity="6.9963335990905762e-01" nType="-99"/>
        </Node>
        <Node pos="r" depth="1" NCoef="0" IVar="2" Cut="2.5263607501983643e+00" cType="1" res="-3.9514251053333282e-02" rms="1.8941509723663330e-01" purity="2.7261826395988464e-01" nType="0">
          <Node pos="l" depth="2" NCoef="0" IVar="-1" Cut="0.0000000000000000e+00" cType="1" res="-2.8188996948301792e-03" rms="0.0000000000000000e+00" purity="1.2920473515987396e-01" nType="-99"/>
          <Node pos="r" depth="2" NCoef="0" IVar="-1" Cut="0.0000000000000000e+00" cType="1" res="-7.1978138294070959e-05" rms="2.8259137272834778e-01" purity="4.1622510552406311e-01" nType="-99"/>
        </Node>
      </Node>
    </BinaryTree>
    <BinaryTree type="DecisionTree" boostWeight="1.0000000000000000e+00" itree="1295">
      <Node pos="s" depth="0" NCoef="0" IVar="3" Cut="5.2124385833740234e+00" cType="1" res="1.2160203419625759e-02" rms="2.1993549168109894e-01" purity="5.1054716110229492e-01" nType="0">
        <Node pos="l" depth="1" NCoef="0" IVar="52" Cut="3.3292443752288818e+00" cType="1" res="4.2692222632467747e-03" rms="2.1533718705177307e-01" purity="5.0839167833328247e-01" nType="0">
          <Node pos="l" depth="2" NCoef="0" IVar="-1" Cut="0.0000000000000000e+00" cType="1" res="4.4412532588467002e-04" rms="2.2074832022190094e-01" purity="5.2543884515762329e-01" nType="-99"/>
          <Node pos="r" depth="2" NCoef="0" IVar="-1" Cut="0.0000000000000000e+00" cType="1" res="-2.0185455214232206e-03" rms="1.6469092667102814e-01" purity="4.0321013331413269e-01" nType="-99"/>
        </Node>
        <Node pos="r" depth="1" NCoef="0" IVar="36" Cut="9.7931438684463501e-01" cType="1" res="1.1823441088199615e-01" rms="2.5137254595756531e-01" purity="5.3952258825302124e-01" nType="0">
          <Node pos="l" depth="2" NCoef="0" IVar="-1" Cut="0.0000000000000000e+00" cType="1" res="-1.5498400898650289e-03" rms="0.0000000000000000e+00" purity="1.4872971177101135e-01" nType="-99"/>
          <Node pos="r" depth="2" NCoef="0" IVar="-1" Cut="0.0000000000000000e+00" cType="1" res="4.5188935473561287e-03" rms="3.2339683175086975e-01" purity="7.0881652832031250e-01" nType="-99"/>
        </Node>
      </Node>
    </BinaryTree>
    <BinaryTree type="DecisionTree" boostWeight="1.0000000000000000e+00" itree="1296">
      <Node pos="s" depth="0" NCoef="0" IVar="18" Cut="-1.1668041944503784e+00" cType="1" res="1.0032304562628269e-02" rms="2.1537232398986816e-01" purity="4.9849739670753479e-01" nType="0">
        <Node pos="l" depth="1" NCoef="0" IVar="1" Cut="2.1153371334075928e+00" cType="1" res="1.9507734104990959e-02" rms="2.1900339424610138e-01" purity="5.4008650779724121e-01" nType="0">
          <Node pos="l" depth="2" NCoef="0" IVar="-1" Cut="0.0000000000000000e+00" cType="1" res="-3.7116943858563900e-03" rms="0.0000000000000000e+00" purity="7.0945555344223976e-03" nType="-99"/>
          <Node pos="r" depth="2" NCoef="0" IVar="-1" Cut="0.0000000000000000e+00" cType="1" res="7.4986153049394488e-04" rms="2.2889497876167297e-01" purity="5.8027219772338867e-01" nType="-99"/>
        </Node>
        <Node pos="r" depth="1" NCoef="0" IVar="52" Cut="3.2328062057495117e+00" cType="1" res="-5.9559773653745651e-02" rms="1.7116852104663849e-01" purity="1.9304709136486053e-01" nType="0">
          <Node pos="l" depth="2" NCoef="0" IVar="-1" Cut="0.0000000000000000e+00" cType="1" res="-1.1745828669518232e-03" rms="2.0486025512218475e-01" purity="2.2935415804386139e-01" nType="-99"/>
          <Node pos="r" depth="2" NCoef="0" IVar="-1" Cut="0.0000000000000000e+00" cType="1" res="-7.5244028121232986e-03" rms="0.0000000000000000e+00" purity="3.6771081387996674e-02" nType="-99"/>
        </Node>
      </Node>
    </BinaryTree>
    <BinaryTree type="DecisionTree" boostWeight="1.0000000000000000e+00" itree="1297">
      <Node pos="s" depth="0" NCoef="0" IVar="3" Cut="5.1425518989562988e+00" cType="1" res="8.4100347012281418e-03" rms="2.1671371161937714e-01" purity="5.0616854429244995e-01" nType="0">
        <Node pos="l" depth="1" NCoef="0" IVar="56" Cut="-1.4154922962188721e+00" cType="1" res="1.5978489536792040e-03" rms="2.1211850643157959e-01" purity="5.0558751821517944e-01" nType="0">
          <Node pos="l" depth="2" NCoef="0" IVar="-1" Cut="0.0000000000000000e+00" cType="1" res="5.7192868553102016e-04" rms="2.2541539371013641e-01" purity="5.7408577203750610e-01" nType="-99"/>
          <Node pos="r" depth="2" NCoef="0" IVar="-1" Cut="0.0000000000000000e+00" cType="1" res="-7.6867430470883846e-04" rms="1.8917417526245117e-01" purity="4.1048291325569153e-01" nType="-99"/>
        </Node>
        <Node pos="r" depth="1" NCoef="0" IVar="57" Cut="-1.3028094768524170e+00" cType="1" res="7.9072430729866028e-02" rms="2.4885919690132141e-01" purity="5.1219588518142700e-01" nType="0">
          <Node pos="l" depth="2" NCoef="0" IVar="-1" Cut="0.0000000000000000e+00" cType="1" res="4.1399900801479816e-03" rms="3.2819834351539612e-01" purity="6.4595663547515869e-01" nType="-99"/>
          <Node pos="r" depth="2" NCoef="0" IVar="-1" Cut="0.0000000000000000e+00" cType="1" res="-1.3080886565148830e-03" rms="0.0000000000000000e+00" purity="2.8859713673591614e-01" nType="-99"/>
        </Node>
      </Node>
    </BinaryTree>
    <BinaryTree type="DecisionTree" boostWeight="1.0000000000000000e+00" itree="1298">
      <Node pos="s" depth="0" NCoef="0" IVar="3" Cut="5.3341488838195801e+00" cType="1" res="1.1851456016302109e-02" rms="2.2563749551773071e-01" purity="5.0062423944473267e-01" nType="0">
        <Node pos="l" depth="1" NCoef="0" IVar="43" Cut="1.2345679104328156e-02" cType="1" res="1.5271945856511593e-02" rms="2.3361381888389587e-01" purity="5.0828009843826294e-01" nType="0">
          <Node pos="l" depth="2" NCoef="0" IVar="-1" Cut="0.0000000000000000e+00" cType="1" res="5.2665285766124725e-03" rms="3.4109741449356079e-01" purity="3.7059712409973145e-01" nType="-99"/>
          <Node pos="r" depth="2" NCoef="0" IVar="-1" Cut="0.0000000000000000e+00" cType="1" res="2.8259854298084974e-04" rms="2.2574220597743988e-01" purity="5.1460599899291992e-01" nType="-99"/>
        </Node>
        <Node pos="r" depth="1" NCoef="0" IVar="-1" Cut="0.0000000000000000e+00" cType="1" res="-4.3684146367013454e-03" rms="0.0000000000000000e+00" purity="1.4494350552558899e-01" nType="-99"/>
      </Node>
    </BinaryTree>
    <BinaryTree type="DecisionTree" boostWeight="1.0000000000000000e+00" itree="1299">
      <Node pos="s" depth="0" NCoef="0" IVar="5" Cut="3.9675876498222351e-01" cType="1" res="-1.0737037518993020e-03" rms="2.0326310396194458e-01" purity="4.9400761723518372e-01" nType="0">
        <Node pos="l" depth="1" NCoef="0" IVar="5" Cut="3.8152068853378296e-01" cType="1" res="1.7833473160862923e-02" rms="1.9979664683341980e-01" purity="6.1222785711288452e-01" nType="0">
          <Node pos="l" depth="2" NCoef="0" IVar="-1" Cut="0.0000000000000000e+00" cType="1" res="4.6041098539717495e-04" rms="1.8887677788734436e-01" purity="6.1437153816223145e-01" nType="-99"/>
          <Node pos="r" depth="2" NCoef="0" IVar="-1" Cut="0.0000000000000000e+00" cType="1" res="2.9722650069743395e-03" rms="3.7407147884368896e-01" purity="5.5192220211029053e-01" nType="-99"/>
        </Node>
        <Node pos="r" depth="1" NCoef="0" IVar="3" Cut="5.1858916282653809e+00" cType="1" res="-4.6276643872261047e-02" rms="2.0434851944446564e-01" purity="2.1136873960494995e-01" nType="0">
          <Node pos="l" depth="2" NCoef="0" IVar="-1" Cut="0.0000000000000000e+00" cType="1" res="-1.4573428779840469e-03" rms="1.8663829565048218e-01" purity="1.9868795573711395e-01" nType="-99"/>
          <Node pos="r" depth="2" NCoef="0" IVar="-1" Cut="0.0000000000000000e+00" cType="1" res="3.0796860810369253e-03" rms="3.2091104984283447e-01" purity="3.7655594944953918e-01" nType="-99"/>
        </Node>
      </Node>
    </BinaryTree>
    <BinaryTree type="DecisionTree" boostWeight="1.0000000000000000e+00" itree="1300">
      <Node pos="s" depth="0" NCoef="0" IVar="13" Cut="-1.4926421642303467e+00" cType="1" res="6.5727280452847481e-03" rms="2.1488839387893677e-01" purity="4.9630931019783020e-01" nType="0">
        <Node pos="l" depth="1" NCoef="0" IVar="-1" Cut="0.0000000000000000e+00" cType="1" res="5.4465155117213726e-03" rms="2.8928887844085693e-01" purity="4.4269627332687378e-01" nType="-99"/>
        <Node pos="r" depth="1" NCoef="0" IVar="17" Cut="1.5226870775222778e+00" cType="1" res="3.3014675136655569e-03" rms="2.1150782704353333e-01" purity="4.9780663847923279e-01" nType="0">
          <Node pos="l" depth="2" NCoef="0" IVar="-1" Cut="0.0000000000000000e+00" cType="1" res="-4.1079407674260437e-04" rms="2.0670171082019806e-01" purity="2.5797545909881592e-01" nType="-99"/>
          <Node pos="r" depth="2" NCoef="0" IVar="-1" Cut="0.0000000000000000e+00" cType="1" res="7.8450242290273309e-04" rms="2.1639853715896606e-01" purity="8.7009841203689575e-01" nType="-99"/>
        </Node>
      </Node>
    </BinaryTree>
    <BinaryTree type="DecisionTree" boostWeight="1.0000000000000000e+00" itree="1301">
      <Node pos="s" depth="0" NCoef="0" IVar="15" Cut="1.5225218534469604e+00" cType="1" res="1.2734150514006615e-03" rms="2.0012550055980682e-01" purity="4.9790135025978088e-01" nType="0">
        <Node pos="l" depth="1" NCoef="0" IVar="2" Cut="1.5163061618804932e+00" cType="1" res="1.0181826539337635e-02" rms="1.8572296202182770e-01" purity="5.0218868255615234e-01" nType="0">
          <Node pos="l" depth="2" NCoef="0" IVar="-1" Cut="0.0000000000000000e+00" cType="1" res="-4.9705742858350277e-03" rms="0.0000000000000000e+00" purity="9.0710878372192383e-02" nType="-99"/>
          <Node pos="r" depth="2" NCoef="0" IVar="-1" Cut="0.0000000000000000e+00" cType="1" res="5.6519213831052184e-04" rms="1.9778072834014893e-01" purity="5.4704678058624268e-01" nType="-99"/>
        </Node>
        <Node pos="r" depth="1" NCoef="0" IVar="15" Cut="1.5330264568328857e+00" cType="1" res="-6.9920964539051056e-02" rms="2.8064107894897461e-01" purity="4.6363759040832520e-01" nType="0">
          <Node pos="l" depth="2" NCoef="0" IVar="-1" Cut="0.0000000000000000e+00" cType="1" res="2.4388378369621933e-04" rms="2.7029728889465332e-01" purity="6.4787292480468750e-01" nType="-99"/>
          <Node pos="r" depth="2" NCoef="0" IVar="-1" Cut="0.0000000000000000e+00" cType="1" res="-5.4686465300619602e-03" rms="2.5765559077262878e-01" purity="2.3609873652458191e-01" nType="-99"/>
        </Node>
      </Node>
    </BinaryTree>
    <BinaryTree type="DecisionTree" boostWeight="1.0000000000000000e+00" itree="1302">
      <Node pos="s" depth="0" NCoef="0" IVar="3" Cut="5.0343832969665527e+00" cType="1" res="1.5690123662352562e-02" rms="2.2501920163631439e-01" purity="5.1141357421875000e-01" nType="0">
        <Node pos="l" depth="1" NCoef="0" IVar="6" Cut="1.2504857778549194e+00" cType="1" res="3.7610719446092844e-03" rms="2.1853940188884735e-01" purity="4.9168813228607178e-01" nType="0">
          <Node pos="l" depth="2" NCoef="0" IVar="-1" Cut="0.0000000000000000e+00" cType="1" res="-3.5137291997671127e-03" rms="7.0108972489833832e-02" purity="6.8286940455436707e-02" nType="-99"/>
          <Node pos="r" depth="2" NCoef="0" IVar="-1" Cut="0.0000000000000000e+00" cType="1" res="3.4923796192742884e-04" rms="2.2850513458251953e-01" purity="5.4217219352722168e-01" nType="-99"/>
        </Node>
        <Node pos="r" depth="1" NCoef="0" IVar="6" Cut="2.1956806182861328e+00" cType="1" res="7.5762130320072174e-02" rms="2.4654017388820648e-01" purity="6.1074632406234741e-01" nType="0">
          <Node pos="l" depth="2" NCoef="0" IVar="-1" Cut="0.0000000000000000e+00" cType="1" res="3.6277621984481812e-03" rms="3.2424682378768921e-01" purity="5.4980427026748657e-01" nType="-99"/>
          <Node pos="r" depth="2" NCoef="0" IVar="-1" Cut="0.0000000000000000e+00" cType="1" res="-3.4939235774800181e-05" rms="0.0000000000000000e+00" purity="6.8540823459625244e-01" nType="-99"/>
        </Node>
      </Node>
    </BinaryTree>
    <BinaryTree type="DecisionTree" boostWeight="1.0000000000000000e+00" itree="1303">
      <Node pos="s" depth="0" NCoef="0" IVar="14" Cut="1.4065815210342407e+00" cType="1" res="2.7891313657164574e-03" rms="2.0902082324028015e-01" purity="4.9927285313606262e-01" nType="0">
        <Node pos="l" depth="1" NCoef="0" IVar="52" Cut="3.1919567584991455e+00" cType="1" res="6.3100047409534454e-03" rms="2.0836320519447327e-01" purity="5.0678467750549316e-01" nType="0">
          <Node pos="l" depth="2" NCoef="0" IVar="-1" Cut="0.0000000000000000e+00" cType="1" res="5.8249052381142974e-04" rms="2.1775631606578827e-01" purity="5.2367734909057617e-01" nType="-99"/>
          <Node pos="r" depth="2" NCoef="0" IVar="-1" Cut="0.0000000000000000e+00" cType="1" res="-8.8354456238448620e-04" rms="1.7706732451915741e-01" purity="4.6264153718948364e-01" nType="-99"/>
        </Node>
        <Node pos="r" depth="1" NCoef="0" IVar="-1" Cut="0.0000000000000000e+00" cType="1" res="-3.5014343447983265e-03" rms="1.6720508038997650e-01" purity="1.4073617756366730e-01" nType="-99"/>
      </Node>
    </BinaryTree>
    <BinaryTree type="DecisionTree" boostWeight="1.0000000000000000e+00" itree="1304">
      <Node pos="s" depth="0" NCoef="0" IVar="59" Cut="-1.3381259441375732e+00" cType="1" res="3.6911019124090672e-03" rms="2.0563200116157532e-01" purity="5.0531136989593506e-01" nType="0">
        <Node pos="l" depth="1" NCoef="0" IVar="34" Cut="-1.3768819570541382e+00" cType="1" res="2.7261571958661079e-02" rms="2.3360235989093781e-01" purity="5.7881605625152588e-01" nType="0">
          <Node pos="l" depth="2" NCoef="0" IVar="-1" Cut="0.0000000000000000e+00" cType="1" res="3.5178244579583406e-03" rms="3.0550709366798401e-01" purity="5.3570878505706787e-01" nType="-99"/>
          <Node pos="r" depth="2" NCoef="0" IVar="-1" Cut="0.0000000000000000e+00" cType="1" res="4.2002947884611785e-04" rms="2.1874439716339111e-01" purity="5.8478957414627075e-01" nType="-99"/>
        </Node>
        <Node pos="r" depth="1" NCoef="0" IVar="48" Cut="8.0722033977508545e-01" cType="1" res="-2.6157181710004807e-02" rms="1.5853187441825867e-01" purity="4.1222923994064331e-01" nType="0">
          <Node pos="l" depth="2" NCoef="0" IVar="-1" Cut="0.0000000000000000e+00" cType="1" res="-7.1482611820101738e-03" rms="0.0000000000000000e+00" purity="-9.3153543770313263e-02" nType="-99"/>
          <Node pos="r" depth="2" NCoef="0" IVar="-1" Cut="0.0000000000000000e+00" cType="1" res="-4.8433794290758669e-04" rms="1.8537886440753937e-01" purity="4.5760303735733032e-01" nType="-99"/>
        </Node>
      </Node>
    </BinaryTree>
    <BinaryTree type="DecisionTree" boostWeight="1.0000000000000000e+00" itree="1305">
      <Node pos="s" depth="0" NCoef="0" IVar="60" Cut="-8.6965769529342651e-01" cType="1" res="9.4257500022649765e-03" rms="2.1210397779941559e-01" purity="5.1047378778457642e-01" nType="0">
        <Node pos="l" depth="1" NCoef="0" IVar="35" Cut="-1.4539507627487183e+00" cType="1" res="1.5582836233079433e-02" rms="2.1891854703426361e-01" purity="5.3370648622512817e-01" nType="0">
          <Node pos="l" depth="2" NCoef="0" IVar="-1" Cut="0.0000000000000000e+00" cType="1" res="-1.9228352466598153e-03" rms="1.4435693621635437e-01" purity="2.6712262630462646e-01" nType="-99"/>
          <Node pos="r" depth="2" NCoef="0" IVar="-1" Cut="0.0000000000000000e+00" cType="1" res="6.8936386378481984e-04" rms="2.2784708440303802e-01" purity="5.7877343893051147e-01" nType="-99"/>
        </Node>
        <Node pos="r" depth="1" NCoef="0" IVar="58" Cut="-1.0314184427261353e+00" cType="1" res="-3.3505933824926615e-03" rms="0.0000000000000000e+00" purity="1.9020812213420868e-01" nType="-99"/>
      </Node>
    </BinaryTree>
    <BinaryTree type="DecisionTree" boostWeight="1.0000000000000000e+00" itree="1306">
      <Node pos="s" depth="0" NCoef="0" IVar="15" Cut="1.5225218534469604e+00" cType="1" res="2.3929423186928034e-03" rms="2.0906078815460205e-01" purity="4.8782566189765930e-01" nType="0">
        <Node pos="l" depth="1" NCoef="0" IVar="5" Cut="3.0429923534393311e-01" cType="1" res="1.0516751557588577e-02" rms="1.9676803052425385e-01" purity="4.9385157227516174e-01" nType="0">
          <Node pos="l" depth="2" NCoef="0" IVar="-1" Cut="0.0000000000000000e+00" cType="1" res="1.0652639903128147e-03" rms="1.8799962103366852e-01" purity="6.7106080055236816e-01" nType="-99"/>
          <Node pos="r" depth="2" NCoef="0" IVar="-1" Cut="0.0000000000000000e+00" cType="1" res="-3.9598110015504062e-04" rms="2.0592528581619263e-01" purity="2.4264231324195862e-01" nType="-99"/>
        </Node>
        <Node pos="r" depth="1" NCoef="0" IVar="56" Cut="-1.4542148113250732e+00" cType="1" res="-6.2327388674020767e-02" rms="2.8059953451156616e-01" purity="4.3981805443763733e-01" nType="0">
          <Node pos="l" depth="2" NCoef="0" IVar="-1" Cut="0.0000000000000000e+00" cType="1" res="8.6502615886274725e-05" rms="3.0569902062416077e-01" purity="5.8212143182754517e-01" nType="-99"/>
          <Node pos="r" depth="2" NCoef="0" IVar="-1" Cut="0.0000000000000000e+00" cType="1" res="-4.2863008566200733e-03" rms="2.1371193230152130e-01" purity="2.5214508175849915e-01" nType="-99"/>
        </Node>
      </Node>
    </BinaryTree>
    <BinaryTree type="DecisionTree" boostWeight="1.0000000000000000e+00" itree="1307">
      <Node pos="s" depth="0" NCoef="0" IVar="18" Cut="-9.7459387779235840e-01" cType="1" res="8.7038585916161537e-03" rms="2.1218886971473694e-01" purity="5.0479435920715332e-01" nType="0">
        <Node pos="l" depth="1" NCoef="0" IVar="22" Cut="1.2345679104328156e-02" cType="1" res="1.5451719053089619e-02" rms="2.1764178574085236e-01" purity="5.3001874685287476e-01" nType="0">
          <Node pos="l" depth="2" NCoef="0" IVar="-1" Cut="0.0000000000000000e+00" cType="1" res="3.2023356761783361e-03" rms="3.1253707408905029e-01" purity="4.0431019663810730e-01" nType="-99"/>
          <Node pos="r" depth="2" NCoef="0" IVar="-1" Cut="0.0000000000000000e+00" cType="1" res="2.9887529672123492e-04" rms="2.0983234047889709e-01" purity="5.3706061840057373e-01" nType="-99"/>
        </Node>
        <Node pos="r" depth="1" NCoef="0" IVar="35" Cut="-1.3389539718627930e+00" cType="1" res="-7.5054146349430084e-02" rms="9.1381572186946869e-02" purity="1.9169640541076660e-01" nType="0">
          <Node pos="l" depth="2" NCoef="0" IVar="-1" Cut="0.0000000000000000e+00" cType="1" res="-6.5620261011645198e-05" rms="2.1088609099388123e-01" purity="2.3779517412185669e-01" nType="-99"/>
          <Node pos="r" depth="2" NCoef="0" IVar="-1" Cut="0.0000000000000000e+00" cType="1" res="-5.9714214876294136e-03" rms="0.0000000000000000e+00" purity="1.6476596891880035e-01" nType="-99"/>
        </Node>
      </Node>
    </BinaryTree>
    <BinaryTree type="DecisionTree" boostWeight="1.0000000000000000e+00" itree="1308">
      <Node pos="s" depth="0" NCoef="0" IVar="17" Cut="1.5231137275695801e+00" cType="1" res="3.6166517529636621e-03" rms="2.0022305846214294e-01" purity="5.0289499759674072e-01" nType="0">
        <Node pos="l" depth="1" NCoef="0" IVar="10" Cut="3.7299518585205078e+00" cType="1" res="-1.7205566167831421e-02" rms="1.8982762098312378e-01" purity="2.6575657725334167e-01" nType="0">
          <Node pos="l" depth="2" NCoef="0" IVar="-1" Cut="0.0000000000000000e+00" cType="1" res="-7.9561711754649878e-04" rms="1.7854987084865570e-01" purity="2.4770894646644592e-01" nType="-99"/>
          <Node pos="r" depth="2" NCoef="0" IVar="-1" Cut="0.0000000000000000e+00" cType="1" res="3.9512384682893753e-03" rms="3.0756923556327820e-01" purity="6.1495995521545410e-01" nType="-99"/>
        </Node>
        <Node pos="r" depth="1" NCoef="0" IVar="17" Cut="1.5369573831558228e+00" cType="1" res="3.6665283143520355e-02" rms="2.1152903139591217e-01" purity="8.7927675247192383e-01" nType="0">
          <Node pos="l" depth="2" NCoef="0" IVar="-1" Cut="0.0000000000000000e+00" cType="1" res="7.3567251092754304e-05" rms="2.3494809865951538e-01" purity="8.1497180461883545e-01" nType="-99"/>
          <Node pos="r" depth="2" NCoef="0" IVar="-1" Cut="0.0000000000000000e+00" cType="1" res="1.8286004196852446e-03" rms="1.8698261678218842e-01" purity="9.2964321374893188e-01" nType="-99"/>
        </Node>
      </Node>
    </BinaryTree>
    <BinaryTree type="DecisionTree" boostWeight="1.0000000000000000e+00" itree="1309">
      <Node pos="s" depth="0" NCoef="0" IVar="36" Cut="1.3300192356109619e+00" cType="1" res="1.0810941457748413e-02" rms="2.1980285644531250e-01" purity="5.0382566452026367e-01" nType="0">
        <Node pos="l" depth="1" NCoef="0" IVar="34" Cut="-1.1083348989486694e+00" cType="1" res="-3.4867178648710251e-02" rms="5.8001589030027390e-02" purity="6.0777507722377777e-02" nType="0">
          <Node pos="l" depth="2" NCoef="0" IVar="-1" Cut="0.0000000000000000e+00" cType="1" res="1.2282528914511204e-03" rms="1.6290389001369476e-01" purity="1.7752294242382050e-01" nType="-99"/>
          <Node pos="r" depth="2" NCoef="0" IVar="-1" Cut="0.0000000000000000e+00" cType="1" res="-9.7021898254752159e-03" rms="0.0000000000000000e+00" purity="6.7826798185706139e-03" nType="-99"/>
        </Node>
        <Node pos="r" depth="1" NCoef="0" IVar="25" Cut="9.8923218250274658e-01" cType="1" res="2.4678381159901619e-02" rms="2.4725224077701569e-01" purity="6.3833087682723999e-01" nType="0">
          <Node pos="l" depth="2" NCoef="0" IVar="-1" Cut="0.0000000000000000e+00" cType="1" res="1.0917870094999671e-03" rms="2.5904867053031921e-01" purity="6.8213969469070435e-01" nType="-99"/>
          <Node pos="r" depth="2" NCoef="0" IVar="-1" Cut="0.0000000000000000e+00" cType="1" res="-4.1745486669242382e-04" rms="2.1915778517723083e-01" purity="5.5928015708923340e-01" nType="-99"/>
        </Node>
      </Node>
    </BinaryTree>
    <BinaryTree type="DecisionTree" boostWeight="1.0000000000000000e+00" itree="1310">
      <Node pos="s" depth="0" NCoef="0" IVar="25" Cut="7.9413044452667236e-01" cType="1" res="-1.2334418715909123e-03" rms="2.0764714479446411e-01" purity="4.8647058010101318e-01" nType="0">
        <Node pos="l" depth="1" NCoef="0" IVar="-1" Cut="0.0000000000000000e+00" cType="1" res="3.2376502640545368e-03" rms="3.1373798847198486e-01" purity="6.8929290771484375e-01" nType="-99"/>
        <Node pos="r" depth="1" NCoef="0" IVar="68" Cut="1.2345679104328156e-02" cType="1" res="-6.2426873482763767e-03" rms="2.0119690895080566e-01" purity="4.7961491346359253e-01" nType="0">
          <Node pos="l" depth="2" NCoef="0" IVar="-1" Cut="0.0000000000000000e+00" cType="1" res="-2.7725604013539851e-05" rms="2.0087493956089020e-01" purity="4.9419081211090088e-01" nType="-99"/>
          <Node pos="r" depth="2" NCoef="0" IVar="-1" Cut="0.0000000000000000e+00" cType="1" res="-3.7995511665940285e-03" rms="1.7428922653198242e-01" purity="1.8063744902610779e-01" nType="-99"/>
        </Node>
      </Node>
    </BinaryTree>
    <BinaryTree type="DecisionTree" boostWeight="1.0000000000000000e+00" itree="1311">
      <Node pos="s" depth="0" NCoef="0" IVar="14" Cut="1.4065815210342407e+00" cType="1" res="1.0783089324831963e-02" rms="2.2134655714035034e-01" purity="5.0299584865570068e-01" nType="0">
        <Node pos="l" depth="1" NCoef="0" IVar="56" Cut="-1.4539417028427124e+00" cType="1" res="1.4217153191566467e-02" rms="2.2129341959953308e-01" purity="5.0917029380798340e-01" nType="0">
          <Node pos="l" depth="2" NCoef="0" IVar="-1" Cut="0.0000000000000000e+00" cType="1" res="1.0075466707348824e-03" rms="2.4179495871067047e-01" purity="6.0154610872268677e-01" nType="-99"/>
          <Node pos="r" depth="2" NCoef="0" IVar="-1" Cut="0.0000000000000000e+00" cType="1" res="-1.6766013868618757e-04" rms="1.9863913953304291e-01" purity="4.2425218224525452e-01" nType="-99"/>
        </Node>
        <Node pos="r" depth="1" NCoef="0" IVar="-1" Cut="0.0000000000000000e+00" cType="1" res="-2.7522633317857981e-03" rms="1.5554009377956390e-01" purity="2.1674975752830505e-01" nType="-99"/>
      </Node>
    </BinaryTree>
    <BinaryTree type="DecisionTree" boostWeight="1.0000000000000000e+00" itree="1312">
      <Node pos="s" depth="0" NCoef="0" IVar="48" Cut="1.0102272033691406e+00" cType="1" res="2.2973741870373487e-03" rms="2.0336456596851349e-01" purity="4.9858018755912781e-01" nType="0">
        <Node pos="l" depth="1" NCoef="0" IVar="52" Cut="2.4322793483734131e+00" cType="1" res="-6.4238823950290680e-02" rms="2.4279516190290451e-02" purity="5.6657131761312485e-02" nType="0">
          <Node pos="l" depth="2" NCoef="0" IVar="-1" Cut="0.0000000000000000e+00" cType="1" res="-6.4591886475682259e-03" rms="0.0000000000000000e+00" purity="-9.0733326971530914e-02" nType="-99"/>
          <Node pos="r" depth="2" NCoef="0" IVar="-1" Cut="0.0000000000000000e+00" cType="1" res="2.8011613176204264e-04" rms="2.4106429517269135e-01" purity="1.6733345389366150e-01" nType="-99"/>
        </Node>
        <Node pos="r" depth="1" NCoef="0" IVar="14" Cut="-1.2993111610412598e+00" cType="1" res="1.1219423264265060e-02" rms="2.1482682228088379e-01" purity="5.5783903598785400e-01" nType="0">
          <Node pos="l" depth="2" NCoef="0" IVar="-1" Cut="0.0000000000000000e+00" cType="1" res="-8.6424930486828089e-04" rms="1.8586048483848572e-01" purity="2.8722590208053589e-01" nType="-99"/>
          <Node pos="r" depth="2" NCoef="0" IVar="-1" Cut="0.0000000000000000e+00" cType="1" res="7.1138190105557442e-04" rms="2.2324667870998383e-01" purity="6.6062235832214355e-01" nType="-99"/>
        </Node>
      </Node>
    </BinaryTree>
    <BinaryTree type="DecisionTree" boostWeight="1.0000000000000000e+00" itree="1313">
      <Node pos="s" depth="0" NCoef="0" IVar="40" Cut="6.8022882938385010e-01" cType="1" res="1.2701452709734440e-02" rms="2.1827551722526550e-01" purity="5.0898784399032593e-01" nType="0">
        <Node pos="l" depth="1" NCoef="0" IVar="2" Cut="1.6671562194824219e+00" cType="1" res="3.9974518120288849e-02" rms="2.4161580204963684e-01" purity="5.5963194370269775e-01" nType="0">
          <Node pos="l" depth="2" NCoef="0" IVar="-1" Cut="0.0000000000000000e+00" cType="1" res="-2.4324150290340185e-03" rms="0.0000000000000000e+00" purity="1.5873757004737854e-01" nType="-99"/>
          <Node pos="r" depth="2" NCoef="0" IVar="-1" Cut="0.0000000000000000e+00" cType="1" res="1.4296363806352019e-03" rms="2.5967606902122498e-01" purity="6.2096607685089111e-01" nType="-99"/>
        </Node>
        <Node pos="r" depth="1" NCoef="0" IVar="15" Cut="1.5204147100448608e+00" cType="1" res="-6.4439442940056324e-03" rms="1.9804127514362335e-01" purity="4.7343626618385315e-01" nType="0">
          <Node pos="l" depth="2" NCoef="0" IVar="-1" Cut="0.0000000000000000e+00" cType="1" res="1.0258604015689343e-04" rms="1.8506440520286560e-01" purity="4.8108750581741333e-01" nType="-99"/>
          <Node pos="r" depth="2" NCoef="0" IVar="-1" Cut="0.0000000000000000e+00" cType="1" res="-1.8490670481696725e-03" rms="2.7026858925819397e-01" purity="4.1114053130149841e-01" nType="-99"/>
        </Node>
      </Node>
    </BinaryTree>
    <BinaryTree type="DecisionTree" boostWeight="1.0000000000000000e+00" itree="1314">
      <Node pos="s" depth="0" NCoef="0" IVar="17" Cut="1.5231137275695801e+00" cType="1" res="2.8313201619312167e-04" rms="1.9957378506660461e-01" purity="5.0320196151733398e-01" nType="0">
        <Node pos="l" depth="1" NCoef="0" IVar="14" Cut="-6.8074840307235718e-01" cType="1" res="-1.7294436693191528e-02" rms="1.9237598776817322e-01" purity="2.7042520046234131e-01" nType="0">
          <Node pos="l" depth="2" NCoef="0" IVar="-1" Cut="0.0000000000000000e+00" cType="1" res="-1.4168723719194531e-03" rms="1.6102595627307892e-01" purity="2.0799492299556732e-01" nType="-99"/>
          <Node pos="r" depth="2" NCoef="0" IVar="-1" Cut="0.0000000000000000e+00" cType="1" res="4.1632415377534926e-04" rms="2.3038737475872040e-01" purity="3.7061858177185059e-01" nType="-99"/>
        </Node>
        <Node pos="r" depth="1" NCoef="0" IVar="52" Cut="2.4443273544311523e+00" cType="1" res="2.8568588197231293e-02" rms="2.0753845572471619e-01" purity="8.7778151035308838e-01" nType="0">
          <Node pos="l" depth="2" NCoef="0" IVar="-1" Cut="0.0000000000000000e+00" cType="1" res="-8.8542938465252519e-04" rms="1.7218002676963806e-01" purity="6.7654603719711304e-01" nType="-99"/>
          <Node pos="r" depth="2" NCoef="0" IVar="-1" Cut="0.0000000000000000e+00" cType="1" res="1.0620310204103589e-03" rms="2.0889757573604584e-01" purity="8.9501082897186279e-01" nType="-99"/>
        </Node>
      </Node>
    </BinaryTree>
    <BinaryTree type="DecisionTree" boostWeight="1.0000000000000000e+00" itree="1315">
      <Node pos="s" depth="0" NCoef="0" IVar="5" Cut="3.0471518635749817e-01" cType="1" res="-8.5561419837176800e-04" rms="2.0185363292694092e-01" purity="4.9000054597854614e-01" nType="0">
        <Node pos="l" depth="1" NCoef="0" IVar="36" Cut="1.3681474924087524e+00" cType="1" res="2.0845973864197731e-02" rms="1.9075176119804382e-01" purity="6.5142482519149780e-01" nType="0">
          <Node pos="l" depth="2" NCoef="0" IVar="-1" Cut="0.0000000000000000e+00" cType="1" res="-2.6397665496915579e-03" rms="8.6682431399822235e-02" purity="8.2584261894226074e-02" nType="-99"/>
          <Node pos="r" depth="2" NCoef="0" IVar="-1" Cut="0.0000000000000000e+00" cType="1" res="1.2149288086220622e-03" rms="2.0922833681106567e-01" purity="8.2161158323287964e-01" nType="-99"/>
        </Node>
        <Node pos="r" depth="1" NCoef="0" IVar="16" Cut="-1.4154857397079468e+00" cType="1" res="-3.0151035636663437e-02" rms="2.1244938671588898e-01" purity="2.7209061384201050e-01" nType="0">
          <Node pos="l" depth="2" NCoef="0" IVar="-1" Cut="0.0000000000000000e+00" cType="1" res="2.1570660173892975e-03" rms="2.5844988226890564e-01" purity="1.7188851535320282e-01" nType="-99"/>
          <Node pos="r" depth="2" NCoef="0" IVar="-1" Cut="0.0000000000000000e+00" cType="1" res="-1.0437573073431849e-03" rms="1.9846104085445404e-01" purity="2.9194983839988708e-01" nType="-99"/>
        </Node>
      </Node>
    </BinaryTree>
    <BinaryTree type="DecisionTree" boostWeight="1.0000000000000000e+00" itree="1316">
      <Node pos="s" depth="0" NCoef="0" IVar="52" Cut="2.4094059467315674e+00" cType="1" res="8.5502741858363152e-03" rms="2.1098336577415466e-01" purity="5.0689071416854858e-01" nType="0">
        <Node pos="l" depth="1" NCoef="0" IVar="39" Cut="-1.8992787599563599e+00" cType="1" res="-5.6119803339242935e-02" rms="6.7521438002586365e-02" purity="2.2725267708301544e-01" nType="0">
          <Node pos="l" depth="2" NCoef="0" IVar="-1" Cut="0.0000000000000000e+00" cType="1" res="8.6924957577139139e-04" rms="2.4789497256278992e-01" purity="3.8433378934860229e-01" nType="-99"/>
          <Node pos="r" depth="2" NCoef="0" IVar="-1" Cut="0.0000000000000000e+00" cType="1" res="-4.3464824557304382e-03" rms="0.0000000000000000e+00" purity="1.1391440778970718e-01" nType="-99"/>
        </Node>
        <Node pos="r" depth="1" NCoef="0" IVar="25" Cut="1.1780499219894409e+00" cType="1" res="1.6106605529785156e-02" rms="2.2053731977939606e-01" purity="5.3956484794616699e-01" nType="0">
          <Node pos="l" depth="2" NCoef="0" IVar="-1" Cut="0.0000000000000000e+00" cType="1" res="6.0097890673205256e-04" rms="2.2155389189720154e-01" purity="5.5459117889404297e-01" nType="-99"/>
          <Node pos="r" depth="2" NCoef="0" IVar="-1" Cut="0.0000000000000000e+00" cType="1" res="-5.7425973936915398e-03" rms="1.4973244071006775e-01" purity="1.2484807521104813e-01" nType="-99"/>
        </Node>
      </Node>
    </BinaryTree>
    <BinaryTree type="DecisionTree" boostWeight="1.0000000000000000e+00" itree="1317">
      <Node pos="s" depth="0" NCoef="0" IVar="3" Cut="4.2674088478088379e+00" cType="1" res="4.8114131204783916e-03" rms="2.1044582128524780e-01" purity="4.9504825472831726e-01" nType="0">
        <Node pos="l" depth="1" NCoef="0" IVar="-1" Cut="0.0000000000000000e+00" cType="1" res="-8.6886649951338768e-03" rms="0.0000000000000000e+00" purity="-3.8711607456207275e-02" nType="-99"/>
        <Node pos="r" depth="1" NCoef="0" IVar="52" Cut="3.6069235801696777e+00" cType="1" res="9.0163219720125198e-03" rms="2.1233530342578888e-01" purity="5.0689554214477539e-01" nType="0">
          <Node pos="l" depth="2" NCoef="0" IVar="-1" Cut="0.0000000000000000e+00" cType="1" res="3.8318280712701380e-04" rms="2.1726791560649872e-01" purity="5.1433324813842773e-01" nType="-99"/>
          <Node pos="r" depth="2" NCoef="0" IVar="-1" Cut="0.0000000000000000e+00" cType="1" res="-5.5481931194663048e-03" rms="0.0000000000000000e+00" purity="2.4208380281925201e-01" nType="-99"/>
        </Node>
      </Node>
    </BinaryTree>
    <BinaryTree type="DecisionTree" boostWeight="1.0000000000000000e+00" itree="1318">
      <Node pos="s" depth="0" NCoef="0" IVar="5" Cut="3.3902129530906677e-01" cType="1" res="7.8420452773571014e-03" rms="2.0962356030941010e-01" purity="4.9989899992942810e-01" nType="0">
        <Node pos="l" depth="1" NCoef="0" IVar="3" Cut="4.8895621299743652e+00" cType="1" res="2.8527278453111649e-02" rms="1.9966810941696167e-01" purity="6.4456439018249512e-01" nType="0">
          <Node pos="l" depth="2" NCoef="0" IVar="-1" Cut="0.0000000000000000e+00" cType="1" res="3.3257083850912750e-04" rms="1.8391378223896027e-01" purity="6.0877615213394165e-01" nType="-99"/>
          <Node pos="r" depth="2" NCoef="0" IVar="-1" Cut="0.0000000000000000e+00" cType="1" res="2.2579270880669355e-03" rms="2.2402638196945190e-01" purity="7.1994352340698242e-01" nType="-99"/>
        </Node>
        <Node pos="r" depth="1" NCoef="0" IVar="9" Cut="-6.1728394031524658e-01" cType="1" res="-2.6935020461678505e-02" rms="2.2105155885219574e-01" purity="2.5668019056320190e-01" nType="0">
          <Node pos="l" depth="2" NCoef="0" IVar="-1" Cut="0.0000000000000000e+00" cType="1" res="-4.0380852296948433e-03" rms="0.0000000000000000e+00" purity="9.4348914921283722e-02" nType="-99"/>
          <Node pos="r" depth="2" NCoef="0" IVar="-1" Cut="0.0000000000000000e+00" cType="1" res="-4.1518398211337626e-04" rms="2.3622095584869385e-01" purity="2.6723590493202209e-01" nType="-99"/>
        </Node>
      </Node>
    </BinaryTree>
    <BinaryTree type="DecisionTree" boostWeight="1.0000000000000000e+00" itree="1319">
      <Node pos="s" depth="0" NCoef="0" IVar="0" Cut="7.0012432336807251e-01" cType="1" res="8.5071688517928123e-03" rms="2.1205851435661316e-01" purity="5.0731933116912842e-01" nType="0">
        <Node pos="l" depth="1" NCoef="0" IVar="2" Cut="1.4449371099472046e+00" cType="1" res="2.4916032329201698e-02" rms="2.2391974925994873e-01" purity="5.6807917356491089e-01" nType="0">
          <Node pos="l" depth="2" NCoef="0" IVar="-1" Cut="0.0000000000000000e+00" cType="1" res="-4.1825519874691963e-03" rms="9.2540711164474487e-02" purity="1.1193137615919113e-01" nType="-99"/>
          <Node pos="r" depth="2" NCoef="0" IVar="-1" Cut="0.0000000000000000e+00" cType="1" res="9.2242826940491796e-04" rms="2.3120681941509247e-01" purity="6.1240315437316895e-01" nType="-99"/>
        </Node>
        <Node pos="r" depth="1" NCoef="0" IVar="40" Cut="9.7262078523635864e-01" cType="1" res="-2.0168809220194817e-02" rms="1.8611487746238708e-01" purity="4.0113604068756104e-01" nType="0">
          <Node pos="l" depth="2" NCoef="0" IVar="-1" Cut="0.0000000000000000e+00" cType="1" res="-1.4560023555532098e-03" rms="1.4437124133110046e-01" purity="3.7361413240432739e-01" nType="-99"/>
          <Node pos="r" depth="2" NCoef="0" IVar="-1" Cut="0.0000000000000000e+00" cType="1" res="1.1282574851065874e-03" rms="2.4231277406215668e-01" purity="4.5778653025627136e-01" nType="-99"/>
        </Node>
      </Node>
    </BinaryTree>
    <BinaryTree type="DecisionTree" boostWeight="1.0000000000000000e+00" itree="1320">
      <Node pos="s" depth="0" NCoef="0" IVar="60" Cut="-8.1035345792770386e-01" cType="1" res="3.5329409874975681e-03" rms="2.0741328597068787e-01" purity="5.0315433740615845e-01" nType="0">
        <Node pos="l" depth="1" NCoef="0" IVar="3" Cut="5.0296816825866699e+00" cType="1" res="8.9248884469270706e-03" rms="2.1365235745906830e-01" purity="5.2451127767562866e-01" nType="0">
          <Node pos="l" depth="2" NCoef="0" IVar="-1" Cut="0.0000000000000000e+00" cType="1" res="-4.4120832171756774e-05" rms="2.1103490889072418e-01" purity="5.0826853513717651e-01" nType="-99"/>
          <Node pos="r" depth="2" NCoef="0" IVar="-1" Cut="0.0000000000000000e+00" cType="1" res="1.8532137619331479e-03" rms="2.1897538006305695e-01" purity="6.0761445760726929e-01" nType="-99"/>
        </Node>
        <Node pos="r" depth="1" NCoef="0" IVar="3" Cut="4.6714982986450195e+00" cType="1" res="-4.5938254334032536e-03" rms="0.0000000000000000e+00" purity="8.7984725832939148e-02" nType="-99"/>
      </Node>
    </BinaryTree>
    <BinaryTree type="DecisionTree" boostWeight="1.0000000000000000e+00" itree="1321">
      <Node pos="s" depth="0" NCoef="0" IVar="39" Cut="-1.0088812112808228e+00" cType="1" res="1.1392021551728249e-02" rms="2.1883207559585571e-01" purity="5.0257200002670288e-01" nType="0">
        <Node pos="l" depth="1" NCoef="0" IVar="6" Cut="1.1691868305206299e+00" cType="1" res="1.9738625735044479e-02" rms="2.2452776134014130e-01" purity="5.2805036306381226e-01" nType="0">
          <Node pos="l" depth="2" NCoef="0" IVar="-1" Cut="0.0000000000000000e+00" cType="1" res="-2.5823921896517277e-03" rms="0.0000000000000000e+00" purity="1.0669568926095963e-01" nType="-99"/>
          <Node pos="r" depth="2" NCoef="0" IVar="-1" Cut="0.0000000000000000e+00" cType="1" res="7.5322255725041032e-04" rms="2.3511898517608643e-01" purity="5.7059639692306519e-01" nType="-99"/>
        </Node>
        <Node pos="r" depth="1" NCoef="0" IVar="17" Cut="1.3244781494140625e+00" cType="1" res="-7.7728345990180969e-02" rms="1.1062610894441605e-01" purity="2.3052884638309479e-01" nType="0">
          <Node pos="l" depth="2" NCoef="0" IVar="-1" Cut="0.0000000000000000e+00" cType="1" res="-1.1179630644619465e-02" rms="0.0000000000000000e+00" purity="-7.8250849619507790e-03" nType="-99"/>
          <Node pos="r" depth="2" NCoef="0" IVar="-1" Cut="0.0000000000000000e+00" cType="1" res="-4.3498505838215351e-03" rms="1.5830530226230621e-01" purity="4.0132421255111694e-01" nType="-99"/>
        </Node>
      </Node>
    </BinaryTree>
    <BinaryTree type="DecisionTree" boostWeight="1.0000000000000000e+00" itree="1322">
      <Node pos="s" depth="0" NCoef="0" IVar="15" Cut="1.5219346284866333e+00" cType="1" res="2.0028136204928160e-03" rms="1.9967493414878845e-01" purity="5.0917869806289673e-01" nType="0">
        <Node pos="l" depth="1" NCoef="0" IVar="5" Cut="4.3533283472061157e-01" cType="1" res="1.0151389054954052e-02" rms="1.8639861047267914e-01" purity="5.1607519388198853e-01" nType="0">
          <Node pos="l" depth="2" NCoef="0" IVar="-1" Cut="0.0000000000000000e+00" cType="1" res="8.1688107457011938e-04" rms="1.9389489293098450e-01" purity="6.2993079423904419e-01" nType="-99"/>
          <Node pos="r" depth="2" NCoef="0" IVar="-1" Cut="0.0000000000000000e+00" cType="1" res="-1.0058250045403838e-03" rms="1.5253052115440369e-01" purity="1.6633298993110657e-01" nType="-99"/>
        </Node>
        <Node pos="r" depth="1" NCoef="0" IVar="15" Cut="1.5329241752624512e+00" cType="1" res="-6.9933123886585236e-02" rms="2.8170630335807800e-01" purity="4.4829553365707397e-01" nType="0">
          <Node pos="l" depth="2" NCoef="0" IVar="-1" Cut="0.0000000000000000e+00" cType="1" res="3.6329624890640844e-06" rms="2.6002368330955505e-01" purity="6.2578344345092773e-01" nType="-99"/>
          <Node pos="r" depth="2" NCoef="0" IVar="-1" Cut="0.0000000000000000e+00" cType="1" res="-4.6550417318940163e-03" rms="2.8404456377029419e-01" purity="2.4338409304618835e-01" nType="-99"/>
        </Node>
      </Node>
    </BinaryTree>
    <BinaryTree type="DecisionTree" boostWeight="1.0000000000000000e+00" itree="1323">
      <Node pos="s" depth="0" NCoef="0" IVar="52" Cut="3.1142230033874512e+00" cType="1" res="1.3393149711191654e-02" rms="2.2727610170841217e-01" purity="5.0033587217330933e-01" nType="0">
        <Node pos="l" depth="1" NCoef="0" IVar="25" Cut="1.0175223350524902e+00" cType="1" res="3.2015398144721985e-02" rms="2.4512207508087158e-01" purity="5.1260721683502197e-01" nType="0">
          <Node pos="l" depth="2" NCoef="0" IVar="-1" Cut="0.0000000000000000e+00" cType="1" res="1.3274714583531022e-03" rms="2.5963538885116577e-01" purity="5.5647110939025879e-01" nType="-99"/>
          <Node pos="r" depth="2" NCoef="0" IVar="-1" Cut="0.0000000000000000e+00" cType="1" res="-7.8892213059589267e-04" rms="1.8671210110187531e-01" purity="3.8299411535263062e-01" nType="-99"/>
        </Node>
        <Node pos="r" depth="1" NCoef="0" IVar="17" Cut="1.5210473537445068e+00" cType="1" res="-2.0871201530098915e-02" rms="1.8528522551059723e-01" purity="4.7775694727897644e-01" nType="0">
          <Node pos="l" depth="2" NCoef="0" IVar="-1" Cut="0.0000000000000000e+00" cType="1" res="-1.6954815946519375e-03" rms="1.5094165503978729e-01" purity="1.9386823475360870e-01" nType="-99"/>
          <Node pos="r" depth="2" NCoef="0" IVar="-1" Cut="0.0000000000000000e+00" cType="1" res="4.8698077443987131e-04" rms="2.1823607385158539e-01" purity="8.6503010988235474e-01" nType="-99"/>
        </Node>
      </Node>
    </BinaryTree>
    <BinaryTree type="DecisionTree" boostWeight="1.0000000000000000e+00" itree="1324">
      <Node pos="s" depth="0" NCoef="0" IVar="3" Cut="5.3269724845886230e+00" cType="1" res="3.1041377224028111e-03" rms="2.0983645319938660e-01" purity="5.0273805856704712e-01" nType="0">
        <Node pos="l" depth="1" NCoef="0" IVar="3" Cut="4.9914140701293945e+00" cType="1" res="6.8273418582975864e-03" rms="2.2001260519027710e-01" purity="5.1030665636062622e-01" nType="0">
          <Node pos="l" depth="2" NCoef="0" IVar="-1" Cut="0.0000000000000000e+00" cType="1" res="-1.2822297867387533e-04" rms="2.1587611734867096e-01" purity="4.7889196872711182e-01" nType="-99"/>
          <Node pos="r" depth="2" NCoef="0" IVar="-1" Cut="0.0000000000000000e+00" cType="1" res="1.8751618918031454e-03" rms="2.3156487941741943e-01" purity="6.5745687484741211e-01" nType="-99"/>
        </Node>
        <Node pos="r" depth="1" NCoef="0" IVar="-1" Cut="0.0000000000000000e+00" cType="1" res="-4.2269267141819000e-03" rms="0.0000000000000000e+00" purity="1.7058174312114716e-01" nType="-99"/>
      </Node>
    </BinaryTree>
    <BinaryTree type="DecisionTree" boostWeight="1.0000000000000000e+00" itree="1325">
      <Node pos="s" depth="0" NCoef="0" IVar="17" Cut="1.5231137275695801e+00" cType="1" res="-2.7483263984322548e-03" rms="1.9260902702808380e-01" purity="4.9878507852554321e-01" nType="0">
        <Node pos="l" depth="1" NCoef="0" IVar="57" Cut="1.1010603904724121e+00" cType="1" res="-1.9462535157799721e-02" rms="1.7846672236919403e-01" purity="2.6829195022583008e-01" nType="0">
          <Node pos="l" depth="2" NCoef="0" IVar="-1" Cut="0.0000000000000000e+00" cType="1" res="-1.9944748783018440e-04" rms="2.0053882896900177e-01" purity="3.0630567669868469e-01" nType="-99"/>
          <Node pos="r" depth="2" NCoef="0" IVar="-1" Cut="0.0000000000000000e+00" cType="1" res="-2.9604840092360973e-03" rms="0.0000000000000000e+00" purity="1.2281714379787445e-01" nType="-99"/>
        </Node>
        <Node pos="r" depth="1" NCoef="0" IVar="2" Cut="1.7358382940292358e+00" cType="1" res="2.4327065795660019e-02" rms="2.1074546873569489e-01" purity="8.7216156721115112e-01" nType="0">
          <Node pos="l" depth="2" NCoef="0" IVar="-1" Cut="0.0000000000000000e+00" cType="1" res="-1.6201016260311007e-03" rms="2.6451882719993591e-01" purity="4.9277180433273315e-01" nType="-99"/>
          <Node pos="r" depth="2" NCoef="0" IVar="-1" Cut="0.0000000000000000e+00" cType="1" res="9.1845478164032102e-04" rms="2.0431351661682129e-01" purity="9.0109908580780029e-01" nType="-99"/>
        </Node>
      </Node>
    </BinaryTree>
    <BinaryTree type="DecisionTree" boostWeight="1.0000000000000000e+00" itree="1326">
      <Node pos="s" depth="0" NCoef="0" IVar="58" Cut="-4.1397029161453247e-01" cType="1" res="2.7268356643617153e-03" rms="2.1369956433773041e-01" purity="4.9478116631507874e-01" nType="0">
        <Node pos="l" depth="1" NCoef="0" IVar="27" Cut="8.2149463891983032e-01" cType="1" res="2.0339874550700188e-02" rms="2.3611354827880859e-01" purity="5.3811883926391602e-01" nType="0">
          <Node pos="l" depth="2" NCoef="0" IVar="-1" Cut="0.0000000000000000e+00" cType="1" res="-1.1288329958915710e-02" rms="0.0000000000000000e+00" purity="-3.2614134252071381e-03" nType="-99"/>
          <Node pos="r" depth="2" NCoef="0" IVar="-1" Cut="0.0000000000000000e+00" cType="1" res="7.8352016862481833e-04" rms="2.4346302449703217e-01" purity="5.6398445367813110e-01" nType="-99"/>
        </Node>
        <Node pos="r" depth="1" NCoef="0" IVar="5" Cut="2.2542442381381989e-01" cType="1" res="-3.8602795451879501e-02" rms="1.3990497589111328e-01" purity="3.9308780431747437e-01" nType="0">
          <Node pos="l" depth="2" NCoef="0" IVar="-1" Cut="0.0000000000000000e+00" cType="1" res="3.4175690962001681e-04" rms="1.6759993135929108e-01" purity="5.9667539596557617e-01" nType="-99"/>
          <Node pos="r" depth="2" NCoef="0" IVar="-1" Cut="0.0000000000000000e+00" cType="1" res="-2.3171063512563705e-03" rms="9.2130810022354126e-02" purity="2.1538695693016052e-01" nType="-99"/>
        </Node>
      </Node>
    </BinaryTree>
    <BinaryTree type="DecisionTree" boostWeight="1.0000000000000000e+00" itree="1327">
      <Node pos="s" depth="0" NCoef="0" IVar="52" Cut="2.3822283744812012e+00" cType="1" res="-4.3666406418196857e-04" rms="2.0828001201152802e-01" purity="4.9236381053924561e-01" nType="0">
        <Node pos="l" depth="1" NCoef="0" IVar="36" Cut="1.1740008592605591e+00" cType="1" res="-2.3287602234631777e-03" rms="0.0000000000000000e+00" purity="1.9784663617610931e-01" nType="-99"/>
        <Node pos="r" depth="1" NCoef="0" IVar="68" Cut="1.2345679104328156e-02" cType="1" res="7.1938759647309780e-03" rms="2.2050680220127106e-01" purity="5.2201169729232788e-01" nType="0">
          <Node pos="l" depth="2" NCoef="0" IVar="-1" Cut="0.0000000000000000e+00" cType="1" res="3.8924161344766617e-04" rms="2.2307522594928741e-01" purity="5.3454524278640747e-01" nType="-99"/>
          <Node pos="r" depth="2" NCoef="0" IVar="-1" Cut="0.0000000000000000e+00" cType="1" res="-3.0538183636963367e-03" rms="9.3390867114067078e-02" purity="2.4958685040473938e-01" nType="-99"/>
        </Node>
      </Node>
    </BinaryTree>
    <BinaryTree type="DecisionTree" boostWeight="1.0000000000000000e+00" itree="1328">
      <Node pos="s" depth="0" NCoef="0" IVar="3" Cut="4.2820105552673340e+00" cType="1" res="-3.9014255162328482e-03" rms="1.9717648625373840e-01" purity="4.9313628673553467e-01" nType="0">
        <Node pos="l" depth="1" NCoef="0" IVar="-1" Cut="0.0000000000000000e+00" cType="1" res="-7.1052056737244129e-03" rms="0.0000000000000000e+00" purity="-2.2903311997652054e-02" nType="-99"/>
        <Node pos="r" depth="1" NCoef="0" IVar="0" Cut="9.3315941095352173e-01" cType="1" res="6.1047513736411929e-04" rms="1.9993995130062103e-01" purity="5.0787419080734253e-01" nType="0">
          <Node pos="l" depth="2" NCoef="0" IVar="-1" Cut="0.0000000000000000e+00" cType="1" res="3.2155209919437766e-04" rms="2.0912992954254150e-01" purity="5.3392046689987183e-01" nType="-99"/>
          <Node pos="r" depth="2" NCoef="0" IVar="-1" Cut="0.0000000000000000e+00" cType="1" res="-1.5163865173235536e-03" rms="1.2933930754661560e-01" purity="3.6996096372604370e-01" nType="-99"/>
        </Node>
      </Node>
    </BinaryTree>
    <BinaryTree type="DecisionTree" boostWeight="1.0000000000000000e+00" itree="1329">
      <Node pos="s" depth="0" NCoef="0" IVar="3" Cut="5.1778826713562012e+00" cType="1" res="7.7826557680964470e-03" rms="2.1017339825630188e-01" purity="5.0622677803039551e-01" nType="0">
        <Node pos="l" depth="1" NCoef="0" IVar="48" Cut="1.0782237052917480e+00" cType="1" res="3.4984177909791470e-04" rms="2.0470963418483734e-01" purity="5.0299513339996338e-01" nType="0">
          <Node pos="l" depth="2" NCoef="0" IVar="-1" Cut="0.0000000000000000e+00" cType="1" res="-2.1089448127895594e-03" rms="0.0000000000000000e+00" purity="1.1906340718269348e-01" nType="-99"/>
          <Node pos="r" depth="2" NCoef="0" IVar="-1" Cut="0.0000000000000000e+00" cType="1" res="3.1719918479211628e-04" rms="2.1961614489555359e-01" purity="5.6598204374313354e-01" nType="-99"/>
        </Node>
        <Node pos="r" depth="1" NCoef="0" IVar="6" Cut="2.1320555210113525e+00" cType="1" res="8.9170180261135101e-02" rms="2.4852596223354340e-01" purity="5.4161238670349121e-01" nType="0">
          <Node pos="l" depth="2" NCoef="0" IVar="-1" Cut="0.0000000000000000e+00" cType="1" res="4.5761121436953545e-03" rms="3.4544184803962708e-01" purity="5.3420573472976685e-01" nType="-99"/>
          <Node pos="r" depth="2" NCoef="0" IVar="-1" Cut="0.0000000000000000e+00" cType="1" res="-1.8975089769810438e-03" rms="0.0000000000000000e+00" purity="5.5252623558044434e-01" nType="-99"/>
        </Node>
      </Node>
    </BinaryTree>
    <BinaryTree type="DecisionTree" boostWeight="1.0000000000000000e+00" itree="1330">
      <Node pos="s" depth="0" NCoef="0" IVar="57" Cut="2.6164504885673523e-01" cType="1" res="1.7414566827937961e-03" rms="2.1614919602870941e-01" purity="4.9501365423202515e-01" nType="0">
        <Node pos="l" depth="1" NCoef="0" IVar="34" Cut="-1.1067912578582764e+00" cType="1" res="1.6738155856728554e-02" rms="2.3746520280838013e-01" purity="5.4808980226516724e-01" nType="0">
          <Node pos="l" depth="2" NCoef="0" IVar="-1" Cut="0.0000000000000000e+00" cType="1" res="2.6153612416237593e-03" rms="2.7724200487136841e-01" purity="5.0336170196533203e-01" nType="-99"/>
          <Node pos="r" depth="2" NCoef="0" IVar="-1" Cut="0.0000000000000000e+00" cType="1" res="1.5956848801579326e-04" rms="2.2801628708839417e-01" purity="5.5579185485839844e-01" nType="-99"/>
        </Node>
        <Node pos="r" depth="1" NCoef="0" IVar="0" Cut="1.0105308294296265e+00" cType="1" res="-4.9685914069414139e-02" rms="1.0072853416204453e-01" purity="3.1300258636474609e-01" nType="0">
          <Node pos="l" depth="2" NCoef="0" IVar="-1" Cut="0.0000000000000000e+00" cType="1" res="-9.7744038794189692e-04" rms="1.4343300461769104e-01" purity="3.5115635395050049e-01" nType="-99"/>
          <Node pos="r" depth="2" NCoef="0" IVar="-1" Cut="0.0000000000000000e+00" cType="1" res="-1.0349806398153305e-02" rms="0.0000000000000000e+00" purity="-5.0804349593818188e-03" nType="-99"/>
        </Node>
      </Node>
    </BinaryTree>
    <BinaryTree type="DecisionTree" boostWeight="1.0000000000000000e+00" itree="1331">
      <Node pos="s" depth="0" NCoef="0" IVar="3" Cut="5.3341279029846191e+00" cType="1" res="-1.5637452015653253e-03" rms="2.0337837934494019e-01" purity="4.9199119210243225e-01" nType="0">
        <Node pos="l" depth="1" NCoef="0" IVar="3" Cut="5.1992630958557129e+00" cType="1" res="2.2502355277538300e-03" rms="2.1505333483219147e-01" purity="4.9853983521461487e-01" nType="0">
          <Node pos="l" depth="2" NCoef="0" IVar="-1" Cut="0.0000000000000000e+00" cType="1" res="-1.2677075574174523e-04" rms="2.0762771368026733e-01" purity="4.9154230952262878e-01" nType="-99"/>
          <Node pos="r" depth="2" NCoef="0" IVar="-1" Cut="0.0000000000000000e+00" cType="1" res="3.8693740498274565e-03" rms="3.0452102422714233e-01" purity="6.4250129461288452e-01" nType="-99"/>
        </Node>
        <Node pos="r" depth="1" NCoef="0" IVar="-1" Cut="0.0000000000000000e+00" cType="1" res="-3.9560156874358654e-03" rms="0.0000000000000000e+00" purity="2.1929630637168884e-01" nType="-99"/>
      </Node>
    </BinaryTree>
    <BinaryTree type="DecisionTree" boostWeight="1.0000000000000000e+00" itree="1332">
      <Node pos="s" depth="0" NCoef="0" IVar="62" Cut="1.3262267410755157e-01" cType="1" res="1.0587725788354874e-02" rms="2.1413373947143555e-01" purity="5.0207620859146118e-01" nType="0">
        <Node pos="l" depth="1" NCoef="0" IVar="18" Cut="-1.1671048402786255e+00" cType="1" res="2.4318808689713478e-02" rms="2.3098361492156982e-01" purity="5.2477651834487915e-01" nType="0">
          <Node pos="l" depth="2" NCoef="0" IVar="-1" Cut="0.0000000000000000e+00" cType="1" res="9.4658939633518457e-04" rms="2.3492693901062012e-01" purity="5.6186026334762573e-01" nType="-99"/>
          <Node pos="r" depth="2" NCoef="0" IVar="-1" Cut="0.0000000000000000e+00" cType="1" res="-1.7917214427143335e-03" rms="1.8270343542098999e-01" purity="2.3657444119453430e-01" nType="-99"/>
        </Node>
        <Node pos="r" depth="1" NCoef="0" IVar="48" Cut="8.5877549648284912e-01" cType="1" res="-1.6797075048089027e-02" rms="1.7253756523132324e-01" purity="4.5680332183837891e-01" nType="0">
          <Node pos="l" depth="2" NCoef="0" IVar="-1" Cut="0.0000000000000000e+00" cType="1" res="-4.9826381728053093e-03" rms="0.0000000000000000e+00" purity="-3.6578077822923660e-02" nType="-99"/>
          <Node pos="r" depth="2" NCoef="0" IVar="-1" Cut="0.0000000000000000e+00" cType="1" res="-1.7434488108847290e-04" rms="1.9989943504333496e-01" purity="5.0409883260726929e-01" nType="-99"/>
        </Node>
      </Node>
    </BinaryTree>
    <BinaryTree type="DecisionTree" boostWeight="1.0000000000000000e+00" itree="1333">
      <Node pos="s" depth="0" NCoef="0" IVar="57" Cut="-5.4348311387002468e-03" cType="1" res="-4.6148416586220264e-03" rms="1.9418050348758698e-01" purity="4.8999986052513123e-01" nType="0">
        <Node pos="l" depth="1" NCoef="0" IVar="5" Cut="3.3735799789428711e-01" cType="1" res="1.1167539283633232e-02" rms="2.1658888459205627e-01" purity="5.4997944831848145e-01" nType="0">
          <Node pos="l" depth="2" NCoef="0" IVar="-1" Cut="0.0000000000000000e+00" cType="1" res="1.0882525239139795e-03" rms="2.0424427092075348e-01" purity="6.9409167766571045e-01" nType="-99"/>
          <Node pos="r" depth="2" NCoef="0" IVar="-1" Cut="0.0000000000000000e+00" cType="1" res="-4.7003678628243506e-04" rms="2.3216372728347778e-01" purity="3.1336522102355957e-01" nType="-99"/>
        </Node>
        <Node pos="r" depth="1" NCoef="0" IVar="48" Cut="1.0624612569808960e+00" cType="1" res="-5.4656494408845901e-02" rms="7.2295203804969788e-02" purity="2.9982081055641174e-01" nType="0">
          <Node pos="l" depth="2" NCoef="0" IVar="-1" Cut="0.0000000000000000e+00" cType="1" res="-9.5210298895835876e-03" rms="0.0000000000000000e+00" purity="-1.2945094704627991e-01" nType="-99"/>
          <Node pos="r" depth="2" NCoef="0" IVar="-1" Cut="0.0000000000000000e+00" cType="1" res="-7.8168505569919944e-04" rms="1.7983193695545197e-01" purity="3.9936816692352295e-01" nType="-99"/>
        </Node>
      </Node>
    </BinaryTree>
    <BinaryTree type="DecisionTree" boostWeight="1.0000000000000000e+00" itree="1334">
      <Node pos="s" depth="0" NCoef="0" IVar="13" Cut="-1.4926421642303467e+00" cType="1" res="5.4906513541936874e-03" rms="2.1549510955810547e-01" purity="5.0404667854309082e-01" nType="0">
        <Node pos="l" depth="1" NCoef="0" IVar="-1" Cut="0.0000000000000000e+00" cType="1" res="5.5921380408108234e-03" rms="3.0839055776596069e-01" purity="4.6536400914192200e-01" nType="-99"/>
        <Node pos="r" depth="1" NCoef="0" IVar="55" Cut="1.4702690839767456e+00" cType="1" res="1.8292167223989964e-03" rms="2.1123215556144714e-01" purity="5.0508487224578857e-01" nType="0">
          <Node pos="l" depth="2" NCoef="0" IVar="-1" Cut="0.0000000000000000e+00" cType="1" res="3.1416057026945055e-04" rms="2.1773007512092590e-01" purity="5.3186565637588501e-01" nType="-99"/>
          <Node pos="r" depth="2" NCoef="0" IVar="-1" Cut="0.0000000000000000e+00" cType="1" res="-1.9796451088041067e-03" rms="1.5425877273082733e-01" purity="3.3791673183441162e-01" nType="-99"/>
        </Node>
      </Node>
    </BinaryTree>
    <BinaryTree type="DecisionTree" boostWeight="1.0000000000000000e+00" itree="1335">
      <Node pos="s" depth="0" NCoef="0" IVar="18" Cut="-1.1032915115356445e+00" cType="1" res="6.3534020446240902e-03" rms="2.1043470501899719e-01" purity="4.9955087900161743e-01" nType="0">
        <Node pos="l" depth="1" NCoef="0" IVar="52" Cut="3.3918836116790771e+00" cType="1" res="1.4617878943681717e-02" rms="2.1548810601234436e-01" purity="5.3599011898040771e-01" nType="0">
          <Node pos="l" depth="2" NCoef="0" IVar="-1" Cut="0.0000000000000000e+00" cType="1" res="6.8493903381749988e-04" rms="2.2672112286090851e-01" purity="5.5173629522323608e-01" nType="-99"/>
          <Node pos="r" depth="2" NCoef="0" IVar="-1" Cut="0.0000000000000000e+00" cType="1" res="-1.7634154064580798e-03" rms="5.6238733232021332e-02" purity="4.1478893160820007e-01" nType="-99"/>
        </Node>
        <Node pos="r" depth="1" NCoef="0" IVar="15" Cut="1.4789419174194336e+00" cType="1" res="-6.4210988581180573e-02" rms="1.4262828230857849e-01" purity="1.8842296302318573e-01" nType="0">
          <Node pos="l" depth="2" NCoef="0" IVar="-1" Cut="0.0000000000000000e+00" cType="1" res="-2.2843296173959970e-03" rms="1.2325960397720337e-01" purity="1.6775082051753998e-01" nType="-99"/>
          <Node pos="r" depth="2" NCoef="0" IVar="-1" Cut="0.0000000000000000e+00" cType="1" res="-4.0129078552126884e-03" rms="1.5651392936706543e-01" purity="2.6251307129859924e-01" nType="-99"/>
        </Node>
      </Node>
    </BinaryTree>
    <BinaryTree type="DecisionTree" boostWeight="1.0000000000000000e+00" itree="1336">
      <Node pos="s" depth="0" NCoef="0" IVar="36" Cut="1.0582031011581421e+00" cType="1" res="4.5054242946207523e-03" rms="2.0850585401058197e-01" purity="4.9239942431449890e-01" nType="0">
        <Node pos="l" depth="1" NCoef="0" IVar="13" Cut="9.7332847118377686e-01" cType="1" res="-5.4962653666734695e-03" rms="0.0000000000000000e+00" purity="1.5074665658175945e-02" nType="-99"/>
        <Node pos="r" depth="1" NCoef="0" IVar="22" Cut="1.2345679104328156e-02" cType="1" res="1.6424272209405899e-02" rms="2.3970031738281250e-01" purity="6.0452556610107422e-01" nType="0">
          <Node pos="l" depth="2" NCoef="0" IVar="-1" Cut="0.0000000000000000e+00" cType="1" res="3.4305027220398188e-03" rms="3.2453873753547668e-01" purity="4.6040546894073486e-01" nType="-99"/>
          <Node pos="r" depth="2" NCoef="0" IVar="-1" Cut="0.0000000000000000e+00" cType="1" res="2.5849937810562551e-04" rms="2.3270967602729797e-01" purity="6.1216622591018677e-01" nType="-99"/>
        </Node>
      </Node>
    </BinaryTree>
    <BinaryTree type="DecisionTree" boostWeight="1.0000000000000000e+00" itree="1337">
      <Node pos="s" depth="0" NCoef="0" IVar="5" Cut="4.3563032150268555e-01" cType="1" res="1.4689954696223140e-03" rms="2.0852996408939362e-01" purity="5.0303310155868530e-01" nType="0">
        <Node pos="l" depth="1" NCoef="0" IVar="36" Cut="1.4454618692398071e+00" cType="1" res="1.6330868005752563e-02" rms="2.0176200568675995e-01" purity="6.0964804887771606e-01" nType="0">
          <Node pos="l" depth="2" NCoef="0" IVar="-1" Cut="0.0000000000000000e+00" cType="1" res="-1.2770688626915216e-03" rms="1.5601450204849243e-01" purity="1.8320025503635406e-01" nType="-99"/>
          <Node pos="r" depth="2" NCoef="0" IVar="-1" Cut="0.0000000000000000e+00" cType="1" res="9.2066841898486018e-04" rms="2.1515452861785889e-01" purity="7.8058302402496338e-01" nType="-99"/>
        </Node>
        <Node pos="r" depth="1" NCoef="0" IVar="5" Cut="5.4002505540847778e-01" cType="1" res="-4.4956736266613007e-02" rms="2.2206701338291168e-01" purity="1.6998794674873352e-01" nType="0">
          <Node pos="l" depth="2" NCoef="0" IVar="-1" Cut="0.0000000000000000e+00" cType="1" res="-2.7216034941375256e-03" rms="1.6009046137332916e-01" purity="1.6060236096382141e-01" nType="-99"/>
          <Node pos="r" depth="2" NCoef="0" IVar="-1" Cut="0.0000000000000000e+00" cType="1" res="9.4613220426253974e-05" rms="2.4308411777019501e-01" purity="1.7618565261363983e-01" nType="-99"/>
        </Node>
      </Node>
    </BinaryTree>
    <BinaryTree type="DecisionTree" boostWeight="1.0000000000000000e+00" itree="1338">
      <Node pos="s" depth="0" NCoef="0" IVar="8" Cut="-9.1139173507690430e-01" cType="1" res="3.3494466915726662e-03" rms="2.0775376260280609e-01" purity="5.0265145301818848e-01" nType="0">
        <Node pos="l" depth="1" NCoef="0" IVar="9" Cut="-9.1358023881912231e-01" cType="1" res="8.3352513611316681e-03" rms="2.1085067093372345e-01" purity="5.2376562356948853e-01" nType="0">
          <Node pos="l" depth="2" NCoef="0" IVar="-1" Cut="0.0000000000000000e+00" cType="1" res="-2.5767672341316938e-03" rms="4.0556974709033966e-02" purity="2.2907249629497528e-01" nType="-99"/>
          <Node pos="r" depth="2" NCoef="0" IVar="-1" Cut="0.0000000000000000e+00" cType="1" res="4.0724218706600368e-04" rms="2.1456550061702728e-01" purity="5.3852748870849609e-01" nType="-99"/>
        </Node>
        <Node pos="r" depth="1" NCoef="0" IVar="17" Cut="9.7453159093856812e-01" cType="1" res="-1.0612482577562332e-01" rms="4.6545036137104034e-02" purity="3.9043236523866653e-02" nType="0">
          <Node pos="l" depth="2" NCoef="0" IVar="-1" Cut="0.0000000000000000e+00" cType="1" res="-4.4671952724456787e-02" rms="0.0000000000000000e+00" purity="-8.1082480028271675e-03" nType="-99"/>
          <Node pos="r" depth="2" NCoef="0" IVar="-1" Cut="0.0000000000000000e+00" cType="1" res="-4.3701091781258583e-03" rms="0.0000000000000000e+00" purity="7.9686060547828674e-02" nType="-99"/>
        </Node>
      </Node>
    </BinaryTree>
    <BinaryTree type="DecisionTree" boostWeight="1.0000000000000000e+00" itree="1339">
      <Node pos="s" depth="0" NCoef="0" IVar="40" Cut="6.7835724353790283e-01" cType="1" res="1.4017161913216114e-02" rms="2.1897023916244507e-01" purity="5.0950831174850464e-01" nType="0">
        <Node pos="l" depth="1" NCoef="0" IVar="6" Cut="9.0998113155364990e-01" cType="1" res="4.6634703874588013e-02" rms="2.4385227262973785e-01" purity="5.7062178850173950e-01" nType="0">
          <Node pos="l" depth="2" NCoef="0" IVar="-1" Cut="0.0000000000000000e+00" cType="1" res="-3.7686345167458057e-03" rms="0.0000000000000000e+00" purity="1.0465152561664581e-01" nType="-99"/>
          <Node pos="r" depth="2" NCoef="0" IVar="-1" Cut="0.0000000000000000e+00" cType="1" res="1.4004524564370513e-03" rms="2.4986115097999573e-01" purity="5.9416335821151733e-01" nType="-99"/>
        </Node>
        <Node pos="r" depth="1" NCoef="0" IVar="52" Cut="3.2827415466308594e+00" cType="1" res="-9.0065579861402512e-03" rms="1.9631129503250122e-01" purity="4.6637010574340820e-01" nType="0">
          <Node pos="l" depth="2" NCoef="0" IVar="-1" Cut="0.0000000000000000e+00" cType="1" res="1.1117412941530347e-04" rms="2.0598331093788147e-01" purity="4.8926377296447754e-01" nType="-99"/>
          <Node pos="r" depth="2" NCoef="0" IVar="-1" Cut="0.0000000000000000e+00" cType="1" res="-2.3053924087435007e-03" rms="1.3319373130798340e-01" purity="3.6574158072471619e-01" nType="-99"/>
        </Node>
      </Node>
    </BinaryTree>
    <BinaryTree type="DecisionTree" boostWeight="1.0000000000000000e+00" itree="1340">
      <Node pos="s" depth="0" NCoef="0" IVar="50" Cut="-1.3573919534683228e+00" cType="1" res="8.3403596654534340e-03" rms="2.1613676846027374e-01" purity="4.9657729268074036e-01" nType="0">
        <Node pos="l" depth="1" NCoef="0" IVar="52" Cut="3.5693013668060303e+00" cType="1" res="1.3954613357782364e-02" rms="2.1833503246307373e-01" purity="5.1340007781982422e-01" nType="0">
          <Node pos="l" depth="2" NCoef="0" IVar="-1" Cut="0.0000000000000000e+00" cType="1" res="5.3584558190777898e-04" rms="2.2352689504623413e-01" purity="5.2358478307723999e-01" nType="-99"/>
          <Node pos="r" depth="2" NCoef="0" IVar="-1" Cut="0.0000000000000000e+00" cType="1" res="-3.5772286355495453e-03" rms="0.0000000000000000e+00" purity="2.5974118709564209e-01" nType="-99"/>
        </Node>
        <Node pos="r" depth="1" NCoef="0" IVar="58" Cut="-1.2615904808044434e+00" cType="1" res="-7.4865244328975677e-02" rms="1.5865072607994080e-01" purity="2.4725621938705444e-01" nType="0">
          <Node pos="l" depth="2" NCoef="0" IVar="-1" Cut="0.0000000000000000e+00" cType="1" res="6.0049758758395910e-04" rms="2.3774382472038269e-01" purity="4.9132266640663147e-01" nType="-99"/>
          <Node pos="r" depth="2" NCoef="0" IVar="-1" Cut="0.0000000000000000e+00" cType="1" res="-7.7948714606463909e-03" rms="0.0000000000000000e+00" purity="4.1583403944969177e-03" nType="-99"/>
        </Node>
      </Node>
    </BinaryTree>
    <BinaryTree type="DecisionTree" boostWeight="1.0000000000000000e+00" itree="1341">
      <Node pos="s" depth="0" NCoef="0" IVar="3" Cut="4.8825283050537109e+00" cType="1" res="7.9764910042285919e-03" rms="2.1342292428016663e-01" purity="5.0421905517578125e-01" nType="0">
        <Node pos="l" depth="1" NCoef="0" IVar="2" Cut="2.6852285861968994e+00" cType="1" res="-6.6237412393093109e-03" rms="2.1135005354881287e-01" purity="4.5388638973236084e-01" nType="0">
          <Node pos="l" depth="2" NCoef="0" IVar="-1" Cut="0.0000000000000000e+00" cType="1" res="-1.0281937429681420e-03" rms="1.8281780183315277e-01" purity="3.0127373337745667e-01" nType="-99"/>
          <Node pos="r" depth="2" NCoef="0" IVar="-1" Cut="0.0000000000000000e+00" cType="1" res="5.2960671018809080e-04" rms="2.4095290899276733e-01" purity="6.5514010190963745e-01" nType="-99"/>
        </Node>
        <Node pos="r" depth="1" NCoef="0" IVar="52" Cut="3.5284430980682373e+00" cType="1" res="4.0964949876070023e-02" rms="2.1440361440181732e-01" purity="6.1794304847717285e-01" nType="0">
          <Node pos="l" depth="2" NCoef="0" IVar="-1" Cut="0.0000000000000000e+00" cType="1" res="1.6110044671222568e-03" rms="2.3759223520755768e-01" purity="6.4598280191421509e-01" nType="-99"/>
          <Node pos="r" depth="2" NCoef="0" IVar="-1" Cut="0.0000000000000000e+00" cType="1" res="-2.8511292766779661e-03" rms="0.0000000000000000e+00" purity="3.8518938422203064e-01" nType="-99"/>
        </Node>
      </Node>
    </BinaryTree>
    <BinaryTree type="DecisionTree" boostWeight="1.0000000000000000e+00" itree="1342">
      <Node pos="s" depth="0" NCoef="0" IVar="12" Cut="1.2345679104328156e-02" cType="1" res="6.2303319573402405e-03" rms="2.1019275486469269e-01" purity="5.0361889600753784e-01" nType="0">
        <Node pos="l" depth="1" NCoef="0" IVar="14" Cut="1.1726410388946533e+00" cType="1" res="-5.3304322063922882e-02" rms="1.6922786831855774e-01" purity="2.7445363998413086e-01" nType="0">
          <Node pos="l" depth="2" NCoef="0" IVar="-1" Cut="0.0000000000000000e+00" cType="1" res="-1.4025415293872356e-03" rms="1.8057259917259216e-01" purity="2.8465908765792847e-01" nType="-99"/>
          <Node pos="r" depth="2" NCoef="0" IVar="-1" Cut="0.0000000000000000e+00" cType="1" res="-6.8310373462736607e-03" rms="0.0000000000000000e+00" purity="2.0493593811988831e-01" nType="-99"/>
        </Node>
        <Node pos="r" depth="1" NCoef="0" IVar="60" Cut="-7.8590822219848633e-01" cType="1" res="1.7254492267966270e-02" rms="2.1513079106807709e-01" purity="5.4605388641357422e-01" nType="0">
          <Node pos="l" depth="2" NCoef="0" IVar="-1" Cut="0.0000000000000000e+00" cType="1" res="6.6060741664841771e-04" rms="2.2275352478027344e-01" purity="5.6549656391143799e-01" nType="-99"/>
          <Node pos="r" depth="2" NCoef="0" IVar="-1" Cut="0.0000000000000000e+00" cType="1" res="-3.5936473868787289e-03" rms="0.0000000000000000e+00" purity="1.6548100113868713e-01" nType="-99"/>
        </Node>
      </Node>
    </BinaryTree>
    <BinaryTree type="DecisionTree" boostWeight="1.0000000000000000e+00" itree="1343">
      <Node pos="s" depth="0" NCoef="0" IVar="2" Cut="2.5005888938903809e+00" cType="1" res="-3.5638210829347372e-03" rms="1.8876656889915466e-01" purity="5.0274044275283813e-01" nType="0">
        <Node pos="l" depth="1" NCoef="0" IVar="17" Cut="1.5216873884201050e+00" cType="1" res="-2.9640058055520058e-02" rms="1.2906570732593536e-01" purity="3.2672709226608276e-01" nType="0">
          <Node pos="l" depth="2" NCoef="0" IVar="-1" Cut="0.0000000000000000e+00" cType="1" res="-2.5644761044532061e-03" rms="0.0000000000000000e+00" purity="1.1163603514432907e-01" nType="-99"/>
          <Node pos="r" depth="2" NCoef="0" IVar="-1" Cut="0.0000000000000000e+00" cType="1" res="4.5385517296381295e-04" rms="2.2927239537239075e-01" purity="7.7887523174285889e-01" nType="-99"/>
        </Node>
        <Node pos="r" depth="1" NCoef="0" IVar="3" Cut="4.3564233779907227e+00" cType="1" res="2.0578658208250999e-02" rms="2.2800908982753754e-01" purity="6.6570097208023071e-01" nType="0">
          <Node pos="l" depth="2" NCoef="0" IVar="-1" Cut="0.0000000000000000e+00" cType="1" res="-1.9428809173405170e-03" rms="1.7976824939250946e-01" purity="2.3395450413227081e-01" nType="-99"/>
          <Node pos="r" depth="2" NCoef="0" IVar="-1" Cut="0.0000000000000000e+00" cType="1" res="7.7509542461484671e-04" rms="2.2976665198802948e-01" purity="7.0242178440093994e-01" nType="-99"/>
        </Node>
      </Node>
    </BinaryTree>
    <BinaryTree type="DecisionTree" boostWeight="1.0000000000000000e+00" itree="1344">
      <Node pos="s" depth="0" NCoef="0" IVar="34" Cut="-1.4926306009292603e+00" cType="1" res="1.0158955119550228e-02" rms="2.1214798092842102e-01" purity="5.1381599903106689e-01" nType="0">
        <Node pos="l" depth="1" NCoef="0" IVar="25" Cut="9.4731128215789795e-01" cType="1" res="1.0104636847972870e-01" rms="2.6847532391548157e-01" purity="5.2630019187927246e-01" nType="0">
          <Node pos="l" depth="2" NCoef="0" IVar="-1" Cut="0.0000000000000000e+00" cType="1" res="4.2068846523761749e-03" rms="3.4097310900688171e-01" purity="6.1719083786010742e-01" nType="-99"/>
          <Node pos="r" depth="2" NCoef="0" IVar="-1" Cut="0.0000000000000000e+00" cType="1" res="9.9741818848997355e-04" rms="1.6000533103942871e-01" purity="4.5113936066627502e-01" nType="-99"/>
        </Node>
        <Node pos="r" depth="1" NCoef="0" IVar="36" Cut="1.3368016481399536e+00" cType="1" res="4.8034484498202801e-03" rms="2.0711377263069153e-01" purity="5.1308041810989380e-01" nType="0">
          <Node pos="l" depth="2" NCoef="0" IVar="-1" Cut="0.0000000000000000e+00" cType="1" res="-3.4690354950726032e-03" rms="0.0000000000000000e+00" purity="4.9276091158390045e-02" nType="-99"/>
          <Node pos="r" depth="2" NCoef="0" IVar="-1" Cut="0.0000000000000000e+00" cType="1" res="4.2351862066425383e-04" rms="2.3299878835678101e-01" purity="6.3905781507492065e-01" nType="-99"/>
        </Node>
      </Node>
    </BinaryTree>
    <BinaryTree type="DecisionTree" boostWeight="1.0000000000000000e+00" itree="1345">
      <Node pos="s" depth="0" NCoef="0" IVar="52" Cut="2.2899246215820312e+00" cType="1" res="4.2895111255347729e-03" rms="2.1352896094322205e-01" purity="4.8874920606613159e-01" nType="0">
        <Node pos="l" depth="1" NCoef="0" IVar="58" Cut="-1.1104956865310669e+00" cType="1" res="-2.6867045089602470e-03" rms="0.0000000000000000e+00" purity="1.7456562817096710e-01" nType="-99"/>
        <Node pos="r" depth="1" NCoef="0" IVar="5" Cut="3.4434083104133606e-01" cType="1" res="1.0301217436790466e-02" rms="2.2383423149585724e-01" purity="5.0810277462005615e-01" nType="0">
          <Node pos="l" depth="2" NCoef="0" IVar="-1" Cut="0.0000000000000000e+00" cType="1" res="1.0945380199700594e-03" rms="2.1305839717388153e-01" purity="6.6168940067291260e-01" nType="-99"/>
          <Node pos="r" depth="2" NCoef="0" IVar="-1" Cut="0.0000000000000000e+00" cType="1" res="-5.3128134459257126e-04" rms="2.3726633191108704e-01" purity="2.5206339359283447e-01" nType="-99"/>
        </Node>
      </Node>
    </BinaryTree>
    <BinaryTree type="DecisionTree" boostWeight="1.0000000000000000e+00" itree="1346">
      <Node pos="s" depth="0" NCoef="0" IVar="56" Cut="-1.2611401081085205e+00" cType="1" res="6.7214961163699627e-03" rms="2.1138823032379150e-01" purity="4.9405914545059204e-01" nType="0">
        <Node pos="l" depth="1" NCoef="0" IVar="3" Cut="4.2830605506896973e+00" cType="1" res="2.2293070331215858e-02" rms="2.3462462425231934e-01" purity="5.5196011066436768e-01" nType="0">
          <Node pos="l" depth="2" NCoef="0" IVar="-1" Cut="0.0000000000000000e+00" cType="1" res="-5.6447507813572884e-03" rms="7.3258243501186371e-02" purity="6.1158217489719391e-02" nType="-99"/>
          <Node pos="r" depth="2" NCoef="0" IVar="-1" Cut="0.0000000000000000e+00" cType="1" res="8.1008923007175326e-04" rms="2.3689609766006470e-01" purity="5.7142901420593262e-01" nType="-99"/>
        </Node>
        <Node pos="r" depth="1" NCoef="0" IVar="67" Cut="8.3541405200958252e-01" cType="1" res="-2.6838429272174835e-02" rms="1.4387558400630951e-01" purity="3.6927077174186707e-01" nType="0">
          <Node pos="l" depth="2" NCoef="0" IVar="-1" Cut="0.0000000000000000e+00" cType="1" res="3.3593927510082722e-03" rms="3.2317268848419189e-01" purity="5.1067060232162476e-01" nType="-99"/>
          <Node pos="r" depth="2" NCoef="0" IVar="-1" Cut="0.0000000000000000e+00" cType="1" res="-1.3296670513227582e-03" rms="1.0827563703060150e-01" purity="3.5787734389305115e-01" nType="-99"/>
        </Node>
      </Node>
    </BinaryTree>
    <BinaryTree type="DecisionTree" boostWeight="1.0000000000000000e+00" itree="1347">
      <Node pos="s" depth="0" NCoef="0" IVar="14" Cut="-7.1940267086029053e-01" cType="1" res="1.6732442891225219e-03" rms="2.0927137136459351e-01" purity="4.9358010292053223e-01" nType="0">
        <Node pos="l" depth="1" NCoef="0" IVar="1" Cut="2.8998186588287354e+00" cType="1" res="-1.7329709604382515e-02" rms="1.8339060246944427e-01" purity="4.2557004094123840e-01" nType="0">
          <Node pos="l" depth="2" NCoef="0" IVar="-1" Cut="0.0000000000000000e+00" cType="1" res="-2.7026429306715727e-03" rms="7.3114395141601562e-02" purity="1.7755557596683502e-01" nType="-99"/>
          <Node pos="r" depth="2" NCoef="0" IVar="-1" Cut="0.0000000000000000e+00" cType="1" res="1.5700208314228803e-04" rms="2.2088417410850525e-01" purity="5.7064229249954224e-01" nType="-99"/>
        </Node>
        <Node pos="r" depth="1" NCoef="0" IVar="57" Cut="2.6164090633392334e-01" cType="1" res="2.7447102591395378e-02" rms="2.3753687739372253e-01" purity="5.8582270145416260e-01" nType="0">
          <Node pos="l" depth="2" NCoef="0" IVar="-1" Cut="0.0000000000000000e+00" cType="1" res="1.1635731207206845e-03" rms="2.5971299409866333e-01" purity="6.3685059547424316e-01" nType="-99"/>
          <Node pos="r" depth="2" NCoef="0" IVar="-1" Cut="0.0000000000000000e+00" cType="1" res="-1.3123326934874058e-03" rms="8.4777027368545532e-02" purity="3.8814809918403625e-01" nType="-99"/>
        </Node>
      </Node>
    </BinaryTree>
    <BinaryTree type="DecisionTree" boostWeight="1.0000000000000000e+00" itree="1348">
      <Node pos="s" depth="0" NCoef="0" IVar="17" Cut="1.3288018703460693e+00" cType="1" res="8.7718209251761436e-03" rms="2.1179446578025818e-01" purity="4.9813717603683472e-01" nType="0">
        <Node pos="l" depth="1" NCoef="0" IVar="62" Cut="1.6057570278644562e-01" cType="1" res="-1.0631887242197990e-02" rms="0.0000000000000000e+00" purity="-1.1742940172553062e-02" nType="-99"/>
        <Node pos="r" depth="1" NCoef="0" IVar="25" Cut="1.1743133068084717e+00" cType="1" res="2.3809710517525673e-02" rms="2.6073631644248962e-01" purity="6.9658970832824707e-01" nType="0">
          <Node pos="l" depth="2" NCoef="0" IVar="-1" Cut="0.0000000000000000e+00" cType="1" res="6.4465659670531750e-04" rms="2.6417508721351624e-01" purity="7.0744866132736206e-01" nType="-99"/>
          <Node pos="r" depth="2" NCoef="0" IVar="-1" Cut="0.0000000000000000e+00" cType="1" res="-4.6243350952863693e-03" rms="0.0000000000000000e+00" purity="3.5857152938842773e-01" nType="-99"/>
        </Node>
      </Node>
    </BinaryTree>
    <BinaryTree type="DecisionTree" boostWeight="1.0000000000000000e+00" itree="1349">
      <Node pos="s" depth="0" NCoef="0" IVar="18" Cut="-8.4671247005462646e-01" cType="1" res="1.2777108699083328e-02" rms="2.1216109395027161e-01" purity="5.1687502861022949e-01" nType="0">
        <Node pos="l" depth="1" NCoef="0" IVar="17" Cut="1.5220416784286499e+00" cType="1" res="1.7648248001933098e-02" rms="2.1455201506614685e-01" purity="5.3776317834854126e-01" nType="0">
          <Node pos="l" depth="2" NCoef="0" IVar="-1" Cut="0.0000000000000000e+00" cType="1" res="2.1324372937669978e-05" rms="2.1433478593826294e-01" purity="2.8866991400718689e-01" nType="-99"/>
          <Node pos="r" depth="2" NCoef="0" IVar="-1" Cut="0.0000000000000000e+00" cType="1" res="1.1371989967301488e-03" rms="2.1257315576076508e-01" purity="8.8930702209472656e-01" nType="-99"/>
        </Node>
        <Node pos="r" depth="1" NCoef="0" IVar="17" Cut="1.3977029323577881e+00" cType="1" res="-8.7057866156101227e-02" rms="1.1682901531457901e-01" purity="8.8767886161804199e-02" nType="0">
          <Node pos="l" depth="2" NCoef="0" IVar="-1" Cut="0.0000000000000000e+00" cType="1" res="3.1754449009895325e-03" rms="1.0352611541748047e-01" purity="1.2119503691792488e-02" nType="-99"/>
          <Node pos="r" depth="2" NCoef="0" IVar="-1" Cut="0.0000000000000000e+00" cType="1" res="-6.1758882366120815e-03" rms="0.0000000000000000e+00" purity="1.7217196524143219e-01" nType="-99"/>
        </Node>
      </Node>
    </BinaryTree>
    <BinaryTree type="DecisionTree" boostWeight="1.0000000000000000e+00" itree="1350">
      <Node pos="s" depth="0" NCoef="0" IVar="36" Cut="1.2913550138473511e+00" cType="1" res="1.5745611162856221e-03" rms="1.9800564646720886e-01" purity="4.9329152703285217e-01" nType="0">
        <Node pos="l" depth="1" NCoef="0" IVar="48" Cut="2.1436154842376709e+00" cType="1" res="-4.1697723791003227e-03" rms="0.0000000000000000e+00" purity="3.8385957479476929e-02" nType="-99"/>
        <Node pos="r" depth="1" NCoef="0" IVar="7" Cut="-1.3378524780273438e+00" cType="1" res="1.5373513102531433e-02" rms="2.3236674070358276e-01" purity="6.2556350231170654e-01" nType="0">
          <Node pos="l" depth="2" NCoef="0" IVar="-1" Cut="0.0000000000000000e+00" cType="1" res="5.3889700211584568e-04" rms="2.3503008484840393e-01" purity="6.4311927556991577e-01" nType="-99"/>
          <Node pos="r" depth="2" NCoef="0" IVar="-1" Cut="0.0000000000000000e+00" cType="1" res="-4.4392528943717480e-03" rms="0.0000000000000000e+00" purity="5.3581014275550842e-02" nType="-99"/>
        </Node>
      </Node>
    </BinaryTree>
    <BinaryTree type="DecisionTree" boostWeight="1.0000000000000000e+00" itree="1351">
      <Node pos="s" depth="0" NCoef="0" IVar="48" Cut="7.0841461420059204e-01" cType="1" res="9.4933602958917618e-03" rms="2.1008650958538055e-01" purity="5.0972718000411987e-01" nType="0">
        <Node pos="l" depth="1" NCoef="0" IVar="-1" Cut="0.0000000000000000e+00" cType="1" res="-3.8146749138832092e-03" rms="0.0000000000000000e+00" purity="-6.0295802541077137e-03" nType="-99"/>
        <Node pos="r" depth="1" NCoef="0" IVar="52" Cut="3.1248137950897217e+00" cType="1" res="1.3711687177419662e-02" rms="2.1760629117488861e-01" purity="5.2690488100051880e-01" nType="0">
          <Node pos="l" depth="2" NCoef="0" IVar="-1" Cut="0.0000000000000000e+00" cType="1" res="8.8352913735434413e-04" rms="2.3246650397777557e-01" purity="5.5154418945312500e-01" nType="-99"/>
          <Node pos="r" depth="2" NCoef="0" IVar="-1" Cut="0.0000000000000000e+00" cType="1" res="-5.6832097470760345e-04" rms="1.8268443644046783e-01" purity="4.8078447580337524e-01" nType="-99"/>
        </Node>
      </Node>
    </BinaryTree>
    <BinaryTree type="DecisionTree" boostWeight="1.0000000000000000e+00" itree="1352">
      <Node pos="s" depth="0" NCoef="0" IVar="25" Cut="8.1374841928482056e-01" cType="1" res="3.2281260937452316e-03" rms="2.1139355003833771e-01" purity="4.8601952195167542e-01" nType="0">
        <Node pos="l" depth="1" NCoef="0" IVar="10" Cut="3.0877797603607178e+00" cType="1" res="1.0469801723957062e-01" rms="2.9299917817115784e-01" purity="6.3569796085357666e-01" nType="0">
          <Node pos="l" depth="2" NCoef="0" IVar="-1" Cut="0.0000000000000000e+00" cType="1" res="4.1573178023099899e-03" rms="3.6515390872955322e-01" purity="5.9193509817123413e-01" nType="-99"/>
          <Node pos="r" depth="2" NCoef="0" IVar="-1" Cut="0.0000000000000000e+00" cType="1" res="7.3335086926817894e-04" rms="1.8389031291007996e-01" purity="6.7315757274627686e-01" nType="-99"/>
        </Node>
        <Node pos="r" depth="1" NCoef="0" IVar="17" Cut="1.5231137275695801e+00" cType="1" res="-2.3052755277603865e-03" rms="2.0457398891448975e-01" purity="4.7785723209381104e-01" nType="0">
          <Node pos="l" depth="2" NCoef="0" IVar="-1" Cut="0.0000000000000000e+00" cType="1" res="-6.1619287589564919e-04" rms="1.9200015068054199e-01" purity="2.4379707872867584e-01" nType="-99"/>
          <Node pos="r" depth="2" NCoef="0" IVar="-1" Cut="0.0000000000000000e+00" cType="1" res="6.7727442365139723e-04" rms="2.2107410430908203e-01" purity="8.6043864488601685e-01" nType="-99"/>
        </Node>
      </Node>
    </BinaryTree>
    <BinaryTree type="DecisionTree" boostWeight="1.0000000000000000e+00" itree="1353">
      <Node pos="s" depth="0" NCoef="0" IVar="15" Cut="1.5199739933013916e+00" cType="1" res="3.6637615412473679e-03" rms="2.1133917570114136e-01" purity="4.9149850010871887e-01" nType="0">
        <Node pos="l" depth="1" NCoef="0" IVar="36" Cut="7.8829020261764526e-01" cType="1" res="1.1434871703386307e-02" rms="1.9481380283832550e-01" purity="4.9565407633781433e-01" nType="0">
          <Node pos="l" depth="2" NCoef="0" IVar="-1" Cut="0.0000000000000000e+00" cType="1" res="-5.0852182321250439e-03" rms="0.0000000000000000e+00" purity="1.2668467126786709e-02" nType="-99"/>
          <Node pos="r" depth="2" NCoef="0" IVar="-1" Cut="0.0000000000000000e+00" cType="1" res="6.2125048134475946e-04" rms="2.1857136487960815e-01" purity="5.9383291006088257e-01" nType="-99"/>
        </Node>
        <Node pos="r" depth="1" NCoef="0" IVar="15" Cut="1.5409539937973022e+00" cType="1" res="-5.3760088980197906e-02" rms="3.0086022615432739e-01" purity="4.6079111099243164e-01" nType="0">
          <Node pos="l" depth="2" NCoef="0" IVar="-1" Cut="0.0000000000000000e+00" cType="1" res="-2.3892545141279697e-04" rms="3.0088558793067932e-01" purity="5.5589795112609863e-01" nType="-99"/>
          <Node pos="r" depth="2" NCoef="0" IVar="-1" Cut="0.0000000000000000e+00" cType="1" res="-1.4242312870919704e-02" rms="2.3171630501747131e-01" purity="5.8003809303045273e-02" nType="-99"/>
        </Node>
      </Node>
    </BinaryTree>
    <BinaryTree type="DecisionTree" boostWeight="1.0000000000000000e+00" itree="1354">
      <Node pos="s" depth="0" NCoef="0" IVar="68" Cut="1.2345679104328156e-02" cType="1" res="1.7321531195193529e-03" rms="2.0669192075729370e-01" purity="5.0455099344253540e-01" nType="0">
        <Node pos="l" depth="1" NCoef="0" IVar="9" Cut="-6.1728394031524658e-01" cType="1" res="6.5545239485800266e-03" rms="2.0717322826385498e-01" purity="5.1902520656585693e-01" nType="0">
          <Node pos="l" depth="2" NCoef="0" IVar="-1" Cut="0.0000000000000000e+00" cType="1" res="-2.8720640111714602e-03" rms="0.0000000000000000e+00" purity="2.3022252321243286e-01" nType="-99"/>
          <Node pos="r" depth="2" NCoef="0" IVar="-1" Cut="0.0000000000000000e+00" cType="1" res="3.4245150163769722e-04" rms="2.1026119589805603e-01" purity="5.3086566925048828e-01" nType="-99"/>
        </Node>
        <Node pos="r" depth="1" NCoef="0" IVar="49" Cut="-9.5021635293960571e-01" cType="1" res="-1.0089135169982910e-01" rms="1.6569864749908447e-01" purity="1.9652834534645081e-01" nType="0">
          <Node pos="l" depth="2" NCoef="0" IVar="-1" Cut="0.0000000000000000e+00" cType="1" res="-6.9547747261822224e-03" rms="0.0000000000000000e+00" purity="-5.3607709705829620e-02" nType="-99"/>
          <Node pos="r" depth="2" NCoef="0" IVar="-1" Cut="0.0000000000000000e+00" cType="1" res="8.2382315304130316e-04" rms="2.6844036579132080e-01" purity="4.3467786908149719e-01" nType="-99"/>
        </Node>
      </Node>
    </BinaryTree>
    <BinaryTree type="DecisionTree" boostWeight="1.0000000000000000e+00" itree="1355">
      <Node pos="s" depth="0" NCoef="0" IVar="25" Cut="9.5322132110595703e-01" cType="1" res="8.4684584289789200e-03" rms="2.0935241878032684e-01" purity="5.0094163417816162e-01" nType="0">
        <Node pos="l" depth="1" NCoef="0" IVar="19" Cut="5.0355678796768188e-01" cType="1" res="3.5947203636169434e-02" rms="2.3105230927467346e-01" purity="5.7207649946212769e-01" nType="0">
          <Node pos="l" depth="2" NCoef="0" IVar="-1" Cut="0.0000000000000000e+00" cType="1" res="-8.3410739898681641e-04" rms="9.4603225588798523e-02" purity="5.6737214326858521e-01" nType="-99"/>
          <Node pos="r" depth="2" NCoef="0" IVar="-1" Cut="0.0000000000000000e+00" cType="1" res="1.3434665743261576e-03" rms="2.5130930542945862e-01" purity="5.7325857877731323e-01" nType="-99"/>
        </Node>
        <Node pos="r" depth="1" NCoef="0" IVar="48" Cut="1.2478895187377930e+00" cType="1" res="-1.7523948103189468e-02" rms="1.8275333940982819e-01" purity="4.3365436792373657e-01" nType="0">
          <Node pos="l" depth="2" NCoef="0" IVar="-1" Cut="0.0000000000000000e+00" cType="1" res="-3.1077854800969362e-03" rms="0.0000000000000000e+00" purity="1.0410104691982269e-01" nType="-99"/>
          <Node pos="r" depth="2" NCoef="0" IVar="-1" Cut="0.0000000000000000e+00" cType="1" res="-9.5208095444831997e-05" rms="2.1108840405941010e-01" purity="5.1133698225021362e-01" nType="-99"/>
        </Node>
      </Node>
    </BinaryTree>
    <BinaryTree type="DecisionTree" boostWeight="1.0000000000000000e+00" itree="1356">
      <Node pos="s" depth="0" NCoef="0" IVar="36" Cut="1.0588903427124023e+00" cType="1" res="1.2772450223565102e-02" rms="2.2185364365577698e-01" purity="5.0382149219512939e-01" nType="0">
        <Node pos="l" depth="1" NCoef="0" IVar="34" Cut="8.9133107662200928e-01" cType="1" res="-4.2847525328397751e-03" rms="0.0000000000000000e+00" purity="2.0780287683010101e-02" nType="-99"/>
        <Node pos="r" depth="1" NCoef="0" IVar="3" Cut="5.1851282119750977e+00" cType="1" res="2.3537140339612961e-02" rms="2.4719840288162231e-01" purity="6.1023908853530884e-01" nType="0">
          <Node pos="l" depth="2" NCoef="0" IVar="-1" Cut="0.0000000000000000e+00" cType="1" res="4.6314951032400131e-04" rms="2.4086573719978333e-01" purity="6.0858815908432007e-01" nType="-99"/>
          <Node pos="r" depth="2" NCoef="0" IVar="-1" Cut="0.0000000000000000e+00" cType="1" res="3.3806627616286278e-03" rms="3.2037129998207092e-01" purity="6.3801091909408569e-01" nType="-99"/>
        </Node>
      </Node>
    </BinaryTree>
    <BinaryTree type="DecisionTree" boostWeight="1.0000000000000000e+00" itree="1357">
      <Node pos="s" depth="0" NCoef="0" IVar="39" Cut="-2.7796735763549805e+00" cType="1" res="6.7362637491896749e-04" rms="2.0697556436061859e-01" purity="4.9583324790000916e-01" nType="0">
        <Node pos="l" depth="1" NCoef="0" IVar="-1" Cut="0.0000000000000000e+00" cType="1" res="-5.0553209148347378e-03" rms="0.0000000000000000e+00" purity="3.1965059041976929e-01" nType="-99"/>
        <Node pos="r" depth="1" NCoef="0" IVar="57" Cut="7.0875488221645355e-02" cType="1" res="4.4587738811969757e-03" rms="2.1187882125377655e-01" purity="5.0046479701995850e-01" nType="0">
          <Node pos="l" depth="2" NCoef="0" IVar="-1" Cut="0.0000000000000000e+00" cType="1" res="4.8812516615726054e-04" rms="2.2739544510841370e-01" purity="5.5460268259048462e-01" nType="-99"/>
          <Node pos="r" depth="2" NCoef="0" IVar="-1" Cut="0.0000000000000000e+00" cType="1" res="-1.1889938032254577e-03" rms="1.4525546133518219e-01" purity="3.2660183310508728e-01" nType="-99"/>
        </Node>
      </Node>
    </BinaryTree>
    <BinaryTree type="DecisionTree" boostWeight="1.0000000000000000e+00" itree="1358">
      <Node pos="s" depth="0" NCoef="0" IVar="3" Cut="5.3269724845886230e+00" cType="1" res="-2.6787391398102045e-03" rms="1.9607603549957275e-01" purity="4.9439781904220581e-01" nType="0">
        <Node pos="l" depth="1" NCoef="0" IVar="31" Cut="3.2785787582397461e+00" cType="1" res="1.4769502449780703e-03" rms="2.0815610885620117e-01" purity="5.0260490179061890e-01" nType="0">
          <Node pos="l" depth="2" NCoef="0" IVar="-1" Cut="0.0000000000000000e+00" cType="1" res="-5.1203672774136066e-04" rms="1.8606290221214294e-01" purity="4.7216638922691345e-01" nType="-99"/>
          <Node pos="r" depth="2" NCoef="0" IVar="-1" Cut="0.0000000000000000e+00" cType="1" res="9.5437583513557911e-04" rms="2.4308943748474121e-01" purity="5.6379950046539307e-01" nType="-99"/>
        </Node>
        <Node pos="r" depth="1" NCoef="0" IVar="-1" Cut="0.0000000000000000e+00" cType="1" res="-4.3633640743792057e-03" rms="0.0000000000000000e+00" purity="1.9404523074626923e-01" nType="-99"/>
      </Node>
    </BinaryTree>
    <BinaryTree type="DecisionTree" boostWeight="1.0000000000000000e+00" itree="1359">
      <Node pos="s" depth="0" NCoef="0" IVar="17" Cut="1.5231137275695801e+00" cType="1" res="-5.6076864711940289e-03" rms="1.9009341299533844e-01" purity="4.8537054657936096e-01" nType="0">
        <Node pos="l" depth="1" NCoef="0" IVar="43" Cut="1.2345679104328156e-02" cType="1" res="-2.8037076815962791e-02" rms="1.7527946829795837e-01" purity="2.4077528715133667e-01" nType="0">
          <Node pos="l" depth="2" NCoef="0" IVar="-1" Cut="0.0000000000000000e+00" cType="1" res="3.2882106024771929e-03" rms="2.8794044256210327e-01" purity="2.2054442763328552e-01" nType="-99"/>
          <Node pos="r" depth="2" NCoef="0" IVar="-1" Cut="0.0000000000000000e+00" cType="1" res="-1.1807619594037533e-03" rms="1.6218496859073639e-01" purity="2.4216943979263306e-01" nType="-99"/>
        </Node>
        <Node pos="r" depth="1" NCoef="0" IVar="17" Cut="1.5350533723831177e+00" cType="1" res="3.0267404392361641e-02" rms="2.0664252340793610e-01" purity="8.7659287452697754e-01" nType="0">
